<unk>	0
<s>	0
</s>	0
se	-0
▁k	-1
st	-2
▁e	-3
le	-4
▁m	-5
▁t	-6
▁o	-7
si	-8
al	-9
▁v	-10
▁p	-11
in	-12
da	-13
▁se	-14
ja	-15
▁a	-16
ik	-17
te	-18
ta	-19
is	-20
ud	-21
▁on	-22
ma	-23
▁n	-24
ga	-25
ri	-26
▁te	-27
us	-28
▁s	-29
▁l	-30
me	-31
ra	-32
oo	-33
▁et	-34
el	-35
use	-36
it	-37
an	-38
id	-39
ks	-40
▁ka	-41
ise	-42
▁ja	-43
▁ko	-44
ust	-45
ad	-46
ul	-47
▁j	-48
ist	-49
en	-50
ig	-51
▁h	-52
▁ku	-53
lle	-54
ast	-55
▁ma	-56
▁võ	-57
▁ei	-58
gu	-59
ko	-60
es	-61
uu	-62
▁ü	-63
est	-64
▁me	-65
▁si	-66
na	-67
il	-68
▁ole	-69
▁see	-70
▁selle	-71
ee	-72
va	-73
un	-74
äh	-75
tud	-76
▁sa	-77
▁kui	-78
gi	-79
mise	-80
ine	-81
▁"	-82
ii	-83
▁ar	-84
▁või	-85
▁va	-86
ne	-87
ea	-88
ää	-89
▁kü	-90
re	-91
▁ta	-92
▁ri	-93
ku	-94
▁ol	-95
▁vä	-96
de	-97
ti	-98
ha	-99
ro	-100
ge	-101
▁ju	-102
tsi	-103
▁min	-104
ni	-105
▁pal	-106
la	-107
ka	-108
lt	-109
▁riig	-110
▁ra	-111
nd	-112
▁eel	-113
nud	-114
▁eest	-115
tu	-116
▁seda	-117
▁küsi	-118
mis	-119
vad	-120
õu	-121
▁kas	-122
▁siis	-123
val	-124
är	-125
▁ette	-126
▁kõ	-127
ime	-128
ida	-129
ll	-130
▁tu	-131
▁aga	-132
▁tä	-133
uta	-134
öö	-135
▁pea	-136
▁val	-137
ie	-138
▁esi	-139
▁mis	-140
er	-141
▁li	-142
▁in	-143
ki	-144
▁saa	-145
ult	-146
▁küsim	-147
jo	-148
ts	-149
ba	-150
asta	-151
▁oma	-152
et	-153
▁al	-154
usta	-155
itäh	-156
ane	-157
ol	-158
▁koh	-159
▁r	-160
mal	-161
its	-162
nõu	-163
iko	-164
▁mõ	-165
mine	-166
uur	-167
▁la	-168
and	-169
▁õ	-170
kon	-171
lik	-172
▁sead	-173
▁pa	-174
misjo	-175
mi	-176
mist	-177
▁tule	-178
▁palun	-179
▁muu	-180
kse	-181
▁kes	-182
!"	-183
▁eelnõu	-184
▁eesti	-185
sa	-186
▁to	-187
ke	-188
▁üh	-189
▁väga	-190
▁põ	-191
min	-192
▁tõ	-193
tuse	-194
▁nii	-195
ju	-196
tsioo	-197
enda	-198
▁riigiko	-199
tte	-200
aitäh	-201
pe	-202
▁lu	-203
▁töö	-204
ide	-205
."	-206
kt	-207
tle	-208
▁nä	-209
sid	-210
▁1	-211
▁vast	-212
pane	-213
▁na	-214
uste	-215
or	-216
di	-217
nda	-218
▁väl	-219
▁2	-220
▁inime	-221
▁riigikogu	-222
bi	-223
tse	-224
▁üle	-225
vi	-226
ar	-227
▁pro	-228
▁põh	-229
konna	-230
taja	-231
üü	-232
▁mit	-233
▁kor	-234
▁arv	-235
▁rah	-236
▁mida	-237
ool	-238
minist	-239
▁kä	-240
▁seaduse	-241
ika	-242
▁eu	-243
mas	-244
▁kin	-245
ige	-246
kor	-247
võ	-248
takse	-249
▁võimal	-250
▁oli	-251
eeri	-252
▁mi	-253
▁pu	-254
ähe	-255
▁ha	-256
▁ne	-257
▁aasta	-258
eg	-259
▁sell	-260
iks	-261
sta	-262
▁kon	-263
▁tee	-264
ing	-265
alt	-266
iku	-267
▁aru	-268
▁juh	-269
▁siin	-270
ära	-271
ikult	-272
end	-273
▁pra	-274
su	-275
▁f	-276
▁lõ	-277
eed	-278
▁re	-279
▁–	-280
isi	-281
pa	-282
used	-283
▁meie	-284
▁need	-285
ve	-286
▁lä	-287
jal	-288
▁valits	-289
ile	-290
▁hea	-291
▁le	-292
▁tea	-293
eel	-294
selt	-295
äe	-296
▁mille	-297
um	-298
itse	-299
▁suu	-300
komisjo	-301
▁ots	-302
▁kõik	-303
usi	-304
isa	-305
▁loo	-306
▁vastu	-307
ite	-308
▁välja	-309
dl	-310
▁tege	-311
▁minu	-312
tada	-313
im	-314
gel	-315
▁esime	-316
he	-317
▁minist	-318
iselt	-319
▁üks	-320
▁jär	-321
▁sõ	-322
koh	-323
▁suur	-324
▁mitte	-325
ende	-326
▁muuda	-327
igi	-328
▁rää	-329
isu	-330
▁mil	-331
▁jä	-332
▁õig	-333
asti	-334
▁kuida	-335
roo	-336
▁küsimus	-337
ääle	-338
sed	-339
▁ütle	-340
paneku	-341
▁soo	-342
▁nagu	-343
egu	-344
▁mu	-345
ustatud	-346
▁taga	-347
inud	-348
▁as	-349
tus	-350
tsioon	-351
▁koo	-352
▁nende	-353
▁ettek	-354
▁võib	-355
▁20	-356
sse	-357
eri	-358
▁kindl	-359
tsiooni	-360
?"	-361
tel	-362
oli	-363
▁olnud	-364
▁an	-365
▁sel	-366
▁juha	-367
▁oleks	-368
ude	-369
▁kus	-370
▁vii	-371
du	-372
▁praegu	-373
ral	-374
ia	-375
▁komisjo	-376
▁ö	-377
ene	-378
aal	-379
esti	-380
idu	-381
▁neid	-382
▁meil	-383
▁öel	-384
▁maks	-385
▁ning	-386
▁teha	-387
kku	-388
▁veel	-389
dus	-390
▁läbi	-391
ole	-392
pee	-393
jand	-394
ru	-395
pp	-396
▁palju	-397
maks	-398
▁ro	-399
roopa	-400
▁sellest	-401
andja	-402
▁teie	-403
▁kuidas	-404
▁nime	-405
üüd	-406
▁tuleb	-407
▁kolle	-408
ele	-409
▁euroopa	-410
sin	-411
▁luge	-412
▁vaba	-413
ir	-414
▁su	-415
iga	-416
▁kohta	-417
valt	-418
oole	-419
▁esita	-420
▁liik	-421
valits	-422
gupee	-423
▁muudatuse	-424
▁kindlasti	-425
▁riik	-426
▁osa	-427
▁pe	-428
▁tul	-429
as	-430
▁era	-431
tes	-432
▁hääle	-433
▁so	-434
▁tegel	-435
hke	-436
misel	-437
gupeetud	-438
▁vaja	-439
▁juhataja	-440
uses	-441
▁kolleeg	-442
ada	-443
▁täh	-444
▁ül	-445
▁ise	-446
▁liikme	-447
▁näite	-448
▁juba	-449
▁mul	-450
anud	-451
▁omavalits	-452
iste	-453
▁nad	-454
▁võt	-455
▁puud	-456
unud	-457
▁kol	-458
hkem	-459
▁selles	-460
▁pan	-461
at	-462
▁ettekandja	-463
oliit	-464
ised	-465
▁täna	-466
panek	-467
▁tun	-468
▁muudatusette	-469
▁pii	-470
sime	-471
ub	-472
▁kee	-473
ita	-474
▁too	-475
iiv	-476
▁lah	-477
▁nüüd	-478
ble	-479
ike	-480
▁arva	-481
to	-482
▁raha	-483
tsiaal	-484
miseks	-485
▁päe	-486
▁and	-487
▁rohkem	-488
▁minister	-489
korra	-490
minister	-491
blee	-492
▁aast	-493
▁asja	-494
▁juur	-495
nu	-496
ikka	-497
▁ees	-498
hel	-499
▁ke	-500
rak	-501
äär	-502
▁euro	-503
▁ära	-504
▁jää	-505
▁kesk	-506
▁riigi	-507
▁võimalik	-508
▁kel	-509
▁inimest	-510
▁maa	-511
▁frak	-512
▁küsimuse	-513
komisjoni	-514
▁näiteks	-515
ht	-516
▁oleme	-517
▁õigus	-518
▁sotsiaal	-519
▁tegelikult	-520
ega	-521
▁just	-522
▁ain	-523
▁problee	-524
▁kohal	-525
▁vasta	-526
▁ist	-527
▁eh	-528
je	-529
▁sü	-530
▁ter	-531
ingu	-532
▁suure	-533
▁üld	-534
lu	-535
▁mill	-536
▁kokku	-537
▁lugupeetud	-538
▁ikka	-539
▁täi	-540
▁en	-541
▁hin	-542
nan	-543
sti	-544
▁valitsuse	-545
mad	-546
mata	-547
▁teise	-548
▁teine	-549
site	-550
▁seisu	-551
▁kõige	-552
▁küll	-553
▁olul	-554
▁aitäh	-555
äri	-556
▁saab	-557
kka	-558
riigi	-559
▁peaks	-560
▁majand	-561
▁olla	-562
met	-563
des	-564
▁uu	-565
on	-566
mb	-567
▁teh	-568
kond	-569
li	-570
▁vaid	-571
for	-572
▁muut	-573
▁iga	-574
komisjon	-575
▁arvan	-576
ärast	-577
▁seal	-578
▁ühe	-579
▁lähe	-580
▁eda	-581
ministeeri	-582
▁istun	-583
▁kogu	-584
▁arvest	-585
▁201	-586
▁olen	-587
▁austatud	-588
ärra	-589
võt	-590
▁kasuta	-591
▁tagasi	-592
▁juurde	-593
▁järg	-594
▁eri	-595
▁3	-596
▁aastal	-597
sioo	-598
malt	-599
▁sest	-600
vus	-601
▁kir	-602
usega	-603
▁er	-604
▁kuul	-605
tatud	-606
▁öelda	-607
▁aruta	-608
▁päeva	-609
▁he	-610
00	-611
▁täp	-612
üh	-613
ree	-614
▁hakka	-615
▁alga	-616
umi	-617
▁vähe	-618
▁os	-619
▁teema	-620
▁tal	-621
ata	-622
▁vabariigi	-623
mm	-624
maa	-625
▁puuduta	-626
▁puh	-627
lep	-628
▁ming	-629
▁hu	-630
andus	-631
▁olema	-632
▁seo	-633
▁eestis	-634
▁valitsus	-635
▁seisukoh	-636
▁de	-637
tust	-638
▁ainult	-639
▁lisa	-640
▁komisjon	-641
mo	-642
ttu	-643
▁peab	-644
▁il	-645
▁miks	-646
▁ettepaneku	-647
▁hä	-648
adus	-649
▁sellise	-650
▁härra	-651
▁selline	-652
jate	-653
▁olu	-654
▁nõ	-655
▁toe	-656
▁aval	-657
ooli	-658
ksid	-659
▁jät	-660
▁ettepanek	-661
jad	-662
▁taha	-663
▁kuna	-664
▁sellega	-665
▁teile	-666
ua	-667
lus	-668
▁võiks	-669
▁juhti	-670
▁põhj	-671
oolt	-672
▁eelar	-673
▁ena	-674
▁lih	-675
ides	-676
▁majandus	-677
▁jõ	-678
▁tar	-679
vest	-680
äära	-681
▁soovi	-682
▁nõu	-683
▁u	-684
poole	-685
▁lihts	-686
▁lõpe	-687
mär	-688
kas	-689
rakonna	-690
▁5	-691
▁midagi	-692
▁ega	-693
stee	-694
liku	-695
▁keh	-696
▁võtta	-697
dan	-698
▁mina	-699
▁men	-700
▁lugemine	-701
▁puhul	-702
aduse	-703
endada	-704
▁võr	-705
rite	-706
▁""	-707
▁kelle	-708
tab	-709
▁sellele	-710
rää	-711
men	-712
tro	-713
▁menet	-714
▁ajal	-715
usel	-716
▁d	-717
▁enam	-718
▁korral	-719
▁olemas	-720
▁teen	-721
▁edasi	-722
olla	-723
tav	-724
rääki	-725
stu	-726
▁küsimusi	-727
▁kah	-728
▁selleks	-729
▁komisjoni	-730
▁vali	-731
▁kaitse	-732
▁rahandus	-733
▁ehk	-734
kõ	-735
▁poliit	-736
▁liidu	-737
▁väh	-738
▁toim	-739
kra	-740
▁st	-741
inna	-742
▁kolleegid	-743
▁enne	-744
▁para	-745
mu	-746
▁4	-747
▁kõne	-748
oodi	-749
▁peale	-750
▁läh	-751
▁läbirääki	-752
konda	-753
▁terv	-754
▁saal	-755
ama	-756
ande	-757
▁lap	-758
▁head	-759
kord	-760
▁last	-761
▁esinda	-762
▁par	-763
▁toet	-764
mul	-765
▁miljo	-766
▁inimesed	-767
▁ala	-768
uuri	-769
usa	-770
sel	-771
troll	-772
▁kul	-773
▁ikkagi	-774
▁eesmär	-775
vate	-776
vat	-777
▁joo	-778
▁aja	-779
kir	-780
▁isi	-781
▁ho	-782
▁eurot	-783
rid	-784
▁hal	-785
ab	-786
▁seadus	-787
▁räägi	-788
juta	-789
gus	-790
ala	-791
kree	-792
▁po	-793
▁kõr	-794
▁amet	-795
▁konkree	-796
▁pär	-797
päri	-798
itu	-799
▁mär	-800
usest	-801
▁poolt	-802
▁suh	-803
▁arupäri	-804
▁rääk	-805
▁näe	-806
▁muutmise	-807
ula	-808
▁vah	-809
▁probleem	-810
▁käi	-811
▁kaa	-812
res	-813
▁vaata	-814
▁pare	-815
▁kri	-816
kogu	-817
hu	-818
▁kii	-819
▁esimene	-820
tas	-821
kk	-822
idi	-823
▁arutel	-824
ter	-825
ina	-826
tan	-827
▁mõtte	-828
▁koha	-829
▁us	-830
por	-831
▁mõist	-832
ikud	-833
nit	-834
▁lõpp	-835
nes	-836
▁fraktsioon	-837
▁koos	-838
päe	-839
▁teist	-840
mised	-841
▁juhtiv	-842
fo	-843
▁mitme	-844
dud	-845
▁maksu	-846
▁teki	-847
▁pole	-848
▁tema	-849
pal	-850
ktiiv	-851
misega	-852
▁b	-853
▁üles	-854
▁erine	-855
▁puudutab	-856
gil	-857
▁meel	-858
enud	-859
▁saada	-860
▁otsusta	-861
▁tõesti	-862
asi	-863
ensi	-864
▁loomul	-865
moodi	-866
▁viima	-867
ran	-868
▁otsuse	-869
▁pärast	-870
▁põhise	-871
ssi	-872
▁lihtsalt	-873
▁määra	-874
▁kaasa	-875
imõ	-876
""	-877
▁liig	-878
itud	-879
▁kaks	-880
ndi	-881
esi	-882
itsioo	-883
▁rahva	-884
▁vaada	-885
mus	-886
▁ela	-887
vik	-888
▁selge	-889
▁lõp	-890
▁võe	-891
▁kinni	-892
llu	-893
tele	-894
▁ase	-895
endab	-896
likult	-897
kti	-898
mme	-899
misi	-900
gra	-901
▁ettevõt	-902
▁poole	-903
▁konkreetse	-904
mat	-905
▁loomulikult	-906
jär	-907
▁natu	-908
▁au	-909
▁esimees	-910
ril	-911
poliit	-912
▁vald	-913
ade	-914
▁päevakorra	-915
▁eks	-916
kus	-917
▁saanud	-918
▁protse	-919
▁mar	-920
▁üldse	-921
▁ühis	-922
▁kool	-923
ministeeriumi	-924
▁6	-925
anda	-926
▁päris	-927
▁käsi	-928
▁anna	-929
▁refor	-930
▁kontroll	-931
▁nend	-932
ilise	-933
test	-934
▁fraktsiooni	-935
▁pida	-936
ses	-937
▁jao	-938
nõ	-939
▁hästi	-940
▁asi	-941
▁enda	-942
▁jooks	-943
▁huvi	-944
▁kom	-945
▁hul	-946
tõ	-947
▁kahe	-948
▁olete	-949
vast	-950
misele	-951
austatud	-952
▁sisse	-953
elda	-954
pro	-955
ksi	-956
▁tänu	-957
▁kal	-958
ktsi	-959
ule	-960
▁samas	-961
maal	-962
▁juhul	-963
▁tah	-964
nast	-965
oleku	-966
▁mõne	-967
▁sõna	-968
gist	-969
▁sis	-970
tl	-971
vaid	-972
▁seisukoht	-973
õh	-974
tusele	-975
kü	-976
▁eesi	-977
▁eesistu	-978
vahel	-979
misest	-980
▁7	-981
▁riigie	-982
▁saalis	-983
▁vi	-984
▁jah	-985
guse	-986
ood	-987
▁inimeste	-988
▁põhimõ	-989
▁teada	-990
▁jõu	-991
lan	-992
▁kult	-993
▁tehtud	-994
hääle	-995
tavad	-996
oor	-997
ilt	-998
▁seaduseel	-999
konnas	-1000
▁tähe	-1001
tee	-1002
elt	-1003
▁sama	-1004
▁miljonit	-1005
▁elu	-1006
kirja	-1007
▁g	-1008
▁olid	-1009
▁ni	-1010
▁aren	-1011
endi	-1012
rd	-1013
anu	-1014
▁soov	-1015
▁jooksul	-1016
▁keegi	-1017
▁tulu	-1018
▁kau	-1019
▁teinud	-1020
iline	-1021
▁välis	-1022
tis	-1023
mokra	-1024
les	-1025
▁korda	-1026
▁tegemist	-1027
ustada	-1028
▁tead	-1029
▁istungi	-1030
▁palj	-1031
umb	-1032
korda	-1033
ridus	-1034
testa	-1035
▁pensi	-1036
elar	-1037
tit	-1038
▁sise	-1039
▁rahvus	-1040
▁pere	-1041
▁oluline	-1042
▁parla	-1043
▁õige	-1044
▁sellist	-1045
000	-1046
▁aastat	-1047
▁anda	-1048
ustus	-1049
▁lo	-1050
▁nimel	-1051
▁kord	-1052
pun	-1053
▁tegele	-1054
▁anal	-1055
▁ühte	-1056
ho	-1057
kan	-1058
▁vene	-1059
nist	-1060
▁kuid	-1061
▁riigieelar	-1062
▁seotud	-1063
▁mä	-1064
▁rak	-1065
eer	-1066
alitsioo	-1067
sus	-1068
▁näh	-1069
tiiv	-1070
▁eesistuja	-1071
▁invest	-1072
nna	-1073
▁tõsi	-1074
▁siiski	-1075
▁ve	-1076
▁aega	-1077
▁õpe	-1078
tame	-1079
▁käsitle	-1080
gen	-1081
▁eelarve	-1082
alu	-1083
maksu	-1084
▁aeg	-1085
▁kohtu	-1086
▁sil	-1087
▁teatud	-1088
▁lep	-1089
tt	-1090
tusi	-1091
mused	-1092
▁meile	-1093
▁pik	-1094
▁keskkonna	-1095
▁minutit	-1096
pärast	-1097
▁kolm	-1098
▁keske	-1099
▁õp	-1100
▁pi	-1101
▁jaoks	-1102
▁mingi	-1103
usele	-1104
ksime	-1105
kur	-1106
▁jõud	-1107
be	-1108
▁ongi	-1109
mel	-1110
▁nel	-1111
▁isegi	-1112
▁mulle	-1113
▁ilm	-1114
▁eesmärk	-1115
▁inimesi	-1116
▁arvesta	-1117
gust	-1118
▁seaduseelnõu	-1119
kel	-1120
▁tall	-1121
▁peaminister	-1122
tanud	-1123
▁korra	-1124
▁hääletada	-1125
▁arutelu	-1126
ingi	-1127
rist	-1128
▁jul	-1129
▁sä	-1130
esse	-1131
ani	-1132
▁väik	-1133
meti	-1134
▁täiesti	-1135
ministri	-1136
tega	-1137
▁tähendab	-1138
väär	-1139
useks	-1140
poolest	-1141
▁tõe	-1142
▁süstee	-1143
tuste	-1144
▁pla	-1145
uua	-1146
▁kolma	-1147
▁läheb	-1148
▁alla	-1149
set	-1150
gelt	-1151
▁esitatud	-1152
must	-1153
ste	-1154
▁tähelep	-1155
▁algatatud	-1156
▁analüü	-1157
▁asu	-1158
▁lahend	-1159
▁piiri	-1160
▁arvates	-1161
▁komisjonis	-1162
õig	-1163
▁meele	-1164
▁ti	-1165
muti	-1166
▁tuleks	-1167
▁järgi	-1168
gia	-1169
▁ab	-1170
▁reform	-1171
▁täpselt	-1172
▁mõttes	-1173
▁oo	-1174
▁hel	-1175
tub	-1176
▁ministeeri	-1177
anne	-1178
▁lae	-1179
▁–,	-1180
▁vahe	-1181
▁eral	-1182
▁piir	-1183
▁eelnõ	-1184
▁tegev	-1185
▁omavalitsuste	-1186
uks	-1187
▁koost	-1188
poliitika	-1189
▁koalitsioo	-1190
▁tegu	-1191
▁samuti	-1192
▁tõepoolest	-1193
▁sellel	-1194
▁jääb	-1195
▁kehti	-1196
▁palga	-1197
naal	-1198
kata	-1199
▁leid	-1200
▁keel	-1201
▁menetle	-1202
▁siia	-1203
üstee	-1204
▁vahel	-1205
▁küsimust	-1206
▁ele	-1207
▁haridus	-1208
rele	-1209
▁võimalus	-1210
▁liiget	-1211
▁sum	-1212
gune	-1213
▁teiste	-1214
▁juhtivkomisjoni	-1215
ange	-1216
vas	-1217
▁eba	-1218
▁ettevõ	-1219
iv	-1220
▁hoo	-1221
▁pool	-1222
▁tas	-1223
▁tähelepanu	-1224
▁sisul	-1225
▁saavad	-1226
▁kuidagi	-1227
▁ig	-1228
ikku	-1229
▁peame	-1230
▁van	-1231
▁all	-1232
▁muidu	-1233
▁lapse	-1234
▁praeg	-1235
▁kõig	-1236
▁kahju	-1237
▁kodu	-1238
miste	-1239
▁päevakorrapun	-1240
▁mo	-1241
▁liikmed	-1242
rit	-1243
▁vab	-1244
▁alati	-1245
muse	-1246
pealt	-1247
▁arengu	-1248
▁tallinna	-1249
po	-1250
▁hinnan	-1251
▁rääki	-1252
▁pun	-1253
▁kirja	-1254
▁minna	-1255
ministeerium	-1256
▁8	-1257
▁luba	-1258
▁väär	-1259
▁teil	-1260
▁sinna	-1261
▁inimene	-1262
▁vähemalt	-1263
▁nr	-1264
▁põhimõtte	-1265
ktsiisi	-1266
▁koostöö	-1267
pidi	-1268
▁esitanud	-1269
▁mingisu	-1270
▁di	-1271
▁otse	-1272
igem	-1273
▁konse	-1274
mini	-1275
▁suuna	-1276
▁põhiseadus	-1277
▁kasva	-1278
hea	-1279
▁põllu	-1280
▁isik	-1281
▁no	-1282
ksa	-1283
▁natuke	-1284
▁pigem	-1285
gan	-1286
oni	-1287
kaitse	-1288
tun	-1289
▁kan	-1290
tama	-1291
▁rääkida	-1292
▁täis	-1293
idele	-1294
tajate	-1295
▁tänan	-1296
teen	-1297
▁kõnet	-1298
▁andme	-1299
vu	-1300
sest	-1301
gul	-1302
sna	-1303
▁abi	-1304
teeri	-1305
▁tulevik	-1306
▁vajal	-1307
rul	-1308
▁sta	-1309
▁põhjal	-1310
duse	-1311
▁rea	-1312
▁tundu	-1313
▁täps	-1314
▁mõju	-1315
▁keele	-1316
seid	-1317
palun	-1318
idega	-1319
seks	-1320
vä	-1321
▁kuni	-1322
▁kiir	-1323
majand	-1324
▁panna	-1325
5.	-1326
▁osale	-1327
▁keskerakonna	-1328
▁ras	-1329
▁nimelt	-1330
▁ava	-1331
▁teeb	-1332
▁pöö	-1333
▁10	-1334
▁alkoh	-1335
demokra	-1336
▁000	-1337
olitse	-1338
▁vale	-1339
▁räägime	-1340
mber	-1341
tä	-1342
▁läbirääkimised	-1343
olu	-1344
▁saaks	-1345
▁millest	-1346
tne	-1347
▁arusa	-1348
▁200	-1349
▁lii	-1350
▁posi	-1351
▁sele	-1352
▁tööd	-1353
nis	-1354
▁erakonna	-1355
nad	-1356
dab	-1357
▁toh	-1358
▁info	-1359
▁rahvusvahel	-1360
▁kül	-1361
▁väike	-1362
▁paljud	-1363
▁tulene	-1364
am	-1365
kto	-1366
▁ki	-1367
▁nõus	-1368
tule	-1369
ista	-1370
▁piisa	-1371
▁kätte	-1372
kuse	-1373
gev	-1374
▁valmis	-1375
▁reformie	-1376
onaal	-1377
▁mõtle	-1378
7.	-1379
aste	-1380
▁üsna	-1381
idest	-1382
▁jü	-1383
▁olukorra	-1384
▁kuu	-1385
▁vaadata	-1386
▁isiku	-1387
elikult	-1388
ksin	-1389
▁mõistlik	-1390
▁kõnetooli	-1391
iva	-1392
▁sotsiaaldemokra	-1393
del	-1394
▁kõigepealt	-1395
▁peavad	-1396
▁toetust	-1397
▁kirjuta	-1398
▁muidugi	-1399
▁milline	-1400
▁per	-1401
▁olukord	-1402
▁võime	-1403
▁kuj	-1404
▁tekk	-1405
▁tegi	-1406
▁mak	-1407
utada	-1408
▁esindaja	-1409
▁konkur	-1410
▁maail	-1411
las	-1412
pool	-1413
rem	-1414
toet	-1415
ven	-1416
▁laste	-1417
▁ütlen	-1418
▁19	-1419
▁haldus	-1420
tõttu	-1421
▁parlame	-1422
ris	-1423
▁kao	-1424
▁seetõttu	-1425
▁ettekande	-1426
▁umb	-1427
inan	-1428
▁otsus	-1429
tuks	-1430
lugupeetud	-1431
▁kulu	-1432
anema	-1433
riik	-1434
kes	-1435
ame	-1436
ali	-1437
▁elekt	-1438
▁avalik	-1439
▁tahan	-1440
▁saame	-1441
▁igal	-1442
kust	-1443
▁auto	-1444
dada	-1445
▁järele	-1446
▁oska	-1447
▁esimese	-1448
▁kultuuri	-1449
ate	-1450
▁rahasta	-1451
▁tegema	-1452
nil	-1453
▁saan	-1454
▁seadust	-1455
▁sõlt	-1456
▁kolmanda	-1457
▁küsin	-1458
▁vee	-1459
▁mitu	-1460
▁selgelt	-1461
6.	-1462
▁kell	-1463
kla	-1464
▁uue	-1465
▁kehtesta	-1466
tamise	-1467
refor	-1468
▁täit	-1469
▁rääg	-1470
▁ütlesin	-1471
▁tao	-1472
▁mõte	-1473
▁julge	-1474
nn	-1475
▁lõpetada	-1476
▁inimese	-1477
teks	-1478
▁täienda	-1479
▁eriti	-1480
▁juhtu	-1481
▁võetud	-1482
▁hinna	-1483
▁lü	-1484
▁tek	-1485
udu	-1486
▁do	-1487
1.	-1488
usse	-1489
▁alusel	-1490
üm	-1491
▁kohalik	-1492
panekute	-1493
▁finan	-1494
uda	-1495
▁sul	-1496
▁tut	-1497
▁liit	-1498
▁pre	-1499
▁9	-1500
riig	-1501
▁meet	-1502
▁tõttu	-1503
ment	-1504
▁kand	-1505
▁lange	-1506
▁het	-1507
▁ilmselt	-1508
kul	-1509
▁tõsta	-1510
▁teid	-1511
▁plaan	-1512
võime	-1513
tustule	-1514
▁pension	-1515
▁ene	-1516
▁prakt	-1517
▁huv	-1518
tsle	-1519
▁res	-1520
▁ümber	-1521
▁pean	-1522
▁teadus	-1523
vii	-1524
adi	-1525
▁suurem	-1526
▁erapoole	-1527
▁hil	-1528
▁nõukogu	-1529
▁tähtaja	-1530
▁eelkõ	-1531
▁õpp	-1532
▁küsimuste	-1533
lased	-1534
▁jaan	-1535
▁probleemi	-1536
▁analüüsi	-1537
▁pri	-1538
▁sellepärast	-1539
▁neile	-1540
▁regist	-1541
alist	-1542
▁kohust	-1543
▁millega	-1544
suur	-1545
▁järgmise	-1546
▁pee	-1547
▁olulise	-1548
▁küsimusele	-1549
ades	-1550
▁investeer	-1551
▁tulevikus	-1552
▁püü	-1553
▁politse	-1554
▁teeme	-1555
▁summa	-1556
▁istung	-1557
uvad	-1558
▁muuta	-1559
3.	-1560
▁muud	-1561
▁asjad	-1562
os	-1563
▁lahenda	-1564
▁tase	-1565
dust	-1566
▁kohaselt	-1567
töö	-1568
▁vähem	-1569
▁neil	-1570
▁nelja	-1571
päeva	-1572
▁loodan	-1573
▁tasu	-1574
▁end	-1575
▁öelnud	-1576
▁millise	-1577
▁ütles	-1578
▁12	-1579
▁hääletusele	-1580
▁kunagi	-1581
▁kasutada	-1582
▁hakkab	-1583
▁vaatame	-1584
kui	-1585
▁teame	-1586
▁riigieelarve	-1587
▁kodan	-1588
▁ilma	-1589
ganisa	-1590
pis	-1591
▁alkoholi	-1592
▁annab	-1593
▁jäänud	-1594
▁liige	-1595
▁viia	-1596
▁main	-1597
▁näd	-1598
entsi	-1599
▁niisu	-1600
▁mure	-1601
likud	-1602
▁niimoodi	-1603
itsi	-1604
▁aita	-1605
▁umbes	-1606
▁or	-1607
luse	-1608
▁võrd	-1609
▁kuigi	-1610
▁varem	-1611
▁1.	-1612
▁mingit	-1613
▁maksta	-1614
põh	-1615
▁elan	-1616
▁usun	-1617
van	-1618
▁kõiki	-1619
kantsle	-1620
▁istungil	-1621
▁linna	-1622
jaid	-1623
suse	-1624
alise	-1625
▁kõrge	-1626
▁puu	-1627
iliselt	-1628
▁raske	-1629
▁tur	-1630
ati	-1631
mne	-1632
dame	-1633
▁teiseks	-1634
4.	-1635
▁sees	-1636
ume	-1637
▁kar	-1638
▁selliseid	-1639
▁mõni	-1640
hin	-1641
▁tarbi	-1642
▁kooli	-1643
ms	-1644
vald	-1645
▁põhimõttel	-1646
▁proua	-1647
▁selgi	-1648
erakonna	-1649
▁meelest	-1650
▁möö	-1651
endus	-1652
▁riigikogus	-1653
▁kõnes	-1654
▁vara	-1655
▁ligi	-1656
enä	-1657
spe	-1658
▁lisaks	-1659
leeri	-1660
nik	-1661
▁tulnud	-1662
▁alusta	-1663
▁mad	-1664
▁jälle	-1665
▁es	-1666
ent	-1667
pii	-1668
▁kuhu	-1669
▁vol	-1670
elu	-1671
eerida	-1672
▁näita	-1673
▁omavalitsuse	-1674
▁tuua	-1675
seaduse	-1676
tava	-1677
▁tervise	-1678
▁eelnõuga	-1679
▁tehakse	-1680
▁millised	-1681
useid	-1682
▁tulla	-1683
gula	-1684
▁väikse	-1685
mar	-1686
▁eelarv	-1687
▁kuts	-1688
hoi	-1689
kad	-1690
tused	-1691
▁toime	-1692
indl	-1693
▁alg	-1694
kondade	-1695
htu	-1696
▁15	-1697
iits	-1698
▁kur	-1699
▁nor	-1700
▁esitada	-1701
▁tõenä	-1702
iti	-1703
▁ministri	-1704
pi	-1705
▁nendest	-1706
▁paranda	-1707
▁täielikult	-1708
▁võrr	-1709
▁justiits	-1710
koha	-1711
▁arvu	-1712
▁kellel	-1713
▁konsen	-1714
taks	-1715
▁sisu	-1716
pu	-1717
▁ä	-1718
▁näha	-1719
▁valimis	-1720
▁keerul	-1721
▁lai	-1722
▁liiga	-1723
▁lüh	-1724
8.	-1725
▁tuli	-1726
▁koalitsiooni	-1727
▁vähene	-1728
▁asju	-1729
▁andres	-1730
▁läbirääkimisi	-1731
lust	-1732
▁kolme	-1733
▁tingi	-1734
▁hulga	-1735
▁kontrolli	-1736
lo	-1737
▁eelkõige	-1738
maid	-1739
▁kohaliku	-1740
▁toimub	-1741
▁hoopis	-1742
jää	-1743
▁juht	-1744
▁kohe	-1745
▁riigika	-1746
tamine	-1747
▁õiguskantsle	-1748
▁tervis	-1749
▁pakku	-1750
raha	-1751
▁kaudu	-1752
▁sisuliselt	-1753
▁juhtivkomisjon	-1754
ilist	-1755
▁noor	-1756
oloo	-1757
dakond	-1758
▁rakenda	-1759
▁samm	-1760
▁eelmise	-1761
▁jaga	-1762
▁jne	-1763
▁mäle	-1764
▁arvestada	-1765
▁laie	-1766
igus	-1767
hti	-1768
idel	-1769
▁paku	-1770
▁põllumajand	-1771
▁rõh	-1772
tsa	-1773
▁küsida	-1774
▁tunnist	-1775
▁saav	-1776
▁võik	-1777
▁seletus	-1778
▁pää	-1779
▁ühes	-1780
▁üleva	-1781
tatakse	-1782
▁kahjuks	-1783
▁tundub	-1784
▁reaal	-1785
▁inimestele	-1786
▁ida	-1787
▁kval	-1788
▁positiiv	-1789
ustega	-1790
ruu	-1791
noo	-1792
▁kümme	-1793
▁aktsiisi	-1794
kava	-1795
▁uus	-1796
▁võtnud	-1797
▁tegevus	-1798
likku	-1799
gl	-1800
▁kat	-1801
▁komp	-1802
▁mind	-1803
▁olukorda	-1804
▁tekib	-1805
0.	-1806
vah	-1807
▁ütleb	-1808
rakond	-1809
▁toi	-1810
dega	-1811
▁ur	-1812
▁ütlesite	-1813
▁presid	-1814
no	-1815
▁vähenda	-1816
kene	-1817
▁hinda	-1818
ikomisjo	-1819
▁meetme	-1820
kki	-1821
▁esitamise	-1822
▁koosse	-1823
▁mood	-1824
▁küsija	-1825
▁seoses	-1826
uma	-1827
▁spe	-1828
oove	-1829
pida	-1830
tist	-1831
▁pane	-1832
▁riigis	-1833
ktor	-1834
▁tohi	-1835
▁tõus	-1836
kohal	-1837
▁teisi	-1838
▁sealt	-1839
ikat	-1840
▁hakkama	-1841
▁leidnud	-1842
▁riigikaitse	-1843
▁pidada	-1844
per	-1845
▁sai	-1846
pordi	-1847
▁tutv	-1848
ari	-1849
▁ker	-1850
▁pü	-1851
aega	-1852
▁reformierakonna	-1853
▁alles	-1854
▁seega	-1855
ümna	-1856
▁ühel	-1857
▁lõpphääle	-1858
▁soome	-1859
küsi	-1860
▁silmas	-1861
nt	-1862
▁kaalu	-1863
▁panen	-1864
reformi	-1865
▁eraldi	-1866
▁tegutse	-1867
▁ap	-1868
▁peal	-1869
lli	-1870
mista	-1871
▁punkt	-1872
▁lepingu	-1873
▁ener	-1874
▁id	-1875
▁täiskogu	-1876
▁siit	-1877
▁panga	-1878
▁kujun	-1879
esime	-1880
vale	-1881
▁jätta	-1882
▁tähtajaks	-1883
▁seis	-1884
tuses	-1885
▁omavalitsus	-1886
mõ	-1887
▁järgmisel	-1888
▁korralda	-1889
kaal	-1890
musi	-1891
▁näeme	-1892
ümnaasi	-1893
guleeri	-1894
tavasti	-1895
ss	-1896
iki	-1897
▁esiteks	-1898
▁miin	-1899
kä	-1900
▁muude	-1901
▁mõn	-1902
adust	-1903
panekut	-1904
▁mart	-1905
hääletustule	-1906
▁jäi	-1907
▁mõel	-1908
▁doku	-1909
▁tasa	-1910
komisjonis	-1911
▁läinud	-1912
posi	-1913
ktori	-1914
▁kust	-1915
▁proje	-1916
▁töötu	-1917
▁juttu	-1918
rukt	-1919
▁otsust	-1920
rah	-1921
pära	-1922
▁vahea	-1923
vit	-1924
kassa	-1925
ini	-1926
gud	-1927
▁rõ	-1928
▁ef	-1929
▁ministeerium	-1930
gram	-1931
▁kodakond	-1932
▁endale	-1933
▁venemaa	-1934
▁kirjas	-1935
▁meelde	-1936
tänan	-1937
▁hakata	-1938
▁mõned	-1939
▁lähtu	-1940
▁õpetaja	-1941
▁käigus	-1942
▁arupärimise	-1943
▁var	-1944
eeritud	-1945
▁koosta	-1946
▁dis	-1947
▁müü	-1948
▁tunne	-1949
õp	-1950
▁jõudnud	-1951
mene	-1952
▁teemat	-1953
▁ennast	-1954
ili	-1955
▁hü	-1956
▁hetkel	-1957
ev	-1958
sur	-1959
dele	-1960
loo	-1961
guseid	-1962
▁ettevõtte	-1963
süstee	-1964
▁mine	-1965
atliku	-1966
udega	-1967
▁laen	-1968
▁ettekandjale	-1969
▁reguleeri	-1970
▁liikmete	-1971
▁koht	-1972
▁kultuur	-1973
▁uur	-1974
▁teemal	-1975
sete	-1976
▁leida	-1977
▁suhtes	-1978
▁leia	-1979
valve	-1980
▁keda	-1981
▁ühtegi	-1982
▁sellised	-1983
korral	-1984
▁konkurentsi	-1985
▁võimalust	-1986
▁viis	-1987
▁küsimused	-1988
vasta	-1989
isse	-1990
▁üksi	-1991
▁han	-1992
oori	-1993
gnoo	-1994
▁jätku	-1995
▁käib	-1996
▁kõnesoove	-1997
▁paremini	-1998
▁un	-1999
▁deba	-2000
sil	-2001
▁plan	-2002
▁süsteem	-2003
peal	-2004
▁rahul	-2005
▁investeeringu	-2006
▁arvestamata	-2007
rans	-2008
▁nendele	-2009
▁suuda	-2010
0%	-2011
▁teised	-2012
▁uuri	-2013
▁elektri	-2014
▁suurenda	-2015
▁menetlus	-2016
▁probleeme	-2017
▁liiku	-2018
▁vajalik	-2019
▁regula	-2020
▁mõjuta	-2021
ur	-2022
▁infor	-2023
▁põhjus	-2024
▁võivad	-2025
jest	-2026
▁maha	-2027
▁kasu	-2028
oma	-2029
edi	-2030
ten	-2031
..	-2032
▁seletuskirja	-2033
▁vastus	-2034
tuid	-2035
▁lõpuks	-2036
▁natukene	-2037
▁osas	-2038
idus	-2039
▁jüri	-2040
▁otsused	-2041
▁antud	-2042
▁ülesanne	-2043
▁toeta	-2044
▁peaksid	-2045
▁seaduste	-2046
▁võimaluse	-2047
▁oleksid	-2048
▁päevakorrapunkt	-2049
▁ettevõte	-2050
▁vastata	-2051
▁ree	-2052
last	-2053
▁helme	-2054
▁kümne	-2055
▁organisa	-2056
▁seaduses	-2057
sust	-2058
▁süsteemi	-2059
lev	-2060
▁kooskõ	-2061
▁lisaaega	-2062
▁jõust	-2063
▁omavalitsused	-2064
▁parem	-2065
▁julgeoleku	-2066
▁ravi	-2067
andust	-2068
▁tõenäol	-2069
▁ga	-2070
▁aus	-2071
tluse	-2072
▁nar	-2073
mast	-2074
▁puudub	-2075
▁juures	-2076
sele	-2077
▁pä	-2078
▁käest	-2079
pan	-2080
mistel	-2081
osa	-2082
▁vanema	-2083
uuda	-2084
head	-2085
▁kiire	-2086
hoiu	-2087
▁pensioni	-2088
geid	-2089
lepingu	-2090
▁otsi	-2091
▁esindajad	-2092
▁avan	-2093
tar	-2094
oot	-2095
kool	-2096
▁millele	-2097
▁ris	-2098
▁kohustus	-2099
ak	-2100
▁õppe	-2101
▁sun	-2102
▁riikide	-2103
▁võin	-2104
võrd	-2105
▁ülik	-2106
▁aseesime	-2107
fitse	-2108
▁samal	-2109
▁hääleta	-2110
▁määr	-2111
jatele	-2112
▁dire	-2113
▁järel	-2114
▁tulevad	-2115
▁tulumaksu	-2116
gude	-2117
▁lin	-2118
▁öeldud	-2119
▁riigil	-2120
koor	-2121
▁toetus	-2122
kesk	-2123
▁kohalike	-2124
▁äri	-2125
▁kõigile	-2126
umis	-2127
▁har	-2128
▁ettepanekut	-2129
▁kusk	-2130
2.	-2131
▁kolmas	-2132
▁taotle	-2133
▁alates	-2134
▁parlamend	-2135
▁jäl	-2136
▁pika	-2137
▁tööle	-2138
line	-2139
▁edas	-2140
▁hulgas	-2141
matu	-2142
▁täpsusta	-2143
▁oposi	-2144
▁etteval	-2145
▁toetada	-2146
▁toot	-2147
taht	-2148
▁piisavalt	-2149
▁ellu	-2150
poolt	-2151
siooni	-2152
ktsioon	-2153
▁peaksime	-2154
võr	-2155
▁kava	-2156
▁välj	-2157
▁harid	-2158
▁liikmes	-2159
▁põhjust	-2160
võtte	-2161
▁regi	-2162
▁järje	-2163
▁vabaerakonna	-2164
▁maja	-2165
tasu	-2166
ikogu	-2167
9.	-2168
ser	-2169
mbril	-2170
▁osuta	-2171
▁isa	-2172
hha	-2173
▁muutu	-2174
▁samamoodi	-2175
▁kutse	-2176
▁piira	-2177
▁sõl	-2178
male	-2179
tek	-2180
▁rõhuta	-2181
▁eelnõus	-2182
▁võtame	-2183
▁loe	-2184
▁luua	-2185
▁lõppenud	-2186
eldes	-2187
▁nove	-2188
seeri	-2189
neb	-2190
itus	-2191
järg	-2192
▁ehita	-2193
▁haige	-2194
▁hilje	-2195
20	-2196
▁pöör	-2197
▁hinnangul	-2198
▁tõenäoliselt	-2199
▁toimi	-2200
endatud	-2201
▁meid	-2202
▁kättesa	-2203
ivar	-2204
▁poliitika	-2205
▁tuge	-2206
▁jaanua	-2207
minaal	-2208
▁kommen	-2209
udel	-2210
▁spetsi	-2211
▁kokkulep	-2212
▁usal	-2213
hhail	-2214
kindl	-2215
▁miljoni	-2216
▁osal	-2217
ikaas	-2218
väe	-2219
meet	-2220
kest	-2221
▁koge	-2222
▁esimehe	-2223
▁tunn	-2224
▁lau	-2225
miselt	-2226
▁kvalite	-2227
kri	-2228
▁pand	-2229
▁ula	-2230
▁tõst	-2231
ääl	-2232
▁sen	-2233
▁mõle	-2234
▁töökoh	-2235
orite	-2236
bje	-2237
▁sätesta	-2238
▁riigikon	-2239
▁küsimuses	-2240
▁vastust	-2241
▁toob	-2242
▁pealt	-2243
▁ühine	-2244
▁käitu	-2245
▁sellesse	-2246
▁ühiskonna	-2247
än	-2248
ena	-2249
▁töökorra	-2250
tuleku	-2251
▁heaks	-2252
▁läheme	-2253
▁protsed	-2254
▁nõuko	-2255
▁põhimõtteliselt	-2256
ib	-2257
gid	-2258
▁sellisel	-2259
gused	-2260
▁vist	-2261
õigus	-2262
jale	-2263
▁inst	-2264
▁seni	-2265
▁detse	-2266
ut	-2267
▁nädal	-2268
▁võrreldes	-2269
umise	-2270
▁saad	-2271
▁hool	-2272
▁tahame	-2273
▁kasv	-2274
▁kõigi	-2275
semalt	-2276
▁ütleme	-2277
▁praegune	-2278
viru	-2279
ksite	-2280
▁sõn	-2281
▁suhtel	-2282
▁järgmine	-2283
▁her	-2284
▁politsei	-2285
rup	-2286
▁tehti	-2287
▁erapooletuid	-2288
▁sinu	-2289
▁hääletas	-2290
▁fa	-2291
useaduse	-2292
▁äkki	-2293
vara	-2294
▁võimalusi	-2295
▁kättesaada	-2296
▁otsuseid	-2297
▁100	-2298
▁kiiresti	-2299
▁prognoo	-2300
▁tava	-2301
▁käibe	-2302
▁lahendada	-2303
▁ameti	-2304
▁vastuvõt	-2305
▁uuesti	-2306
oob	-2307
vid	-2308
▁eksi	-2309
oet	-2310
▁..	-2311
ingud	-2312
▁kanna	-2313
▁rep	-2314
▁kaas	-2315
nane	-2316
rgen	-2317
▁olukorras	-2318
▁peaministri	-2319
▁suurt	-2320
▁teevad	-2321
▁ettekandeks	-2322
▁hoida	-2323
▁saama	-2324
▁hiljem	-2325
▁paraku	-2326
▁gümnaasi	-2327
0,	-2328
ind	-2329
reid	-2330
▁vor	-2331
han	-2332
▁herkel	-2333
▁edaspidi	-2334
▁lastea	-2335
▁17.	-2336
pul	-2337
▁ühiskonnas	-2338
▁mingil	-2339
▁maailma	-2340
▁esimesel	-2341
aegu	-2342
ver	-2343
▁tänase	-2344
fitseeri	-2345
▁lub	-2346
af	-2347
grammi	-2348
par	-2349
▁käes	-2350
harid	-2351
▁tagada	-2352
ikatsiooni	-2353
idata	-2354
ratee	-2355
▁kuus	-2356
hus	-2357
▁tihti	-2358
▁üldiselt	-2359
▁konkreetselt	-2360
▁statist	-2361
▁põl	-2362
ikuks	-2363
iivi	-2364
ktoob	-2365
▁tähts	-2366
▁mingeid	-2367
▁oluliselt	-2368
▁avalda	-2369
▁pöördu	-2370
like	-2371
päeval	-2372
▁algataja	-2373
▁oktoob	-2374
tur	-2375
▁tean	-2376
▁kordu	-2377
▁justkui	-2378
▁karist	-2379
▁ettepanekuid	-2380
▁lugemisel	-2381
▁ministeeriumi	-2382
▁kõike	-2383
▁süü	-2384
▁liht	-2385
▁maaelu	-2386
▁rääkinud	-2387
▁ressur	-2388
▁aastatel	-2389
▁25	-2390
mmun	-2391
endeid	-2392
▁eelmisel	-2393
▁neli	-2394
%.	-2395
tsin	-2396
▁kuulu	-2397
sõ	-2398
▁nähtud	-2399
▁juu	-2400
▁arutada	-2401
▁viimase	-2402
▁seond	-2403
▁tulenevalt	-2404
isel	-2405
▁tartu	-2406
%-	-2407
stis	-2408
▁millal	-2409
▁sh	-2410
▁aastast	-2411
▁mää	-2412
▁piiran	-2413
mba	-2414
▁erinevad	-2415
▁teate	-2416
hal	-2417
▁informa	-2418
▁suhtu	-2419
kondades	-2420
▁moodusta	-2421
▁haig	-2422
▁demokra	-2423
ed	-2424
muuda	-2425
▁seisukohta	-2426
▁stal	-2427
▁är	-2428
▁konsensus	-2429
▁õpil	-2430
▁iseene	-2431
▁vastuse	-2432
▁võit	-2433
▁tekkinud	-2434
▁töötaja	-2435
▁suurene	-2436
▁lugemise	-2437
vet	-2438
▁11	-2439
▁igasu	-2440
▁strukt	-2441
▁võimalikult	-2442
vab	-2443
ulu	-2444
▁neist	-2445
▁võtab	-2446
▁kurite	-2447
▁sur	-2448
▁suunas	-2449
▁otsustas	-2450
▁kad	-2451
▁kohaloleku	-2452
kee	-2453
▁nimeta	-2454
▁saavuta	-2455
vaba	-2456
mid	-2457
▁tähenda	-2458
saad	-2459
▁kultuurikomisjo	-2460
▁õigesti	-2461
▁andnud	-2462
▁üht	-2463
▁võrra	-2464
▁tasemel	-2465
tavate	-2466
▁palka	-2467
▁riikides	-2468
.""	-2469
▁maksma	-2470
nuh	-2471
▁vajadus	-2472
▁stalnuh	-2473
▁laeku	-2474
▁toodud	-2475
▁stalnuhhin	-2476
▁päde	-2477
▁pil	-2478
amatu	-2479
▁loob	-2480
▁saaksid	-2481
▁kla	-2482
▁kree	-2483
▁numb	-2484
▁ülesande	-2485
▁jätka	-2486
ela	-2487
ette	-2488
▁jutt	-2489
▁õpetajate	-2490
nni	-2491
▁määral	-2492
▁ühist	-2493
▁olgu	-2494
▁vabataht	-2495
sioon	-2496
▁päevakorda	-2497
▁terve	-2498
▁nn	-2499
▁põhimõte	-2500
▁arupärimine	-2501
▁omavahel	-2502
▁tööandja	-2503
mate	-2504
bar	-2505
tõus	-2506
▁alustame	-2507
▁pike	-2508
▁efe	-2509
▁toimunud	-2510
isest	-2511
sis	-2512
▁kellele	-2513
▁iseenesest	-2514
▁kommun	-2515
juh	-2516
lg	-2517
▁abil	-2518
▁haigekassa	-2519
▁kontek	-2520
▁miinim	-2521
▁parlamendi	-2522
▁arutanud	-2523
▁mõelda	-2524
▁võetakse	-2525
aktsiisi	-2526
pte	-2527
▁muutunud	-2528
nne	-2529
▁praktika	-2530
▁vabandust	-2531
▁kriisi	-2532
▁peaaegu	-2533
▁14	-2534
▁veeb	-2535
▁riigile	-2536
▁hoia	-2537
ratsiooni	-2538
▁talle	-2539
▁tasand	-2540
▁sünd	-2541
▁vähendada	-2542
konnad	-2543
▁soovivad	-2544
ret	-2545
"".	-2546
▁lapsed	-2547
▁omavalitsust	-2548
▁mail	-2549
▁haka	-2550
▁toimus	-2551
▁põhiseaduse	-2552
▁ühend	-2553
▁määrata	-2554
▁tehn	-2555
pea	-2556
ustele	-2557
dis	-2558
▁eksper	-2559
▁arvestatud	-2560
▁mihhail	-2561
▁protseduuri	-2562
ov	-2563
▁teo	-2564
tsus	-2565
ikme	-2566
▁suuri	-2567
▁lihtne	-2568
avad	-2569
ikuna	-2570
asu	-2571
kunud	-2572
nä	-2573
▁suhteliselt	-2574
▁peri	-2575
▁põhik	-2576
▁ametikaas	-2577
▁jürgen	-2578
▁aivar	-2579
▁saali	-2580
▁argu	-2581
vatiiv	-2582
▁näeb	-2583
▁lepp	-2584
▁pidanud	-2585
atud	-2586
vuse	-2587
tselt	-2588
▁kriminaal	-2589
▁sada	-2590
nits	-2591
▁laenu	-2592
tsioonid	-2593
▁lähene	-2594
▁16	-2595
▁hinnangu	-2596
▁aseesimees	-2597
▁öeldes	-2598
▁ir	-2599
▁kütuse	-2600
▁juhatuse	-2601
määra	-2602
▁kahtle	-2603
▁kauge	-2604
▁rahvast	-2605
▁põhi	-2606
▁korras	-2607
▁kaht	-2608
▁õnn	-2609
▁nato	-2610
ilised	-2611
▁eelarvest	-2612
▁veebru	-2613
▁lahendus	-2614
este	-2615
▁priorite	-2616
▁oh	-2617
▁avaliku	-2618
▁põhja	-2619
keel	-2620
▁män	-2621
aasta	-2622
panekuid	-2623
▁pul	-2624
tate	-2625
▁arutas	-2626
▁sega	-2627
▁küsimustele	-2628
▁alguses	-2629
▁fo	-2630
riid	-2631
vane	-2632
▁tõsiselt	-2633
▁läti	-2634
▁1,	-2635
▁aktiiv	-2636
▁järelevalve	-2637
dest	-2638
▁päri	-2639
▁rein	-2640
▁võiksid	-2641
▁paar	-2642
▁nendes	-2643
▁kriit	-2644
▁alust	-2645
▁kindel	-2646
▁saata	-2647
maat	-2648
▁tü	-2649
▁suurendada	-2650
▁13	-2651
▁inter	-2652
▁keeles	-2653
▁suured	-2654
▁tahaks	-2655
ises	-2656
▁bal	-2657
endid	-2658
▁taval	-2659
kõik	-2660
ustuse	-2661
bli	-2662
▁seondu	-2663
▁kandida	-2664
▁hulk	-2665
▁30	-2666
tsioone	-2667
▁vastavalt	-2668
▁poliitilise	-2669
sama	-2670
▁edu	-2671
▁riiki	-2672
raal	-2673
▁konser	-2674
pla	-2675
▁äär	-2676
jev	-2677
umist	-2678
▁mööda	-2679
▁tervishoiu	-2680
pit	-2681
tamist	-2682
▁liitu	-2683
jaks	-2684
ssil	-2685
vust	-2686
▁turu	-2687
▁sih	-2688
▁noo	-2689
▁keeruline	-2690
▁regionaal	-2691
iseeri	-2692
ikul	-2693
vel	-2694
▁rati	-2695
▁aastaid	-2696
mend	-2697
tsionaal	-2698
▁lõpetatud	-2699
▁sain	-2700
▁vastuta	-2701
▁korduvalt	-2702
▁diskus	-2703
▁kõnepul	-2704
hk	-2705
mises	-2706
▁tarmo	-2707
▁aastas	-2708
▁kompen	-2709
▁kuskil	-2710
▁ametn	-2711
▁urmas	-2712
▁arenda	-2713
▁energia	-2714
▁apri	-2715
▁nõue	-2716
▁asemel	-2717
▁nimetatud	-2718
▁irl	-2719
▁rel	-2720
jõu	-2721
▁üri	-2722
härra	-2723
ski	-2724
▁vastab	-2725
▁valdkonnas	-2726
▁lis	-2727
▁pari	-2728
▁kaheksa	-2729
▁mõeldud	-2730
meid	-2731
▁nemad	-2732
uut	-2733
▁mõiste	-2734
▁kõrg	-2735
▁palk	-2736
▁lähevad	-2737
ima	-2738
▁tugev	-2739
▁maksumaks	-2740
▁lõpetan	-2741
▁tahe	-2742
▁näinud	-2743
▁konservatiiv	-2744
mbri	-2745
▁kokkuleppe	-2746
▁mõtet	-2747
lane	-2748
eerimis	-2749
▁praeguse	-2750
▁otseselt	-2751
matult	-2752
datud	-2753
kaalu	-2754
▁tähtis	-2755
▁mets	-2756
▁näitab	-2757
ingute	-2758
▁tähta	-2759
▁ukra	-2760
▁nendel	-2761
tlus	-2762
õuna	-2763
▁ast	-2764
▁riigid	-2765
son	-2766
▁inimestel	-2767
üks	-2768
▁ametikaaslased	-2769
▁puudu	-2770
▁elanik	-2771
▁mik	-2772
▁järjest	-2773
▁arvestades	-2774
udest	-2775
▁valla	-2776
▁aastaks	-2777
seis	-2778
▁valda	-2779
jõ	-2780
▁vari	-2781
▁pandud	-2782
▁len	-2783
▁seadusega	-2784
▁im	-2785
piir	-2786
▁teisel	-2787
▁institu	-2788
▁riigikontroll	-2789
▁ülejää	-2790
vaks	-2791
▁kest	-2792
▁juriid	-2793
pord	-2794
▁efektiiv	-2795
▁õiguskantsler	-2796
▁fraktsioonide	-2797
ndus	-2798
▁roo	-2799
▁muudatused	-2800
▁muutub	-2801
likke	-2802
▁lugeda	-2803
tti	-2804
▁põllume	-2805
fond	-2806
▁nõude	-2807
▁puutub	-2808
▁euroopas	-2809
▁lee	-2810
▁valitse	-2811
▁septe	-2812
▁võimalused	-2813
sol	-2814
▁eile	-2815
▁ernits	-2816
▁punkti	-2817
▁balti	-2818
▁mainisi	-2819
▁isamaa	-2820
▁ükskõik	-2821
▁arvamust	-2822
▁muudatus	-2823
mite	-2824
▁valdkonna	-2825
▁kari	-2826
▁väide	-2827
▁räägitud	-2828
viku	-2829
▁avada	-2830
musedpoolt	-2831
▁õiguse	-2832
hed	-2833
toko	-2834
▁milleks	-2835
▁kreeka	-2836
▁ettevalmista	-2837
▁põllumajandus	-2838
rus	-2839
▁tra	-2840
▁muudatusi	-2841
▁lapsi	-2842
▁meeldi	-2843
▁vil	-2844
ana	-2845
▁moel	-2846
misse	-2847
enenud	-2848
▁tug	-2849
▁päev	-2850
▁aastate	-2851
▁maailmas	-2852
ring	-2853
▁hakkavad	-2854
ustab	-2855
▁aspe	-2856
ratsioon	-2857
▁raud	-2858
▁saate	-2859
▁rahvasaad	-2860
eni	-2861
▁mõnes	-2862
▁veelgi	-2863
▁ettevõtlus	-2864
▁sims	-2865
▁ülevaate	-2866
▁registr	-2867
▁sal	-2868
▁ühest	-2869
▁tegelda	-2870
rüh	-2871
▁laiemalt	-2872
▁oled	-2873
▁kohtun	-2874
▁kirj	-2875
aja	-2876
▁reegl	-2877
▁protsessi	-2878
gal	-2879
▁märki	-2880
▁finants	-2881
▁pr	-2882
▁valitsuses	-2883
või	-2884
atia	-2885
tor	-2886
▁tamm	-2887
▁näide	-2888
tnud	-2889
▁reformi	-2890
▁kontekstis	-2891
adid	-2892
▁pide	-2893
▁varase	-2894
fondi	-2895
▁lükata	-2896
▁tüh	-2897
▁korb	-2898
mit	-2899
▁otsustada	-2900
▁teatavasti	-2901
▁keelt	-2902
juur	-2903
▁huvides	-2904
▁reser	-2905
▁valiku	-2906
▁17	-2907
▁kõrval	-2908
avi	-2909
iseks	-2910
▁võla	-2911
▁ettepanekud	-2912
▁kaitseväe	-2913
gem	-2914
%,	-2915
git	-2916
▁18	-2917
▁omavalitsustele	-2918
▁am	-2919
▁makse	-2920
▁pööra	-2921
▁seadusena	-2922
list	-2923
▁enamik	-2924
▁pikalt	-2925
gramm	-2926
▁arst	-2927
▁viimast	-2928
▁koosseisu	-2929
abi	-2930
lap	-2931
too	-2932
▁juhatus	-2933
▁ba	-2934
uni	-2935
▁teistsu	-2936
▁mere	-2937
▁püüd	-2938
▁soovitakse	-2939
▁kavatse	-2940
▁jäävad	-2941
▁ad	-2942
▁taht	-2943
▁sõltu	-2944
▁ratifitseeri	-2945
▁roll	-2946
▁eestisse	-2947
▁probleemid	-2948
biil	-2949
pensi	-2950
▁kaja	-2951
▁tasakaal	-2952
nal	-2953
▁ainu	-2954
▁erinevaid	-2955
▁i	-2956
▁nendega	-2957
▁tutvusta	-2958
andes	-2959
▁toll	-2960
▁paljude	-2961
juures	-2962
▁suurema	-2963
kte	-2964
ajal	-2965
▁märtsi	-2966
▁seesama	-2967
amet	-2968
▁koostööd	-2969
▁50	-2970
▁kind	-2971
ktiivi	-2972
▁jälgi	-2973
▁tak	-2974
▁obje	-2975
▁lahti	-2976
taar	-2977
▁2015.	-2978
tati	-2979
ilisi	-2980
stada	-2981
▁kõikide	-2982
▁valmist	-2983
▁arengukava	-2984
▁riigia	-2985
▁deta	-2986
ber	-2987
▁protoko	-2988
udes	-2989
▁tund	-2990
▁koosseis	-2991
▁tasuta	-2992
makse	-2993
dava	-2994
▁konkreetne	-2995
tst	-2996
▁tore	-2997
▁annan	-2998
▁vastupidi	-2999
▁kadri	-3000
▁vajab	-3001
vis	-3002
▁pank	-3003
▁ausalt	-3004
▁kujul	-3005
▁peeter	-3006
▁ühele	-3007
▁16.	-3008
▁kulud	-3009
▁konven	-3010
ami	-3011
▁püsi	-3012
▁tohiks	-3013
▁läks	-3014
▁tänane	-3015
▁koalitsioon	-3016
▁sõltub	-3017
oon	-3018
▁kujuta	-3019
if	-3020
istada	-3021
▁manda	-3022
▁normaal	-3023
▁rand	-3024
▁lahku	-3025
▁plaanis	-3026
▁esine	-3027
see	-3028
likkuse	-3029
▁raame	-3030
▁arusaada	-3031
▁199	-3032
protse	-3033
võimal	-3034
▁ope	-3035
▁vane	-3036
tstar	-3037
ear	-3038
▁nädala	-3039
tusega	-3040
▁meedi	-3041
tult	-3042
väärt	-3043
konnast	-3044
▁rahast	-3045
eli	-3046
▁uusi	-3047
▁kuula	-3048
▁vahet	-3049
barse	-3050
mia	-3051
meel	-3052
▁võtma	-3053
▁kokkule	-3054
▁õiguskantsleri	-3055
▁pak	-3056
▁suurus	-3057
▁hir	-3058
▁sobi	-3059
▁kohtus	-3060
▁mitmeid	-3061
▁antakse	-3062
▁el	-3063
▁sood	-3064
▁esimest	-3065
▁vahepeal	-3066
vasti	-3067
▁noore	-3068
kasv	-3069
▁kait	-3070
▁eelnõusid	-3071
▁kall	-3072
▁pikk	-3073
koo	-3074
rat	-3075
▁aitab	-3076
▁maksusta	-3077
terjal	-3078
▁loodus	-3079
▁töövõime	-3080
▁seisukoha	-3081
tik	-3082
▁paremaks	-3083
▁naab	-3084
▁sotsi	-3085
▁tegelik	-3086
▁põhjusel	-3087
▁kahtlemata	-3088
▁milles	-3089
▁vassil	-3090
▁...	-3091
ubandus	-3092
▁mitmed	-3093
▁õnne	-3094
▁tulumaks	-3095
▁poliitiline	-3096
▁vana	-3097
sem	-3098
▁jaak	-3099
▁veend	-3100
▁isiklikult	-3101
idesse	-3102
▁hind	-3103
▁samasu	-3104
rupp	-3105
▁näete	-3106
▁kõnepulti	-3107
▁teda	-3108
▁soovib	-3109
▁ulatuses	-3110
mpa	-3111
õpe	-3112
▁menetl	-3113
▁õigust	-3114
▁ütlema	-3115
▁tõuse	-3116
▁parandada	-3117
tudes	-3118
iliste	-3119
▁pakkuda	-3120
▁kommenteeri	-3121
▁pääst	-3122
▁tööjõu	-3123
▁minema	-3124
▁ülikool	-3125
▁nõust	-3126
▁teises	-3127
▁oht	-3128
ktsiooni	-3129
süsteemi	-3130
▁tervikuna	-3131
▁haldusreformi	-3132
▁arvamus	-3133
grah	-3134
sk	-3135
ressi	-3136
endite	-3137
▁kasvab	-3138
▁liidus	-3139
▁raames	-3140
▁tahab	-3141
ania	-3142
▁loog	-3143
▁teenuse	-3144
▁tekkis	-3145
▁ühiskond	-3146
jä	-3147
▁noorte	-3148
▁taas	-3149
jul	-3150
jalt	-3151
▁üli	-3152
mete	-3153
genud	-3154
▁astu	-3155
▁bü	-3156
▁sven	-3157
▁lõpphääletusele	-3158
▁inim	-3159
▁kõigil	-3160
▁millist	-3161
▁tegevust	-3162
teri	-3163
▁tsi	-3164
▁kalle	-3165
▁asjade	-3166
▁korrup	-3167
▁suures	-3168
davad	-3169
▁sünni	-3170
panekud	-3171
▁ülemine	-3172
rina	-3173
▁muid	-3174
▁rekla	-3175
gevuse	-3176
▁absol	-3177
hü	-3178
▁uut	-3179
▁paind	-3180
▁kirjelda	-3181
susega	-3182
▁perear	-3183
▁võeti	-3184
üsteemi	-3185
▁erakond	-3186
▁selliste	-3187
▁kaua	-3188
▁toon	-3189
▁kübarse	-3190
▁informatsiooni	-3191
▁op	-3192
▁aprill	-3193
▁niisugune	-3194
▁aktsi	-3195
graaf	-3196
▁kindla	-3197
▁kav	-3198
▁aud	-3199
▁täita	-3200
▁käinud	-3201
teenuste	-3202
lasi	-3203
▁turval	-3204
▁kaitsevä	-3205
▁süüd	-3206
▁riigikohtu	-3207
▁opositsiooni	-3208
olek	-3209
▁2016.	-3210
▁tegelema	-3211
▁aidata	-3212
rateegia	-3213
▁mingisugust	-3214
▁läbirääkimiste	-3215
tajad	-3216
▁prognoosi	-3217
▁rahvusvahelise	-3218
▁paragrah	-3219
und	-3220
▁viie	-3221
▁teemad	-3222
menetluse	-3223
õl	-3224
▁lauri	-3225
eu	-3226
▁andis	-3227
▁missu	-3228
var	-3229
▁jääda	-3230
▁ema	-3231
▁laua	-3232
▁partne	-3233
vajad	-3234
enduste	-3235
▁12.	-3236
ots	-3237
▁0,	-3238
▁vaatama	-3239
meer	-3240
▁räägin	-3241
▁erapooletuks	-3242
▁viimasel	-3243
▁president	-3244
▁tuletan	-3245
▁valitsusele	-3246
▁kil	-3247
▁kum	-3248
▁maksum	-3249
▁moti	-3250
▁koolis	-3251
▁kae	-3252
viisi	-3253
▁kohalikud	-3254
▁milja	-3255
ikut	-3256
▁toetab	-3257
hhan	-3258
▁maksab	-3259
▁kuulnud	-3260
▁vaheaega	-3261
▁tegevuse	-3262
▁hoid	-3263
oloogia	-3264
▁presidendi	-3265
▁for	-3266
laste	-3267
▁kodakondsuse	-3268
▁idee	-3269
▁taasta	-3270
▁õnnest	-3271
▁arutatud	-3272
▁tasandil	-3273
eet	-3274
ikast	-3275
väärne	-3276
▁teemaga	-3277
▁koor	-3278
▁toimu	-3279
▁kodanik	-3280
▁tele	-3281
▁absoluu	-3282
▁erakondade	-3283
peri	-3284
▁tulemuse	-3285
▁prof	-3286
▁publi	-3287
▁arvate	-3288
▁koolit	-3289
▁huvitav	-3290
▁uud	-3291
▁sõja	-3292
dist	-3293
stus	-3294
ikeel	-3295
hhanis	-3296
vali	-3297
▁lää	-3298
▁rääkis	-3299
▁meen	-3300
▁lausa	-3301
maani	-3302
▁vaidl	-3303
▁rääkima	-3304
▁toetuse	-3305
▁vaes	-3306
▁vajad	-3307
▁2013.	-3308
▁metsa	-3309
▁kuulda	-3310
▁põhjalikult	-3311
▁kõrvale	-3312
rohkem	-3313
▁positiivne	-3314
kiri	-3315
õiguse	-3316
kre	-3317
enti	-3318
juha	-3319
▁jäe	-3320
▁osta	-3321
▁2014.	-3322
▁räägib	-3323
▁volikogu	-3324
▁ettekandjaks	-3325
aast	-3326
▁ost	-3327
muste	-3328
▁raja	-3329
▁dekla	-3330
▁rikku	-3331
▁detail	-3332
▁projekt	-3333
kande	-3334
▁teenuste	-3335
▁rõõ	-3336
▁määran	-3337
▁sol	-3338
ikust	-3339
▁spordi	-3340
riks	-3341
▁erinev	-3342
▁simson	-3343
▁istungit	-3344
kadee	-3345
▁perspe	-3346
▁reformierakond	-3347
aga	-3348
eesti	-3349
▁teed	-3350
▁rakend	-3351
▁tallinnas	-3352
▁mõõ	-3353
▁vär	-3354
▁väheneb	-3355
jah	-3356
▁mingisugune	-3357
▁priit	-3358
▁andma	-3359
tsioonis	-3360
▁mitmesu	-3361
▁tulemus	-3362
hoid	-3363
▁mäletan	-3364
vanema	-3365
▁uuringu	-3366
▁selgu	-3367
▁infotun	-3368
▁välti	-3369
▁teisele	-3370
▁ime	-3371
▁rootsi	-3372
▁liikmesriik	-3373
levki	-3374
▁teenist	-3375
▁ühistrans	-3376
▁väida	-3377
▁valitsust	-3378
õiv	-3379
▁martin	-3380
▁veidi	-3381
beri	-3382
▁kompenseeri	-3383
▁käsitlemise	-3384
aliste	-3385
▁taseme	-3386
▁ettekanne	-3387
▁väljas	-3388
▁räägitakse	-3389
võte	-3390
vadel	-3391
▁mingid	-3392
▁põlevki	-3393
▁võta	-3394
▁taavi	-3395
dala	-3396
valv	-3397
▁mees	-3398
▁mujal	-3399
haridus	-3400
▁täpsemalt	-3401
▁laps	-3402
▁milliseid	-3403
▁madis	-3404
▁ministrile	-3405
▁lugu	-3406
kulu	-3407
▁kasvu	-3408
idalt	-3409
giline	-3410
atide	-3411
▁nõud	-3412
ritoori	-3413
riigis	-3414
▁hakkame	-3415
▁protsess	-3416
▁järgmised	-3417
▁jõua	-3418
▁risk	-3419
▁andmed	-3420
enn	-3421
pid	-3422
▁homm	-3423
▁silma	-3424
▁eralda	-3425
▁kavanda	-3426
▁hakatakse	-3427
▁ed	-3428
gupeetav	-3429
gin	-3430
pää	-3431
▁kasutamise	-3432
▁spetsialist	-3433
hüvit	-3434
▁alus	-3435
▁hääl	-3436
▁minul	-3437
▁miinimum	-3438
▁klassi	-3439
▁vastutust	-3440
ttes	-3441
allik	-3442
▁raamatu	-3443
▁otsustab	-3444
▁sar	-3445
▁täida	-3446
▁2,	-3447
▁looma	-3448
▁kübarsepp	-3449
lles	-3450
▁viimane	-3451
▁vastates	-3452
▁olemasole	-3453
▁statistika	-3454
▁igati	-3455
▁väiksem	-3456
▁eelarves	-3457
▁arupärimisele	-3458
▁seletuskirjas	-3459
rä	-3460
tusel	-3461
ktoris	-3462
ikute	-3463
▁seisa	-3464
▁andmeid	-3465
▁ettevõtja	-3466
▁fakt	-3467
toetuse	-3468
▁vae	-3469
▁viita	-3470
▁soovin	-3471
▁ooda	-3472
▁ring	-3473
andres	-3474
▁lääne	-3475
▁seits	-3476
tsioonide	-3477
ooni	-3478
tsid	-3479
adusega	-3480
▁lühidalt	-3481
▁riikliku	-3482
tavalt	-3483
▁elektroo	-3484
▁küllap	-3485
hn	-3486
juht	-3487
leja	-3488
▁sõlm	-3489
▁käesole	-3490
▁narva	-3491
▁mõtlema	-3492
▁panusta	-3493
gatiiv	-3494
▁toomas	-3495
▁käibemaksu	-3496
▁ameer	-3497
▁tr	-3498
▁korre	-3499
▁kru	-3500
▁ühelt	-3501
▁11.	-3502
leping	-3503
regist	-3504
▁piirangu	-3505
▁trans	-3506
▁teiselt	-3507
▁rahastamise	-3508
▁proo	-3509
▁ütlevad	-3510
▁kli	-3511
▁san	-3512
▁hinnata	-3513
▁väit	-3514
▁koostöös	-3515
▁negatiiv	-3516
▁ammas	-3517
▁tegeleb	-3518
▁dokument	-3519
▁lõpus	-3520
▁ilus	-3521
▁tahavad	-3522
▁kuud	-3523
▁haigla	-3524
▁majanduse	-3525
▁ehit	-3526
▁tööta	-3527
▁arusaama	-3528
▁territoori	-3529
utud	-3530
▁kehtib	-3531
▁töönä	-3532
▁öeldakse	-3533
▁parlament	-3534
▁lei	-3535
▁põll	-3536
▁haa	-3537
▁ukraina	-3538
▁endiselt	-3539
vade	-3540
▁mon	-3541
porti	-3542
korras	-3543
▁leping	-3544
▁must	-3545
▁saar	-3546
▁teiega	-3547
▁võl	-3548
liidu	-3549
▁parlamen	-3550
▁est	-3551
▁koonda	-3552
▁tulema	-3553
▁viimastel	-3554
▁seonduvalt	-3555
▁urve	-3556
▁keskmine	-3557
▁vahendeid	-3558
▁hulka	-3559
▁tulen	-3560
kirjand	-3561
▁lan	-3562
▁pannud	-3563
istab	-3564
▁katkest	-3565
▁pikaajal	-3566
▁erand	-3567
ustamise	-3568
▁pidevalt	-3569
▁ind	-3570
▁muudatuste	-3571
▁saavutada	-3572
tü	-3573
aliseeri	-3574
▁periood	-3575
▁nimetada	-3576
▁puudutavad	-3577
▁riigieelarv	-3578
rokra	-3579
▁teenust	-3580
▁muuse	-3581
▁julgen	-3582
▁ettevõtjate	-3583
▁opti	-3584
järgu	-3585
▁konf	-3586
tseeri	-3587
▁küllalt	-3588
intsi	-3589
▁lubatud	-3590
▁struktuur	-3591
▁kordan	-3592
▁väärtus	-3593
▁kasvanud	-3594
▁algab	-3595
▁seitsme	-3596
▁aastaga	-3597
▁valdkond	-3598
▁tasakaalu	-3599
▁40	-3600
▁päeval	-3601
▁laekunud	-3602
▁esm	-3603
▁interne	-3604
▁toimetuleku	-3605
sinov	-3606
▁tuba	-3607
▁elavad	-3608
▁sõnast	-3609
▁ettekandes	-3610
adu	-3611
imu	-3612
üle	-3613
▁15.	-3614
▁kär	-3615
partne	-3616
utatud	-3617
▁üheks	-3618
▁profes	-3619
▁paika	-3620
▁ossinov	-3621
▁lugemisele	-3622
▁riigikogule	-3623
▁aluseks	-3624
▁katte	-3625
▁madala	-3626
▁võimalda	-3627
▁selgitada	-3628
"",	-3629
▁viga	-3630
▁olegi	-3631
▁süga	-3632
▁võttis	-3633
▁auväärt	-3634
kokku	-3635
▁võimu	-3636
▁nädalal	-3637
▁liikmetel	-3638
aeg	-3639
oog	-3640
idud	-3641
päevast	-3642
nii	-3643
▁top	-3644
▁vaadates	-3645
▁esile	-3646
▁konservatiivse	-3647
dunud	-3648
▁linn	-3649
▁jaanuaril	-3650
▁nest	-3651
▁tähele	-3652
▁nimekirja	-3653
vo	-3654
geni	-3655
▁gaasi	-3656
▁tuleneb	-3657
▁lasteaia	-3658
▁arutasime	-3659
niku	-3660
▁häda	-3661
port	-3662
▁seadusmuuda	-3663
▁näen	-3664
utakse	-3665
▁menetlemise	-3666
▁põllua	-3667
▁suutnud	-3668
▁projekti	-3669
▁tunduvalt	-3670
▁hääletustule	-3671
ikas	-3672
amist	-3673
▁sisal	-3674
sja	-3675
▁enn	-3676
organisa	-3677
▁kvaliteet	-3678
▁garan	-3679
▁soovime	-3680
ede	-3681
▁def	-3682
▁ru	-3683
▁reag	-3684
▁suuremad	-3685
guste	-3686
ör	-3687
▁sõjal	-3688
ministrile	-3689
▁ülejäänud	-3690
puu	-3691
▁lähia	-3692
▁mõlemad	-3693
▁kokkulepe	-3694
▁riigilõiv	-3695
▁äärmiselt	-3696
▁halb	-3697
tlust	-3698
▁rahvas	-3699
▁märkimis	-3700
ustan	-3701
▁sõer	-3702
▁asenda	-3703
▁otsustati	-3704
ministeeriumis	-3705
▁keskerakond	-3706
▁varian	-3707
▁toonud	-3708
▁valitsusel	-3709
▁märk	-3710
▁teisest	-3711
▁põhjendatud	-3712
▁nu	-3713
▁raudtee	-3714
▁vaheaeg	-3715
▁ossinovski	-3716
▁usku	-3717
▁plaani	-3718
▁kinnitada	-3719
laul	-3720
▁sõnu	-3721
au	-3722
rile	-3723
▁pidi	-3724
▁lennu	-3725
▁sõidu	-3726
▁202	-3727
▁mulje	-3728
▁toidu	-3729
virumaa	-3730
▁ettevõtjad	-3731
rand	-3732
▁jätkus	-3733
▁märksa	-3734
▁tervik	-3735
▁töönädala	-3736
giat	-3737
isele	-3738
▁siseminister	-3739
▁ruu	-3740
▁olevat	-3741
▁selgeks	-3742
▁lahendusi	-3743
▁24	-3744
▁anname	-3745
eerimise	-3746
▁jällegi	-3747
▁osaleda	-3748
▁töötada	-3749
irma	-3750
▁pev	-3751
▁maksi	-3752
hariduse	-3753
▁rääkisite	-3754
▁ettevõtete	-3755
▁jõuab	-3756
▁tagatud	-3757
kohaloleku	-3758
▁kolmandaks	-3759
bel	-3760
une	-3761
▁tuus	-3762
▁tõlg	-3763
▁2017.	-3764
▁vastuseid	-3765
▁13.	-3766
▁siht	-3767
▁sõnad	-3768
▁valeri	-3769
▁hariduse	-3770
liit	-3771
vita	-3772
▁vai	-3773
▁võimaldab	-3774
mmu	-3775
tal	-3776
pere	-3777
▁vassiljev	-3778
▁ada	-3779
▁sekku	-3780
teid	-3781
ääri	-3782
ttepaneku	-3783
▁prioriteet	-3784
–20	-3785
▁jõuda	-3786
▁tagajär	-3787
▁juhtub	-3788
▁taast	-3789
▁kella	-3790
▁arutame	-3791
▁kolmand	-3792
▁tekitab	-3793
▁tuh	-3794
▁artik	-3795
▁arvata	-3796
▁korrekt	-3797
▁väljatöö	-3798
stru	-3799
riteeri	-3800
▁mailis	-3801
▁sektori	-3802
▁võrrelda	-3803
seadus	-3804
▁loode	-3805
▁rahal	-3806
▁vajavad	-3807
salu	-3808
▁kaup	-3809
▁jätnud	-3810
▁õiguskomisjoni	-3811
▁med	-3812
▁krista	-3813
▁teistes	-3814
▁fun	-3815
tunud	-3816
▁17.1	-3817
▁vägi	-3818
▁kohale	-3819
nüüd	-3820
▁said	-3821
▁lõuna	-3822
rast	-3823
itada	-3824
▁eelda	-3825
▁sulle	-3826
▁töötab	-3827
▁poolest	-3828
ire	-3829
▁hau	-3830
▁olles	-3831
▁esitas	-3832
▁otstar	-3833
▁kehtestada	-3834
▁tõde	-3835
vatele	-3836
hääl	-3837
▁võttes	-3838
▁ajakirjand	-3839
lase	-3840
kutse	-3841
võttes	-3842
▁isikute	-3843
▁osaliselt	-3844
▁põhjaliku	-3845
mma	-3846
nike	-3847
▁skt	-3848
likuks	-3849
▁arutelul	-3850
ulik	-3851
▁kre	-3852
▁väite	-3853
▁tuleviku	-3854
▁programmi	-3855
▁direktiivi	-3856
▁kirjutatud	-3857
▁tan	-3858
▁ükski	-3859
▁jätkusuut	-3860
▁fil	-3861
▁käia	-3862
▁uute	-3863
▁vastuol	-3864
▁ken	-3865
▁kahel	-3866
▁tõsine	-3867
▁erivajad	-3868
▁sii	-3869
▁istungjärgu	-3870
▁rahvaerakonna	-3871
▁üro	-3872
▁bürokra	-3873
▁menetlemisel	-3874
▁35	-3875
▁esial	-3876
▁tehnil	-3877
▁lisand	-3878
▁jätkata	-3879
▁kooskõl	-3880
▁eelne	-3881
▁kõla	-3882
kurat	-3883
▁sellises	-3884
▁eelmine	-3885
kal	-3886
▁emo	-3887
▁sõnavõ	-3888
▁iseseis	-3889
▁lähtudes	-3890
▁sig	-3891
teist	-3892
▁ametiko	-3893
▁eestist	-3894
▁näiteid	-3895
▁omanda	-3896
▁kasutatakse	-3897
-,	-3898
▁kõl	-3899
▁maksa	-3900
▁ringi	-3901
▁konventsiooni	-3902
istu	-3903
▁pet	-3904
samas	-3905
kalt	-3906
nenud	-3907
peten	-3908
▁lühike	-3909
▁näi	-3910
valvea	-3911
▁kohapeal	-3912
so	-3913
taal	-3914
guses	-3915
▁võõ	-3916
▁siiamaani	-3917
ikes	-3918
õppe	-3919
▁hilju	-3920
▁käivad	-3921
▁arvesse	-3922
tentsiaal	-3923
▁tänaseks	-3924
▁maksumaksja	-3925
▁füü	-3926
▁eiki	-3927
▁väärt	-3928
▁üksnes	-3929
▁põhjenda	-3930
▁töötavad	-3931
▁rakendada	-3932
▁töötajate	-3933
kül	-3934
hi	-3935
▁paneb	-3936
▁suuremat	-3937
▁vastutus	-3938
▁eestikeel	-3939
kanõ	-3940
▁teksti	-3941
▁arvel	-3942
▁tubaka	-3943
▁neljanda	-3944
ivo	-3945
rek	-3946
▁kaits	-3947
▁saare	-3948
▁haukanõ	-3949
tide	-3950
▁registree	-3951
▁perspektiiv	-3952
▁sotsiaalmaksu	-3953
▁inf	-3954
▁lõpuni	-3955
▁ülla	-3956
▁loogika	-3957
▁sissetuleku	-3958
▁eris	-3959
▁jõul	-3960
▁kuulub	-3961
kanud	-3962
panen	-3963
▁homme	-3964
▁rolli	-3965
▁suunatud	-3966
pitali	-3967
▁tõusu	-3968
agil	-3969
mente	-3970
▁juhtud	-3971
idetud	-3972
▁ülemineku	-3973
ikus	-3974
▁stabiil	-3975
▁teenuseid	-3976
vaa	-3977
maja	-3978
sektori	-3979
toetuste	-3980
▁riigieelarvest	-3981
▁10.	-3982
▁programm	-3983
▁korraldada	-3984
vee	-3985
▁kilo	-3986
▁laia	-3987
▁saime	-3988
▁korteri	-3989
mp	-3990
▁pruu	-3991
▁kedagi	-3992
▁arvatud	-3993
eerib	-3994
vahet	-3995
▁loen	-3996
▁põlluaas	-3997
▁60	-3998
mõist	-3999
terna	-4000
▁oskate	-4001
▁21	-4002
pärane	-4003
▁aspekt	-4004
▁lastele	-4005
eno	-4006
▁maan	-4007
▁tugine	-4008
▁rääkisin	-4009
mide	-4010
▁rõhutan	-4011
▁kohustusi	-4012
▁vähenenud	-4013
musede	-4014
▁vastan	-4015
▁kindlust	-4016
▁olulised	-4017
▁valimistel	-4018
▁protseduuriline	-4019
ents	-4020
▁grä	-4021
▁krist	-4022
▁kompro	-4023
▁noored	-4024
▁ütlesid	-4025
peale	-4026
▁pisu	-4027
▁ühtse	-4028
▁tarbija	-4029
▁täpsustada	-4030
masti	-4031
▁liiklus	-4032
▁menetluse	-4033
stud	-4034
tase	-4035
▁ajaks	-4036
▁muret	-4037
▁mainisite	-4038
riga	-4039
▁post	-4040
teeg	-4041
▁olin	-4042
▁töökohta	-4043
mart	-4044
▁küsis	-4045
ppi	-4046
kordselt	-4047
▁väljenda	-4048
▁madal	-4049
▁saade	-4050
▁kulude	-4051
▁poliitilist	-4052
▁kuluta	-4053
▁menetlusse	-4054
ikke	-4055
▁tekkida	-4056
inga	-4057
▁500	-4058
▁poo	-4059
▁eestit	-4060
▁alterna	-4061
▁mur	-4062
▁sätte	-4063
▁esitab	-4064
med	-4065
ustest	-4066
▁pisut	-4067
▁kodaniku	-4068
▁võiksime	-4069
▁uued	-4070
▁parand	-4071
▁valesti	-4072
mendid	-4073
▁makstakse	-4074
▁kehtestatud	-4075
▁meelt	-4076
▁pilt	-4077
▁sugu	-4078
▁kruuse	-4079
▁ameerika	-4080
▁reaalselt	-4081
▁tulemusena	-4082
aka	-4083
▁arust	-4084
▁peate	-4085
▁tekki	-4086
▁kontse	-4087
▁tähtaeg	-4088
▁ven	-4089
▁vik	-4090
▁leedu	-4091
▁allkirja	-4092
tsialist	-4093
▁maakonna	-4094
▁osakonna	-4095
▁pensionäri	-4096
▁rahvastiku	-4097
▁tavaliselt	-4098
▁arupärimisi	-4099
▁üldine	-4100
era	-4101
mäe	-4102
▁süg	-4103
tavat	-4104
▁ingl	-4105
▁meede	-4106
▁ilmsel	-4107
tua	-4108
▁nõun	-4109
▁sõlmi	-4110
▁usaldus	-4111
od	-4112
üri	-4113
kuses	-4114
▁tekst	-4115
▁kollee	-4116
▁alkohol	-4117
▁elus	-4118
aduses	-4119
▁maksus	-4120
▁kellegi	-4121
▁väikese	-4122
▁14.	-4123
▁pin	-4124
▁viib	-4125
▁summad	-4126
▁ametnik	-4127
▁sihtasu	-4128
▁vaadake	-4129
ase	-4130
tusest	-4131
▁patsi	-4132
▁prokurat	-4133
koalitsioo	-4134
▁esindajate	-4135
amise	-4136
oloogil	-4137
▁tagant	-4138
▁sellesama	-4139
▁mingisuguseid	-4140
▁läbipa	-4141
▁printsi	-4142
▁perearst	-4143
▁novembril	-4144
are	-4145
tuaal	-4146
▁kohas	-4147
▁küljest	-4148
▁ide	-4149
▁alanda	-4150
iseaduse	-4151
▁perekonna	-4152
▁vajaduspõh	-4153
▁lõike	-4154
▁olulisem	-4155
maad	-4156
▁töös	-4157
▁kohus	-4158
▁leidis	-4159
▁mõista	-4160
▁otstarbe	-4161
▁valimisi	-4162
,5	-4163
▁tollia	-4164
▁viisil	-4165
isid	-4166
kuju	-4167
▁võinud	-4168
▁eesmärgi	-4169
▁kriteeri	-4170
▁2.	-4171
ilita	-4172
▁plus	-4173
▁miljard	-4174
▁inimesele	-4175
▁veendunud	-4176
▁käis	-4177
▁trah	-4178
▁riike	-4179
▁ajaloo	-4180
▁konflik	-4181
▁meditsi	-4182
▁kõikidele	-4183
▁jal	-4184
▁usu	-4185
eerima	-4186
▁mõnda	-4187
hte	-4188
bine	-4189
ühend	-4190
▁lause	-4191
▁lihtsa	-4192
▁eestile	-4193
▁väljaspool	-4194
▁piirivalvea	-4195
hta	-4196
ameti	-4197
▁meist	-4198
▁kõneal	-4199
▁seadusandja	-4200
▁aine	-4201
reform	-4202
▁arvam	-4203
▁hanno	-4204
▁kodus	-4205
▁paberi	-4206
väga	-4207
▁teab	-4208
anduse	-4209
▁odava	-4210
▁kompeten	-4211
▁-	-4212
▁18.	-4213
▁sulgen	-4214
▁arutati	-4215
statud	-4216
▁marko	-4217
▁kaitsta	-4218
▁kooskõlas	-4219
▁konsensusega	-4220
▁paari	-4221
▁loodud	-4222
do	-4223
▁avatud	-4224
▁teistmoodi	-4225
igu	-4226
▁põhikooli	-4227
▁omavalitsusi	-4228
▁rail	-4229
▁tari	-4230
liikme	-4231
▁kinnis	-4232
▁naiste	-4233
▁saadud	-4234
▁pannakse	-4235
▁nõr	-4236
itsioon	-4237
▁tugeva	-4238
▁ülikooli	-4239
der	-4240
▁nõuab	-4241
▁väita	-4242
▁lugemist	-4243
▁erakorral	-4244
▁arupärijate	-4245
kasu	-4246
▁mõj	-4247
▁kuulata	-4248
▁eelarvet	-4249
▁maavalits	-4250
▁ärge	-4251
▁kaasne	-4252
leid	-4253
▁kun	-4254
▁töötukassa	-4255
▁regulatsioon	-4256
▁mõjutab	-4257
▁küm	-4258
ergia	-4259
▁2012.	-4260
ustamine	-4261
dusi	-4262
▁hooli	-4263
▁tulem	-4264
politse	-4265
▁kirjal	-4266
▁propor	-4267
▁eelnõust	-4268
▁kiiremini	-4269
▁sätestatud	-4270
▁jev	-4271
▁kehtima	-4272
▁materjal	-4273
kol	-4274
▁ütlete	-4275
hekül	-4276
mingu	-4277
▁selgus	-4278
▁inimestega	-4279
vene	-4280
▁kits	-4281
▁teel	-4282
▁sammu	-4283
▁mitmel	-4284
▁räägite	-4285
▁seisukohti	-4286
▁ammu	-4287
▁suund	-4288
▁valik	-4289
▁füüsil	-4290
▁kollektiiv	-4291
liig	-4292
▁jevgeni	-4293
▁seadusi	-4294
▁saaksime	-4295
vähe	-4296
▁liikmeid	-4297
▁arvestanud	-4298
stab	-4299
▁hoone	-4300
küsimus	-4301
▁suudame	-4302
▁tuu	-4303
▁ometi	-4304
▁korruptsiooni	-4305
▁lõpphääletuse	-4306
tavaid	-4307
▁kahte	-4308
▁tuhande	-4309
▁juhtudel	-4310
▁amme	-4311
▁sina	-4312
▁tallin	-4313
▁kehtiva	-4314
▁vastama	-4315
atlik	-4316
▁jäät	-4317
▁kahj	-4318
▁kulusid	-4319
▁seaduseelnõ	-4320
▁9.	-4321
▁aju	-4322
baasi	-4323
▁pran	-4324
toetust	-4325
▁valida	-4326
▁potentsiaal	-4327
mon	-4328
iseid	-4329
▁pruugi	-4330
▁täpsustav	-4331
voka	-4332
▁allik	-4333
▁kalev	-4334
aril	-4335
▁keskend	-4336
▁regulatsiooni	-4337
▁28	-4338
▁3.	-4339
kasvu	-4340
▁omal	-4341
▁teede	-4342
▁sõerd	-4343
▁sõnum	-4344
▁selgit	-4345
▁vajaduse	-4346
▁kandid	-4347
komisjonilt	-4348
▁valimiste	-4349
jat	-4350
▁lik	-4351
▁mer	-4352
▁vastused	-4353
▁küsimusega	-4354
▁reps	-4355
▁puudega	-4356
▁arve	-4357
kkunud	-4358
▁säili	-4359
mpaania	-4360
▁küsisin	-4361
▁meetmeid	-4362
valla	-4363
▁esmas	-4364
▁soomes	-4365
adustiku	-4366
▁ajalool	-4367
▁loodame	-4368
▁struktuuri	-4369
▁tingimust	-4370
▁otsa	-4371
▁gümnaasiumi	-4372
uli	-4373
järele	-4374
▁millegi	-4375
▁suureneb	-4376
▁öö	-4377
▁debatt	-4378
▁arusaadav	-4379
▁direktiiv	-4380
▁45	-4381
▁5.	-4382
gevus	-4383
▁seas	-4384
▁akt	-4385
vatest	-4386
▁arutama	-4387
▁arenduste	-4388
▁kinnisvara	-4389
jõud	-4390
nikud	-4391
▁tera	-4392
▁hiljuti	-4393
kud	-4394
▁häid	-4395
damise	-4396
▁niivõrd	-4397
▁inimesel	-4398
▁siinkohal	-4399
▁indrek	-4400
▁piisav	-4401
eerimine	-4402
▁õiguste	-4403
gis	-4404
piiri	-4405
▁laeva	-4406
▁pöörd	-4407
▁elamis	-4408
▁meetmed	-4409
▁vajadust	-4410
▁lahendust	-4411
▁konkreetset	-4412
idanud	-4413
▁2018.	-4414
▁erinevalt	-4415
▁iganes	-4416
▁nestor	-4417
▁mõninga	-4418
▁pakutud	-4419
▁käsitleb	-4420
ske	-4421
▁tõele	-4422
problee	-4423
▁suunata	-4424
▁läb	-4425
ustame	-4426
▁kujune	-4427
▁finantsin	-4428
õpil	-4429
peeter	-4430
pra	-4431
andi	-4432
▁saat	-4433
▁visi	-4434
▁vallas	-4435
▁võimel	-4436
▁pikenda	-4437
▁absoluutselt	-4438
▁võim	-4439
▁reisi	-4440
▁tiidus	-4441
▁analüüs	-4442
ivad	-4443
▁mai	-4444
vatel	-4445
▁kusagil	-4446
▁kohalikele	-4447
tii	-4448
▁leev	-4449
▁koosel	-4450
▁kutsun	-4451
▁protsen	-4452
▁ii	-4453
▁tugi	-4454
▁sõnavõt	-4455
▁keskmise	-4456
ria	-4457
elnõu	-4458
mendi	-4459
▁esma	-4460
▁lätis	-4461
▁kusjuures	-4462
tusse	-4463
▁ravik	-4464
▁samme	-4465
▁marika	-4466
▁kindlustus	-4467
kasva	-4468
▁läheks	-4469
▁paljudes	-4470
▁investeeringuid	-4471
asja	-4472
▁staa	-4473
▁tööl	-4474
▁steno	-4475
▁reinsalu	-4476
▁vabasta	-4477
alis	-4478
▁äriüh	-4479
▁voliko	-4480
▁lahenduse	-4481
▁22	-4482
kohtu	-4483
▁elab	-4484
▁sõit	-4485
likkust	-4486
▁haukanõmm	-4487
sip	-4488
piik	-4489
▁rän	-4490
▁tõest	-4491
▁nõukogude	-4492
▁säte	-4493
koormus	-4494
▁tahate	-4495
▁vastas	-4496
▁oktoobril	-4497
ei	-4498
män	-4499
▁kokk	-4500
▁ratas	-4501
▁võite	-4502
▁otsuste	-4503
▁suurusjär	-4504
▁diskussiooni	-4505
▁rahvusvaheliste	-4506
rü	-4507
▁nul	-4508
▁tõi	-4509
▁kaheks	-4510
▁demokraatia	-4511
ara	-4512
umine	-4513
▁inno	-4514
▁tipp	-4515
▁mudel	-4516
▁põhiseadusega	-4517
puud	-4518
trol	-4519
meeri	-4520
▁asjaol	-4521
▁külliki	-4522
▁ak	-4523
isem	-4524
▁elada	-4525
▁esindab	-4526
▁seadusest	-4527
▁inte	-4528
▁adams	-4529
▁hakanud	-4530
▁ohu	-4531
▁ekre	-4532
▁jõudu	-4533
neleja	-4534
▁õigustatud	-4535
▁fondi	-4536
▁esindajana	-4537
▁digi	-4538
▁käima	-4539
▁millel	-4540
▁mingisuguse	-4541
▁mahu	-4542
▁kaupa	-4543
ori	-4544
likkus	-4545
▁kursis	-4546
▁27	-4547
loome	-4548
▁paha	-4549
▁tahetakse	-4550
▁23	-4551
üsteem	-4552
▁tsite	-4553
▁toetanud	-4554
uline	-4555
▁kerge	-4556
▁leiab	-4557
▁arusaam	-4558
poliitikat	-4559
▁arvestama	-4560
ip	-4561
kste	-4562
järel	-4563
palga	-4564
▁konsensuslikult	-4565
▁käit	-4566
▁sõltuma	-4567
▁loodetavasti	-4568
proje	-4569
tingi	-4570
▁tegime	-4571
▁vaatan	-4572
▁hää	-4573
virumaal	-4574
▁osakaal	-4575
▁vastuvõ	-4576
▁kompromis	-4577
ituse	-4578
punkt	-4579
▁lõppe	-4580
▁tahaksin	-4581
mann	-4582
▁20.	-4583
▁tõuseb	-4584
▁ehitada	-4585
▁ülesandeid	-4586
ivas	-4587
vähem	-4588
▁ting	-4589
olijaid	-4590
▁vaielda	-4591
▁hõl	-4592
▁divid	-4593
oolekande	-4594
▁põlevkivi	-4595
rühma	-4596
▁missiooni	-4597
igas	-4598
▁ravikindl	-4599
▁kasutamine	-4600
▁võrdl	-4601
▁selgub	-4602
▁valdkonda	-4603
▁erikomisjo	-4604
▁hirm	-4605
▁ent	-4606
▁riigikontrolli	-4607
geli	-4608
sena	-4609
▁tööturu	-4610
tsime	-4611
▁süüdi	-4612
▁sugugi	-4613
kadeemia	-4614
▁madison	-4615
lise	-4616
▁pagul	-4617
▁saksa	-4618
▁isiklik	-4619
▁valimise	-4620
▁käibemaks	-4621
▁tunnistama	-4622
nel	-4623
▁erakool	-4624
▁möödunud	-4625
▁turvalis	-4626
▁ametnikud	-4627
▁organisatsioon	-4628
ül	-4629
▁rida	-4630
▁puutu	-4631
▁jaanus	-4632
kirju	-4633
▁kiit	-4634
▁tõste	-4635
▁kontrollida	-4636
▁vastuolijaid	-4637
▁tsivi	-4638
▁maksua	-4639
▁signaal	-4640
▁rü	-4641
▁ää	-4642
▁19.	-4643
piiker	-4644
▁taristu	-4645
▁eesmärki	-4646
▁muutmine	-4647
▁vaatamata	-4648
▁vajalikud	-4649
jel	-4650
▁saalist	-4651
▁kuuluvad	-4652
▁otsustanud	-4653
kätt	-4654
▁paral	-4655
▁sageli	-4656
▁ettevalmist	-4657
▁51	-4658
▁liid	-4659
iksoo	-4660
▁elanike	-4661
▁organisatsiooni	-4662
idaar	-4663
▁igor	-4664
▁mängi	-4665
pension	-4666
▁vastuste	-4667
net	-4668
▁hüvit	-4669
▁nõuded	-4670
▁toobal	-4671
▁riiklik	-4672
lähe	-4673
▁kauba	-4674
▁jäetud	-4675
▁eeskätt	-4676
küsimused	-4677
▁alustada	-4678
▁eelnõude	-4679
▁pärit	-4680
▁küsite	-4681
▁palgad	-4682
▁olev	-4683
▁arvamuse	-4684
▁protokoll	-4685
▁investeerimis	-4686
deid	-4687
▁üleval	-4688
▁annavad	-4689
▁kontrollkohal	-4690
▁stra	-4691
▁kanda	-4692
▁reserv	-4693
▁kevadel	-4694
▁meelega	-4695
muudatuse	-4696
▁75	-4697
ministrina	-4698
▁järelikult	-4699
▁parlamendis	-4700
endust	-4701
▁seitse	-4702
▁olulist	-4703
tul	-4704
aalt	-4705
kide	-4706
▁initsi	-4707
▁finantseeri	-4708
▁21.	-4709
desse	-4710
semaks	-4711
ugu	-4712
▁eriar	-4713
▁tuvasta	-4714
tehn	-4715
▁asjaolu	-4716
▁paralle	-4717
▁sund	-4718
▁tohu	-4719
▁asuta	-4720
▁suude	-4721
▁kellelegi	-4722
erinud	-4723
sioonil	-4724
▁rõivas	-4725
▁hinnang	-4726
enu	-4727
koht	-4728
▁tre	-4729
▁siiani	-4730
▁vahele	-4731
▁viktor	-4732
did	-4733
läheme	-4734
▁pingu	-4735
▁kohtle	-4736
▁lepitud	-4737
▁näidata	-4738
▁ülevaade	-4739
▁katteallik	-4740
▁kohustuste	-4741
▁välisminister	-4742
▁32	-4743
▁tsiviil	-4744
▁töökohti	-4745
dal	-4746
tise	-4747
▁selgita	-4748
usal	-4749
▁oku	-4750
▁osu	-4751
▁kavas	-4752
▁kolleegi	-4753
▁venekeel	-4754
▁planeeritud	-4755
mä	-4756
▁mahus	-4757
▁südame	-4758
▁solidaar	-4759
▁sõida	-4760
teenuse	-4761
▁küsiti	-4762
▁mäleta	-4763
▁topelt	-4764
▁peamine	-4765
▁tõl	-4766
kusele	-4767
▁rääkides	-4768
▁fond	-4769
▁lihtsam	-4770
▁välista	-4771
riigikogu	-4772
▁põhjustel	-4773
▁tegelevad	-4774
em	-4775
▁aa	-4776
▁õppet	-4777
▁muudetakse	-4778
▁ps	-4779
▁suhe	-4780
▁kõlas	-4781
▁talvik	-4782
▁lähtuvalt	-4783
▁lugemiseks	-4784
▁34	-4785
▁7.	-4786
▁ge	-4787
▁lõh	-4788
▁tingimused	-4789
▁õh	-4790
▁õigeks	-4791
▁teemasid	-4792
▁koosseisus	-4793
sen	-4794
▁sala	-4795
▁kirjutada	-4796
▁hi	-4797
▁rik	-4798
ruusi	-4799
tesse	-4800
võrgu	-4801
kulude	-4802
▁juhtumi	-4803
▁seisukohal	-4804
▁33	-4805
võrra	-4806
▁vaat	-4807
istuse	-4808
▁inimõ	-4809
asutuste	-4810
▁konkreetsed	-4811
äbi	-4812
▁sav	-4813
▁relva	-4814
lii	-4815
▁aptee	-4816
▁detsembril	-4817
▁finantsinspe	-4818
▁parlamentaar	-4819
▁maal	-4820
ustust	-4821
▁niisa	-4822
▁asjast	-4823
▁tegemata	-4824
selle	-4825
▁2011.	-4826
▁õigusi	-4827
▁kujunda	-4828
▁välismaal	-4829
▁26	-4830
päev	-4831
▁sissetule	-4832
sionaal	-4833
▁mitmes	-4834
▁liikuda	-4835
▁põhiline	-4836
▁toetuste	-4837
eti	-4838
▁alae	-4839
▁pärnu	-4840
▁jõuame	-4841
▁infot	-4842
▁jätkub	-4843
▁majanda	-4844
▁niiviisi	-4845
▁teistele	-4846
▁seisukohad	-4847
▁puudutas	-4848
▁seejärel	-4849
▁4.	-4850
▁juhtunud	-4851
▁protsent	-4852
▁aas	-4853
▁sunni	-4854
teerida	-4855
▁taastu	-4856
▁miljardit	-4857
auto	-4858
▁kot	-4859
▁täiel	-4860
▁muudatust	-4861
▁vastuolus	-4862
▁pikka	-4863
▁soovita	-4864
▁normaalne	-4865
▁tihtipeale	-4866
▁veebruaril	-4867
pia	-4868
jandi	-4869
usette	-4870
▁kaitseminister	-4871
vor	-4872
▁eas	-4873
▁kõnele	-4874
▁karistus	-4875
▁inimestest	-4876
▁küsimustes	-4877
kaas	-4878
▁igas	-4879
▁viida	-4880
▁territoorium	-4881
mpo	-4882
▁ajast	-4883
▁riski	-4884
▁järgne	-4885
▁huvitab	-4886
▁seadusele	-4887
lis	-4888
mig	-4889
▁300	-4890
▁tell	-4891
▁oleva	-4892
▁meenuta	-4893
▁strateeg	-4894
▁kaubandus	-4895
joo	-4896
▁juhin	-4897
▁võrdle	-4898
▁ilmselgelt	-4899
imar	-4900
side	-4901
▁ülem	-4902
▁elektroon	-4903
▁praegusel	-4904
▁liikmetele	-4905
tõusu	-4906
▁maad	-4907
▁proov	-4908
▁tõnis	-4909
▁euroni	-4910
▁3,	-4911
▁trad	-4912
▁piirika	-4913
▁nõukogus	-4914
▁tüü	-4915
▁komb	-4916
▁mõnel	-4917
▁omakorda	-4918
▁majandust	-4919
▁ettevõtted	-4920
ef	-4921
õna	-4922
▁it	-4923
▁sää	-4924
▁juul	-4925
kordne	-4926
▁mikro	-4927
▁situa	-4928
pensioni	-4929
▁suhtle	-4930
▁esimesele	-4931
▁opositsioon	-4932
▁aj	-4933
õpet	-4934
kohane	-4935
majandus	-4936
▁vastuolu	-4937
▁sotsiaalt	-4938
kute	-4939
▁meedia	-4940
▁kaaluda	-4941
▁ministrid	-4942
▁minuti	-4943
▁läbipaist	-4944
▁mõnevõrra	-4945
▁vajalikuks	-4946
▁rakendamise	-4947
mbris	-4948
▁vang	-4949
dar	-4950
rismi	-4951
erakond	-4952
▁lõpeta	-4953
▁meditsiin	-4954
▁septembril	-4955
▁6.	-4956
tarmo	-4957
▁taks	-4958
▁muide	-4959
▁eestil	-4960
▁juunil	-4961
▁automaa	-4962
keele	-4963
▁lisada	-4964
▁seisukohalt	-4965
anuar	-4966
▁savisa	-4967
▁märtsil	-4968
▁haridust	-4969
▁initsiat	-4970
▁valmista	-4971
kulud	-4972
olijaks	-4973
▁pevkur	-4974
▁jaanuar	-4975
kaar	-4976
tsele	-4977
▁kredi	-4978
▁jagada	-4979
▁määratud	-4980
▁fik	-4981
▁paig	-4982
▁artur	-4983
▁viibi	-4984
▁pääste	-4985
▁novembri	-4986
▁sõb	-4987
▁rahu	-4988
▁motiv	-4989
▁parte	-4990
▁likvid	-4991
▁inimõig	-4992
▁teisiti	-4993
▁huvitatud	-4994
fon	-4995
▁ron	-4996
▁toom	-4997
▁mõtlen	-4998
▁termin	-4999
▁ebavõrd	-5000
▁vaadanud	-5001
▁advoka	-5002
▁loetel	-5003
▁parema	-5004
▁õppida	-5005
▁valitud	-5006
hof	-5007
▁alt	-5008
▁niisama	-5009
▁puldist	-5010
kand	-5011
▁vest	-5012
▁muutma	-5013
▁sõnasta	-5014
▁järeleval	-5015
anal	-5016
▁tõh	-5017
inime	-5018
▁anti	-5019
▁ükste	-5020
▁kellega	-5021
▁soovite	-5022
▁randpere	-5023
kõike	-5024
panga	-5025
▁jääks	-5026
▁elluvii	-5027
▁kuskilt	-5028
▁lüka	-5029
▁aastani	-5030
▁käesoleva	-5031
iri	-5032
rdi	-5033
tsed	-5034
▁töötanud	-5035
▁seadusand	-5036
▁tundi	-5037
valdkonna	-5038
▁kindlaks	-5039
▁alternatiiv	-5040
▁diskussioon	-5041
▁täiendavalt	-5042
▁looduskaitse	-5043
▁ag	-5044
ravi	-5045
▁pikhof	-5046
▁kilomeet	-5047
▁tasub	-5048
▁tänavu	-5049
▁aprillil	-5050
▁professionaal	-5051
idet	-5052
▁löö	-5053
▁dele	-5054
eelnõu	-5055
enduse	-5056
▁harju	-5057
–1	-5058
näh	-5059
deks	-5060
tere	-5061
▁mõelnud	-5062
▁tol	-5063
▁sidu	-5064
▁sulge	-5065
euroopa	-5066
sutuste	-5067
▁tekitada	-5068
dused	-5069
▁aktse	-5070
▁laual	-5071
▁paneme	-5072
▁ütleksin	-5073
haig	-5074
riigid	-5075
sul	-5076
ritega	-5077
▁defin	-5078
▁tegeleda	-5079
▁jaanuarist	-5080
▁rahvusvahelist	-5081
iss	-5082
▁puht	-5083
▁laiem	-5084
▁kuuluta	-5085
▁mainisin	-5086
vesteer	-5087
▁ametis	-5088
▁andrus	-5089
▁andmete	-5090
igümnaasi	-5091
▁ametisse	-5092
▁avalduse	-5093
▁sissejuha	-5094
▁tulumaksuvaba	-5095
afr	-5096
eest	-5097
▁söö	-5098
▁pädev	-5099
▁täitma	-5100
▁lehekül	-5101
▁vanemad	-5102
▁sedasama	-5103
▁arvud	-5104
▁kuule	-5105
▁püüame	-5106
▁takist	-5107
▁laienda	-5108
▁lugesin	-5109
▁uurimis	-5110
▁ennekõike	-5111
▁erinevate	-5112
▁märkimisväär	-5113
▁investeeringute	-5114
astele	-5115
toetus	-5116
▁toode	-5117
▁tekivad	-5118
▁iva	-5119
▁rõõm	-5120
▁huvide	-5121
▁päevast	-5122
iniku	-5123
▁näge	-5124
▁kaugele	-5125
▁lastega	-5126
▁vältida	-5127
▁planeeri	-5128
▁lugupeetav	-5129
lub	-5130
▁kaev	-5131
▁täite	-5132
▁juhtida	-5133
▁praeguses	-5134
▁seadusesse	-5135
rad	-5136
isin	-5137
▁tahtnud	-5138
rik	-5139
ted	-5140
▁38	-5141
koos	-5142
turu	-5143
maalselt	-5144
▁kasutusele	-5145
▁väljatööta	-5146
▁informatsioon	-5147
jus	-5148
▁kaar	-5149
▁pome	-5150
krista	-5151
▁puudujää	-5152
▁katkestada	-5153
▁küsimusest	-5154
▁omavalitsustes	-5155
pula	-5156
oreet	-5157
▁sult	-5158
vitada	-5159
▁perede	-5160
▁pomeran	-5161
▁perioodi	-5162
▁vahendid	-5163
▁kummal	-5164
▁protokolli	-5165
▁vabariigis	-5166
▁investeeringud	-5167
esu	-5168
siga	-5169
undus	-5170
▁püüan	-5171
▁tegemine	-5172
▁ver	-5173
▁kuhugi	-5174
▁temaat	-5175
▁tahtsin	-5176
▁kellelgi	-5177
▁rakendus	-5178
▁ressurssi	-5179
▁seepärast	-5180
▁riigigümnaasi	-5181
▁henn	-5182
poolne	-5183
ratiiv	-5184
▁toetama	-5185
▁arendada	-5186
▁piiratud	-5187
▁jätkuvalt	-5188
▁niisugust	-5189
▁menetluses	-5190
▁pol	-5191
▁anne	-5192
▁tere	-5193
▁selliselt	-5194
▁tunnistada	-5195
▁kv	-5196
kusi	-5197
analüü	-5198
▁arene	-5199
▁lubad	-5200
▁suudab	-5201
keskkonna	-5202
▁loogiline	-5203
mand	-5204
kohta	-5205
▁sester	-5206
▁maksude	-5207
▁reklaami	-5208
▁tervishoi	-5209
▁käsitlemine	-5210
▁perspektiivis	-5211
daru	-5212
itöö	-5213
▁heaolu	-5214
▁oodata	-5215
▁lugenud	-5216
▁65	-5217
▁öelge	-5218
▁tähtsa	-5219
▁põldaru	-5220
▁väiksema	-5221
▁tekitanud	-5222
▁kommenteerida	-5223
▁annaks	-5224
▁asjaga	-5225
▁sügisel	-5226
▁üliõpil	-5227
▁arupärimist	-5228
▁kodakondsus	-5229
jaga	-5230
▁sild	-5231
▁lasta	-5232
▁seadused	-5233
▁55	-5234
▁80	-5235
▁huvig	-5236
▁kutsutud	-5237
ett	-5238
▁takso	-5239
▁maaoma	-5240
▁monika	-5241
väl	-5242
▁sea	-5243
▁helmen	-5244
▁olulisi	-5245
▁liikmena	-5246
▁hääletamise	-5247
▁arto	-5248
ustanud	-5249
▁iseloo	-5250
▁nõunik	-5251
▁eeskuju	-5252
▁jätkame	-5253
▁konstru	-5254
▁liigume	-5255
▁koolides	-5256
▁lisaraha	-5257
▁majanduskasvu	-5258
ktide	-5259
▁varsti	-5260
▁kvaliteedi	-5261
alne	-5262
▁nägi	-5263
▁ehitus	-5264
▁minule	-5265
▁kirjutanud	-5266
rt	-5267
kult	-5268
▁üldise	-5269
▁räägiti	-5270
?""	-5271
ive	-5272
▁2015	-5273
▁indi	-5274
▁raivo	-5275
▁naaber	-5276
▁ootame	-5277
▁peetud	-5278
▁korraga	-5279
▁viienda	-5280
▁mehhanis	-5281
▁põhjused	-5282
▁fraktsioonilt	-5283
teine	-5284
ühistu	-5285
▁võitle	-5286
▁õigusa	-5287
▁reeglid	-5288
▁positsioon	-5289
vaat	-5290
▁libe	-5291
▁müüa	-5292
konnal	-5293
tajaid	-5294
riikide	-5295
▁suurte	-5296
teeritud	-5297
itü	-5298
▁tõu	-5299
hoolekande	-5300
▁36	-5301
▁käe	-5302
▁..."	-5303
▁sults	-5304
süsteem	-5305
ruktuuri	-5306
▁asjaoma	-5307
▁vastuses	-5308
▁erakonnad	-5309
lae	-5310
▁asume	-5311
▁tahes	-5312
▁arusaa	-5313
▁tuleva	-5314
▁eelarvesse	-5315
▁vastuvõtmise	-5316
▁nõnda	-5317
▁kohustused	-5318
▁nü	-5319
▁pääse	-5320
▁omanik	-5321
▁tulevikku	-5322
soo	-5323
▁küsima	-5324
▁toimib	-5325
▁lähenemine	-5326
▁31	-5327
▁48	-5328
ustama	-5329
liigume	-5330
▁lubada	-5331
▁rahaga	-5332
▁selleni	-5333
▁taastuven	-5334
▁int	-5335
▁pid	-5336
▁kurb	-5337
tuseks	-5338
▁teenin	-5339
järgmine	-5340
▁ettepanekuga	-5341
▁4,	-5342
▁8.	-5343
viis	-5344
▁komple	-5345
▁tasemele	-5346
iabi	-5347
osal	-5348
▁mah	-5349
▁rumal	-5350
koormust	-5351
▁langetada	-5352
▁rääkisime	-5353
▁registreeritud	-5354
umid	-5355
▁por	-5356
ulise	-5357
▁kuue	-5358
▁argument	-5359
▁soovitan	-5360
▁hoolimata	-5361
up	-5362
▁mälu	-5363
▁puue	-5364
▁ajale	-5365
▁soovit	-5366
▁erakonda	-5367
▁miinimumi	-5368
vol	-5369
▁eet	-5370
▁kaal	-5371
▁muudab	-5372
▁teavad	-5373
▁kristen	-5374
▁algusest	-5375
jas	-5376
itüma	-5377
ruumi	-5378
▁süda	-5379
▁viisa	-5380
vatsiooni	-5381
▁päevakorras	-5382
▁enese	-5383
▁lähte	-5384
aliseer	-5385
▁17.15.	-5386
▁mismoodi	-5387
9,	-5388
vam	-5389
hool	-5390
▁kroo	-5391
▁teistsugune	-5392
lid	-5393
luses	-5394
▁2016	-5395
▁kütt	-5396
▁siir	-5397
▁seisukohast	-5398
▁2014	-5399
▁üheksa	-5400
plo	-5401
ikuid	-5402
▁maht	-5403
▁ohtu	-5404
▁kõrgem	-5405
▁koolide	-5406
▁väikest	-5407
▁näitavad	-5408
▁taotleda	-5409
▁õpetajad	-5410
ohu	-5411
maalt	-5412
▁psüh	-5413
▁poola	-5414
▁võtan	-5415
▁margus	-5416
▁teosta	-5417
▁tänast	-5418
▁missioon	-5419
▁vastupid	-5420
▁oluliseks	-5421
▁järgmist	-5422
▁toetavad	-5423
▁protsenti	-5424
▁konkreetseid	-5425
▁majanduskasv	-5426
▁70	-5427
▁kate	-5428
▁puldis	-5429
▁vahest	-5430
▁meeldib	-5431
▁lõpetatakse	-5432
▁37	-5433
tori	-5434
menti	-5435
palju	-5436
▁abielu	-5437
▁kõvasti	-5438
▁toetusi	-5439
▁tõenäos	-5440
▁ühiselt	-5441
▁mainitud	-5442
▁paragrahvi	-5443
ost	-5444
kile	-5445
▁22.	-5446
ikule	-5447
kokkuvõttes	-5448
▁riigikontrol	-5449
öde	-5450
▁kivi	-5451
▁juhtus	-5452
▁tekiks	-5453
tamatult	-5454
▁omad	-5455
▁osapool	-5456
▁süüdist	-5457
▁komisjonile	-5458
ksu	-5459
laid	-5460
▁turul	-5461
▁kulutusi	-5462
▁spetsiif	-5463
▁juhtumeid	-5464
▁is	-5465
likus	-5466
maale	-5467
▁ühise	-5468
▁lähiajal	-5469
▁kasutatud	-5470
▁ettevõtluse	-5471
vaata	-5472
▁katse	-5473
▁valdo	-5474
▁debatti	-5475
▁riigisi	-5476
▁koostatud	-5477
▁sõltumata	-5478
alas	-5479
▁tub	-5480
▁skee	-5481
▁hanke	-5482
▁tempo	-5483
▁jurist	-5484
▁muretse	-5485
▁pöörduda	-5486
▁piirkonnas	-5487
▁teadusminister	-5488
▁ohv	-5489
▁nüan	-5490
▁tegid	-5491
▁küsinud	-5492
▁andmetel	-5493
▁keelatud	-5494
▁valimist	-5495
▁ühiskonda	-5496
▁infotunnis	-5497
▁operatsioon	-5498
vil	-5499
küll	-5500
▁lig	-5501
▁keht	-5502
olekul	-5503
▁tööpäeva	-5504
▁politsein	-5505
tra	-5506
üld	-5507
ikord	-5508
krimin	-5509
▁taotl	-5510
▁öeldi	-5511
periood	-5512
▁teoreet	-5513
hoo	-5514
sam	-5515
astus	-5516
▁juhtum	-5517
▁eelnõud	-5518
▁leppida	-5519
▁otsustus	-5520
▁õigusabi	-5521
▁ülesanded	-5522
▁säära	-5523
▁toona	-5524
▁tõite	-5525
▁tööst	-5526
▁volit	-5527
▁isikud	-5528
▁seisab	-5529
▁õnneks	-5530
kontroll	-5531
▁karistusse	-5532
pide	-5533
kooli	-5534
▁paljusid	-5535
ale	-5536
aine	-5537
▁hoi	-5538
▁ümb	-5539
▁samba	-5540
eerimist	-5541
▁asendus	-5542
▁võtavad	-5543
▁tegeleme	-5544
▁ministeeriumide	-5545
▁üha	-5546
▁föde	-5547
▁kaug	-5548
▁tutvu	-5549
majanduse	-5550
▁kaasatud	-5551
▁paljudel	-5552
▁parlamendili	-5553
juhul	-5554
▁õigused	-5555
▁vastuvõe	-5556
▁teistpidi	-5557
▁vanemahüvit	-5558
põ	-5559
susest	-5560
▁juhan	-5561
▁sarna	-5562
▁suver	-5563
▁seadustiku	-5564
▁valitsusliikme	-5565
mina	-5566
tuna	-5567
▁äsja	-5568
▁igaüks	-5569
▁fikseeri	-5570
▁täitmisel	-5571
▁sanktsioon	-5572
▁rahastamine	-5573
▁omavalitsuses	-5574
üsi	-5575
maalne	-5576
▁kütte	-5577
▁rohel	-5578
▁ainuke	-5579
▁korralduse	-5580
▁automaatselt	-5581
▁reguleeritud	-5582
tood	-5583
miseni	-5584
▁märga	-5585
▁pidama	-5586
▁mõtteid	-5587
▁vastutab	-5588
veo	-5589
gias	-5590
▁suverää	-5591
▁ministrite	-5592
▁põhine	-5593
ler	-5594
dama	-5595
iska	-5596
tund	-5597
tarbi	-5598
inguid	-5599
ustamist	-5600
▁kõlanud	-5601
▁varasema	-5602
täh	-5603
kondi	-5604
▁peetakse	-5605
▁õiguskomisjon	-5606
ps	-5607
▁abivah	-5608
▁püüdnud	-5609
▁säilita	-5610
▁toetused	-5611
▁tulemusi	-5612
▁perioodil	-5613
▁aktiivselt	-5614
▁riigieelarves	-5615
▁lõppkokkuvõttes	-5616
▁eta	-5617
▁rask	-5618
▁kannab	-5619
▁väljend	-5620
eks	-5621
▁ee	-5622
▁jäätme	-5623
▁esitati	-5624
▁heakski	-5625
▁kogemus	-5626
▁arenguka	-5627
▁vastanud	-5628
nitud	-5629
▁nimi	-5630
▁eksist	-5631
mehhanis	-5632
▁ettenäh	-5633
▁reaalne	-5634
▁ühtlasi	-5635
▁järelevalvet	-5636
▁aadu	-5637
▁raam	-5638
▁kütuseaktsiisi	-5639
eh	-5640
pil	-5641
▁41	-5642
▁bi	-5643
mitri	-5644
▁jätkan	-5645
▁räägivad	-5646
mes	-5647
▁kunst	-5648
▁ebaõig	-5649
▁kuivõrd	-5650
▁praktikas	-5651
▁riikidega	-5652
▁kooskõlast	-5653
▁probleemide	-5654
▁bo	-5655
▁kaub	-5656
aitüma	-5657
▁alguse	-5658
▁kodanike	-5659
▁mõnikord	-5660
raa	-5661
teo	-5662
tsu	-5663
▁audit	-5664
▁maine	-5665
▁koolid	-5666
▁neljas	-5667
▁ühenda	-5668
▁osapoole	-5669
▁rahvaesi	-5670
▁interneti	-5671
▁käsitletud	-5672
dub	-5673
eda	-5674
▁kõva	-5675
▁pead	-5676
▁noori	-5677
▁keskmiselt	-5678
▁valdkondades	-5679
▁heljo	-5680
▁sõlmitud	-5681
▁viitasite	-5682
tta	-5683
samad	-5684
▁juhtuda	-5685
▁kaotada	-5686
▁määruse	-5687
▁kohustust	-5688
▁reguleerida	-5689
▁riigireformi	-5690
▁rä	-5691
ktid	-5692
menetl	-5693
▁2009.	-5694
▁teenus	-5695
▁kenasti	-5696
▁soodust	-5697
▁teenused	-5698
▁veebruar	-5699
▁tark	-5700
▁kauem	-5701
ktiivne	-5702
▁läheda	-5703
kesi	-5704
▁kümn	-5705
▁lipu	-5706
▁jumal	-5707
▁pluss	-5708
▁kooskõlasta	-5709
▁5,	-5710
usin	-5711
▁tsa	-5712
▁maante	-5713
▁maksud	-5714
▁palgal	-5715
valdkonnas	-5716
▁arvestata	-5717
sku	-5718
▁nur	-5719
▁võlgu	-5720
▁arutle	-5721
▁aruande	-5722
▁riigime	-5723
▁leppinud	-5724
▁fraktsioonid	-5725
goo	-5726
jatel	-5727
kriisi	-5728
oetuste	-5729
▁popula	-5730
▁kaitseväel	-5731
mk	-5732
tasid	-5733
▁null	-5734
▁side	-5735
▁õppi	-5736
▁üldist	-5737
▁keskuse	-5738
▁kasutama	-5739
▁liikmeks	-5740
▁muutuvad	-5741
▁maksuvaba	-5742
▁rääkimata	-5743
▁kaitseliidu	-5744
õttu	-5745
plaan	-5746
▁eaka	-5747
▁hõlma	-5748
▁aktsep	-5749
▁seekord	-5750
▁hetke	-5751
▁kasum	-5752
▁endast	-5753
▁lauale	-5754
▁ametnike	-5755
▁detsembri	-5756
▁küllaltki	-5757
▁pall	-5758
▁2019.	-5759
▁ainus	-5760
▁kalli	-5761
▁rände	-5762
▁tabel	-5763
▁tehes	-5764
▁vaate	-5765
▁hakkaks	-5766
▁avalikus	-5767
▁kohtusse	-5768
▁valitsemis	-5769
▁komisjonide	-5770
▁lõpphääletus	-5771
▁väliskomisjoni	-5772
bü	-5773
▁eeldab	-5774
▁kohane	-5775
▁ajakirja	-5776
▁küsisite	-5777
▁tõr	-5778
▁immig	-5779
▁estoni	-5780
▁variant	-5781
▁ehitatud	-5782
▁põllumajandust	-5783
adet	-5784
▁tor	-5785
julge	-5786
ümpia	-5787
liselt	-5788
ringhääl	-5789
tamiseks	-5790
▁luuakse	-5791
▁muutmist	-5792
▁kasutavad	-5793
▁kohustuse	-5794
▁analüüsida	-5795
▁kättesaadav	-5796
kis	-5797
▁amb	-5798
semad	-5799
▁ülal	-5800
musega	-5801
▁pakub	-5802
▁tulid	-5803
▁linnas	-5804
▁praegust	-5805
▁sündinud	-5806
▁vabariik	-5807
▁menetleda	-5808
▁laan	-5809
▁jääma	-5810
▁küsib	-5811
▁tulude	-5812
▁hommikust	-5813
▁edenda	-5814
▁puuetega	-5815
▁täitmise	-5816
▁valimised	-5817
▁rahvasaadikut	-5818
aru	-5819
kut	-5820
alad	-5821
kümne	-5822
▁näol	-5823
entide	-5824
▁bus	-5825
▁rahvusringhääl	-5826
luba	-5827
▁märt	-5828
▁põlv	-5829
▁euroo	-5830
▁organ	-5831
▁muutus	-5832
▁ammenda	-5833
▁oleksime	-5834
▁prantsus	-5835
fer	-5836
▁400	-5837
duses	-5838
▁ühtl	-5839
▁hoole	-5840
▁seisuga	-5841
▁teaduse	-5842
▁vahendi	-5843
▁mõjutada	-5844
▁poliitikud	-5845
len	-5846
ras	-5847
jevi	-5848
uure	-5849
umide	-5850
▁paik	-5851
▁riis	-5852
▁vääri	-5853
päraselt	-5854
verentsi	-5855
▁üldjuhul	-5856
▁strateegia	-5857
▁tõenäosusega	-5858
hes	-5859
pet	-5860
udi	-5861
▁seatud	-5862
▁arvamusi	-5863
▁kehtivad	-5864
▁millises	-5865
nime	-5866
▁taust	-5867
halduse	-5868
▁august	-5869
ustatakse	-5870
▁teistest	-5871
▁päevakord	-5872
▁algatajate	-5873
▁25.	-5874
▁riigieelarvesse	-5875
gani	-5876
▁soe	-5877
võimu	-5878
▁asub	-5879
▁jutu	-5880
▁inara	-5881
▁rahap	-5882
▁viiakse	-5883
▁kõikides	-5884
▁sektoris	-5885
tuuri	-5886
▁arvab	-5887
▁jõudis	-5888
▁kuulsime	-5889
▁sõnavõtus	-5890
▁piirivalve	-5891
▁poliitikat	-5892
ron	-5893
aval	-5894
deko	-5895
ilis	-5896
▁appi	-5897
▁erki	-5898
▁kahtl	-5899
kindlust	-5900
▁ollakse	-5901
▁täiskasv	-5902
vahe	-5903
▁50%	-5904
▁siim	-5905
▁kasutanud	-5906
määr	-5907
▁1000	-5908
▁5000	-5909
▁muga	-5910
▁palo	-5911
▁hakkas	-5912
▁laanet	-5913
▁karista	-5914
▁vaa	-5915
firma	-5916
▁kala	-5917
▁rõiva	-5918
▁suhel	-5919
▁varja	-5920
külliki	-5921
▁jutuks	-5922
▁maksavad	-5923
▁nimetasite	-5924
iner	-5925
ssid	-5926
▁ran	-5927
▁mari	-5928
▁halve	-5929
▁tsahk	-5930
▁oleksin	-5931
▁eesmärgid	-5932
▁omavalitsustel	-5933
loa	-5934
▁jään	-5935
▁kalju	-5936
▁ukrain	-5937
▁püütakse	-5938
▁taastuvenergia	-5939
palk	-5940
▁23.	-5941
▁tihe	-5942
▁eesmaa	-5943
lugupeetav	-5944
▁positsiooni	-5945
▁vih	-5946
▁efendi	-5947
▁metood	-5948
▁inglise	-5949
protsessi	-5950
▁enamasti	-5951
▁rahvusvaheline	-5952
hv	-5953
daja	-5954
▁oligi	-5955
▁riigik	-5956
sf	-5957
atiat	-5958
etusi	-5959
▁võid	-5960
▁tagab	-5961
ttevõte	-5962
▁vastavad	-5963
korralduse	-5964
▁erikomisjoni	-5965
nor	-5966
eeme	-5967
udele	-5968
▁laiene	-5969
▁vormis	-5970
▁peaministrile	-5971
eru	-5972
üles	-5973
afrika	-5974
▁kuskile	-5975
▁vanemate	-5976
▁kinnitatud	-5977
▁tähtsusega	-5978
▁emotsionaal	-5979
alga	-5980
ased	-5981
▁rmk	-5982
▁sool	-5983
▁toimuma	-5984
▁reeglite	-5985
▁siinsamas	-5986
▁õigusloome	-5987
▁läbirääkimistel	-5988
▁mun	-5989
▁kuri	-5990
▁mist	-5991
▁elama	-5992
▁nõuda	-5993
▁rõhutada	-5994
▁viimased	-5995
▁käsitleda	-5996
▁panustada	-5997
▁tutvustas	-5998
▁juhatusele	-5999
▁kallo	-6000
▁spord	-6001
▁teete	-6002
▁esialg	-6003
▁otsida	-6004
▁põhjend	-6005
▁otsusega	-6006
▁riigisise	-6007
▁transpordi	-6008
ban	-6009
kah	-6010
▁usa	-6011
ilises	-6012
▁standa	-6013
▁toetas	-6014
▁tsahkna	-6015
▁sunnitud	-6016
▁eelnõusse	-6017
▁suurendab	-6018
oof	-6019
tari	-6020
tast	-6021
▁avata	-6022
vastase	-6023
▁tänada	-6024
rig	-6025
minud	-6026
▁lükka	-6027
▁eesmärke	-6028
▁hommikul	-6029
▁valguses	-6030
▁paralleel	-6031
▁lahendatud	-6032
▁esmaspäeval	-6033
▁inimõiguste	-6034
▁ministeeriumis	-6035
kat	-6036
▁mü	-6037
▁mtü	-6038
grupp	-6039
▁koolil	-6040
▁mistõttu	-6041
gas	-6042
käi	-6043
arve	-6044
▁kaugel	-6045
▁maapiir	-6046
▁muudetud	-6047
dek	-6048
▁44	-6049
▁30.	-6050
minut	-6051
osoof	-6052
▁tõin	-6053
mbriks	-6054
▁astuda	-6055
▁konsul	-6056
▁person	-6057
▁liberaal	-6058
▁10%	-6059
▁foo	-6060
ustas	-6061
▁sõita	-6062
▁tarvis	-6063
▁hääletust	-6064
▁vahendite	-6065
bo	-6066
õpp	-6067
▁vahend	-6068
▁võimatu	-6069
▁asjadest	-6070
▁täidetud	-6071
▁ühistranspord	-6072
▁omavalitsusele	-6073
▁29	-6074
▁uuring	-6075
▁jaanuari	-6076
▁mitmesuguseid	-6077
▁territooriumil	-6078
▁sula	-6079
▁kehtiv	-6080
▁sammud	-6081
materjal	-6082
▁mingite	-6083
▁umbusal	-6084
▁näidanud	-6085
▁avalikkuse	-6086
▁ettenähtud	-6087
▁ülesannete	-6088
asa	-6089
bri	-6090
kuid	-6091
▁palve	-6092
▁propa	-6093
▁leiame	-6094
▁tuleme	-6095
▁pidades	-6096
▁kodanikud	-6097
▁tulubaasi	-6098
▁elanikkonna	-6099
▁muul	-6100
▁piin	-6101
▁ansip	-6102
▁avasta	-6103
▁kasulik	-6104
▁viimaste	-6105
▁diskrimin	-6106
▁hääletama	-6107
▁kolmandat	-6108
▁tulemused	-6109
▁täitmiseks	-6110
!""	-6111
▁pen	-6112
tselei	-6113
▁viies	-6114
▁sadama	-6115
▁kutsuda	-6116
▁riigist	-6117
▁halvasti	-6118
▁suudavad	-6119
▁suverään	-6120
▁kujunenud	-6121
▁suhtumine	-6122
▁põllumeest	-6123
▁ühiskonnale	-6124
▁investeerida	-6125
2,	-6126
sõidu	-6127
▁riku	-6128
▁poleks	-6129
▁näitaja	-6130
eeritakse	-6131
▁osalenud	-6132
▁arengufondi	-6133
▁kooseluseaduse	-6134
tsuse	-6135
▁elav	-6136
▁maris	-6137
▁teilt	-6138
▁tegemise	-6139
▁kohalikke	-6140
▁tegevused	-6141
▁korraldamise	-6142
likule	-6143
▁arvuta	-6144
▁delega	-6145
▁dmitri	-6146
▁nõudeid	-6147
▁õpilaste	-6148
▁kandidaat	-6149
go	-6150
▁ah	-6151
giks	-6152
▁firma	-6153
▁suvel	-6154
▁pakkunud	-6155
poliitikas	-6156
▁lastekaitse	-6157
▁stenogrammi	-6158
▁prokuratuuri	-6159
▁aitavad	-6160
jaa	-6161
▁vaim	-6162
▁juuni	-6163
▁surve	-6164
▁teabe	-6165
▁deklar	-6166
koormuse	-6167
▁osalesid	-6168
▁toimuvad	-6169
▁riigikokku	-6170
▁liikmesriikide	-6171
dit	-6172
mil	-6173
▁jaa	-6174
pital	-6175
▁demo	-6176
▁kiis	-6177
▁arutl	-6178
registri	-6179
▁erineva	-6180
▁lähtuda	-6181
▁piiriüle	-6182
▁tõstmine	-6183
kindlustus	-6184
ülik	-6185
kordi	-6186
õukogu	-6187
▁sekto	-6188
▁tulebki	-6189
▁kasvavad	-6190
▁hääletuse	-6191
▁ettevõtjatele	-6192
▁46	-6193
mani	-6194
miga	-6195
vist	-6196
▁kaob	-6197
likust	-6198
valdor	-6199
▁langeb	-6200
▁pankro	-6201
▁viidud	-6202
▁aruanne	-6203
▁samasugune	-6204
rea	-6205
velt	-6206
▁okupa	-6207
▁registreerus	-6208
▁millegipärast	-6209
▁47	-6210
▁af	-6211
sart	-6212
ajalt	-6213
▁2018	-6214
▁klii	-6215
▁siga	-6216
▁olene	-6217
▁kestab	-6218
▁suuresti	-6219
▁gümnaasiumise	-6220
0-	-6221
nnit	-6222
ühis	-6223
inspe	-6224
▁ajut	-6225
▁pihta	-6226
▁uudis	-6227
▁võrgu	-6228
▁nal	-6229
eerivad	-6230
▁liigub	-6231
▁üleüld	-6232
▁kõigest	-6233
▁savisaar	-6234
▁sisuline	-6235
▁järjepide	-6236
▁niisuguse	-6237
rän	-6238
▁43	-6239
mees	-6240
▁adek	-6241
jatega	-6242
sartmän	-6243
▁eeldan	-6244
▁ütleks	-6245
▁hooldus	-6246
spetsialist	-6247
▁institutsioon	-6248
ministeeriumiga	-6249
juhti	-6250
damine	-6251
▁tõkest	-6252
▁loetelu	-6253
▁raamatupida	-6254
minu	-6255
sesse	-6256
tasude	-6257
▁2010.	-6258
▁senti	-6259
▁kabine	-6260
▁peamiselt	-6261
▁tutvustada	-6262
▁peh	-6263
▁lähtub	-6264
▁mingis	-6265
▁kontsep	-6266
▁koju	-6267
▁maju	-6268
martin	-6269
▁vakra	-6270
▁kaasas	-6271
▁eelmises	-6272
▁taotluse	-6273
▁tänapäeva	-6274
▁seaduseelnõuga	-6275
lts	-6276
ganist	-6277
tustes	-6278
eerinud	-6279
tustest	-6280
▁mõtleme	-6281
▁erivajadustega	-6282
nalt	-6283
jalik	-6284
sette	-6285
▁võru	-6286
▁laiali	-6287
▁üheselt	-6288
tut	-6289
gleid	-6290
▁olime	-6291
▁väidan	-6292
▁reklaam	-6293
▁suureks	-6294
▁kindlalt	-6295
▁võimekus	-6296
▁saamiseks	-6297
▁den	-6298
▁põle	-6299
kusest	-6300
▁tehta	-6301
▁kasuks	-6302
▁oktoobri	-6303
▁tähelepan	-6304
▁praeguseks	-6305
sor	-6306
–201	-6307
istun	-6308
juhtu	-6309
▁toetan	-6310
▁turule	-6311
▁esialgu	-6312
▁jälgida	-6313
▁õigemini	-6314
▁ebaseadus	-6315
▁tegemisel	-6316
giga	-6317
▁küü	-6318
▁ütel	-6319
▁raama	-6320
▁isikut	-6321
erin	-6322
rdin	-6323
▁koose	-6324
▁tunni	-6325
▁vanem	-6326
▁riisalu	-6327
▁määratle	-6328
▁väiksemad	-6329
▁töökohtade	-6330
▁spetsialistid	-6331
lised	-6332
▁kohti	-6333
▁täiendav	-6334
▁kasutades	-6335
ministeeriumil	-6336
musedettepaneku	-6337
ütle	-6338
▁parim	-6339
▁töötus	-6340
▁kõikidel	-6341
▁piirkonna	-6342
▁rahvaesinda	-6343
▁riigihalduse	-6344
liik	-6345
meie	-6346
▁2020	-6347
▁jäid	-6348
▁2020.	-6349
▁igale	-6350
▁tolle	-6351
▁tausta	-6352
▁asutuste	-6353
▁igasugune	-6354
▁kulutused	-6355
▁missugune	-6356
▁ressursse	-6357
▁tolliamet	-6358
▁võimalikud	-6359
▁suurusjärgus	-6360
müü	-6361
võim	-6362
▁ukse	-6363
▁hamba	-6364
▁psühh	-6365
▁paremat	-6366
▁digitaal	-6367
▁rahapesu	-6368
▁kinnitanud	-6369
▁kõikvõimal	-6370
▁piirivalveameti	-6371
kkus	-6372
▁raid	-6373
▁matuse	-6374
▁panema	-6375
▁tingitud	-6376
▁vähendab	-6377
▁laiendada	-6378
▁realiseeri	-6379
euro	-6380
▁sib	-6381
▁lõpeb	-6382
▁naised	-6383
▁infotehn	-6384
▁kahetsus	-6385
▁selgitas	-6386
▁sisulist	-6387
▁pikendada	-6388
▁pomerants	-6389
eamet	-6390
▁vaik	-6391
▁lõige	-6392
▁ulatus	-6393
▁alustan	-6394
▁esitama	-6395
▁infrast	-6396
▁pädevus	-6397
▁esitasid	-6398
▁kaasette	-6399
▁pikemalt	-6400
▁vaatasin	-6401
mägi	-6402
▁2013	-6403
▁boro	-6404
andest	-6405
▁anvelt	-6406
▁moraal	-6407
▁algatada	-6408
eto	-6409
para	-6410
leppe	-6411
ttevõt	-6412
▁seada	-6413
▁algatas	-6414
▁borodit	-6415
▁vaidlus	-6416
investeer	-6417
▁ettepanekul	-6418
▁igasuguseid	-6419
▁avalikkusele	-6420
▁konsensuslik	-6421
lad	-6422
▁ajada	-6423
▁kinnist	-6424
▁puhtalt	-6425
▁tähtsam	-6426
▁igapäeva	-6427
▁kampaania	-6428
▁keerulise	-6429
▁tööandjate	-6430
ministeeriumist	-6431
▁las	-6432
▁kadu	-6433
▁huvid	-6434
▁mehed	-6435
▁piima	-6436
▁teeks	-6437
▁omandi	-6438
▁vaidle	-6439
▁esimeses	-6440
▁kompensa	-6441
▁rahulikult	-6442
▁täiendavat	-6443
▁tagantjärele	-6444
kuu	-6445
oolis	-6446
▁laane	-6447
▁samad	-6448
▁eriala	-6449
ubanduse	-6450
▁jõustub	-6451
▁omaette	-6452
▁peaminist	-6453
▁riikidest	-6454
▁vastutuse	-6455
▁põhiliselt	-6456
itsa	-6457
temaat	-6458
▁teavi	-6459
▁rainer	-6460
▁pöörata	-6461
▁hooldeko	-6462
▁veebruari	-6463
▁hõ	-6464
made	-6465
vaja	-6466
risse	-6467
▁sektor	-6468
▁kohalikel	-6469
▁olemasolu	-6470
▁kasutamist	-6471
▁lahendused	-6472
▁põhimõtteline	-6473
...	-6474
sal	-6475
hena	-6476
▁sti	-6477
▁pani	-6478
▁lutse	-6479
▁lõppu	-6480
▁miljon	-6481
▁üleand	-6482
▁eelnõule	-6483
▁demograaf	-6484
▁hinnangut	-6485
▁pealkirja	-6486
▁piirangud	-6487
▁funktsioon	-6488
▁vabaerakond	-6489
ministeeriumile	-6490
sika	-6491
▁hari	-6492
▁terro	-6493
▁kaasata	-6494
▁lubanud	-6495
▁kogukonna	-6496
▁jõustumise	-6497
fi	-6498
iksid	-6499
põhimõ	-6500
▁selts	-6501
▁korrig	-6502
▁sõnaga	-6503
▁trahvi	-6504
ktsioone	-6505
▁tunnista	-6506
▁maksumuuda	-6507
▁49	-6508
iver	-6509
muga	-6510
▁26.	-6511
gitud	-6512
hange	-6513
ikuga	-6514
unnist	-6515
õigust	-6516
▁iseenda	-6517
▁kommenta	-6518
▁ressursi	-6519
▁vastasin	-6520
▁eesmärgil	-6521
komisjonile	-6522
▁tasakaalus	-6523
▁ettevõtteid	-6524
▁usaldusväär	-6525
▁püst	-6526
▁saja	-6527
▁tunda	-6528
fondide	-6529
olevalt	-6530
▁hindate	-6531
▁lapsele	-6532
▁munitsi	-6533
▁teistel	-6534
▁väikesed	-6535
▁avalikult	-6536
▁lemb	-6537
▁suht	-6538
stanud	-6539
▁tugis	-6540
▁kinnit	-6541
▁nõuetele	-6542
▁populaar	-6543
▁võimaliku	-6544
▁kolmandale	-6545
▁ideed	-6546
▁pandi	-6547
toriaal	-6548
▁kohtla	-6549
▁määrati	-6550
vahendeid	-6551
▁prioriteed	-6552
▁tegemiseks	-6553
▁elektroonil	-6554
▁konkreetsete	-6555
lü	-6556
ete	-6557
ges	-6558
▁rüh	-6559
proua	-6560
▁hüvi	-6561
▁võrdse	-6562
▁afganist	-6563
▁karilaid	-6564
▁nõustuda	-6565
▁tegutseda	-6566
▁moodustamine	-6567
tma	-6568
apla	-6569
vägi	-6570
duste	-6571
▁lõik	-6572
▁narvas	-6573
▁selged	-6574
ritoriaal	-6575
▁avalikku	-6576
▁juhtinud	-6577
▁maamaksu	-6578
▁teemadel	-6579
▁eksperdid	-6580
▁menetlust	-6581
tid	-6582
▁eil	-6583
▁huve	-6584
kirjad	-6585
▁leian	-6586
▁neeme	-6587
▁number	-6588
▁kasutab	-6589
▁täiendavaid	-6590
kun	-6591
▁arh	-6592
vanem	-6593
aplaus	-6594
▁univer	-6595
▁paindliku	-6596
▁muutmiseks	-6597
▁tervishoius	-6598
eris	-6599
gaal	-6600
kõige	-6601
tsust	-6602
▁konta	-6603
eliselt	-6604
▁debati	-6605
▁hinnad	-6606
▁linnad	-6607
▁kapitali	-6608
▁senisest	-6609
▁eraldatud	-6610
▁hasartmän	-6611
▁täiendava	-6612
▁hääletamis	-6613
bil	-6614
uti	-6615
jana	-6616
▁28.	-6617
▁2017	-6618
▁juhi	-6619
▁vorm	-6620
▁laadi	-6621
▁näevad	-6622
▁ootama	-6623
▁tõusnud	-6624
▁otsusena	-6625
▁suuremaid	-6626
▁paratamatult	-6627
har	-6628
▁31.	-6629
aivar	-6630
kurite	-6631
▁andke	-6632
▁erase	-6633
▁kompon	-6634
▁ravimi	-6635
▁õiglane	-6636
▁niipalju	-6637
▁munitsipa	-6638
▁töölepingu	-6639
▁statistikat	-6640
▁64	-6641
▁jo	-6642
täitu	-6643
▁idea	-6644
▁tend	-6645
▁ühed	-6646
▁viinud	-6647
▁saamise	-6648
▁töötama	-6649
▁ministrina	-6650
▁rai	-6651
▁kohtute	-6652
▁olevate	-6653
▁spiiker	-6654
▁vägivalla	-6655
▁eelkõneleja	-6656
▁ettevõtjaid	-6657
▁küsimustega	-6658
mer	-6659
urve	-6660
gevust	-6661
istest	-6662
▁tubli	-6663
▁tõmba	-6664
▁õigel	-6665
▁kodule	-6666
▁parane	-6667
▁tagama	-6668
menetlus	-6669
▁vastast	-6670
▁võrdselt	-6671
▁konflikti	-6672
lit	-6673
kogus	-6674
▁aina	-6675
▁kaud	-6676
▁telli	-6677
▁õppima	-6678
▁esindus	-6679
▁tuiksoo	-6680
▁häälteen	-6681
▁eelmisele	-6682
▁korraldatud	-6683
▁ettepanekute	-6684
▁hetk	-6685
▁endal	-6686
▁ootab	-6687
▁osalevad	-6688
▁kindlustun	-6689
▁juriidilise	-6690
▁proportsionaal	-6691
▁oe	-6692
ente	-6693
▁kod	-6694
erida	-6695
maast	-6696
masse	-6697
▁lenk	-6698
▁remo	-6699
▁komme	-6700
▁laine	-6701
ettevõt	-6702
▁komisjonid	-6703
▁jätkusuutlik	-6704
▁sotsiaalkaitse	-6705
ük	-6706
dav	-6707
▁mini	-6708
▁saks	-6709
tavaks	-6710
▁olite	-6711
ustavad	-6712
▁järsku	-6713
▁tõenda	-6714
▁tuuakse	-6715
▁kaitstud	-6716
▁tulemust	-6717
▁õht	-6718
hinna	-6719
▁toit	-6720
eameti	-6721
piiran	-6722
▁interv	-6723
▁luigas	-6724
▁kümneid	-6725
▁läbivii	-6726
▁siiralt	-6727
▁sätestab	-6728
▁universa	-6729
▁riigieelarvet	-6730
iit	-6731
ooru	-6732
▁baas	-6733
▁diis	-6734
alised	-6735
▁valmi	-6736
▁deniss	-6737
▁arengut	-6738
▁toetame	-6739
▁korrektne	-6740
musedeelnõu	-6741
▁poliitikas	-6742
▁piirkondades	-6743
▁kahjul	-6744
▁sularaha	-6745
ööd	-6746
tulu	-6747
▁29.	-6748
rüsse	-6749
itsiooni	-6750
▁küsitud	-6751
▁rääkisid	-6752
▁demokraatlik	-6753
▁53	-6754
daks	-6755
▁lase	-6756
▁liin	-6757
▁ranna	-6758
▁brüsse	-6759
▁pentus	-6760
▁asjadega	-6761
▁kaevanda	-6762
▁minnakse	-6763
▁nüüdseks	-6764
▁kooskõlla	-6765
▁koosoleku	-6766
▁seejuures	-6767
▁võimelised	-6768
▁tingimustes	-6769
▁vabatahtlik	-6770
▁ministeeriumid	-6771
foni	-6772
tead	-6773
▁sind	-6774
▁võõr	-6775
▁tööga	-6776
▁loomine	-6777
▁filosoof	-6778
▁kahtlust	-6779
▁saksamaa	-6780
▁viljandi	-6781
▁igaü	-6782
oetuse	-6783
▁paljus	-6784
▁arutelud	-6785
▁eelarvestratee	-6786
▁6,	-6787
▁juhuks	-6788
▁vaatab	-6789
▁kadunud	-6790
▁noortele	-6791
▁dokumendi	-6792
▁järgmistel	-6793
▁kavandatud	-6794
▁tehnoloogia	-6795
galt	-6796
naer	-6797
konto	-6798
mudel	-6799
randi	-6800
võimet	-6801
▁narko	-6802
▁pilti	-6803
▁toodi	-6804
senaari	-6805
▁vangla	-6806
▁arengus	-6807
▁asutuse	-6808
▁paremad	-6809
▁piirata	-6810
▁elektroonilise	-6811
aid	-6812
itõ	-6813
▁1%	-6814
aloo	-6815
▁heas	-6816
▁voli	-6817
istele	-6818
ustusi	-6819
▁diplo	-6820
õpetaja	-6821
▁esitan	-6822
▁suitse	-6823
▁tartus	-6824
▁tookord	-6825
▁töötasu	-6826
▁järgmisena	-6827
▁elat	-6828
▁vasa	-6829
▁ärme	-6830
▁soori	-6831
▁keskus	-6832
▁lähedal	-6833
▁muuseas	-6834
▁tööstus	-6835
valitsuse	-6836
▁mandaadi	-6837
▁tõlgenda	-6838
▁needsamad	-6839
▁piirivalveamet	-6840
▁oste	-6841
▁pidu	-6842
jatest	-6843
▁tulud	-6844
▁varju	-6845
▁endine	-6846
▁seeder	-6847
kultuuri	-6848
osakonna	-6849
▁esitaja	-6850
▁intressi	-6851
▁kinnitan	-6852
▁leitakse	-6853
▁efendijev	-6854
▁tolliameti	-6855
▁tänapäeval	-6856
dusele	-6857
▁häiri	-6858
▁kotka	-6859
▁saagi	-6860
▁täide	-6861
▁täpse	-6862
▁jahime	-6863
▁avaldanud	-6864
▁mõistliku	-6865
▁tulemusel	-6866
▁otstarbekas	-6867
▁erivajadusega	-6868
▁78	-6869
▁kip	-6870
▁püh	-6871
itaal	-6872
▁ping	-6873
mihhail	-6874
stamise	-6875
tamisel	-6876
▁ajalugu	-6877
▁salvest	-6878
petsialist	-6879
▁hääletamist	-6880
▁vastuvõtmist	-6881
engu	-6882
▁pur	-6883
resid	-6884
▁küla	-6885
▁muin	-6886
lusega	-6887
simann	-6888
▁kiira	-6889
▁koole	-6890
▁treen	-6891
olukorra	-6892
▁rahvale	-6893
▁matemaat	-6894
▁valikuid	-6895
▁paljudele	-6896
kub	-6897
▁24.	-6898
niste	-6899
▁loota	-6900
▁kohati	-6901
▁võimul	-6902
▁analoog	-6903
kaubandus	-6904
▁administ	-6905
julgeoleku	-6906
▁olukorrast	-6907
vanemad	-6908
▁teadma	-6909
▁vastava	-6910
▁riigikohus	-6911
▁sisekaitse	-6912
▁väljakutse	-6913
▁tööminister	-6914
kolle	-6915
vinud	-6916
põhine	-6917
▁arsti	-6918
▁grupp	-6919
▁kliima	-6920
▁52	-6921
retult	-6922
▁2008.	-6923
programm	-6924
▁liikmel	-6925
▁loomulik	-6926
▁temaatika	-6927
▁keskmisest	-6928
▁initsiatiiv	-6929
▁munitsipaal	-6930
oi	-6931
▁54	-6932
asse	-6933
istel	-6934
▁omalt	-6935
▁sääst	-6936
▁tõhus	-6937
▁arvavad	-6938
▁eespool	-6939
▁üksmeel	-6940
programmi	-6941
▁esindatud	-6942
▁objektiiv	-6943
▁tulenevad	-6944
▁mõistlikum	-6945
▁korteriühistu	-6946
▁riigikontrolör	-6947
▁57	-6948
▁iv	-6949
inii	-6950
▁võis	-6951
▁pehme	-6952
▁kitsas	-6953
▁lugema	-6954
▁kellest	-6955
▁kuriteo	-6956
▁hääletus	-6957
▁taastada	-6958
▁toimingu	-6959
▁tahaksime	-6960
▁tuginedes	-6961
▁täpsustan	-6962
▁vastusest	-6963
▁erasektori	-6964
▁järgmiseks	-6965
▁kohtutäitu	-6966
▁õnnestunud	-6967
▁aktsepteeri	-6968
▁kirjalikult	-6969
▁90	-6970
üksi	-6971
▁ser	-6972
randa	-6973
▁niiku	-6974
▁tohib	-6975
▁ühegi	-6976
▁kantud	-6977
ttevõtte	-6978
▁andmise	-6979
▁viitasin	-6980
▁lasteaeda	-6981
▁niikuinii	-6982
▁poolteist	-6983
▁säilitada	-6984
▁esitatakse	-6985
▁majanduslik	-6986
▁prokuratuur	-6987
▁rahastamist	-6988
▁kodakondsust	-6989
venda	-6990
ritele	-6991
▁areng	-6992
▁katta	-6993
▁elanud	-6994
▁leitud	-6995
▁temaga	-6996
▁loomise	-6997
▁riigiasu	-6998
▁lähiaasta	-6999
enes	-7000
kaks	-7001
riku	-7002
▁meedias	-7003
▁päriselt	-7004
▁kohtuniku	-7005
▁esindajatega	-7006
likü	-7007
mele	-7008
▁tõm	-7009
urmas	-7010
dusega	-7011
▁otsima	-7012
▁selget	-7013
▁võtate	-7014
haridust	-7015
▁osapooled	-7016
▁vastuseks	-7017
▁võimekust	-7018
▁tagasiside	-7019
▁võimalikke	-7020
▁erakordselt	-7021
▁nimetatakse	-7022
▁lahendamiseks	-7023
▁alam	-7024
▁suru	-7025
haigla	-7026
▁jätab	-7027
▁aktuaal	-7028
▁liikuma	-7029
▁meetmete	-7030
▁tegevusi	-7031
▁julgeolek	-7032
▁poliitilised	-7033
▁sotsiaalmaks	-7034
henn	-7035
juhid	-7036
▁võsa	-7037
ttunud	-7038
▁mängu	-7039
▁passi	-7040
▁subje	-7041
▁endise	-7042
▁kallis	-7043
▁korraks	-7044
▁punktis	-7045
▁tänasel	-7046
▁kaljuvee	-7047
▁seletada	-7048
▁läbivaata	-7049
▁ministrit	-7050
▁korralikult	-7051
ute	-7052
▁39	-7053
rupi	-7054
▁mag	-7055
palgal	-7056
▁nähakse	-7057
▁paistab	-7058
väel	-7059
järje	-7060
▁lenn	-7061
kabine	-7062
▁omand	-7063
juhataja	-7064
▁saamata	-7065
▁ekspordi	-7066
▁mandaati	-7067
▁tähtaega	-7068
▁viidatud	-7069
▁eelnevalt	-7070
▁vabatahtlikult	-7071
▁76	-7072
siiv	-7073
efitsi	-7074
▁ausad	-7075
▁kvali	-7076
▁müügi	-7077
tiseeri	-7078
▁mikser	-7079
▁suurel	-7080
▁tööpuud	-7081
▁riigiabi	-7082
▁analüüsid	-7083
▁valdavalt	-7084
▁informeeri	-7085
▁probleemiga	-7086
▁sotsiaaltöö	-7087
isuse	-7088
junud	-7089
organ	-7090
ringi	-7091
▁luik	-7092
andmete	-7093
▁asutus	-7094
rosimann	-7095
▁aegadel	-7096
▁ametiüh	-7097
▁andmine	-7098
▁tutvuda	-7099
▁põhjalik	-7100
▁erakonnakaas	-7101
▁teadaolevalt	-7102
▁ajaga	-7103
▁hulle	-7104
▁peast	-7105
ustades	-7106
▁ainuüksi	-7107
▁kuulates	-7108
▁teinekord	-7109
▁suurendamine	-7110
bu	-7111
▁loome	-7112
▁ettehe	-7113
▁heimar	-7114
▁uurida	-7115
▁olümpia	-7116
▁erinevus	-7117
▁kokkuleppele	-7118
▁glo	-7119
▁allu	-7120
▁sule	-7121
elased	-7122
▁menetluslikud	-7123
vise	-7124
tsite	-7125
▁kruusi	-7126
▁täidab	-7127
▁paragrahv	-7128
▁positiivse	-7129
▁vähendamine	-7130
▁föderatsiooni	-7131
▁arendustegevuse	-7132
tri	-7133
▁20%	-7134
▁aav	-7135
▁püha	-7136
▁eldar	-7137
keskuse	-7138
▁leidma	-7139
▁nõuete	-7140
▁pagula	-7141
▁kasutan	-7142
▁palgatõus	-7143
▁pöördunud	-7144
▁42	-7145
▁kooselu	-7146
▁partner	-7147
▁ääretult	-7148
▁lõpetanud	-7149
▁tingimusi	-7150
koalitsioon	-7151
▁kompetentsi	-7152
▁traditsioon	-7153
jaama	-7154
▁sooj	-7155
▁võtsid	-7156
▁kuuenda	-7157
▁praktikat	-7158
▁tegutsevad	-7159
▁poliitiliste	-7160
▁kättesaadavus	-7161
ustes	-7162
▁toote	-7163
aastane	-7164
kulusid	-7165
utamine	-7166
▁linnade	-7167
▁võrgust	-7168
▁kahtluse	-7169
▁sattunud	-7170
koalitsiooni	-7171
▁seletuskirjast	-7172
jun	-7173
mmi	-7174
siku	-7175
▁nalja	-7176
▁piirid	-7177
▁randjär	-7178
▁optimist	-7179
▁kaugemale	-7180
▁sissetulek	-7181
▁sotsiaalse	-7182
▁ravikindlustuse	-7183
man	-7184
▁68	-7185
joon	-7186
▁kaun	-7187
▁üksik	-7188
partner	-7189
raamatu	-7190
▁seisus	-7191
▁kaitset	-7192
▁seisneb	-7193
▁sõlmida	-7194
▁kohtades	-7195
▁kompleks	-7196
▁juhtimise	-7197
▁märkimisväärne	-7198
▁ühistranspordi	-7199
–2	-7200
mere	-7201
▁tür	-7202
▁täpne	-7203
▁õnnel	-7204
mistest	-7205
▁hakati	-7206
▁kriitika	-7207
▁äh	-7208
anis	-7209
ikon	-7210
siis	-7211
utab	-7212
▁turg	-7213
poolse	-7214
▁musta	-7215
▁lembit	-7216
▁makstud	-7217
▁teenida	-7218
▁tehnika	-7219
▁reegleid	-7220
▁vahelise	-7221
▁mitmekesi	-7222
▁täiendada	-7223
▁koosolekul	-7224
▁põhimõtted	-7225
▁ratsionaal	-7226
▁ümberkorral	-7227
▁mingisugused	-7228
jast	-7229
▁kos	-7230
▁kvalif	-7231
▁eeldada	-7232
▁suuruse	-7233
▁põhimõtet	-7234
▁vastutustund	-7235
neid	-7236
tanni	-7237
▁alal	-7238
▁liisa	-7239
▁peatu	-7240
▁tüüpi	-7241
britanni	-7242
▁leiavad	-7243
▁tallinn	-7244
▁taotlus	-7245
▁tõmmata	-7246
▁arenenud	-7247
▁saadakse	-7248
▁töötajad	-7249
▁järgmiste	-7250
▁maksuamet	-7251
▁võimeline	-7252
▁27.	-7253
hoidu	-7254
▁lõpu	-7255
▁hange	-7256
▁kehte	-7257
▁võtke	-7258
▁puudus	-7259
▁süvene	-7260
▁loobuda	-7261
▁vanadus	-7262
▁uuringud	-7263
▁õppekava	-7264
▁huvigrupp	-7265
▁parandusette	-7266
▁tegelikkuses	-7267
▁taristuminister	-7268
pak	-7269
▁7,	-7270
hele	-7271
adire	-7272
▁kinn	-7273
▁panus	-7274
▁energi	-7275
▁küsime	-7276
▁laekub	-7277
kaitseväe	-7278
▁pensionile	-7279
▁suurbritanni	-7280
lah	-7281
rekla	-7282
▁hakk	-7283
▁reha	-7284
▁püüab	-7285
▁turva	-7286
prognoo	-7287
▁palume	-7288
▁kohalikule	-7289
▁luu	-7290
▁tse	-7291
istus	-7292
ritest	-7293
▁ester	-7294
▁lähen	-7295
▁tamme	-7296
▁vägagi	-7297
▁aspekti	-7298
▁avaldada	-7299
▁esimesed	-7300
▁kavatseb	-7301
▁vajaliku	-7302
▁arutatakse	-7303
▁majanduste	-7304
▁eesistumise	-7305
jaak	-7306
▁meri	-7307
▁17.15	-7308
▁rapor	-7309
▁vastav	-7310
▁kiisler	-7311
▁koolito	-7312
▁lootust	-7313
▁muutnud	-7314
▁vaheaja	-7315
▁soovitus	-7316
▁valitsuskabine	-7317
▁56	-7318
▁vea	-7319
gusid	-7320
marti	-7321
▁parv	-7322
▁suve	-7323
▁igaks	-7324
▁tahet	-7325
▁juhtis	-7326
▁tuntud	-7327
▁viitas	-7328
kapitali	-7329
▁piirang	-7330
▁eraldada	-7331
▁millisel	-7332
▁rahalise	-7333
▁seaduseks	-7334
▁poliitiliselt	-7335
▁ts	-7336
vana	-7337
aktsi	-7338
▁aitaks	-7339
tamisega	-7340
▁soovinud	-7341
▁pakutakse	-7342
▁riigikogul	-7343
▁koalitsioonile	-7344
▁välispoliitika	-7345
▁tap	-7346
ingut	-7347
stitu	-7348
▁aust	-7349
▁kaeb	-7350
turval	-7351
▁eksam	-7352
▁riske	-7353
▁võtaks	-7354
valitsus	-7355
▁kõrgema	-7356
▁ootavad	-7357
▁seletuskiri	-7358
utaga	-7359
▁kvar	-7360
keskus	-7361
valeri	-7362
▁algul	-7363
juhtide	-7364
▁jõutud	-7365
▁tähend	-7366
▁eelista	-7367
▁koolilõuna	-7368
▁koalitsioonis	-7369
jüri	-7370
nagu	-7371
pank	-7372
▁itaal	-7373
▁kehve	-7374
▁mures	-7375
grammis	-7376
▁eeldus	-7377
▁objekt	-7378
▁polnud	-7379
vanemate	-7380
▁kuulsin	-7381
▁liidust	-7382
▁turismi	-7383
tsioonist	-7384
▁mäletate	-7385
▁nendesse	-7386
▁tulevast	-7387
▁piiranguid	-7388
▁stalnuhhini	-7389
▁haldusreform	-7390
saar	-7391
sead	-7392
usid	-7393
isime	-7394
itatud	-7395
▁kiita	-7396
▁sibul	-7397
▁vilja	-7398
päevane	-7399
▁euroga	-7400
▁inglis	-7401
▁täitnud	-7402
▁nominaal	-7403
▁arutelusid	-7404
het	-7405
hul	-7406
kate	-7407
täit	-7408
▁hek	-7409
stama	-7410
teema	-7411
▁kaia	-7412
▁raie	-7413
kteeri	-7414
▁aluse	-7415
▁helir	-7416
▁korter	-7417
▁seisma	-7418
riikides	-7419
▁aprilli	-7420
▁palling	-7421
▁põhiõig	-7422
▁rootsis	-7423
▁õiguslik	-7424
▁esimehena	-7425
▁kümneminut	-7426
▁suurenenud	-7427
▁vaadatakse	-7428
aks	-7429
▁assam	-7430
▁ruumi	-7431
▁jõuavad	-7432
▁estonian	-7433
▁esimesena	-7434
▁jõuliselt	-7435
▁argumendid	-7436
▁riigihange	-7437
▁täiskasvanu	-7438
pääs	-7439
pääsu	-7440
▁"...	-7441
▁olga	-7442
▁teis	-7443
▁peatü	-7444
miskava	-7445
▁aegade	-7446
▁usalda	-7447
▁väärteo	-7448
missioonil	-7449
▁kruusimäe	-7450
▁tarbimine	-7451
▁vähemasti	-7452
▁võimalike	-7453
▁elektriaktsiisi	-7454
▁58	-7455
▁61	-7456
▁71	-7457
▁prü	-7458
▁voor	-7459
teenust	-7460
▁astmel	-7461
▁mõlema	-7462
▁ülevõt	-7463
▁kindlad	-7464
▁riigiga	-7465
▁maksuvab	-7466
▁nimetamine	-7467
▁tööjõumaks	-7468
▁infosüsteemi	-7469
▁kumb	-7470
hinnan	-7471
▁halle	-7472
▁juhid	-7473
▁leiti	-7474
▁peagi	-7475
tustega	-7476
▁akadee	-7477
▁krooni	-7478
▁ülimalt	-7479
▁esitamist	-7480
▁häälteena	-7481
▁maakonnas	-7482
muudatusette	-7483
▁suurepärane	-7484
▁arvestatakse	-7485
▁kehtestatakse	-7486
▁hii	-7487
▁pel	-7488
goori	-7489
inenud	-7490
▁mõtted	-7491
▁toreda	-7492
keskkond	-7493
▁defitsi	-7494
▁palkade	-7495
▁dokumend	-7496
▁regulaar	-7497
▁täiendus	-7498
▁arusaamatuks	-7499
▁67	-7500
▁sin	-7501
▁kask	-7502
▁meest	-7503
▁pikem	-7504
▁meetod	-7505
▁olevad	-7506
▁piires	-7507
▁vabadus	-7508
▁diislikü	-7509
▁kulutada	-7510
▁milliste	-7511
▁töökohad	-7512
▁olukorraga	-7513
▁rahastamis	-7514
▁teenistuse	-7515
▁valitsusse	-7516
▁kilomeetrit	-7517
▁infrastruktuuri	-7518
kam	-7519
sina	-7520
gusel	-7521
lükka	-7522
▁atra	-7523
▁koba	-7524
▁lähi	-7525
▁mark	-7526
▁sara	-7527
▁kevad	-7528
etuseks	-7529
▁kujuneb	-7530
▁teadlik	-7531
▁vaatate	-7532
▁veendum	-7533
▁sisulise	-7534
▁summasid	-7535
▁liikumine	-7536
▁ministril	-7537
▁sellisest	-7538
▁korr	-7539
▁uues	-7540
▁õlle	-7541
▁majas	-7542
▁murel	-7543
▁välju	-7544
▁võist	-7545
▁euroala	-7546
▁kiirabi	-7547
vabariigi	-7548
▁kogemusi	-7549
▁mikrofon	-7550
▁aseesimehe	-7551
▁fraktsioonidel	-7552
easu	-7553
komp	-7554
maail	-7555
▁baasi	-7556
▁lubab	-7557
▁paber	-7558
▁tooma	-7559
▁maantee	-7560
▁parvlae	-7561
▁selliseks	-7562
▁kritiseeri	-7563
▁menetlusest	-7564
mut	-7565
▁hol	-7566
itust	-7567
nõude	-7568
▁uhke	-7569
▁ääre	-7570
monika	-7571
▁küber	-7572
▁laulu	-7573
▁vabad	-7574
▁kaskpe	-7575
▁seista	-7576
▁täitev	-7577
▁lutsepp	-7578
▁eestimaa	-7579
▁lahkunud	-7580
▁miljardi	-7581
▁tugevalt	-7582
▁rakendusa	-7583
▁uuringuid	-7584
▁tallinnast	-7585
▁kokkuvõttes	-7586
▁muudatusega	-7587
▁rahvaesindajad	-7588
saat	-7589
toor	-7590
õnne	-7591
pakku	-7592
õnaga	-7593
▁refer	-7594
▁rünna	-7595
▁seegi	-7596
▁tooni	-7597
▁sajand	-7598
▁tõsist	-7599
kõneleja	-7600
▁piinlik	-7601
▁tänases	-7602
▁tunnevad	-7603
▁protsendi	-7604
▁majandusele	-7605
▁sisekaitsea	-7606
▁kra	-7607
ganda	-7608
innas	-7609
istes	-7610
laenu	-7611
mando	-7612
prakt	-7613
stuse	-7614
usime	-7615
utama	-7616
organi	-7617
▁ehkki	-7618
▁laasi	-7619
seadust	-7620
▁suhted	-7621
▁signaali	-7622
teenistuse	-7623
▁tehnilise	-7624
▁lõpetuseks	-7625
▁missioonil	-7626
jed	-7627
seda	-7628
▁keit	-7629
▁andre	-7630
▁parts	-7631
▁paluda	-7632
▁sõbrad	-7633
▁arstide	-7634
▁peadire	-7635
▁vähemaks	-7636
▁tagasihoid	-7637
▁vassiljevi	-7638
lusi	-7639
rühm	-7640
irmad	-7641
vikus	-7642
▁võlg	-7643
laselt	-7644
▁kohad	-7645
▁trend	-7646
tensiiv	-7647
▁vabalt	-7648
▁asjatund	-7649
▁üleüldse	-7650
▁bürokraatia	-7651
▁investeering	-7652
▁hääletamisele	-7653
▁omavalitsusel	-7654
õn	-7655
pri	-7656
▁72	-7657
▁sk	-7658
sise	-7659
▁ren	-7660
kohti	-7661
mmend	-7662
iskaal	-7663
mentaar	-7664
▁pangad	-7665
kodakond	-7666
▁muinsus	-7667
▁plaanid	-7668
▁tõniste	-7669
▁kinnitas	-7670
▁rahastus	-7671
ustamiseks	-7672
▁pensionis	-7673
▁arusaamatu	-7674
▁teoreetiliselt	-7675
öid	-7676
▁geo	-7677
alade	-7678
liste	-7679
▁selg	-7680
▁kõlab	-7681
▁miski	-7682
▁kahest	-7683
▁kütust	-7684
▁otsustama	-7685
kindlustuse	-7686
▁ettekannet	-7687
▁lisandväär	-7688
5%	-7689
▁2%	-7690
▁77	-7691
uden	-7692
▁hüm	-7693
aalne	-7694
oetust	-7695
▁massi	-7696
▁juhita	-7697
▁tõhusa	-7698
▁itaalia	-7699
▁lükatud	-7700
▁konverentsi	-7701
▁niisuguseid	-7702
lisi	-7703
tavas	-7704
▁jala	-7705
▁lask	-7706
▁korbi	-7707
▁pulti	-7708
▁andsid	-7709
▁loogil	-7710
▁summat	-7711
▁muutuda	-7712
▁omaniku	-7713
▁põhjama	-7714
▁tervist	-7715
kampaania	-7716
▁lühikese	-7717
▁arutlusel	-7718
kindlustusa	-7719
▁vel	-7720
ikaal	-7721
omanik	-7722
▁kanal	-7723
▁laevad	-7724
▁odavam	-7725
perioodi	-7726
▁garanti	-7727
▁hinnaga	-7728
▁nädalat	-7729
▁riigilt	-7730
usseaduse	-7731
▁kummaline	-7732
▁võimalikku	-7733
▁koostamisel	-7734
▁väljendanud	-7735
▁lähiaastatel	-7736
hinda	-7737
▁kena	-7738
▁ajate	-7739
▁büroo	-7740
▁kange	-7741
keskust	-7742
▁kaetud	-7743
▁rahako	-7744
▁tundus	-7745
▁sarapuu	-7746
▁liiguvad	-7747
▁puuduvad	-7748
▁kriitikat	-7749
▁käitumine	-7750
▁moodustab	-7751
▁aastakümne	-7752
▁valimisring	-7753
▁vähendamise	-7754
▁omavalitsustega	-7755
sõnu	-7756
▁keeru	-7757
▁käega	-7758
▁maade	-7759
▁püüda	-7760
vastane	-7761
statakse	-7762
▁tingimata	-7763
▁kvaliteeti	-7764
▁dokumentide	-7765
▁positiivset	-7766
▁majanduslikult	-7767
mir	-7768
▁62	-7769
tege	-7770
▁loa	-7771
▁arma	-7772
▁hukka	-7773
energia	-7774
▁jätkab	-7775
▁jõudma	-7776
▁fiskaal	-7777
▁jaanson	-7778
▁tulemas	-7779
▁kivimägi	-7780
▁seakasva	-7781
▁vastamise	-7782
▁reguleerib	-7783
▁territooriumi	-7784
hkel	-7785
soni	-7786
▁lühe	-7787
▁pevku	-7788
▁identi	-7789
▁meeste	-7790
▁prokur	-7791
▁käituda	-7792
▁energiat	-7793
▁hallemaa	-7794
▁tegutseb	-7795
▁lahendama	-7796
▁väljaõppe	-7797
▁põllumehed	-7798
▁rahvahääle	-7799
▁praktiliselt	-7800
has	-7801
▁79	-7802
kohad	-7803
▁globa	-7804
▁kulub	-7805
▁määrus	-7806
▁tohutu	-7807
äbirääki	-7808
▁esineja	-7809
▁kuritar	-7810
keskkonda	-7811
▁hasartmängu	-7812
▁prantsusmaa	-7813
▁rakendamine	-7814
kuna	-7815
manda	-7816
▁kagu	-7817
eldada	-7818
▁arvad	-7819
▁hilja	-7820
▁võida	-7821
▁asunud	-7822
▁pooled	-7823
▁eriarst	-7824
▁lapsega	-7825
▁tekitas	-7826
metunnist	-7827
▁kehtinud	-7828
▁stsenaari	-7829
▁asjakohane	-7830
▁haldusalas	-7831
▁menetlemine	-7832
▁õiguskomisjonis	-7833
matud	-7834
▁ostu	-7835
▁pered	-7836
▁eurost	-7837
▁jookse	-7838
▁tõsise	-7839
▁töötle	-7840
▁isikuid	-7841
▁kohalda	-7842
▁numbrid	-7843
iseeritud	-7844
▁huvitava	-7845
▁perearsti	-7846
▁võrdõigus	-7847
▁võimaluste	-7848
alda	-7849
eldud	-7850
gramme	-7851
▁minut	-7852
▁niigi	-7853
▁õhtul	-7854
stamine	-7855
utamise	-7856
▁näited	-7857
▁sügava	-7858
▁tiheda	-7859
▁adekvaa	-7860
▁pretsed	-7861
▁takista	-7862
▁kinnitab	-7863
▁kohtunik	-7864
▁märgitud	-7865
▁kasvatada	-7866
▁saavutatud	-7867
▁liikmesriigid	-7868
gile	-7869
▁leh	-7870
▁õhu	-7871
kalle	-7872
andada	-7873
▁asjal	-7874
▁üksiki	-7875
vabaduse	-7876
tatsiooni	-7877
▁osakaalu	-7878
▁piirkond	-7879
▁vaadatud	-7880
▁sellisele	-7881
▁töötajaid	-7882
▁eesmärgiks	-7883
▁neljandaks	-7884
▁riiklikult	-7885
öri	-7886
ispa	-7887
ladi	-7888
amine	-7889
▁asjas	-7890
▁hääli	-7891
▁õigem	-7892
▁uskuge	-7893
▁avaldus	-7894
▁pooleli	-7895
▁rahaline	-7896
▁vaidlusi	-7897
▁niisugused	-7898
kast	-7899
kolm	-7900
ustel	-7901
▁vigu	-7902
▁sattu	-7903
▁sümpa	-7904
▁mõnele	-7905
▁parima	-7906
▁kantselei	-7907
▁kohtunike	-7908
▁parlamenti	-7909
▁rahvasaadikud	-7910
ap	-7911
fa	-7912
pä	-7913
likum	-7914
ndeid	-7915
terina	-7916
▁renov	-7917
ladimir	-7918
▁hilise	-7919
▁leedus	-7920
▁turist	-7921
▁vaesuse	-7922
▁tahaksid	-7923
▁seadustes	-7924
▁kandidaadi	-7925
▁kompromiss	-7926
▁du	-7927
▁lood	-7928
musest	-7929
▁valga	-7930
▁ühesu	-7931
▁kõigis	-7932
▁riskid	-7933
▁ilusasti	-7934
▁protsend	-7935
▁intensiiv	-7936
▁kohalikul	-7937
▁parlamentaarse	-7938
oku	-7939
▁63	-7940
▁11,	-7941
▁efsf	-7942
▁jama	-7943
▁algatab	-7944
▁rahulda	-7945
▁vahetult	-7946
▁argumente	-7947
▁küsitakse	-7948
▁hinnanguid	-7949
▁delegatsiooni	-7950
▁opositsioonis	-7951
raat	-7952
tude	-7953
õidu	-7954
▁häbi	-7955
▁levi	-7956
▁mikko	-7957
▁range	-7958
▁lubage	-7959
▁mujalt	-7960
▁täitsa	-7961
▁koordin	-7962
▁täielik	-7963
kõigepealt	-7964
▁ühesõnaga	-7965
▁õiguskaitse	-7966
▁operatsiooni	-7967
▁muinsuskaitse	-7968
kid	-7969
▁eb	-7970
asis	-7971
undi	-7972
▁ases	-7973
▁memo	-7974
▁asuda	-7975
▁hispa	-7976
▁surma	-7977
▁kolmel	-7978
▁poolel	-7979
▁eelmist	-7980
▁kaugelt	-7981
▁nagunii	-7982
▁prognoos	-7983
▁tähendaks	-7984
▁töötavate	-7985
▁südametunnist	-7986
rg	-7987
▁66	-7988
inik	-7989
plan	-7990
▁dig	-7991
▁puhk	-7992
▁infla	-7993
▁juhus	-7994
▁käivi	-7995
▁raadi	-7996
▁koguda	-7997
▁lähtuma	-7998
▁maruste	-7999
▁osutada	-8000
▁ravimite	-8001
▁kõnealuse	-8002
▁mispärast	-8003
▁sõltumatu	-8004
▁kuritegude	-8005
vata	-8006
▁imf	-8007
mõtte	-8008
▁partsi	-8009
▁seleta	-8010
▁valinud	-8011
▁registri	-8012
▁veterina	-8013
▁õpetajaid	-8014
▁eesmärkide	-8015
▁moodustada	-8016
▁kodanikuühis	-8017
▁kooskõlastus	-8018
oja	-8019
pik	-8020
▁8,	-8021
keti	-8022
hoone	-8023
iteid	-8024
▁muus	-8025
▁lubas	-8026
▁mihkel	-8027
▁akadeem	-8028
▁astunud	-8029
▁liiduga	-8030
▁paljuski	-8031
▁teadmine	-8032
▁suuremaks	-8033
▁süsteemis	-8034
▁seisukohale	-8035
jao	-8036
▁rav	-8037
andida	-8038
konsen	-8039
▁2007.	-8040
▁abika	-8041
ohutuse	-8042
toetusi	-8043
▁maailm	-8044
▁iseloom	-8045
▁simsoni	-8046
vahendite	-8047
▁infotund	-8048
▁lepingut	-8049
▁maksmise	-8050
▁printsiip	-8051
▁venemaaga	-8052
▁ühtemoodi	-8053
▁üleskutse	-8054
poliitiline	-8055
▁tagamiseks	-8056
▁arupärimiste	-8057
võrk	-8058
▁bör	-8059
▁nutt	-8060
setele	-8061
ustasu	-8062
▁kersna	-8063
▁meeles	-8064
▁salaja	-8065
▁ütelda	-8066
▁aidanud	-8067
▁võrdsed	-8068
▁arstiabi	-8069
▁enamikus	-8070
▁madalama	-8071
▁printsii	-8072
▁tsiteeri	-8073
▁äriühingu	-8074
▁asespiiker	-8075
▁seitsmenda	-8076
▁teadlikult	-8077
▁korrakaitse	-8078
▁kõrgharidus	-8079
▁tegevuskava	-8080
▁fraktsioonis	-8081
siin	-8082
jõudu	-8083
koost	-8084
teise	-8085
▁2012	-8086
▁tööh	-8087
▁heade	-8088
▁rikka	-8089
▁asuvad	-8090
▁mainis	-8091
▁piisab	-8092
▁rannar	-8093
▁sätted	-8094
▁koosneb	-8095
▁pakkuma	-8096
▁protest	-8097
▁saksama	-8098
▁aaviksoo	-8099
▁asutused	-8100
▁valijate	-8101
▁väikeste	-8102
▁tegelenud	-8103
▁tekitatud	-8104
▁kohustatud	-8105
▁põhiseadust	-8106
▁tingimustel	-8107
▁seaduseelnõus	-8108
õhe	-8109
taol	-8110
▁heit	-8111
▁põlva	-8112
▁ühtne	-8113
▁eurots	-8114
▁proovi	-8115
▁edasise	-8116
▁juhitud	-8117
▁kantsle	-8118
▁koormus	-8119
▁olemuse	-8120
▁väljast	-8121
teenuseid	-8122
▁analüüse	-8123
▁tegeldakse	-8124
sun	-8125
kaid	-8126
sile	-8127
rikku	-8128
▁seos	-8129
kandja	-8130
punkti	-8131
▁keeldu	-8132
▁selguse	-8133
▁suurust	-8134
▁teemaks	-8135
kontrolli	-8136
▁mittetul	-8137
▁nimekiri	-8138
▁olukordi	-8139
▁süüdista	-8140
▁hindamise	-8141
▁nõusoleku	-8142
▁bürokraatiat	-8143
▁kompensatsiooni	-8144
kker	-8145
orid	-8146
▁lüü	-8147
▁mig	-8148
▁ajas	-8149
▁kalvi	-8150
▁mitut	-8151
▁maakond	-8152
▁pankade	-8153
▁abikaasa	-8154
▁sõnastus	-8155
▁välistada	-8156
▁elementaar	-8157
▁majandamise	-8158
▁põhimõtteid	-8159
▁konstruktiiv	-8160
▁vanemahüvitise	-8161
▁vastuvõtmiseks	-8162
▁73	-8163
▁jahi	-8164
▁pähe	-8165
kordse	-8166
▁eemal	-8167
aktsiis	-8168
▁elatis	-8169
▁euroop	-8170
▁panuse	-8171
▁suurim	-8172
▁tegite	-8173
▁varjupa	-8174
▁ülevaadet	-8175
▁tõstetakse	-8176
▁järjekorras	-8177
▁põhimõttest	-8178
▁mittetulundus	-8179
fe	-8180
ila	-8181
kula	-8182
kval	-8183
▁tab	-8184
eline	-8185
▁laul	-8186
▁sadu	-8187
vamaks	-8188
▁juhib	-8189
▁piiril	-8190
▁sarnane	-8191
▁mõtlesin	-8192
▁tegelnud	-8193
▁pädevuses	-8194
▁põhjendus	-8195
▁valdkondi	-8196
▁konkurents	-8197
▁otsustatud	-8198
▁stabiilsus	-8199
▁vähenemine	-8200
▁analüüsinud	-8201
▁pensionäride	-8202
hat	-8203
▁nut	-8204
büroo	-8205
▁elame	-8206
▁suval	-8207
▁gruusi	-8208
▁retoor	-8209
probleem	-8210
töötajate	-8211
▁kohtunud	-8212
▁riiklike	-8213
▁ülalpida	-8214
▁põllumeeste	-8215
▁muudatustega	-8216
▁kättesaadavad	-8217
▁parandamiseks	-8218
▁keskkonnatasude	-8219
alae	-8220
baas	-8221
kida	-8222
mõju	-8223
▁ori	-8224
ikesk	-8225
eestis	-8226
endusi	-8227
▁tuden	-8228
▁enamus	-8229
▁kardan	-8230
▁arvamused	-8231
▁eelarvega	-8232
▁esimeseks	-8233
▁kehtetuks	-8234
▁pagulaste	-8235
▁rõhutanud	-8236
▁sissemakse	-8237
▁moodustavad	-8238
hä	-8239
▁pisi	-8240
▁kasumi	-8241
▁senise	-8242
kohustus	-8243
▁aktsiis	-8244
▁edukalt	-8245
▁esitasime	-8246
▁negatiivne	-8247
▁täiendamise	-8248
▁ühendriikide	-8249
▁tugispetsialist	-8250
geet	-8251
▁150	-8252
▁jms	-8253
▁loll	-8254
▁bussi	-8255
▁kuues	-8256
▁võeta	-8257
▁ammend	-8258
▁kommer	-8259
▁tasuks	-8260
▁üheskoos	-8261
▁hispaania	-8262
▁kohalikku	-8263
▁otsustasime	-8264
▁väidetavalt	-8265
▁maaeluminister	-8266
pü	-8267
ppu	-8268
teet	-8269
▁30%	-8270
▁tän	-8271
iteen	-8272
▁taba	-8273
mõiste	-8274
▁abiel	-8275
▁häält	-8276
▁keera	-8277
▁seksu	-8278
▁teeni	-8279
lastega	-8280
lastele	-8281
▁näitas	-8282
▁televi	-8283
▁muusika	-8284
▁autorite	-8285
▁asekantsle	-8286
▁kohustuslik	-8287
▁maavalitsuste	-8288
puh	-8289
unde	-8290
▁60%	-8291
▁stre	-8292
rahast	-8293
▁tsita	-8294
▁ähvar	-8295
▁poolda	-8296
seaduses	-8297
▁maamaks	-8298
▁tulusid	-8299
▁kõrgkool	-8300
ministriga	-8301
1,	-8302
esa	-8303
liin	-8304
mets	-8305
tell	-8306
▁lad	-8307
▁veo	-8308
haldu	-8309
seisu	-8310
▁aset	-8311
▁kale	-8312
▁kiri	-8313
▁astme	-8314
▁laias	-8315
▁tehke	-8316
▁aitama	-8317
ettevõte	-8318
▁osalise	-8319
▁arutluse	-8320
▁hoolitse	-8321
▁kuulasin	-8322
▁kokkulepet	-8323
▁saavutanud	-8324
▁poliitikute	-8325
▁maksimaalselt	-8326
ssa	-8327
kohe	-8328
vidu	-8329
▁40%	-8330
esmär	-8331
mitee	-8332
▁kerg	-8333
pärase	-8334
▁jätame	-8335
▁tunnen	-8336
▁madalam	-8337
▁numbrit	-8338
▁saadetud	-8339
▁volikogus	-8340
▁pensionide	-8341
▁universaal	-8342
▁lahendamise	-8343
▁põllumeestele	-8344
gad	-8345
pin	-8346
▁74	-8347
lite	-8348
gaasi	-8349
ikmed	-8350
▁näpu	-8351
kusega	-8352
▁oskad	-8353
▁pildi	-8354
▁väitis	-8355
▁individu	-8356
▁eestlased	-8357
▁abipolitse	-8358
tuvad	-8359
▁üüri	-8360
▁vaeva	-8361
▁kahane	-8362
▁kombel	-8363
üsteemis	-8364
▁palgast	-8365
▁koefitsi	-8366
▁maksupet	-8367
▁kaalutlus	-8368
▁käitumist	-8369
▁palgalõhe	-8370
▁tunnustada	-8371
▁fikseeritud	-8372
organisatsioon	-8373
▁maksusüsteemi	-8374
asia	-8375
erik	-8376
▁bio	-8377
▁häb	-8378
kodan	-8379
välja	-8380
▁õpet	-8381
setest	-8382
▁pidas	-8383
▁põgus	-8384
▁arvame	-8385
▁määrab	-8386
▁osaleb	-8387
▁osanud	-8388
alustame	-8389
▁kestnud	-8390
▁sesteri	-8391
▁võtsime	-8392
virumaale	-8393
▁allapoole	-8394
▁isikutele	-8395
▁põhjuseks	-8396
▁juhtimisel	-8397
▁piltlikult	-8398
▁valdkondade	-8399
▁valmistatud	-8400
▁rait	-8401
bilita	-8402
▁adres	-8403
▁kriis	-8404
▁mõõde	-8405
▁naisi	-8406
▁teenib	-8407
lepingus	-8408
▁saatnud	-8409
▁väitnud	-8410
▁garantii	-8411
▁oleksite	-8412
▁sisaldab	-8413
▁vladimir	-8414
▁personali	-8415
▁maaelukomisjoni	-8416
▁märka	-8417
päevaks	-8418
▁hädava	-8419
▁nägema	-8420
▁sisust	-8421
▁võrdne	-8422
toetused	-8423
▁asemele	-8424
▁kinnita	-8425
▁teemast	-8426
▁täpsust	-8427
▁elanikud	-8428
▁perekond	-8429
▁tööturul	-8430
▁realiseer	-8431
▁määratakse	-8432
▁tagajärjel	-8433
info	-8434
itule	-8435
▁nenti	-8436
▁nurga	-8437
▁näida	-8438
▁lootus	-8439
▁valija	-8440
▁toimuda	-8441
▁arutusel	-8442
▁õnnestub	-8443
▁assamblee	-8444
▁kategoori	-8445
▁panustama	-8446
▁pensionid	-8447
▁septembri	-8448
▁koostamise	-8449
▁deklaratsiooni	-8450
vin	-8451
taval	-8452
▁näed	-8453
susele	-8454
▁õiged	-8455
▁mujale	-8456
▁tekita	-8457
▁vanuse	-8458
▁metsoja	-8459
▁õpilast	-8460
▁leevenda	-8461
▁lubadusi	-8462
▁tsiteerin	-8463
▁rehabilita	-8464
▁koalitsioonil	-8465
alal	-8466
▁arno	-8467
korrad	-8468
▁kahes	-8469
▁korte	-8470
▁jõuaks	-8471
▁siduda	-8472
▁korrale	-8473
▁krediid	-8474
▁sekkuda	-8475
▁selgust	-8476
▁arvestus	-8477
▁kommerts	-8478
▁täitmist	-8479
▁tõusevad	-8480
▁nimetasin	-8481
▁teenistus	-8482
▁missugused	-8483
▁sihtasutuse	-8484
▁kommenteerite	-8485
▁infotehnoloogia	-8486
ag	-8487
põl	-8488
▁ae	-8489
kret	-8490
tute	-8491
õude	-8492
valda	-8493
▁iraa	-8494
▁bensi	-8495
▁meeld	-8496
kümmend	-8497
nõukogu	-8498
▁jõustu	-8499
▁kohast	-8500
järgmise	-8501
▁maksnud	-8502
▁postime	-8503
▁kuulanud	-8504
▁suudetud	-8505
▁tõstmise	-8506
▁õpilased	-8507
▁kooseluse	-8508
▁tuhandeid	-8509
▁reformiera	-8510
▁riigimetsa	-8511
▁kinnitamise	-8512
▁riigieelarvele	-8513
–3	-8514
▁:	-8515
õli	-8516
inõu	-8517
obje	-8518
teede	-8519
▁rahv	-8520
jategi	-8521
tööstus	-8522
▁kersti	-8523
▁läksid	-8524
▁otsast	-8525
▁värske	-8526
▁arendus	-8527
▁kannata	-8528
▁kellelt	-8529
▁soolise	-8530
õpetajate	-8531
▁ebamõist	-8532
▁korralik	-8533
▁määranud	-8534
▁ametikoha	-8535
▁väljaütle	-8536
▁arengufond	-8537
▁töövõimereformi	-8538
uba	-8539
sist	-8540
vastu	-8541
▁tegin	-8542
▁uuele	-8543
esimene	-8544
projekt	-8545
riigile	-8546
▁autonoo	-8547
▁mõistan	-8548
▁juhtimis	-8549
▁marrandi	-8550
▁nõukogud	-8551
▁paremaid	-8552
▁praeguste	-8553
▁leevendada	-8554
▁tõstatatud	-8555
▁väljastpoolt	-8556
▁kompenseerida	-8557
küm	-8558
▁aad	-8559
▁kop	-8560
▁ille	-8561
▁pile	-8562
▁säil	-8563
▁riiva	-8564
▁täpset	-8565
▁välise	-8566
volikogu	-8567
▁elaniku	-8568
▁teemade	-8569
▁vaevalt	-8570
▁marianne	-8571
▁arutelude	-8572
▁millestki	-8573
▁tutvustan	-8574
▁tööandjad	-8575
▁innovatsiooni	-8576
▁täpsustatakse	-8577
▁5%	-8578
nali	-8579
täna	-8580
▁heal	-8581
ktorit	-8582
▁mahtu	-8583
▁neilt	-8584
▁vormi	-8585
ressiiv	-8586
▁eksami	-8587
▁häälte	-8588
▁ohtlik	-8589
▁sünnit	-8590
▁isikule	-8591
▁tõsiasi	-8592
▁vormist	-8593
▁isikliku	-8594
▁sõnadega	-8595
▁vaesuses	-8596
▁heakskiit	-8597
▁korraldus	-8598
▁poliitiku	-8599
poliitikast	-8600
▁pikendamine	-8601
▁kutseharidus	-8602
▁konsensuslikud	-8603
kite	-8604
suhe	-8605
▁peda	-8606
udekki	-8607
▁põgen	-8608
▁seost	-8609
põhiselt	-8610
▁juhtumit	-8611
▁keskmist	-8612
▁poliitik	-8613
▁randjärv	-8614
▁sisulisi	-8615
▁algatajad	-8616
▁arutelust	-8617
▁samasuguse	-8618
▁ettevõtlust	-8619
▁konventsioon	-8620
▁häälteenamust	-8621
▁institutsiooni	-8622
▁topeltkodakond	-8623
kke	-8624
olen	-8625
dekla	-8626
kahju	-8627
▁lüüa	-8628
paberi	-8629
▁külge	-8630
▁teade	-8631
▁hõlmab	-8632
▁partei	-8633
süsteemis	-8634
▁tavaline	-8635
▁treeneri	-8636
▁arutasite	-8637
▁keskkonda	-8638
▁transpord	-8639
▁ambitsioon	-8640
▁propaganda	-8641
▁maksumaksjate	-8642
▁ajakirjanduses	-8643
▁ettepanekutega	-8644
▁naa	-8645
raivo	-8646
▁talu	-8647
▁ilusa	-8648
▁finant	-8649
▁vanane	-8650
▁levinud	-8651
▁loomade	-8652
▁tuletada	-8653
▁tullakse	-8654
rosimannus	-8655
▁aspektist	-8656
▁professor	-8657
▁kriteerium	-8658
▁peretoetuste	-8659
▁seadusmuudatus	-8660
jon	-8661
õnn	-8662
▁600	-8663
astme	-8664
iajal	-8665
palka	-8666
reegl	-8667
▁sõnul	-8668
▁teadu	-8669
▁keskel	-8670
▁kõlama	-8671
▁lõikes	-8672
▁pikemat	-8673
▁ükskord	-8674
▁linnapea	-8675
▁tagajärg	-8676
▁varianti	-8677
▁kokkulepp	-8678
▁suhtumist	-8679
▁tegutsema	-8680
▁arendamise	-8681
▁menetlemist	-8682
▁territoriaal	-8683
stan	-8684
▁veda	-8685
▁vits	-8686
▁targe	-8687
ilisest	-8688
koostöö	-8689
totstar	-8690
valitse	-8691
▁instru	-8692
▁esitame	-8693
▁taustal	-8694
▁välisma	-8695
▁haiglate	-8696
▁lepingud	-8697
▁ukrainas	-8698
▁venemaal	-8699
▁väitsite	-8700
▁praegused	-8701
▁rahastada	-8702
▁vähenevad	-8703
▁keerulisem	-8704
▁vajadusest	-8705
▁ettekandjat	-8706
kar	-8707
▁59	-8708
geda	-8709
mmas	-8710
▁sor	-8711
oetus	-8712
▁sõdu	-8713
▁väin	-8714
▁õhku	-8715
▁loodi	-8716
▁turis	-8717
▁märkus	-8718
▁raamist	-8719
▁seadnud	-8720
▁standard	-8721
eerimiseks	-8722
▁vastasite	-8723
▁vastastik	-8724
▁põllumajanduse	-8725
▁mittetulundusüh	-8726
ikum	-8727
koda	-8728
miks	-8729
▁1,5	-8730
vaate	-8731
▁hiiu	-8732
▁laht	-8733
▁soom	-8734
kaardi	-8735
▁disku	-8736
▁lahus	-8737
mistega	-8738
▁eurole	-8739
▁samaks	-8740
▁suunda	-8741
▁peaksin	-8742
perioodil	-8743
▁kaskpeit	-8744
▁lõpetati	-8745
▁seksuaal	-8746
▁väljamakse	-8747
▁haridusminister	-8748
jät	-8749
järve	-8750
vates	-8751
▁veid	-8752
kohast	-8753
▁integ	-8754
▁korja	-8755
▁hoidma	-8756
▁nägime	-8757
▁vähegi	-8758
▁välist	-8759
▁kuuluda	-8760
▁muutuks	-8761
▁mõistes	-8762
▁olevaid	-8763
▁viimati	-8764
▁harjunud	-8765
▁konkursi	-8766
▁peredele	-8767
▁keskpanga	-8768
▁operatiiv	-8769
▁kriitiline	-8770
▁turvalisuse	-8771
▁82	-8772
eksa	-8773
nele	-8774
tvor	-8775
finan	-8776
▁hols	-8777
▁jälg	-8778
▁oota	-8779
konnan	-8780
▁kaota	-8781
märgist	-8782
sioonis	-8783
▁abista	-8784
▁minuga	-8785
▁sisuga	-8786
jalikult	-8787
▁globaal	-8788
▁lisatud	-8789
▁vangist	-8790
ettevõtte	-8791
▁põhikool	-8792
▁rahalist	-8793
▁igasuguse	-8794
▁kogemused	-8795
▁suuremate	-8796
▁ekspertide	-8797
▁poliitilisi	-8798
▁järjekordselt	-8799
sä	-8800
koot	-8801
õive	-8802
▁hävi	-8803
▁käsu	-8804
▁olge	-8805
nduste	-8806
mustest	-8807
olukorda	-8808
ülesanne	-8809
▁punktid	-8810
▁teadnud	-8811
▁liikunud	-8812
▁kodukorra	-8813
▁kujundada	-8814
▁tarbimist	-8815
▁kodanikele	-8816
▁protsessis	-8817
▁reageerida	-8818
▁registreer	-8819
▁aktsiisitõus	-8820
▁motivatsiooni	-8821
eneb	-8822
gede	-8823
kuul	-8824
neli	-8825
kredi	-8826
likul	-8827
▁elust	-8828
▁tonni	-8829
▁vedel	-8830
jõudude	-8831
▁analoo	-8832
▁aafrika	-8833
▁erisood	-8834
kindlasti	-8835
▁võidelda	-8836
▁määrusega	-8837
▁riikidele	-8838
▁vahendusel	-8839
▁pikaajaline	-8840
▁vahenditest	-8841
muu	-8842
alast	-8843
saare	-8844
eaasta	-8845
hvitse	-8846
▁lauda	-8847
▁oskab	-8848
▁taset	-8849
iliseks	-8850
▁eraisi	-8851
▁lastel	-8852
vatsioon	-8853
▁narkoot	-8854
ministrit	-8855
▁liikumis	-8856
▁hääletame	-8857
▁mehhanism	-8858
▁dokumendid	-8859
▁eesmärgiga	-8860
▁kaheksanda	-8861
▁positiivselt	-8862
op	-8863
ain	-8864
nuks	-8865
surd	-8866
▁veb	-8867
hanke	-8868
▁mõjub	-8869
▁nägin	-8870
▁andeks	-8871
▁kiriku	-8872
▁möödas	-8873
▁väikee	-8874
▁edaspid	-8875
▁kaitsma	-8876
valdkonda	-8877
▁kaitseks	-8878
▁kasutame	-8879
▁kehtivas	-8880
▁krediidi	-8881
▁segadust	-8882
▁tasandus	-8883
▁kallimaks	-8884
▁mõningaid	-8885
▁tehniline	-8886
▁kohtlemise	-8887
▁valitsusliikmed	-8888
võit	-8889
▁nih	-8890
▁sir	-8891
kogul	-8892
▁ausa	-8893
▁valg	-8894
arvest	-8895
▁taani	-8896
▁tsent	-8897
kirjuta	-8898
▁edukas	-8899
▁meiega	-8900
▁näidet	-8901
▁vaesus	-8902
▁kapital	-8903
▁niisiis	-8904
▁oodatud	-8905
▁koolitus	-8906
▁vahetada	-8907
▁õigussel	-8908
▁olemuselt	-8909
▁valitsusest	-8910
▁õigusemõist	-8911
▁85	-8912
doku	-8913
sema	-8914
▁10,	-8915
▁14-	-8916
priit	-8917
summa	-8918
▁fakti	-8919
▁halba	-8920
▁hanki	-8921
▁kitse	-8922
▁absurd	-8923
▁jagune	-8924
▁nõusta	-8925
▁tingim	-8926
▁kasvama	-8927
▁keeleos	-8928
▁palunud	-8929
▁tühista	-8930
▁õpetada	-8931
olukorras	-8932
▁langenud	-8933
▁õigusakt	-8934
▁majanduses	-8935
▁valitsused	-8936
▁kättesaadavuse	-8937
jet	-8938
idelt	-8939
pendi	-8940
▁pers	-8941
ktuuri	-8942
kütuse	-8943
tamatu	-8944
▁duble	-8945
▁endas	-8946
▁kalla	-8947
▁kogus	-8948
kuleeri	-8949
rahasta	-8950
▁eluase	-8951
▁üldosa	-8952
▁argumen	-8953
▁avaldas	-8954
▁hulgast	-8955
▁omaosal	-8956
▁raporti	-8957
▁jõudsime	-8958
▁reaalsus	-8959
▁saaremaa	-8960
▁algatanud	-8961
▁dokumente	-8962
▁kaasnevad	-8963
▁gümnaasium	-8964
▁võimaldada	-8965
▁ajakirjandus	-8966
▁kõrghariduse	-8967
goog	-8968
külg	-8969
▁naf	-8970
▁rohke	-8971
▁tuule	-8972
▁annate	-8973
▁jaotus	-8974
▁kandma	-8975
▁piimat	-8976
▁põhial	-8977
▁tunneb	-8978
▁käituma	-8979
▁laastus	-8980
▁kirjutas	-8981
▁teadmisi	-8982
▁isiklikku	-8983
▁kolmandal	-8984
▁tegevuses	-8985
▁ettevõtetele	-8986
pt	-8987
püü	-8988
joni	-8989
kivi	-8990
oosse	-8991
otsus	-8992
▁aegu	-8993
▁inde	-8994
▁sümb	-8995
▁kasul	-8996
▁tahte	-8997
▁vanad	-8998
▁saatis	-8999
▁töötas	-9000
ülikooli	-9001
▁keskera	-9002
▁koolita	-9003
▁korrata	-9004
▁otseses	-9005
▁töökoha	-9006
▁üksinda	-9007
▁kogukond	-9008
▁menetleme	-9009
▁päästjate	-9010
▁rõivasele	-9011
▁mõjuanalüü	-9012
▁sihtotstar	-9013
▁juriidiline	-9014
▁ülesannetes	-9015
▁aktsiisimäära	-9016
▁rahvusvahelises	-9017
msi	-9018
sega	-9019
▁kih	-9020
▁kõn	-9021
kanal	-9022
▁suhk	-9023
▁tran	-9024
▁algas	-9025
▁andes	-9026
▁karus	-9027
▁sobib	-9028
planeer	-9029
▁ligika	-9030
▁senine	-9031
▁palgaga	-9032
▁panevad	-9033
võimalusi	-9034
▁oktoober	-9035
▁vormista	-9036
▁kolmandik	-9037
▁riigiamet	-9038
▁tarbimise	-9039
▁juriidiliselt	-9040
▁väliskomisjon	-9041
enia	-9042
märt	-9043
▁hor	-9044
meele	-9045
▁dist	-9046
▁naeru	-9047
▁tarbe	-9048
▁täies	-9049
vahetus	-9050
▁aastad	-9051
▁käisin	-9052
▁toovad	-9053
▁vajuta	-9054
▁esineda	-9055
▁kaasneb	-9056
▁riigina	-9057
▁kaotanud	-9058
▁kohtuots	-9059
haridusega	-9060
▁haldusala	-9061
▁metoodika	-9062
▁sellisena	-9063
▁teisisõnu	-9064
▁ühinemise	-9065
▁jõustumist	-9066
▁probleemist	-9067
jü	-9068
pöö	-9069
uga	-9070
▁80%	-9071
▁bar	-9072
▁taju	-9073
eerime	-9074
▁erald	-9075
▁kirju	-9076
▁loone	-9077
▁alused	-9078
▁eelist	-9079
▁mängus	-9080
väärselt	-9081
▁pakuvad	-9082
▁sätteid	-9083
▁toimima	-9084
▁dividend	-9085
▁hakkasid	-9086
▁põhiküsi	-9087
▁sõjalise	-9088
▁tohutult	-9089
▁võiksite	-9090
seadustiku	-9091
▁jagatakse	-9092
▁praktiline	-9093
▁seadustega	-9094
▁valdkonnad	-9095
ituks	-9096
jürgen	-9097
meeste	-9098
▁mõnest	-9099
▁osales	-9100
▁tollal	-9101
grammist	-9102
lepingut	-9103
▁nimetas	-9104
▁reserve	-9105
▁sajandi	-9106
▁tekstis	-9107
▁valikud	-9108
▁ühenduse	-9109
▁mõistetav	-9110
▁toetamise	-9111
▁otsustavad	-9112
▁kompromissi	-9113
▁korruptsioon	-9114
▁spetsialiste	-9115
▁kats	-9116
utraal	-9117
▁agres	-9118
▁koond	-9119
▁puidu	-9120
▁repsi	-9121
kirjade	-9122
tustele	-9123
töötaja	-9124
▁kallas	-9125
▁kobare	-9126
▁mobiil	-9127
▁milling	-9128
▁õppinud	-9129
▁illegaal	-9130
▁suuremas	-9131
▁töötatud	-9132
ministrilt	-9133
▁kavatsete	-9134
▁miljonist	-9135
▁volitatud	-9136
▁protseduur	-9137
▁protsessid	-9138
▁pikaajalise	-9139
▁planeerimis	-9140
organisatsiooni	-9141
▁kättesaadavust	-9142
imus	-9143
neda	-9144
▁kro	-9145
▁rad	-9146
▁pako	-9147
▁ideid	-9148
▁maast	-9149
▁prote	-9150
▁tuhat	-9151
▁viime	-9152
▁arutab	-9153
▁elavate	-9154
▁küsingi	-9155
▁esitasin	-9156
▁lühiajal	-9157
▁vaidlused	-9158
▁konkreetses	-9159
▁liikmesriigi	-9160
▁ska	-9161
kinud	-9162
▁ivan	-9163
matuse	-9164
▁avane	-9165
mistele	-9166
▁lastet	-9167
▁otsene	-9168
▁pikema	-9169
▁punkte	-9170
politsei	-9171
▁mandaat	-9172
▁koostada	-9173
▁edastanud	-9174
▁presidend	-9175
▁igasugused	-9176
▁keskkonnas	-9177
▁käsitlenud	-9178
▁palgatõusu	-9179
▁kommentaari	-9180
▁põhjalikumalt	-9181
bral	-9182
inaab	-9183
võrku	-9184
▁olgem	-9185
▁paigas	-9186
▁paista	-9187
▁skeemi	-9188
▁soovik	-9189
ikatsioon	-9190
▁ehitusse	-9191
▁jäetakse	-9192
▁toetamine	-9193
▁vajalikke	-9194
▁vastustest	-9195
▁probleemile	-9196
▁mitmesuguste	-9197
▁rakendatakse	-9198
tao	-9199
▁ai	-9200
▁700	-9201
nevad	-9202
oonis	-9203
retul	-9204
selge	-9205
▁nägu	-9206
▁1990.	-9207
▁nõrge	-9208
▁riive	-9209
▁vasak	-9210
▁lõplik	-9211
▁väärib	-9212
õiguslik	-9213
▁ekspert	-9214
▁kogutud	-9215
▁lähtume	-9216
▁muudeti	-9217
korraldus	-9218
▁hinnatõus	-9219
▁kinnipida	-9220
▁tervisele	-9221
▁järgmisest	-9222
▁moodustatud	-9223
▁tugiteenuste	-9224
▁kaasettekande	-9225
ker	-9226
mik	-9227
jusi	-9228
▁osk	-9229
dangu	-9230
dudes	-9231
▁laur	-9232
▁vall	-9233
▁nafta	-9234
▁peabki	-9235
▁raudte	-9236
▁erilist	-9237
▁kiirelt	-9238
▁teretul	-9239
menetlust	-9240
▁erinevat	-9241
▁lugupida	-9242
▁põgusalt	-9243
▁ühemõtte	-9244
▁avaldatud	-9245
▁saksamaal	-9246
poliitilist	-9247
▁erimärgist	-9248
▁komisjonil	-9249
▁pensionitõ	-9250
▁valmisolek	-9251
▁gümnaasiumis	-9252
▁vabatahtliku	-9253
oode	-9254
äheda	-9255
▁mati	-9256
▁tõmb	-9257
ikindl	-9258
õnnest	-9259
▁hiina	-9260
▁jääme	-9261
▁jõulu	-9262
▁võtme	-9263
teenist	-9264
▁kaotab	-9265
▁lõppes	-9266
▁tempos	-9267
▁kehtest	-9268
▁muutuma	-9269
▁planeer	-9270
▁põhineb	-9271
▁sõnavõtu	-9272
▁üleminek	-9273
valitsuste	-9274
▁kõnealune	-9275
▁mõistlikuks	-9276
▁diislikütuse	-9277
▁sätestatakse	-9278
lin	-9279
jaan	-9280
▁800	-9281
▁pah	-9282
▁ajad	-9283
▁kattu	-9284
▁keeld	-9285
▁ootus	-9286
▁vande	-9287
▁värsk	-9288
▁õiges	-9289
▁hakkan	-9290
▁mõneti	-9291
▁raidma	-9292
▁rajada	-9293
alistele	-9294
▁hindama	-9295
▁pakosta	-9296
▁teisalt	-9297
▁sügavalt	-9298
▁ebaõnnest	-9299
▁kõikidest	-9300
▁lepinguid	-9301
▁teretulnud	-9302
▁seadusloome	-9303
▁prioriteedid	-9304
ikor	-9305
▁sõda	-9306
▁veen	-9307
ressur	-9308
ruumis	-9309
▁meeto	-9310
konnali	-9311
▁eestve	-9312
▁plaane	-9313
▁alustel	-9314
▁olemegi	-9315
▁asendada	-9316
▁dubleeri	-9317
▁istungile	-9318
▁detsembris	-9319
▁siseturval	-9320
▁fraktsioonist	-9321
lused	-9322
–2020	-9323
▁2000	-9324
põhjal	-9325
▁hoiab	-9326
▁küpro	-9327
▁leppe	-9328
▁osalus	-9329
▁üksuse	-9330
▁kajasta	-9331
▁kvartal	-9332
▁aastasse	-9333
▁atraktiiv	-9334
▁järeldusi	-9335
▁maksuameti	-9336
▁üksikisiku	-9337
▁eraldatakse	-9338
one	-9339
▁69	-9340
▁far	-9341
matas	-9342
undit	-9343
▁holl	-9344
▁sure	-9345
toomas	-9346
▁maksim	-9347
▁teades	-9348
▁herkeli	-9349
▁keelata	-9350
▁mingist	-9351
▁normite	-9352
▁põhjusi	-9353
▁tagatis	-9354
▁hüvitist	-9355
▁projekte	-9356
▁selgunud	-9357
▁teenivad	-9358
▁mõjutavad	-9359
▁olenemata	-9360
järelevalve	-9361
▁rahaliselt	-9362
▁riigihangete	-9363
▁seisukohtade	-9364
▁probleemidega	-9365
▁maapiirkondades	-9366
akte	-9367
enist	-9368
▁pära	-9369
▁tükk	-9370
bilise	-9371
viktor	-9372
▁hullu	-9373
terjale	-9374
▁sõnumi	-9375
▁kinnisa	-9376
▁kordagi	-9377
▁peresid	-9378
▁ühetaol	-9379
▁pealkiri	-9380
▁vastatud	-9381
▁ühinenud	-9382
▁tööturule	-9383
▁ettekandest	-9384
▁pensionitõus	-9385
▁maksupoliitika	-9386
▁piirikaubandus	-9387
▁sob	-9388
isust	-9389
▁seel	-9390
▁tööe	-9391
▁viha	-9392
tustel	-9393
▁alamm	-9394
▁graaf	-9395
▁kordi	-9396
▁pidur	-9397
▁katuse	-9398
▁kotkas	-9399
▁sõidab	-9400
▁tublid	-9401
▁töövõt	-9402
▁halvene	-9403
▁rahutaga	-9404
▁ligikaudu	-9405
▁lõplikult	-9406
▁ressursside	-9407
▁komisjonides	-9408
▁konservatiivne	-9409
▁valitsussektori	-9410
isev	-9411
asise	-9412
mmast	-9413
▁pres	-9414
▁ruut	-9415
▁ümar	-9416
mustes	-9417
▁muust	-9418
▁autode	-9419
▁tõdeda	-9420
tegevuse	-9421
▁võrdlus	-9422
▁maksmine	-9423
▁üksteise	-9424
▁teadmiste	-9425
▁algatajale	-9426
▁erakoolide	-9427
▁lähenemist	-9428
▁nõukogusse	-9429
▁tegevusega	-9430
▁võimalikuks	-9431
▁maksukoormus	-9432
iamet	-9433
matus	-9434
▁tarb	-9435
ktsion	-9436
teemal	-9437
▁hoidu	-9438
▁talve	-9439
aastase	-9440
aastast	-9441
endused	-9442
▁oleneb	-9443
▁tulles	-9444
aastased	-9445
▁elatisa	-9446
▁kõrvalt	-9447
▁stratee	-9448
▁teadust	-9449
tingimata	-9450
▁kaugemas	-9451
▁ülemäära	-9452
▁ajendatud	-9453
▁arvamusel	-9454
▁maksusood	-9455
▁piirkonda	-9456
▁arengukavas	-9457
▁järeldusele	-9458
▁korrektselt	-9459
▁ilmtingimata	-9460
▁maksustamise	-9461
all	-9462
niks	-9463
▁203	-9464
▁mäl	-9465
▁ppa	-9466
▁külm	-9467
▁lüli	-9468
marika	-9469
aalselt	-9470
▁sporti	-9471
teenused	-9472
▁paraneb	-9473
▁poolele	-9474
▁taasise	-9475
ttevõtete	-9476
valimiste	-9477
▁asutamis	-9478
▁langetas	-9479
▁lähtunud	-9480
▁pädevust	-9481
palgaliste	-9482
▁töötamise	-9483
▁erapooletu	-9484
▁nimekirjas	-9485
▁rakendatud	-9486
▁taasiseseis	-9487
▁kvalifitseeri	-9488
eku	-9489
isus	-9490
atest	-9491
meedi	-9492
ustase	-9493
▁soove	-9494
▁eakate	-9495
▁kallal	-9496
▁loosun	-9497
▁mõjude	-9498
▁pakend	-9499
▁peegel	-9500
▁sõnade	-9501
▁viitab	-9502
▁uurinud	-9503
▁variand	-9504
ministril	-9505
▁kohalikes	-9506
▁sünnijärg	-9507
▁vastustes	-9508
▁tingimuste	-9509
▁mõistlikult	-9510
▁rahutagamis	-9511
▁teadupärast	-9512
▁väärtpaberi	-9513
organisatsioonid	-9514
▁kaasettekandeks	-9515
kaub	-9516
▁alad	-9517
gusest	-9518
▁palub	-9519
▁sündi	-9520
▁vaher	-9521
itamine	-9522
▁käisid	-9523
▁jagatud	-9524
▁kogenud	-9525
▁kohtume	-9526
▁loomist	-9527
▁märkida	-9528
▁erandeid	-9529
▁nimetanud	-9530
▁õpetajatele	-9531
▁okupatsiooni	-9532
▁paindlikumaks	-9533
▁piirikaubanduse	-9534
argu	-9535
▁tam	-9536
▁uno	-9537
reser	-9538
▁eeld	-9539
▁mani	-9540
▁peep	-9541
▁istub	-9542
▁naine	-9543
▁peaas	-9544
▁suust	-9545
▁süüri	-9546
▁häbene	-9547
▁margin	-9548
▁polegi	-9549
▁sinuga	-9550
▁sooäär	-9551
▁asjasse	-9552
▁riigise	-9553
▁lisandub	-9554
▁saaksite	-9555
▁eeskujuks	-9556
▁selgemaks	-9557
▁suurenevad	-9558
▁probleemiks	-9559
▁83	-9560
ates	-9561
vere	-9562
viga	-9563
▁endi	-9564
▁loet	-9565
▁ivano	-9566
▁tunde	-9567
▁laekus	-9568
▁otsest	-9569
utatakse	-9570
▁kõigist	-9571
▁majutus	-9572
▁suudaks	-9573
▁viljand	-9574
▁elanikku	-9575
▁ametikohta	-9576
▁lihtsamaks	-9577
▁kolmapäeval	-9578
▁lapsevanema	-9579
▁varasematel	-9580
▁initsiatiivi	-9581
▁perspektiivi	-9582
▁sanktsioonid	-9583
nar	-9584
oko	-9585
salt	-9586
istev	-9587
▁mais	-9588
▁meilt	-9589
▁tahad	-9590
▁toomi	-9591
▁õpeta	-9592
▁laevade	-9593
▁saladus	-9594
▁toetate	-9595
▁väikesa	-9596
▁intervju	-9597
menetluses	-9598
oloogiline	-9599
▁toiduaine	-9600
▁tugevdada	-9601
▁üheksanda	-9602
inspektsiooni	-9603
õue	-9604
peda	-9605
▁jõh	-9606
meetri	-9607
▁kõrva	-9608
▁peres	-9609
▁valge	-9610
▁püütud	-9611
▁ajaloos	-9612
▁enamiku	-9613
▁kasumit	-9614
▁kiitnud	-9615
▁külasta	-9616
▁suhelda	-9617
vägivalla	-9618
▁kujutada	-9619
▁tendents	-9620
▁vabaduse	-9621
▁vaidlust	-9622
isatsiooni	-9623
▁aastateks	-9624
▁riiklikku	-9625
▁tunnistan	-9626
▁asjaolusid	-9627
rme	-9628
miat	-9629
▁101	-9630
▁del	-9631
kaits	-9632
▁jagu	-9633
▁rata	-9634
▁õhtu	-9635
▁vooru	-9636
kvalite	-9637
▁lähisu	-9638
▁päevas	-9639
▁sisuka	-9640
piirangu	-9641
▁lastest	-9642
▁seeläbi	-9643
▁vastand	-9644
▁võitlus	-9645
▁stipendi	-9646
▁valitseb	-9647
▁eestlaste	-9648
▁toetuseks	-9649
▁õigusliku	-9650
▁liikmetest	-9651
▁tähenduses	-9652
▁parlamendile	-9653
▁positiivseid	-9654
▁põhiseaduses	-9655
▁paralleelselt	-9656
arv	-9657
ikest	-9658
vusse	-9659
▁järk	-9660
▁leib	-9661
▁viru	-9662
sutuse	-9663
▁jõuti	-9664
▁saite	-9665
▁hulgal	-9666
▁kasvas	-9667
▁käimas	-9668
▁aspekte	-9669
▁tõstame	-9670
▁ainukene	-9671
▁leidsime	-9672
▁memorand	-9673
▁sedavõrd	-9674
▁detsember	-9675
▁tegevuste	-9676
▁tekitavad	-9677
▁suudaksime	-9678
▁täiskogule	-9679
▁kontrollima	-9680
▁olemasoleva	-9681
▁kolleegidega	-9682
juhi	-9683
▁näo	-9684
artur	-9685
jääri	-9686
▁visa	-9687
aduste	-9688
▁ostma	-9689
▁arstid	-9690
▁massil	-9691
▁piirdu	-9692
▁pressi	-9693
▁uskuda	-9694
▁vajame	-9695
▁muutusi	-9696
▁pakendi	-9697
▁realist	-9698
▁olulisel	-9699
▁tähtsust	-9700
▁elanikele	-9701
▁esimehele	-9702
▁jõustunud	-9703
▁plaanitud	-9704
▁toimimise	-9705
▁põhimõtete	-9706
▁suunatakse	-9707
▁kirjeldatud	-9708
5,	-9709
teh	-9710
▁81	-9711
▁da	-9712
kese	-9713
elnud	-9714
rupid	-9715
setel	-9716
ulist	-9717
▁hüpo	-9718
tavast	-9719
▁püsti	-9720
▁juhtide	-9721
▁kogumis	-9722
▁kolmest	-9723
▁elektrit	-9724
▁numbreid	-9725
▁seitsmes	-9726
▁staatuse	-9727
▁tootmise	-9728
▁tähtajal	-9729
▁euroopast	-9730
▁riigikogust	-9731
▁situatsioon	-9732
▁erakorralise	-9733
▁suurepäraselt	-9734
▁84	-9735
ollu	-9736
ress	-9737
stra	-9738
vide	-9739
ustav	-9740
▁ants	-9741
▁puna	-9742
▁võlga	-9743
liitude	-9744
raamist	-9745
▁kallim	-9746
idetakse	-9747
keskuste	-9748
põhimõte	-9749
ustusega	-9750
▁maksame	-9751
▁geograaf	-9752
▁loetakse	-9753
▁riigikoh	-9754
▁võidakse	-9755
▁eelmisest	-9756
▁kirjutama	-9757
▁lepingute	-9758
▁maksudest	-9759
▁murelikuks	-9760
▁suurbritannia	-9761
eb	-9762
ilo	-9763
kei	-9764
seh	-9765
arengu	-9766
▁formu	-9767
▁hirmu	-9768
▁hämma	-9769
▁tulin	-9770
▁autori	-9771
▁sünnib	-9772
▁unusta	-9773
▁muudame	-9774
▁objekti	-9775
▁sõidavad	-9776
▁teadlased	-9777
▁tööpuudus	-9778
▁istungitel	-9779
▁konkreetsel	-9780
▁maakondades	-9781
▁arendamiseks	-9782
▁siinkõneleja	-9783
nev	-9784
idas	-9785
▁õie	-9786
▁lõig	-9787
▁nota	-9788
▁toel	-9789
▁tõid	-9790
▁2005.	-9791
▁maale	-9792
▁audiit	-9793
▁ebapro	-9794
▁kauple	-9795
▁kiitis	-9796
▁sisend	-9797
▁visiid	-9798
▁väidab	-9799
damiseks	-9800
projekti	-9801
▁ametist	-9802
▁suurest	-9803
▁immigran	-9804
▁meenutan	-9805
▁panustab	-9806
▁laiapõhjal	-9807
▁saadetakse	-9808
▁sotsiaalne	-9809
maksustamise	-9810
▁küsimustest	-9811
▁maksusüsteem	-9812
investeeringute	-9813
▁seadusmuudatuse	-9814
ppe	-9815
vari	-9816
ajaga	-9817
amast	-9818
▁loeb	-9819
itakse	-9820
▁hümni	-9821
▁legit	-9822
aafrika	-9823
oetused	-9824
▁ainete	-9825
▁leiate	-9826
▁nimist	-9827
▁pakume	-9828
hinnangu	-9829
▁abivaja	-9830
▁dokumenti	-9831
▁tuvastada	-9832
▁vastuollu	-9833
▁efektiivne	-9834
▁kommentaar	-9835
▁ministrilt	-9836
▁kodakondsusest	-9837
meil	-9838
▁1,3	-9839
▁rüü	-9840
luste	-9841
toime	-9842
▁teatas	-9843
▁väidet	-9844
▁üleseh	-9845
▁ehitama	-9846
▁avaldust	-9847
▁emakeele	-9848
▁energeet	-9849
▁seisavad	-9850
▁sõnavõtt	-9851
▁soovitusi	-9852
▁tagatakse	-9853
▁ametlikult	-9854
▁energiajoo	-9855
▁tagajärjed	-9856
▁välistatud	-9857
▁suurendamiseks	-9858
fel	-9859
voo	-9860
▁86	-9861
kodu	-9862
pule	-9863
looma	-9864
mehed	-9865
▁norm	-9866
▁ovii	-9867
▁peip	-9868
▁täie	-9869
▁arvas	-9870
utamist	-9871
▁auditi	-9872
▁silmis	-9873
▁sõbral	-9874
▁võidab	-9875
▁äärmus	-9876
▁mõtlete	-9877
▁palutud	-9878
▁segadus	-9879
▁võtmise	-9880
▁aktiivne	-9881
▁eelarvel	-9882
▁täitmine	-9883
▁sõltuvalt	-9884
▁täiendavad	-9885
▁teistsugused	-9886
▁pensionikindl	-9887
pon	-9888
▁jõge	-9889
▁pärn	-9890
▁dokto	-9891
▁nõuet	-9892
▁paket	-9893
▁risti	-9894
▁silla	-9895
▁võrds	-9896
▁jutust	-9897
▁meelis	-9898
▁muljet	-9899
▁märkis	-9900
▁olemus	-9901
▁transi	-9902
▁tõstab	-9903
protsend	-9904
sotsiaal	-9905
valdkond	-9906
▁andsite	-9907
▁artikli	-9908
▁muudest	-9909
▁aruandes	-9910
▁hinnatud	-9911
▁lahendab	-9912
▁päevadel	-9913
▁eestimaal	-9914
▁karistuse	-9915
▁korraldab	-9916
▁lehekülge	-9917
▁tubakatoo	-9918
▁prognoosid	-9919
▁teistsuguse	-9920
▁rahastatakse	-9921
▁olemasolevate	-9922
vöö	-9923
▁9,	-9924
▁üü	-9925
liks	-9926
stas	-9927
adiga	-9928
inski	-9929
vilja	-9930
sioone	-9931
▁loeme	-9932
▁norra	-9933
▁resid	-9934
▁viina	-9935
konnaga	-9936
▁katast	-9937
▁klient	-9938
▁miinus	-9939
▁oskust	-9940
vahendid	-9941
▁integra	-9942
▁kliendi	-9943
▁mõlemal	-9944
▁omaenda	-9945
▁püüdsin	-9946
▁tervita	-9947
▁toimuks	-9948
▁õpilase	-9949
▁referend	-9950
▁tähendus	-9951
▁hambaravi	-9952
▁riigivara	-9953
▁ülikoolis	-9954
▁kolleegide	-9955
▁riigieelarvel	-9956
▁maksukorralduse	-9957
inä	-9958
hind	-9959
ites	-9960
tsep	-9961
tuda	-9962
unik	-9963
▁vaar	-9964
▁krede	-9965
▁pikad	-9966
▁teoks	-9967
▁valus	-9968
vahendi	-9969
▁aktsia	-9970
▁koguni	-9971
▁mõnigi	-9972
▁ratase	-9973
▁formaal	-9974
▁liituda	-9975
▁artikkel	-9976
▁konflikt	-9977
▁peaksite	-9978
▁täitmata	-9979
▁vaatavad	-9980
▁varjatud	-9981
▁arusaamad	-9982
▁kurjategi	-9983
▁külalised	-9984
▁lasteaias	-9985
▁tähendada	-9986
▁koolivõrgu	-9987
▁materjalid	-9988
▁asekantsler	-9989
▁avalikkuses	-9990
▁kokkulepped	-9991
▁kandideerida	-9992
▁kriteeriumid	-9993
▁hinnanguliselt	-9994
aline	-9995
linna	-9996
taseme	-9997
utanud	-9998
▁kärpe	-9999
▁seire	-10000
▁soosi	-10001
▁turgu	-10002
▁helmut	-10003
▁kandis	-10004
▁koorma	-10005
▁uuenda	-10006
▁ivanova	-10007
▁kokkuku	-10008
▁kordama	-10009
▁lasteai	-10010
▁liitlas	-10011
▁nädalas	-10012
▁ühineda	-10013
▁juhtumid	-10014
▁jõutakse	-10015
▁järgmises	-10016
▁kokkuhoid	-10017
▁sellistel	-10018
▁soodustada	-10019
▁turvalisus	-10020
▁vastuvõetud	-10021
▁arupärimises	-10022
▁potentsiaali	-10023
arva	-10024
▁193	-10025
▁vähi	-10026
▁õuna	-10027
seltsi	-10028
▁laske	-10029
▁märks	-10030
▁pidid	-10031
▁puhas	-10032
▁toome	-10033
oimingu	-10034
▁apteek	-10035
▁juulil	-10036
▁loonud	-10037
▁soodsa	-10038
▁algatus	-10039
▁legitii	-10040
▁mõistet	-10041
▁pagulas	-10042
▁võlaõig	-10043
▁selgitusi	-10044
kle	-10045
kaup	-10046
maan	-10047
ruum	-10048
setes	-10049
▁seab	-10050
lusest	-10051
▁algus	-10052
▁popul	-10053
blemaat	-10054
▁rahval	-10055
▁ühelgi	-10056
▁asjaaja	-10057
▁juulist	-10058
▁töötame	-10059
▁väidate	-10060
▁ühendus	-10061
▁esimeest	-10062
▁ettekuju	-10063
▁kirjutab	-10064
▁mäletame	-10065
mehhanismi	-10066
▁dividendi	-10067
▁liikumist	-10068
▁kolmandiku	-10069
▁olulisemad	-10070
▁julgeolekut	-10071
▁langetamine	-10072
▁täienduskool	-10073
▁peaspetsialist	-10074
▁sisejulgeoleku	-10075
kao	-10076
jude	-10077
▁maap	-10078
▁hädas	-10079
▁ründa	-10080
▁esineb	-10081
▁kalend	-10082
▁kallid	-10083
▁kaovad	-10084
▁kohalt	-10085
▁muudes	-10086
▁mõtleb	-10087
küsimusi	-10088
▁maavara	-10089
▁päevale	-10090
▁suulise	-10091
▁järjekord	-10092
▁kodanikke	-10093
▁milliseks	-10094
▁tarbijate	-10095
▁vastamata	-10096
▁euroopasse	-10097
▁planeerida	-10098
▁tegevusest	-10099
▁piirilepingu	-10100
▁välismaalaste	-10101
▁haridussüsteemi	-10102
▁valimiskomisjon	-10103
ope	-10104
ves	-10105
atne	-10106
lita	-10107
rahu	-10108
taga	-10109
▁198	-10110
▁90%	-10111
▁põr	-10112
kadri	-10113
nduse	-10114
▁suun	-10115
jaanus	-10116
majade	-10117
põhise	-10118
teenus	-10119
▁minus	-10120
▁sooja	-10121
▁teele	-10122
▁vaade	-10123
▁venel	-10124
▁valdav	-10125
▁alustas	-10126
▁lahingu	-10127
▁suhtuda	-10128
▁üleriig	-10129
▁kusagilt	-10130
▁päästeko	-10131
▁repinski	-10132
▁arengusuu	-10133
▁kaugeltki	-10134
▁osapoolte	-10135
▁patsiendi	-10136
▁printsiib	-10137
▁alaealiste	-10138
▁kilomeetri	-10139
▁juriidilist	-10140
▁isikuandmete	-10141
▁spetsialistide	-10142
pr	-10143
onis	-10144
▁fie	-10145
▁kont	-10146
▁mehe	-10147
▁rist	-10148
▁tiit	-10149
kuning	-10150
▁meres	-10151
▁mõõdu	-10152
▁pilgu	-10153
oluline	-10154
▁endaga	-10155
▁hindab	-10156
▁möönan	-10157
niliselt	-10158
vahetuse	-10159
▁kohelda	-10160
▁laiemat	-10161
▁oskavad	-10162
▁septemb	-10163
▁teehoiu	-10164
▁tekkima	-10165
võimeline	-10166
▁kõneleja	-10167
▁vägivald	-10168
▁ühendust	-10169
▁inimesega	-10170
▁järgnevad	-10171
▁kohtumisel	-10172
▁traditsioo	-10173
▁lapsetoetus	-10174
▁situatsiooni	-10175
▁hääletamissed	-10176
hää	-10177
arst	-10178
mida	-10179
trul	-10180
unnet	-10181
▁ruum	-10182
▁suju	-10183
plaani	-10184
▁siret	-10185
▁suits	-10186
uliselt	-10187
▁jättis	-10188
▁põhite	-10189
▁andmist	-10190
▁esmatas	-10191
▁püüavad	-10192
▁suhtute	-10193
▁muuseumi	-10194
▁omandada	-10195
▁ettevõtet	-10196
▁kasutusel	-10197
▁maksutõus	-10198
▁osalemise	-10199
▁valitakse	-10200
▁põhjendada	-10201
▁detsembriks	-10202
▁kokkulepitud	-10203
▁kuidagimoodi	-10204
▁peaasjalikult	-10205
▁saavutamiseks	-10206
kaja	-10207
▁16-	-10208
▁meh	-10209
▁vää	-10210
ttide	-10211
▁neto	-10212
▁oote	-10213
▁star	-10214
▁karmi	-10215
▁linnu	-10216
▁loete	-10217
▁pikki	-10218
▁viide	-10219
andmeid	-10220
vabadus	-10221
▁liiban	-10222
▁sotsid	-10223
▁asjades	-10224
▁kahelda	-10225
▁tähtsad	-10226
▁eluaseme	-10227
▁esitavad	-10228
▁kümnenda	-10229
▁võrdleme	-10230
▁esimesest	-10231
▁uuringute	-10232
▁rahvasaadik	-10233
▁efektiivselt	-10234
▁jäta	-10235
ulaeku	-10236
▁abiks	-10237
▁kipub	-10238
▁sidus	-10239
olukord	-10240
▁lõpule	-10241
▁mälber	-10242
▁valima	-10243
▁kasutus	-10244
▁pinnalt	-10245
▁suhteid	-10246
▁ühisosa	-10247
▁koormust	-10248
▁unustada	-10249
▁viidanud	-10250
▁alustanud	-10251
▁kaasamine	-10252
▁aktsiiside	-10253
▁väljendada	-10254
▁esitamiseks	-10255
▁pensionärid	-10256
▁päevakorrast	-10257
▁vähendatakse	-10258
▁kaitseväelaste	-10259
▁majandusprognoo	-10260
▁rahvusvahelisel	-10261
▁õl	-10262
tööd	-10263
alase	-10264
itsen	-10265
▁laev	-10266
▁teat	-10267
kompon	-10268
ustaks	-10269
▁tõrju	-10270
▁tühja	-10271
koolide	-10272
▁asjale	-10273
▁humani	-10274
▁loetle	-10275
▁mõjuga	-10276
▁reegel	-10277
▁õpivad	-10278
tatsioon	-10279
▁rõivase	-10280
▁käitunud	-10281
▁üksteist	-10282
▁põhjamaade	-10283
▁toetatakse	-10284
▁võimaldaks	-10285
▁motiveerida	-10286
▁kokkuleppeid	-10287
▁vastuvõtmine	-10288
▁tarbijakaitse	-10289
▁kahetsusväärne	-10290
käik	-10291
gudel	-10292
tegev	-10293
▁2019	-10294
▁pime	-10295
▁täht	-10296
meeldi	-10297
täitja	-10298
▁hinge	-10299
▁palus	-10300
isaalis	-10301
▁hullem	-10302
▁hääled	-10303
▁integr	-10304
▁kiiret	-10305
▁suutma	-10306
tamisest	-10307
▁seisnud	-10308
▁kutseõpp	-10309
▁pahataht	-10310
▁voliniku	-10311
▁elamisloa	-10312
▁millistel	-10313
▁paljudest	-10314
▁lõpetamist	-10315
▁piirangute	-10316
▁ülikoolide	-10317
▁töövõimetus	-10318
▁vaieldamatult	-10319
▁250	-10320
▁70%	-10321
muses	-10322
turul	-10323
▁istu	-10324
▁varu	-10325
anenud	-10326
▁2004.	-10327
▁linde	-10328
▁peeti	-10329
▁õieti	-10330
omanike	-10331
▁minagi	-10332
▁suunal	-10333
▁teavit	-10334
▁kummite	-10335
▁mõtesta	-10336
konsensus	-10337
▁alandada	-10338
▁läheneda	-10339
▁parandab	-10340
▁puutunud	-10341
▁rakendub	-10342
▁osalemine	-10343
▁prantsuse	-10344
▁sellekoha	-10345
▁kaitseliit	-10346
▁kinnisasja	-10347
▁korraldama	-10348
▁veeseaduse	-10349
▁kehtestanud	-10350
▁tallinnasse	-10351
▁tõkestamise	-10352
▁valmisoleku	-10353
▁valitsemisala	-10354
▁rahvusvahelised	-10355
▁ul	-10356
iive	-10357
ismi	-10358
▁vir	-10359
landi	-10360
▁akti	-10361
▁vaen	-10362
aloogi	-10363
damist	-10364
▁toitu	-10365
▁eelkäi	-10366
▁esitle	-10367
▁õppeka	-10368
reklaami	-10369
▁ametlik	-10370
▁jätkuks	-10371
▁kalline	-10372
▁kujutan	-10373
▁lugedes	-10374
▁mõjusid	-10375
▁saamine	-10376
▁sellegi	-10377
õigusliku	-10378
▁keskkond	-10379
▁riigikan	-10380
▁samasool	-10381
▁aktuaalne	-10382
▁elatisabi	-10383
▁loogikast	-10384
▁piirmäära	-10385
▁selgitama	-10386
▁vähendama	-10387
▁detailselt	-10388
▁kirjeldada	-10389
▁kriitilise	-10390
▁maailmavaa	-10391
▁suurusjärk	-10392
▁valitsuste	-10393
▁vastupidine	-10394
▁arusaadavalt	-10395
▁konkreetsest	-10396
▁lihtsustatud	-10397
▁neljapäevast	-10398
▁maaelukomisjon	-10399
usti	-10400
liina	-10401
usite	-10402
▁3000	-10403
▁okei	-10404
▁inspe	-10405
▁lenda	-10406
▁mõjud	-10407
▁tooks	-10408
protsed	-10409
▁hotell	-10410
▁imelik	-10411
▁viivad	-10412
▁eeldame	-10413
▁säärane	-10414
▁saadikut	-10415
▁eelarvele	-10416
▁spetsiaal	-10417
▁valimisel	-10418
▁elamisluba	-10419
▁igasuguste	-10420
▁järeldused	-10421
▁problemaat	-10422
▁võimaldavad	-10423
▁ühendkuning	-10424
▁abivahendite	-10425
▁0	-10426
bus	-10427
jan	-10428
täp	-10429
▁ske	-10430
▁alen	-10431
▁koda	-10432
tänane	-10433
▁eelis	-10434
▁hoiak	-10435
▁lisan	-10436
▁panete	-10437
▁pankad	-10438
▁peipsi	-10439
▁vabane	-10440
asutused	-10441
▁kahtlus	-10442
▁kirjand	-10443
▁saamist	-10444
▁väljaeh	-10445
põhimõtte	-10446
▁arutades	-10447
▁kaudselt	-10448
▁korrasta	-10449
▁pankroti	-10450
▁tuleksid	-10451
▁tööhõive	-10452
▁kehtestab	-10453
▁krediidia	-10454
▁maksumäära	-10455
▁mõistlikud	-10456
▁tehnilised	-10457
▁hääletamine	-10458
▁kandidaatide	-10459
▁lahendatakse	-10460
▁rakendamiseks	-10461
igor	-10462
susi	-10463
raama	-10464
andeid	-10465
▁lähed	-10466
▁prügi	-10467
umiseni	-10468
▁kvoodi	-10469
▁väärik	-10470
oloogiat	-10471
▁algselt	-10472
▁nõuavad	-10473
▁asjaolud	-10474
▁euroraha	-10475
▁piirival	-10476
▁tarbimis	-10477
▁alampalga	-10478
▁demokraat	-10479
▁kohtumine	-10480
▁laekumine	-10481
▁põhjuseid	-10482
▁stabilise	-10483
▁võlakirju	-10484
▁inimestelt	-10485
▁muutmisega	-10486
▁panustanud	-10487
▁päästeamet	-10488
▁tagasisidet	-10489
▁kehtestamine	-10490
▁käsitletakse	-10491
▁rahvasaadiku	-10492
▁komisjonipoolne	-10493
tli	-10494
ener	-10495
lugu	-10496
visi	-10497
▁000.	-10498
▁2011	-10499
▁hüve	-10500
▁uuel	-10501
kogude	-10502
▁pinge	-10503
kasutus	-10504
▁alanud	-10505
▁käivit	-10506
▁tundma	-10507
▁õppela	-10508
iseerida	-10509
▁leidsid	-10510
▁lubadus	-10511
▁osalema	-10512
▁õunapuu	-10513
vabandust	-10514
▁euroopal	-10515
▁kaheksas	-10516
▁lugesite	-10517
▁muutused	-10518
▁töörühma	-10519
▁garantiid	-10520
▁kohalikus	-10521
▁materjali	-10522
▁paranenud	-10523
▁sätestada	-10524
▁hinnatakse	-10525
▁praegusest	-10526
▁sotsiaalsed	-10527
▁ettevõtjatel	-10528
▁lapsetoetuse	-10529
▁poliitilises	-10530
▁suurendamise	-10531
▁majanduslikku	-10532
▁konventsiooniga	-10533
gene	-10534
▁noh	-10535
tulek	-10536
▁heid	-10537
iteeri	-10538
lastel	-10539
▁kvoot	-10540
▁osaks	-10541
▁piire	-10542
▁revis	-10543
▁rõõmu	-10544
▁tõmbe	-10545
▁ametiv	-10546
▁haigus	-10547
ustatult	-10548
▁igaühel	-10549
▁kaaluma	-10550
▁kallale	-10551
▁katteks	-10552
▁loobuma	-10553
▁püstita	-10554
▁ümbriku	-10555
▁direktor	-10556
▁eksperdi	-10557
▁kukkunud	-10558
▁maksumus	-10559
▁täidavad	-10560
▁miljoneid	-10561
▁puudujääk	-10562
▁rakendama	-10563
▁kaitsevägi	-10564
▁maksustada	-10565
▁analüüsitud	-10566
▁kasutamiseks	-10567
▁kriminaalasja	-10568
▁liiklusseaduse	-10569
50	-10570
mase	-10571
itaja	-10572
▁lõiv	-10573
▁mand	-10574
▁heili	-10575
▁skais	-10576
▁uuest	-10577
teiseks	-10578
▁arvuti	-10579
▁kiirem	-10580
▁käitle	-10581
▁suurde	-10582
▁tõenäo	-10583
▁17.15."	-10584
▁ekspord	-10585
▁eriarva	-10586
▁laaneti	-10587
▁nimetab	-10588
▁olekski	-10589
▁plaanib	-10590
õpetuseks	-10591
▁valituks	-10592
▁õigusega	-10593
▁juhtimine	-10594
▁riigieksa	-10595
▁suurusega	-10596
▁venemaalt	-10597
▁ingliskeel	-10598
▁magustatud	-10599
▁riigilõivu	-10600
▁samasugust	-10601
▁julgeolekun	-10602
▁läbipaistev	-10603
▁patsientide	-10604
▁projekteeri	-10605
itav	-10606
▁lip	-10607
tades	-10608
teata	-10609
velti	-10610
▁lamm	-10611
▁õhus	-10612
umäära	-10613
▁oskus	-10614
▁veebi	-10615
▁õiget	-10616
▁aruand	-10617
▁ideaal	-10618
▁minnes	-10619
▁eelnõul	-10620
▁mõttega	-10621
▁teemale	-10622
▁tähista	-10623
▁valijad	-10624
▁vähenes	-10625
▁õpilasi	-10626
▁hääletab	-10627
▁kõrgemad	-10628
▁liikmele	-10629
▁riikidel	-10630
▁diplomaat	-10631
▁absoluutse	-10632
▁veterinaar	-10633
▁neljapäeval	-10634
suh	-10635
▁halv	-10636
▁mõõt	-10637
▁pria	-10638
▁järva	-10639
▁liini	-10640
▁tõmma	-10641
komitee	-10642
▁baasse	-10643
▁motiiv	-10644
▁mõelge	-10645
▁sedagi	-10646
▁võltsi	-10647
▁võtmes	-10648
▁anvelti	-10649
▁avalike	-10650
▁gruusia	-10651
▁juhtuma	-10652
▁järgneb	-10653
▁kajastu	-10654
▁kuuleme	-10655
▁keskpank	-10656
▁linnaosa	-10657
▁mõningad	-10658
▁nimetame	-10659
▁ametnikke	-10660
▁prioriteete	-10661
▁kujundamisel	-10662
▁registreerida	-10663
ppa	-10664
▁25%	-10665
▁sõt	-10666
tasud	-10667
▁000,	-10668
▁aasa	-10669
▁liha	-10670
▁vett	-10671
astega	-10672
ulised	-10673
▁halla	-10674
▁lahja	-10675
▁põhie	-10676
▁saadi	-10677
meetrit	-10678
▁turvat	-10679
▁tõusis	-10680
▁proviis	-10681
▁kommente	-10682
▁linnades	-10683
▁päritolu	-10684
▁reservid	-10685
▁akadeemia	-10686
▁karistada	-10687
▁kummitemp	-10688
▁partnerid	-10689
▁programme	-10690
▁rikkumise	-10691
▁sellistes	-10692
▁eurotsooni	-10693
▁leheküljel	-10694
▁eksisteerib	-10695
▁matemaatika	-10696
▁tähelepanek	-10697
▁riigikogusse	-10698
▁väikeettevõt	-10699
▁sõnavõtusoove	-10700
▁ravikindlustus	-10701
elan	-10702
esta	-10703
skee	-10704
sõna	-10705
atust	-10706
eeriv	-10707
isaad	-10708
tlusi	-10709
ühist	-10710
▁ootan	-10711
▁pikas	-10712
▁sadam	-10713
kolleeg	-10714
ohvitse	-10715
▁hoiame	-10716
▁lubati	-10717
▁nõustu	-10718
▁küsivad	-10719
valimised	-10720
ühenduste	-10721
▁lubaduse	-10722
▁lähemale	-10723
▁tõstetud	-10724
▁hindamine	-10725
▁keeleõppe	-10726
▁tippkohtu	-10727
▁arvestatav	-10728
▁maksulaeku	-10729
▁kobareelnõu	-10730
▁äriühingute	-10731
▁afganistanis	-10732
▁maksustamine	-10733
▁peaministrina	-10734
lau	-10735
▁ek	-10736
dire	-10737
mahu	-10738
eerik	-10739
▁100%	-10740
▁airi	-10741
▁iiri	-10742
▁õpib	-10743
lusele	-10744
▁liigu	-10745
▁andrei	-10746
▁astuma	-10747
▁keskse	-10748
▁pühend	-10749
▁senist	-10750
panekuga	-10751
protsess	-10752
▁küsisid	-10753
▁välisin	-10754
▁üllatus	-10755
▁finantsa	-10756
▁aktsiisid	-10757
▁arvestame	-10758
▁ülesannet	-10759
portsionaal	-10760
▁meditsiini	-10761
▁lapsetoetust	-10762
▁majandusaasta	-10763
▁probleemidest	-10764
▁riigiasutuste	-10765
▁strateegilise	-10766
▁administratiiv	-10767
iir	-10768
juu	-10769
kit	-10770
tuur	-10771
▁120	-10772
▁sub	-10773
solid	-10774
▁homo	-10775
▁kõiv	-10776
aladel	-10777
▁kaame	-10778
▁keela	-10779
▁taime	-10780
konstru	-10781
▁süüria	-10782
▁kasvaks	-10783
▁kaupade	-10784
▁oudekki	-10785
▁rikutud	-10786
▁sisaldu	-10787
▁tarbeks	-10788
▁asjakoha	-10789
▁lähitule	-10790
▁mõistagi	-10791
▁nimetati	-10792
▁oluliste	-10793
▁talituse	-10794
▁taotlema	-10795
▁vastasid	-10796
päevakorra	-10797
▁dividende	-10798
▁tõenäosus	-10799
▁vastutama	-10800
▁ühinemist	-10801
▁võrdlemisi	-10802
▁sissetulekud	-10803
▁omandireformi	-10804
▁oü	-10805
arno	-10806
helt	-10807
rida	-10808
▁12,	-10809
▁küp	-10810
tahes	-10811
▁jalg	-10812
▁maat	-10813
▁rehk	-10814
firmad	-10815
koolis	-10816
▁elamu	-10817
▁liita	-10818
▁paigal	-10819
▁pakett	-10820
▁ruumis	-10821
▁ühistu	-10822
andidaat	-10823
ühenduse	-10824
▁lähemal	-10825
▁paberil	-10826
▁reforme	-10827
▁tulenev	-10828
▁valikut	-10829
▁arvestab	-10830
▁avalikud	-10831
▁jõustuma	-10832
▁konsolid	-10833
▁lubadust	-10834
▁taotlust	-10835
▁tõsiseid	-10836
lõpetuseks	-10837
ustegevuse	-10838
▁tehnilisi	-10839
▁spekuleeri	-10840
▁sõnastatud	-10841
▁hädavajalik	-10842
▁prognoosida	-10843
▁põhjendused	-10844
▁maanteeameti	-10845
▁täiendatakse	-10846
▁tööjõumaksude	-10847
▁kättesaadavaks	-10848
seri	-10849
▁õde	-10850
ikaua	-10851
kasti	-10852
matut	-10853
vuses	-10854
vääri	-10855
▁hüpp	-10856
▁neis	-10857
▁peit	-10858
lubade	-10859
▁väino	-10860
auväärt	-10861
▁kuulge	-10862
▁sõerdi	-10863
▁eripära	-10864
▁märgist	-10865
▁suudeta	-10866
▁kahekord	-10867
▁kordades	-10868
▁november	-10869
▁patsient	-10870
▁võõranda	-10871
▁dmitrijev	-10872
▁jaanuaris	-10873
▁koolituse	-10874
▁lisatakse	-10875
▁osalusega	-10876
▁otsustest	-10877
▁riigikeel	-10878
▁sõiduauto	-10879
▁sümpaatne	-10880
▁vajalikku	-10881
▁arusaamist	-10882
▁esindajaid	-10883
▁keskenduda	-10884
▁tavapärane	-10885
▁piirkondade	-10886
▁struktuurne	-10887
▁kolmapäevast	-10888
▁lisavahendeid	-10889
▁operatsioonil	-10890
▁suurendatakse	-10891
▁arendustegevus	-10892
eaeg	-10893
nõud	-10894
▁0,2	-10895
▁bre	-10896
aluse	-10897
ikuus	-10898
kuula	-10899
▁tapa	-10900
usesse	-10901
▁sport	-10902
▁meelel	-10903
▁tõstma	-10904
▁haldust	-10905
▁meeldiv	-10906
▁muresid	-10907
▁päevaks	-10908
▁elanikke	-10909
▁eluaasta	-10910
▁kahjulik	-10911
▁kutsunud	-10912
▁lähemalt	-10913
▁omanikud	-10914
▁väljarän	-10915
▁lähisuhte	-10916
▁rahalised	-10917
▁investeeri	-10918
▁kasutamata	-10919
▁käesoleval	-10920
▁pöördumise	-10921
▁tagasimakse	-10922
▁tehniliselt	-10923
▁aastakümneid	-10924
▁teisipäevast	-10925
▁sissetulekuga	-10926
▁erimärgistatud	-10927
▁kümneminutilist	-10928
ner	-10929
tum	-10930
liga	-10931
ppes	-10932
turg	-10933
▁paa	-10934
▁slo	-10935
▁käsk	-10936
▁unga	-10937
aktiiv	-10938
▁etapp	-10939
▁remon	-10940
▁tarvi	-10941
järgult	-10942
▁arvust	-10943
▁näpuga	-10944
▁apteegi	-10945
▁pevkuri	-10946
▁suletud	-10947
▁teataja	-10948
▁kehtivat	-10949
▁tulubaas	-10950
gupeetavad	-10951
▁teemadega	-10952
▁järjekorda	-10953
▁optimaalne	-10954
▁valmistada	-10955
▁väiksemaks	-10956
inspektsioon	-10957
▁ajakirjanik	-10958
▁lahendamisel	-10959
▁mitmesugused	-10960
▁vabatahtlike	-10961
▁keskvalitsuse	-10962
▁maksukoormust	-10963
▁sihtotstarbel	-10964
▁institutsioonid	-10965
–4	-10966
saa	-10967
▁ea	-10968
agen	-10969
asju	-10970
vedu	-10971
▁iii	-10972
▁päl	-10973
ideks	-10974
ikool	-10975
meest	-10976
mõtle	-10977
▁okup	-10978
astuse	-10979
ikmete	-10980
▁autor	-10981
▁kõrvu	-10982
▁tiina	-10983
tunnist	-10984
▁arvele	-10985
▁jumala	-10986
▁lepiti	-10987
▁soovis	-10988
▁ebamuga	-10989
▁enamuse	-10990
▁istuvad	-10991
▁juhtima	-10992
▁looduse	-10993
▁muuseum	-10994
▁pelgalt	-10995
▁staatus	-10996
▁avaldusi	-10997
▁igatahes	-10998
▁kerkinud	-10999
▁praegugi	-11000
kaubanduse	-11001
▁arvutused	-11002
▁kuuluvate	-11003
▁paranduse	-11004
poliitilisi	-11005
▁arendamine	-11006
▁juhatajale	-11007
▁ülesandeks	-11008
8,	-11009
ikah	-11010
▁dik	-11011
▁usk	-11012
▁õlu	-11013
imeid	-11014
liige	-11015
tasin	-11016
▁imre	-11017
▁maar	-11018
tusena	-11019
▁haara	-11020
▁heale	-11021
▁liina	-11022
väärtus	-11023
▁nimega	-11024
▁omaste	-11025
▁raport	-11026
▁sõitma	-11027
▁vältel	-11028
▁äravõt	-11029
▁nõustun	-11030
▁tervelt	-11031
▁tootmis	-11032
▁helistab	-11033
▁ilmselge	-11034
▁küsisime	-11035
▁lisakulu	-11036
▁mõtlevad	-11037
▁näitajad	-11038
▁toimivad	-11039
▁tsentral	-11040
▁tutvunud	-11041
▁brüsselis	-11042
▁ebameeldi	-11043
▁maavanema	-11044
▁meenutada	-11045
▁menetlema	-11046
▁mikrofoni	-11047
▁optimeeri	-11048
▁personaal	-11049
▁poolteise	-11050
▁teistesse	-11051
▁puudutanud	-11052
▁riigipiiri	-11053
▁tervitatav	-11054
▁väljapoole	-11055
▁asendusliikme	-11056
▁kooseluseadus	-11057
päde	-11058
tare	-11059
grupi	-11060
ruppe	-11061
▁avab	-11062
▁loom	-11063
▁mehi	-11064
semaid	-11065
vadega	-11066
▁asjus	-11067
▁hekta	-11068
▁metal	-11069
▁valib	-11070
ootjate	-11071
▁ajenda	-11072
▁apteeg	-11073
▁eemale	-11074
▁erineb	-11075
▁kahele	-11076
▁raskem	-11077
▁vajaks	-11078
▁kasvada	-11079
▁nendelt	-11080
▁vastaja	-11081
▁hüvitise	-11082
▁saabunud	-11083
▁arvatakse	-11084
▁juhtumite	-11085
▁novembris	-11086
▁tunnustan	-11087
▁volituste	-11088
▁ülikoolid	-11089
▁ajalooline	-11090
▁arupärijad	-11091
▁elatisraha	-11092
▁kinnitavad	-11093
▁kontrollib	-11094
▁sanktsioone	-11095
▁toetamiseks	-11096
▁vähendamiseks	-11097
▁kontseptsiooni	-11098
koge	-11099
volu	-11100
amade	-11101
gudes	-11102
liigi	-11103
▁hing	-11104
▁logo	-11105
▁nõrk	-11106
▁rong	-11107
▁vile	-11108
astest	-11109
▁autot	-11110
▁joogi	-11111
▁kiusa	-11112
▁märku	-11113
▁türgi	-11114
damisel	-11115
ühendus	-11116
▁logist	-11117
▁minust	-11118
▁pakkus	-11119
▁seltsi	-11120
▁suutel	-11121
▁sündis	-11122
▁teavet	-11123
▁asukoha	-11124
▁kaitseb	-11125
▁survest	-11126
▁süürias	-11127
▁maksimum	-11128
▁sisserän	-11129
▁hinnangud	-11130
▁parandama	-11131
▁reservide	-11132
▁tehnilist	-11133
▁võimekuse	-11134
▁õigusriik	-11135
▁varasemate	-11136
▁eriarstiabi	-11137
▁hädaolukorra	-11138
▁otsustatakse	-11139
nid	-11140
ona	-11141
ikoh	-11142
keid	-11143
kõne	-11144
laen	-11145
meri	-11146
▁put	-11147
▁röö	-11148
▁sek	-11149
põllu	-11150
stati	-11151
▁mahe	-11152
▁pist	-11153
kuidas	-11154
▁konto	-11155
▁rendi	-11156
päevase	-11157
▁kergem	-11158
▁kõrged	-11159
▁pereli	-11160
▁pärine	-11161
▁salata	-11162
▁suhete	-11163
▁trassi	-11164
▁üheski	-11165
▁abikaas	-11166
▁laurson	-11167
▁põhikir	-11168
▁sisalda	-11169
▁tänulik	-11170
▁üksikud	-11171
▁huvidest	-11172
▁konkurss	-11173
▁maksmist	-11174
▁pensione	-11175
▁pressite	-11176
▁vaatevin	-11177
▁variante	-11178
▁väljaand	-11179
▁väärtusi	-11180
▁õnnestus	-11181
▁ühinemis	-11182
▁ettekirju	-11183
▁hiljemalt	-11184
▁inimesena	-11185
▁selgitage	-11186
▁tegelikku	-11187
▁volitused	-11188
▁kohtlemine	-11189
▁langetatud	-11190
▁palgafondi	-11191
▁riigikassa	-11192
▁kõnepuldist	-11193
▁maanteeamet	-11194
▁perearstide	-11195
▁päevakorral	-11196
▁valimistule	-11197
▁korraldamine	-11198
▁põllumajanduses	-11199
efe	-11200
▁man	-11201
▁süv	-11202
ikaga	-11203
kütte	-11204
oloog	-11205
pingu	-11206
tartu	-11207
▁anta	-11208
▁tagu	-11209
▁lätti	-11210
▁vabas	-11211
▁üksus	-11212
tasemel	-11213
▁palkad	-11214
▁vitsut	-11215
▁laiemas	-11216
▁näitama	-11217
▁bensiini	-11218
▁kaotavad	-11219
▁liitunud	-11220
▁lülitada	-11221
▁osutunud	-11222
▁regiooni	-11223
▁teostada	-11224
▁tõestada	-11225
▁vajalike	-11226
võimalused	-11227
▁kiirlaenu	-11228
▁kvaliteed	-11229
▁vastutada	-11230
▁ammendatud	-11231
▁analüüsima	-11232
▁arutamiseks	-11233
▁funktsioone	-11234
▁okupatsioon	-11235
▁valdkonnaga	-11236
▁erisoodustus	-11237
▁kehtestamise	-11238
▁demokraatliku	-11239
dude	-11240
need	-11241
▁15,	-11242
▁err	-11243
adest	-11244
astel	-11245
meelt	-11246
ootor	-11247
parla	-11248
▁lõhe	-11249
▁valva	-11250
▁kirjel	-11251
▁staabi	-11252
▁erimeel	-11253
▁hakkate	-11254
▁ilmunud	-11255
▁laenude	-11256
▁pidasin	-11257
▁regioon	-11258
▁väiteid	-11259
▁arvutada	-11260
▁maakonda	-11261
▁ratasele	-11262
▁veeteede	-11263
▁identitee	-11264
▁katastroo	-11265
▁selgitust	-11266
▁sõnastada	-11267
▁tehtavate	-11268
poliitikaga	-11269
ratsioonide	-11270
▁sellisesse	-11271
▁valimislub	-11272
▁üldharidus	-11273
▁afganistani	-11274
▁juurdepääsu	-11275
▁lahendamist	-11276
▁sotsiaalmeedi	-11277
eaast	-11278
endit	-11279
▁mali	-11280
▁mäng	-11281
▁sepp	-11282
▁sull	-11283
dajate	-11284
keeles	-11285
▁naise	-11286
mustega	-11287
▁lapsel	-11288
▁suhkru	-11289
▁klassik	-11290
▁tõstnud	-11291
▁vahetus	-11292
▁õnnestu	-11293
▁maksmata	-11294
▁reaalset	-11295
▁ühendada	-11296
▁järeldada	-11297
▁kohapealt	-11298
▁pakkumine	-11299
▁teadmised	-11300
▁tühistada	-11301
▁vaatevink	-11302
▁politseiamet	-11303
hüü	-11304
oht	-11305
ikene	-11306
risti	-11307
▁dema	-11308
esmärk	-11309
pordis	-11310
▁katab	-11311
ikaitse	-11312
missioon	-11313
▁küsitav	-11314
▁minevik	-11315
▁mõlemat	-11316
▁palgata	-11317
▁pöörama	-11318
▁randver	-11319
▁tundnud	-11320
▁valdade	-11321
▁hoitakse	-11322
▁soovitud	-11323
▁tööjõudu	-11324
▁usaldust	-11325
▁vastasel	-11326
▁kaasamise	-11327
▁kulutuste	-11328
▁lepinguga	-11329
▁väikesaar	-11330
▁ebaõiglane	-11331
▁kokkuvõtte	-11332
▁põhjalikku	-11333
poliitilised	-11334
▁järjekorrad	-11335
▁täitevvõimu	-11336
▁kolleegidele	-11337
▁ammendumiseni	-11338
▁eestikeelsele	-11339
▁lähitulevikus	-11340
▁miinimumpalga	-11341
▁kaasettekandja	-11342
▁konkurentsiamet	-11343
isk	-11344
kin	-11345
kom	-11346
õhu	-11347
jagu	-11348
otsi	-11349
vand	-11350
▁18-	-11351
vasse	-11352
▁ajab	-11353
▁maid	-11354
▁nool	-11355
▁igast	-11356
▁nimed	-11357
▁omast	-11358
▁tervi	-11359
▁baasil	-11360
▁kümnes	-11361
▁panust	-11362
▁muutust	-11363
▁piiride	-11364
▁toobali	-11365
▁väitega	-11366
nimetatud	-11367
▁kreekale	-11368
▁miinuses	-11369
▁radikaal	-11370
▁toimusid	-11371
▁vähenema	-11372
▁edasimine	-11373
▁erasektor	-11374
▁kannatanu	-11375
▁osutamise	-11376
▁edasilükka	-11377
▁instituudi	-11378
▁majandusse	-11379
▁niisuguste	-11380
▁septembris	-11381
▁vedelkütuse	-11382
▁õiguslikult	-11383
▁erakondadele	-11384
▁migratsiooni	-11385
▁muudatustest	-11386
▁päästekomando	-11387
7,	-11388
seer	-11389
▁sün	-11390
iküsi	-11391
koole	-11392
kuule	-11393
suses	-11394
▁lõim	-11395
mailis	-11396
sigare	-11397
▁autod	-11398
▁karda	-11399
▁tanel	-11400
▁halvad	-11401
▁käitub	-11402
▁lätist	-11403
▁määras	-11404
▁patrul	-11405
▁selgem	-11406
▁skanda	-11407
▁tasude	-11408
▁hakatud	-11409
▁toodete	-11410
▁tõsteti	-11411
▁visioon	-11412
▁arutleda	-11413
▁lõpetame	-11414
▁rahalisi	-11415
▁avalikkus	-11416
▁intervjuu	-11417
▁kaotamine	-11418
▁ratifitse	-11419
▁kutsutakse	-11420
▁puudutasid	-11421
▁tõstatanud	-11422
▁mitmesugust	-11423
▁reguleerima	-11424
▁lugupeetavad	-11425
▁vaatevinklist	-11426
▁regulatsioonid	-11427
eloo	-11428
pris	-11429
võtu	-11430
ootjad	-11431
prokur	-11432
▁heita	-11433
▁kaldu	-11434
▁käiku	-11435
▁laari	-11436
▁masta	-11437
▁moodi	-11438
▁saavu	-11439
▁serti	-11440
konnale	-11441
▁kaardi	-11442
▁kuuluv	-11443
▁notari	-11444
▁raamat	-11445
küsimuse	-11446
▁haiglas	-11447
▁jõustus	-11448
▁mainida	-11449
▁tugevad	-11450
▁eelmiste	-11451
▁peamised	-11452
▁ressurss	-11453
▁tavapära	-11454
▁tegeliku	-11455
▁tingimus	-11456
▁vaikselt	-11457
▁agressiiv	-11458
▁inimesest	-11459
▁järelduse	-11460
▁korraliku	-11461
▁loomiseks	-11462
▁tagajärgi	-11463
poliitilise	-11464
▁maksustatud	-11465
▁registrisse	-11466
▁majandusliku	-11467
▁motivatsioon	-11468
▁kohtusüsteemi	-11469
▁registreerunud	-11470
aat	-11471
nur	-11472
unu	-11473
äre	-11474
ükk	-11475
kahe	-11476
▁13,	-11477
▁ohj	-11478
aloog	-11479
kriis	-11480
▁eira	-11481
▁kehv	-11482
▁lipp	-11483
inguga	-11484
tlused	-11485
▁halva	-11486
▁india	-11487
▁skeem	-11488
▁viidi	-11489
▁huviga	-11490
▁koguma	-11491
▁kohatu	-11492
▁krimin	-11493
▁laiema	-11494
▁materi	-11495
▁ajutine	-11496
▁läbinud	-11497
▁taskust	-11498
▁tellida	-11499
▁eelarven	-11500
▁reeglina	-11501
▁toetatud	-11502
▁kinnitust	-11503
▁sõnastust	-11504
▁eesmärgist	-11505
▁pomerantsi	-11506
▁kolleegidel	-11507
▁lahendamine	-11508
▁toetusrühma	-11509
▁õppetoetuste	-11510
▁ettevõtjatega	-11511
▁põllumajandusse	-11512
eele	-11513
stav	-11514
tend	-11515
▁106	-11516
▁16,	-11517
▁tri	-11518
dajad	-11519
ituut	-11520
pilti	-11521
usena	-11522
▁kõhk	-11523
▁küti	-11524
▁reda	-11525
▁aasia	-11526
▁kõnel	-11527
▁külas	-11528
▁puhta	-11529
▁tööri	-11530
▁usuta	-11531
ktorite	-11532
▁ilusat	-11533
▁jääbki	-11534
▁raiska	-11535
▁rollis	-11536
▁survet	-11537
▁teiegi	-11538
▁voorus	-11539
lepingud	-11540
▁kuulame	-11541
▁meeldis	-11542
▁platvor	-11543
missiooni	-11544
▁punktide	-11545
▁tagamine	-11546
▁viimases	-11547
▁ajutiselt	-11548
▁arutelule	-11549
▁etteteata	-11550
▁konteksti	-11551
▁liikumise	-11552
▁rõhutasin	-11553
▁tugevasti	-11554
▁koolitoidu	-11555
▁lõpetamise	-11556
▁süsteemiga	-11557
▁kaitsevõime	-11558
▁valmistanud	-11559
kindlustusamet	-11560
fun	-11561
kama	-11562
naab	-11563
viid	-11564
▁lär	-11565
metsa	-11566
põgen	-11567
utame	-11568
võist	-11569
▁käed	-11570
▁nord	-11571
andmed	-11572
gudest	-11573
kohtun	-11574
piiril	-11575
tavale	-11576
▁ilmne	-11577
▁oskan	-11578
▁viisi	-11579
▁elutäh	-11580
▁eurolt	-11581
▁ilusti	-11582
▁ringis	-11583
▁surnud	-11584
▁tasuda	-11585
▁distsip	-11586
▁hetkest	-11587
▁järgida	-11588
▁pariisi	-11589
▁saadeti	-11590
reformist	-11591
▁jäätmete	-11592
▁kuritegu	-11593
▁kõrgemat	-11594
oloogilise	-11595
süsteemide	-11596
▁materjale	-11597
▁ostetakse	-11598
▁piirikaub	-11599
▁savisaare	-11600
▁ehitatakse	-11601
▁kehtestati	-11602
▁novembriks	-11603
▁programmis	-11604
▁eestikeelne	-11605
▁iseseisvuse	-11606
▁langetamise	-11607
▁töötajatele	-11608
▁üksmeelselt	-11609
▁kollektiivse	-11610
▁sanktsioonide	-11611
▁lisandväärtust	-11612
▁ühemõtteliselt	-11613
201	-11614
▁194	-11615
▁lõd	-11616
alisi	-11617
suhte	-11618
▁stim	-11619
oloogi	-11620
▁purga	-11621
▁selja	-11622
▁algust	-11623
▁pikaks	-11624
▁ühtset	-11625
▁holsmer	-11626
▁lihtsal	-11627
▁saadiku	-11628
▁tänaval	-11629
▁tõsised	-11630
lepingute	-11631
▁eksperte	-11632
▁kaubalae	-11633
▁kitsenda	-11634
▁merendus	-11635
▁kirjaliku	-11636
▁läänemere	-11637
▁teadlikud	-11638
▁igapäevast	-11639
▁kohtunikud	-11640
▁riigihanke	-11641
▁temaatikat	-11642
▁vähenemist	-11643
▁advokatuuri	-11644
▁kinnitamine	-11645
▁olulisemaid	-11646
▁ühiskonnast	-11647
▁jäätmeseaduse	-11648
▁korraldatakse	-11649
▁valitsusliidu	-11650
–6	-11651
ias	-11652
jja	-11653
▁fan	-11654
vaade	-11655
▁hinn	-11656
▁paul	-11657
endiga	-11658
eritud	-11659
praegu	-11660
▁hõiva	-11661
▁kompl	-11662
▁salli	-11663
▁voodi	-11664
institu	-11665
joontes	-11666
▁armast	-11667
▁arvuga	-11668
▁eestko	-11669
▁jagama	-11670
▁kaunis	-11671
▁piloot	-11672
▁velman	-11673
▁võtsin	-11674
▁üksiku	-11675
mulikult	-11676
praktika	-11677
▁alender	-11678
▁asutusi	-11679
▁juuniks	-11680
▁suhetes	-11681
▁suurima	-11682
▁talviku	-11683
▁aktsiise	-11684
▁jälginud	-11685
▁karjääri	-11686
▁personal	-11687
▁puudutav	-11688
▁taotlusi	-11689
▁teistega	-11690
▁vastanda	-11691
▁eelkõnele	-11692
▁ravijärje	-11693
▁vältimise	-11694
▁hinnatõusu	-11695
▁umbusaldus	-11696
▁formaalselt	-11697
▁vabariigile	-11698
kohtumenetluse	-11699
▁ettepanekutest	-11700
▁kr	-11701
kuga	-11702
viko	-11703
▁20,	-11704
▁dan	-11705
tseer	-11706
▁julg	-11707
▁trei	-11708
matust	-11709
▁ivari	-11710
▁kulge	-11711
▁mõõta	-11712
▁otsas	-11713
▁pidev	-11714
itamise	-11715
ruktuur	-11716
▁etteva	-11717
▁kajast	-11718
▁saadab	-11719
▁soovid	-11720
vabadust	-11721
▁aluseid	-11722
▁holland	-11723
▁reaalse	-11724
▁summast	-11725
▁tugevam	-11726
ikontroll	-11727
piirkonna	-11728
▁eksporti	-11729
▁register	-11730
▁teravalt	-11731
▁uurimist	-11732
komisjonil	-11733
ministrite	-11734
▁kuritarvi	-11735
▁kümmekond	-11736
▁maksimaal	-11737
▁toimetada	-11738
▁vajadusel	-11739
konverentsi	-11740
▁arvamusega	-11741
▁kaalutlust	-11742
▁kolmandast	-11743
▁maksuhaldu	-11744
▁tõlgendada	-11745
▁vastutavad	-11746
oloogiliselt	-11747
▁päästeameti	-11748
▁politseinike	-11749
▁probleemidele	-11750
▁tasandusfondi	-11751
▁vajaduspõhise	-11752
▁ministeeriumil	-11753
koja	-11754
veel	-11755
▁mal	-11756
deksi	-11757
piisa	-11758
tegel	-11759
▁lang	-11760
▁tüüp	-11761
▁vesi	-11762
musele	-11763
▁maiks	-11764
▁mured	-11765
▁rühma	-11766
▁sundl	-11767
ustuste	-11768
▁litsen	-11769
▁propag	-11770
▁taheta	-11771
▁valgev	-11772
▁väited	-11773
▁arvanud	-11774
▁hoolega	-11775
▁liitrit	-11776
▁võimude	-11777
▁käitumis	-11778
▁menetleb	-11779
▁märganud	-11780
▁tõstmist	-11781
▁teadlaste	-11782
▁visiidita	-11783
▁õppelaenu	-11784
▁erinevatel	-11785
▁kolmandate	-11786
▁konsensust	-11787
▁maakondade	-11788
▁projektide	-11789
▁märgatavalt	-11790
▁nendesamade	-11791
▁registreeri	-11792
▁valitsuselt	-11793
▁keerulisemaks	-11794
▁vajaduspõhine	-11795
▁demokraatlikus	-11796
tk	-11797
tegu	-11798
kalev	-11799
pooli	-11800
riike	-11801
ritel	-11802
▁haam	-11803
▁hull	-11804
▁kang	-11805
▁pind	-11806
astada	-11807
hetkel	-11808
ustati	-11809
▁2006.	-11810
▁andsin	-11811
▁häirib	-11812
▁keelde	-11813
▁kolled	-11814
▁resolu	-11815
▁samale	-11816
▁ületab	-11817
▁mitmete	-11818
materjali	-11819
▁kogemust	-11820
▁nõutakse	-11821
▁sõltuvad	-11822
▁vastutav	-11823
▁ringkonna	-11824
▁viiendaks	-11825
▁internetis	-11826
▁lahenduste	-11827
▁lapsevanem	-11828
▁liikmetelt	-11829
▁sõnastuses	-11830
▁teadmiseks	-11831
▁varjupaiga	-11832
▁üritatakse	-11833
▁iseseisvalt	-11834
▁poliitikast	-11835
▁põhiõiguste	-11836
▁funktsioonid	-11837
▁konkreetsele	-11838
eeru	-11839
ulah	-11840
▁auk	-11841
▁moo	-11842
avald	-11843
▁kaab	-11844
▁kuld	-11845
niiles	-11846
▁kunag	-11847
▁viipe	-11848
▁ametii	-11849
▁huvita	-11850
▁suruda	-11851
▁täides	-11852
▁demagoo	-11853
▁elukoha	-11854
▁huvisid	-11855
▁indekse	-11856
▁kombeks	-11857
▁koolist	-11858
▁kuuluma	-11859
▁telefon	-11860
▁väliste	-11861
▁ühekord	-11862
▁üksikas	-11863
ministrid	-11864
▁eeldused	-11865
▁erakondi	-11866
▁eraldise	-11867
▁finantsi	-11868
▁maagaasi	-11869
▁paindlik	-11870
▁puhkudel	-11871
▁ravimise	-11872
▁tuhanded	-11873
▁tõnisson	-11874
▁füüsilise	-11875
▁infotunni	-11876
▁langetati	-11877
▁pakkumise	-11878
▁rikkumine	-11879
▁seonduvad	-11880
▁mehhanismi	-11881
▁reaktsioon	-11882
▁sellistest	-11883
▁suudetakse	-11884
▁tegevusloa	-11885
▁tulenevaid	-11886
▁üldjoontes	-11887
▁teenistuses	-11888
▁regulaarselt	-11889
▁konkreetsemalt	-11890
▁karistusseadust	-11891
▁liikmesriikides	-11892
▁statistikaameti	-11893
haru	-11894
vool	-11895
ühma	-11896
▁lob	-11897
lauli	-11898
mades	-11899
▁4000	-11900
▁koka	-11901
▁mosk	-11902
helmen	-11903
▁ilmus	-11904
▁kumma	-11905
▁ääres	-11906
▁üpris	-11907
kapital	-11908
▁areneb	-11909
▁käidud	-11910
▁liialt	-11911
▁täpsed	-11912
▁analüüt	-11913
▁noortel	-11914
▁sellelt	-11915
▁õigusnõ	-11916
▁ametniku	-11917
▁elukutse	-11918
▁takistab	-11919
▁vaarmann	-11920
▁valikute	-11921
▁võidavad	-11922
▁ekspertii	-11923
▁kvartalis	-11924
▁liitlaste	-11925
▁projektid	-11926
▁ressursid	-11927
▁standardi	-11928
▁tendentsi	-11929
▁vabastada	-11930
▁väärtuste	-11931
▁efektiivsem	-11932
▁individuaal	-11933
▁kiirustades	-11934
▁rakendamist	-11935
▁vahenditega	-11936
▁inflatsiooni	-11937
▁sissetulekut	-11938
▁ajakirjanduse	-11939
▁ettevõtlusega	-11940
▁kontseptsioon	-11941
▁poliitilisest	-11942
gle	-11943
suu	-11944
leer	-11945
lepe	-11946
numb	-11947
ukku	-11948
▁14,	-11949
▁õud	-11950
kamad	-11951
sjagu	-11952
▁käiv	-11953
▁leebe	-11954
▁lõhku	-11955
▁sõrme	-11956
▁taand	-11957
▁võidu	-11958
aastalt	-11959
andjale	-11960
fondist	-11961
kohtade	-11962
▁adamsi	-11963
▁danske	-11964
▁faasis	-11965
▁repres	-11966
pidamise	-11967
▁julgust	-11968
▁kalapüü	-11969
▁leppima	-11970
▁omanike	-11971
▁oodanud	-11972
▁pöördus	-11973
▁suurele	-11974
▁vähemus	-11975
▁augustil	-11976
▁kolleege	-11977
▁pööranud	-11978
▁väärtust	-11979
▁asjaolude	-11980
▁meresõidu	-11981
▁parasjagu	-11982
▁põllumehi	-11983
▁vajadused	-11984
▁menetletud	-11985
▁pensionisa	-11986
▁tulenevate	-11987
▁ametiühingute	-11988
▁integratsiooni	-11989
moo	-11990
uto	-11991
▁oi	-11992
▁õhk	-11993
listi	-11994
oleva	-11995
selgi	-11996
▁loja	-11997
stavad	-11998
▁lisas	-11999
▁pange	-12000
vajadus	-12001
▁kanada	-12002
▁panite	-12003
▁samast	-12004
▁vägisi	-12005
▁ühiste	-12006
▁erandid	-12007
▁liidule	-12008
▁mõttetu	-12009
▁nestori	-12010
▁piisava	-12011
▁rõhutas	-12012
▁vastaks	-12013
▁kinnipee	-12014
▁kuupäeva	-12015
▁sõjaväel	-12016
▁tekkisid	-12017
▁käsitlevad	-12018
▁riikidesse	-12019
▁terrorismi	-12020
▁füüsiliselt	-12021
▁parlamendil	-12022
poliitiliselt	-12023
▁toimetulekut	-12024
▁tööturuteenuste	-12025
ees	-12026
iik	-12027
tõr	-12028
uge	-12029
delt	-12030
erul	-12031
isra	-12032
▁170	-12033
▁fir	-12034
harju	-12035
ideti	-12036
▁kius	-12037
▁kong	-12038
▁odav	-12039
järgul	-12040
▁avame	-12041
▁deleg	-12042
▁kärpi	-12043
▁toota	-12044
▁töölt	-12045
anduses	-12046
organid	-12047
▁esmalt	-12048
▁nähtus	-12049
▁soodus	-12050
▁tulete	-12051
tajatele	-12052
▁kontrol	-12053
▁kõrgelt	-12054
▁müüakse	-12055
▁tamkivi	-12056
▁dialoogi	-12057
▁teaduste	-12058
▁vajadusi	-12059
▁alustatud	-12060
▁mihkelson	-12061
▁odavamaks	-12062
▁turvaline	-12063
▁vastuargu	-12064
▁venemaale	-12065
▁määramisel	-12066
▁kuritegusid	-12067
▁lahendamata	-12068
▁seisukohaga	-12069
▁ettepanekust	-12070
▁likvideerida	-12071
▁ettevalmistust	-12072
▁rahvusvahelisi	-12073
uk	-12074
gar	-12075
ktri	-12076
küla	-12077
umus	-12078
▁1,2	-12079
▁gen	-12080
▁kiv	-12081
ettek	-12082
gmaat	-12083
itaar	-12084
parte	-12085
▁kert	-12086
▁oper	-12087
▁demon	-12088
▁harva	-12089
▁jäeti	-12090
▁pinna	-12091
atlandi	-12092
tegevus	-12093
ülikool	-12094
▁eksida	-12095
▁esmane	-12096
▁andsime	-12097
▁hektari	-12098
▁pehmelt	-12099
▁õiguses	-12100
aastaseks	-12101
▁ajalukku	-12102
▁kahtlusi	-12103
▁sõlminud	-12104
▁tehtavad	-12105
▁tootmine	-12106
▁koostanud	-12107
▁kuritegel	-12108
▁lubatakse	-12109
▁maailmasõ	-12110
▁määramise	-12111
▁rahastuse	-12112
▁tarbijale	-12113
▁jaanuariks	-12114
▁oktoobriks	-12115
▁väiksemaid	-12116
▁teistsugust	-12117
▁läbirääkimis	-12118
▁ettevalmistus	-12119
▁põhimõttelise	-12120
▁regulatsioone	-12121
▁riigigümnaasium	-12122
ald	-12123
arvu	-12124
erki	-12125
isal	-12126
riba	-12127
eeris	-12128
sotsi	-12129
▁lemm	-12130
▁ülle	-12131
▁ignor	-12132
▁kuuga	-12133
▁liiki	-12134
teerima	-12135
väärset	-12136
▁ammase	-12137
▁lõiget	-12138
▁mindud	-12139
enistuse	-12140
▁ajutise	-12141
▁hoidnud	-12142
▁keskust	-12143
▁ootused	-12144
▁sotside	-12145
kohustuse	-12146
▁erandite	-12147
▁esialgne	-12148
▁kaalunud	-12149
▁käsitles	-12150
▁lahkuvad	-12151
▁ravimeid	-12152
▁tublisti	-12153
▁aktiivsed	-12154
▁halduster	-12155
▁rekonstru	-12156
▁takistada	-12157
positsiooni	-12158
▁hooldekodu	-12159
▁keerulised	-12160
▁valijatele	-12161
poliitiliste	-12162
▁eestikeelse	-12163
▁vastupidist	-12164
▁võlakoormus	-12165
▁realiseerida	-12166
▁põhiseadusest	-12167
▁spetsialiseer	-12168
▁vanaduspension	-12169
red	-12170
vär	-12171
–202	-12172
▁dia	-12173
▁hiv	-12174
hulgas	-12175
seisev	-12176
▁drast	-12177
▁eerik	-12178
▁solva	-12179
eelarve	-12180
ikorral	-12181
▁algata	-12182
▁erandi	-12183
▁iraagi	-12184
▁meedet	-12185
▁numbri	-12186
▁tahtis	-12187
▁teerul	-12188
▁erandit	-12189
▁kuuluva	-12190
▁märkuse	-12191
▁pikemas	-12192
▁vahenda	-12193
▁vastuvä	-12194
▁veerand	-12195
▁kontekst	-12196
▁linnahal	-12197
▁lähtuvad	-12198
▁proovime	-12199
▁rahvaste	-12200
▁valminud	-12201
▁väikeses	-12202
ettepaneku	-12203
▁alaealise	-12204
▁kindlusta	-12205
▁kuulutada	-12206
▁laekumise	-12207
▁konsensuse	-12208
▁õiguslikku	-12209
▁kindlustada	-12210
▁positiivsed	-12211
kindlustusameti	-12212
ministeeriumilt	-12213
dru	-12214
ema	-12215
hen	-12216
äis	-12217
deri	-12218
▁192	-12219
essur	-12220
▁pilv	-12221
hedalt	-12222
viisil	-12223
▁seesu	-12224
▁sobil	-12225
▁super	-12226
▁usume	-12227
konnana	-12228
likumad	-12229
riigist	-12230
▁jalgra	-12231
▁lubate	-12232
▁masina	-12233
▁piirar	-12234
▁suitsu	-12235
▁julgelt	-12236
▁lahkuda	-12237
▁stimule	-12238
▁süvenda	-12239
▁tühjaks	-12240
▁ületada	-12241
partnerid	-12242
▁juhtkond	-12243
▁koondada	-12244
▁koosolek	-12245
▁mainisid	-12246
▁sarnased	-12247
▁vaidluse	-12248
▁välisesi	-12249
tingimused	-12250
▁igasugust	-12251
▁komponent	-12252
▁reisijate	-12253
▁riigikoht	-12254
▁väärtused	-12255
▁eraettevõt	-12256
▁komisjoniga	-12257
▁optimistlik	-12258
▁politseinik	-12259
▁tutvustasid	-12260
▁vähendamist	-12261
▁elementaarne	-12262
▁matusetoetuse	-12263
rini	-12264
▁ber	-12265
▁leg	-12266
ingus	-12267
semat	-12268
sside	-12269
tiive	-12270
võtja	-12271
▁asus	-12272
▁kirg	-12273
▁lahk	-12274
▁loov	-12275
▁süüa	-12276
▁test	-12277
▁tuul	-12278
matuks	-12279
otsuse	-12280
päevad	-12281
▁jagan	-12282
▁luban	-12283
▁palku	-12284
▁polit	-12285
▁rõõms	-12286
▁trahv	-12287
▁tulge	-12288
▁faktid	-12289
▁metsas	-12290
▁nähtav	-12291
▁paikne	-12292
▁saabub	-12293
▁saarte	-12294
▁saasta	-12295
▁sammas	-12296
pidamine	-12297
▁autosid	-12298
▁kontakt	-12299
▁peakski	-12300
▁sarnast	-12301
▁tegevvä	-12302
▁minimaal	-12303
▁osapooli	-12304
▁teenitud	-12305
▁tootjate	-12306
▁ütlemata	-12307
▁arutamise	-12308
▁kavatseme	-12309
▁lõpetades	-12310
▁rahvaalga	-12311
▁sisulised	-12312
▁hääletanud	-12313
▁lähtutakse	-12314
▁arvatavasti	-12315
▁täiendavate	-12316
▁ühiskondlik	-12317
▁arendustegev	-12318
▁erakorraline	-12319
▁kutsehariduse	-12320
▁läbivaatamist	-12321
▁maksukoormuse	-12322
▁vajaduspõhist	-12323
▁elektrienergia	-12324
▁raamatupidamise	-12325
oa	-12326
fil	-12327
▁99	-12328
ksus	-12329
taeg	-12330
ööki	-12331
▁130	-12332
▁tii	-12333
▁õli	-12334
adega	-12335
kujun	-12336
kusse	-12337
▁000-	-12338
niline	-12339
vaatne	-12340
▁heast	-12341
▁looda	-12342
▁loomi	-12343
▁luiga	-12344
▁tõlki	-12345
▁õigla	-12346
▁kohtud	-12347
▁legaal	-12348
▁mootor	-12349
▁pileti	-12350
▁tunnis	-12351
▁vigade	-12352
vastanud	-12353
▁jääksid	-12354
▁kasutas	-12355
▁küsimär	-12356
▁pikhofi	-12357
▁repliik	-12358
▁võimule	-12359
▁üldises	-12360
reguleeri	-12361
▁arengule	-12362
▁lihtsama	-12363
▁silmakir	-12364
▁tagamise	-12365
▁usaldada	-12366
▁administr	-12367
▁alammäära	-12368
▁maksutulu	-12369
▁märkisite	-12370
▁regioonis	-12371
▁tegevväel	-12372
▁vastamist	-12373
▁ühisdekla	-12374
loomulikult	-12375
▁abieluvara	-12376
▁olukorrale	-12377
▁rahastatud	-12378
▁suurendama	-12379
▁tõstmiseks	-12380
▁töövõimega	-12381
▁üleandmine	-12382
▁stabiilsuse	-12383
▁struktuurse	-12384
▁teisipäeval	-12385
▁suurendamist	-12386
▁elluviimiseks	-12387
▁informeeritud	-12388
▁keskkonnamõju	-12389
▁täiskasvanute	-12390
▁vastutustunde	-12391
▁eelarvenõukogu	-12392
rbi	-12393
võõ	-12394
▁at	-12395
reag	-12396
risk	-12397
▁2,5	-12398
idust	-12399
käitu	-12400
vater	-12401
▁joon	-12402
▁kuku	-12403
metigi	-12404
▁eksin	-12405
▁karja	-12406
▁mullu	-12407
▁rongi	-12408
▁skept	-12409
▁tasud	-12410
▁teadv	-12411
▁täitu	-12412
▁inimar	-12413
▁kohuta	-12414
▁lauset	-12415
▁mainet	-12416
▁otsime	-12417
▁pealin	-12418
keskused	-12419
omanikud	-12420
▁lõppude	-12421
▁sõiduki	-12422
▁tehingu	-12423
▁toimida	-12424
▁töörühm	-12425
▁viitate	-12426
kohustusi	-12427
▁maininud	-12428
▁otsusele	-12429
▁piisavad	-12430
▁analüüsis	-12431
▁puudumine	-12432
▁seaduslik	-12433
▁hääletasid	-12434
▁töötatakse	-12435
▁tervishoidu	-12436
▁direktiiviga	-12437
▁kirjutatakse	-12438
▁täiskasvanud	-12439
▁aktsiisitõusu	-12440
▁kindlustunnet	-12441
▁linnavolikogu	-12442
▁majanduskriisi	-12443
kv	-12444
elus	-12445
teed	-12446
ööst	-12447
▁pes	-12448
▁vms	-12449
adist	-12450
▁peas	-12451
▁silm	-12452
haaval	-12453
▁kerki	-12454
▁klaas	-12455
▁patri	-12456
▁portu	-12457
▁sobiv	-12458
▁varal	-12459
poolsed	-12460
võrgust	-12461
▁loomin	-12462
▁tervet	-12463
koosolek	-12464
▁assotsi	-12465
▁detaile	-12466
▁joonist	-12467
▁jõulise	-12468
▁mõttest	-12469
▁edendada	-12470
▁jõustada	-12471
▁kogemuse	-12472
▁rahulole	-12473
▁teadmata	-12474
▁töötajat	-12475
▁uudiseid	-12476
▁väheneks	-12477
▁ühtepidi	-12478
▁esitasite	-12479
▁langetama	-12480
▁saaremaal	-12481
▁täpsustus	-12482
▁aruteludes	-12483
▁süüdistada	-12484
▁õigusriigi	-12485
▁kohtumistel	-12486
▁peadirektor	-12487
▁samasugused	-12488
▁sellessamas	-12489
▁peaministrik	-12490
▁sotsiaalsete	-12491
▁korraldamisel	-12492
▁halduskoormust	-12493
kter	-12494
pand	-12495
stes	-12496
▁18,	-12497
▁75%	-12498
▁bru	-12499
▁hom	-12500
▁när	-12501
▁vin	-12502
▁setu	-12503
▁kanti	-12504
▁kukub	-12505
▁ruttu	-12506
▁skand	-12507
▁mudeli	-12508
▁rüütli	-12509
meetmeid	-12510
sektoris	-12511
▁alustab	-12512
▁haritud	-12513
▁komando	-12514
▁likviid	-12515
▁pääseda	-12516
▁teadete	-12517
▁õiglase	-12518
▁ajaloost	-12519
▁innovaat	-12520
▁rahvater	-12521
▁selgitan	-12522
▁telefoni	-12523
▁tänaseni	-12524
▁ülevaata	-12525
▁kokkuhoiu	-12526
▁koolidele	-12527
▁protsesse	-12528
protseduuri	-12529
▁erinevused	-12530
▁inimarengu	-12531
▁subjektiiv	-12532
▁vanematele	-12533
▁vähenemise	-12534
▁erikomisjon	-12535
▁veebruariks	-12536
▁staabiohvitse	-12537
mee	-12538
▁3%	-12539
kümb	-12540
mbur	-12541
pilt	-12542
▁19,	-12543
rinud	-12544
▁20%-	-12545
▁kalu	-12546
▁kärb	-12547
▁port	-12548
▁reed	-12549
▁töid	-12550
mingud	-12551
▁ostab	-12552
▁kaduma	-12553
▁perele	-12554
▁töösse	-12555
▁veenda	-12556
▁ehitust	-12557
▁noorsoo	-12558
▁tehtaks	-12559
▁toimuva	-12560
▁üheksas	-12561
kondadele	-12562
▁ebapiisa	-12563
▁kaalutud	-12564
▁kantsler	-12565
▁langetab	-12566
▁otsusest	-12567
▁segamini	-12568
▁suhelnud	-12569
▁tänasest	-12570
▁muretsema	-12571
▁reformiga	-12572
▁sunniraha	-12573
▁kandideeri	-12574
▁kõrvaldada	-12575
▁küsimusena	-12576
▁lugemisega	-12577
▁seadustest	-12578
▁sealhulgas	-12579
▁kuritegevuse	-12580
▁moodustamise	-12581
▁sajaprotsend	-12582
▁immigratsiooni	-12583
nägi	-12584
▁0,1	-12585
▁3,5	-12586
▁kap	-12587
sisse	-12588
▁lage	-12589
regula	-12590
▁iisra	-12591
▁püsib	-12592
▁noviko	-12593
▁subsid	-12594
▁tuttav	-12595
▁vaates	-12596
riliselt	-12597
▁ometigi	-12598
▁võtmine	-12599
▁kokkuvõt	-12600
▁tõsilugu	-12601
partnerite	-12602
▁esindajat	-12603
▁hääletage	-12604
▁iseseisev	-12605
▁karistust	-12606
▁kontrollt	-12607
▁mõistetud	-12608
▁otsustame	-12609
▁põhilised	-12610
▁seonduvat	-12611
▁toetamist	-12612
raamatukogu	-12613
▁kompetents	-12614
▁panustavad	-12615
▁sinnapoole	-12616
▁väiksemate	-12617
▁funktsiooni	-12618
▁juhuslikult	-12619
▁planeerinud	-12620
▁põhjustatud	-12621
▁solidaarsus	-12622
▁põhiseaduslik	-12623
▁seaduseelnõusid	-12624
▁vanaduspensioni	-12625
ism	-12626
sum	-12627
fika	-12628
imen	-12629
nõue	-12630
euroo	-12631
oreid	-12632
▁koja	-12633
▁saht	-12634
▁valu	-12635
liidud	-12636
mistes	-12637
tiivne	-12638
vastus	-12639
▁bruto	-12640
▁karel	-12641
▁sikku	-12642
▁keskne	-12643
▁määrad	-12644
▁raadio	-12645
▁eriline	-12646
▁haamril	-12647
▁kaotame	-12648
▁kindlus	-12649
▁mängida	-12650
▁tooteid	-12651
▁vanuses	-12652
▁kliiniku	-12653
▁kohtulah	-12654
▁rahvusoo	-12655
▁toetasid	-12656
▁toiminud	-12657
▁väikseid	-12658
▁üksikute	-12659
▁elanikest	-12660
▁erakonnas	-12661
▁mõeldakse	-12662
▁osalemist	-12663
▁otsitakse	-12664
▁liibanonis	-12665
▁perearstid	-12666
▁suurendame	-12667
▁valmistume	-12668
▁veebruaris	-12669
▁väljaselgi	-12670
▁ettekujutus	-12671
▁ettevõtetel	-12672
▁kaitseväela	-12673
▁vastuvõetav	-12674
▁eelnimetatud	-12675
▁peadirektori	-12676
▁ühistransport	-12677
iet	-12678
hüüe	-12679
▁oda	-12680
aliit	-12681
kaart	-12682
kavas	-12683
▁süva	-12684
järvel	-12685
ktuaal	-12686
▁horva	-12687
▁korid	-12688
▁leidu	-12689
▁pettu	-12690
▁rahas	-12691
▁ebaloo	-12692
▁ennist	-12693
▁haakub	-12694
▁hannes	-12695
▁koolie	-12696
▁müügil	-12697
▁targad	-12698
keskuses	-12699
▁estonia	-12700
▁jälgima	-12701
▁kreekas	-12702
▁lootuse	-12703
▁rahvuse	-12704
▁raskusi	-12705
▁soovist	-12706
▁vabanda	-12707
▁üksuste	-12708
uuringute	-12709
▁arutelus	-12710
▁juristid	-12711
▁lubadused	-12712
▁täiskogus	-12713
▁haukanõmme	-12714
▁kokkukutsu	-12715
▁vähendatud	-12716
▁negatiivset	-12717
▁põhiküsimus	-12718
▁paindlikkust	-12719
▁siseministri	-12720
kindlustusmakse	-12721
▁valitsemisalas	-12722
▁vanemapensioni	-12723
ket	-12724
diga	-12725
just	-12726
▁900	-12727
▁lät	-12728
liini	-12729
riiki	-12730
▁aida	-12731
▁lepe	-12732
dusest	-12733
karist	-12734
tasite	-12735
tsepti	-12736
▁eluga	-12737
▁kütus	-12738
▁panka	-12739
▁tüdru	-12740
▁viska	-12741
aliseks	-12742
hooldus	-12743
▁ajanud	-12744
▁arhite	-12745
▁kerkis	-12746
▁kutsub	-12747
▁magist	-12748
▁talvel	-12749
▁targem	-12750
▁vedada	-12751
▁elering	-12752
▁hiiumaa	-12753
▁kujutab	-12754
▁lõikest	-12755
▁mälberg	-12756
▁märtsis	-12757
▁näitena	-12758
▁salasta	-12759
▁tagasta	-12760
▁tasuvus	-12761
▁väiksed	-12762
mehhanism	-12763
▁aprillis	-12764
▁kasutata	-12765
▁kuulutan	-12766
▁loobunud	-12767
▁rikkunud	-12768
▁skandina	-12769
▁usalduse	-12770
järgmisena	-12771
▁elanikuga	-12772
▁oodatakse	-12773
▁paigutada	-12774
▁sõjalisel	-12775
▁aruteludel	-12776
▁erakonnast	-12777
▁kaotatakse	-12778
▁mäletamist	-12779
▁sihtasutus	-12780
▁vastuseisu	-12781
▁volikogude	-12782
▁keeruliseks	-12783
▁nädalavahet	-12784
▁osapooltega	-12785
▁turvalisust	-12786
▁motiveeritud	-12787
▁põhimõtetest	-12788
▁võimalustest	-12789
▁emotsionaalne	-12790
▁riigiettevõtte	-12791
▁riigikantselei	-12792
▁registreerimise	-12793
3,	-12794
rein	-12795
ride	-12796
uumi	-12797
▁180	-12798
▁ara	-12799
▁voo	-12800
antud	-12801
asjad	-12802
ndada	-12803
sused	-12804
tunni	-12805
▁ansi	-12806
▁sein	-12807
▁takt	-12808
kolmas	-12809
▁laene	-12810
▁pakun	-12811
▁puude	-12812
▁põlve	-12813
▁tõlke	-12814
lastest	-12815
▁kurssi	-12816
▁lähete	-12817
▁neljal	-12818
▁teated	-12819
▁vallad	-12820
tavatest	-12821
▁kuulama	-12822
▁optimis	-12823
▁tootjad	-12824
▁tuleval	-12825
▁kalendri	-12826
▁manipule	-12827
▁mingitel	-12828
▁tihedalt	-12829
▁väljavii	-12830
▁õigusest	-12831
▁hakkaksid	-12832
▁kohtumisi	-12833
▁käitumise	-12834
▁pankrotti	-12835
▁tõeliselt	-12836
▁edaspidigi	-12837
▁hoolekande	-12838
▁indekseeri	-12839
▁liikmetega	-12840
▁praktilist	-12841
▁riigikeele	-12842
▁sealjuures	-12843
▁kokkuleppel	-12844
▁suurenemine	-12845
▁abipolitsein	-12846
▁kavatsetakse	-12847
▁sotsiaalseid	-12848
▁rakendamisega	-12849
▁tasakaalustatud	-12850
ff	-12851
km	-12852
▁89	-12853
ines	-12854
kuts	-12855
kõrg	-12856
teie	-12857
kohus	-12858
psalu	-12859
pääse	-12860
riski	-12861
▁möön	-12862
▁seto	-12863
▁astub	-12864
▁fakte	-12865
▁hätta	-12866
▁malis	-12867
▁normi	-12868
▁omaga	-12869
▁osast	-12870
▁seaka	-12871
kandida	-12872
kretäri	-12873
printsi	-12874
▁kingit	-12875
▁kuulan	-12876
▁lõpust	-12877
▁nõudma	-12878
▁päästa	-12879
▁vaatle	-12880
▁valiti	-12881
aastaste	-12882
▁arengud	-12883
▁juhtuks	-12884
▁kalkula	-12885
▁kõigele	-12886
▁laieneb	-12887
▁lapsest	-12888
▁mitmest	-12889
▁pedagoo	-12890
▁puhkuse	-12891
▁rääkige	-12892
▁tänaste	-12893
hariduses	-12894
juhtimise	-12895
▁alustama	-12896
▁edastada	-12897
▁euroopat	-12898
▁haapsalu	-12899
▁järgmisi	-12900
▁küsijale	-12901
▁nimetama	-12902
▁toodangu	-12903
▁tähtajad	-12904
▁hiljaaegu	-12905
▁kokkuvõte	-12906
▁millegagi	-12907
▁arusaamine	-12908
▁negatiivse	-12909
▁pensionäre	-12910
▁praktilise	-12911
▁välisriigi	-12912
seaduseelnõu	-12913
▁skandinaavi	-12914
▁tunnustatud	-12915
▁kohalolijaks	-12916
▁rahvaerakond	-12917
▁tarbijakredi	-12918
▁lastevanemate	-12919
▁maavalitsused	-12920
vile	-12921
▁mat	-12922
esite	-12923
▁alat	-12924
▁kast	-12925
▁kole	-12926
istama	-12927
utavad	-12928
▁karta	-12929
▁naist	-12930
▁pudel	-12931
▁riina	-12932
eloomul	-12933
esiteks	-12934
firmade	-12935
väärsed	-12936
▁indika	-12937
▁jõgeva	-12938
▁õigeid	-12939
kindlalt	-12940
▁jookseb	-12941
▁keelest	-12942
▁psühhia	-12943
▁suhtlus	-12944
▁teavita	-12945
▁tugineb	-12946
▁vaesust	-12947
▁enamikul	-12948
▁esitades	-12949
▁mõttekas	-12950
▁otsekohe	-12951
▁punktiga	-12952
▁südamest	-12953
▁vaheline	-12954
▁visiooni	-12955
▁arutatava	-12956
▁esitamine	-12957
▁keelekümb	-12958
▁soomlased	-12959
▁korralikku	-12960
▁maksmiseks	-12961
▁paralleeli	-12962
▁partnerite	-12963
▁ehitamiseks	-12964
▁energeetika	-12965
▁esmatasandi	-12966
▁kiireloomul	-12967
▁lastevanema	-12968
▁tagasilükka	-12969
▁visiiditasu	-12970
▁lapsevanemad	-12971
▁pensionifond	-12972
▁seisukohtadega	-12973
▁siseturvalisuse	-12974
4,	-12975
rin	-12976
▁dü	-12977
▁vo	-12978
kule	-12979
ikese	-12980
lisse	-12981
ndust	-12982
▁krem	-12983
▁laar	-12984
▁reit	-12985
▁tõel	-12986
▁hindu	-12987
▁märgi	-12988
▁märts	-12989
▁posti	-12990
▁strea	-12991
▁ajakoh	-12992
▁efekti	-12993
▁fookus	-12994
▁organi	-12995
▁jalgpal	-12996
▁määrust	-12997
▁nüansse	-12998
▁palusin	-12999
▁passiiv	-13000
▁summade	-13001
▁teisigi	-13002
▁vanasti	-13003
▁energias	-13004
▁kaetakse	-13005
▁kuulsite	-13006
▁asetäitja	-13007
▁parvlaeva	-13008
▁tulevaste	-13009
▁täpsusega	-13010
▁vaidluste	-13011
▁suuremates	-13012
▁erasektoris	-13013
▁vastamiseks	-13014
▁olemasolevat	-13015
▁lapsetoetuste	-13016
▁prioriteediks	-13017
pär	-13018
tõl	-13019
▁ik	-13020
sula	-13021
idire	-13022
▁maga	-13023
▁toru	-13024
▁urbo	-13025
puudus	-13026
tervis	-13027
▁akker	-13028
▁grupi	-13029
▁omaks	-13030
▁sätet	-13031
▁kodust	-13032
▁rajale	-13033
▁sigade	-13034
▁teatri	-13035
istamine	-13036
teistküm	-13037
▁avaldab	-13038
▁hetkeks	-13039
▁jätkama	-13040
▁lõikele	-13041
▁sooviti	-13042
▁volitus	-13043
▁võiksin	-13044
▁ilmnenud	-13045
▁kuludest	-13046
▁kõnelema	-13047
▁pidasite	-13048
▁rohelise	-13049
▁sõjaline	-13050
▁tegeldud	-13051
▁toetudes	-13052
ustamisega	-13053
▁2014–2020	-13054
▁ennustada	-13055
▁käsutuses	-13056
▁lahkumise	-13057
▁leppisime	-13058
▁takistusi	-13059
▁tegelemine	-13060
▁ühtlustada	-13061
▁reageerimis	-13062
▁samasooliste	-13063
▁läbivaatamise	-13064
▁põhimõttelist	-13065
▁omavalitsusüks	-13066
6,	-13067
7%	-13068
toi	-13069
mehe	-13070
otsa	-13071
post	-13072
sada	-13073
sast	-13074
tset	-13075
▁0,8	-13076
▁bri	-13077
▁küt	-13078
▁tel	-13079
adusi	-13080
aegne	-13081
konoo	-13082
kujul	-13083
manni	-13084
paket	-13085
▁king	-13086
▁pree	-13087
▁sedel	-13088
▁tungi	-13089
▁tütar	-13090
▁vanas	-13091
▁aineid	-13092
▁ebatäp	-13093
▁isikul	-13094
▁loovad	-13095
▁eestiga	-13096
▁kandnud	-13097
▁kohtuda	-13098
▁leidsin	-13099
▁nendeks	-13100
▁nimetan	-13101
▁paremal	-13102
▁parimat	-13103
▁peatada	-13104
▁remonti	-13105
▁suurtes	-13106
▁veebile	-13107
▁viivita	-13108
▁vähesed	-13109
▁õiglust	-13110
▁üritame	-13111
▁arenguse	-13112
▁hektarit	-13113
▁jälitust	-13114
▁kaalutle	-13115
▁kiidetud	-13116
▁lisatasu	-13117
▁millesse	-13118
▁sajandil	-13119
▁üksmeele	-13120
koormusega	-13121
▁erinevusi	-13122
▁halvemaks	-13123
▁kohtuvaid	-13124
▁kulutatud	-13125
▁registris	-13126
▁retoorika	-13127
▁seltskond	-13128
▁ühendatud	-13129
▁ideoloogia	-13130
▁kandidaati	-13131
▁kvalifitse	-13132
▁tegevusele	-13133
▁tegutsenud	-13134
▁ülioluline	-13135
▁allakirjuta	-13136
▁keskkonnale	-13137
▁kolmandikku	-13138
▁kriteeriumi	-13139
▁peaministrit	-13140
▁riigivalitse	-13141
▁valmisolekut	-13142
▁sissejuhatuses	-13143
▁ebaseaduslikult	-13144
▁majutusasutuste	-13145
eva	-13146
▁õi	-13147
jaos	-13148
ltsa	-13149
naam	-13150
tunn	-13151
▁mkm	-13152
adele	-13153
arsti	-13154
idena	-13155
valge	-13156
▁hoog	-13157
▁usta	-13158
pidaja	-13159
▁ajend	-13160
▁jälit	-13161
▁kross	-13162
▁teave	-13163
▁tulev	-13164
▁ütled	-13165
▁firmad	-13166
▁meenub	-13167
▁pilvre	-13168
▁toimiv	-13169
▁tootja	-13170
hüvitise	-13171
▁intelle	-13172
▁lõpetas	-13173
▁oletame	-13174
▁saadame	-13175
▁saajate	-13176
▁selgeid	-13177
▁sulgeda	-13178
▁laaneots	-13179
▁lepingus	-13180
▁mõlemale	-13181
▁pädevuse	-13182
▁repliigi	-13183
▁selgitus	-13184
▁sündimus	-13185
▁väidavad	-13186
tegelikult	-13187
▁esindavad	-13188
▁katmiseks	-13189
▁kelleltki	-13190
▁riiklikud	-13191
▁tagajärge	-13192
▁viljandis	-13193
▁ajaloolise	-13194
▁erinevates	-13195
▁garanteeri	-13196
▁idapartner	-13197
▁korrastada	-13198
▁presidenti	-13199
▁järjekordne	-13200
▁selleteemal	-13201
▁valitsusega	-13202
▁tulumaksuvab	-13203
▁vastastikuse	-13204
▁istungisaalis	-13205
▁kaitseväelased	-13206
▁pensionifondide	-13207
sad	-13208
fekt	-13209
unne	-13210
uuta	-13211
▁197	-13212
▁bel	-13213
▁rum	-13214
▁õpi	-13215
▁üür	-13216
iivne	-13217
käigu	-13218
▁nõua	-13219
▁rkas	-13220
hannes	-13221
perspe	-13222
▁2003.	-13223
▁esina	-13224
▁kukku	-13225
▁monit	-13226
▁osalt	-13227
otsused	-13228
▁abinõu	-13229
▁madise	-13230
▁minult	-13231
▁saatus	-13232
▁sageda	-13233
▁sätete	-13234
▁venita	-13235
▁debatis	-13236
▁hinnast	-13237
▁laialda	-13238
▁mõeldav	-13239
▁portfel	-13240
ühendused	-13241
▁ajalehte	-13242
▁keskliit	-13243
▁kontsent	-13244
▁käesolev	-13245
▁loomisel	-13246
▁pagulasi	-13247
▁reaalsed	-13248
▁ehitamine	-13249
▁käsitlema	-13250
▁missuguse	-13251
▁missugust	-13252
▁rahastust	-13253
▁adekvaatne	-13254
▁põhjendusi	-13255
▁süsteemist	-13256
▁vähendanud	-13257
▁valdkonnast	-13258
▁eesmärkidest	-13259
▁haigekassale	-13260
▁kindlustunne	-13261
▁elektrooniline	-13262
▁ühistransporti	-13263
▁ratifitseerinud	-13264
6%	-13265
aud	-13266
idis	-13267
näge	-13268
▁rap	-13269
▁rii	-13270
muuse	-13271
▁eksp	-13272
▁näib	-13273
▁trum	-13274
▁vead	-13275
arenda	-13276
meline	-13277
▁harra	-13278
▁kande	-13279
▁kosov	-13280
▁satub	-13281
▁tunti	-13282
▁uhked	-13283
▁õnnit	-13284
▁aluste	-13285
▁jättes	-13286
▁keemia	-13287
▁kohtul	-13288
▁kõrgel	-13289
▁muudel	-13290
▁paketi	-13291
▁religi	-13292
▁tööaja	-13293
▁uurima	-13294
analüüsi	-13295
▁detsemb	-13296
▁lõpetab	-13297
▁seonduv	-13298
▁tahtsid	-13299
▁võtmata	-13300
▁ülejärg	-13301
▁aruannet	-13302
▁ennetust	-13303
▁kiirreag	-13304
▁loogikat	-13305
▁pealinna	-13306
▁väljasta	-13307
▁aprillist	-13308
▁juhtimist	-13309
▁kaugkütte	-13310
▁taotlenud	-13311
▁tasandile	-13312
registrisse	-13313
▁igapäevane	-13314
▁jahimeeste	-13315
▁järgmiselt	-13316
▁kaitsekulu	-13317
▁karistatud	-13318
▁printsiibi	-13319
▁sissesõidu	-13320
▁tubakatoode	-13321
▁olemasolevaid	-13322
▁põhimõttelisi	-13323
▁ravimiseaduse	-13324
▁efektiivsemalt	-13325
▁kõikvõimalikke	-13326
▁ministeeriumile	-13327
gik	-13328
isõ	-13329
▁87	-13330
elis	-13331
iera	-13332
jaam	-13333
lisa	-13334
samm	-13335
uloo	-13336
▁aid	-13337
edban	-13338
eurose	-13339
inõude	-13340
▁1999.	-13341
▁jätan	-13342
▁koori	-13343
▁luule	-13344
▁nuppu	-13345
▁tagat	-13346
▁vaimu	-13347
▁etapis	-13348
▁jagame	-13349
▁krimmi	-13350
▁kukkus	-13351
▁murest	-13352
▁normid	-13353
▁paneks	-13354
▁sisene	-13355
▁sunnib	-13356
meetmete	-13357
võimekus	-13358
▁fondide	-13359
▁isikust	-13360
▁kritise	-13361
▁kõigega	-13362
▁lahkuma	-13363
▁mudelit	-13364
▁nimetus	-13365
▁ohvitse	-13366
▁pilguga	-13367
▁raskust	-13368
▁üksjagu	-13369
▁arenguid	-13370
▁detailid	-13371
▁järeldus	-13372
▁kuulunud	-13373
▁reformid	-13374
ratsioonid	-13375
▁aruteluks	-13376
▁finantste	-13377
▁kehtivate	-13378
▁meelevald	-13379
▁prognoose	-13380
▁põlvkonna	-13381
▁sõlmimise	-13382
▁viimasest	-13383
▁ühendused	-13384
▁andmebaasi	-13385
▁järgmisele	-13386
▁ministriks	-13387
▁põhikoolis	-13388
▁inflatsioon	-13389
▁õigusaktide	-13390
▁protseduurid	-13391
▁maksustatakse	-13392
▁kodakondsuseta	-13393
bk	-13394
rise	-13395
õige	-13396
▁kik	-13397
▁lil	-13398
▁seg	-13399
forma	-13400
majad	-13401
nniku	-13402
▁kapo	-13403
▁külg	-13404
ktorid	-13405
▁haava	-13406
▁kaard	-13407
▁kajar	-13408
▁katus	-13409
▁monop	-13410
▁mugav	-13411
▁sõpra	-13412
▁uueks	-13413
▁valed	-13414
asutuse	-13415
▁konjun	-13416
▁konsta	-13417
▁ligile	-13418
▁lojaal	-13419
▁peitub	-13420
▁päevad	-13421
▁reedel	-13422
▁turult	-13423
▁vanade	-13424
▁viiend	-13425
▁õpilas	-13426
sioonist	-13427
▁lausega	-13428
▁maapõue	-13429
▁paremas	-13430
▁tööõnne	-13431
hüvitiste	-13432
▁jälgivad	-13433
▁kasutati	-13434
▁lõplikku	-13435
▁lõpptule	-13436
▁pööratud	-13437
▁raudteed	-13438
▁sekundit	-13439
▁sünnitus	-13440
▁üksikuid	-13441
positsioon	-13442
▁adressaad	-13443
▁advokaadi	-13444
▁andmekogu	-13445
▁ehitamise	-13446
▁huvitavad	-13447
▁kübarsepa	-13448
▁lahendame	-13449
▁millistes	-13450
▁oktoobris	-13451
▁otsustega	-13452
▁dokumendis	-13453
▁iseloomuga	-13454
▁likvideeri	-13455
▁meetmetega	-13456
▁riigimehel	-13457
▁soodustusi	-13458
▁kirjeldasin	-13459
▁maaülikooli	-13460
▁massiliselt	-13461
▁korteriühist	-13462
▁rakendamisel	-13463
▁omavalitsusest	-13464
aad	-13465
far	-13466
ibu	-13467
ühe	-13468
▁4%	-13469
▁88	-13470
▁jt	-13471
etud	-13472
lide	-13473
samu	-13474
umma	-13475
vatt	-13476
–200	-13477
▁15%	-13478
▁pbk	-13479
juhte	-13480
nikku	-13481
tiivi	-13482
udeks	-13483
ulisi	-13484
▁hanso	-13485
▁jõuga	-13486
▁kirik	-13487
▁seina	-13488
▁signa	-13489
▁terav	-13490
meetmed	-13491
olümpia	-13492
▁lahkub	-13493
▁laialt	-13494
▁maitse	-13495
▁mängib	-13496
▁peakor	-13497
▁räägid	-13498
▁silmad	-13499
▁vahetu	-13500
▁väärin	-13501
avalduse	-13502
osaliste	-13503
▁erisusi	-13504
▁häälega	-13505
▁mõistus	-13506
▁räägiks	-13507
▁viidata	-13508
▁õnnelik	-13509
probleeme	-13510
riikidega	-13511
▁ebamäära	-13512
▁hindamis	-13513
▁internet	-13514
▁kabineti	-13515
▁kannavad	-13516
▁kohtusin	-13517
▁sektorit	-13518
▁uuringut	-13519
▁kabinetis	-13520
▁rahaliste	-13521
▁reformide	-13522
▁sõnastuse	-13523
▁elatustase	-13524
▁niisugusel	-13525
▁ootamatult	-13526
▁osutatakse	-13527
▁programmid	-13528
▁rõhutasite	-13529
▁täitevvõim	-13530
ettekandjale	-13531
▁esindajatel	-13532
▁kohtumiseni	-13533
▁kompromisse	-13534
▁sotsiaalset	-13535
▁esindajatele	-13536
▁huvigruppide	-13537
▁konkurentsis	-13538
▁otsetoetuste	-13539
▁ebaõnnestunud	-13540
▁vabatahtlikud	-13541
▁väljatöötamise	-13542
▁ministeeriumist	-13543
▁riigiettevõtete	-13544
dia	-13545
rgi	-13546
▁tö	-13547
lina	-13548
▁etv	-13549
▁hob	-13550
nikke	-13551
▁ande	-13552
▁keha	-13553
▁peta	-13554
▁värv	-13555
▁2000.	-13556
▁ajama	-13557
▁jõhvi	-13558
▁kesta	-13559
▁kitsa	-13560
▁regle	-13561
▁retoo	-13562
▁täise	-13563
▁võita	-13564
▁edasta	-13565
▁lükati	-13566
▁põltsa	-13567
▁tõusma	-13568
▁klassis	-13569
▁merepää	-13570
▁mitmele	-13571
▁muudaks	-13572
▁olematu	-13573
▁osutama	-13574
▁reservi	-13575
▁väikela	-13576
ratsioone	-13577
▁hinnanud	-13578
▁isikutel	-13579
▁kantakse	-13580
▁kõrgemal	-13581
▁neidsamu	-13582
▁piiritle	-13583
▁taustaga	-13584
▁tootmist	-13585
▁tähtsaks	-13586
▁hariduses	-13587
▁kasutuses	-13588
▁normitehn	-13589
▁puudumise	-13590
▁teavitada	-13591
▁viimaseid	-13592
aliseeritud	-13593
▁arvamusele	-13594
▁haridusele	-13595
▁karuslooma	-13596
▁projektiga	-13597
▁tunnustust	-13598
▁välismaale	-13599
▁õpilastele	-13600
▁üleandmise	-13601
▁etteheiteid	-13602
▁kvaliteetne	-13603
▁represseeri	-13604
▁ajalooliselt	-13605
▁aseesimeeste	-13606
▁investeerima	-13607
▁suveräänsuse	-13608
▁elanikkonnast	-13609
nr	-13610
eas	-13611
võib	-13612
▁bil	-13613
itest	-13614
kasut	-13615
ktiga	-13616
samal	-13617
singi	-13618
stein	-13619
▁10–1	-13620
▁2007	-13621
▁igav	-13622
▁ilme	-13623
▁vanu	-13624
faasis	-13625
likest	-13626
meetme	-13627
▁abiga	-13628
▁hulgi	-13629
▁kuusi	-13630
▁paiga	-13631
mentide	-13632
venenud	-13633
▁ansipi	-13634
▁halvem	-13635
▁juunis	-13636
▁kolmes	-13637
▁saabki	-13638
▁diagnoo	-13639
▁dialoog	-13640
▁järgima	-13641
▁pidasid	-13642
▁päevaga	-13643
▁teeksid	-13644
▁tugevat	-13645
▁tunnete	-13646
▁ajagraaf	-13647
▁hoidmise	-13648
▁kindluse	-13649
▁maksutul	-13650
▁protesti	-13651
▁reeglist	-13652
▁teenistu	-13653
▁vanemaid	-13654
▁aastatega	-13655
▁europarla	-13656
▁kolmandas	-13657
▁tulemuste	-13658
▁absoluutne	-13659
▁alustuseks	-13660
▁autonoomia	-13661
▁elanikkond	-13662
▁omandamise	-13663
▁populaarne	-13664
▁agressiooni	-13665
▁kasvatamise	-13666
▁memorandumi	-13667
▁normaalselt	-13668
▁adekvaatselt	-13669
▁demokraatiat	-13670
▁ratsionaalne	-13671
▁teenusepakku	-13672
▁alkoholitarbi	-13673
▁deklaratsioon	-13674
▁efektiivsemaks	-13675
▁perekonnaseisu	-13676
▁korteriühistute	-13677
▁okupatsioonikah	-13678
▁sotsiaaltöötaja	-13679
▁väljatöötamisel	-13680
–5	-13681
ant	-13682
gast	-13683
pöör	-13684
sell	-13685
▁1%-	-13686
▁air	-13687
▁ale	-13688
▁pig	-13689
enuse	-13690
matki	-13691
omand	-13692
otsas	-13693
sseis	-13694
sutus	-13695
gudele	-13696
pandud	-13697
samast	-13698
sfääri	-13699
uliste	-13700
▁järve	-13701
▁kumba	-13702
▁kures	-13703
▁masin	-13704
▁peret	-13705
▁suhte	-13706
▁öösel	-13707
maksust	-13708
▁lemmik	-13709
▁mandri	-13710
▁osutus	-13711
▁ranits	-13712
▁tänava	-13713
gevusega	-13714
töötajad	-13715
▁hoonete	-13716
▁naabrid	-13717
▁nägemus	-13718
▁pealegi	-13719
▁sulling	-13720
▁vastati	-13721
tsiooniga	-13722
▁eleringi	-13723
▁hoopiski	-13724
▁kaitseli	-13725
▁madisoni	-13726
▁sõltuvus	-13727
▁tartusse	-13728
▁teadmise	-13729
▁tellitud	-13730
▁toodetud	-13731
▁tähtsama	-13732
▁ülemkogu	-13733
probleemid	-13734
▁finantstu	-13735
▁kõrgemate	-13736
▁millisele	-13737
▁puudutada	-13738
▁tagamisel	-13739
▁ülejäägis	-13740
▁ministreid	-13741
▁piirivalvu	-13742
▁sellistele	-13743
▁õpetatakse	-13744
▁asendatakse	-13745
▁erinevatest	-13746
▁haamrilööki	-13747
▁kandidaadid	-13748
▁kodulehekül	-13749
▁suurendanud	-13750
▁struktuurses	-13751
▁situatsioonis	-13752
▁fraktsioonikaas	-13753
4%	-13754
▁kö	-13755
itel	-13756
utas	-13757
ööda	-13758
▁17,	-13759
▁25,	-13760
▁nrf	-13761
▁sau	-13762
alane	-13763
hoole	-13764
laidi	-13765
▁2009	-13766
▁prog	-13767
▁vedu	-13768
▁võrk	-13769
heimar	-13770
ressil	-13771
strakt	-13772
▁haaku	-13773
▁jagab	-13774
▁juuli	-13775
▁kaela	-13776
▁seali	-13777
▁tekke	-13778
laenude	-13779
▁dünaam	-13780
▁igaühe	-13781
▁kardin	-13782
▁kuulen	-13783
▁lagune	-13784
▁pooles	-13785
▁psühho	-13786
▁pärand	-13787
▁temalt	-13788
▁astutud	-13789
▁austame	-13790
▁jookide	-13791
▁kogutoo	-13792
▁kontser	-13793
▁saalile	-13794
▁spekula	-13795
▁uuendus	-13796
▁populist	-13797
▁tekstist	-13798
▁asenduste	-13799
▁käsitleva	-13800
▁nõustamis	-13801
▁suurimaid	-13802
▁sõjapõgen	-13803
▁alandamine	-13804
▁täidetakse	-13805
▁väljasõidu	-13806
▁ettevaatlik	-13807
▁loogiliselt	-13808
▁sanktsiooni	-13809
▁tunnistanud	-13810
▁diskuteerida	-13811
▁kehtestamist	-13812
▁klassikalise	-13813
▁kokkukutsuja	-13814
▁partneritega	-13815
▁kaitsepolitse	-13816
▁maksumaksjale	-13817
▁kõrgharidusega	-13818
▁sellegipoolest	-13819
▁organisatsioone	-13820
▁uurimiskomisjon	-13821
ger	-13822
nim	-13823
jula	-13824
maar	-13825
maht	-13826
ssis	-13827
▁15-	-13828
müügi	-13829
sätte	-13830
äride	-13831
▁1500	-13832
▁kätt	-13833
▁tihu	-13834
▁tühi	-13835
astmes	-13836
gudega	-13837
kasuta	-13838
paketi	-13839
▁padar	-13840
▁rikub	-13841
▁soost	-13842
▁sügav	-13843
ikaalne	-13844
▁anneli	-13845
▁arhiiv	-13846
▁baseer	-13847
▁hoiaku	-13848
▁kavats	-13849
▁laseme	-13850
▁maksti	-13851
▁suhtub	-13852
▁sõtnik	-13853
▁üritab	-13854
organite	-13855
tavatele	-13856
▁debatte	-13857
▁eksperd	-13858
▁esimesi	-13859
▁eurosid	-13860
▁langeta	-13861
▁moodust	-13862
▁osaluse	-13863
▁pikamäe	-13864
▁ravimit	-13865
▁sõnumit	-13866
▁tagavad	-13867
▁toomast	-13868
▁tõusust	-13869
keskustes	-13870
toimetaja	-13871
▁abstrakt	-13872
▁andmisel	-13873
▁artiklit	-13874
▁hoidmine	-13875
▁idapiiri	-13876
▁kasutaja	-13877
▁muutmata	-13878
▁otsustes	-13879
▁saatmist	-13880
▁sellesis	-13881
▁ustavaks	-13882
programmis	-13883
▁lennundus	-13884
▁liitumise	-13885
▁loomisega	-13886
▁mingitest	-13887
▁pinginaab	-13888
▁prokuröri	-13889
▁põhjamaad	-13890
▁soodustab	-13891
▁taotluste	-13892
finantseeri	-13893
▁elektritur	-13894
▁kajastatud	-13895
▁katastroof	-13896
▁voodipäeva	-13897
▁välismaala	-13898
▁esmaspäevast	-13899
▁ettekandjana	-13900
▁korrigeerida	-13901
▁prantsusmaal	-13902
▁presidendile	-13903
▁rahvatervise	-13904
▁peaministrilt	-13905
musedpäevakorra	-13906
▁kohtumenetluse	-13907
gma	-13908
arto	-13909
enne	-13910
ikad	-13911
ndid	-13912
säte	-13913
▁140	-13914
joone	-13915
kolme	-13916
maati	-13917
maris	-13918
rünna	-13919
▁male	-13920
▁näit	-13921
alasid	-13922
bereid	-13923
naline	-13924
▁lõpul	-13925
▁osaüh	-13926
▁rapla	-13927
▁rummo	-13928
▁tarni	-13929
olekust	-13930
stabiil	-13931
vastast	-13932
▁kiirus	-13933
▁lõhest	-13934
▁oludes	-13935
▁sigare	-13936
▁summas	-13937
▁tõdema	-13938
▁uutele	-13939
▁versus	-13940
▁arutuse	-13941
▁demonst	-13942
▁kõnelda	-13943
▁luigase	-13944
▁pikkade	-13945
▁saaksin	-13946
easutuste	-13947
▁ametikoh	-13948
▁hüpoteet	-13949
▁koolieel	-13950
▁pidasime	-13951
▁pikemaks	-13952
▁pistmist	-13953
▁südamega	-13954
[...]
