<unk>	0
<s>	0
</s>	0
se	-0
st	-1
▁k	-2
le	-3
▁e	-4
▁o	-5
▁t	-6
▁m	-7
si	-8
al	-9
▁v	-10
in	-11
da	-12
▁p	-13
▁se	-14
ja	-15
ik	-16
te	-17
ta	-18
is	-19
▁a	-20
ud	-21
▁on	-22
ma	-23
ga	-24
el	-25
us	-26
▁te	-27
▁n	-28
it	-29
oo	-30
me	-31
an	-32
▁et	-33
id	-34
use	-35
▁s	-36
ks	-37
▁l	-38
ra	-39
ise	-40
ri	-41
▁ja	-42
ad	-43
ust	-44
ul	-45
▁ko	-46
▁ka	-47
ist	-48
en	-49
▁j	-50
ig	-51
ee	-52
ast	-53
il	-54
uu	-55
▁sel	-56
gu	-57
▁võ	-58
es	-59
ko	-60
▁ei	-61
est	-62
▁h	-63
un	-64
▁ü	-65
▁K	-66
▁ole	-67
▁si	-68
aa	-69
▁M	-70
▁ku	-71
va	-72
na	-73
äh	-74
gi	-75
mise	-76
▁selle	-77
tud	-78
ine	-79
▁"	-80
ii	-81
▁me	-82
▁E	-83
▁S	-84
ea	-85
ää	-86
ne	-87
▁või	-88
▁see	-89
▁ma	-90
▁ar	-91
em	-92
▁ol	-93
ku	-94
▁kui	-95
▁vä	-96
▁kü	-97
as	-98
ar	-99
de	-100
ti	-101
on	-102
tsi	-103
▁r	-104
ha	-105
▁ju	-106
▁A	-107
är	-108
tu	-109
▁R	-110
nud	-111
er	-112
▁ta	-113
vad	-114
mis	-115
la	-116
ol	-117
õu	-118
▁min	-119
▁T	-120
val	-121
lt	-122
ida	-123
▁siis	-124
▁eel	-125
▁küsi	-126
nd	-127
▁seda	-128
▁va	-129
▁ette	-130
ka	-131
ge	-132
▁ra	-133
esti	-134
uur	-135
uta	-136
▁pal	-137
▁tu	-138
öö	-139
oon	-140
▁kõ	-141
et	-142
▁P	-143
ki	-144
ro	-145
▁V	-146
ult	-147
ie	-148
ime	-149
▁tä	-150
▁pea	-151
iig	-152
▁saa	-153
ts	-154
jon	-155
▁esi	-156
▁in	-157
itäh	-158
▁sa	-159
▁oma	-160
ane	-161
▁küsim	-162
asta	-163
▁mis	-164
and	-165
its	-166
usta	-167
▁ri	-168
nõu	-169
▁koh	-170
ba	-171
▁al	-172
▁L	-173
lik	-174
im	-175
▁kas	-176
▁val	-177
iko	-178
kon	-179
▁mõ	-180
▁Ma	-181
misjon	-182
▁õ	-183
▁sead	-184
um	-185
kse	-186
!"	-187
tte	-188
▁mil	-189
▁N	-190
▁Riig	-191
▁tule	-192
▁la	-193
or	-194
tuse	-195
enda	-196
õh	-197
▁muu	-198
Aitäh	-199
ju	-200
▁väga	-201
ide	-202
tsioon	-203
igi	-204
▁Eesti	-205
pe	-206
▁eelnõu	-207
▁üh	-208
alt	-209
▁Riigiko	-210
eg	-211
▁töö	-212
▁to	-213
."	-214
▁aga	-215
kt	-216
tle	-217
sid	-218
▁tõ	-219
▁1	-220
pane	-221
di	-222
▁vast	-223
uste	-224
▁kes	-225
▁li	-226
alik	-227
▁nä	-228
min	-229
▁2	-230
▁See	-231
▁Riigikogu	-232
mine	-233
ur	-234
▁väl	-235
▁üle	-236
▁inime	-237
ita	-238
üü	-239
isi	-240
tse	-241
bi	-242
konna	-243
▁võim	-244
▁suur	-245
▁pro	-246
▁arv	-247
▁J	-248
ool	-249
▁mit	-250
▁H	-251
taja	-252
▁nii	-253
ema	-254
▁Ku	-255
mist	-256
▁kor	-257
▁kä	-258
nda	-259
▁seaduse	-260
mas	-261
kor	-262
▁põh	-263
▁mida	-264
võ	-265
ind	-266
▁oli	-267
▁kol	-268
minist	-269
ing	-270
▁lu	-271
sa	-272
iks	-273
uh	-274
eed	-275
▁palun	-276
end	-277
ite	-278
ele	-279
takse	-280
eeri	-281
ile	-282
▁rah	-283
used	-284
▁na	-285
▁aasta	-286
eel	-287
ut	-288
sta	-289
▁kon	-290
▁–	-291
ära	-292
▁õig	-293
▁sell	-294
hk	-295
▁ne	-296
ika	-297
itse	-298
äe	-299
usi	-300
selt	-301
▁f	-302
ke	-303
▁lõ	-304
▁Aga	-305
▁siin	-306
uud	-307
▁jär	-308
▁juh	-309
▁ots	-310
komisjon	-311
▁aru	-312
ikult	-313
▁mille	-314
▁as	-315
ak	-316
egu	-317
iselt	-318
▁Kui	-319
▁välja	-320
elle	-321
▁tea	-322
pa	-323
indl	-324
▁Me	-325
ende	-326
▁pra	-327
▁meie	-328
re	-329
▁minist	-330
▁kõik	-331
sed	-332
asti	-333
▁lä	-334
▁mitte	-335
▁le	-336
ll	-337
▁Kas	-338
ääle	-339
koh	-340
ve	-341
▁rää	-342
paneku	-343
▁need	-344
▁sõ	-345
▁vastu	-346
isu	-347
alun	-348
▁ütle	-349
▁esime	-350
inud	-351
ustatud	-352
gel	-353
iga	-354
▁täh	-355
▁loo	-356
▁taga	-357
▁20	-358
tada	-359
ub	-360
▁küsimus	-361
▁üks	-362
iit	-363
gem	-364
▁muuda	-365
tel	-366
?"	-367
▁olnud	-368
▁ettek	-369
aal	-370
ir	-371
▁koo	-372
▁juha	-373
▁liik	-374
▁nende	-375
▁oleks	-376
▁par	-377
▁läh	-378
▁väh	-379
▁I	-380
▁kus	-381
uroo	-382
isa	-383
itsuse	-384
sse	-385
pp	-386
▁teha	-387
▁ö	-388
▁Te	-389
▁soo	-390
▁jä	-391
vi	-392
jand	-393
▁öel	-394
idu	-395
jad	-396
ige	-397
▁ning	-398
▁kuida	-399
üüd	-400
ole	-401
he	-402
▁palju	-403
▁Euroo	-404
gup	-405
▁võib	-406
ia	-407
sin	-408
▁tege	-409
andja	-410
tus	-411
jal	-412
▁maks	-413
▁Va	-414
▁veel	-415
▁nagu	-416
▁vii	-417
ru	-418
äär	-419
▁neid	-420
▁kohta	-421
valt	-422
indlasti	-423
oole	-424
sime	-425
▁er	-426
gupee	-427
▁läbi	-428
▁an	-429
▁tuleb	-430
▁esita	-431
▁Palun	-432
▁kolle	-433
▁hea	-434
inn	-435
tsiooni	-436
eri	-437
tes	-438
iku	-439
▁eest	-440
▁pa	-441
▁riigi	-442
iste	-443
▁sellest	-444
▁riik	-445
misel	-446
▁tul	-447
gupeetud	-448
▁riig	-449
▁Euroopa	-450
▁teie	-451
anud	-452
▁juhataja	-453
▁puud	-454
▁O	-455
▁võimalik	-456
mi	-457
▁praegu	-458
ega	-459
kku	-460
▁hääle	-461
ohk	-462
li	-463
▁aast	-464
tusette	-465
▁kolleeg	-466
otsi	-467
▁liikme	-468
▁meil	-469
▁võt	-470
ohkem	-471
▁komisjon	-472
unud	-473
▁omaval	-474
▁juba	-475
uma	-476
iiv	-477
oliit	-478
iir	-479
ised	-480
panek	-481
▁ise	-482
eerium	-483
▁küsimuse	-484
▁võimal	-485
rak	-486
una	-487
▁osa	-488
miseks	-489
▁ettekandja	-490
ble	-491
▁tun	-492
äeva	-493
▁arva	-494
du	-495
▁tee	-496
▁Ja	-497
site	-498
▁kee	-499
▁Vaba	-500
▁Selle	-501
▁kuidas	-502
korra	-503
▁tegel	-504
▁kindlasti	-505
ene	-506
▁lah	-507
▁juur	-508
▁ül	-509
▁vaa	-510
▁raha	-511
▁nad	-512
ikka	-513
▁ära	-514
▁minister	-515
▁näite	-516
itsus	-517
otsiaal	-518
ingu	-519
▁selles	-520
▁jää	-521
hel	-522
ht	-523
▁frak	-524
rakonna	-525
uro	-526
minister	-527
▁inimest	-528
▁Min	-529
ead	-530
▁pan	-531
ude	-532
uv	-533
▁ees	-534
▁ke	-535
▁täna	-536
▁Eest	-537
▁proble	-538
sti	-539
▁sü	-540
uses	-541
rv	-542
▁muudatusette	-543
▁ikka	-544
komisjoni	-545
▁Ka	-546
▁euro	-547
mata	-548
▁õigus	-549
▁seisu	-550
▁os	-551
▁täi	-552
itud	-553
▁suu	-554
▁oleme	-555
riigi	-556
▁ain	-557
▁maa	-558
▁kokku	-559
▁saab	-560
▁vaja	-561
met	-562
▁olla	-563
▁peaks	-564
esta	-565
kond	-566
inna	-567
▁olul	-568
▁teema	-569
▁rohkem	-570
ni	-571
▁muut	-572
▁vaid	-573
jandus	-574
▁üld	-575
for	-576
ugupeetud	-577
at	-578
ärast	-579
▁hak	-580
▁re	-581
▁ist	-582
▁põhj	-583
▁arvan	-584
▁teh	-585
mm	-586
▁minu	-587
▁vasta	-588
▁201	-589
ree	-590
▁uu	-591
ärra	-592
võt	-593
▁juurde	-594
▁eda	-595
▁tagasi	-596
▁3	-597
▁Val	-598
▁kasuta	-599
▁puh	-600
▁mee	-601
üh	-602
▁aastal	-603
su	-604
▁Ko	-605
des	-606
usega	-607
▁just	-608
▁öelda	-609
▁en	-610
▁kir	-611
▁ühe	-612
▁aruta	-613
▁näiteks	-614
▁Li	-615
00	-616
vus	-617
ral	-618
▁Ü	-619
▁iga	-620
▁toim	-621
▁kogu	-622
▁pe	-623
▁Aitäh	-624
je	-625
nu	-626
dus	-627
andus	-628
sioon	-629
ib	-630
▁kuul	-631
▁tegelikult	-632
▁päeva	-633
▁Vabariigi	-634
▁nüüd	-635
▁Nii	-636
▁istun	-637
▁kesk	-638
▁puuduta	-639
▁olema	-640
▁and	-641
▁seisukoh	-642
▁Eestis	-643
▁asja	-644
▁hakka	-645
▁probleem	-646
elt	-647
▁küll	-648
tr	-649
▁lähe	-650
▁olen	-651
ule	-652
▁era	-653
jate	-654
▁teine	-655
▁ming	-656
adus	-657
▁täp	-658
▁seal	-659
▁sest	-660
▁teise	-661
▁ainult	-662
▁too	-663
▁alga	-664
ides	-665
▁peab	-666
äri	-667
▁el	-668
ttu	-669
▁mill	-670
mb	-671
▁Ra	-672
▁järg	-673
ike	-674
▁d	-675
▁ettepaneku	-676
▁toe	-677
▁hä	-678
▁lugem	-679
elnõu	-680
ista	-681
tatud	-682
▁nõ	-683
▁olu	-684
▁Sa	-685
ministeerium	-686
ooli	-687
▁aval	-688
oolt	-689
▁mu	-690
▁liig	-691
▁tas	-692
▁mul	-693
ksid	-694
rd	-695
▁jät	-696
▁taha	-697
hts	-698
▁kõige	-699
▁võiks	-700
▁il	-701
anda	-702
poole	-703
▁eelar	-704
ua	-705
stee	-706
▁5	-707
▁sellise	-708
lus	-709
▁võtta	-710
▁selline	-711
arid	-712
rite	-713
▁midagi	-714
nam	-715
ääki	-716
▁lugemine	-717
▁puhul	-718
endada	-719
kas	-720
▁""	-721
maks	-722
mär	-723
▁Kü	-724
dan	-725
▁men	-726
▁soov	-727
men	-728
aduse	-729
▁keh	-730
tiv	-731
vest	-732
▁Hea	-733
▁lihts	-734
trol	-735
▁suh	-736
▁olemas	-737
▁härra	-738
▁sellega	-739
▁Se	-740
▁ajal	-741
▁kohalik	-742
▁menet	-743
olla	-744
▁jõ	-745
rääki	-746
▁kelle	-747
▁arvesta	-748
usel	-749
▁teen	-750
▁Kes	-751
▁edasi	-752
▁omavalits	-753
▁per	-754
▁ettepanek	-755
ande	-756
net	-757
ril	-758
▁nim	-759
▁enam	-760
▁nime	-761
▁4	-762
▁seo	-763
oodi	-764
▁terv	-765
▁ha	-766
▁poliit	-767
▁kaas	-768
ttes	-769
all	-770
▁Lugupeetud	-771
sel	-772
konda	-773
▁sellele	-774
▁sotsiaal	-775
kord	-776
▁kolleegid	-777
▁teile	-778
ala	-779
▁esinda	-780
tab	-781
▁saal	-782
▁ega	-783
▁lõpe	-784
▁toet	-785
▁kah	-786
▁nõu	-787
kra	-788
▁lap	-789
▁Liidu	-790
▁valitsus	-791
tame	-792
nan	-793
▁majandus	-794
kõ	-795
vat	-796
▁ikkagi	-797
▁kinn	-798
▁miljon	-799
▁de	-800
vate	-801
▁last	-802
▁kul	-803
tav	-804
kir	-805
iin	-806
▁eurot	-807
▁küsimusi	-808
▁Kõ	-809
gus	-810
▁korral	-811
äära	-812
mad	-813
tust	-814
juta	-815
▁aja	-816
▁inimesed	-817
▁isi	-818
stu	-819
▁ehk	-820
▁pär	-821
kree	-822
▁valitsuse	-823
▁ala	-824
liku	-825
▁luge	-826
▁peale	-827
päri	-828
▁eesmär	-829
mus	-830
eer	-831
▁Austatud	-832
▁räägi	-833
▁joo	-834
▁läbirääki	-835
sem	-836
▁enne	-837
idi	-838
▁ho	-839
▁muutmise	-840
▁selleks	-841
mul	-842
usest	-843
▁seadus	-844
▁vah	-845
▁näe	-846
▁konkree	-847
▁rääk	-848
▁st	-849
kogu	-850
▁amet	-851
▁kõr	-852
tas	-853
▁poolt	-854
▁hal	-855
por	-856
ktiiv	-857
to	-858
ell	-859
▁piir	-860
▁vähem	-861
▁fraktsioon	-862
▁kuna	-863
mised	-864
▁lõpp	-865
▁põ	-866
dud	-867
▁pik	-868
▁mär	-869
▁koos	-870
nes	-871
▁miks	-872
enud	-873
▁arutel	-874
imõ	-875
misega	-876
▁puudutab	-877
gil	-878
tan	-879
▁üles	-880
▁teist	-881
les	-882
▁saada	-883
▁teki	-884
ensi	-885
▁Mis	-886
moodi	-887
▁eri	-888
kus	-889
ula	-890
ter	-891
▁pole	-892
useid	-893
▁Minu	-894
▁tek	-895
▁us	-896
ustada	-897
▁Võ	-898
▁huv	-899
▁erine	-900
""	-901
▁Re	-902
esi	-903
iti	-904
▁pii	-905
itsioon	-906
mulikult	-907
osi	-908
▁U	-909
mu	-910
endab	-911
likult	-912
▁võe	-913
▁komisjoni	-914
▁tema	-915
ension	-916
▁poole	-917
gra	-918
ini	-919
aar	-920
▁kaks	-921
▁kom	-922
▁koha	-923
▁lihtsalt	-924
ses	-925
uks	-926
poliit	-927
tele	-928
maa	-929
▁esimees	-930
elda	-931
▁ela	-932
▁pärast	-933
ade	-934
▁saanud	-935
rist	-936
pan	-937
mend	-938
▁tõesti	-939
▁6	-940
▁kontrol	-941
vik	-942
▁konkreetse	-943
▁Valitsuse	-944
▁üldse	-945
▁põhise	-946
▁arupäri	-947
▁kaasa	-948
▁kaitse	-949
▁käsi	-950
emo	-951
oor	-952
elikult	-953
▁ettevõt	-954
▁natu	-955
ilise	-956
▁protse	-957
nõ	-958
▁anna	-959
▁Mul	-960
▁päevakorra	-961
▁pida	-962
▁ühis	-963
res	-964
ih	-965
▁jooks	-966
pun	-967
▁enda	-968
▁jao	-969
▁mitme	-970
▁hul	-971
▁mõist	-972
ina	-973
▁kool	-974
test	-975
▁Ta	-976
Austatud	-977
misele	-978
uda	-979
ants	-980
▁vaada	-981
▁fraktsiooni	-982
ksi	-983
▁hästi	-984
▁olete	-985
jär	-986
▁päris	-987
▁lisa	-988
▁meel	-989
▁sisse	-990
▁Mar	-991
▁viima	-992
ood	-993
oleku	-994
kti	-995
form	-996
▁selge	-997
vaid	-998
tusele	-999
▁seisukoht	-1000
ang	-1001
vahel	-1002
misest	-1003
▁7	-1004
▁eesi	-1005
tub	-1006
▁asi	-1007
▁vald	-1008
▁Seda	-1009
uuri	-1010
sus	-1011
▁saalis	-1012
luse	-1013
jalik	-1014
vast	-1015
▁soovi	-1016
▁juhul	-1017
elar	-1018
▁nend	-1019
▁jõu	-1020
▁eesistu	-1021
mused	-1022
ustus	-1023
▁tehtud	-1024
▁esimene	-1025
▁sõna	-1026
ilt	-1027
▁rahandus	-1028
endi	-1029
▁tar	-1030
▁teada	-1031
▁miljonit	-1032
aas	-1033
▁tänu	-1034
hu	-1035
▁inimeste	-1036
ed	-1037
ppe	-1038
▁jooksul	-1039
iline	-1040
▁teinud	-1041
▁olid	-1042
▁tähele	-1043
konnas	-1044
tavad	-1045
emokra	-1046
kirja	-1047
pro	-1048
▁määra	-1049
▁korda	-1050
▁sis	-1051
mme	-1052
tõ	-1053
▁mõne	-1054
aridus	-1055
korda	-1056
▁Rah	-1057
▁Tä	-1058
misi	-1059
gen	-1060
han	-1061
umb	-1062
▁minut	-1063
iis	-1064
rit	-1065
tama	-1066
igus	-1067
testa	-1068
000	-1069
▁kau	-1070
▁aastat	-1071
ieelar	-1072
▁reg	-1073
▁anda	-1074
▁kiir	-1075
iv	-1076
▁muud	-1077
tiiv	-1078
▁kord	-1079
tis	-1080
▁põhimõ	-1081
▁nimel	-1082
▁var	-1083
▁seotud	-1084
▁tegele	-1085
▁keegi	-1086
alüü	-1087
alitsioon	-1088
▁aren	-1089
▁eesistuja	-1090
▁võr	-1091
▁Head	-1092
▁tead	-1093
▁tegem	-1094
set	-1095
nast	-1096
▁näh	-1097
▁vali	-1098
vas	-1099
▁rak	-1100
▁aega	-1101
▁käsitle	-1102
nn	-1103
▁sõl	-1104
ksa	-1105
▁oluline	-1106
▁pension	-1107
ho	-1108
▁ühte	-1109
ikud	-1110
isug	-1111
▁siiski	-1112
▁minutit	-1113
▁riigieelar	-1114
umaks	-1115
▁jaoks	-1116
tusi	-1117
kur	-1118
pärast	-1119
esse	-1120
▁invest	-1121
ste	-1122
▁õpe	-1123
▁otsuse	-1124
▁palj	-1125
▁mina	-1126
▁kri	-1127
ministeeriumi	-1128
▁ongi	-1129
ingi	-1130
▁mingi	-1131
gan	-1132
▁sellist	-1133
▁inimesi	-1134
▁teatud	-1135
▁hääletada	-1136
ume	-1137
▁Tall	-1138
ani	-1139
▁Keske	-1140
▁jõud	-1141
os	-1142
maal	-1143
▁korra	-1144
▁sä	-1145
▁sama	-1146
endus	-1147
▁hinn	-1148
iisa	-1149
poolest	-1150
ksime	-1151
uua	-1152
▁ak	-1153
▁aeg	-1154
▁eelarve	-1155
▁Sotsiaal	-1156
▁läheb	-1157
ustele	-1158
▁väik	-1159
gelt	-1160
▁kult	-1161
kuse	-1162
▁välis	-1163
▁kahe	-1164
ot	-1165
▁lõp	-1166
▁rahvus	-1167
uuda	-1168
▁all	-1169
ama	-1170
▁süstee	-1171
▁peaminister	-1172
▁algatatud	-1173
▁arvates	-1174
▁pla	-1175
▁täiesti	-1176
▁esitatud	-1177
▁lai	-1178
muti	-1179
▁istungi	-1180
meti	-1181
▁tähelepan	-1182
tega	-1183
▁meile	-1184
▁järgi	-1185
useks	-1186
pingu	-1187
kel	-1188
aasi	-1189
▁isegi	-1190
▁analüü	-1191
nna	-1192
▁mõttes	-1193
▁tegemist	-1194
▁mä	-1195
▁tal	-1196
▁kohtu	-1197
epoolest	-1198
oli	-1199
▁tuleks	-1200
▁sil	-1201
▁arutelu	-1202
▁eesmärk	-1203
▁–,	-1204
▁tunn	-1205
▁alla	-1206
▁parla	-1207
üstee	-1208
▁seaduseelnõu	-1209
▁leid	-1210
▁(	-1211
▁On	-1212
gia	-1213
▁ab	-1214
▁tegev	-1215
▁jul	-1216
▁tähendab	-1217
▁jäl	-1218
▁Na	-1219
kata	-1220
alda	-1221
▁nel	-1222
▁Need	-1223
tivkomisjoni	-1224
las	-1225
▁pak	-1226
stöö	-1227
▁menetle	-1228
▁lo	-1229
▁Tõ	-1230
▁b	-1231
▁lae	-1232
▁parem	-1233
▁kun	-1234
▁liiget	-1235
idas	-1236
▁sum	-1237
gune	-1238
▁küsimust	-1239
▁keel	-1240
▁jääb	-1241
▁võimalus	-1242
▁meele	-1243
naal	-1244
▁ilm	-1245
▁tõsi	-1246
▁Pra	-1247
must	-1248
▁palga	-1249
▁vahel	-1250
▁lugupeetud	-1251
▁rahva	-1252
▁kolm	-1253
▁ase	-1254
▁saavad	-1255
ab	-1256
idele	-1257
ange	-1258
▁koalitsioon	-1259
▁teiste	-1260
▁lis	-1261
▁Mina	-1262
▁oo	-1263
tanud	-1264
üm	-1265
▁kuidagi	-1266
▁õige	-1267
▁pool	-1268
▁tegu	-1269
▁elu	-1270
▁liikmed	-1271
▁Kuidas	-1272
▁ettevõ	-1273
ministri	-1274
▁siia	-1275
tee	-1276
igem	-1277
▁Tallinna	-1278
▁ve	-1279
tt	-1280
▁eelnõ	-1281
▁peame	-1282
▁päevakorrapun	-1283
▁omavalitsuse	-1284
▁8	-1285
▁tähelepanu	-1286
▁minna	-1287
▁täpselt	-1288
▁kuu	-1289
Ma	-1290
sest	-1291
▁inf	-1292
tsiisi	-1293
▁kõne	-1294
pidi	-1295
▁väär	-1296
▁esitanud	-1297
▁hoo	-1298
▁komisjonis	-1299
pealt	-1300
▁isik	-1301
tne	-1302
▁kirja	-1303
▁suuna	-1304
üsi	-1305
idega	-1306
▁kasva	-1307
poliitika	-1308
▁eh	-1309
▁suurema	-1310
▁rääki	-1311
tused	-1312
▁nr	-1313
▁eba	-1314
▁Nüüd	-1315
▁rääkida	-1316
▁mur	-1317
▁lapse	-1318
mat	-1319
ran	-1320
▁kõnet	-1321
eme	-1322
vaa	-1323
itu	-1324
▁Nagu	-1325
iseks	-1326
▁toh	-1327
▁tur	-1328
▁otse	-1329
päe	-1330
sen	-1331
▁natuke	-1332
▁sisul	-1333
▁vajalik	-1334
▁täis	-1335
▁inimene	-1336
▁pun	-1337
▁ele	-1338
▁koostöö	-1339
▁eks	-1340
▁kolma	-1341
▁austatud	-1342
sna	-1343
seid	-1344
▁loomulikult	-1345
Palun	-1346
▁di	-1347
usaa	-1348
▁Eelnõu	-1349
Hea	-1350
seks	-1351
▁tulevik	-1352
▁maksu	-1353
▁sinna	-1354
▁vab	-1355
ev	-1356
▁vähemalt	-1357
anne	-1358
▁otsust	-1359
▁mõju	-1360
5.	-1361
▁panna	-1362
▁Keskerakonna	-1363
▁vajad	-1364
▁andme	-1365
▁alati	-1366
tajate	-1367
▁ras	-1368
inda	-1369
▁teeb	-1370
▁abi	-1371
▁10	-1372
▁Komisjon	-1373
aste	-1374
▁B	-1375
▁otsusta	-1376
▁Tar	-1377
▁osale	-1378
ori	-1379
▁käib	-1380
▁kinnita	-1381
ustega	-1382
▁Juh	-1383
▁määr	-1384
▁Mil	-1385
▁And	-1386
▁ter	-1387
▁000	-1388
olitse	-1389
demokra	-1390
▁rea	-1391
teen	-1392
▁Loo	-1393
▁kuni	-1394
▁sellel	-1395
▁sise	-1396
usele	-1397
▁pöö	-1398
▁saaks	-1399
▁200	-1400
▁mo	-1401
idest	-1402
mal	-1403
▁Hel	-1404
▁keele	-1405
▁arengu	-1406
▁ava	-1407
▁van	-1408
▁ministeerium	-1409
▁Meie	-1410
▁tööd	-1411
▁g	-1412
emaks	-1413
▁täps	-1414
▁läbirääkimised	-1415
▁Ei	-1416
alu	-1417
▁põhimõtte	-1418
olu	-1419
kaitse	-1420
▁ümb	-1421
▁teil	-1422
▁posi	-1423
formie	-1424
gev	-1425
hal	-1426
sil	-1427
▁nõus	-1428
▁luba	-1429
▁põll	-1430
▁alkoh	-1431
ov	-1432
▁mõistlik	-1433
▁räägime	-1434
▁paljud	-1435
sug	-1436
▁arusaa	-1437
onaal	-1438
▁avalik	-1439
7.	-1440
▁piisa	-1441
▁põhiseadus	-1442
▁valmis	-1443
▁Al	-1444
▁kehti	-1445
▁Küsi	-1446
idugi	-1447
▁kodu	-1448
▁vaadata	-1449
▁Jü	-1450
▁pere	-1451
▁praeg	-1452
▁väike	-1453
▁kõnetooli	-1454
tme	-1455
▁kontroll	-1456
▁kõigi	-1457
▁eesti	-1458
▁tulene	-1459
▁tund	-1460
van	-1461
▁Vä	-1462
▁peavad	-1463
▁toetust	-1464
▁kirjuta	-1465
▁üsna	-1466
▁kuid	-1467
▁su	-1468
tule	-1469
utada	-1470
▁aut	-1471
▁kuj	-1472
▁Meil	-1473
▁isiku	-1474
▁esindaja	-1475
tõttu	-1476
▁millest	-1477
▁Lä	-1478
▁Reformie	-1479
pool	-1480
▁võrd	-1481
▁mak	-1482
▁näita	-1483
▁19	-1484
▁Teg	-1485
anema	-1486
ksin	-1487
▁mõtle	-1488
▁suure	-1489
fon	-1490
▁tekk	-1491
tuks	-1492
▁tegi	-1493
▁Siin	-1494
▁Soo	-1495
▁olukorra	-1496
Lugupeetud	-1497
▁Praegu	-1498
▁keskkonna	-1499
▁haridus	-1500
ades	-1501
▁rahvusvahel	-1502
lust	-1503
▁alg	-1504
riik	-1505
▁plaan	-1506
▁kell	-1507
▁täit	-1508
▁pigem	-1509
vä	-1510
▁võime	-1511
▁La	-1512
ima	-1513
▁kao	-1514
▁olukord	-1515
▁jah	-1516
▁saame	-1517
▁tegema	-1518
▁suuda	-1519
iliselt	-1520
▁u	-1521
▁vaba	-1522
▁piiri	-1523
▁oska	-1524
ssi	-1525
▁korralda	-1526
kust	-1527
▁otsus	-1528
▁ni	-1529
▁seadust	-1530
▁sele	-1531
6.	-1532
▁pr	-1533
sele	-1534
▁lii	-1535
udu	-1536
▁mulle	-1537
▁umb	-1538
erida	-1539
▁selgelt	-1540
▁saan	-1541
▁haldus	-1542
▁Aru	-1543
▁ütlesin	-1544
▁Kindlasti	-1545
▁kül	-1546
▁lõpetada	-1547
und	-1548
enema	-1549
▁võetud	-1550
▁rahasta	-1551
per	-1552
▁asjad	-1553
▁maail	-1554
▁kehtesta	-1555
▁juhtu	-1556
panekute	-1557
▁järele	-1558
▁tõepoolest	-1559
1.	-1560
ikku	-1561
semel	-1562
htu	-1563
▁hu	-1564
▁alusel	-1565
▁elekt	-1566
▁hinna	-1567
ktor	-1568
muse	-1569
▁päe	-1570
▁9	-1571
ääletust	-1572
▁tõttu	-1573
ment	-1574
▁para	-1575
kes	-1576
▁Miks	-1577
▁suurem	-1578
▁mõte	-1579
▁kahju	-1580
oll	-1581
uvad	-1582
iva	-1583
duvalt	-1584
▁kand	-1585
▁vahe	-1586
▁konkur	-1587
▁ettekande	-1588
alist	-1589
▁ümber	-1590
miste	-1591
▁täienda	-1592
▁rääg	-1593
▁lange	-1594
formi	-1595
ulemused	-1596
antsle	-1597
▁ütlen	-1598
lased	-1599
▁tõsta	-1600
▁head	-1601
▁lahend	-1602
▁kan	-1603
▁teid	-1604
▁investeer	-1605
▁erapoole	-1606
▁samuti	-1607
▁do	-1608
▁tut	-1609
duse	-1610
ame	-1611
rul	-1612
▁kohust	-1613
▁Samas	-1614
▁end	-1615
▁õpp	-1616
▁tähtaja	-1617
väär	-1618
▁eelarv	-1619
ali	-1620
ääletustulemused	-1621
3.	-1622
▁het	-1623
▁muuta	-1624
jaid	-1625
▁regist	-1626
▁mingisug	-1627
▁analüüsi	-1628
▁küsimusele	-1629
entsi	-1630
▁ig	-1631
hääle	-1632
▁Too	-1633
▁summa	-1634
son	-1635
▁lahenda	-1636
▁kohaselt	-1637
▁kindl	-1638
▁küsin	-1639
▁prakt	-1640
▁julge	-1641
▁öelnud	-1642
▁tulumaks	-1643
▁12	-1644
▁ütles	-1645
Suur	-1646
▁koht	-1647
▁Ette	-1648
▁Rahandus	-1649
▁neile	-1650
▁kasutada	-1651
▁tulevikus	-1652
▁tahan	-1653
▁hakkab	-1654
▁millega	-1655
▁huvita	-1656
utus	-1657
tamise	-1658
ilist	-1659
päeva	-1660
▁vee	-1661
pis	-1662
ganisa	-1663
▁Suur	-1664
▁parlamend	-1665
▁annab	-1666
▁jäänud	-1667
nik	-1668
▁liige	-1669
▁istung	-1670
▁hääletusele	-1671
▁viia	-1672
▁laste	-1673
▁mitu	-1674
▁lü	-1675
▁Üks	-1676
itsi	-1677
▁kulu	-1678
▁kokkule	-1679
likud	-1680
▁vale	-1681
▁op	-1682
▁Kol	-1683
▁kodan	-1684
▁teame	-1685
▁1.	-1686
emal	-1687
petsi	-1688
▁aita	-1689
▁maksta	-1690
Tä	-1691
kantsle	-1692
▁vol	-1693
▁näd	-1694
suse	-1695
▁Põh	-1696
▁püü	-1697
kul	-1698
ip	-1699
aka	-1700
4.	-1701
▁omavalitsuste	-1702
▁Ole	-1703
uudatusette	-1704
ven	-1705
▁muidugi	-1706
▁elan	-1707
angu	-1708
▁teeme	-1709
▁eriti	-1710
▁Ar	-1711
▁õp	-1712
▁igal	-1713
itakse	-1714
▁meelest	-1715
▁sõn	-1716
mo	-1717
alise	-1718
▁Riigikogus	-1719
toet	-1720
▁ilma	-1721
▁Võib	-1722
enä	-1723
▁istungil	-1724
musi	-1725
▁mingit	-1726
seaduse	-1727
▁tulnud	-1728
umi	-1729
▁Kõige	-1730
▁hil	-1731
resid	-1732
▁kunagi	-1733
▁umbes	-1734
▁Er	-1735
demokraat	-1736
▁samas	-1737
▁niimoodi	-1738
▁puu	-1739
▁eelkõ	-1740
▁pean	-1741
ent	-1742
erakonna	-1743
▁tutv	-1744
eerida	-1745
▁kõiki	-1746
▁loodan	-1747
iits	-1748
▁varem	-1749
▁Venema	-1750
▁valim	-1751
▁neil	-1752
hoi	-1753
▁tuua	-1754
▁lüh	-1755
taks	-1756
▁noor	-1757
▁tulla	-1758
▁In	-1759
isse	-1760
▁selgi	-1761
ber	-1762
kondade	-1763
▁tehakse	-1764
▁15	-1765
konn	-1766
mista	-1767
▁kasv	-1768
▁hinda	-1769
tsa	-1770
▁esitada	-1771
▁po	-1772
usa	-1773
▁Mill	-1774
▁täielikult	-1775
▁paranda	-1776
▁saav	-1777
võime	-1778
▁proua	-1779
kl	-1780
lan	-1781
▁tänan	-1782
▁alkoholi	-1783
▁usun	-1784
▁toime	-1785
▁järgmise	-1786
gas	-1787
vah	-1788
idel	-1789
põh	-1790
ikas	-1791
▁ilmselt	-1792
be	-1793
▁sees	-1794
▁möö	-1795
▁milline	-1796
8.	-1797
▁or	-1798
▁näha	-1799
õig	-1800
▁eral	-1801
▁mõtte	-1802
▁Andres	-1803
▁kolmanda	-1804
▁asju	-1805
▁keerul	-1806
oloo	-1807
tivkomisjon	-1808
▁hinnang	-1809
▁vara	-1810
eritud	-1811
▁liiga	-1812
▁konsen	-1813
oma	-1814
▁kuhu	-1815
▁vähe	-1816
▁sta	-1817
▁sisu	-1818
ümn	-1819
itus	-1820
▁küm	-1821
rakond	-1822
▁Esime	-1823
▁fin	-1824
▁tingi	-1825
▁ministri	-1826
▁toimub	-1827
▁main	-1828
▁kaudu	-1829
▁sul	-1830
▁võrr	-1831
▁juht	-1832
▁hoopis	-1833
ner	-1834
▁kooli	-1835
iik	-1836
▁majand	-1837
dakond	-1838
▁pakku	-1839
ikaitse	-1840
▁riigieelarve	-1841
▁samm	-1842
▁selliseid	-1843
▁kellel	-1844
▁rakenda	-1845
▁ehita	-1846
▁nelja	-1847
▁põhjalik	-1848
▁tuli	-1849
▁olulise	-1850
▁kar	-1851
▁kind	-1852
▁Lu	-1853
pal	-1854
▁arvestada	-1855
sema	-1856
▁nimelt	-1857
▁jne	-1858
▁nendest	-1859
matu	-1860
▁küsida	-1861
oet	-1862
▁jälle	-1863
▁jaga	-1864
▁toeta	-1865
▁Sell	-1866
nne	-1867
▁võtnud	-1868
▁inimese	-1869
▁paku	-1870
▁võik	-1871
sur	-1872
kava	-1873
▁kval	-1874
▁kolme	-1875
▁Põ	-1876
0.	-1877
aada	-1878
▁olukorda	-1879
koha	-1880
▁komp	-1881
▁probleemi	-1882
▁kohe	-1883
gn	-1884
▁inimestele	-1885
▁ütleb	-1886
▁tegevus	-1887
gl	-1888
▁kur	-1889
▁rõh	-1890
▁linna	-1891
▁tervis	-1892
▁kontrolli	-1893
dab	-1894
▁arvest	-1895
▁põhimõttel	-1896
▁positiiv	-1897
▁juhti	-1898
võim	-1899
ati	-1900
▁Kaitse	-1901
kene	-1902
▁kuts	-1903
ustame	-1904
adi	-1905
▁kohal	-1906
likku	-1907
ikomisjon	-1908
▁vähenda	-1909
▁esitamise	-1910
▁lep	-1911
▁Loomulikult	-1912
▁Kuna	-1913
▁Nä	-1914
eid	-1915
▁koosse	-1916
no	-1917
oove	-1918
▁vaatame	-1919
▁Kõik	-1920
raha	-1921
ikat	-1922
▁Ur	-1923
kki	-1924
rista	-1925
▁mood	-1926
▁meetme	-1927
inist	-1928
▁mõni	-1929
pordi	-1930
▁küsija	-1931
alle	-1932
ser	-1933
▁süsteem	-1934
gust	-1935
▁reaal	-1936
▁tõus	-1937
▁aktsiisi	-1938
jää	-1939
▁leidnud	-1940
▁millise	-1941
▁pidada	-1942
▁Tegelikult	-1943
▁raske	-1944
vald	-1945
tava	-1946
▁riigis	-1947
▁tervise	-1948
orite	-1949
▁jaan	-1950
▁eelnõuga	-1951
▁nõukogu	-1952
▁Reformierakonna	-1953
llu	-1954
Ko	-1955
egule	-1956
▁sai	-1957
emalt	-1958
tal	-1959
▁tööle	-1960
▁ütlesite	-1961
▁seis	-1962
▁Kesk	-1963
▁hakkama	-1964
▁tekib	-1965
▁kuigi	-1966
rid	-1967
eneb	-1968
▁mäle	-1969
▁tegutse	-1970
▁Juhtivkomisjoni	-1971
▁Pa	-1972
▁silmas	-1973
▁valimis	-1974
▁Jah	-1975
spe	-1976
▁eelkõige	-1977
tuses	-1978
▁tõenä	-1979
▁jätta	-1980
tavasti	-1981
kan	-1982
▁uue	-1983
umist	-1984
ümnaasi	-1985
dega	-1986
▁liit	-1987
panekut	-1988
▁huvi	-1989
▁Valitsus	-1990
▁omavalitsus	-1991
rukt	-1992
▁sisuliselt	-1993
adust	-1994
utust	-1995
▁tah	-1996
▁täiskogu	-1997
▁tähtajaks	-1998
▁Mart	-1999
mente	-2000
▁Soome	-2001
töö	-2002
▁peal	-2003
▁näeme	-2004
▁sellepärast	-2005
ten	-2006
▁Lõ	-2007
▁kümme	-2008
▁ap	-2009
tist	-2010
▁miin	-2011
vita	-2012
▁pane	-2013
▁läinud	-2014
▁lõpphääle	-2015
▁eraldi	-2016
iteks	-2017
▁uus	-2018
ingute	-2019
ktori	-2020
sete	-2021
▁läbirääkimisi	-2022
▁Jär	-2023
▁õiguskantsle	-2024
▁viis	-2025
▁jäi	-2026
nt	-2027
▁doku	-2028
umine	-2029
rah	-2030
▁arvu	-2031
▁tundub	-2032
▁Muudatusette	-2033
▁endale	-2034
▁proje	-2035
▁liikmete	-2036
usse	-2037
kä	-2038
Tänan	-2039
▁Venemaa	-2040
▁politse	-2041
ette	-2042
▁Teine	-2043
▁kujun	-2044
▁hakata	-2045
▁käigus	-2046
▁juttu	-2047
▁teadus	-2048
▁eelmise	-2049
▁kultuuri	-2050
▁uur	-2051
▁regule	-2052
▁põlluma	-2053
asi	-2054
▁ühel	-2055
▁jõudnud	-2056
▁kirjas	-2057
▁kõig	-2058
▁ennast	-2059
▁meelde	-2060
▁teemat	-2061
umis	-2062
▁kohaliku	-2063
dust	-2064
▁Rohkem	-2065
emad	-2066
▁kat	-2067
▁Näiteks	-2068
▁millised	-2069
▁kodakond	-2070
▁teisi	-2071
▁müü	-2072
▁seletus	-2073
▁kinni	-2074
vii	-2075
▁suhtes	-2076
▁alles	-2077
▁esimese	-2078
▁dis	-2079
sust	-2080
▁leida	-2081
▁teemal	-2082
▁kõrge	-2083
▁ühes	-2084
komisjonis	-2085
▁Mõ	-2086
oori	-2087
lev	-2088
▁nimeta	-2089
ss	-2090
▁pää	-2091
▁mõel	-2092
▁muude	-2093
▁võimalust	-2094
▁hü	-2095
▁koosta	-2096
korral	-2097
▁lähtu	-2098
▁mine	-2099
oone	-2100
unn	-2101
▁Täna	-2102
nesoove	-2103
gnoo	-2104
▁punkt	-2105
ris	-2106
umise	-2107
lu	-2108
▁tunne	-2109
▁paremini	-2110
ikon	-2111
▁järgmisel	-2112
▁kultuur	-2113
▁arvestamata	-2114
▁Kõigepealt	-2115
0%	-2116
▁mõn	-2117
emb	-2118
peal	-2119
▁sealt	-2120
▁õpetaja	-2121
▁so	-2122
▁nor	-2123
▁deba	-2124
▁juhtivkomisjon	-2125
▁lisaa	-2126
▁lepingu	-2127
pul	-2128
▁laen	-2129
▁rahul	-2130
▁keda	-2131
▁Pan	-2132
▁suurenda	-2133
vale	-2134
andust	-2135
▁jätku	-2136
▁mõjuta	-2137
▁auto	-2138
▁üksi	-2139
▁Üh	-2140
ül	-2141
▁tarbi	-2142
▁võivad	-2143
..	-2144
jest	-2145
gram	-2146
▁hetkel	-2147
▁hääleta	-2148
▁plan	-2149
▁sur	-2150
idus	-2151
▁osas	-2152
▁tasaka	-2153
riig	-2154
isugune	-2155
▁ühtegi	-2156
▁Kon	-2157
valve	-2158
▁tohi	-2159
▁Jüri	-2160
▁oleksid	-2161
▁id	-2162
▁peaksid	-2163
▁võimaluse	-2164
▁leia	-2165
▁infor	-2166
▁vastata	-2167
▁probleeme	-2168
▁arupärimise	-2169
rans	-2170
kassa	-2171
reformi	-2172
ganisatsioon	-2173
kk	-2174
▁töötu	-2175
▁küsimused	-2176
last	-2177
mp	-2178
▁teised	-2179
▁Teie	-2180
▁Helme	-2181
▁Kor	-2182
▁menetlus	-2183
menet	-2184
▁Mida	-2185
▁seoses	-2186
▁tehn	-2187
▁otsused	-2188
udel	-2189
▁päevakorrapunkt	-2190
▁jõust	-2191
▁ettevõtte	-2192
oot	-2193
▁natukene	-2194
▁An	-2195
▁kooskõ	-2196
▁lisaaega	-2197
▁juures	-2198
▁maha	-2199
▁käest	-2200
▁ettevõte	-2201
otle	-2202
mel	-2203
ktsioon	-2204
▁presid	-2205
fe	-2206
▁nendele	-2207
▁tervik	-2208
dada	-2209
▁antud	-2210
▁ettekandjale	-2211
▁puudub	-2212
▁erapooletu	-2213
maksu	-2214
dele	-2215
Head	-2216
▁esindajad	-2217
▁seaduste	-2218
esime	-2219
geid	-2220
▁sõltu	-2221
jatele	-2222
▁spetsi	-2223
▁seaduses	-2224
▁Mu	-2225
üsteemi	-2226
võrd	-2227
▁julgeoleku	-2228
▁mõned	-2229
▁otsi	-2230
▁riigikaitse	-2231
elu	-2232
fitse	-2233
pte	-2234
▁omavalitsused	-2235
isel	-2236
ikontrol	-2237
▁Erakonna	-2238
▁kohustus	-2239
▁aseesime	-2240
▁tunnista	-2241
eldes	-2242
▁öeldud	-2243
▁juhtivkomisjoni	-2244
▁ree	-2245
▁riikide	-2246
▁pä	-2247
▁põhjust	-2248
▁toot	-2249
▁sellised	-2250
mast	-2251
▁tulevad	-2252
▁õppe	-2253
rup	-2254
malt	-2255
▁ris	-2256
2.	-2257
▁Ida	-2258
loo	-2259
▁järel	-2260
▁millele	-2261
vasta	-2262
▁välj	-2263
▁vanema	-2264
demokraatliku	-2265
▁vahea	-2266
▁toetus	-2267
▁Just	-2268
▁hulgas	-2269
▁ettepanekut	-2270
▁uuri	-2271
▁taotle	-2272
▁toetada	-2273
oliselt	-2274
taht	-2275
õigus	-2276
▁Tule	-2277
▁lub	-2278
▁res	-2279
▁ülesanne	-2280
▁kümne	-2281
▁piisavalt	-2282
▁äär	-2283
▁kust	-2284
▁erakonna	-2285
▁Vabaerakonna	-2286
ikogu	-2287
▁etteval	-2288
9.	-2289
▁peaksime	-2290
võr	-2291
vit	-2292
▁Siis	-2293
▁Selles	-2294
▁kõigile	-2295
▁kava	-2296
▁konkurentsi	-2297
▁kusk	-2298
koor	-2299
▁muutu	-2300
▁lõpuks	-2301
▁osuta	-2302
▁kohalike	-2303
▁tulumaksu	-2304
del	-2305
▁liikmes	-2306
pida	-2307
kui	-2308
▁lõppenud	-2309
▁ä	-2310
▁töökoh	-2311
▁ula	-2312
endatud	-2313
▁põhjus	-2314
▁järje	-2315
20	-2316
▁käi	-2317
▁nov	-2318
▁sen	-2319
jale	-2320
lo	-2321
▁Eel	-2322
▁riigil	-2323
hail	-2324
eeter	-2325
minaal	-2326
dame	-2327
ihhail	-2328
gal	-2329
ivar	-2330
kesk	-2331
▁kättes	-2332
▁Küsimus	-2333
▁dire	-2334
▁tervishoi	-2335
▁oposi	-2336
▁luua	-2337
▁tuge	-2338
ikaas	-2339
▁jaanua	-2340
▁mind	-2341
▁piira	-2342
▁edas	-2343
ingud	-2344
▁pri	-2345
▁aus	-2346
juh	-2347
miselt	-2348
▁hinnangul	-2349
▁siit	-2350
▁Teiseks	-2351
ääl	-2352
▁harid	-2353
▁üht	-2354
▁tõst	-2355
kst	-2356
▁kvalite	-2357
▁kätte	-2358
▁Nad	-2359
▁osal	-2360
▁kuula	-2361
gul	-2362
gude	-2363
▁tööta	-2364
▁kii	-2365
▁küsimuses	-2366
ena	-2367
▁Avan	-2368
▁pealt	-2369
valv	-2370
osa	-2371
▁töökorra	-2372
Vir	-2373
▁sätesta	-2374
▁heaks	-2375
tuleku	-2376
▁asu	-2377
▁ühine	-2378
siteks	-2379
▁seletuskirja	-2380
ilised	-2381
üsteem	-2382
▁kahjuks	-2383
emist	-2384
▁käit	-2385
semalt	-2386
ustab	-2387
▁vastust	-2388
▁pand	-2389
▁süsteemi	-2390
▁võin	-2391
▁regi	-2392
▁ühiskonna	-2393
▁hool	-2394
▁regula	-2395
▁tulu	-2396
▁nädal	-2397
▁eralda	-2398
useaduse	-2399
▁detse	-2400
sis	-2401
▁Her	-2402
utuste	-2403
▁elektri	-2404
▁alates	-2405
▁erapooletuid	-2406
menta	-2407
▁vist	-2408
▁seetõttu	-2409
▁saad	-2410
gid	-2411
▁hääletas	-2412
▁Väga	-2413
▁rõhuta	-2414
ca	-2415
isest	-2416
▁hilj	-2417
▁100	-2418
▁Sellest	-2419
▁kättesaada	-2420
▁sellesse	-2421
ksite	-2422
▁suhtel	-2423
▁Liit	-2424
▁kiiresti	-2425
▁detsemb	-2426
▁otsuseid	-2427
▁ga	-2428
▁meid	-2429
▁lahendada	-2430
▁..	-2431
▁kaal	-2432
▁võimalusi	-2433
väe	-2434
▁vastuvõt	-2435
mmun	-2436
seme	-2437
▁uuesti	-2438
▁vastus	-2439
rgen	-2440
▁Seetõttu	-2441
▁Tea	-2442
▁panen	-2443
sama	-2444
▁protsed	-2445
▁Euroop	-2446
▁teevad	-2447
▁tahame	-2448
▁eksi	-2449
▁vene	-2450
▁oh	-2451
än	-2452
▁vaata	-2453
▁sünd	-2454
▁saama	-2455
0,	-2456
▁tih	-2457
▁Seega	-2458
▁hoida	-2459
▁Herkel	-2460
▁kanna	-2461
▁17.	-2462
▁kutse	-2463
▁suurt	-2464
▁novemb	-2465
mõ	-2466
▁kogem	-2467
tsin	-2468
päeval	-2469
aak	-2470
▁prognoo	-2471
ktoo	-2472
ratee	-2473
▁võrreldes	-2474
idata	-2475
▁Kuid	-2476
▁tagada	-2477
neb	-2478
▁kasu	-2479
vara	-2480
like	-2481
▁ker	-2482
▁tor	-2483
▁niisug	-2484
▁Esiteks	-2485
▁oluliselt	-2486
af	-2487
▁lugemisel	-2488
akt	-2489
kad	-2490
▁ühiskonnas	-2491
▁tehti	-2492
vis	-2493
▁Eks	-2494
▁Seal	-2495
▁tava	-2496
▁Esimene	-2497
▁rääkinud	-2498
▁riigieelarv	-2499
▁25	-2500
▁pee	-2501
▁avalda	-2502
▁justkui	-2503
▁olukorras	-2504
▁eelnõus	-2505
endeid	-2506
▁seon	-2507
%.	-2508
▁es	-2509
▁oktoo	-2510
▁lastea	-2511
▁Pea	-2512
▁nähtud	-2513
▁esimehe	-2514
.)	-2515
▁ülevaa	-2516
ratsioon	-2517
▁informa	-2518
▁vor	-2519
▁arutada	-2520
▁täpsusta	-2521
▁Tartu	-2522
▁Komisjoni	-2523
%-	-2524
▁sinu	-2525
▁ettepanekuid	-2526
▁ressur	-2527
▁sh	-2528
▁mad	-2529
▁loe	-2530
kondades	-2531
▁mingeid	-2532
▁Ligi	-2533
Viruma	-2534
ana	-2535
▁aastast	-2536
▁äri	-2537
▁kuus	-2538
▁Mulle	-2539
▁seisukohta	-2540
▁un	-2541
nane	-2542
▁Pal	-2543
▁kal	-2544
▁suhtu	-2545
▁aastatel	-2546
▁vi	-2547
bar	-2548
▁11	-2549
▁edaspidi	-2550
▁lugemise	-2551
▁haige	-2552
▁võimalikult	-2553
asse	-2554
▁Par	-2555
▁Stal	-2556
▁tean	-2557
▁karist	-2558
▁erinevad	-2559
▁gümnaasi	-2560
▁suunas	-2561
▁võtab	-2562
▁tekkinud	-2563
nuh	-2564
uväär	-2565
▁maailma	-2566
▁otsustas	-2567
▁töötaja	-2568
▁konte	-2569
▁liht	-2570
▁esimesel	-2571
keel	-2572
▁maja	-2573
▁mingil	-2574
gud	-2575
▁tähenda	-2576
kasv	-2577
▁saavuta	-2578
▁neli	-2579
▁andnud	-2580
▁vastuse	-2581
▁õigesti	-2582
▁tasemel	-2583
▁õnn	-2584
kindl	-2585
▁hiljem	-2586
.""	-2587
▁kolmas	-2588
nuhh	-2589
▁maksma	-2590
▁Stalnuhh	-2591
ruu	-2592
am	-2593
▁lisaks	-2594
▁palka	-2595
▁toodud	-2596
▁konkreetselt	-2597
▁juu	-2598
▁võit	-2599
▁võrra	-2600
▁Sõ	-2601
▁he	-2602
▁saaksid	-2603
▁riikides	-2604
▁laeku	-2605
▁kurite	-2606
▁loob	-2607
tuste	-2608
▁mõle	-2609
▁konsensus	-2610
saad	-2611
tselt	-2612
▁päde	-2613
▁määral	-2614
kunud	-2615
▁strukt	-2616
ulu	-2617
enesest	-2618
▁ülesande	-2619
▁inst	-2620
▁tasu	-2621
▁miljoni	-2622
▁Ol	-2623
▁õpil	-2624
inguid	-2625
tatakse	-2626
▁päevakorda	-2627
ises	-2628
▁nn	-2629
kee	-2630
▁demokra	-2631
ela	-2632
▁peaministri	-2633
▁toimunud	-2634
sõ	-2635
▁omavahel	-2636
▁ener	-2637
▁kõike	-2638
▁har	-2639
erimise	-2640
par	-2641
▁arutanud	-2642
aaegu	-2643
▁sellisel	-2644
eeritud	-2645
▁efe	-2646
ikatsioon	-2647
roon	-2648
▁14	-2649
ps	-2650
AT	-2651
▁abil	-2652
▁võetakse	-2653
▁ast	-2654
▁ütleme	-2655
grammi	-2656
▁mõelda	-2657
▁vajadus	-2658
▁miinim	-2659
▁tasand	-2660
▁vähendada	-2661
▁neist	-2662
▁määrata	-2663
konnad	-2664
▁muutunud	-2665
▁käibemaks	-2666
▁veeb	-2667
"".	-2668
▁tänase	-2669
▁tõenäoliselt	-2670
▁Kree	-2671
▁põhimõte	-2672
▁omavalitsust	-2673
Mar	-2674
klaa	-2675
▁Mihhail	-2676
iiri	-2677
▁Nende	-2678
kte	-2679
▁soovita	-2680
▁vabataht	-2681
▁riigile	-2682
tamine	-2683
tifitse	-2684
▁arvestatud	-2685
▁haka	-2686
▁tulenevalt	-2687
▁avaliku	-2688
harid	-2689
▁är	-2690
▁Vii	-2691
tur	-2692
▁ühist	-2693
▁kriisi	-2694
▁ametikaas	-2695
tusega	-2696
▁Aivar	-2697
▁kellele	-2698
▁Jürgen	-2699
eni	-2700
▁soovivad	-2701
vid	-2702
vatiiv	-2703
piir	-2704
▁toimus	-2705
panekuid	-2706
▁pidanud	-2707
▁õpetajate	-2708
▁Tu	-2709
▁teo	-2710
▁näeb	-2711
▁ettekandeks	-2712
pet	-2713
aktsiisi	-2714
meet	-2715
ATO	-2716
▁numb	-2717
▁talle	-2718
▁saali	-2719
▁peaaegu	-2720
▁suhteliselt	-2721
▁16	-2722
bje	-2723
istel	-2724
▁öeldes	-2725
▁lapsed	-2726
▁aseesimees	-2727
▁peri	-2728
▁NATO	-2729
▁haig	-2730
Kohal	-2731
▁aastate	-2732
▁korras	-2733
▁Maa	-2734
▁linn	-2735
▁viimase	-2736
pord	-2737
ilisi	-2738
lane	-2739
▁tihti	-2740
▁suuri	-2741
tor	-2742
▁põhimõtteliselt	-2743
ire	-2744
▁argu	-2745
pit	-2746
▁eksper	-2747
▁hinnangu	-2748
▁arutas	-2749
▁kaht	-2750
▁pöör	-2751
▁lihtne	-2752
▁veebru	-2753
luses	-2754
▁pul	-2755
▁1,	-2756
▁missioon	-2757
▁priorite	-2758
mises	-2759
uri	-2760
▁võiksid	-2761
endid	-2762
▁tõsiselt	-2763
▁seni	-2764
seis	-2765
▁alust	-2766
▁saata	-2767
▁keeles	-2768
▁13	-2769
▁samamoodi	-2770
aari	-2771
▁parema	-2772
▁suurendada	-2773
vab	-2774
ustuse	-2775
▁Sise	-2776
▁algataja	-2777
▁lahendus	-2778
▁aktiiv	-2779
▁au	-2780
▁Läti	-2781
▁pil	-2782
▁teate	-2783
▁info	-2784
▁lepp	-2785
▁küsimustele	-2786
jaks	-2787
▁oktoob	-2788
▁kõigepealt	-2789
▁aitäh	-2790
▁Sel	-2791
▁30	-2792
▁män	-2793
▁tõl	-2794
▁kulud	-2795
▁võtame	-2796
▁hulk	-2797
▁sega	-2798
adri	-2799
▁kriminaal	-2800
ralik	-2801
▁käes	-2802
▁kriit	-2803
▁kindel	-2804
▁Nar	-2805
samaa	-2806
▁põhik	-2807
▁riiki	-2808
▁eelarvest	-2809
▁mööda	-2810
RL	-2811
servatiiv	-2812
riid	-2813
▁naa	-2814
▁säil	-2815
Ku	-2816
uuril	-2817
nä	-2818
▁lõpetatud	-2819
gramm	-2820
▁Tarmo	-2821
▁kandida	-2822
▁aastas	-2823
▁praegune	-2824
▁poliitilise	-2825
meid	-2826
▁Urmas	-2827
▁suured	-2828
jev	-2829
▁kõnepul	-2830
▁paar	-2831
antse	-2832
▁asemel	-2833
▁kontekst	-2834
reer	-2835
▁Ern	-2836
▁IRL	-2837
iivi	-2838
▁Rein	-2839
▁laenu	-2840
▁finants	-2841
▁kütuse	-2842
▁keeruline	-2843
ski	-2844
▁valdkonnas	-2845
▁Majandus	-2846
▁kompen	-2847
▁vastuta	-2848
oni	-2849
▁terve	-2850
▁mõeldud	-2851
▁juhatuse	-2852
raal	-2853
▁lähevad	-2854
▁korduvalt	-2855
▁mure	-2856
▁justiits	-2857
▁nõue	-2858
ah	-2859
▁põhiseaduse	-2860
▁alguses	-2861
▁Vast	-2862
dava	-2863
▁näinud	-2864
▁tugev	-2865
▁organisatsioon	-2866
▁mõtet	-2867
▁ratifitse	-2868
jõu	-2869
med	-2870
▁jätka	-2871
▁diskus	-2872
lis	-2873
isaks	-2874
eerimis	-2875
▁elanik	-2876
alti	-2877
▁näitab	-2878
▁poliitika	-2879
▁Riigikontrol	-2880
▁palk	-2881
▁mõiste	-2882
ustamine	-2883
hed	-2884
▁edu	-2885
hus	-2886
Härra	-2887
▁vähen	-2888
ms	-2889
▁kuskil	-2890
▁rahvast	-2891
iliste	-2892
▁ellu	-2893
kka	-2894
▁rel	-2895
uga	-2896
▁ametikaaslased	-2897
eda	-2898
▁samal	-2899
kõik	-2900
imelt	-2901
▁infot	-2902
ver	-2903
▁Arupäri	-2904
▁statist	-2905
▁arenda	-2906
ustamise	-2907
▁tahe	-2908
▁pensioni	-2909
▁nõuko	-2910
▁pandud	-2911
tate	-2912
hn	-2913
▁kõrg	-2914
vuse	-2915
▁tähta	-2916
▁Keskkonna	-2917
▁Ha	-2918
▁taot	-2919
▁Tänan	-2920
riit	-2921
pära	-2922
▁nendes	-2923
▁Justiits	-2924
fondi	-2925
▁Järg	-2926
▁Nimelt	-2927
▁juhtum	-2928
pla	-2929
▁aastaid	-2930
▁Samuti	-2931
▁aastaks	-2932
▁kokkuleppe	-2933
kool	-2934
ikul	-2935
mia	-2936
▁sain	-2937
▁põhjal	-2938
▁Teile	-2939
▁lugeda	-2940
▁tahaks	-2941
▁Euroopas	-2942
ptemb	-2943
▁puutub	-2944
▁Sead	-2945
ustest	-2946
▁otseselt	-2947
sol	-2948
Poolt	-2949
▁efektiiv	-2950
▁seadusega	-2951
leri	-2952
▁Küll	-2953
▁maksumaks	-2954
dest	-2955
▁ameti	-2956
▁Ernits	-2957
▁Neid	-2958
▁Balti	-2959
▁muutub	-2960
▁ligi	-2961
▁millal	-2962
abi	-2963
likke	-2964
▁punkti	-2965
▁ti	-2966
amatu	-2967
▁Ukra	-2968
▁arvamust	-2969
udes	-2970
▁rav	-2971
▁avada	-2972
toko	-2973
▁ülik	-2974
▁kuulu	-2975
▁järjest	-2976
nikud	-2977
▁riigid	-2978
▁võimalused	-2979
▁ettevalmista	-2980
▁fraktsioonide	-2981
▁räägitud	-2982
▁eelmisel	-2983
tavate	-2984
tõus	-2985
kande	-2986
▁halv	-2987
▁kall	-2988
tsioone	-2989
▁juriid	-2990
▁septemb	-2991
▁valdkonna	-2992
▁diskussioon	-2993
rill	-2994
▁valitse	-2995
asu	-2996
ilis	-2997
tult	-2998
▁Sim	-2999
▁panga	-3000
▁moel	-3001
dav	-3002
juur	-3003
▁vari	-3004
sugune	-3005
▁vastab	-3006
ratsiooni	-3007
▁päev	-3008
▁nõude	-3009
▁Jaan	-3010
eeriumis	-3011
▁hakkavad	-3012
stun	-3013
▁muudatusi	-3014
jõ	-3015
mba	-3016
▁õiguse	-3017
▁lapsi	-3018
▁inimestel	-3019
▁aspe	-3020
▁teisel	-3021
▁meeldi	-3022
▁regionaal	-3023
▁järgmine	-3024
▁Isamaa	-3025
tamist	-3026
▁kommente	-3027
▁Ettepanek	-3028
▁Stalnuhhin	-3029
▁olgu	-3030
▁Kreeka	-3031
▁Simson	-3032
▁mainisi	-3033
ksu	-3034
ür	-3035
vaks	-3036
▁Alustame	-3037
tlemata	-3038
biil	-3039
mmunikatsioon	-3040
andi	-3041
▁tegelda	-3042
emine	-3043
äheme	-3044
▁sõlm	-3045
▁püüd	-3046
lap	-3047
vaba	-3048
vust	-3049
▁Selleks	-3050
male	-3051
viku	-3052
▁Tamm	-3053
▁Härra	-3054
▁protsessi	-3055
tnud	-3056
▁laiemalt	-3057
adid	-3058
jelda	-3059
▁selg	-3060
▁muudatused	-3061
▁kontekstis	-3062
dis	-3063
▁Nõu	-3064
tokoll	-3065
▁ülevaate	-3066
ndi	-3067
▁tug	-3068
▁lükata	-3069
▁Korb	-3070
itada	-3071
▁rahvasaad	-3072
pea	-3073
imine	-3074
▁jutt	-3075
▁huvides	-3076
▁põllume	-3077
▁võl	-3078
kesta	-3079
▁aprill	-3080
▁ministeeriumi	-3081
▁17	-3082
▁otsustada	-3083
▁vastavalt	-3084
▁märki	-3085
▁näide	-3086
▁tähtis	-3087
▁järelevalve	-3088
▁keelt	-3089
▁saate	-3090
%,	-3091
▁18	-3092
amet	-3093
▁Kah	-3094
este	-3095
▁põhi	-3096
▁tähts	-3097
likkuse	-3098
▁seadusena	-3099
▁haigekassa	-3100
▁kauge	-3101
▁oled	-3102
anduse	-3103
▁hind	-3104
uut	-3105
▁ki	-3106
▁Olen	-3107
▁muret	-3108
▁koosseisu	-3109
▁tra	-3110
▁arupärimine	-3111
▁pide	-3112
▁pikalt	-3113
▁ettekand	-3114
▁tasakaal	-3115
▁tüh	-3116
▁Lisaks	-3117
▁reegl	-3118
▁taval	-3119
do	-3120
aldus	-3121
▁kõrval	-3122
▁Eestisse	-3123
▁omavalitsustele	-3124
istus	-3125
udest	-3126
istada	-3127
▁tööandja	-3128
küsi	-3129
▁maailmas	-3130
▁jäävad	-3131
▁kavatse	-3132
misse	-3133
▁valla	-3134
▁makse	-3135
juures	-3136
▁Rahva	-3137
▁ettevõtlus	-3138
ulik	-3139
▁erinevaid	-3140
kri	-3141
▁taht	-3142
ots	-3143
▁üldiselt	-3144
▁50	-3145
▁maksa	-3146
▁roll	-3147
ituse	-3148
▁ükskõik	-3149
idesse	-3150
▁muudatus	-3151
lepingu	-3152
mentaar	-3153
▁im	-3154
pil	-3155
▁Han	-3156
▁2015.	-3157
unik	-3158
adis	-3159
tasu	-3160
Me	-3161
▁lahti	-3162
▁koostööd	-3163
aavi	-3164
▁tak	-3165
vajad	-3166
▁jälgi	-3167
▁hoia	-3168
▁Pro	-3169
▁märtsi	-3170
▁küsimuste	-3171
aasta	-3172
▁pöörd	-3173
tti	-3174
meer	-3175
▁võla	-3176
▁koosseis	-3177
▁nimetatud	-3178
▁Tõepoolest	-3179
▁soovitakse	-3180
▁pari	-3181
▁nendel	-3182
istuse	-3183
mistel	-3184
▁veelgi	-3185
▁ettepanekud	-3186
maid	-3187
▁obje	-3188
▁probleemid	-3189
▁Kadri	-3190
emini	-3191
▁süüd	-3192
aat	-3193
▁deta	-3194
▁kahj	-3195
▁kujul	-3196
▁reguleeri	-3197
dist	-3198
▁Peeter	-3199
▁vajab	-3200
▁16.	-3201
▁praeguse	-3202
▁toon	-3203
iminist	-3204
▁tohiks	-3205
if	-3206
mmas	-3207
pension	-3208
▁püsi	-3209
▁nendega	-3210
▁iseenesest	-3211
rat	-3212
ring	-3213
ear	-3214
liik	-3215
▁ooda	-3216
ikut	-3217
▁raame	-3218
▁199	-3219
▁vabandust	-3220
▁Os	-3221
star	-3222
▁arst	-3223
▁Vas	-3224
iseid	-3225
▁lahku	-3226
▁territ	-3227
ost	-3228
▁manda	-3229
▁tasuta	-3230
▁arvamus	-3231
▁arengukava	-3232
Te	-3233
▁Ju	-3234
lusi	-3235
▁läks	-3236
▁väide	-3237
▁registreer	-3238
oos	-3239
konnast	-3240
▁sõltub	-3241
barse	-3242
▁esine	-3243
▁puudu	-3244
makse	-3245
▁koalitsiooni	-3246
▁Pär	-3247
▁võtma	-3248
▁plaanis	-3249
▁põllumajandus	-3250
▁normaal	-3251
itsust	-3252
Jär	-3253
red	-3254
▁rahast	-3255
eet	-3256
birääki	-3257
▁tervishoiu	-3258
▁milleks	-3259
▁ülejää	-3260
▁juhatus	-3261
▁läheme	-3262
tentsi	-3263
kaal	-3264
võtte	-3265
mete	-3266
▁äkki	-3267
▁Rand	-3268
▁mitmeid	-3269
▁Oma	-3270
▁kait	-3271
ikomisjoni	-3272
õl	-3273
▁Rõ	-3274
▁antakse	-3275
▁paremaks	-3276
▁konkreetne	-3277
▁madala	-3278
▁kõikide	-3279
▁Vassil	-3280
▁suurus	-3281
▁põhjusel	-3282
▁sea	-3283
▁turu	-3284
▁uusi	-3285
ubandus	-3286
▁...	-3287
▁süü	-3288
▁jõua	-3289
▁valitsuses	-3290
▁õiguskantsler	-3291
▁ad	-3292
▁sood	-3293
▁sobi	-3294
▁ühele	-3295
var	-3296
liki	-3297
▁Jaak	-3298
▁aitab	-3299
▁Res	-3300
▁kodanik	-3301
rupp	-3302
▁vahet	-3303
terjal	-3304
▁veend	-3305
▁Minist	-3306
▁ulatuses	-3307
endite	-3308
▁reform	-3309
▁soovib	-3310
▁ütlema	-3311
protse	-3312
▁kõnepulti	-3313
üks	-3314
ndus	-3315
ikute	-3316
petan	-3317
▁parandada	-3318
▁Kül	-3319
itust	-3320
tudes	-3321
▁inim	-3322
susega	-3323
enduste	-3324
▁pakkuda	-3325
▁ope	-3326
▁minema	-3327
And	-3328
▁ühest	-3329
▁pöördu	-3330
▁tõuse	-3331
▁hir	-3332
▁lähen	-3333
grah	-3334
▁pikk	-3335
▁igasug	-3336
▁raames	-3337
Kui	-3338
▁mõnes	-3339
▁paind	-3340
▁tahab	-3341
▁nädala	-3342
▁institu	-3343
▁kõnesoove	-3344
▁kasvab	-3345
jalt	-3346
reid	-3347
kla	-3348
▁eelnõusid	-3349
▁tervikuna	-3350
▁Sest	-3351
▁Sven	-3352
▁poliitiline	-3353
▁lõpphääletusele	-3354
▁oht	-3355
▁parlamendi	-3356
niku	-3357
gevuse	-3358
▁nõust	-3359
janduse	-3360
panekud	-3361
▁teises	-3362
määra	-3363
▁seisukoha	-3364
atia	-3365
▁uud	-3366
teri	-3367
ere	-3368
▁no	-3369
▁asjade	-3370
▁meedi	-3371
menetluse	-3372
▁nemad	-3373
▁SK	-3374
istu	-3375
▁Tal	-3376
laste	-3377
▁teenuse	-3378
▁sada	-3379
▁teda	-3380
▁konven	-3381
▁Ül	-3382
▁isiklikult	-3383
▁Leed	-3384
▁Istun	-3385
▁Kübarse	-3386
▁võimalda	-3387
mid	-3388
▁pü	-3389
▁loodus	-3390
▁protokoll	-3391
olek	-3392
soluu	-3393
▁koor	-3394
ustama	-3395
▁Liidus	-3396
järg	-3397
▁Roo	-3398
▁idee	-3399
▁kirjelda	-3400
lasi	-3401
rina	-3402
▁sal	-3403
▁uut	-3404
▁näete	-3405
▁esimest	-3406
ikast	-3407
udega	-3408
▁Kalle	-3409
▁täita	-3410
▁pööra	-3411
▁kohtus	-3412
▁käinud	-3413
essi	-3414
graaf	-3415
▁Riigikohtu	-3416
See	-3417
▁2016.	-3418
nike	-3419
▁loog	-3420
▁muid	-3421
▁raud	-3422
uväärt	-3423
▁õigust	-3424
▁tegelema	-3425
▁Inime	-3426
▁võeti	-3427
eb	-3428
▁aidata	-3429
▁reklaa	-3430
▁ost	-3431
rä	-3432
rüh	-3433
ener	-3434
La	-3435
mendi	-3436
▁tekkis	-3437
▁kindla	-3438
iki	-3439
tik	-3440
▁tööjõu	-3441
▁Lauri	-3442
▁jääda	-3443
▁suures	-3444
▁andis	-3445
uminist	-3446
▁ühiskond	-3447
adu	-3448
pi	-3449
▁12.	-3450
▁valda	-3451
▁viimast	-3452
▁0,	-3453
▁vaatama	-3454
▁rõ	-3455
▁kujuta	-3456
▁väljas	-3457
▁ülemine	-3458
▁Kõnesoove	-3459
▁sotsi	-3460
▁erapooletuks	-3461
ubli	-3462
▁Lõpetan	-3463
▁kav	-3464
▁ainu	-3465
▁korrup	-3466
õpe	-3467
elik	-3468
gin	-3469
▁tegevust	-3470
▁partne	-3471
▁turval	-3472
hhan	-3473
istab	-3474
▁toetab	-3475
▁kuulnud	-3476
uline	-3477
▁vaheaega	-3478
▁regulatsioon	-3479
juks	-3480
teks	-3481
▁milja	-3482
▁maksab	-3483
▁prognoosi	-3484
▁suv	-3485
▁Kolm	-3486
▁detail	-3487
▁maksum	-3488
▁kaua	-3489
▁taas	-3490
▁tegevuse	-3491
võte	-3492
▁arvestades	-3493
▁vähene	-3494
meel	-3495
aline	-3496
▁hoid	-3497
▁tasandil	-3498
▁õiguskantsleri	-3499
▁paraku	-3500
▁teiseks	-3501
port	-3502
▁toob	-3503
▁arutatud	-3504
ping	-3505
▁aktsi	-3506
▁õnnest	-3507
▁kõrvale	-3508
tati	-3509
▁klas	-3510
▁töövõime	-3511
▁kodakondsuse	-3512
▁taasta	-3513
▁teemaga	-3514
peri	-3515
▁Ega	-3516
▁laua	-3517
▁arvate	-3518
▁struktuur	-3519
▁majanduskasv	-3520
▁siht	-3521
▁samasu	-3522
utud	-3523
▁tsi	-3524
bleem	-3525
rateegia	-3526
teenuste	-3527
tsionaal	-3528
▁tulemuse	-3529
mer	-3530
hhanis	-3531
▁rääkis	-3532
muste	-3533
▁Publi	-3534
▁perear	-3535
▁kohaloleku	-3536
▁praktika	-3537
▁mingisugust	-3538
ikeel	-3539
aliste	-3540
korras	-3541
▁informatsiooni	-3542
kül	-3543
egist	-3544
▁Publica	-3545
▁rääkima	-3546
fond	-3547
kandja	-3548
▁2013.	-3549
oloogia	-3550
▁põhjalikult	-3551
bel	-3552
õiv	-3553
▁mets	-3554
▁opositsioon	-3555
õiguse	-3556
▁2014.	-3557
▁seesama	-3558
ant	-3559
serv	-3560
▁osta	-3561
▁noorte	-3562
▁räägib	-3563
▁jäe	-3564
▁koolis	-3565
▁reformi	-3566
Rohkem	-3567
▁lausa	-3568
▁kompense	-3569
▁silma	-3570
▁Määr	-3571
▁erinev	-3572
jat	-3573
▁kil	-3574
▁Saar	-3575
▁Tallinnas	-3576
aloo	-3577
kiri	-3578
▁kõigil	-3579
▁miinimum	-3580
▁tü	-3581
etoet	-3582
▁prof	-3583
▁ausalt	-3584
õr	-3585
dala	-3586
▁viie	-3587
▁Priit	-3588
▁rikku	-3589
▁perspe	-3590
▁ema	-3591
▁andma	-3592
ääne	-3593
imist	-3594
ndaks	-3595
▁teenuste	-3596
SM	-3597
▁politsei	-3598
▁volikogu	-3599
▁vaes	-3600
▁vana	-3601
▁toetuse	-3602
▁veebrua	-3603
▁istungit	-3604
▁Või	-3605
▁sektor	-3606
▁väheneb	-3607
nni	-3608
▁noo	-3609
enduse	-3610
▁projekt	-3611
▁korralik	-3612
▁välti	-3613
mma	-3614
▁mõõ	-3615
levki	-3616
▁absoluu	-3617
▁ruu	-3618
Eesti	-3619
▁sõja	-3620
▁enamik	-3621
▁positiivne	-3622
maat	-3623
▁aud	-3624
aja	-3625
▁Martin	-3626
olli	-3627
▁teed	-3628
▁käsitlemise	-3629
▁milles	-3630
vadel	-3631
Riig	-3632
▁Iga	-3633
üvit	-3634
▁tegelik	-3635
▁mingisugune	-3636
▁protseduuril	-3637
▁fon	-3638
▁Taavi	-3639
▁väida	-3640
▁liikmesriik	-3641
muuda	-3642
▁selliste	-3643
▁Madis	-3644
▁Ees	-3645
▁räägin	-3646
▁erakond	-3647
enn	-3648
olitsei	-3649
hoid	-3650
▁Kal	-3651
▁üri	-3652
▁mitmed	-3653
mite	-3654
rekt	-3655
aajal	-3656
isele	-3657
▁raamatu	-3658
▁teisele	-3659
▁Konservatiiv	-3660
▁Mit	-3661
giline	-3662
▁mitmesug	-3663
idalt	-3664
viisi	-3665
endust	-3666
▁Rootsi	-3667
▁väiksem	-3668
▁nõud	-3669
teid	-3670
▁mere	-3671
▁selgu	-3672
▁mingid	-3673
riks	-3674
riigis	-3675
▁Panga	-3676
lda	-3677
▁taseme	-3678
gupeetav	-3679
pää	-3680
▁sol	-3681
allik	-3682
▁kaalu	-3683
up	-3684
semad	-3685
▁Haridus	-3686
▁otsustab	-3687
▁niisugune	-3688
stada	-3689
▁hakatakse	-3690
▁2,	-3691
▁Kübarsepp	-3692
▁metsa	-3693
▁täida	-3694
▁Määran	-3695
▁vastutust	-3696
▁laps	-3697
▁rõõ	-3698
▁võta	-3699
stus	-3700
tavalt	-3701
▁tekst	-3702
▁for	-3703
▁Veel	-3704
▁homm	-3705
▁kohalikud	-3706
▁kasutamise	-3707
▁spordi	-3708
Andres	-3709
▁protsess	-3710
▁spetsialist	-3711
edi	-3712
▁kuulda	-3713
eh	-3714
▁han	-3715
▁hääl	-3716
▁andmed	-3717
iseaduse	-3718
▁vahepeal	-3719
adusega	-3720
misväär	-3721
▁järgmised	-3722
▁ministrile	-3723
▁keela	-3724
▁tulemus	-3725
enti	-3726
oleva	-3727
juht	-3728
▁tähtsa	-3729
▁Kult	-3730
▁mujal	-3731
▁kavanda	-3732
▁alus	-3733
▁raja	-3734
▁andmeid	-3735
▁mõtlema	-3736
▁veidi	-3737
▁viita	-3738
▁mäletan	-3739
▁ühistrans	-3740
▁11.	-3741
▁sih	-3742
tusel	-3743
▁erakondade	-3744
tsid	-3745
▁igati	-3746
▁ütlevad	-3747
gatiiv	-3748
pid	-3749
▁Toomas	-3750
Küsi	-3751
▁Ammas	-3752
▁mõista	-3753
ania	-3754
▁staa	-3755
▁Narva	-3756
▁hinnata	-3757
▁kuud	-3758
▁lõpus	-3759
▁valiku	-3760
▁tahavad	-3761
lega	-3762
▁koosel	-3763
▁risk	-3764
▁negatiiv	-3765
etud	-3766
▁tegeleb	-3767
▁eelarves	-3768
▁lõh	-3769
▁põlevki	-3770
iim	-3771
dunud	-3772
itsme	-3773
▁inter	-3774
nele	-3775
▁haldusreformi	-3776
ull	-3777
vade	-3778
ikust	-3779
▁territoori	-3780
▁väit	-3781
pär	-3782
porti	-3783
▁juun	-3784
▁töönä	-3785
▁teenust	-3786
▁Il	-3787
rile	-3788
▁mees	-3789
▁alkohol	-3790
liit	-3791
▁tulema	-3792
ktsiooni	-3793
▁seonduvalt	-3794
taal	-3795
▁sõnast	-3796
▁kaheksa	-3797
▁piirangu	-3798
▁läb	-3799
▁kehtib	-3800
▁Töö	-3801
▁Urve	-3802
ktiivi	-3803
▁hulka	-3804
▁pannud	-3805
▁dokument	-3806
▁täpsemalt	-3807
▁Ehk	-3808
ör	-3809
▁Ise	-3810
▁paragrah	-3811
▁vahendeid	-3812
geni	-3813
guse	-3814
made	-3815
▁Para	-3816
▁Põhja	-3817
jatega	-3818
jo	-3819
▁Sellega	-3820
▁elektroon	-3821
▁saavutada	-3822
▁puudutavad	-3823
üro	-3824
▁kaja	-3825
▁koon	-3826
▁teiega	-3827
▁hakkame	-3828
▁Teadus	-3829
▁huvitav	-3830
ürokra	-3831
▁sar	-3832
▁eelda	-3833
päev	-3834
usid	-3835
▁nimetada	-3836
Kas	-3837
järgu	-3838
jus	-3839
intsi	-3840
haridus	-3841
▁majanduse	-3842
utatud	-3843
▁Pe	-3844
▁Milline	-3845
▁40	-3846
▁ESM	-3847
▁päeval	-3848
▁pidevalt	-3849
▁räägitakse	-3850
kü	-3851
ivad	-3852
sinov	-3853
▁kasvanud	-3854
▁koostöös	-3855
▁Est	-3856
▁periood	-3857
mit	-3858
▁15.	-3859
▁opti	-3860
▁elavad	-3861
▁väärtus	-3862
▁Ossinov	-3863
▁pikaajal	-3864
▁vastates	-3865
▁viimasel	-3866
▁president	-3867
▁lugemisele	-3868
▁Riigikogule	-3869
hi	-3870
▁aastaga	-3871
▁küllalt	-3872
▁paika	-3873
▁lubatud	-3874
▁selgitada	-3875
"",	-3876
▁Üld	-3877
▁olegi	-3878
▁Ukraina	-3879
valits	-3880
kat	-3881
idud	-3882
▁laekunud	-3883
▁tõh	-3884
päevast	-3885
▁nädalal	-3886
▁liikmetel	-3887
pu	-3888
iina	-3889
▁võttis	-3890
▁valdkond	-3891
▁Tõn	-3892
▁eile	-3893
▁Tegemist	-3894
▁endiselt	-3895
jas	-3896
▁konf	-3897
▁ring	-3898
▁valmist	-3899
▁ettekandes	-3900
▁jaanuaril	-3901
▁Nest	-3902
▁töös	-3903
anemad	-3904
lused	-3905
▁viga	-3906
▁Põllu	-3907
▁Oleme	-3908
▁tr	-3909
likuks	-3910
▁esile	-3911
▁leping	-3912
▁Selline	-3913
▁ilus	-3914
▁trans	-3915
genud	-3916
▁astu	-3917
utakse	-3918
▁maaelu	-3919
▁registr	-3920
▁tuleneb	-3921
▁viida	-3922
▁keskmine	-3923
▁suutnud	-3924
▁süga	-3925
▁Ameer	-3926
▁katte	-3927
▁seisa	-3928
tide	-3929
▁vang	-3930
▁programm	-3931
▁menetlemise	-3932
▁aluseks	-3933
▁Läbirääki	-3934
▁san	-3935
tajad	-3936
vatele	-3937
▁tunduvalt	-3938
▁erand	-3939
▁ravim	-3940
▁Reformierakond	-3941
▁meen	-3942
▁kvaliteet	-3943
▁tasakaalu	-3944
▁koalitsioonile	-3945
▁eur	-3946
▁Ind	-3947
maani	-3948
gist	-3949
▁ülikool	-3950
▁kel	-3951
eline	-3952
▁Sõer	-3953
▁fakt	-3954
▁garan	-3955
▁toimetuleku	-3956
RO	-3957
tar	-3958
▁Mi	-3959
▁las	-3960
▁reag	-3961
▁tuba	-3962
Mis	-3963
▁inte	-3964
Eelnõu	-3965
▁üleva	-3966
▁toonud	-3967
▁projekti	-3968
▁kahtlemata	-3969
üle	-3970
▁ravi	-3971
▁Vassiljev	-3972
▁Ossinovski	-3973
▁prioriteet	-3974
len	-3975
▁sõjal	-3976
sektori	-3977
▁asenda	-3978
▁No	-3979
▁ro	-3980
▁Küsimusi	-3981
▁kinnitada	-3982
ald	-3983
fin	-3984
▁näen	-3985
aast	-3986
▁202	-3987
▁top	-3988
matult	-3989
▁rahastamise	-3990
▁mulje	-3991
Virumaa	-3992
▁suuremad	-3993
▁põhjendatud	-3994
adee	-3995
▁rahvusvahelise	-3996
giat	-3997
▁käibemaksu	-3998
▁pidi	-3999
▁rask	-4000
▁riikliku	-4001
▁äärmiselt	-4002
▁24	-4003
▁jätkus	-4004
eerimise	-4005
▁osaleda	-4006
▁märkimisväär	-4007
vu	-4008
▁Ti	-4009
▁selgeks	-4010
▁öeldakse	-4011
▁Pev	-4012
kohal	-4013
oov	-4014
▁jõuab	-4015
▁olevat	-4016
▁töötada	-4017
Kohaloleku	-4018
▁nimekirja	-4019
▁töönädala	-4020
▁2017.	-4021
lle	-4022
ents	-4023
▁13.	-4024
▁Tuus	-4025
▁Valeri	-4026
▁tagatud	-4027
▁kokkulepe	-4028
▁ettevõtja	-4029
▁häda	-4030
▁märk	-4031
▁katkesta	-4032
▁võimaldab	-4033
▁halb	-4034
▁märksa	-4035
▁paljude	-4036
▁lahendusi	-4037
▁Kru	-4038
▁ed	-4039
semaks	-4040
▁rakendus	-4041
▁õnne	-4042
▁lühidalt	-4043
Laul	-4044
▁tuleviku	-4045
–20	-4046
▁sekku	-4047
▁vastuseid	-4048
▁jõuda	-4049
▁väärt	-4050
toetuse	-4051
▁reserv	-4052
puu	-4053
asutuste	-4054
▁Vaa	-4055
▁tol	-4056
▁tekitab	-4057
rus	-4058
▁Ada	-4059
▁Parla	-4060
▁arutasime	-4061
▁ettekandjaks	-4062
inga	-4063
riteeri	-4064
▁Mailis	-4065
rast	-4066
▁vajavad	-4067
ooni	-4068
▁üli	-4069
▁jätnud	-4070
▁opositsiooni	-4071
▁Krista	-4072
▁sektori	-4073
▁tub	-4074
▁tuh	-4075
▁17.1	-4076
paania	-4077
seadus	-4078
▁Välis	-4079
▁lähia	-4080
Ka	-4081
▁ot	-4082
▁tõlg	-4083
▁sõidu	-4084
▁Jä	-4085
ete	-4086
▁viib	-4087
▁ametnik	-4088
▁erivajad	-4089
▁seadusmuuda	-4090
po	-4091
vo	-4092
▁Vah	-4093
hüvit	-4094
▁esitas	-4095
▁poolest	-4096
▁perspektiiv	-4097
ustan	-4098
▁said	-4099
võttes	-4100
▁juhtub	-4101
▁fun	-4102
▁kli	-4103
▁Ener	-4104
▁käiv	-4105
▁Riigi	-4106
▁korrekt	-4107
▁võrrelda	-4108
▁kehtestada	-4109
Nüüd	-4110
juha	-4111
▁otstar	-4112
▁vae	-4113
iktor	-4114
▁töötab	-4115
itöö	-4116
▁SKT	-4117
▁haa	-4118
▁kohtun	-4119
▁kolmand	-4120
▁tagajär	-4121
▁kaitsevä	-4122
▁väljatöö	-4123
▁Kommunikatsioon	-4124
▁milliseid	-4125
▁kirjutatud	-4126
kute	-4127
▁jõul	-4128
▁maksi	-4129
▁sulle	-4130
onika	-4131
▁tarb	-4132
▁isikute	-4133
▁riigilõiv	-4134
nnu	-4135
▁pank	-4136
▁kod	-4137
▁kär	-4138
kutse	-4139
▁Saksa	-4140
▁sünni	-4141
▁ettevõtete	-4142
▁Rahvaerakonna	-4143
▁ÜRO	-4144
▁käia	-4145
▁vastuol	-4146
▁jätkusuut	-4147
▁rääkisite	-4148
▁istungjärgu	-4149
▁menetlemisel	-4150
sja	-4151
▁35	-4152
stru	-4153
liidu	-4154
▁Konservatiivse	-4155
▁Sellepärast	-4156
eli	-4157
raa	-4158
▁jätkata	-4159
▁fil	-4160
▁Alga	-4161
▁väite	-4162
▁väiksema	-4163
▁siseminister	-4164
kurat	-4165
sektor	-4166
▁klassi	-4167
▁Istungi	-4168
▁Ütle	-4169
reform	-4170
gor	-4171
▁Ter	-4172
▁Vil	-4173
▁kaup	-4174
▁pääst	-4175
▁Eestist	-4176
▁arutame	-4177
erimine	-4178
▁kodaniku	-4179
),	-4180
-,	-4181
Jah	-4182
▁Kolma	-4183
ted	-4184
▁soovime	-4185
ustatakse	-4186
▁hariduse	-4187
ikes	-4188
▁artik	-4189
▁anname	-4190
▁kooskõl	-4191
▁arvata	-4192
▁omanda	-4193
▁rahvas	-4194
puud	-4195
▁Sama	-4196
▁erak	-4197
valvea	-4198
▁teistes	-4199
redi	-4200
terna	-4201
▁ringi	-4202
▁tõsine	-4203
anen	-4204
▁annan	-4205
▁ametiko	-4206
▁iseseis	-4207
▁kasutatakse	-4208
▁Hau	-4209
▁Eiki	-4210
▁lisand	-4211
tentsiaal	-4212
▁käivad	-4213
▁parlament	-4214
▁rakendada	-4215
ministeeriumis	-4216
▁pis	-4217
▁taast	-4218
ustavad	-4219
▁vägi	-4220
▁bürokra	-4221
▁arvel	-4222
▁institutsioon	-4223
kanõ	-4224
▁vai	-4225
▁Haukanõ	-4226
▁töötavad	-4227
tusest	-4228
▁Piiri	-4229
▁paneb	-4230
▁arvesse	-4231
▁direktiiv	-4232
Järg	-4233
puni	-4234
▁ettevõtjad	-4235
▁võttes	-4236
▁presidendi	-4237
▁teksti	-4238
▁varasema	-4239
ante	-4240
▁kaits	-4241
▁julgen	-4242
▁kohale	-4243
▁kuulub	-4244
▁üksnes	-4245
▁arutelul	-4246
▁põhjenda	-4247
rek	-4248
Panen	-4249
▁kõla	-4250
▁sund	-4251
▁rolli	-4252
▁lõpuni	-4253
▁Mik	-4254
▁uute	-4255
▁Maksu	-4256
▁suunatud	-4257
▁pead	-4258
▁juhtud	-4259
▁kohapeal	-4260
▁suuremat	-4261
▁tore	-4262
idetud	-4263
▁valmista	-4264
demokraadid	-4265
▁Ühend	-4266
▁millist	-4267
▁töötajate	-4268
▁10.	-4269
▁Toob	-4270
▁tulen	-4271
▁näiteid	-4272
iri	-4273
küm	-4274
ulge	-4275
▁üheks	-4276
▁eestikeel	-4277
▁korraldada	-4278
ministrile	-4279
kokku	-4280
teist	-4281
▁arvatud	-4282
▁Ain	-4283
ditsi	-4284
eerib	-4285
▁kilo	-4286
▁Põlluaas	-4287
▁menetluse	-4288
▁vastupidi	-4289
▁60	-4290
▁teenuseid	-4291
ivo	-4292
▁21	-4293
ääst	-4294
vahet	-4295
▁füü	-4296
▁sõnum	-4297
▁aspekt	-4298
▁kahel	-4299
▁lastele	-4300
▁pensionär	-4301
▁sissetuleku	-4302
erima	-4303
▁vastutus	-4304
tä	-4305
jel	-4306
koht	-4307
▁pid	-4308
▁kohustusi	-4309
▁vähenenud	-4310
▁täpsustada	-4311
▁maksumaksja	-4312
iministeerium	-4313
▁seletuskirjas	-4314
hekül	-4315
menti	-4316
▁Baltic	-4317
▁viimane	-4318
▁pruu	-4319
▁peate	-4320
▁vär	-4321
▁ajaks	-4322
▁kasvu	-4323
▁paindlik	-4324
▁valimistel	-4325
▁riigieelarvest	-4326
▁eris	-4327
▁Viima	-4328
▁ven	-4329
▁sõnavõ	-4330
▁avalikkuse	-4331
davad	-4332
kordselt	-4333
▁Lääne	-4334
▁küsis	-4335
▁ütlesid	-4336
▁Kall	-4337
▁Tõsi	-4338
pärane	-4339
▁Kohal	-4340
▁eelne	-4341
▁oskate	-4342
elnõ	-4343
▁Vene	-4344
mendid	-4345
▁tekkida	-4346
▁viimastel	-4347
▁Keskerakond	-4348
▁500	-4349
▁amm	-4350
▁Eestit	-4351
▁olulised	-4352
gis	-4353
uto	-4354
▁esitab	-4355
▁stabiil	-4356
▁Politsei	-4357
▁töökohta	-4358
▁väljenda	-4359
beri	-4360
▁ülejäänud	-4361
▁investeeringu	-4362
▁saade	-4363
▁valesti	-4364
▁menetlusse	-4365
▁mer	-4366
▁Reins	-4367
▁kedagi	-4368
▁kuluta	-4369
petsialist	-4370
▁meelt	-4371
▁ajakir	-4372
▁kehtestatud	-4373
▁põllumajand	-4374
▁Kruuse	-4375
▁Kahjuks	-4376
▁loogika	-4377
▁kindlust	-4378
▁poliitilist	-4379
▁ülla	-4380
evgeni	-4381
▁arust	-4382
▁ülemineku	-4383
Mart	-4384
▁Peale	-4385
▁gaasi	-4386
ustamist	-4387
▁rääkisin	-4388
▁makstakse	-4389
▁kusa	-4390
▁osakonna	-4391
▁arupärimisi	-4392
ate	-4393
▁Aas	-4394
▁tekki	-4395
hariduse	-4396
▁osaliselt	-4397
▁tulemusena	-4398
egi	-4399
ressi	-4400
▁sätte	-4401
▁kompro	-4402
▁Enne	-4403
▁lühike	-4404
▁Mille	-4405
▁kinnis	-4406
▁allkirja	-4407
▁Teatavasti	-4408
ugu	-4409
unni	-4410
kuses	-4411
▁Toll	-4412
oloogil	-4413
▁14.	-4414
▁positsioon	-4415
▁Ker	-4416
▁jal	-4417
aduses	-4418
▁haigla	-4419
▁arusaama	-4420
Tar	-4421
▁lugu	-4422
pitali	-4423
▁meede	-4424
jut	-4425
pere	-4426
▁pisut	-4427
▁sõnad	-4428
▁Nõukogu	-4429
▁võiksime	-4430
▁novembril	-4431
▁küljest	-4432
▁sotsiaalmaksu	-4433
▁kohas	-4434
▁sellises	-4435
ikus	-4436
▁karista	-4437
▁tähtaeg	-4438
▁Ameerika	-4439
lase	-4440
teeg	-4441
vanema	-4442
▁kõnele	-4443
▁leidis	-4444
▁tänane	-4445
▁kellegi	-4446
▁usaldus	-4447
,5	-4448
Ette	-4449
▁viisil	-4450
▁alanda	-4451
▁võinud	-4452
▁2.	-4453
võimal	-4454
▁valimisi	-4455
▁mainisite	-4456
leeg	-4457
▁lähtudes	-4458
▁otstarbe	-4459
▁Le	-4460
eerima	-4461
▁olulisem	-4462
▁veendunud	-4463
bine	-4464
▁põl	-4465
▁käis	-4466
▁odava	-4467
▁läbipa	-4468
▁Eestile	-4469
▁korteri	-4470
Va	-4471
▁Kaitseväe	-4472
▁otsustati	-4473
▁kumm	-4474
▁homme	-4475
▁riike	-4476
▁miljard	-4477
▁reaalselt	-4478
juti	-4479
▁Hanno	-4480
▁lause	-4481
▁seitsme	-4482
▁eesmärgi	-4483
der	-4484
▁uued	-4485
▁teistsug	-4486
▁-	-4487
vee	-4488
▁18.	-4489
▁mõj	-4490
▁aine	-4491
▁kriteeri	-4492
▁maakonna	-4493
koalitsioon	-4494
▁mingisuguseid	-4495
Ur	-4496
tuaal	-4497
▁Rail	-4498
▁sugu	-4499
▁Marko	-4500
▁väljaspool	-4501
▁lennu	-4502
▁energia	-4503
▁konflik	-4504
▁mõlemad	-4505
▁ettevõtjate	-4506
▁laie	-4507
▁kella	-4508
▁ükski	-4509
▁alterna	-4510
ganisatsiooni	-4511
▁läbirääkimiste	-4512
vel	-4513
▁Pr	-4514
▁otsa	-4515
▁maksus	-4516
▁noored	-4517
▁kaitsta	-4518
tua	-4519
▁soovin	-4520
Na	-4521
did	-4522
▁rik	-4523
▁nõuab	-4524
▁loodud	-4525
▁printsi	-4526
▁kompe	-4527
▁saadud	-4528
▁Seaduse	-4529
▁kooskõlas	-4530
õppe	-4531
gevus	-4532
energia	-4533
▁summad	-4534
▁liiklus	-4535
▁valimiste	-4536
▁omavalitsusi	-4537
▁teel	-4538
▁kaasne	-4539
▁elus	-4540
andeid	-4541
▁kulude	-4542
▁lugemist	-4543
väh	-4544
▁He	-4545
▁lahk	-4546
▁2012.	-4547
▁mõjutab	-4548
▁väikese	-4549
eeme	-4550
▁olin	-4551
▁lihtsa	-4552
▁inimesele	-4553
ute	-4554
▁nõr	-4555
▁kodus	-4556
▁pannakse	-4557
hääl	-4558
▁trah	-4559
▁tugine	-4560
▁sätestatud	-4561
ppi	-4562
mate	-4563
▁valik	-4564
▁kuulata	-4565
▁tugeva	-4566
▁kiiremini	-4567
▁mõnda	-4568
▁koonda	-4569
▁meditsi	-4570
▁kõikidele	-4571
▁olemasole	-4572
▁inimestega	-4573
▁konsensusega	-4574
engu	-4575
▁patsi	-4576
▁kehtima	-4577
▁perearst	-4578
▁teistmoodi	-4579
▁õiguskomisjoni	-4580
▁protseduuriline	-4581
▁sala	-4582
▁kad	-4583
▁digi	-4584
▁ütlete	-4585
▁Jevgeni	-4586
▁seisukohti	-4587
kalt	-4588
▁ühtse	-4589
▁avatud	-4590
▁kordan	-4591
▁liikmeid	-4592
▁saaksime	-4593
▁arvestanud	-4594
▁sii	-4595
vatest	-4596
▁räägite	-4597
▁valitsusel	-4598
▁suudame	-4599
tunud	-4600
iigume	-4601
▁pikema	-4602
▁juhtudel	-4603
▁lõpphääletuse	-4604
▁tõde	-4605
▁Kalev	-4606
▁vastama	-4607
riga	-4608
tavat	-4609
▁väita	-4610
▁propor	-4611
▁programmi	-4612
▁sellesama	-4613
▁vajaduspõh	-4614
▁9.	-4615
aare	-4616
▁lau	-4617
▁materjal	-4618
▁Kahe	-4619
▁pruugi	-4620
▁kirjalik	-4621
samas	-4622
▁vastan	-4623
▁eelarvet	-4624
▁kl	-4625
▁Üle	-4626
▁kits	-4627
▁Ülik	-4628
▁tagant	-4629
▁valida	-4630
▁kulusid	-4631
▁28	-4632
▁3.	-4633
asja	-4634
▁kahte	-4635
▁teiselt	-4636
sk	-4637
▁Po	-4638
itusi	-4639
likus	-4640
alised	-4641
▁Sõerd	-4642
▁usku	-4643
liselt	-4644
▁füüsil	-4645
komisjonilt	-4646
dusi	-4647
iamet	-4648
▁arut	-4649
▁Tuleb	-4650
▁demokraat	-4651
▁teab	-4652
▁meist	-4653
▁Nestor	-4654
▁Muidugi	-4655
▁eelnõust	-4656
ärt	-4657
▁Reps	-4658
▁kontse	-4659
▁arutati	-4660
▁vaadates	-4661
▁küsimusega	-4662
▁toimu	-4663
▁ehitus	-4664
▁vastas	-4665
adustiku	-4666
▁potentsiaal	-4667
ustas	-4668
▁mail	-4669
istatud	-4670
▁Soomes	-4671
▁seadusi	-4672
▁Piirivalvea	-4673
▁esial	-4674
▁seega	-4675
▁piirang	-4676
▁Kee	-4677
▁plus	-4678
▁suund	-4679
▁prokurat	-4680
▁hel	-4681
▁finantse	-4682
▁erakorral	-4683
▁tingimust	-4684
▁kollektiiv	-4685
märk	-4686
▁ene	-4687
▁vallas	-4688
▁45	-4689
▁5.	-4690
▁EK	-4691
irma	-4692
telu	-4693
▁seas	-4694
järele	-4695
▁kandid	-4696
▁pet	-4697
antsin	-4698
▁arutama	-4699
▁meetmeid	-4700
stud	-4701
▁kest	-4702
▁keskend	-4703
eno	-4704
▁lik	-4705
peale	-4706
▁pilt	-4707
▁ettekanne	-4708
▁siiamaani	-4709
▁akt	-4710
▁Pigem	-4711
▁Indrek	-4712
eerimine	-4713
RE	-4714
jõud	-4715
▁ammu	-4716
▁piisav	-4717
▁niivõrd	-4718
▁teisest	-4719
▁tuletan	-4720
idanud	-4721
▁2018.	-4722
▁suureneb	-4723
annet	-4724
▁iganes	-4725
▁uuringu	-4726
▁käsitleb	-4727
kindlustus	-4728
▁arenduste	-4729
▁territoorium	-4730
▁suunata	-4731
▁lahendust	-4732
▁Riigikontroll	-4733
▁tele	-4734
▁vastused	-4735
).	-4736
ase	-4737
▁kiit	-4738
▁tulem	-4739
▁jällegi	-4740
▁Haukanõmm	-4741
vasti	-4742
▁hulga	-4743
▁looma	-4744
▁Tiidus	-4745
▁mitmel	-4746
▁naiste	-4747
▁Pik	-4748
Peeter	-4749
▁kujunda	-4750
▁meetmed	-4751
tulek	-4752
▁leev	-4753
▁toidu	-4754
▁perekonna	-4755
▁kõl	-4756
mõist	-4757
vähem	-4758
▁Kogu	-4759
▁õiguste	-4760
õpil	-4761
▁arvam	-4762
goo	-4763
valla	-4764
▁teede	-4765
ili	-4766
▁süg	-4767
▁häid	-4768
▁Lätis	-4769
▁Paraku	-4770
▁debatt	-4771
▁pikenda	-4772
▁põhikooli	-4773
▁ühelt	-4774
▁Marika	-4775
▁Tõesti	-4776
▁puudega	-4777
▁investeeringute	-4778
sip	-4779
▁käitu	-4780
▁samme	-4781
SA	-4782
▁mah	-4783
▁esiteks	-4784
▁seaduseelnõ	-4785
▁öö	-4786
isin	-4787
▁saat	-4788
▁protsen	-4789
▁Reinsalu	-4790
uti	-4791
▁Mind	-4792
▁saime	-4793
Aga	-4794
lad	-4795
▁22	-4796
ikaa	-4797
▁visi	-4798
▁Rahvus	-4799
▁läheks	-4800
süsteemi	-4801
▁vajaduse	-4802
piik	-4803
▁Krist	-4804
▁muudatuse	-4805
▁investeeringuid	-4806
eti	-4807
▁Panen	-4808
▁kõrgem	-4809
▁keskmise	-4810
▁oktoobril	-4811
fitsi	-4812
▁elab	-4813
▁tööl	-4814
▁Sellel	-4815
▁usalda	-4816
▁pakutud	-4817
▁kohalikele	-4818
▁tõi	-4819
▁tõele	-4820
▁asjaol	-4821
▁konkreetset	-4822
▁muuse	-4823
▁tahate	-4824
detavasti	-4825
▁seadusandja	-4826
▁Külliki	-4827
organisatsioon	-4828
▁esindab	-4829
▁Ettekandja	-4830
sise	-4831
▁ide	-4832
▁pika	-4833
▁elada	-4834
▁Läheme	-4835
▁voliko	-4836
▁hakanud	-4837
utt	-4838
stab	-4839
gnaal	-4840
▁Riik	-4841
▁kiire	-4842
▁ilmsel	-4843
▁rõhutan	-4844
▁vabasta	-4845
▁arusaadav	-4846
▁põhiseadusega	-4847
jaga	-4848
kand	-4849
mann	-4850
ääri	-4851
▁EKRE	-4852
▁Ratas	-4853
▁käima	-4854
▁lõike	-4855
vikindl	-4856
▁ajalool	-4857
▁analüüs	-4858
▁lahenduse	-4859
isem	-4860
punkt	-4861
▁elua	-4862
▁äriüh	-4863
▁esindajana	-4864
▁tuu	-4865
▁säte	-4866
▁otsuste	-4867
poliitikat	-4868
ret	-4869
▁mai	-4870
▁eksa	-4871
▁Adams	-4872
▁kaupa	-4873
▁täpsustav	-4874
kohtu	-4875
luste	-4876
▁reisi	-4877
▁kursis	-4878
▁küsisin	-4879
▁27	-4880
▁Arv	-4881
▁Täp	-4882
▁mudel	-4883
▁seondu	-4884
▁õigustatud	-4885
▁23	-4886
▁suurusjär	-4887
▁Vaada	-4888
▁leiab	-4889
▁proov	-4890
▁toetanud	-4891
järel	-4892
▁sünn	-4893
▁pu	-4894
ivas	-4895
▁eril	-4896
▁sõit	-4897
itatud	-4898
▁inimesel	-4899
▁tänaseks	-4900
pak	-4901
▁tõusu	-4902
▁jäätme	-4903
▁Madison	-4904
▁seadusest	-4905
oof	-4906
ameti	-4907
loome	-4908
▁kesta	-4909
▁osakaal	-4910
mäe	-4911
inik	-4912
▁tera	-4913
▁kusagil	-4914
▁arvestama	-4915
▁20.	-4916
▁motiv	-4917
▁isiklik	-4918
▁sõnavõt	-4919
▁Ilm	-4920
olijaid	-4921
tehn	-4922
▁tipp	-4923
▁tõuseb	-4924
Virumaal	-4925
▁arusaam	-4926
▁mõninga	-4927
▁suurene	-4928
▁tarbija	-4929
oolekande	-4930
▁hõl	-4931
▁suud	-4932
▁Praeg	-4933
▁lasteaia	-4934
sul	-4935
▁omal	-4936
▁Energia	-4937
▁realise	-4938
▁kasutamine	-4939
▁ülesandeid	-4940
▁valitsusele	-4941
igas	-4942
▁nar	-4943
▁eelmine	-4944
▁ehitada	-4945
▁Kultuuri	-4946
aab	-4947
guses	-4948
▁elamis	-4949
▁valdkonda	-4950
▁loen	-4951
▁üldine	-4952
▁Tallinn	-4953
▁vastuvõ	-4954
▁rahvusvaheliste	-4955
geli	-4956
▁ime	-4957
▁Riigikontrolli	-4958
män	-4959
vet	-4960
isid	-4961
kste	-4962
▁hoone	-4963
▁võimu	-4964
▁tahetakse	-4965
▁absoluutselt	-4966
▁Mä	-4967
▁eesku	-4968
▁paari	-4969
▁pagul	-4970
koormus	-4971
valitsuse	-4972
▁peaminist	-4973
▁õh	-4974
▁kohus	-4975
endused	-4976
▁Jaanus	-4977
viil	-4978
▁parlamendis	-4979
tka	-4980
tsime	-4981
▁rida	-4982
▁puutu	-4983
▁Esimese	-4984
▁kontrollida	-4985
▁vastuolijaid	-4986
▁19.	-4987
▁tell	-4988
piiker	-4989
▁Mitte	-4990
▁muutmine	-4991
igu	-4992
tii	-4993
▁paha	-4994
▁olles	-4995
▁raudtee	-4996
▁kuuluvad	-4997
▁otsustanud	-4998
▁ting	-4999
▁51	-5000
hoiu	-5001
kätt	-5002
leid	-5003
eluminist	-5004
▁eesmärki	-5005
▁kindlustus	-5006
iksoo	-5007
proje	-5008
▁esma	-5009
▁millel	-5010
▁kompromis	-5011
▁vajalikud	-5012
oh	-5013
idaar	-5014
▁Igor	-5015
▁hirm	-5016
▁võite	-5017
▁vastuste	-5018
▁tunnistama	-5019
▁demokraatia	-5020
▁Täh	-5021
iseadus	-5022
▁Toobal	-5023
▁sugugi	-5024
uvii	-5025
▁tõste	-5026
▁jäetud	-5027
▁selgus	-5028
▁valimise	-5029
▁Koh	-5030
▁esmas	-5031
▁saalist	-5032
▁pärit	-5033
mpaania	-5034
toetust	-5035
ditsioon	-5036
▁annavad	-5037
▁kontrollKohal	-5038
dal	-5039
▁hoi	-5040
kirju	-5041
▁divid	-5042
AS	-5043
▁75	-5044
oola	-5045
▁lei	-5046
▁kõnes	-5047
▁mängi	-5048
▁meelega	-5049
▁millegi	-5050
aalt	-5051
▁kanda	-5052
▁küsite	-5053
▁rü	-5054
duda	-5055
▁juul	-5056
▁21.	-5057
▁sunn	-5058
▁steno	-5059
▁nõuded	-5060
▁üleval	-5061
side	-5062
▁Leedu	-5063
▁signaal	-5064
▁konsensuslikult	-5065
õn	-5066
▁hää	-5067
▁selgub	-5068
▁direktiivi	-5069
nenud	-5070
vatel	-5071
erinud	-5072
neleja	-5073
▁Rõivas	-5074
▁olev	-5075
▁Viktor	-5076
▁ametnikud	-5077
▁rän	-5078
▁tugi	-5079
lusest	-5080
▁initsi	-5081
▁lepitud	-5082
▁näidata	-5083
▁turvalis	-5084
▁32	-5085
▁kohtle	-5086
▁vahele	-5087
▁kohustuste	-5088
▁diskussiooni	-5089
enu	-5090
▁usu	-5091
palga	-5092
Läheme	-5093
vesteer	-5094
▁palgad	-5095
▁teavita	-5096
▁alustada	-5097
▁ravikindl	-5098
ler	-5099
▁Talvik	-5100
▁tööturu	-5101
tavaid	-5102
▁ettevalmist	-5103
▁mahu	-5104
▁mahus	-5105
▁vajadust	-5106
▁pingu	-5107
▁sisalda	-5108
▁töökohti	-5109
spektsioon	-5110
rateeg	-5111
▁hüvit	-5112
▁toimi	-5113
▁termin	-5114
▁riiklik	-5115
▁Minister	-5116
▁põhjustel	-5117
▁tegelevad	-5118
poolt	-5119
▁laeva	-5120
▁vaatan	-5121
▁kolleegi	-5122
▁planeeritud	-5123
ria	-5124
▁eriar	-5125
▁ülevaade	-5126
▁lugemiseks	-5127
▁34	-5128
▁7.	-5129
▁lisak	-5130
Riigikogu	-5131
▁kellelegi	-5132
alad	-5133
▁naab	-5134
art	-5135
ras	-5136
õna	-5137
ustust	-5138
▁alusta	-5139
▁tsiviil	-5140
▁koosseisus	-5141
tiva	-5142
▁Har	-5143
▁sina	-5144
▁õigeks	-5145
▁solidaar	-5146
▁kirjutada	-5147
▁statistika	-5148
▁mingisuguse	-5149
▁33	-5150
ruusi	-5151
võrra	-5152
▁südame	-5153
▁seisukohal	-5154
▁regulatsiooni	-5155
▁sõida	-5156
▁tegime	-5157
▁olulist	-5158
▁venekeel	-5159
▁parlamendil	-5160
võrgu	-5161
statud	-5162
▁detsembril	-5163
leme	-5164
▁vaielda	-5165
▁katteallik	-5166
▁Ala	-5167
▁2011.	-5168
▁asjaolu	-5169
▁paralle	-5170
▁tuvasta	-5171
▁teemasid	-5172
▁tingimused	-5173
▁26	-5174
▁Nor	-5175
lusega	-5176
▁kavas	-5177
▁asjast	-5178
▁tegemata	-5179
Muudatusette	-5180
▁Ne	-5181
kide	-5182
▁õigusi	-5183
▁liikuda	-5184
essionaal	-5185
▁suuren	-5186
▁erakool	-5187
▁asuta	-5188
▁paljudes	-5189
▁puudutas	-5190
▁4.	-5191
list	-5192
▁elanike	-5193
Selle	-5194
▁Sellele	-5195
▁miljardit	-5196
iss	-5197
▁Sil	-5198
▁jõuame	-5199
inantsin	-5200
▁lihtsam	-5201
▁juhtunud	-5202
▁vastuolus	-5203
▁seisukohad	-5204
uar	-5205
jandi	-5206
▁ajast	-5207
▁teistele	-5208
▁veebruaril	-5209
▁välisminister	-5210
siga	-5211
▁süv	-5212
▁seitse	-5213
▁mar	-5214
elised	-5215
▁muudetakse	-5216
▁Igal	-5217
▁plaani	-5218
▁kevadel	-5219
▁konventsiooni	-5220
bil	-5221
▁riski	-5222
▁Kolleeg	-5223
▁muudatust	-5224
▁seadusele	-5225
▁küsimustes	-5226
Nii	-5227
▁300	-5228
▁oleva	-5229
▁huvitab	-5230
▁Kohaloleku	-5231
▁inimestest	-5232
rü	-5233
▁Mic	-5234
kaas	-5235
▁ingl	-5236
▁kaev	-5237
▁liikmetele	-5238
▁arupärimisele	-5239
▁maal	-5240
▁Tõnis	-5241
▁kõlas	-5242
▁euroni	-5243
▁eeskätt	-5244
▁protsent	-5245
▁muudatuste	-5246
üri	-5247
▁3,	-5248
▁relva	-5249
▁toetuste	-5250
▁normaalne	-5251
▁informatsioon	-5252
▁popul	-5253
▁jätkub	-5254
▁järelevalv	-5255
imar	-5256
▁Len	-5257
▁ida	-5258
organ	-5259
tesse	-5260
▁maad	-5261
kordne	-5262
▁sammu	-5263
▁konkreetsed	-5264
utan	-5265
Euroo	-5266
▁komb	-5267
▁Kokku	-5268
▁tulub	-5269
õpet	-5270
▁paig	-5271
▁hooli	-5272
▁kehtiva	-5273
▁omakorda	-5274
▁kandidaat	-5275
▁oku	-5276
▁topelt	-5277
imõig	-5278
teeri	-5279
kohane	-5280
likkus	-5281
▁pikka	-5282
süsteem	-5283
▁Michal	-5284
▁koolit	-5285
▁karistus	-5286
▁majandust	-5287
▁vajalikuks	-5288
▁ps	-5289
ulise	-5290
undus	-5291
▁Tema	-5292
▁tavaliselt	-5293
▁alae	-5294
▁sõnu	-5295
▁situa	-5296
▁välismaal	-5297
▁septembril	-5298
▁6.	-5299
▁ena	-5300
Tarmo	-5301
istan	-5302
▁Prants	-5303
▁juunil	-5304
▁lähene	-5305
▁maksua	-5306
▁missug	-5307
▁kaaluda	-5308
▁rakendamise	-5309
▁minuti	-5310
▁lehekül	-5311
▁seisukohalt	-5312
ikse	-5313
konnal	-5314
▁Eestil	-5315
▁teemad	-5316
▁märtsil	-5317
▁strateeg	-5318
koo	-5319
▁Kus	-5320
▁ell	-5321
olijaks	-5322
▁Pevkur	-5323
tamiseks	-5324
tü	-5325
eaeg	-5326
ikro	-5327
▁ron	-5328
▁tsite	-5329
▁jagada	-5330
▁sageli	-5331
▁tahaksin	-5332
▁tutvusta	-5333
▁lähtuvalt	-5334
▁operatsioon	-5335
▁Savis	-5336
▁kerge	-5337
▁paberi	-5338
▁suhtle	-5339
mig	-5340
▁ver	-5341
▁Artur	-5342
▁lisada	-5343
▁mitmes	-5344
▁niiviisi	-5345
▁aj	-5346
▁infos	-5347
▁kohalda	-5348
▁läbipaist	-5349
Ar	-5350
iisama	-5351
▁kauba	-5352
▁likvid	-5353
ettevõte	-5354
▁vaadanud	-5355
▁vastuolu	-5356
▁huvitatud	-5357
hof	-5358
▁Kä	-5359
ismi	-5360
▁suun	-5361
▁initsiat	-5362
▁õppida	-5363
▁automaa	-5364
▁hiljuti	-5365
▁puldist	-5366
▁valitud	-5367
▁määratud	-5368
▁mõnevõrra	-5369
tlus	-5370
▁muutma	-5371
▁Kolmandaks	-5372
ään	-5373
▁Et	-5374
kulud	-5375
piiri	-5376
▁elluvii	-5377
õus	-5378
▁tüü	-5379
▁aptee	-5380
▁jääks	-5381
▁mikro	-5382
▁korruptsiooni	-5383
imõtte	-5384
▁soovite	-5385
▁Komisjonis	-5386
▁jõudu	-5387
▁tundi	-5388
▁arvamuse	-5389
▁kindlaks	-5390
▁novembri	-5391
▁töötanud	-5392
▁ettevõtted	-5393
undi	-5394
▁Pikhof	-5395
▁omanik	-5396
▁rakend	-5397
▁kilomeet	-5398
▁seadusand	-5399
▁kaitseminister	-5400
tri	-5401
▁IT	-5402
▁rep	-5403
▁Samal	-5404
▁ebavõrd	-5405
valdkonna	-5406
▁Randpere	-5407
▁aprillil	-5408
ess	-5409
▁ükste	-5410
▁nõunik	-5411
–1	-5412
sku	-5413
▁Kuigi	-5414
▁küllap	-5415
▁aastani	-5416
▁mõelnud	-5417
valitsuste	-5418
eva	-5419
näh	-5420
▁hüvita	-5421
▁alt	-5422
▁Vaatame	-5423
haig	-5424
kõike	-5425
riigid	-5426
▁tekitada	-5427
▁professionaal	-5428
idet	-5429
▁kaheks	-5430
▁ministrid	-5431
▁arvud	-5432
▁pädev	-5433
▁Sester	-5434
▁tegeleda	-5435
▁jaanuarist	-5436
kulude	-5437
▁Andrus	-5438
igümnaasi	-5439
▁põlevkivi	-5440
▁sotsiaalt	-5441
unnis	-5442
▁võõr	-5443
▁täitma	-5444
probleem	-5445
▁Ilmselt	-5446
▁jaanuar	-5447
▁teisiti	-5448
▁erinevalt	-5449
afr	-5450
umid	-5451
▁igas	-5452
vam	-5453
aluse	-5454
istest	-5455
likkust	-5456
▁niisama	-5457
▁kv	-5458
septe	-5459
▁lüka	-5460
▁mäleta	-5461
▁esimesele	-5462
rdi	-5463
▁pol	-5464
kohta	-5465
▁parte	-5466
▁päevast	-5467
▁vältida	-5468
▁mainisin	-5469
▁Rää	-5470
oreet	-5471
▁pääste	-5472
▁juhtida	-5473
▁kellega	-5474
leh	-5475
▁löö	-5476
▁ret	-5477
▁Vasta	-5478
▁kredi	-5479
▁laual	-5480
▁muidu	-5481
▁tabel	-5482
▁tahtnud	-5483
▁38	-5484
tingi	-5485
maalselt	-5486
▁kaugele	-5487
▁kuskilt	-5488
▁sõb	-5489
motsi	-5490
▁Vahe	-5491
▁taks	-5492
▁temp	-5493
Krista	-5494
▁defin	-5495
▁toode	-5496
adeemia	-5497
▁selgita	-5498
▁katkestada	-5499
▁küsimusest	-5500
usin	-5501
dused	-5502
▁inno	-5503
▁minul	-5504
▁Millised	-5505
▁kasutusele	-5506
▁looduskaitse	-5507
astus	-5508
istele	-5509
Komisjon	-5510
▁laienda	-5511
▁erinevate	-5512
ett	-5513
vor	-5514
▁laiem	-5515
erakond	-5516
▁ametisse	-5517
▁tegemine	-5518
▁Valitsust	-5519
▁palgatõus	-5520
pia	-5521
alne	-5522
nara	-5523
▁maksut	-5524
▁haridust	-5525
▁vahendid	-5526
▁Henn	-5527
▁anti	-5528
poolne	-5529
ratiiv	-5530
▁huvide	-5531
▁temaat	-5532
▁toetama	-5533
oro	-5534
rad	-5535
too	-5536
koos	-5537
▁söö	-5538
astele	-5539
▁ametis	-5540
▁kuhugi	-5541
▁lastega	-5542
▁tekivad	-5543
▁arendada	-5544
▁tunnistada	-5545
▁omavalitsustes	-5546
kusi	-5547
▁Siit	-5548
▁Põlda	-5549
▁organ	-5550
▁suudab	-5551
▁andmete	-5552
▁perioodi	-5553
▁ütleksin	-5554
mar	-5555
▁Enn	-5556
idelt	-5557
▁vest	-5558
▁rääkides	-5559
▁käsitlemine	-5560
▁To	-5561
Tere	-5562
▁arve	-5563
▁piirika	-5564
aeg	-5565
▁65	-5566
▁paber	-5567
▁Põldaru	-5568
▁lugenud	-5569
▁avalduse	-5570
▁ressurssi	-5571
▁tekitanud	-5572
▁perspektiivis	-5573
▁lubad	-5574
teenuse	-5575
ustanud	-5576
▁alternatiiv	-5577
▁kommenteerida	-5578
eks	-5579
ägi	-5580
▁süüdi	-5581
▁naaber	-5582
▁oodata	-5583
Küsimused	-5584
▁55	-5585
▁80	-5586
▁Ning	-5587
analüü	-5588
▁Helmen	-5589
▁emotsi	-5590
▁uurimis	-5591
▁vaheaeg	-5592
▁piiratud	-5593
▁menetluses	-5594
deks	-5595
ults	-5596
▁Ots	-5597
▁Monika	-5598
▁siiani	-5599
eerimist	-5600
▁seadusesse	-5601
▁tulumaksuvaba	-5602
▁ajut	-5603
▁lasta	-5604
▁analoo	-5605
▁eelnõude	-5606
▁liikmena	-5607
Ja	-5608
▁Arto	-5609
▁Kohtu	-5610
▁katse	-5611
▁asjaga	-5612
▁iseloo	-5613
▁ettevõtluse	-5614
▁eb	-5615
line	-5616
▁pas	-5617
▁vil	-5618
▁lang	-5619
emon	-5620
ikuks	-5621
▁tasub	-5622
▁Pärast	-5623
▁konstru	-5624
▁töötukassa	-5625
▁täiendavalt	-5626
▁investeeringud	-5627
riikide	-5628
▁olulisi	-5629
▁peamine	-5630
▁aktsepte	-5631
▁kirjutanud	-5632
?""	-5633
une	-5634
iabi	-5635
iima	-5636
▁2015	-5637
▁Raivo	-5638
tsioonis	-5639
▁sõnasta	-5640
▁sedasama	-5641
▁jätkuvalt	-5642
▁kusjuures	-5643
▁fraktsioonilt	-5644
Ei	-5645
maja	-5646
ritega	-5647
erimist	-5648
▁peetud	-5649
▁vanemad	-5650
Ettepaneku	-5651
itü	-5652
klar	-5653
partne	-5654
▁Vabariigis	-5655
▁traditsioon	-5656
kaar	-5657
inime	-5658
▁üksik	-5659
hoolekande	-5660
▁gümnaasiumi	-5661
▁36	-5662
neti	-5663
▁..."	-5664
▁müüa	-5665
▁Sults	-5666
▁täite	-5667
▁lõpeta	-5668
▁hääletust	-5669
viis	-5670
▁kehtiv	-5671
▁kasulik	-5672
▁korraga	-5673
▁nõukogus	-5674
▁selliselt	-5675
▁arupärimist	-5676
aneb	-5677
kest	-5678
▁nägi	-5679
▁vaim	-5680
endusi	-5681
▁vastuvõtmise	-5682
elge	-5683
▁laia	-5684
▁esimeh	-5685
▁kvaliteedi	-5686
liig	-5687
▁meeto	-5688
▁annaks	-5689
toetuste	-5690
▁kellelgi	-5691
▁koolides	-5692
eto	-5693
▁31	-5694
▁48	-5695
ikuid	-5696
▁Kari	-5697
▁huvig	-5698
▁kasum	-5699
Liigume	-5700
▁toimib	-5701
▁reeglid	-5702
regist	-5703
stanud	-5704
▁rahaga	-5705
▁vaatamata	-5706
▁lähenemine	-5707
inu	-5708
▁4,	-5709
▁8.	-5710
lluma	-5711
tuseks	-5712
ühistu	-5713
▁küsima	-5714
▁lubada	-5715
▁tasemele	-5716
▁heaolu	-5717
▁perede	-5718
▁lisaraha	-5719
▁langetada	-5720
▁meditsiin	-5721
▁eelarvesse	-5722
▁kodakondsus	-5723
▁dekla	-5724
▁kaalut	-5725
▁komple	-5726
▁loogiline	-5727
▁sissejuha	-5728
Kol	-5729
määr	-5730
▁rum	-5731
▁kümn	-5732
▁tööst	-5733
▁mehhanis	-5734
▁kohustused	-5735
▁teatavasti	-5736
mand	-5737
▁Lihts	-5738
▁suurte	-5739
▁Kristen	-5740
▁maksude	-5741
alas	-5742
▁tõu	-5743
itüma	-5744
▁süda	-5745
▁põhja	-5746
▁muudab	-5747
▁paneme	-5748
▁teavad	-5749
▁ettepanekuga	-5750
oolis	-5751
▁mõnel	-5752
▁17.15.	-5753
▁sügisel	-5754
▁tulevikku	-5755
9,	-5756
sun	-5757
uni	-5758
▁käe	-5759
▁Lõuna	-5760
▁fikse	-5761
▁lõppe	-5762
uliselt	-5763
▁deklar	-5764
▁kutsun	-5765
▁mõtlen	-5766
▁möödunud	-5767
▁seadused	-5768
▁kinnisvara	-5769
▁protokolli	-5770
mes	-5771
õpp	-5772
▁2016	-5773
▁järgne	-5774
▁selleni	-5775
▁seisukohast	-5776
▁enn	-5777
▁ken	-5778
rühma	-5779
▁2014	-5780
▁Kütt	-5781
▁advo	-5782
▁kaub	-5783
▁tahes	-5784
kontrol	-5785
▁teistsugune	-5786
iska	-5787
▁Vab	-5788
▁püh	-5789
kogude	-5790
▁konsul	-5791
▁paratama	-5792
rik	-5793
tul	-5794
▁Margus	-5795
Järgmine	-5796
eeritakse	-5797
▁näitavad	-5798
▁põhjused	-5799
▁taotleda	-5800
jatel	-5801
▁ohtu	-5802
▁püüame	-5803
üsteemis	-5804
▁siinkohal	-5805
▁riigigümnaasi	-5806
so	-5807
pes	-5808
öde	-5809
▁70	-5810
▁met	-5811
▁tõenäos	-5812
▁toetavad	-5813
▁protsenti	-5814
▁lõpetatakse	-5815
▁37	-5816
gias	-5817
umide	-5818
▁kahet	-5819
▁pääse	-5820
▁argument	-5821
▁vastuses	-5822
▁ilmselgelt	-5823
▁protseduur	-5824
▁sissetulek	-5825
üan	-5826
▁uh	-5827
kile	-5828
▁22.	-5829
▁kate	-5830
▁kaug	-5831
▁maht	-5832
ettevõt	-5833
▁puldis	-5834
▁võitle	-5835
▁üldise	-5836
▁kõvasti	-5837
▁üliõpil	-5838
▁Järgmine	-5839
▁oluliseks	-5840
▁struktuuri	-5841
▁registreeritud	-5842
laid	-5843
urga	-5844
▁puht	-5845
▁siir	-5846
▁algusest	-5847
▁erakonnad	-5848
spektsiooni	-5849
umalt	-5850
▁ajaloo	-5851
ive	-5852
▁Vastu	-5853
▁liitu	-5854
▁teosta	-5855
▁meeldib	-5856
▁juhtumeid	-5857
▁omad	-5858
▁lugesin	-5859
▁osapool	-5860
▁toetusi	-5861
▁järgmist	-5862
▁kulutusi	-5863
har	-5864
loa	-5865
ikord	-5866
▁Päeva	-5867
▁kasutatud	-5868
▁investeerimis	-5869
veo	-5870
dama	-5871
▁Nel	-5872
▁eet	-5873
▁sub	-5874
desse	-5875
▁Valdo	-5876
▁eelnõud	-5877
▁pöörduda	-5878
▁koostatud	-5879
▁miinimumi	-5880
▁rääkisime	-5881
kokkuvõttes	-5882
▁teadusminister	-5883
etega	-5884
▁tegid	-5885
politse	-5886
▁küsinud	-5887
▁andmetel	-5888
▁tööpäeva	-5889
▁ennekõike	-5890
Kõ	-5891
▁Kokk	-5892
▁null	-5893
olekul	-5894
▁objekt	-5895
▁tekiks	-5896
▁debatti	-5897
▁koolide	-5898
▁erakonda	-5899
▁piirkonnas	-5900
▁sanktsioon	-5901
▁tihtipeale	-5902
akas	-5903
▁skee	-5904
krimin	-5905
maalne	-5906
periood	-5907
▁vastupid	-5908
▁seadustiku	-5909
▁rõõm	-5910
▁leppida	-5911
▁väikest	-5912
▁ühiskonda	-5913
▁Juba	-5914
▁Nend	-5915
▁libe	-5916
missioon	-5917
▁taastuv	-5918
▁ühiselt	-5919
▁hääletamise	-5920
pide	-5921
▁Toom	-5922
▁seisab	-5923
▁keelatud	-5924
▁mainitud	-5925
▁konkreetseid	-5926
koormust	-5927
▁asjaoma	-5928
▁otsustus	-5929
▁majanduskasvu	-5930
▁Rep	-5931
▁ühise	-5932
▁võtavad	-5933
▁spetsiif	-5934
sam	-5935
▁turul	-5936
pensioni	-5937
▁ülesanded	-5938
hool	-5939
väga	-5940
▁ohv	-5941
▁märg	-5942
▁Juhan	-5943
▁ootama	-5944
etoetuste	-5945
▁lähte	-5946
▁viibi	-5947
▁tõesta	-5948
valitsus	-5949
▁täitmisel	-5950
▁Juhtivkomisjon	-5951
kondi	-5952
▁must	-5953
▁nüan	-5954
▁isikud	-5955
▁varsti	-5956
▁tahtsin	-5957
▁õigused	-5958
▁omavalitsuses	-5959
▁kroon	-5960
▁juhtus	-5961
▁pidama	-5962
▁tuleva	-5963
teo	-5964
keele	-5965
▁märga	-5966
eerinud	-5967
▁auväärt	-5968
▁mõtteid	-5969
▁Inimesed	-5970
▁vastutab	-5971
▁korralduse	-5972
▁konventsioon	-5973
susest	-5974
▁algab	-5975
▁põhine	-5976
▁kaasatud	-5977
poliitikas	-5978
▁päevakorras	-5979
▁loodetavasti	-5980
aine	-5981
▁mälu	-5982
▁tõite	-5983
▁reguleeritud	-5984
▁isa	-5985
▁Koht	-5986
▁liidu	-5987
▁püüan	-5988
aliselt	-5989
▁kutsutud	-5990
panga	-5991
tamisel	-5992
▁valits	-5993
▁kõlanud	-5994
▁püüdnud	-5995
keskkonna	-5996
Lu	-5997
udele	-5998
▁psüh	-5999
▁kannab	-6000
▁tänast	-6001
▁räägiti	-6002
ettevõtte	-6003
▁paljusid	-6004
▁praeguses	-6005
▁valitsust	-6006
▁automaatselt	-6007
pra	-6008
▁Sul	-6009
▁Ühe	-6010
▁ärge	-6011
▁tänavu	-6012
▁peetakse	-6013
▁vastanud	-6014
▁aktiivselt	-6015
▁riigikontrol	-6016
idust	-6017
istes	-6018
miseni	-6019
▁Võtame	-6020
▁lähiajal	-6021
▁tegeleme	-6022
▁Üldiselt	-6023
▁tän	-6024
palju	-6025
eritakse	-6026
▁heakski	-6027
▁ministeeriumide	-6028
Hel	-6029
▁41	-6030
▁ag	-6031
▁eta	-6032
ituste	-6033
▁räägivad	-6034
▁tulemusi	-6035
▁rahastamine	-6036
vol	-6037
▁üha	-6038
juhul	-6039
masti	-6040
▁loomul	-6041
▁asendus	-6042
▁ettenäh	-6043
▁niisugust	-6044
▁riikidega	-6045
▁Ke	-6046
pital	-6047
▁Aadu	-6048
Aitüma	-6049
▁nõnda	-6050
unde	-6051
utab	-6052
lusel	-6053
▁Palj	-6054
▁raam	-6055
iameti	-6056
▁toetused	-6057
▁käsitletud	-6058
▁ministrite	-6059
▁Heljo	-6060
▁fondi	-6061
▁suver	-6062
ktiivne	-6063
▁variant	-6064
▁põhiline	-6065
▁valdkondades	-6066
▁Oli	-6067
▁kurb	-6068
▁eksist	-6069
▁juhtuda	-6070
▁osapoole	-6071
▁Samamoodi	-6072
▁kooskõlast	-6073
▁Iva	-6074
mitri	-6075
▁2009.	-6076
▁maine	-6077
▁Tartus	-6078
▁üheksa	-6079
▁kaotada	-6080
▁Probleem	-6081
▁kaubandus	-6082
kut	-6083
toetus	-6084
▁ebaõig	-6085
▁kenasti	-6086
▁kaitseväe	-6087
▁kohustust	-6088
▁probleemide	-6089
▁reguleerida	-6090
mini	-6091
vise	-6092
Euroopa	-6093
▁meedia	-6094
majandus	-6095
▁Kaheksa	-6096
▁kogemus	-6097
▁sõlmitud	-6098
▁õpetajad	-6099
▁viitasite	-6100
demokraatide	-6101
väl	-6102
▁5,	-6103
▁EAS	-6104
▁intr	-6105
▁läheda	-6106
▁soodust	-6107
valdkonnas	-6108
Kül	-6109
dit	-6110
▁As	-6111
▁Must	-6112
▁keht	-6113
▁kauem	-6114
▁abivah	-6115
endamise	-6116
▁väljend	-6117
▁leppinud	-6118
▁maksusta	-6119
▁karistusse	-6120
kis	-6121
siiv	-6122
▁nimi	-6123
▁toll	-6124
▁noori	-6125
▁spord	-6126
▁võlgu	-6127
▁Presid	-6128
▁abielu	-6129
▁teenused	-6130
▁sõltumata	-6131
▁säilita	-6132
▁kasutama	-6133
▁liikmeks	-6134
▁Kaitseliidu	-6135
vin	-6136
plaan	-6137
▁kehv	-6138
▁hõlma	-6139
▁jurist	-6140
▁paranduse	-6141
▁kuue	-6142
kirjad	-6143
▁Selge	-6144
▁sarna	-6145
▁lauale	-6146
▁muutuvad	-6147
▁rahvaesi	-6148
▁Põhiseadus	-6149
hutu	-6150
▁2019.	-6151
▁perioodil	-6152
suh	-6153
adet	-6154
▁eeldab	-6155
▁endast	-6156
▁hakkaks	-6157
▁puudujää	-6158
▁veebruar	-6159
kriisi	-6160
▁ehitatud	-6161
uli	-6162
kesi	-6163
▁lõik	-6164
ringhääl	-6165
▁kasutavad	-6166
▁kooskõlasta	-6167
▁usaldusväär	-6168
▁järelevalvet	-6169
▁lõpphääletus	-6170
Pro	-6171
▁pakub	-6172
▁tarist	-6173
▁loodame	-6174
▁küsisite	-6175
▁mikrofon	-6176
▁muutmist	-6177
▁sündinud	-6178
▁õigusabi	-6179
▁menetleda	-6180
▁jääma	-6181
▁rohel	-6182
▁tehes	-6183
▁hommikust	-6184
▁analüüsida	-6185
▁infotunnis	-6186
▁valitsemis	-6187
▁riigieelarves	-6188
▁näol	-6189
▁side	-6190
▁palgal	-6191
▁tuhande	-6192
▁täitmise	-6193
▁küllaltki	-6194
▁kättesaadav	-6195
▁rahvasaadikut	-6196
▁Läh	-6197
entide	-6198
▁sunni	-6199
▁määruse	-6200
▁arenguka	-6201
▁vanemahüvit	-6202
▁Laan	-6203
misena	-6204
▁linnas	-6205
▁maksud	-6206
▁keskmiselt	-6207
fer	-6208
▁Jõ	-6209
neid	-6210
umaa	-6211
▁tase	-6212
▁ülal	-6213
▁reaalne	-6214
▁paljudel	-6215
▁detsembri	-6216
▁kohustuse	-6217
▁ge	-6218
▁rä	-6219
helt	-6220
▁400	-6221
iksid	-6222
▁amme	-6223
▁audit	-6224
▁küsiti	-6225
▁komisjonide	-6226
era	-6227
lub	-6228
posi	-6229
▁Märt	-6230
▁põlv	-6231
▁Liitu	-6232
▁tulid	-6233
▁isikut	-6234
verentsi	-6235
▁ammenda	-6236
▁mõjutada	-6237
▁tõenäosusega	-6238
▁põllumajandust	-6239
deko	-6240
duses	-6241
▁Tänane	-6242
▁Lugupeetav	-6243
TÜ	-6244
joon	-6245
tund	-6246
▁Eriti	-6247
▁öeldi	-6248
▁riigihan	-6249
hti	-6250
▁25.	-6251
▁Riis	-6252
omanik	-6253
▁hakkas	-6254
▁seisuga	-6255
▁Ülikooli	-6256
ministrina	-6257
▁Riigikaitse	-6258
▁valitsusliik	-6259
▁kütuseaktsiisi	-6260
nar	-6261
imis	-6262
▁asub	-6263
▁jutu	-6264
▁tark	-6265
▁Inara	-6266
▁immig	-6267
▁vahendi	-6268
▁välista	-6269
▁neljanda	-6270
▁poliitikat	-6271
▁riigieelarvesse	-6272
Mul	-6273
▁Pärnu	-6274
▁arvab	-6275
kandeks	-6276
▁arutle	-6277
▁muutus	-6278
▁sektoris	-6279
▁kommunikatsioon	-6280
stit	-6281
▁pih	-6282
▁soe	-6283
etusi	-6284
▁Erki	-6285
▁jõudis	-6286
▁oleksime	-6287
ikatsiooni	-6288
üld	-6289
oses	-6290
▁50%	-6291
aldor	-6292
▁kütte	-6293
▁taust	-6294
▁aruand	-6295
▁seatud	-6296
▁viiakse	-6297
▁kasutanud	-6298
nor	-6299
rdin	-6300
tamis	-6301
▁1000	-6302
▁5000	-6303
▁Siim	-6304
▁hoole	-6305
▁Laanet	-6306
▁sulgen	-6307
▁tulude	-6308
▁Saarema	-6309
▁esitati	-6310
▁soovitan	-6311
▁valimised	-6312
git	-6313
sahk	-6314
erite	-6315
▁appi	-6316
▁kaar	-6317
▁Minul	-6318
Külliki	-6319
▁Prantsus	-6320
▁teistest	-6321
kvaa	-6322
alisi	-6323
▁Tsahk	-6324
▁omand	-6325
▁Eesmaa	-6326
▁arvamusi	-6327
tast	-6328
Teine	-6329
▁Rõiva	-6330
▁allik	-6331
▁kehtivad	-6332
▁maksavad	-6333
▁maksuvaba	-6334
▁Ef	-6335
erib	-6336
üroo	-6337
▁23.	-6338
▁tre	-6339
▁Teil	-6340
▁küsib	-6341
▁umbus	-6342
▁varja	-6343
▁avalikus	-6344
Lugupeetav	-6345
mide	-6346
▁bus	-6347
samad	-6348
▁hanke	-6349
▁kalli	-6350
antsele	-6351
▁Efendi	-6352
▁toimuma	-6353
▁mismoodi	-6354
gula	-6355
▁võid	-6356
▁Algab	-6357
▁hetke	-6358
▁takso	-6359
▁koolid	-6360
▁eesmärgid	-6361
▁teistpidi	-6362
▁poliitikas	-6363
itsa	-6364
ldar	-6365
tarv	-6366
iniku	-6367
▁Eile	-6368
▁tagab	-6369
▁võtan	-6370
▁teenus	-6371
▁luuakse	-6372
▁teoreet	-6373
▁transpordi	-6374
▁parlamentaar	-6375
MK	-6376
iteen	-6377
▁muga	-6378
ilises	-6379
▁Tahan	-6380
▁ometi	-6381
tustega	-6382
▁vormis	-6383
protsessi	-6384
▁praegust	-6385
korralduse	-6386
rei	-6387
likust	-6388
▁reklaami	-6389
▁tähtsusega	-6390
üles	-6391
▁RMK	-6392
▁ollakse	-6393
imõiguste	-6394
▁kinnitatud	-6395
istõ	-6396
▁joon	-6397
▁elama	-6398
▁Lihtsalt	-6399
▁rõhutada	-6400
▁tutvustas	-6401
▁strateegia	-6402
ees	-6403
▁Esi	-6404
leping	-6405
▁Kalju	-6406
▁nõuda	-6407
▁takist	-6408
▁käsitleda	-6409
komisjonile	-6410
▁USA	-6411
▁oligi	-6412
▁metood	-6413
▁otsida	-6414
▁toetas	-6415
võimalik	-6416
▁Tsahkna	-6417
▁kuskile	-6418
▁vastavad	-6419
▁suurendab	-6420
▁piirivalve	-6421
▁poliitikud	-6422
iner	-6423
kogus	-6424
ümpia	-6425
▁lipu	-6426
▁avata	-6427
▁teete	-6428
▁panustada	-6429
▁nimetasite	-6430
▁emotsionaal	-6431
tsion	-6432
▁Enam	-6433
▁jutuks	-6434
▁tänada	-6435
▁internet	-6436
▁kohtusse	-6437
▁otsusega	-6438
▁sunnitud	-6439
▁valguses	-6440
▁lahendatud	-6441
▁peaministrile	-6442
ske	-6443
▁AS	-6444
inas	-6445
inge	-6446
▁MTÜ	-6447
grupp	-6448
sõidu	-6449
▁Palo	-6450
istõttu	-6451
▁Täpselt	-6452
▁reeglite	-6453
▁interneti	-6454
▁Valitsusele	-6455
jevi	-6456
dagoo	-6457
▁sõlmi	-6458
▁teaduse	-6459
▁eesmärke	-6460
▁44	-6461
kult	-6462
▁30.	-6463
▁Var	-6464
▁mun	-6465
▁Sele	-6466
▁kuri	-6467
▁astuda	-6468
▁august	-6469
▁elektrit	-6470
▁püütakse	-6471
▁vanemate	-6472
▁õigusakt	-6473
ased	-6474
giks	-6475
itur	-6476
▁10%	-6477
▁Met	-6478
aalne	-6479
▁tihe	-6480
▁pluss	-6481
▁sõita	-6482
halduse	-6483
▁alguse	-6484
▁tarvis	-6485
▁Auväärt	-6486
▁kodanike	-6487
▁mistõttu	-6488
▁Seaduseelnõu	-6489
jana	-6490
▁Lii	-6491
▁Väh	-6492
▁Mari	-6493
▁saar	-6494
▁Meile	-6495
▁omavalitsusele	-6496
tta	-6497
▁29	-6498
▁bi	-6499
▁eaka	-6500
ritise	-6501
▁korter	-6502
rastrukt	-6503
▁ajakirja	-6504
▁täidetud	-6505
▁territooriumil	-6506
▁amb	-6507
▁pre	-6508
osoof	-6509
▁suhe	-6510
▁sula	-6511
▁äsja	-6512
jatest	-6513
ulgeoleku	-6514
▁asjadest	-6515
▁kõikides	-6516
▁näidanud	-6517
▁ülesannete	-6518
Al	-6519
velt	-6520
▁Pall	-6521
▁sool	-6522
▁Kallo	-6523
▁vääri	-6524
▁sammud	-6525
▁Savisaar	-6526
▁vahendite	-6527
▁mitmesuguseid	-6528
jast	-6529
õukogu	-6530
eerivad	-6531
▁person	-6532
▁praktikas	-6533
▁kaitseväel	-6534
▁täitmiseks	-6535
!""	-6536
luba	-6537
vastase	-6538
▁tubaka	-6539
▁Eesmärk	-6540
▁kutsuda	-6541
▁mingite	-6542
▁oleksin	-6543
▁võimatu	-6544
▁muudetud	-6545
▁suudavad	-6546
▁Vastupidi	-6547
▁hääletama	-6548
▁praegusel	-6549
▁ettenähtud	-6550
▁juhatusele	-6551
▁investeerida	-6552
2,	-6553
rge	-6554
▁Sta	-6555
atiat	-6556
semat	-6557
▁aset	-6558
▁tundu	-6559
▁Kohalik	-6560
▁riigist	-6561
▁hommikul	-6562
▁igapäeva	-6563
▁kuulsime	-6564
▁osalenud	-6565
▁kodanikud	-6566
▁õigusloome	-6567
▁omavalitsustel	-6568
▁elav	-6569
▁Maris	-6570
▁halvasti	-6571
▁tegemise	-6572
▁põhjaliku	-6573
▁korraldamise	-6574
▁tan	-6575
▁ootame	-6576
▁kuriteo	-6577
▁ühiskonnale	-6578
▁vas	-6579
itused	-6580
▁kritise	-6581
▁pakkunud	-6582
▁kujunenud	-6583
II	-6584
ülik	-6585
emale	-6586
▁poleks	-6587
päraselt	-6588
▁aitavad	-6589
▁rahapes	-6590
▁millises	-6591
▁tulubaasi	-6592
▁rahvastiku	-6593
akti	-6594
ssid	-6595
tuna	-6596
▁Inf	-6597
▁Vak	-6598
damise	-6599
▁propa	-6600
▁nõudeid	-6601
▁eelnõusse	-6602
▁Riigikokku	-6603
ohu	-6604
▁Kiis	-6605
▁Ansip	-6606
õpetaja	-6607
▁ainuke	-6608
▁igaüks	-6609
▁kaugel	-6610
▁motiva	-6611
tsioonid	-6612
akadeemia	-6613
▁jaanuari	-6614
▁kohalikke	-6615
▁kolmandat	-6616
▁missiooni	-6617
▁riigisise	-6618
▁ministeeriumis	-6619
kordi	-6620
küsimus	-6621
▁standa	-6622
▁Vabariik	-6623
▁toimuvad	-6624
▁tõstmine	-6625
▁diskrimin	-6626
▁käesoleva	-6627
▁põllumeest	-6628
põ	-6629
▁46	-6630
ente	-6631
tari	-6632
▁Pen	-6633
Valdor	-6634
afrika	-6635
▁rände	-6636
▁delega	-6637
▁viidud	-6638
▁suhtumine	-6639
▁tegevused	-6640
▁Parlamendi	-6641
▁liikmesriikide	-6642
palk	-6643
sesse	-6644
▁Mõne	-6645
▁juuni	-6646
▁vanem	-6647
▁langeb	-6648
▁lähtuda	-6649
▁kasvavad	-6650
▁taotluse	-6651
▁paralleel	-6652
▁sõnavõtus	-6653
▁registreerus	-6654
▁47	-6655
ajalt	-6656
asart	-6657
ruumi	-6658
▁2018	-6659
▁Küllap	-6660
▁kestab	-6661
▁koolil	-6662
▁uuring	-6663
kantsler	-6664
▁erineva	-6665
▁projekte	-6666
▁õpilaste	-6667
▁argumente	-6668
▁hoolimata	-6669
▁gümnaasiumise	-6670
▁taastuvenergia	-6671
0-	-6672
▁muul	-6673
▁palve	-6674
▁pidades	-6675
▁kompeten	-6676
kooli	-6677
▁kaasas	-6678
▁maapiir	-6679
▁liberaal	-6680
▁järjepide	-6681
▁siinsamas	-6682
▁43	-6683
inde	-6684
▁kõn	-6685
▁tõin	-6686
dekvaa	-6687
kusest	-6688
▁pihta	-6689
▁teilt	-6690
▁Seadus	-6691
▁liigub	-6692
asartmän	-6693
▁hääletuse	-6694
tra	-6695
itav	-6696
ühis	-6697
▁Kar	-6698
▁Vaadake	-6699
▁lasteai	-6700
▁Saksamaa	-6701
▁erikomisjoni	-6702
iministeeriumi	-6703
▁ah	-6704
minut	-6705
▁kaob	-6706
▁post	-6707
▁päri	-6708
▁püst	-6709
▁2010.	-6710
▁senti	-6711
▁sulge	-6712
▁adekvaa	-6713
▁suverään	-6714
▁tutvustada	-6715
op	-6716
erik	-6717
▁rahu	-6718
▁lähtub	-6719
▁tagama	-6720
▁ühistranspord	-6721
ühma	-6722
▁Kri	-6723
▁vih	-6724
isime	-6725
▁piin	-6726
Martin	-6727
▁vahend	-6728
▁ütleks	-6729
majanduse	-6730
▁piiriüle	-6731
▁ettevõtjatele	-6732
ron	-6733
hinn	-6734
plaus	-6735
tasude	-6736
▁reklaam	-6737
▁konservatiiv	-6738
tun	-6739
alis	-6740
▁rai	-6741
▁Kust	-6742
▁jään	-6743
▁uudis	-6744
▁tulemused	-6745
spetsialist	-6746
▁parandusette	-6747
puh	-6748
rig	-6749
▁peh	-6750
▁spe	-6751
gleid	-6752
juhtu	-6753
etakse	-6754
▁Annan	-6755
▁avasta	-6756
▁kohane	-6757
▁saamiseks	-6758
▁haldusreform	-6759
▁Ni	-6760
▁õl	-6761
▁koju	-6762
▁paik	-6763
▁kasuks	-6764
▁ühenda	-6765
▁kontsep	-6766
▁võimekus	-6767
▁Aa	-6768
tsus	-6769
–201	-6770
▁pered	-6771
▁tõkesta	-6772
▁üheselt	-6773
▁teeninda	-6774
▁ran	-6775
kaalu	-6776
▁kala	-6777
▁põle	-6778
▁siga	-6779
likule	-6780
▁laiali	-6781
▁turule	-6782
▁inglise	-6783
▁jälgida	-6784
▁suureks	-6785
▁tegemisel	-6786
▁Arupärijate	-6787
erin	-6788
fgan	-6789
▁Võru	-6790
▁Vakra	-6791
▁Riisalu	-6792
▁tulebki	-6793
umma	-6794
▁demo	-6795
▁elat	-6796
▁Linna	-6797
▁tehta	-6798
▁arvuta	-6799
▁kabine	-6800
▁suuresti	-6801
▁Süü	-6802
▁ühtl	-6803
▁eeldan	-6804
mehhanis	-6805
▁elaniku	-6806
▁osalesid	-6807
dub	-6808
giga	-6809
kule	-6810
artne	-6811
vikus	-6812
▁2020	-6813
▁Rata	-6814
▁2020.	-6815
▁Seoses	-6816
▁Vastus	-6817
koormuse	-6818
▁Praegune	-6819
jutus	-6820
valim	-6821
▁Isegi	-6822
▁Muuda	-6823
susväär	-6824
▁hooldus	-6825
▁sisuline	-6826
▁menetlust	-6827
▁kinnitanud	-6828
▁töökohtade	-6829
eas	-6830
arve	-6831
eris	-6832
tasid	-6833
▁Raid	-6834
▁jäid	-6835
▁ukse	-6836
▁olime	-6837
▁panema	-6838
▁tingitud	-6839
▁vähendab	-6840
▁piirkonna	-6841
▁Arupärimisele	-6842
▁kooseluseaduse	-6843
auto	-6844
▁Põl	-6845
▁Pomer	-6846
▁olene	-6847
▁mingis	-6848
▁ulatus	-6849
▁väidan	-6850
▁kindlalt	-6851
▁krediidi	-6852
▁oktoobri	-6853
▁selgitas	-6854
▁Pomerants	-6855
▁laiendada	-6856
▁funktsioon	-6857
▁suurusjärgus	-6858
.)"	-6859
gne	-6860
eamet	-6861
▁kohti	-6862
▁jätkan	-6863
▁leiame	-6864
programm	-6865
▁esitama	-6866
▁pikendada	-6867
▁ressursse	-6868
▁rääkimata	-6869
▁väiksemad	-6870
▁leh	-6871
jaama	-6872
võimu	-6873
▁2013	-6874
▁Boro	-6875
musega	-6876
ustati	-6877
▁Anvelt	-6878
▁pankro	-6879
▁üleüld	-6880
▁Balticu	-6881
▁algatada	-6882
▁esitasid	-6883
▁kulutused	-6884
▁parlamendiliik	-6885
avad	-6886
▁kip	-6887
▁lõpeb	-6888
▁seada	-6889
▁Borodit	-6890
▁algatas	-6891
▁paremat	-6892
▁ajakirjand	-6893
▁elanikkonna	-6894
▁seaduseelnõuga	-6895
imalt	-6896
▁Toon	-6897
▁ürit	-6898
▁Eelnõ	-6899
▁ainus	-6900
▁reser	-6901
▁seekord	-6902
▁ettepanekul	-6903
alga	-6904
▁ajada	-6905
▁teabe	-6906
▁võrgu	-6907
▁puuetega	-6908
▁ebaseadus	-6909
▁eelarvestratee	-6910
▁erivajadustega	-6911
▁nal	-6912
oetuse	-6913
▁toona	-6914
ubanduse	-6915
▁jõustub	-6916
▁pädevus	-6917
▁riikidest	-6918
▁paragrahvi	-6919
kuid	-6920
turu	-6921
eniss	-6922
▁Pean	-6923
▁Rainer	-6924
▁kuuluta	-6925
▁kõigest	-6926
▁tähtsam	-6927
▁kohtunik	-6928
▁Põhimõtte	-6929
▁Iseenesest	-6930
▁Piirivalveameti	-6931
ün	-6932
ure	-6933
▁tere	-6934
▁vaik	-6935
aduste	-6936
▁huvid	-6937
▁Tuletan	-6938
▁seejärel	-6939
▁olemasolu	-6940
▁kasutamist	-6941
▁võimalikud	-6942
▁rahvaesinda	-6943
▁konsensuslik	-6944
...	-6945
elli	-6946
etult	-6947
temaat	-6948
▁aruande	-6949
▁pöörata	-6950
▁keerulise	-6951
llumajandus	-6952
▁täiendavat	-6953
▁raamatupida	-6954
Eest	-6955
vaat	-6956
▁foo	-6957
matud	-6958
▁lõppu	-6959
▁kaasata	-6960
▁lubanud	-6961
▁rahulikult	-6962
▁infrastrukt	-6963
raat	-6964
▁pani	-6965
▁toit	-6966
▁Lutse	-6967
eliselt	-6968
projekt	-6969
▁sõnaga	-6970
▁toetan	-6971
▁võrdle	-6972
▁majanda	-6973
vahendeid	-6974
▁hinnangut	-6975
▁kasutades	-6976
▁49	-6977
muga	-6978
▁26.	-6979
õigust	-6980
▁suvel	-6981
▁teeks	-6982
▁ametnike	-6983
▁digitaal	-6984
▁Vabandust	-6985
▁eesmärgil	-6986
▁vastutuse	-6987
▁taristuminist	-6988
kol	-6989
euro	-6990
▁Pank	-6991
▁ümbr	-6992
fondide	-6993
olevalt	-6994
imetatud	-6995
▁hindate	-6996
▁tulemust	-6997
▁piirangud	-6998
▁tasakaalus	-6999
▁riigireformi	-7000
▁surve	-7001
▁Sellist	-7002
▁kompensa	-7003
▁printsiip	-7004
▁initsiatiiv	-7005
▁rahvusvaheline	-7006
rabi	-7007
▁Sib	-7008
▁ping	-7009
▁enese	-7010
▁tunda	-7011
▁Kohtla	-7012
▁üleand	-7013
▁Põhjama	-7014
▁loetelu	-7015
▁tegemiseks	-7016
▁esmaspäeval	-7017
▁kõikvõimalik	-7018
sume	-7019
tsed	-7020
elnud	-7021
▁Lemb	-7022
▁Afgan	-7023
▁okupa	-7024
▁tausta	-7025
▁tuleme	-7026
▁töötus	-7027
▁Karilaid	-7028
▁kogukonna	-7029
▁maksumuuda	-7030
▁avalikkusele	-7031
▁moodustamine	-7032
oode	-7033
▁Ent	-7034
gevust	-7035
▁ideed	-7036
▁Narvas	-7037
▁korrig	-7038
tamisega	-7039
▁iseenda	-7040
▁kuivõrd	-7041
▁lapsele	-7042
▁puhtalt	-7043
▁juhtinud	-7044
▁nõuetele	-7045
▁pikemalt	-7046
▁ressursi	-7047
▁teemadel	-7048
enäoliselt	-7049
▁võimaliku	-7050
ikomisjonis	-7051
▁ettevõtteid	-7052
▁igasuguseid	-7053
▁riigihalduse	-7054
▁huve	-7055
▁lõige	-7056
▁kasutab	-7057
▁tegutseda	-7058
▁jõustumise	-7059
▁läbirääkimistel	-7060
bo	-7061
▁lenn	-7062
▁Neeme	-7063
▁matuse	-7064
▁naised	-7065
▁määrati	-7066
investeer	-7067
▁enamasti	-7068
▁nõustuda	-7069
▁esindajate	-7070
▁muutmiseks	-7071
▁komisjonile	-7072
▁spetsialistid	-7073
etöö	-7074
Aplaus	-7075
erimis	-7076
▁vaidlus	-7077
▁populaar	-7078
▁lahendused	-7079
▁samasugune	-7080
▁lastekaitse	-7081
▁positsiooni	-7082
lid	-7083
▁28.	-7084
gused	-7085
ikule	-7086
vanem	-7087
▁2017	-7088
▁fond	-7089
▁lask	-7090
▁juhin	-7091
▁samba	-7092
▁näevad	-7093
▁selged	-7094
▁tõusnud	-7095
▁avalikku	-7096
▁hooldeko	-7097
▁otsusena	-7098
▁vastasin	-7099
▁väikesed	-7100
▁pealkirja	-7101
▁rahvastik	-7102
▁konkreetsete	-7103
alal	-7104
▁31.	-7105
Aivar	-7106
▁ehit	-7107
▁terro	-7108
▁kompon	-7109
▁avalikult	-7110
▁64	-7111
eneda	-7112
▁igale	-7113
▁viinud	-7114
▁saamise	-7115
▁viimased	-7116
▁peamiselt	-7117
▁suuremaid	-7118
▁prioriteed	-7119
▁põhimõtteline	-7120
ministeeriumiga	-7121
vim	-7122
▁mon	-7123
▁mehed	-7124
▁peast	-7125
▁vähema	-7126
▁õppima	-7127
ktsioone	-7128
▁olevate	-7129
▁töötama	-7130
▁eraldatud	-7131
▁küsimustega	-7132
▁stenogrammi	-7133
▁täiendavaid	-7134
▁ca	-7135
ravi	-7136
unkt	-7137
▁Laane	-7138
▁piima	-7139
▁üldist	-7140
▁spiiker	-7141
▁statistikat	-7142
▁väliskomisjoni	-7143
kass	-7144
lise	-7145
▁parim	-7146
▁debati	-7147
▁Jaanson	-7148
▁Tuiksoo	-7149
▁mõnikord	-7150
▁jätkusuutlik	-7151
vägi	-7152
aalse	-7153
▁Sild	-7154
▁lükka	-7155
▁ootab	-7156
▁kinnip	-7157
▁häälteen	-7158
▁osalevad	-7159
▁viimaste	-7160
▁veebruari	-7161
▁OE	-7162
utöö	-7163
▁Lenk	-7164
▁vorm	-7165
▁asutus	-7166
▁esitaja	-7167
▁kolmandale	-7168
▁Vabaerakond	-7169
▁ettevõtjaid	-7170
väel	-7171
▁sti	-7172
Proua	-7173
▁õigel	-7174
▁Kolmas	-7175
▁eriala	-7176
asutused	-7177
▁täiendav	-7178
▁demograaf	-7179
ringhäälingu	-7180
▁korraldatud	-7181
joo	-7182
iver	-7183
kulu	-7184
▁Aeg	-7185
▁tend	-7186
eameti	-7187
▁endal	-7188
▁olite	-7189
▁tugis	-7190
▁Luigas	-7191
▁läbivii	-7192
▁vastast	-7193
▁õiglane	-7194
▁kaitstud	-7195
▁maamaksu	-7196
▁senisest	-7197
▁konflikti	-7198
▁Post	-7199
▁Ühes	-7200
▁interv	-7201
▁moraal	-7202
▁raudte	-7203
▁läbivaa	-7204
▁sätestab	-7205
lah	-7206
man	-7207
Meie	-7208
deid	-7209
kurite	-7210
▁munitsi	-7211
▁teistel	-7212
▁tänapäeva	-7213
▁töölepingu	-7214
▁piirkondades	-7215
kam	-7216
tsu	-7217
▁29.	-7218
▁õht	-7219
rüsse	-7220
▁Amet	-7221
anenud	-7222
▁konta	-7223
▁laadi	-7224
▁pandi	-7225
▁kommun	-7226
materjal	-7227
▁Tõenäoliselt	-7228
ministeeriumil	-7229
▁lõppkokkuvõttes	-7230
▁53	-7231
▁hetk	-7232
▁usal	-7233
endaks	-7234
keskuse	-7235
▁Brüsse	-7236
▁Pentus	-7237
▁kümneid	-7238
▁küsitud	-7239
▁Eelmisel	-7240
▁asjadega	-7241
▁eelnõule	-7242
▁kooskõlla	-7243
▁võimelised	-7244
▁Ele	-7245
▁ton	-7246
▁firma	-7247
▁loomine	-7248
▁Viljandi	-7249
▁võrdselt	-7250
▁paragrahv	-7251
▁täiendava	-7252
▁tingimustes	-7253
▁proportsionaal	-7254
Ra	-7255
das	-7256
▁am	-7257
visi	-7258
▁Osa	-7259
▁heas	-7260
▁tööga	-7261
▁hinnad	-7262
sektoris	-7263
▁arengut	-7264
▁üldjuhul	-7265
▁ettepanekute	-7266
▁Läbirääkimiste	-7267
fir	-7268
▁6,	-7269
Esime	-7270
andada	-7271
▁kunst	-7272
▁univer	-7273
▁vaatab	-7274
▁arengus	-7275
▁regioon	-7276
▁esimeses	-7277
▁Efendijev	-7278
▁ministrina	-7279
▁juriidilise	-7280
▁tervishoius	-7281
evad	-7282
võimet	-7283
▁Eelkõ	-7284
astatel	-7285
▁esindus	-7286
▁tuuakse	-7287
▁eelmisele	-7288
▁hinnatõus	-7289
▁ambitsioon	-7290
▁gümnaasium	-7291
▁aktsiisitõus	-7292
▁fraktsioonid	-7293
▁1%	-7294
▁is	-7295
Naer	-7296
liks	-7297
sika	-7298
uule	-7299
▁arh	-7300
senaari	-7301
▁paremad	-7302
▁piirata	-7303
▁kahtlust	-7304
▁loomulik	-7305
▁rääkisid	-7306
▁korruptsioon	-7307
▁riigieelarvet	-7308
▁Era	-7309
isuse	-7310
▁Pärn	-7311
▁ütel	-7312
siooni	-7313
▁pilti	-7314
▁juhuks	-7315
▁Seletus	-7316
▁kadunud	-7317
▁siiralt	-7318
▁Eelnõuga	-7319
▁korrektne	-7320
▁loa	-7321
▁baas	-7322
▁korr	-7323
ustusi	-7324
▁Seeder	-7325
osakonna	-7326
▁lähedal	-7327
▁mandaadi	-7328
▁Põhimõtteliselt	-7329
ban	-7330
div	-7331
▁muide	-7332
▁saagi	-7333
asutust	-7334
▁edenda	-7335
▁infotehn	-7336
▁avaldanud	-7337
▁eksperdid	-7338
▁tulemusel	-7339
▁vabatahtlik	-7340
▁maaeluminist	-7341
müü	-7342
▁78	-7343
▁hõ	-7344
galt	-7345
▁tõr	-7346
usalt	-7347
▁aina	-7348
▁sääst	-7349
Mihhail	-7350
▁eelmises	-7351
▁minnakse	-7352
▁kavandatud	-7353
▁vastuvõtmist	-7354
▁Läbirääkimisi	-7355
ch	-7356
lü	-7357
utult	-7358
▁oste	-7359
▁Poola	-7360
▁tubli	-7361
▁täide	-7362
osimann	-7363
▁kohalikel	-7364
▁organisatsiooni	-7365
▁Lo	-7366
▁24.	-7367
▁sind	-7368
▁Kotka	-7369
▁asutuse	-7370
▁Nõukogude	-7371
▁olukorrast	-7372
▁otstarbekas	-7373
jä	-7374
Urve	-7375
▁dip	-7376
▁tolle	-7377
▁liikmel	-7378
▁kõikidel	-7379
▁universa	-7380
▁koosoleku	-7381
▁sotsiaalkaitse	-7382
bri	-7383
tma	-7384
järje	-7385
ustel	-7386
▁kaud	-7387
▁mini	-7388
ifitse	-7389
▁samad	-7390
▁teadma	-7391
▁filosoof	-7392
▁määratle	-7393
▁noortele	-7394
▁Riigikohus	-7395
▁Tolliameti	-7396
▁tööminister	-7397
▁erivajadusega	-7398
vil	-7399
▁52	-7400
hinna	-7401
kasva	-7402
ustes	-7403
▁harj	-7404
otstar	-7405
põhine	-7406
▁2008.	-7407
▁Ütlen	-7408
▁rahvale	-7409
▁hääletamist	-7410
▁kahetsusväär	-7411
kah	-7412
▁54	-7413
gema	-7414
kkus	-7415
▁Mõni	-7416
▁saja	-7417
▁Harju	-7418
▁narko	-7419
▁regul	-7420
▁arvavad	-7421
▁kohtute	-7422
▁omaette	-7423
▁administ	-7424
▁süüdista	-7425
▁valikuid	-7426
▁tulenevad	-7427
▁algatajate	-7428
ministeeriumist	-7429
▁57	-7430
Vaba	-7431
inii	-7432
siku	-7433
unnet	-7434
▁koole	-7435
▁tulud	-7436
▁tohutu	-7437
antselei	-7438
▁toetame	-7439
▁arutelud	-7440
▁leitakse	-7441
▁taastada	-7442
▁igasugune	-7443
▁põhiliselt	-7444
ministeeriumile	-7445
▁90	-7446
▁por	-7447
imise	-7448
ustöö	-7449
▁lood	-7450
▁turg	-7451
▁leian	-7452
▁loota	-7453
ikuinii	-7454
▁kantud	-7455
▁jätkame	-7456
▁vastava	-7457
▁õigemini	-7458
▁säilitada	-7459
▁keskmisest	-7460
▁väljakutse	-7461
▁õnnestunud	-7462
▁c	-7463
ism	-7464
paal	-7465
eldud	-7466
▁diis	-7467
Kaitse	-7468
tavaks	-7469
▁elanud	-7470
▁leitud	-7471
kurentsi	-7472
menetlus	-7473
olukorra	-7474
▁Statist	-7475
▁andmise	-7476
▁intressi	-7477
ustamiseks	-7478
▁kirjalikult	-7479
▁kodakondsust	-7480
▁tagantjärele	-7481
▁elektroonilise	-7482
Vä	-7483
iret	-7484
Kõige	-7485
▁kitsas	-7486
▁Tervise	-7487
▁loomise	-7488
▁üksmeel	-7489
▁mõistlikum	-7490
▁rahastamist	-7491
▁esindajatega	-7492
iera	-7493
likü	-7494
vinud	-7495
elased	-7496
▁areng	-7497
▁tohib	-7498
stamise	-7499
▁lugema	-7500
▁Vaheaeg	-7501
▁Kaljuvee	-7502
▁vormista	-7503
▁esindatud	-7504
▁võimekust	-7505
▁majanduslik	-7506
▁lahendamiseks	-7507
▁millegipärast	-7508
▁Hil	-7509
▁Sis	-7510
▁tõm	-7511
▁jätab	-7512
▁Millal	-7513
▁otsima	-7514
▁suitse	-7515
▁Tähendab	-7516
▁matemaat	-7517
▁tegevusi	-7518
▁kampaania	-7519
▁esitatakse	-7520
▁õiguskomisjon	-7521
Henn	-7522
üksi	-7523
▁Keh	-7524
juhid	-7525
omaat	-7526
▁sule	-7527
ttunud	-7528
▁Pääst	-7529
▁soori	-7530
▁selget	-7531
▁aktuaal	-7532
▁liikuma	-7533
▁hääletus	-7534
▁seletada	-7535
▁viitasin	-7536
▁järgmistel	-7537
▁arengufondi	-7538
▁korralikult	-7539
▁nimetatakse	-7540
hes	-7541
iil	-7542
kub	-7543
▁39	-7544
rupi	-7545
▁Muu	-7546
▁arsti	-7547
▁madal	-7548
▁vaidle	-7549
▁võtate	-7550
▁kellest	-7551
▁Tolliamet	-7552
▁niikuinii	-7553
▁osapooled	-7554
▁temaatika	-7555
▁võis	-7556
efitsi	-7557
kabine	-7558
usesse	-7559
▁tõmba	-7560
ustades	-7561
▁paljus	-7562
▁teenist	-7563
▁vägivalla	-7564
▁Arupärimine	-7565
▁76	-7566
palgal	-7567
▁raama	-7568
andmete	-7569
▁Arengu	-7570
▁Maante	-7571
▁rahulda	-7572
▁lasteaeda	-7573
▁hääletamis	-7574
Urmas	-7575
samble	-7576
estades	-7577
▁temaga	-7578
▁tõenda	-7579
Rosimann	-7580
▁aegadel	-7581
▁andmine	-7582
▁saamata	-7583
▁tutvuda	-7584
▁tööstus	-7585
▁mandaati	-7586
▁meetmete	-7587
▁vastusest	-7588
▁kvalifitse	-7589
▁võimalikke	-7590
▁prokuratuur	-7591
▁erakonnakaas	-7592
▁sooj	-7593
aalselt	-7594
▁Mikser	-7595
▁juhtumi	-7596
▁ravimite	-7597
▁ministrit	-7598
▁pensionile	-7599
▁probleemiga	-7600
▁prokuratuuri	-7601
▁suurendamine	-7602
mele	-7603
orid	-7604
õuna	-7605
▁Jutt	-7606
▁pinn	-7607
▁Nelja	-7608
▁subje	-7609
utamine	-7610
▁Heimar	-7611
▁punktis	-7612
▁teadlik	-7613
▁päriselt	-7614
▁tähtaega	-7615
tluse	-7616
tsite	-7617
▁Luik	-7618
▁ajaga	-7619
▁kaase	-7620
▁uurida	-7621
▁korraks	-7622
▁liigume	-7623
▁mõtleme	-7624
▁vaatasin	-7625
▁tahaksime	-7626
▁erakordselt	-7627
aid	-7628
▁ausad	-7629
ipartne	-7630
▁kahtle	-7631
▁täidab	-7632
▁nähakse	-7633
▁eelnevalt	-7634
▁kokkuleppele	-7635
▁poliitilised	-7636
▁vabatahtlikult	-7637
mil	-7638
▁20%	-7639
▁Aav	-7640
▁Tee	-7641
aksid	-7642
▁Alati	-7643
▁Eldar	-7644
▁Küsin	-7645
▁hulle	-7646
▁katta	-7647
▁remon	-7648
▁Kruusi	-7649
▁endine	-7650
▁innova	-7651
▁leidma	-7652
▁kaevanda	-7653
▁objektiiv	-7654
▁pöördunud	-7655
▁vähendamine	-7656
▁42	-7657
tasin	-7658
raamatu	-7659
▁võrdse	-7660
▁partner	-7661
▁lõpetanud	-7662
▁paljudele	-7663
ites	-7664
▁võida	-7665
▁lastev	-7666
▁võtsid	-7667
▁lõpetan	-7668
▁ekspordi	-7669
▁kaasette	-7670
▁kahtluse	-7671
▁tegutsevad	-7672
▁arupärijate	-7673
▁vastutustund	-7674
▁arendustegevuse	-7675
mees	-7676
▁osu	-7677
▁Ming	-7678
▁müügi	-7679
itamine	-7680
▁välisma	-7681
▁sattunud	-7682
▁viidatud	-7683
▁tingimusi	-7684
▁tagasiside	-7685
▁kompetentsi	-7686
▁sotsiaalmaks	-7687
▁Asi	-7688
hinda	-7689
▁ettehe	-7690
▁suurel	-7691
▁Randjär	-7692
▁meedias	-7693
▁tervita	-7694
▁dokumendi	-7695
▁praktikat	-7696
▁erasektori	-7697
▁kättesaadavus	-7698
hke	-7699
lit	-7700
äbi	-7701
▁68	-7702
▁Kiv	-7703
▁idea	-7704
▁küla	-7705
▁kallis	-7706
▁seisus	-7707
▁vahest	-7708
▁ajalugu	-7709
▁esialgu	-7710
▁kaitset	-7711
▁tööpuud	-7712
▁dokumend	-7713
▁kapitali	-7714
▁ääretult	-7715
▁Rahvusvahel	-7716
–2	-7717
▁kobar	-7718
▁mängu	-7719
▁rumal	-7720
▁ühegi	-7721
teerida	-7722
▁Lembit	-7723
▁nõuete	-7724
▁seisneb	-7725
▁sõlmida	-7726
▁Eestimaa	-7727
▁kohtades	-7728
▁optimist	-7729
▁rahapesu	-7730
▁riigiabi	-7731
▁kaugemale	-7732
▁tehnoloogia	-7733
▁riigikontrolör	-7734
eku	-7735
sik	-7736
uun	-7737
kate	-7738
▁raa	-7739
▁toote	-7740
▁viies	-7741
▁kliima	-7742
▁makstud	-7743
▁teenida	-7744
▁kompleks	-7745
▁planeeri	-7746
▁reegleid	-7747
▁sisulist	-7748
▁vahelise	-7749
▁nõukogude	-7750
▁täiendada	-7751
▁poliitiliste	-7752
onoo	-7753
▁Ran	-7754
▁sin	-7755
▁Kaja	-7756
kasvan	-7757
▁kodule	-7758
▁neljas	-7759
▁töötasu	-7760
▁analüüsid	-7761
▁põhimõtet	-7762
▁Piirivalveamet	-7763
▁äh	-7764
britan	-7765
▁Liisa	-7766
▁tüüpi	-7767
▁varju	-7768
▁leiavad	-7769
asartmängu	-7770
▁võimeline	-7771
▁tööandjate	-7772
▁munitsipaal	-7773
uru	-7774
▁27.	-7775
▁lig	-7776
▁võimul	-7777
▁tõmmata	-7778
kaubandus	-7779
▁juhtimise	-7780
▁põhimõtted	-7781
▁Põllumajandus	-7782
▁taristuminister	-7783
jaa	-7784
▁7,	-7785
Minu	-7786
iigi	-7787
firma	-7788
stuse	-7789
▁Keegi	-7790
▁toodi	-7791
▁Estoni	-7792
▁laekub	-7793
▁loobuda	-7794
▁võrgust	-7795
▁saadakse	-7796
▁poolteist	-7797
▁Suurbritan	-7798
▁järelikult	-7799
vla	-7800
emis	-7801
▁Sii	-7802
▁häb	-7803
▁panus	-7804
▁püüab	-7805
▁hakati	-7806
▁Keskuse	-7807
▁näitaja	-7808
▁töötajad	-7809
▁rahvusvahelist	-7810
▁liin	-7811
▁omalt	-7812
▁vaidl	-7813
prognoo	-7814
▁aspekti	-7815
▁koordin	-7816
▁avaldada	-7817
▁kavatseb	-7818
▁ratsionaal	-7819
▁mingisugused	-7820
▁ministeeriumid	-7821
Jaak	-7822
gusid	-7823
mudel	-7824
likuma	-7825
poolse	-7826
▁17.15	-7827
▁Ester	-7828
▁Kiisler	-7829
▁eeskuju	-7830
▁muutnud	-7831
▁märkimisväärne	-7832
▁56	-7833
daja	-7834
kaks	-7835
hoidu	-7836
ingut	-7837
haigla	-7838
▁Poolt	-7839
▁peatu	-7840
▁juhtis	-7841
▁viitas	-7842
▁eeldada	-7843
▁mandaat	-7844
▁suuruse	-7845
▁taotlus	-7846
▁vanadus	-7847
▁ametikoh	-7848
▁eraldada	-7849
▁huvigrupp	-7850
▁seaduseks	-7851
▁arutatakse	-7852
▁sotsiaaltöö	-7853
▁Seletuskirja	-7854
dusele	-7855
▁kvalif	-7856
▁vägagi	-7857
riikides	-7858
Kaitseväe	-7859
▁soovinud	-7860
▁kohtuniku	-7861
▁kommentaar	-7862
▁ühistranspordi	-7863
uba	-7864
▁vea	-7865
Marti	-7866
▁naer	-7867
Valeri	-7868
▁täpne	-7869
ndamise	-7870
▁hävita	-7871
▁eespool	-7872
▁omaniku	-7873
▁soovitus	-7874
▁missugune	-7875
▁järgmiseks	-7876
▁kohalikule	-7877
▁Ministeerium	-7878
tell	-7879
utaga	-7880
▁kaeb	-7881
▁tahet	-7882
▁tunni	-7883
juhtide	-7884
▁aitaks	-7885
▁ootavad	-7886
▁tunnist	-7887
▁õppekava	-7888
▁eesistumise	-7889
▁ümberkorral	-7890
pääsu	-7891
utama	-7892
▁kvar	-7893
▁hange	-7894
grammis	-7895
▁jõutud	-7896
▁Stalnuhhini	-7897
▁paratamatult	-7898
Jüri	-7899
emat	-7900
oovi	-7901
▁riske	-7902
▁selts	-7903
aastane	-7904
päevane	-7905
▁euroga	-7906
▁tuntud	-7907
▁täielik	-7908
▁täitnud	-7909
▁arutluse	-7910
▁niisuguse	-7911
▁Järelikult	-7912
▁koosolekul	-7913
▁piiranguid	-7914
ino	-7915
kid	-7916
▁Kaia	-7917
▁Helir	-7918
▁kohati	-7919
▁seisma	-7920
▁võtaks	-7921
▁Kultuur	-7922
▁Palling	-7923
▁Rootsis	-7924
▁viienda	-7925
▁esimehena	-7926
▁järgmiste	-7927
▁Arvestades	-7928
▁positiivse	-7929
▁korteriühistu	-7930
▁konkurentsivõim	-7931
stan	-7932
▁Tür	-7933
juhti	-7934
tsust	-7935
▁tari	-7936
▁ühed	-7937
andjad	-7938
▁Kivim	-7939
kapitali	-7940
▁jõuavad	-7941
▁kõrgema	-7942
▁lootust	-7943
▁profess	-7944
▁Estonian	-7945
▁kriitika	-7946
▁majanduste	-7947
▁suurenenud	-7948
oku	-7949
▁Uu	-7950
puks	-7951
▁hek	-7952
▁ohu	-7953
habil	-7954
tusse	-7955
usime	-7956
▁"...	-7957
▁Olga	-7958
▁Võsa	-7959
▁Oleks	-7960
▁hamba	-7961
▁toreda	-7962
▁Ettevõt	-7963
▁Valimis	-7964
▁kohtutä	-7965
▁kohtuots	-7966
▁jõuliselt	-7967
▁koalitsioonis	-7968
▁58	-7969
▁61	-7970
▁71	-7971
tarbi	-7972
▁juhi	-7973
turval	-7974
▁Kelle	-7975
▁kehte	-7976
▁mures	-7977
▁peatü	-7978
▁refor	-7979
▁turva	-7980
▁polnud	-7981
▁kindlad	-7982
▁arenenud	-7983
▁Kruusimäe	-7984
▁tarbimine	-7985
▁nimetamine	-7986
▁täiskasvan	-7987
▁poliitiliselt	-7988
▁ravikindlustuse	-7989
geet	-7990
kida	-7991
▁voor	-7992
inenud	-7993
▁Aasta	-7994
▁häiri	-7995
▁kiita	-7996
▁kulub	-7997
▁puudus	-7998
▁erinevus	-7999
▁tulevast	-8000
▁esitamist	-8001
▁pakutakse	-8002
IS	-8003
pank	-8004
pääs	-8005
uudi	-8006
▁glo	-8007
goori	-8008
itest	-8009
▁anne	-8010
▁riku	-8011
▁aluse	-8012
▁juhid	-8013
keskkond	-8014
▁riigiga	-8015
▁häälteena	-8016
▁needsamad	-8017
▁valdavalt	-8018
tea	-8019
▁67	-8020
ondi	-8021
▁kaun	-8022
keskus	-8023
▁nalja	-8024
▁ruumi	-8025
▁doktor	-8026
▁jahime	-8027
▁olevad	-8028
▁tähend	-8029
▁vastav	-8030
▁defitsi	-8031
▁põhiõig	-8032
▁asutuste	-8033
▁rahalise	-8034
▁täpsustan	-8035
▁arutelusid	-8036
▁kilomeetrit	-8037
▁Kuu	-8038
aasis	-8039
duste	-8040
ikaal	-8041
kohti	-8042
▁Kask	-8043
▁grupp	-8044
▁aprilli	-8045
▁kujuneb	-8046
▁vaatate	-8047
▁maksuvab	-8048
▁palgalõh	-8049
▁summasid	-8050
▁mitmekesi	-8051
▁teenistuse	-8052
▁Prantsusmaa	-8053
ooru	-8054
▁fir	-8055
▁tap	-8056
▁Sara	-8057
seadust	-8058
▁parvla	-8059
▁veendum	-8060
▁ülimalt	-8061
▁kinnitan	-8062
▁kogemusi	-8063
▁kulutada	-8064
▁õiguslik	-8065
▁maakonnas	-8066
▁pensionis	-8067
▁aseesimehe	-8068
▁olukorraga	-8069
▁vaadatakse	-8070
eta	-8071
tead	-8072
▁prü	-8073
etsed	-8074
andida	-8075
ritele	-8076
▁mõtted	-8077
▁ülevõt	-8078
▁töökohad	-8079
▁Sisekaitse	-8080
▁argumendid	-8081
▁arusaamatuks	-8082
▁arvestatakse	-8083
▁valitsuskabine	-8084
mut	-8085
innas	-8086
▁atra	-8087
Monika	-8088
▁Mõned	-8089
▁lubab	-8090
▁Kaskpe	-8091
▁aegade	-8092
▁Lutsepp	-8093
▁miljardi	-8094
▁tugevalt	-8095
▁Tallinnast	-8096
▁sotsiaalse	-8097
oim	-8098
emas	-8099
▁lül	-8100
õnaga	-8101
▁majas	-8102
▁Sulgen	-8103
▁seista	-8104
▁aastaküm	-8105
▁nendesse	-8106
▁poliitik	-8107
▁tunnevad	-8108
▁rahastamis	-8109
▁menetluslikud	-8110
pakku	-8111
metunn	-8112
▁Laasi	-8113
▁säära	-8114
▁võist	-8115
▁kütust	-8116
▁maaoma	-8117
▁sajand	-8118
▁vaheaja	-8119
▁lahkunud	-8120
▁signaali	-8121
▁menetlusest	-8122
unne	-8123
ütle	-8124
▁sek	-8125
aalis	-8126
astal	-8127
insus	-8128
mando	-8129
▁Keit	-8130
▁Neil	-8131
▁Olgu	-8132
▁alam	-8133
akasva	-8134
▁Parts	-8135
utamise	-8136
▁astmel	-8137
▁paluda	-8138
▁peadire	-8139
▁sisulise	-8140
▁täiendus	-8141
▁Selliseid	-8142
▁majandusele	-8143
anti	-8144
ssil	-8145
▁Täi	-8146
minud	-8147
kusega	-8148
laselt	-8149
▁kohad	-8150
eldakse	-8151
tensiiv	-8152
▁täitev	-8153
▁Konkree	-8154
▁kuulsin	-8155
▁käivita	-8156
▁palkade	-8157
▁turismi	-8158
▁väärteo	-8159
▁vähemaks	-8160
▁rahvaesindajad	-8161
▁elektriaktsiisi	-8162
nii	-8163
▁72	-8164
uden	-8165
iteid	-8166
lükka	-8167
▁Kaks	-8168
▁telli	-8169
▁Tõniste	-8170
▁eelmist	-8171
▁informe	-8172
▁koolito	-8173
▁kinnitas	-8174
julgeoleku	-8175
▁protsendi	-8176
▁sõltumatu	-8177
▁Konkurentsi	-8178
imu	-8179
öid	-8180
ress	-8181
sina	-8182
prakt	-8183
tsiis	-8184
▁suve	-8185
ttevõt	-8186
▁peagi	-8187
▁suhted	-8188
▁vabalt	-8189
tsioonide	-8190
▁rahastus	-8191
▁vajaliku	-8192
teenistuse	-8193
▁sellisest	-8194
▁uuringuid	-8195
▁kolmandaks	-8196
5%	-8197
hul	-8198
▁2%	-8199
▁77	-8200
itle	-8201
kohad	-8202
utame	-8203
tajaid	-8204
▁Nemad	-8205
▁Tamme	-8206
▁baasi	-8207
▁hoiak	-8208
▁meest	-8209
▁tõhusa	-8210
▁lükatud	-8211
▁regulaar	-8212
▁Seepärast	-8213
▁liikumine	-8214
▁otsustama	-8215
▁selliseks	-8216
▁lisandväär	-8217
▁hääletamisele	-8218
▁kehtestatakse	-8219
alade	-8220
stama	-8221
▁Seni	-8222
▁Korbi	-8223
▁Sealt	-8224
▁refer	-8225
▁andsid	-8226
▁tõsist	-8227
▁rehabil	-8228
▁nominaal	-8229
▁tõlgenda	-8230
rme	-8231
ajal	-8232
alune	-8233
▁Tund	-8234
▁Halle	-8235
▁rahas	-8236
▁trend	-8237
▁valmi	-8238
▁endise	-8239
▁summat	-8240
kodakond	-8241
perioodi	-8242
▁muutuda	-8243
▁nädalat	-8244
▁asjatund	-8245
▁komisjonid	-8246
▁riigihange	-8247
▁tagasihoid	-8248
▁väljendanud	-8249
▁investeering	-8250
jed	-8251
▁sümp	-8252
kkunud	-8253
▁pulti	-8254
▁kaetud	-8255
▁odavam	-8256
▁plaanid	-8257
▁tänasel	-8258
iseeritud	-8259
▁Hallemaa	-8260
▁vastuvõe	-8261
▁moodustab	-8262
▁võimalike	-8263
kindlustuse	-8264
kto	-8265
ganda	-8266
nõude	-8267
tavas	-8268
▁rünna	-8269
keskust	-8270
▁number	-8271
▁õnneks	-8272
haridust	-8273
▁Liidust	-8274
▁Sarapuu	-8275
▁garanti	-8276
▁hinnaga	-8277
▁tervist	-8278
vahendite	-8279
▁alustame	-8280
▁lühikese	-8281
▁käitumine	-8282
▁ettekannet	-8283
▁koostamisel	-8284
▁vähendamise	-8285
▁välispoliitika	-8286
▁omavalitsustega	-8287
▁62	-8288
▁Sibul	-8289
▁käega	-8290
▁pikem	-8291
▁Paljud	-8292
▁jõudma	-8293
▁rahako	-8294
▁riigilt	-8295
▁süüdist	-8296
▁vaadake	-8297
▁Kivimägi	-8298
▁liiguvad	-8299
▁valimist	-8300
▁ülikooli	-8301
▁Kahtlemata	-8302
▁arusaamatu	-8303
▁koolilõuna	-8304
▁reguleerib	-8305
▁võimalikku	-8306
öderatsiooni	-8307
ale	-8308
teede	-8309
▁Euro	-8310
▁Juha	-8311
▁Pevku	-8312
▁hukka	-8313
▁kevad	-8314
▁küber	-8315
▁nägem	-8316
▁surma	-8317
▁jätkab	-8318
kõneleja	-8319
▁käituda	-8320
▁planeer	-8321
▁puuduvad	-8322
▁vastamise	-8323
▁kvaliteeti	-8324
▁positiivset	-8325
▁valimisring	-8326
sü	-8327
tut	-8328
▁79	-8329
▁päh	-8330
▁lõpu	-8331
▁keeru	-8332
▁koost	-8333
▁püüda	-8334
aliseer	-8335
vastane	-8336
▁minule	-8337
äbirääki	-8338
▁tegutseb	-8339
▁arutlusel	-8340
▁lahendama	-8341
▁vähemasti	-8342
▁konverentsi	-8343
▁põllumajanduse	-8344
sõnu	-8345
▁ren	-8346
istun	-8347
konto	-8348
▁Maks	-8349
▁arvad	-8350
▁asunud	-8351
▁kahest	-8352
▁Eelmise	-8353
▁esineja	-8354
▁käesole	-8355
▁lapsega	-8356
▁tekitas	-8357
keskkonda	-8358
▁autorite	-8359
▁diislikü	-8360
▁kehtinud	-8361
▁kuritarv	-8362
▁millisel	-8363
▁haldusalas	-8364
▁omavalitsusel	-8365
täh	-8366
▁mü	-8367
▁puhk	-8368
▁uhke	-8369
▁esitan	-8370
▁tulemas	-8371
▁üleüldse	-8372
▁stsenaari	-8373
▁tuginedes	-8374
▁maailmavaa	-8375
▁dokumentide	-8376
▁rakendamine	-8377
▁fraktsioonidel	-8378
Nagu	-8379
hkel	-8380
▁Üht	-8381
▁püha	-8382
gramme	-8383
ritest	-8384
▁Ometi	-8385
▁kõlab	-8386
uväärne	-8387
▁loogil	-8388
▁kinnitab	-8389
▁kriitikat	-8390
▁tingimata	-8391
▁menetlemine	-8392
ap	-8393
edel	-8394
rühm	-8395
▁Hol	-8396
▁Koo	-8397
▁Mõn	-8398
valda	-8399
vesta	-8400
▁tsen	-8401
▁jookse	-8402
▁kolmel	-8403
▁krooni	-8404
▁isikuid	-8405
▁vaadatud	-8406
▁kasvatada	-8407
▁töötajaid	-8408
▁Riigikogul	-8409
▁tööjõumaks	-8410
▁seletuskiri	-8411
msi	-8412
akte	-8413
▁Ken	-8414
▁eil	-8415
▁geo	-8416
Kalle	-8417
ladim	-8418
▁rohk	-8419
▁Laine	-8420
▁asjas	-8421
▁maade	-8422
▁eurost	-8423
tulundus	-8424
▁märgitud	-8425
▁uuringud	-8426
▁võrdõigus	-8427
▁saavutatud	-8428
▁majanduslikult	-8429
pik	-8430
adest	-8431
maail	-8432
▁Taha	-8433
punkti	-8434
▁Päris	-8435
▁Teise	-8436
▁hääli	-8437
▁õhtul	-8438
▁järsku	-8439
▁selgem	-8440
▁päevakord	-8441
▁teinekord	-8442
▁asjakohane	-8443
▁bürokraatia	-8444
▁Maaeluminist	-8445
▁Or	-8446
▁Kõva	-8447
ladimir	-8448
▁meeste	-8449
▁pagula	-8450
▁Oluline	-8451
▁piinlik	-8452
▁pretsed	-8453
▁takista	-8454
▁tahaksid	-8455
insuskaitse	-8456
▁Vassiljevi	-8457
▁missioonil	-8458
▁infrastruktuuri	-8459
tid	-8460
gile	-8461
mere	-8462
sena	-8463
maale	-8464
terin	-8465
▁tooma	-8466
▁tõhus	-8467
▁Ühelt	-8468
▁ühesu	-8469
uregist	-8470
vabaduse	-8471
▁euroala	-8472
▁sihtasu	-8473
Vabariigi	-8474
▁ilusasti	-8475
▁vaidlusi	-8476
▁intensiiv	-8477
▁eesmärgiks	-8478
▁tänapäeval	-8479
mne	-8480
▁63	-8481
▁11,	-8482
▁Valga	-8483
▁niigi	-8484
▁tuule	-8485
▁õigem	-8486
▁parima	-8487
▁sügava	-8488
▁algatab	-8489
▁kasutan	-8490
▁numbrid	-8491
programmi	-8492
▁perearsti	-8493
▁võimaluste	-8494
emõ	-8495
melt	-8496
võrk	-8497
▁Käes	-8498
▁ases	-8499
▁Mikko	-8500
▁lõuna	-8501
▁renov	-8502
▁sattu	-8503
▁üksiki	-8504
▁palgata	-8505
▁pooleli	-8506
Kõigepealt	-8507
▁seadustes	-8508
▁IM	-8509
komp	-8510
tude	-8511
ikesk	-8512
▁igaü	-8513
▁õlle	-8514
▁asuda	-8515
▁täiel	-8516
▁vasak	-8517
▁pangad	-8518
▁poolel	-8519
▁avaldus	-8520
▁eriarst	-8521
▁paistab	-8522
▁esimesed	-8523
▁tähendaks	-8524
▁riiklikult	-8525
koalitsiooni	-8526
▁liikmesriigid	-8527
▁66	-8528
iive	-8529
▁arma	-8530
damine	-8531
matuse	-8532
▁miski	-8533
▁Leedus	-8534
▁Loodan	-8535
▁koguda	-8536
▁pooled	-8537
▁Maruste	-8538
▁osutada	-8539
tamiskava	-8540
▁osakaalu	-8541
▁lähiaastatel	-8542
▁jama	-8543
kulusid	-8544
lastele	-8545
▁Partsi	-8546
▁mujalt	-8547
▁näited	-8548
▁sõbrad	-8549
▁vangla	-8550
▁kiirabi	-8551
▁valinud	-8552
▁rahaline	-8553
▁kummaline	-8554
▁maksuamet	-8555
▁hinnanguid	-8556
▁kriteerium	-8557
▁moodustada	-8558
▁8,	-8559
leppe	-8560
reklaa	-8561
▁Hääle	-8562
▁ajate	-8563
▁lubas	-8564
▁Mihkel	-8565
▁dialoo	-8566
▁eeldus	-8567
▁ohtlik	-8568
▁astunud	-8569
▁Assamble	-8570
▁suuremaks	-8571
▁eesmärkide	-8572
▁seisukohale	-8573
keti	-8574
▁Vel	-8575
▁vigu	-8576
kordse	-8577
▁2007.	-8578
▁pidur	-8579
ohutuse	-8580
▁akadee	-8581
▁määrus	-8582
▁mõlema	-8583
▁trahvi	-8584
▁turist	-8585
statakse	-8586
▁lähtuma	-8587
▁Eelkõige	-8588
▁maksmise	-8589
▁protsend	-8590
▁Venemaaga	-8591
▁ühtemoodi	-8592
▁Sisuliselt	-8593
▁praeguseks	-8594
▁tagamiseks	-8595
▁eelkõneleja	-8596
▁II	-8597
plan	-8598
siis	-8599
sist	-8600
iajal	-8601
▁Kinn	-8602
▁heit	-8603
▁uues	-8604
ikaasa	-8605
nevalt	-8606
ktorite	-8607
▁Kersna	-8608
▁meeles	-8609
▁väikse	-8610
▁aidanud	-8611
▁aruanne	-8612
▁muretse	-8613
poliitiline	-8614
▁asespiiker	-8615
▁südametunn	-8616
▁praktiliselt	-8617
adel	-8618
õude	-8619
▁2012	-8620
▁range	-8621
▁vaate	-8622
oetuste	-8623
▁Rannar	-8624
▁Tundub	-8625
▁andmeb	-8626
▁mainis	-8627
▁sätted	-8628
▁ütelda	-8629
▁Millest	-8630
▁koosneb	-8631
▁pakkuma	-8632
▁Aaviksoo	-8633
▁teadmine	-8634
▁tegelenud	-8635
▁õpetajaid	-8636
▁suurepärane	-8637
▁tingimustel	-8638
▁ER	-8639
geda	-8640
kuul	-8641
▁His	-8642
▁Allik	-8643
▁Põlva	-8644
▁globa	-8645
▁asuvad	-8646
▁diskute	-8647
▁juhitud	-8648
▁võrdsed	-8649
▁ainuüksi	-8650
▁piirkond	-8651
▁ministril	-8652
▁politsein	-8653
▁süsteemis	-8654
▁tekitatud	-8655
▁kohustatud	-8656
▁tegevuskava	-8657
rän	-8658
gent	-8659
etkel	-8660
▁Marr	-8661
▁Jälle	-8662
▁kanal	-8663
▁prokur	-8664
▁riskid	-8665
▁tundus	-8666
▁töötle	-8667
seaduses	-8668
▁alustan	-8669
▁kaugelt	-8670
▁kehtest	-8671
▁koormus	-8672
▁suurust	-8673
erimiseks	-8674
▁lepingut	-8675
▁kompromiss	-8676
▁teadlikult	-8677
▁fraktsioonis	-8678
EB	-8679
pä	-8680
hat	-8681
ikor	-8682
kval	-8683
▁Kir	-8684
▁Sih	-8685
▁ent	-8686
ikool	-8687
▁tööh	-8688
dusega	-8689
▁algul	-8690
▁asume	-8691
▁maini	-8692
asutuse	-8693
valiselt	-8694
▁ametiüh	-8695
▁olemuse	-8696
iminister	-8697
kontrolli	-8698
▁olukordi	-8699
▁kandidaadi	-8700
▁vastuvõtmiseks	-8701
rg	-8702
kil	-8703
▁73	-8704
▁VII	-8705
jõudu	-8706
imetsa	-8707
konsen	-8708
▁Kalvi	-8709
▁juhus	-8710
▁kange	-8711
lastega	-8712
▁koduma	-8713
▁eelista	-8714
▁valijate	-8715
▁põhimõtteid	-8716
▁põhimõttest	-8717
vali	-8718
vist	-8719
▁Ann	-8720
▁Kur	-8721
▁ori	-8722
ember	-8723
▁alal	-8724
▁seos	-8725
davalt	-8726
▁heade	-8727
▁juhib	-8728
▁rikka	-8729
▁küsime	-8730
▁mõnele	-8731
▁iseloom	-8732
▁kasutus	-8733
▁telefon	-8734
▁milliste	-8735
▁nimekiri	-8736
▁tegelnud	-8737
▁hindamise	-8738
▁küsitakse	-8739
▁pädevuses	-8740
▁äriühingu	-8741
▁üleskutse	-8742
▁otsustatud	-8743
▁analüüsinud	-8744
▁õiguskaitse	-8745
▁konstruktiiv	-8746
▁kooskõlastus	-8747
▁opositsioonis	-8748
ker	-8749
rvu	-8750
▁Hä	-8751
eelis	-8752
▁Nutt	-8753
▁ajas	-8754
komite	-8755
teenust	-8756
▁ammend	-8757
▁panuse	-8758
▁vabadus	-8759
▁väljast	-8760
▁kohtunud	-8761
▁nõusoleku	-8762
▁välistada	-8763
▁tegeldakse	-8764
▁põhiseadust	-8765
▁kättesaadavad	-8766
▁parandamiseks	-8767
aldu	-8768
kaid	-8769
märg	-8770
▁Aust	-8771
▁kena	-8772
▁kerg	-8773
▁sadu	-8774
Eestis	-8775
iskaal	-8776
koostöö	-8777
▁tegite	-8778
▁edasise	-8779
▁analüüse	-8780
▁asutused	-8781
▁kehtetuks	-8782
▁rõhutanud	-8783
▁sellisele	-8784
▁ülevaadet	-8785
▁Presidendi	-8786
▁moodustavad	-8787
▁bürokraatiat	-8788
▁seletuskirjast	-8789
▁lüü	-8790
oetus	-8791
▁Tehn	-8792
▁Eelar	-8793
▁enamus	-8794
▁esialg	-8795
▁salaja	-8796
▁edukalt	-8797
▁nagunii	-8798
▁abikaasa	-8799
▁kohalikul	-8800
▁kokkulepp	-8801
▁negatiivne	-8802
▁põllumehed	-8803
▁täiendamise	-8804
▁teadaolevalt	-8805
▁rahvasaadikud	-8806
ppu	-8807
aega	-8808
miga	-8809
▁150	-8810
▁Hii	-8811
▁Olu	-8812
▁jms	-8813
enist	-8814
matus	-8815
▁Taga	-8816
▁klassik	-8817
▁numbrit	-8818
▁prognoos	-8819
▁ülalpida	-8820
▁dokumente	-8821
▁kuritegude	-8822
▁tõstetakse	-8823
▁vähenemine	-8824
▁järjekorras	-8825
eep	-8826
olt	-8827
ksti	-8828
õidu	-8829
▁30%	-8830
▁Keele	-8831
▁infla	-8832
▁põgus	-8833
▁võeta	-8834
▁ühtne	-8835
ilisest	-8836
▁elatis	-8837
▁kõigis	-8838
▁sümpaa	-8839
kohustus	-8840
▁Sellisel	-8841
▁vahetult	-8842
▁eelarvega	-8843
▁valdkondi	-8844
▁elementaar	-8845
▁korrakaitse	-8846
▁60%	-8847
tuvad	-8848
▁Aval	-8849
▁Tegu	-8850
▁pisi	-8851
▁õpet	-8852
eaasta	-8853
rahast	-8854
semaid	-8855
ustaks	-8856
▁Maail	-8857
▁leiti	-8858
▁mitut	-8859
▁põgen	-8860
▁vaeva	-8861
mistest	-8862
▁piiril	-8863
▁retoor	-8864
▁kapital	-8865
▁tookord	-8866
▁kohustuslik	-8867
1,	-8868
Sa	-8869
itaar	-8870
rikku	-8871
uning	-8872
▁Kagu	-8873
▁Kuts	-8874
oetust	-8875
▁Metso	-8876
▁laulu	-8877
▁seksu	-8878
stamine	-8879
▁abista	-8880
▁aitama	-8881
▁näitas	-8882
▁arstide	-8883
▁ühtlasi	-8884
▁hoolitse	-8885
▁kohalikku	-8886
▁parlamenti	-8887
▁saavutanud	-8888
▁sissemakse	-8889
▁inimõiguste	-8890
▁delegatsiooni	-8891
Mina	-8892
▁40%	-8893
▁Jaa	-8894
▁Mõle	-8895
▁häbi	-8896
▁pähe	-8897
▁häält	-8898
▁igaks	-8899
▁treen	-8900
▁viisa	-8901
▁ähvar	-8902
▁Põhjus	-8903
▁parane	-8904
▁poolte	-8905
▁tulusid	-8906
kampaania	-8907
▁saadetud	-8908
▁sõnastus	-8909
▁lahendamise	-8910
▁situatsioon	-8911
ohv	-8912
▁74	-8913
obje	-8914
vane	-8915
▁Haa	-8916
▁nut	-8917
ustav	-8918
▁Võim	-8919
▁rahv	-8920
enevad	-8921
üsimus	-8922
vanemad	-8923
▁eurots	-8924
▁piirid	-8925
▁väitis	-8926
▁arstiabi	-8927
▁mäletate	-8928
▁registri	-8929
▁üheskoos	-8930
▁kõrgharidus	-8931
gad	-8932
ves	-8933
Väga	-8934
imus	-8935
mõju	-8936
nevad	-8937
▁Meri	-8938
▁hull	-8939
▁stre	-8940
▁Asume	-8941
▁värsk	-8942
▁kombel	-8943
▁madalam	-8944
▁pankade	-8945
▁väikeste	-8946
▁käitumist	-8947
▁realiseer	-8948
▁kokkulepet	-8949
▁muudatusega	-8950
▁arupärimiste	-8951
▁maksimaalselt	-8952
▁Tul	-8953
alast	-8954
▁muus	-8955
▁kahes	-8956
▁kuule	-8957
▁pidas	-8958
▁öelge	-8959
▁hilise	-8960
▁kommer	-8961
▁mobiil	-8962
▁osanud	-8963
▁kantsle	-8964
▁kestnud	-8965
▁koolita	-8966
▁palgast	-8967
▁sarnane	-8968
Virumaale	-8969
▁mõtlesin	-8970
▁teenistus	-8971
▁juhtimisel	-8972
▁valmistatud	-8973
▁põllumeestele	-8974
Too	-8975
▁bör	-8976
tsuse	-8977
▁Rait	-8978
▁Muuse	-8979
▁astme	-8980
▁elame	-8981
▁mõõde	-8982
▁nurga	-8983
▁pildi	-8984
▁välju	-8985
▁finant	-8986
▁määrab	-8987
▁osaleb	-8988
▁teenib	-8989
▁tiheda	-8990
Alustame	-8991
jalikult	-8992
▁fiskaal	-8993
▁saatnud	-8994
▁väitnud	-8995
▁Vladimir	-8996
▁sisaldab	-8997
▁väärtust	-8998
▁arvamused	-8999
▁transpord	-9000
▁volikogus	-9001
▁konkurents	-9002
▁stabiilsus	-9003
▁tunnustada	-9004
▁Ühendriikide	-9005
▁ostu	-9006
▁ülem	-9007
korrad	-9008
setele	-9009
▁Repsi	-9010
koolide	-9011
päevaks	-9012
▁nägema	-9013
▁Ütleme	-9014
▁akadeem	-9015
▁elanikud	-9016
▁niipalju	-9017
▁paljuski	-9018
▁allapoole	-9019
▁isikutele	-9020
▁kümneminut	-9021
▁tagajärjel	-9022
▁fikseeritud	-9023
▁valdkondade	-9024
▁õiguskomisjonis	-9025
kula	-9026
teema	-9027
tamata	-9028
▁nenti	-9029
▁psühh	-9030
▁sisust	-9031
▁töötas	-9032
▁maakond	-9033
▁teemast	-9034
▁toimuda	-9035
▁tööturul	-9036
▁õnnestub	-9037
▁panustama	-9038
▁koostamise	-9039
▁poliitikute	-9040
▁pensionäride	-9041
Kuna	-9042
andid	-9043
gaasi	-9044
▁meeld	-9045
▁märka	-9046
▁naisi	-9047
aktsiis	-9048
▁hädava	-9049
▁kardan	-9050
▁mujale	-9051
▁Metsoja	-9052
▁aktsiis	-9053
▁õpilast	-9054
▁Randjärv	-9055
▁riiklike	-9056
▁kategoori	-9057
poliitikast	-9058
▁määratakse	-9059
pse	-9060
õli	-9061
liin	-9062
▁Vir	-9063
▁kiri	-9064
▁ehkki	-9065
▁tuden	-9066
▁jõuaks	-9067
▁massil	-9068
▁omandi	-9069
▁suurim	-9070
▁tasuks	-9071
▁täitsa	-9072
▁võrdne	-9073
▁asemele	-9074
▁asutust	-9075
▁korrale	-9076
▁sekkuda	-9077
▁täitmist	-9078
▁personali	-9079
▁rahvahääle	-9080
▁liikmesriigi	-9081
▁kommenteerite	-9082
▁tugispetsialist	-9083
aru	-9084
mre	-9085
▁nu	-9086
inõu	-9087
▁Eda	-9088
▁Mer	-9089
▁Arno	-9090
konnaa	-9091
▁õiged	-9092
▁kohast	-9093
▁maksnud	-9094
▁arutusel	-9095
▁garantii	-9096
▁koefitsi	-9097
▁lubadusi	-9098
▁nõukogud	-9099
▁seakasva	-9100
▁suudetud	-9101
▁tõstmise	-9102
▁nimetasin	-9103
▁tuhandeid	-9104
–3	-9105
▁:	-9106
gime	-9107
▁Iraa	-9108
▁vaat	-9109
dividu	-9110
jategi	-9111
▁Kersti	-9112
▁ajaleh	-9113
▁arvame	-9114
▁läksid	-9115
▁otsast	-9116
▁tekita	-9117
▁Postime	-9118
▁selgust	-9119
teenuseid	-9120
▁individu	-9121
▁määranud	-9122
▁oleksite	-9123
▁tõusevad	-9124
▁väljaütle	-9125
▁kinnitamise	-9126
Võ	-9127
alus	-9128
kasu	-9129
▁pel	-9130
▁tab	-9131
susele	-9132
Esimene	-9133
▁Loodame	-9134
▁maamaks	-9135
▁Marrandi	-9136
▁energiat	-9137
▁nüüdseks	-9138
▁paremaid	-9139
▁seepärast	-9140
▁leevendada	-9141
▁universaal	-9142
▁niisuguseid	-9143
▁kompenseerida	-9144
▁mittetulundus	-9145
ihti	-9146
terv	-9147
▁näp	-9148
uroop	-9149
▁Infot	-9150
▁Saare	-9151
elikuks	-9152
kümmend	-9153
ieelarve	-9154
▁Teiselt	-9155
▁ebamõist	-9156
ettevõtete	-9157
▁kaalutlus	-9158
▁millestki	-9159
mismissioon	-9160
▁Reformiera	-9161
▁tõstatatud	-9162
▁maaeluminister	-9163
▁5%	-9164
isalt	-9165
▁Kõne	-9166
▁Maja	-9167
setest	-9168
▁absur	-9169
▁seost	-9170
▁tsita	-9171
ressiiv	-9172
▁poolda	-9173
▁siduda	-9174
▁Marianne	-9175
▁sularaha	-9176
▁sõnadega	-9177
▁ametikoha	-9178
▁konsensuslikud	-9179
aale	-9180
koda	-9181
sead	-9182
imõte	-9183
pärase	-9184
udekki	-9185
▁mahtu	-9186
▁riiva	-9187
▁autonoo	-9188
▁pakendi	-9189
▁teemade	-9190
▁võtsime	-9191
▁juhtumit	-9192
▁vaesuses	-9193
▁heakskiit	-9194
▁pikendamine	-9195
▁muudatustega	-9196
▁häälteenamust	-9197
go	-9198
umäära	-9199
▁külge	-9200
▁raadi	-9201
▁uuele	-9202
iliseks	-9203
▁hõlmab	-9204
erimisega	-9205
valitsused	-9206
▁arutasite	-9207
▁korraldus	-9208
▁septembri	-9209
▁kodanikuühis	-9210
▁tegelikkuses	-9211
▁vanemahüvitise	-9212
kke	-9213
▁veo	-9214
▁võõ	-9215
Raivo	-9216
▁lase	-9217
▁lüüa	-9218
▁kriis	-9219
▁illega	-9220
▁piires	-9221
▁varjupa	-9222
▁juhtimis	-9223
▁kommenta	-9224
▁maksupet	-9225
▁perekond	-9226
▁tuletada	-9227
Rosimannus	-9228
▁aspektist	-9229
▁keskkonda	-9230
▁maksutõus	-9231
▁kompromissi	-9232
aval	-9233
kast	-9234
kite	-9235
▁600	-9236
▁mig	-9237
ikuus	-9238
likul	-9239
▁king	-9240
vamaks	-9241
▁sõnul	-9242
▁teade	-9243
▁valija	-9244
▁isikule	-9245
▁arvestus	-9246
▁kommerts	-9247
▁varianti	-9248
ministriga	-9249
▁poliitiku	-9250
▁suhtumist	-9251
▁tegutsema	-9252
▁territori	-9253
▁lapsevanema	-9254
▁menetlemist	-9255
▁ettepanekutega	-9256
mala	-9257
▁aad	-9258
iseer	-9259
ituks	-9260
kogul	-9261
▁avan	-9262
▁maan	-9263
nõukogu	-9264
▁Minule	-9265
▁laevad	-9266
▁tunnen	-9267
▁vanuse	-9268
▁välise	-9269
▁soolise	-9270
▁taustal	-9271
▁Ukrainas	-9272
▁rahastada	-9273
▁rehabilita	-9274
▁ettekandjat	-9275
▁ettevõtlust	-9276
▁teoreetiliselt	-9277
PA	-9278
õnn	-9279
▁59	-9280
Olen	-9281
itja	-9282
astme	-9283
ideks	-9284
▁dipl	-9285
▁tõmb	-9286
▁Erine	-9287
▁Sinna	-9288
▁autor	-9289
▁loome	-9290
ustusega	-9291
volikogu	-9292
▁kellelt	-9293
▁levinud	-9294
▁olümpia	-9295
▁seadnud	-9296
▁isikliku	-9297
eerimiseks	-9298
seadustiku	-9299
▁kohtunike	-9300
▁vähenevad	-9301
▁Järgmisena	-9302
▁vajadusest	-9303
▁protseduuri	-9304
▁maavalitsuste	-9305
▁riigieelarvele	-9306
aks	-9307
dur	-9308
one	-9309
tvor	-9310
▁1,5	-9311
kodan	-9312
▁jälg	-9313
▁raie	-9314
kaardi	-9315
▁ilusa	-9316
▁lahus	-9317
▁rapor	-9318
▁kõlama	-9319
▁parand	-9320
▁piisab	-9321
teeritud	-9322
▁tühista	-9323
perioodil	-9324
õpetajate	-9325
▁Kaskpeit	-9326
▁Venemaal	-9327
▁konkursi	-9328
▁lõpetati	-9329
▁pensionid	-9330
▁koalitsioonil	-9331
itule	-9332
emõtte	-9333
kohast	-9334
▁bensi	-9335
▁bussi	-9336
Küsimus	-9337
▁eurole	-9338
▁hoidma	-9339
▁samaks	-9340
▁vähegi	-9341
▁Eelnõus	-9342
▁Sesteri	-9343
▁kuuluda	-9344
▁muutuks	-9345
▁olevaid	-9346
▁harjunud	-9347
▁keskmist	-9348
▁sisulisi	-9349
▁pagulaste	-9350
▁abipolitse	-9351
▁lastevanema	-9352
▁väljastpoolt	-9353
▁keskkonnatasude	-9354
nia	-9355
▁82	-9356
kohe	-9357
tage	-9358
▁Rak	-9359
▁kih	-9360
tkame	-9361
▁Hols	-9362
konnan	-9363
nduste	-9364
▁Ameti	-9365
▁ajale	-9366
▁büroo	-9367
▁Ainult	-9368
▁senise	-9369
▁sisuga	-9370
▁suunda	-9371
▁mõistes	-9372
▁kuulanud	-9373
▁eestlased	-9374
▁pensionit	-9375
▁vastasite	-9376
▁niisugused	-9377
▁kokkuvõttes	-9378
▁seaduseelnõus	-9379
käi	-9380
oko	-9381
▁Es	-9382
koot	-9383
uble	-9384
ikuse	-9385
▁näed	-9386
▁korja	-9387
▁Soovin	-9388
▁lõikes	-9389
olukorda	-9390
tamisest	-9391
▁pikemat	-9392
▁punktid	-9393
▁raamist	-9394
▁teadnud	-9395
▁Vähemalt	-9396
▁liikunud	-9397
▁linnapea	-9398
▁peredele	-9399
▁õpilased	-9400
▁kujundada	-9401
▁tarbimist	-9402
▁keerulisem	-9403
▁peretoetuste	-9404
asartmängumaksu	-9405
IA	-9406
tute	-9407
uure	-9408
itega	-9409
▁huma	-9410
▁Haige	-9411
▁integ	-9412
▁massi	-9413
▁tegin	-9414
jõudude	-9415
▁kergem	-9416
▁kiirla	-9417
▁lootus	-9418
▁märkus	-9419
▁palume	-9420
▁tingim	-9421
kultuuri	-9422
▁vaesuse	-9423
valimiste	-9424
▁rahalist	-9425
▁tavaline	-9426
▁esitasime	-9427
▁riikidele	-9428
▁Ühesõnaga	-9429
▁kriitiline	-9430
▁protsessis	-9431
▁reageerida	-9432
▁vahendusel	-9433
▁poliitilisi	-9434
▁vahenditest	-9435
▁Uus	-9436
▁sor	-9437
palka	-9438
▁pers	-9439
▁Kuula	-9440
▁neilt	-9441
▁näida	-9442
▁taset	-9443
▁vabad	-9444
▁lisatud	-9445
▁mõistan	-9446
Kindlasti	-9447
▁tullakse	-9448
▁väitsite	-9449
▁kodanikele	-9450
▁positiivselt	-9451
pt	-9452
pü	-9453
mor	-9454
eksa	-9455
▁VEB	-9456
▁nur	-9457
▁paa	-9458
▁veid	-9459
▁õhku	-9460
▁mõjub	-9461
▁võtke	-9462
▁sihtas	-9463
▁ekspert	-9464
▁kaitsma	-9465
▁koolitus	-9466
▁kuulates	-9467
▁arutelude	-9468
▁kallimaks	-9469
▁vastuseks	-9470
▁eesmärgiga	-9471
▁kohtlemise	-9472
▁väljamakse	-9473
▁Ettekandeks	-9474
ari	-9475
mmi	-9476
isuh	-9477
maad	-9478
dekla	-9479
erime	-9480
vates	-9481
▁Kuul	-9482
▁pile	-9483
▁ärme	-9484
▁Taani	-9485
▁seegi	-9486
kirjuta	-9487
partner	-9488
▁andeks	-9489
▁möödas	-9490
▁nägime	-9491
▁näidet	-9492
▁analoog	-9493
▁loomade	-9494
valdkonda	-9495
▁lepingud	-9496
▁vahetada	-9497
▁esimeseks	-9498
▁kogemused	-9499
▁mehhanism	-9500
▁põhjendus	-9501
▁Statistikaa	-9502
haa	-9503
jet	-9504
▁85	-9505
asia	-9506
sega	-9507
▁10,	-9508
▁14-	-9509
Priit	-9510
liste	-9511
▁andke	-9512
▁elust	-9513
▁endas	-9514
▁lauda	-9515
▁oskab	-9516
▁edukas	-9517
▁jagune	-9518
▁oodatud	-9519
▁palunud	-9520
▁peaksin	-9521
▁toimima	-9522
▁tubakat	-9523
▁väärtpa	-9524
▁Sellised	-9525
▁langenud	-9526
▁dokumendid	-9527
▁propaganda	-9528
▁põllumeeste	-9529
▁infosüsteemi	-9530
Üks	-9531
daks	-9532
▁Eri	-9533
▁põr	-9534
elise	-9535
pendi	-9536
ulist	-9537
▁Natu	-9538
▁laul	-9539
▁halba	-9540
▁keera	-9541
▁lastel	-9542
▁avaldas	-9543
▁erisood	-9544
▁hulgast	-9545
▁kasvama	-9546
▁käituma	-9547
▁pedagoo	-9548
▁protest	-9549
▁õpetada	-9550
▁Saaremaa	-9551
▁algatanud	-9552
▁arutelust	-9553
▁kaasnevad	-9554
▁määrusega	-9555
▁mõistliku	-9556
▁olemuselt	-9557
▁operatiiv	-9558
▁võimaldada	-9559
▁ajakirjandus	-9560
sä	-9561
▁Usun	-9562
▁loodi	-9563
▁annate	-9564
▁eraisi	-9565
▁häälte	-9566
▁kandma	-9567
▁meiega	-9568
▁sadama	-9569
▁tunneb	-9570
põhiselt	-9571
▁edaspid	-9572
▁laastus	-9573
▁põhikool	-9574
▁teadmisi	-9575
▁tegevuses	-9576
▁tööandjad	-9577
▁majanduses	-9578
▁otsustasime	-9579
▁maksusüsteemi	-9580
▁kättesaadavuse	-9581
inf	-9582
nuks	-9583
saar	-9584
istev	-9585
tlust	-9586
rahasta	-9587
▁kuuluv	-9588
▁saatis	-9589
idetakse	-9590
▁Keskera	-9591
▁kannata	-9592
▁korrata	-9593
▁tänases	-9594
▁ükskord	-9595
olukorras	-9596
tsiooniga	-9597
▁Rõivasele	-9598
▁professor	-9599
▁hädavajalik	-9600
▁ülesannetes	-9601
doku	-9602
roof	-9603
▁Kot	-9604
▁bio	-9605
undit	-9606
▁erald	-9607
▁hanki	-9608
▁vormi	-9609
planeer	-9610
▁maailm	-9611
alistele	-9612
▁otseses	-9613
▁palgaga	-9614
võimalusi	-9615
▁kirjutas	-9616
▁oktoober	-9617
▁isiklikku	-9618
▁palgalõhe	-9619
▁tehniline	-9620
▁valitsused	-9621
▁pikaajaline	-9622
▁topeltkodakond	-9623
kib	-9624
Märt	-9625
lend	-9626
seer	-9627
jades	-9628
mmast	-9629
ürgen	-9630
gupida	-9631
▁duble	-9632
▁sobib	-9633
▁tarbe	-9634
kirjade	-9635
useadus	-9636
▁toovad	-9637
ülikooli	-9638
▁esineda	-9639
▁panevad	-9640
▁ettevaat	-9641
▁huvitava	-9642
▁segadust	-9643
▁valitsusse	-9644
▁Peaminister	-9645
▁infosüsteem	-9646
oa	-9647
gede	-9648
taol	-9649
▁80%	-9650
ikuga	-9651
meele	-9652
▁aegu	-9653
▁heal	-9654
eerime	-9655
eldada	-9656
▁Loone	-9657
▁täies	-9658
vahetus	-9659
▁minuga	-9660
▁partei	-9661
utatakse	-9662
utustele	-9663
▁asjalik	-9664
▁kaasneb	-9665
▁narkoot	-9666
▁pakuvad	-9667
▁sätteid	-9668
▁kaotanud	-9669
▁Assamblee	-9670
▁riigiamet	-9671
▁seejuures	-9672
▁ettevõtetele	-9673
▁kõrghariduse	-9674
▁deklaratsiooni	-9675
kr	-9676
pon	-9677
ktri	-9678
lale	-9679
neda	-9680
▁Vee	-9681
▁pah	-9682
▁Vits	-9683
Jürgen	-9684
▁Tihti	-9685
▁kitse	-9686
▁nägin	-9687
▁alused	-9688
▁kõneal	-9689
▁ligika	-9690
grammist	-9691
▁Simsoni	-9692
▁nimetas	-9693
▁riigina	-9694
▁hakkasid	-9695
▁jagatakse	-9696
▁menetleme	-9697
▁toetamise	-9698
▁ühinemise	-9699
▁jõustumist	-9700
▁juriidiline	-9701
▁probleemist	-9702
▁spetsialiste	-9703
▁täpsustatakse	-9704
Jaan	-9705
etul	-9706
▁emo	-9707
▁sob	-9708
▁Vaat	-9709
▁sümb	-9710
▁tran	-9711
tasime	-9712
utraal	-9713
▁Muide	-9714
▁Teeme	-9715
▁ennet	-9716
▁prote	-9717
▁tonni	-9718
▁Lõpuks	-9719
▁instru	-9720
▁Liiduga	-9721
▁Milling	-9722
▁keeleos	-9723
▁linnade	-9724
▁tekstis	-9725
▁õppinud	-9726
▁üksinda	-9727
▁liikumis	-9728
▁standard	-9729
▁sõjalise	-9730
▁töötatud	-9731
▁algatajad	-9732
▁kavatsete	-9733
▁kodukorra	-9734
▁kolmandik	-9735
▁mõistetav	-9736
▁tarbimise	-9737
▁Keskkonnaa	-9738
▁otsustavad	-9739
▁pensionide	-9740
▁sihtotstar	-9741
▁turvalisuse	-9742
▁kättesaadavust	-9743
▁mittetulundusüh	-9744
kar	-9745
kuj	-9746
▁ba	-9747
äheda	-9748
▁Pako	-9749
bralik	-9750
▁omaos	-9751
▁tsent	-9752
▁aastad	-9753
▁arutab	-9754
▁vajuta	-9755
▁üldosa	-9756
▁elavate	-9757
▁globaal	-9758
▁direktor	-9759
▁kasutame	-9760
▁miljonist	-9761
▁mõningaid	-9762
▁õigusemõist	-9763
▁seadusmuudatus	-9764
lja	-9765
ikoh	-9766
mule	-9767
likum	-9768
▁Juhul	-9769
▁Süüri	-9770
▁fakti	-9771
▁jõustu	-9772
▁punkte	-9773
▁vaesus	-9774
▁väikee	-9775
▁reserve	-9776
▁sajandi	-9777
▁teemaks	-9778
▁koostada	-9779
▁edastanud	-9780
▁volitatud	-9781
▁ekspertide	-9782
▁keskkonnas	-9783
▁käsitlenud	-9784
▁protsessid	-9785
▁põhjalikumalt	-9786
Re	-9787
nime	-9788
vata	-9789
▁naf	-9790
endit	-9791
võrku	-9792
▁ausa	-9793
▁kumb	-9794
▁norm	-9795
asutus	-9796
▁huvir	-9797
▁ideid	-9798
▁kogus	-9799
▁koond	-9800
▁tuhat	-9801
▁absurd	-9802
▁nõusta	-9803
▁täpset	-9804
õiguslik	-9805
▁raporti	-9806
▁Algataja	-9807
▁enamikus	-9808
▁illegaal	-9809
▁tasandus	-9810
▁metoodika	-9811
▁toetamine	-9812
▁vajalikke	-9813
poliitilist	-9814
▁mõjuanalüü	-9815
▁valdkonnad	-9816
▁järjekordselt	-9817
kret	-9818
vaja	-9819
▁700	-9820
▁pur	-9821
▁ser	-9822
kinud	-9823
▁1990.	-9824
▁algas	-9825
▁laias	-9826
ohvitse	-9827
▁energi	-9828
▁jaotus	-9829
▁osales	-9830
▁paigas	-9831
registri	-9832
▁arendus	-9833
▁Tõnisson	-9834
▁jäetakse	-9835
▁kaitseks	-9836
▁tohutult	-9837
▁kolmandal	-9838
▁põhjuseks	-9839
▁tervisele	-9840
▁Haigekassa	-9841
▁seadustega	-9842
▁probleemile	-9843
▁Suurbritannia	-9844
öri	-9845
jusi	-9846
▁kop	-9847
▁inde	-9848
▁liiku	-9849
▁jätame	-9850
▁väikes	-9851
▁kogutud	-9852
▁tarvita	-9853
▁valikud	-9854
▁erinevat	-9855
▁moodusta	-9856
▁võiksite	-9857
▁Saksamaal	-9858
mets	-9859
tunn	-9860
▁rad	-9861
dangu	-9862
rismi	-9863
▁Mati	-9864
▁jala	-9865
▁veer	-9866
bilise	-9867
ikindl	-9868
kusele	-9869
kütuse	-9870
▁Palju	-9871
▁Teisi	-9872
▁peres	-9873
▁tehke	-9874
etulnud	-9875
▁kaotab	-9876
▁põhial	-9877
▁raport	-9878
▁tempos	-9879
▁Arutelu	-9880
▁esitame	-9881
▁põhineb	-9882
korraldus	-9883
▁avaldatud	-9884
▁kinnipida	-9885
▁praktiline	-9886
▁konkreetses	-9887
▁moodustatud	-9888
▁mõistlikuks	-9889
▁olemasoleva	-9890
▁aktsiisimäära	-9891
▁juriidiliselt	-9892
Ju	-9893
isus	-9894
kese	-9895
klas	-9896
▁800	-9897
▁Sen	-9898
▁osk	-9899
avald	-9900
ieksa	-9901
inski	-9902
ringi	-9903
▁Kool	-9904
õnnest	-9905
▁andes	-9906
▁õiges	-9907
▁Instit	-9908
▁Raidma	-9909
▁lõppes	-9910
▁rajada	-9911
▁Pakosta	-9912
▁Sellise	-9913
▁hindama	-9914
▁muudeti	-9915
▁muutuma	-9916
menetlust	-9917
▁energeet	-9918
▁kogukond	-9919
▁lühiajal	-9920
▁pikaajalise	-9921
▁maksusüsteem	-9922
▁mitmesuguste	-9923
▁rakendatakse	-9924
jao	-9925
püü	-9926
itub	-9927
kivi	-9928
oonis	-9929
tades	-9930
▁Laur	-9931
▁Lõpp	-9932
▁Pole	-9933
▁nägu	-9934
▁taju	-9935
▁kattu	-9936
valitse	-9937
▁otsene	-9938
▁paista	-9939
▁piimat	-9940
▁väärib	-9941
ulgeolek	-9942
▁alustel	-9943
▁taristu	-9944
▁Ühtlasi	-9945
▁asendada	-9946
▁sügavalt	-9947
▁ühemõtte	-9948
▁päästjate	-9949
▁vaidlused	-9950
▁haridusminister	-9951
põl	-9952
irca	-9953
–2020	-9954
▁2000	-9955
▁Ivan	-9956
▁loll	-9957
▁taba	-9958
▁õppi	-9959
▁hoiab	-9960
▁eestve	-9961
▁juhita	-9962
▁peabki	-9963
▁plaane	-9964
ülesanne	-9965
▁kiirelt	-9966
▁stratee	-9967
▁aastasse	-9968
▁leevenda	-9969
▁peretoet	-9970
▁sõnavõtu	-9971
ministrilt	-9972
▁lähenemist	-9973
▁teretulnud	-9974
▁eraldatakse	-9975
▁fraktsioonist	-9976
sõn	-9977
▁69	-9978
Sead	-9979
isev	-9980
teet	-9981
õive	-9982
matas	-9983
nneks	-9984
Toomas	-9985
mitehn	-9986
▁Haaps	-9987
▁maksim	-9988
▁välist	-9989
▁Aafrika	-9990
▁Herkeli	-9991
▁Niisiis	-9992
▁Seejärel	-9993
▁teenivad	-9994
▁atraktiiv	-9995
▁ebaõnnest	-9996
▁Afganistan	-9997
▁vastustest	-9998
▁keskvalitsuse	-9999
▁probleemidega	-10000
▁maaelukomisjoni	-10001
▁valitsusliikmed	-10002
ila	-10003
ova	-10004
keid	-10005
entse	-10006
▁Raha	-10007
▁veda	-10008
▁üüri	-10009
Viktor	-10010
▁Küpro	-10011
▁algus	-10012
terjale	-10013
▁peresid	-10014
▁suuremas	-10015
▁vastatud	-10016
▁lepinguid	-10017
▁mõjutavad	-10018
Täna	-10019
aliik	-10020
isust	-10021
paani	-10022
▁Suure	-10023
▁kordi	-10024
toetusi	-10025
▁osalus	-10026
▁kordagi	-10027
▁lähtume	-10028
ministrit	-10029
tsioonist	-10030
▁hüvitist	-10031
▁lugupida	-10032
▁selgunud	-10033
▁õigussel	-10034
▁järeldusi	-10035
▁praeguste	-10036
▁võlaõigus	-10037
inspektsioon	-10038
▁Majandamise	-10039
▁definitsioon	-10040
▁prioriteedid	-10041
▁seisukohtade	-10042
▁ajakirjanduses	-10043
Siin	-10044
igil	-10045
▁Sada	-10046
▁külm	-10047
▁tükk	-10048
▁muust	-10049
▁tempo	-10050
▁Kunagi	-10051
▁kaugem	-10052
▁mõnest	-10053
▁sõidab	-10054
▁tõdeda	-10055
▁panusta	-10056
▁võrdlus	-10057
▁kahjulik	-10058
▁kobareel	-10059
▁maksmine	-10060
▁põgusalt	-10061
▁rahutaga	-10062
▁Kantselei	-10063
▁tööturule	-10064
▁väljaõppe	-10065
▁tegevusega	-10066
▁valmisolek	-10067
▁planeerimis	-10068
▁võimalikuks	-10069
▁pensionitõus	-10070
▁Ho	-10071
▁meh	-10072
andit	-10073
välja	-10074
mustes	-10075
seseis	-10076
ulikud	-10077
▁Edasi	-10078
▁alamm	-10079
▁leppe	-10080
▁riive	-10081
▁Sooäär	-10082
▁lõplik	-10083
▁maante	-10084
▁mängus	-10085
▁küsingi	-10086
▁täpsust	-10087
▁töökoha	-10088
tingimata	-10089
▁vaidlust	-10090
▁üksteise	-10091
▁ajendatud	-10092
▁arvamusel	-10093
▁igasuguse	-10094
▁piirkonda	-10095
▁järeldusele	-10096
▁piirilepingu	-10097
tl	-10098
kaa	-10099
kaup	-10100
▁203	-10101
▁PPA	-10102
▁Raud	-10103
▁Ühte	-10104
Marika	-10105
▁Kümme	-10106
▁Vaher	-10107
▁keeld	-10108
▁perel	-10109
▁targe	-10110
▁vande	-10111
mistele	-10112
▁identi	-10113
▁erilist	-10114
▁keelata	-10115
▁poolele	-10116
▁langetas	-10117
▁lähtunud	-10118
aasiseseis	-10119
▁hääletame	-10120
▁ligikaudu	-10121
▁teadmiste	-10122
▁rakendatud	-10123
▁korrektselt	-10124
▁ressursside	-10125
▁Lis	-10126
▁sää	-10127
▁ajad	-10128
▁sidu	-10129
▁sõda	-10130
matust	-10131
põhjal	-10132
▁circa	-10133
▁ootus	-10134
▁kallal	-10135
▁kasumi	-10136
▁margin	-10137
▁tublid	-10138
▁töövõt	-10139
▁viitab	-10140
aastased	-10141
▁kuuenda	-10142
▁paraneb	-10143
▁uurinud	-10144
▁esitasin	-10145
▁üleminek	-10146
palgaliste	-10147
▁tingimuste	-10148
iguskantsler	-10149
dar	-10150
▁Jo	-10151
▁PR	-10152
▁ind	-10153
▁näo	-10154
▁jumal	-10155
▁viime	-10156
panekuga	-10157
▁jagatud	-10158
▁kvartal	-10159
▁loomist	-10160
▁muuseas	-10161
▁olemegi	-10162
▁tõsiasi	-10163
ministril	-10164
▁Riigikoh	-10165
▁võidelda	-10166
▁elamisloa	-10167
▁kõikidest	-10168
▁nimetanud	-10169
▁missugused	-10170
▁nimekirjas	-10171
▁piltlikult	-10172
▁rahaliselt	-10173
▁seadusloome	-10174
▁valitsusest	-10175
▁ilmtingimata	-10176
hä	-10177
oog	-10178
pöö	-10179
kaub	-10180
reegl	-10181
taval	-10182
▁Peep	-10183
▁Pool	-10184
▁Võin	-10185
▁graaf	-10186
▁nafta	-10187
▁oskad	-10188
▁palub	-10189
▁suust	-10190
▁Keskus	-10191
▁käisid	-10192
▁loosun	-10193
▁sinuga	-10194
politsei	-10195
teenused	-10196
▁märkida	-10197
▁ametniku	-10198
▁asutamis	-10199
▁kaugemas	-10200
▁saaksite	-10201
▁maavanema	-10202
▁normitehn	-10203
▁algatajale	-10204
▁järgmisest	-10205
▁maksustamise	-10206
▁paindlikumaks	-10207
seh	-10208
▁83	-10209
Tule	-10210
viga	-10211
õnne	-10212
▁Uno	-10213
▁far	-10214
kogem	-10215
▁endi	-10216
▁veen	-10217
▁viha	-10218
taalia	-10219
▁istub	-10220
▁skeem	-10221
▁suval	-10222
itamise	-10223
▁Kotkas	-10224
▁katuse	-10225
▁kooselu	-10226
▁suudaks	-10227
▁elanikku	-10228
▁jõudsime	-10229
▁lisandub	-10230
▁pealkiri	-10231
▁juhtumite	-10232
▁lõplikult	-10233
▁praegused	-10234
▁selgemaks	-10235
▁sellisena	-10236
▁töötamise	-10237
▁kohtutäitu	-10238
▁Koalitsioon	-10239
▁komisjonides	-10240
▁sätestatakse	-10241
▁motivatsiooni	-10242
▁tervishoiutöö	-10243
▁maksupoliitika	-10244
uttu	-10245
▁nih	-10246
▁Noor	-10247
enenud	-10248
meeste	-10249
▁Poliit	-10250
▁kauple	-10251
▁sporti	-10252
▁üksuse	-10253
finantse	-10254
▁Laurson	-10255
▁asjasse	-10256
▁selguse	-10257
▁toetate	-10258
▁haiglate	-10259
▁intervju	-10260
oloogiline	-10261
▁Hispaania	-10262
▁eeskujuks	-10263
▁tugevdada	-10264
▁ametikohta	-10265
▁lihtsamaks	-10266
▁ettekandest	-10267
▁mõistlikult	-10268
▁innovatsiooni	-10269
investeeringute	-10270
jan	-10271
▁Un	-10272
ikke	-10273
▁Mäl	-10274
▁rüh	-10275
itasu	-10276
aksime	-10277
morand	-10278
▁Laste	-10279
▁sport	-10280
▁tahad	-10281
▁jutust	-10282
▁kiriku	-10283
▁laekus	-10284
▁mõjude	-10285
▁püütud	-10286
gustatud	-10287
▁Itaalia	-10288
▁kasumit	-10289
▁riigime	-10290
▁erandeid	-10291
▁pädevust	-10292
järelevalve	-10293
▁Neljandaks	-10294
▁õpetajatele	-10295
kud	-10296
▁Nõ	-10297
salt	-10298
▁101	-10299
adele	-10300
meedi	-10301
risse	-10302
▁Holl	-10303
▁jagu	-10304
▁pres	-10305
▁kirju	-10306
▁käisin	-10307
▁sisuka	-10308
▁sõnade	-10309
▁Viljand	-10310
▁kiitnud	-10311
▁lastest	-10312
▁mingist	-10313
▁saladus	-10314
miseaduse	-10315
▁aastateks	-10316
▁tehnilist	-10317
▁toetuseks	-10318
▁liikmetest	-10319
▁siseturval	-10320
▁suurenevad	-10321
▁tähenduses	-10322
▁üksikisiku	-10323
▁diislikütuse	-10324
▁infotehnoloogia	-10325
õue	-10326
▁Ve	-10327
onis	-10328
ürit	-10329
▁tõe	-10330
riisi	-10331
▁eeld	-10332
majand	-10333
▁Alles	-10334
▁Punkt	-10335
▁vooru	-10336
▁Enamik	-10337
▁kasvas	-10338
▁peegel	-10339
▁päevas	-10340
▁tõsise	-10341
▁Vahepeal	-10342
menetluses	-10343
▁detsember	-10344
▁kohalikes	-10345
▁maksusood	-10346
▁tekitavad	-10347
▁töötavate	-10348
▁vastustes	-10349
▁suudaksime	-10350
▁kolleegidega	-10351
▁maksukoormus	-10352
▁deklaratsioon	-10353
▁maapiirkondades	-10354
Tõ	-10355
juhi	-10356
tise	-10357
▁Lüh	-10358
Artur	-10359
stitu	-10360
▁dist	-10361
▁leib	-10362
▁hoidu	-10363
▁lisas	-10364
▁ostma	-10365
▁trahv	-10366
▁vedel	-10367
kasutus	-10368
▁Kallas	-10369
▁hoolda	-10370
▁otsest	-10371
▁Seesama	-10372
▁kõrvalt	-10373
▁kokkulep	-10374
haridusega	-10375
▁bürokraat	-10376
▁elanikele	-10377
▁esimehele	-10378
▁olenemata	-10379
▁piirivalv	-10380
▁toimimise	-10381
▁asjaolusid	-10382
▁detsembris	-10383
▁palgatõusu	-10384
▁põhimõtete	-10385
▁riigihangete	-10386
▁muinsuskaitse	-10387
5,	-10388
▁81	-10389
kaits	-10390
rupid	-10391
▁tööe	-10392
▁pehme	-10393
▁autode	-10394
▁hulgal	-10395
▁polegi	-10396
▁uskuda	-10397
▁ajaloos	-10398
▁aspekte	-10399
▁kõigist	-10400
▁olulisel	-10401
▁sedavõrd	-10402
▁staatuse	-10403
▁tähtsust	-10404
▁Euroopast	-10405
▁jõustunud	-10406
▁riiklikku	-10407
▁sünnijärg	-10408
▁Riigimetsa	-10409
▁erakoolide	-10410
▁suunatakse	-10411
▁Riigikogust	-10412
▁positiivseid	-10413
▁maksumaksjate	-10414
Val	-10415
pii	-10416
▁84	-10417
▁fa	-10418
ollu	-10419
vari	-10420
▁Mäle	-10421
▁loet	-10422
▁lõig	-10423
▁visa	-10424
▁ümar	-10425
ruumis	-10426
utanud	-10427
▁Olles	-10428
▁naine	-10429
▁saite	-10430
▁tütar	-10431
kvalite	-10432
raamist	-10433
▁vajame	-10434
keskuste	-10435
▁kogenud	-10436
▁kujutada	-10437
▁reaalsus	-10438
▁Nimetatud	-10439
▁kirjutama	-10440
▁tegevuste	-10441
▁maksuameti	-10442
▁täiskogule	-10443
▁sanktsioonid	-10444
▁suurepäraselt	-10445
▁Oo	-10446
Juha	-10447
Seda	-10448
fekt	-10449
tuda	-10450
uvus	-10451
▁Võr	-10452
▁Ants	-10453
▁traa	-10454
ktsion	-10455
▁karus	-10456
▁Kordan	-10457
▁rahule	-10458
▁sünnib	-10459
▁Liigume	-10460
▁kajasta	-10461
▁maksame	-10462
▁muutusi	-10463
▁sõidavad	-10464
▁tendents	-10465
▁tootmise	-10466
▁kultuuril	-10467
▁presidend	-10468
▁suuremate	-10469
▁õigusliku	-10470
▁arendamise	-10471
▁meditsiini	-10472
▁nõukogusse	-10473
▁arendamiseks	-10474
▁operatsiooni	-10475
▁institutsiooni	-10476
▁piirikaubanduse	-10477
▁rahvusvahelises	-10478
pr	-10479
kei	-10480
vöö	-10481
gide	-10482
isabi	-10483
setel	-10484
▁järk	-10485
▁mais	-10486
▁mani	-10487
▁soom	-10488
▁toel	-10489
oloogi	-10490
▁2005.	-10491
▁tahte	-10492
▁Järele	-10493
▁autori	-10494
▁kallim	-10495
▁kiitis	-10496
▁sisend	-10497
▁väidab	-10498
▁erimärg	-10499
▁formule	-10500
▁objekti	-10501
▁põhjusi	-10502
▁realist	-10503
▁vastand	-10504
▁Vaadates	-10505
▁lisakulu	-10506
▁loetakse	-10507
▁panustab	-10508
komisjonil	-10509
▁lepingute	-10510
▁plaanitud	-10511
maksustamise	-10512
▁kirjeldatud	-10513
▁kontrollima	-10514
▁taasiseseis	-10515
inä	-10516
elus	-10517
▁samb	-10518
▁õhtu	-10519
gemine	-10520
▁tunde	-10521
▁euroop	-10522
▁üleseh	-10523
põhimõte	-10524
toetused	-10525
▁kolmest	-10526
▁tõstame	-10527
▁kuulasin	-10528
▁numbreid	-10529
▁tähtajal	-10530
▁dokumenti	-10531
▁liikumist	-10532
▁tuvastada	-10533
▁vastuollu	-10534
▁laiapõhjal	-10535
▁arengukavas	-10536
unda	-10537
▁1,3	-10538
▁baa	-10539
stide	-10540
tajal	-10541
▁Remo	-10542
▁kats	-10543
▁käsu	-10544
▁loeb	-10545
▁okup	-10546
▁tõid	-10547
▁Hiina	-10548
▁soove	-10549
utamist	-10550
▁ainete	-10551
▁käimas	-10552
▁leiate	-10553
▁oleneb	-10554
▁pressi	-10555
▁teatas	-10556
▁ehitama	-10557
▁avaldust	-10558
▁seisavad	-10559
▁efektiivne	-10560
▁saadetakse	-10561
▁kodakondsusest	-10562
▁suurendamiseks	-10563
sep	-10564
▁86	-10565
redE	-10566
adega	-10567
adiga	-10568
▁Peip	-10569
▁hüpo	-10570
▁kont	-10571
▁lähi	-10572
erivad	-10573
▁Toomi	-10574
▁arvas	-10575
▁jääme	-10576
▁legit	-10577
▁meilt	-10578
▁võlga	-10579
▁silmis	-10580
▁visiid	-10581
▁mõtlete	-10582
▁palutud	-10583
▁immigran	-10584
▁memorand	-10585
▁täitmine	-10586
▁valitseb	-10587
▁eestlaste	-10588
▁maksudest	-10589
▁igasugused	-10590
▁politseinik	-10591
▁probleemiks	-10592
▁väidetavalt	-10593
mismissioonil	-10594
▁teistsugused	-10595
organisatsioonid	-10596
huv	-10597
mee	-10598
▁El	-10599
lised	-10600
metiv	-10601
▁Luba	-10602
▁hari	-10603
mõiste	-10604
oodete	-10605
pingus	-10606
tavast	-10607
ulised	-10608
visjon	-10609
▁Kutse	-10610
▁Teate	-10611
▁Võiks	-10612
▁jõuti	-10613
▁lääne	-10614
▁paket	-10615
▁võtme	-10616
gitakse	-10617
pedagoo	-10618
▁Meelis	-10619
▁Teatud	-10620
▁advoka	-10621
▁märkis	-10622
▁tõstab	-10623
▁väidet	-10624
andidaat	-10625
protsend	-10626
vahendid	-10627
▁Viimane	-10628
▁muudame	-10629
▁riigise	-10630
▁suurest	-10631
▁võtmise	-10632
▁hinnatud	-10633
▁lahendab	-10634
▁päevadel	-10635
▁tähendus	-10636
▁võidakse	-10637
▁Järgmisel	-10638
▁istungile	-10639
▁korraldab	-10640
▁mispärast	-10641
▁soovitusi	-10642
▁tagatakse	-10643
▁tehnilise	-10644
▁ministrilt	-10645
▁välistatud	-10646
▁küsimustest	-10647
▁rahastatakse	-10648
▁vabatahtliku	-10649
▁pensionikindl	-10650
isk	-10651
soo	-10652
▁9,	-10653
▁SKA	-10654
istani	-10655
Aafrika	-10656
konnaga	-10657
ttevõte	-10658
▁eakate	-10659
▁hakkan	-10660
▁kajast	-10661
▁muljet	-10662
▁oskust	-10663
▁rahvaa	-10664
▁võidab	-10665
valdkond	-10666
▁kogumis	-10667
▁toimuks	-10668
▁võitlus	-10669
▁aktiivne	-10670
▁geograaf	-10671
▁tagajärg	-10672
▁Mihkelson	-10673
▁lehekülge	-10674
▁sotsiaalne	-10675
▁maakondades	-10676
▁Organisatsiooni	-10677
▁kompensatsiooni	-10678
▁ir	-10679
jude	-10680
▁jaa	-10681
ikaga	-10682
ikoht	-10683
vesti	-10684
▁maap	-10685
▁vaen	-10686
ktuaal	-10687
▁KredE	-10688
▁nõuet	-10689
▁teoks	-10690
▁Midagi	-10691
▁ametiv	-10692
▁hotell	-10693
iseerida	-10694
▁laevade	-10695
▁liituda	-10696
▁stipendi	-10697
▁vaatavad	-10698
▁kõnealuse	-10699
▁tähendada	-10700
▁rahvasaadik	-10701
▁gümnaasiumis	-10702
▁kandideerida	-10703
▁Seletuskirjas	-10704
ibi	-10705
ope	-10706
osk	-10707
aator	-10708
nikku	-10709
▁ruum	-10710
koolis	-10711
liikme	-10712
▁turgu	-10713
▁võrds	-10714
▁Helmut	-10715
▁imelik	-10716
▁kandis	-10717
▁klient	-10718
▁pakume	-10719
▁Ivanova	-10720
▁andsite	-10721
▁kordama	-10722
▁majutus	-10723
▁muudest	-10724
▁omaenda	-10725
▁pagulas	-10726
▁Infotund	-10727
▁Siinkohal	-10728
▁lasteaias	-10729
▁samasuguse	-10730
▁soodustada	-10731
▁täiendavad	-10732
▁parlamendile	-10733
▁valitsussektori	-10734
tia	-10735
easu	-10736
oris	-10737
▁193	-10738
▁Huv	-10739
▁Las	-10740
antsi	-10741
▁kõva	-10742
▁lõim	-10743
propor	-10744
ressur	-10745
▁Norra	-10746
▁hirmu	-10747
▁pidid	-10748
▁resid	-10749
aastase	-10750
ruktuur	-10751
▁Niisug	-10752
▁loonud	-10753
▁miinus	-10754
▁transi	-10755
projekti	-10756
▁juhtide	-10757
▁kliendi	-10758
▁nädalas	-10759
▁jõutakse	-10760
▁täitmata	-10761
itöötajate	-10762
▁eelmisest	-10763
▁karistuse	-10764
▁konkreetsel	-10765
▁Ettekandjale	-10766
IE	-10767
uk	-10768
▁Jää	-10769
Järve	-10770
itult	-10771
kolle	-10772
masse	-10773
▁Haig	-10774
▁Sõna	-10775
▁seab	-10776
▁kahtl	-10777
▁pikad	-10778
▁soosi	-10779
mistega	-10780
▁juulil	-10781
▁koorma	-10782
▁ühineda	-10783
▁Küsimuse	-10784
▁konflikt	-10785
▁referend	-10786
▁sõbralik	-10787
▁varjatud	-10788
▁kurjategi	-10789
▁tööpuudus	-10790
▁materjalid	-10791
▁tagajärjed	-10792
▁langetamine	-10793
▁kriteeriumid	-10794
▁potentsiaali	-10795
▁põhiseaduses	-10796
▁paralleelselt	-10797
▁peaspetsialist	-10798
▁töövõimereformi	-10799
Kes	-10800
Vab	-10801
kao	-10802
▁Mad	-10803
▁Tam	-10804
maast	-10805
▁täie	-10806
alduse	-10807
ruusia	-10808
sioone	-10809
▁human	-10810
▁hädas	-10811
ensione	-10812
vahendi	-10813
▁Alates	-10814
▁katast	-10815
▁koguni	-10816
▁mõtleb	-10817
▁olemus	-10818
endamine	-10819
▁alustas	-10820
▁kontakt	-10821
▁suulise	-10822
▁väidate	-10823
▁esimeest	-10824
▁juhtumid	-10825
▁peaksite	-10826
▁ühendust	-10827
▁kodanikke	-10828
▁Euroopasse	-10829
▁kolleegide	-10830
▁kolmandiku	-10831
▁planeerida	-10832
▁tegevusest	-10833
▁piirikaubandus	-10834
rav	-10835
argu	-10836
arva	-10837
▁198	-10838
▁90%	-10839
Kadri	-10840
setes	-10841
▁Vaar	-10842
▁nõun	-10843
Jaanus	-10844
luseks	-10845
▁Musta	-10846
▁kärpe	-10847
andmeid	-10848
▁Riigik	-10849
▁arstid	-10850
▁esineb	-10851
▁Jätkame	-10852
▁mõistet	-10853
tatsiooni	-10854
▁Repinski	-10855
▁kirjutab	-10856
▁leidsime	-10857
▁ühenduse	-10858
▁toiduaine	-10859
aasjalikult	-10860
▁energiajoo	-10861
▁kilomeetri	-10862
▁julgeolekut	-10863
▁vastuvõetud	-10864
▁Ettekandjaks	-10865
▁erakorralise	-10866
see	-10867
tulu	-10868
▁trü	-10869
▁õhu	-10870
dista	-10871
dudes	-10872
isite	-10873
▁Teen	-10874
▁maju	-10875
kuning	-10876
seltsi	-10877
▁adres	-10878
▁hinge	-10879
▁märks	-10880
▁pilgu	-10881
▁puhas	-10882
▁Haldus	-10883
▁Sadama	-10884
▁eksami	-10885
▁endaga	-10886
▁hindab	-10887
▁kalend	-10888
▁mõnigi	-10889
▁artikli	-10890
▁asjaaja	-10891
▁juulist	-10892
▁liitlas	-10893
▁maantee	-10894
▁suhtuda	-10895
▁tekkima	-10896
▁inimesega	-10897
▁osapoolte	-10898
▁vastamata	-10899
▁murelikuks	-10900
▁juriidilist	-10901
▁olemasolevate	-10902
umus	-10903
▁nap	-10904
amast	-10905
hoone	-10906
ikest	-10907
looma	-10908
muses	-10909
toime	-10910
▁Airi	-10911
▁mehe	-10912
guseid	-10913
isvara	-10914
▁Siret	-10915
▁jättis	-10916
▁kaovad	-10917
▁kohalt	-10918
▁levita	-10919
▁värske	-10920
▁äärema	-10921
▁äärmus	-10922
vahetuse	-10923
▁Inimene	-10924
▁ametist	-10925
▁andmist	-10926
▁oskavad	-10927
▁püüavad	-10928
▁repliig	-10929
▁segadus	-10930
▁suhtute	-10931
▁Järgmise	-10932
▁legitiim	-10933
▁omandada	-10934
▁ettevõtet	-10935
▁julgeolek	-10936
▁osalemise	-10937
▁tarbijate	-10938
▁Tavaliselt	-10939
▁ametlikult	-10940
▁istungitel	-10941
▁põhjendada	-10942
▁turvalisus	-10943
▁detsembriks	-10944
▁kokkulepped	-10945
▁saavutamiseks	-10946
▁sisejulgeoleku	-10947
On	-10948
aut	-10949
Meil	-10950
▁16-	-10951
usite	-10952
▁Ikka	-10953
▁Peab	-10954
▁seel	-10955
▁valg	-10956
▁vaade	-10957
▁Ratase	-10958
▁auditi	-10959
terinaar	-10960
▁abivaja	-10961
▁algatus	-10962
▁formaal	-10963
▁osalise	-10964
▁suhelda	-10965
▁Praeguse	-10966
▁artikkel	-10967
▁esitavad	-10968
▁koormust	-10969
▁järjekord	-10970
▁kasutusel	-10971
▁selgitusi	-10972
▁valitakse	-10973
▁prognoosid	-10974
anel	-10975
itan	-10976
▁Pil	-10977
manda	-10978
▁Piir	-10979
lastel	-10980
ulaeku	-10981
▁kipub	-10982
▁sooja	-10983
teenist	-10984
▁Ausalt	-10985
▁Liiban	-10986
▁Mälber	-10987
▁käitle	-10988
▁lõpule	-10989
▁mõneti	-10990
▁rahval	-10991
▁valima	-10992
▁asjades	-10993
▁ekspord	-10994
▁laiemat	-10995
▁pinnalt	-10996
▁püüdsin	-10997
▁töötame	-10998
▁viidanud	-10999
isatsiooni	-11000
▁alustanud	-11001
▁erasektor	-11002
▁järgmises	-11003
▁riigivara	-11004
▁sõltuvalt	-11005
▁seitsmenda	-11006
▁väljendada	-11007
▁esitamiseks	-11008
▁efektiivselt	-11009
organisatsiooni	-11010
kem	-11011
ieti	-11012
alase	-11013
itsen	-11014
kanda	-11015
oonia	-11016
kompon	-11017
▁kordu	-11018
▁loeme	-11019
▁loete	-11020
▁seire	-11021
▁sidus	-11022
▁õigla	-11023
vabadus	-11024
▁asjale	-11025
▁eelist	-11026
▁mõjuga	-11027
▁sõnumi	-11028
▁õpivad	-11029
▁Rõivase	-11030
▁enamiku	-11031
▁suhteid	-11032
▁tõenäol	-11033
▁visioon	-11034
▁kehtivas	-11035
▁käitunud	-11036
▁päästeko	-11037
▁unustada	-11038
▁võimaldaks	-11039
▁motiveerida	-11040
▁demokraatlik	-11041
▁kokkulepitud	-11042
▁täienduskool	-11043
Loo	-11044
aud	-11045
vana	-11046
▁Kro	-11047
▁lip	-11048
▁2019	-11049
▁Tele	-11050
▁põne	-11051
iskeel	-11052
joneid	-11053
jäänud	-11054
plaani	-11055
umiseni	-11056
▁suutma	-11057
tajatele	-11058
▁Koostöö	-11059
▁haldust	-11060
▁seisnud	-11061
süsteemis	-11062
▁aruandes	-11063
▁töörühma	-11064
▁väljaand	-11065
▁alaealiste	-11066
▁kaheksanda	-11067
▁koolivõrgu	-11068
▁lõpetamist	-11069
▁asekantsler	-11070
▁erikomisjon	-11071
▁varasematel	-11072
▁kokkuleppeid	-11073
▁kuidagimoodi	-11074
▁päevakorrast	-11075
▁vastuvõtmine	-11076
▁territooriumi	-11077
▁kvalifikatsioon	-11078
▁seadusmuudatuse	-11079
ES	-11080
ikee	-11081
▁250	-11082
▁70%	-11083
▁Jõh	-11084
▁Möö	-11085
▁küün	-11086
▁mark	-11087
▁suju	-11088
äärane	-11089
▁2004.	-11090
▁maast	-11091
▁palus	-11092
▁pikki	-11093
▁puidu	-11094
▁teele	-11095
▁aktsia	-11096
▁muudes	-11097
▁seeläbi	-11098
▁viimati	-11099
▁üleriig	-11100
▁alandada	-11101
▁jõustuma	-11102
▁kusagilt	-11103
▁puutunud	-11104
▁rakendub	-11105
▁ülemäära	-11106
▁arusaamad	-11107
▁kokkuhoid	-11108
▁paljudest	-11109
▁patsiendi	-11110
▁korraldama	-11111
▁toetatakse	-11112
▁Tallinnasse	-11113
▁avalikkuses	-11114
▁kehtestanud	-11115
▁rakendusakt	-11116
▁tõkestamise	-11117
▁siinkõneleja	-11118
▁vähendatakse	-11119
▁kaitseväelaste	-11120
ce	-11121
rea	-11122
vahe	-11123
▁Rüü	-11124
astel	-11125
▁laht	-11126
▁lega	-11127
astada	-11128
▁eemal	-11129
▁peeti	-11130
▁venel	-11131
▁Ukrain	-11132
piirangu	-11133
▁Viimast	-11134
▁esmatas	-11135
▁kaaluma	-11136
▁maavara	-11137
▁saamine	-11138
▁tugevda	-11139
▁tähista	-11140
▁tähtsad	-11141
▁pahataht	-11142
▁parandab	-11143
▁saadikut	-11144
▁kaugeltki	-11145
▁loogikast	-11146
▁selgitama	-11147
▁vähendama	-11148
▁Põhjamaade	-11149
▁detailselt	-11150
▁kirjeldada	-11151
▁okupatsioon	-11152
▁isikuandmete	-11153
▁neljapäevast	-11154
▁rahvusvahelisel	-11155
fi	-11156
kuu	-11157
uge	-11158
miss	-11159
▁Per	-11160
▁küü	-11161
jääri	-11162
ootor	-11163
ühist	-11164
▁3000	-11165
▁jäta	-11166
▁lamm	-11167
▁rist	-11168
gemist	-11169
majade	-11170
taseme	-11171
▁mõjud	-11172
▁Peipsi	-11173
▁Vahest	-11174
▁etteku	-11175
▁suunal	-11176
▁viivad	-11177
▁õppeka	-11178
▁Nestori	-11179
▁kummite	-11180
▁muusika	-11181
▁mõjusid	-11182
▁Ülikool	-11183
▁lähitule	-11184
▁üksteist	-11185
▁aktuaalne	-11186
▁dividendi	-11187
▁printsiib	-11188
▁olulisemad	-11189
▁võimaldavad	-11190
▁Ühendkuning	-11191
▁vanaduspension	-11192
▁majandusprognoo	-11193
▁0	-11194
Pra	-11195
iia	-11196
ulli	-11197
ümni	-11198
▁lük	-11199
Päeva	-11200
eneks	-11201
tmeet	-11202
umisi	-11203
▁Alen	-11204
Tänane	-11205
▁tooks	-11206
▁eelkäi	-11207
▁hullem	-11208
▁suhete	-11209
▁toimuv	-11210
hinnangu	-11211
▁kahtlus	-11212
▁saamist	-11213
▁ühisosa	-11214
▁bensiini	-11215
▁läheneda	-11216
▁tuleksid	-11217
▁voliniku	-11218
▁vägivald	-11219
▁kehtestab	-11220
▁uuringute	-11221
▁valimisel	-11222
▁mõistlikud	-11223
▁problemaat	-11224
▁valmisoleku	-11225
▁spetsialistide	-11226
dil	-11227
urg	-11228
Igor	-11229
idul	-11230
tset	-11231
▁Soov	-11232
▁uima	-11233
astest	-11234
tasite	-11235
▁kõrva	-11236
▁tõest	-11237
olukord	-11238
▁astuma	-11239
▁kiiret	-11240
▁loetel	-11241
▁loetle	-11242
oloogiat	-11243
ttevõtte	-11244
▁Teisest	-11245
▁väljaeh	-11246
konsensus	-11247
▁laekumine	-11248
▁teadlased	-11249
▁võlakirju	-11250
▁kohtumisel	-11251
▁komisjonil	-11252
▁muutmisega	-11253
▁panustanud	-11254
▁piirangute	-11255
▁Järelevalve	-11256
▁ajakirjanik	-11257
▁kehtestamine	-11258
▁konkreetsest	-11259
▁rakendamiseks	-11260
▁maksukorralduse	-11261
Juh	-11262
jät	-11263
käik	-11264
uunda	-11265
▁000.	-11266
▁2011	-11267
▁karm	-11268
▁mäng	-11269
arengu	-11270
astega	-11271
unapuu	-11272
▁viide	-11273
▁ülemp	-11274
▁panete	-11275
▁reegel	-11276
▁ühelgi	-11277
▁kalline	-11278
▁lahingu	-11279
▁mõtesta	-11280
▁nõuavad	-11281
▁korrasta	-11282
▁lugesite	-11283
▁samasool	-11284
▁sõnavõtt	-11285
▁Kolleegid	-11286
▁Vastavalt	-11287
▁eelarvele	-11288
▁haigekass	-11289
▁kaasamine	-11290
▁kohtumine	-11291
▁külalised	-11292
▁paranenud	-11293
▁sätestada	-11294
▁järeldused	-11295
▁kriitilise	-11296
▁lapsetoetus	-11297
▁vastupidine	-11298
▁lahendatakse	-11299
▁suurendamise	-11300
ges	-11301
kal	-11302
unu	-11303
ikad	-11304
usti	-11305
▁roo	-11306
▁vir	-11307
uliku	-11308
umber	-11309
▁Ingl	-11310
▁laev	-11311
▁pime	-11312
kohase	-11313
▁börsi	-11314
▁lähed	-11315
▁meres	-11316
▁osaks	-11317
▁vilja	-11318
tööstus	-11319
▁Kutsun	-11320
▁Tänase	-11321
▁alanud	-11322
▁apteek	-11323
▁põhite	-11324
▁õppela	-11325
Sotsiaal	-11326
ustatult	-11327
▁ametlik	-11328
▁leidsid	-11329
▁loobuma	-11330
▁spekule	-11331
▁õpilase	-11332
▁asjaolud	-11333
▁keskkond	-11334
▁kukkunud	-11335
▁kõneleja	-11336
▁maksumus	-11337
▁vabaduse	-11338
▁vähenema	-11339
▁esimesest	-11340
▁garantiid	-11341
▁rakendama	-11342
▁tsiteerin	-11343
▁elamisluba	-11344
▁maksumäära	-11345
▁maksustada	-11346
▁tehnilised	-11347
▁analüüsitud	-11348
▁tagasisidet	-11349
▁kasutamiseks	-11350
▁käsitletakse	-11351
▁kahetsusväärne	-11352
50	-11353
mä	-11354
uumi	-11355
seisu	-11356
▁Arva	-11357
▁elut	-11358
tiivne	-11359
▁Heili	-11360
▁SKAIS	-11361
▁Varem	-11362
▁abiks	-11363
▁eelis	-11364
▁hümni	-11365
▁kuues	-11366
▁mured	-11367
▁oskus	-11368
▁tulin	-11369
▁esitle	-11370
▁haigus	-11371
▁keeldu	-11372
▁motiiv	-11373
▁suurde	-11374
▁17.15."	-11375
▁Jällegi	-11376
▁Laaneti	-11377
▁katteks	-11378
▁nimetab	-11379
▁plaanib	-11380
▁ühendus	-11381
Vabandust	-11382
õpetuseks	-11383
▁dividend	-11384
▁mäletame	-11385
▁täidavad	-11386
▁Venemaalt	-11387
▁juhtimine	-11388
▁materjali	-11389
▁suurusega	-11390
▁inimestelt	-11391
▁läbipaistev	-11392
▁töövõimetus	-11393
▁Loodetavasti	-11394
▁majanduslikku	-11395
osf	-11396
tke	-11397
▁Kl	-11398
mani	-11399
velti	-11400
bleeme	-11401
ktoris	-11402
▁jahip	-11403
▁kumma	-11404
▁piire	-11405
▁Eelmine	-11406
▁kallale	-11407
▁mõttega	-11408
▁vähenes	-11409
▁Kolmanda	-11410
▁eksperdi	-11411
▁hääletab	-11412
▁liikmele	-11413
▁õigusega	-11414
▁alampalga	-11415
▁miljoneid	-11416
▁osalemine	-11417
▁kinnisasja	-11418
▁suurusjärk	-11419
▁valitsuste	-11420
▁lihtsustatud	-11421
▁peaasjalikult	-11422
▁rahvusvahelised	-11423
IV	-11424
dia	-11425
aali	-11426
▁Vol	-11427
▁kos	-11428
▁vää	-11429
raadi	-11430
▁Ainu	-11431
▁PRIA	-11432
▁hüpp	-11433
▁hüve	-11434
gemise	-11435
isuhte	-11436
▁Arvan	-11437
▁prügi	-11438
▁üliol	-11439
▁kiirem	-11440
▁pankad	-11441
▁tollal	-11442
▁võtmes	-11443
endusega	-11444
▁Anvelti	-11445
▁eeldame	-11446
▁eriarva	-11447
▁osalema	-11448
asutustes	-11449
▁arutades	-11450
▁tarbimis	-11451
▁puudujääk	-11452
▁stabilise	-11453
▁aktsiiside	-11454
▁prioriteete	-11455
▁sotsiaalsed	-11456
▁kujundamisel	-11457
▁motivatsioon	-11458
▁tugiteenuste	-11459
▁Ab	-11460
ruum	-11461
▁25%	-11462
kredi	-11463
▁000,	-11464
objekt	-11465
▁Järva	-11466
▁kiusa	-11467
▁ründa	-11468
▁õiget	-11469
▁möönan	-11470
▁senine	-11471
▁juhtuma	-11472
▁jätkuks	-11473
▁kujutan	-11474
▁lubadus	-11475
▁kõrgemad	-11476
▁revisjon	-11477
▁valituks	-11478
▁diplomaat	-11479
▁ülikoolide	-11480
▁Riigikogusse	-11481
▁kandidaatide	-11482
▁kutseharidus	-11483
▁poliitilises	-11484
▁rahvasaadiku	-11485
▁registreerida	-11486
kv	-11487
Põh	-11488
ööd	-11489
▁Tas	-11490
eeriv	-11491
isaad	-11492
▁värv	-11493
astuse	-11494
ikooli	-11495
▁kvoot	-11496
▁lenda	-11497
▁mõõdu	-11498
▁tõmbe	-11499
▁tõmma	-11500
▁tühja	-11501
▁vanad	-11502
▁arvuti	-11503
▁tõusis	-11504
▁Nendest	-11505
▁küsivad	-11506
▁teehoiu	-11507
▁õpilasi	-11508
▁ühetaol	-11509
kantsleri	-11510
ühenduste	-11511
▁ainukene	-11512
▁lähemale	-11513
▁tõstetud	-11514
▁elatisabi	-11515
▁kohalikus	-11516
▁ingliskeel	-11517
▁äriühingute	-11518
▁Afganistanis	-11519
▁abivahendite	-11520
▁lapsetoetuse	-11521
Er	-11522
Pea	-11523
ossi	-11524
osus	-11525
ppes	-11526
▁Sõt	-11527
▁100%	-11528
▁Amma	-11529
▁Iiri	-11530
▁puna	-11531
▁täht	-11532
▁vett	-11533
▁õpib	-11534
▁halla	-11535
▁viina	-11536
Teiseks	-11537
ktorist	-11538
liitude	-11539
▁Andrei	-11540
▁koolik	-11541
▁teades	-11542
gevusega	-11543
kasutust	-11544
unõukogu	-11545
▁Viimase	-11546
▁küsisid	-11547
▁säärane	-11548
▁teemale	-11549
▁ümbriku	-11550
▁võrdleme	-11551
▁ametnikke	-11552
▁karistada	-11553
▁kummitemp	-11554
▁ülesannet	-11555
▁hinnatakse	-11556
▁tähelepanek	-11557
proportsionaal	-11558
▁probleemidest	-11559
anis	-11560
kaat	-11561
seri	-11562
ähta	-11563
▁120	-11564
▁Aja	-11565
▁Por	-11566
indus	-11567
solid	-11568
▁Kõiv	-11569
▁vall	-11570
▁Eston	-11571
▁risti	-11572
▁rõõmu	-11573
▁saadi	-11574
▁suits	-11575
▁õieti	-11576
Seaduse	-11577
▁nõustu	-11578
▁skeemi	-11579
▁tundma	-11580
▁Oudekki	-11581
▁avalike	-11582
▁haiglas	-11583
▁kasvaks	-11584
▁rikutud	-11585
▁tarbeks	-11586
▁välisin	-11587
valimised	-11588
▁lubaduse	-11589
▁oluliste	-11590
▁taotlema	-11591
▁koolitust	-11592
▁programme	-11593
▁sellistel	-11594
▁tippkohtu	-11595
▁praegusest	-11596
▁Riigieelarve	-11597
▁maksustamine	-11598
▁perspektiivi	-11599
▁välismaalaste	-11600
▁kaasettekandeks	-11601
▁konventsiooniga	-11602
Arno	-11603
▁12,	-11604
mehed	-11605
tahes	-11606
▁Kodu	-11607
▁õhus	-11608
aladel	-11609
elikud	-11610
▁kaota	-11611
▁liita	-11612
▁uuest	-11613
Auväärt	-11614
ikorral	-11615
konstru	-11616
▁Nendel	-11617
▁audiit	-11618
▁baasse	-11619
▁võltsi	-11620
mitrijev	-11621
ühenduse	-11622
▁kaupade	-11623
▁kuuleme	-11624
▁tulenev	-11625
▁valikut	-11626
▁arvestab	-11627
▁euroraha	-11628
▁merendus	-11629
▁muutused	-11630
▁riikidel	-11631
▁talituse	-11632
▁vastasid	-11633
Lõpetuseks	-11634
▁Praegusel	-11635
▁dividende	-11636
▁piirmäära	-11637
▁vastutama	-11638
▁ühinemist	-11639
▁Kinnisvara	-11640
▁maksulaeku	-11641
▁võrdlemisi	-11642
▁Inimõiguste	-11643
▁eksisteerib	-11644
▁Maanteeameti	-11645
▁Parlamentaar	-11646
▁initsiatiivi	-11647
▁sissetulekud	-11648
▁kättesaadavaks	-11649
mik	-11650
itel	-11651
▁Saa	-11652
ikaua	-11653
kahju	-11654
telle	-11655
▁Põhj	-11656
▁lõiv	-11657
▁ülee	-11658
inguga	-11659
▁Muidu	-11660
▁Mõnes	-11661
▁Väino	-11662
▁agres	-11663
▁noore	-11664
▁veebi	-11665
itamist	-11666
ühendus	-11667
▁Sõerdi	-11668
▁keskse	-11669
▁pakett	-11670
▁pühend	-11671
protsess	-11672
▁Eelarve	-11673
▁Lepingu	-11674
▁eripära	-11675
▁olekski	-11676
▁reforme	-11677
▁salvest	-11678
▁suudeta	-11679
▁Viimasel	-11680
▁konsolid	-11681
▁kordades	-11682
▁kutseõpp	-11683
▁lubadust	-11684
▁november	-11685
▁tõsiseid	-11686
▁hindamine	-11687
▁osalusega	-11688
▁otsustest	-11689
▁arusaamist	-11690
▁arvestatav	-11691
▁esindajaid	-11692
▁igasuguste	-11693
▁keskenduda	-11694
▁sõnastatud	-11695
▁aktsepteeri	-11696
▁prognoosida	-11697
▁kolmapäevast	-11698
▁lapsetoetust	-11699
▁administratiiv	-11700
▁arendustegevus	-11701
gur	-11702
lin	-11703
▁OÜ	-11704
aaeg	-11705
eest	-11706
enet	-11707
kker	-11708
olev	-11709
taga	-11710
▁0,2	-11711
iksin	-11712
kasvu	-11713
▁patr	-11714
▁uuel	-11715
koosse	-11716
rantsi	-11717
teenus	-11718
uurist	-11719
▁kaame	-11720
▁liini	-11721
▁nõrge	-11722
omanike	-11723
▁hääled	-11724
▁ruumis	-11725
▁turvat	-11726
▁tõstma	-11727
Juhataja	-11728
juhataja	-11729
▁Seitsme	-11730
▁integra	-11731
▁päevaks	-11732
▁avalikud	-11733
▁kaudselt	-11734
▁kutsunud	-11735
▁taotlust	-11736
▁Milliseid	-11737
▁President	-11738
▁Päevakord	-11739
▁põhjuseid	-11740
▁rikkumise	-11741
▁tehnilisi	-11742
▁vajalikku	-11743
▁kasutamata	-11744
▁veeseaduse	-11745
▁piirkondade	-11746
▁teisipäevast	-11747
▁majandusaasta	-11748
▁sissetulekuga	-11749
▁strateegilise	-11750
▁Rahvusvahelise	-11751
▁ravikindlustus	-11752
▁kümneminutilist	-11753
Ta	-11754
kit	-11755
oht	-11756
aasa	-11757
kanal	-11758
oosse	-11759
tasud	-11760
▁oote	-11761
▁osut	-11762
▁rehk	-11763
aalset	-11764
▁etapp	-11765
▁hekta	-11766
▁konto	-11767
▁linnu	-11768
▁loode	-11769
järgult	-11770
äärista	-11771
▁Vitsut	-11772
▁arvust	-11773
▁näpuga	-11774
tatsioon	-11775
▁Pevkuri	-11776
▁eelnõul	-11777
▁kokkuku	-11778
▁muresid	-11779
▁paberil	-11780
▁elanikke	-11781
▁kahekord	-11782
▁linnades	-11783
▁reservid	-11784
gupeetavad	-11785
▁selgitust	-11786
▁teemadega	-11787
poliitilisi	-11788
▁valmistada	-11789
▁väiksemaks	-11790
▁patsientide	-11791
▁ettevõtjatel	-11792
▁lahendamisel	-11793
▁alkoholireklaa	-11794
–4	-11795
▁ts	-11796
ikah	-11797
▁III	-11798
▁päl	-11799
essur	-11800
grupi	-11801
klist	-11802
vusse	-11803
itanud	-11804
pingud	-11805
▁Tiina	-11806
▁lahja	-11807
▁Invest	-11808
▁Istung	-11809
▁arvele	-11810
▁soovis	-11811
▁istuvad	-11812
▁staatus	-11813
▁valijad	-11814
▁avaldusi	-11815
▁kerkinud	-11816
▁omanikud	-11817
isuhtevägi	-11818
kaubanduse	-11819
▁kuuluvate	-11820
▁kvaliteed	-11821
▁lisatakse	-11822
▁riigikeel	-11823
▁arendamine	-11824
▁magustatud	-11825
▁optimaalne	-11826
▁palgafondi	-11827
▁ülesandeks	-11828
8,	-11829
Jaa	-11830
Teg	-11831
▁KO	-11832
imeid	-11833
▁Imre	-11834
▁Liina	-11835
▁Mõtle	-11836
▁maale	-11837
▁toome	-11838
eesmärk	-11839
▁Küsiti	-11840
▁meelel	-11841
▁minnes	-11842
▁nimega	-11843
▁soodsa	-11844
▁vältel	-11845
▁Teataja	-11846
▁juhtima	-11847
▁lähemal	-11848
▁vabanda	-11849
▁eluaasta	-11850
▁helistab	-11851
▁kehtivat	-11852
▁mõtlevad	-11853
▁nimetati	-11854
▁näitajad	-11855
▁toimivad	-11856
Päevakorra	-11857
▁Brüsselis	-11858
▁Esimesena	-11859
▁Teisisõnu	-11860
▁Viimastel	-11861
▁liikumise	-11862
▁meenutada	-11863
▁menetlema	-11864
▁juhatajale	-11865
▁puudutanud	-11866
▁pöördumise	-11867
▁väljapoole	-11868
iguskomisjon	-11869
▁väikeettevõt	-11870
▁lisavahendeid	-11871
▁maksukoormust	-11872
oom	-11873
rum	-11874
▁Ak	-11875
atest	-11876
eemia	-11877
liige	-11878
ruppe	-11879
▁Jõge	-11880
▁avab	-11881
▁liha	-11882
▁mehi	-11883
▁möön	-11884
▁teer	-11885
▁Ühis	-11886
iharid	-11887
lubade	-11888
tusena	-11889
▁asjus	-11890
▁lõpet	-11891
▁tõrju	-11892
▁valib	-11893
ootjate	-11894
päevase	-11895
▁Mitmed	-11896
▁eemale	-11897
▁sõitma	-11898
▁unusta	-11899
▁vajaks	-11900
▁äravõt	-11901
▁Olukord	-11902
▁ebamuga	-11903
▁enamuse	-11904
▁kasvada	-11905
▁kaubala	-11906
▁suletud	-11907
▁nimetame	-11908
▁riigikas	-11909
▁saabunud	-11910
▁tulubaas	-11911
▁ühinenud	-11912
mehhanismi	-11913
▁eelkõnele	-11914
▁partnerid	-11915
▁poolteise	-11916
▁sümpaatne	-11917
▁volituste	-11918
▁järjekorda	-11919
▁kinnitavad	-11920
▁riigilõivu	-11921
▁toetamiseks	-11922
▁aastakümneid	-11923
▁täiendatakse	-11924
▁vähendamiseks	-11925
Ol	-11926
▁ii	-11927
itar	-11928
▁ske	-11929
gudes	-11930
▁Usku	-11931
lustel	-11932
väärne	-11933
▁märku	-11934
▁rendi	-11935
▁valge	-11936
▁Maaelu	-11937
▁Rakver	-11938
▁erineb	-11939
▁kahele	-11940
▁kvoodi	-11941
▁lubati	-11942
▁pakkus	-11943
▁raskem	-11944
▁sedagi	-11945
▁sotsid	-11946
▁suutel	-11947
▁Süürias	-11948
▁ebameel	-11949
▁kaitseb	-11950
▁mõlemal	-11951
▁tehnika	-11952
▁üllatus	-11953
konnaliik	-11954
õigusliku	-11955
▁tutvunud	-11956
positsioon	-11957
▁koolituse	-11958
▁parandama	-11959
▁teistesse	-11960
poliitikaga	-11961
▁kontrollib	-11962
▁samasugust	-11963
▁tervitatav	-11964
▁otsustatakse	-11965
▁operatsioonil	-11966
▁peaministrina	-11967
▁sihtotstarbel	-11968
▁suurendatakse	-11969
▁erimärgistatud	-11970
muu	-11971
lepe	-11972
lisi	-11973
vedu	-11974
volu	-11975
▁dik	-11976
▁Unga	-11977
▁loom	-11978
▁mast	-11979
▁nõrk	-11980
▁ideaal	-11981
▁optime	-11982
▁pärine	-11983
▁salata	-11984
▁sündis	-11985
▁tänulik	-11986
▁vaevalt	-11987
▁emakeele	-11988
▁huvidest	-11989
▁maksmist	-11990
▁mõningad	-11991
▁päritolu	-11992
▁vaatevin	-11993
▁õnnestus	-11994
▁arvestame	-11995
▁hinnangud	-11996
▁keeleõppe	-11997
▁rahalised	-11998
▁volitused	-11999
▁võimekuse	-12000
▁õigusriigi	-12001
▁Maanteeamet	-12002
▁kõnepuldist	-12003
▁hinnanguliselt	-12004
Kor	-12005
juu	-12006
nõud	-12007
▁Sch	-12008
Tartu	-12009
amade	-12010
forma	-12011
▁anta	-12012
▁liid	-12013
teemal	-12014
utavad	-12015
▁Lätti	-12016
▁Proua	-12017
▁arvut	-12018
▁joogi	-12019
konnale	-12020
▁Adamsi	-12021
▁tulles	-12022
▁näitama	-12023
▁pelgalt	-12024
▁tootmis	-12025
Komisjoni	-12026
▁lähemalt	-12027
▁lülitada	-12028
▁osutunud	-12029
▁patsient	-12030
▁teostada	-12031
▁tsentral	-12032
▁väärtusi	-12033
ettevõtted	-12034
▁tõenäosus	-12035
▁vastutada	-12036
▁ammendatud	-12037
▁analüüsima	-12038
▁kohtlemine	-12039
▁langetatud	-12040
▁lõpetuseks	-12041
▁arutamiseks	-12042
▁funktsioone	-12043
▁kobareelnõu	-12044
▁pensionärid	-12045
▁valdkonnaga	-12046
▁kehtestamise	-12047
▁korraldamine	-12048
AK	-12049
Mil	-12050
kolm	-12051
tööd	-12052
▁15,	-12053
▁ERR	-12054
▁röö	-12055
eeris	-12056
kuula	-12057
matut	-12058
meelt	-12059
refor	-12060
rände	-12061
ulgen	-12062
vaade	-12063
▁Asja	-12064
▁hing	-12065
▁pind	-12066
▁Linde	-12067
▁asetä	-12068
▁autot	-12069
▁pikas	-12070
fondist	-12071
komitee	-12072
▁ajenda	-12073
▁koguma	-12074
▁kõrged	-12075
▁Sihtasu	-12076
▁Tegelik	-12077
▁abikaas	-12078
▁ilmunud	-12079
▁väiteid	-12080
▁Ratasele	-12081
▁istungis	-12082
▁kaotavad	-12083
▁madalama	-12084
▁pankroti	-12085
▁pensione	-12086
▁pressite	-12087
▁tõestada	-12088
▁variante	-12089
võimalused	-12090
▁aktsiisid	-12091
▁personaal	-12092
▁riigieksa	-12093
▁sõnastada	-12094
▁tegelikku	-12095
▁leheküljel	-12096
▁tavapärane	-12097
poliitilised	-12098
▁Afganistani	-12099
▁päevakorral	-12100
▁sanktsioone	-12101
▁okupatsiooni	-12102
▁kr	-12103
elan	-12104
stati	-12105
umaal	-12106
▁Mali	-12107
▁Sull	-12108
▁kärb	-12109
▁leeb	-12110
▁vile	-12111
▁Türgi	-12112
▁hilja	-12113
▁ignor	-12114
▁valva	-12115
sigaret	-12116
▁loomin	-12117
▁palkad	-12118
▁trassi	-12119
▁Randver	-12120
▁hakkate	-12121
▁laenude	-12122
▁põhikir	-12123
▁tõstnud	-12124
▁viivita	-12125
üsteemist	-12126
▁arvutada	-12127
▁konkurss	-12128
▁hambaravi	-12129
▁järeldada	-12130
▁teadmised	-12131
▁tehtavate	-12132
▁tühistada	-12133
▁õigusriik	-12134
▁üheksanda	-12135
▁neljapäeval	-12136
▁põhjendused	-12137
inspektsiooni	-12138
Vah	-12139
▁SA	-12140
emaid	-12141
itele	-12142
magoo	-12143
▁Tere	-12144
▁Tänu	-12145
▁Kõigi	-12146
▁heale	-12147
▁katab	-12148
▁omast	-12149
▁õppet	-12150
▁üksus	-12151
▁staabi	-12152
▁teavet	-12153
▁valdav	-12154
▁Milleks	-12155
▁Täiesti	-12156
▁apteegi	-12157
▁pöörama	-12158
▁tundnud	-12159
▁vahetus	-12160
▁Paragrah	-12161
▁liitunud	-12162
▁maksmata	-12163
▁ruutmeet	-12164
▁ühendada	-12165
▁arvutused	-12166
▁inimesena	-12167
▁millistel	-12168
▁pakkumine	-12169
▁ebaõiglane	-12170
▁valimislub	-12171
▁juurdepääsu	-12172
▁mitmesugused	-12173
▁ammendumiseni	-12174
▁liiklusseaduse	-12175
ege	-12176
võl	-12177
▁Kr	-12178
jagu	-12179
▁18-	-12180
▁Bre	-12181
▁Nov	-12182
▁Uue	-12183
▁usk	-12184
evade	-12185
ideti	-12186
▁Kuhu	-12187
▁Sepp	-12188
▁pist	-12189
▁Milles	-12190
▁baasil	-12191
▁kohatu	-12192
▁läbimõ	-12193
▁panust	-12194
▁Toobali	-12195
▁erimeel	-12196
▁kahelda	-12197
▁muuseum	-12198
▁väitega	-12199
▁õnnestu	-12200
▁Inimeste	-12201
▁Kreekale	-12202
▁Võimalik	-12203
▁eelarvel	-12204
▁maakonda	-12205
▁miinuses	-12206
▁reaalset	-12207
▁tööjõudu	-12208
▁õppetoet	-12209
▁lepinguga	-12210
▁osutamise	-12211
öderatsioon	-12212
▁ajalooline	-12213
▁lahendamist	-12214
▁arupärimises	-12215
▁erisoodustus	-12216
▁eestikeelsele	-12217
▁kompensatsioon	-12218
▁Konkurentsiamet	-12219
▁institutsioonid	-12220
7,	-12221
od	-12222
utav	-12223
võit	-12224
▁Umb	-12225
▁õde	-12226
idena	-12227
inaab	-12228
suses	-12229
▁Pome	-12230
▁ajab	-12231
Mailis	-12232
▁Rääki	-12233
▁Tanel	-12234
▁karda	-12235
▁laena	-12236
▁naise	-12237
▁vabas	-12238
Kolleeg	-12239
▁Lätist	-12240
▁käitub	-12241
▁logist	-12242
▁määras	-12243
▁üheski	-12244
▁hakatud	-12245
▁igaühel	-12246
▁meeldiv	-12247
▁muutust	-12248
▁mõttetu	-12249
▁pidasin	-12250
▁repliik	-12251
▁Tänaseks	-12252
▁vajalike	-12253
▁Kusjuures	-12254
▁kaotamine	-12255
▁kohapealt	-12256
▁reservide	-12257
▁sellistes	-12258
▁puudutasid	-12259
▁sellisesse	-12260
▁tegevusloa	-12261
▁tõstatanud	-12262
▁eriarstiabi	-12263
▁reguleerima	-12264
ganisatsioone	-12265
▁erakondadele	-12266
▁situatsiooni	-12267
▁vaatevinklist	-12268
leg	-12269
päde	-12270
skee	-12271
▁Bar	-12272
▁Slo	-12273
▁sid	-12274
risti	-12275
▁Nool	-12276
▁Ühel	-12277
ootjad	-12278
prokur	-12279
▁Aasia	-12280
▁Laari	-12281
▁moodi	-12282
▁nimed	-12283
▁rühma	-12284
▁viisi	-12285
▁Ühest	-12286
oetused	-12287
▁Süüria	-12288
▁Velman	-12289
▁halvad	-12290
▁keskel	-12291
kontroll	-12292
▁Millise	-12293
▁advokat	-12294
▁jõustus	-12295
▁piiride	-12296
▁sisaldu	-12297
▁tugevad	-12298
▁üksikud	-12299
▁ülejärg	-12300
▁arutleda	-12301
▁ilmselge	-12302
▁maksimum	-12303
▁rahalisi	-12304
▁tavapära	-12305
▁usaldust	-12306
▁inimesest	-12307
▁kulutuste	-12308
▁loomiseks	-12309
▁tagajärgi	-12310
▁Valitsusel	-12311
▁katastroof	-12312
▁põhjalikku	-12313
▁kommentaari	-12314
▁struktuurne	-12315
▁tehniliselt	-12316
▁kolleegidele	-12317
▁muudatustest	-12318
▁valitsemisala	-12319
eloo	-12320
▁13,	-12321
▁Kos	-12322
▁Rõh	-12323
raama	-12324
turul	-12325
▁käsk	-12326
▁võlg	-12327
alasse	-12328
keeles	-12329
▁käiku	-12330
▁püsti	-12331
tasemel	-12332
▁hoiame	-12333
▁huviga	-12334
▁minust	-12335
▁tööaja	-12336
astamise	-12337
▁demagoo	-12338
▁küsitav	-12339
▁läbinud	-12340
▁mainida	-12341
▁minevik	-12342
▁taskust	-12343
▁tellida	-12344
▁toodete	-12345
▁tõsteti	-12346
▁vastaja	-12347
▁kõrgkool	-12348
▁radikaal	-12349
▁Käesoleva	-12350
▁agressiiv	-12351
▁edasimine	-12352
▁ettekirju	-12353
▁hiljemalt	-12354
▁kinnitust	-12355
▁novembris	-12356
▁registree	-12357
▁sõnastust	-12358
▁väikesaar	-12359
poliitilise	-12360
▁Pomerantsi	-12361
▁Päevakorra	-12362
▁varasemate	-12363
▁lahendamine	-12364
▁maksustatud	-12365
▁vabatahtlike	-12366
▁hääletamissed	-12367
▁lähitulevikus	-12368
▁registreerunud	-12369
TA	-12370
ond	-12371
teh	-12372
iige	-12373
utas	-12374
▁106	-12375
▁16,	-12376
▁gen	-12377
▁kiv	-12378
egula	-12379
kriis	-12380
kümne	-12381
nduse	-12382
utati	-12383
▁kõhk	-12384
▁heita	-12385
▁hämma	-12386
▁tants	-12387
▁teeni	-12388
▁viidi	-12389
▁krimin	-12390
▁rollis	-12391
▁skanda	-12392
▁survet	-12393
▁voorus	-12394
▁Kreekas	-12395
▁ettetea	-12396
▁meeldis	-12397
▁nendelt	-12398
▁proviis	-12399
▁praegugi	-12400
▁punktide	-12401
▁tagamine	-12402
▁toetatud	-12403
▁tööhõive	-12404
▁järelduse	-12405
▁konteksti	-12406
▁milliseks	-12407
▁rõhutasin	-12408
▁tugevasti	-12409
▁edasilükka	-12410
▁elatisraha	-12411
▁tagasimakse	-12412
▁täitevvõimu	-12413
▁valmistanud	-12414
kindlustusamet	-12415
▁miinimumpalga	-12416
▁tööjõumaksude	-12417
▁regulatsioonid	-12418
▁riigigümnaasium	-12419
efe	-12420
sat	-12421
enia	-12422
koja	-12423
pris	-12424
viid	-12425
▁hin	-12426
▁õhk	-12427
▁Koos	-12428
▁Nord	-12429
▁jalg	-12430
▁lõhe	-12431
▁neis	-12432
▁reda	-12433
endiga	-12434
gudest	-12435
tlandi	-12436
▁India	-12437
▁Silla	-12438
▁halva	-12439
▁ilmne	-12440
▁külas	-12441
▁valus	-12442
▁Uskuge	-12443
▁eurolt	-12444
▁ilusti	-12445
▁kirjel	-12446
▁laiema	-12447
▁lepiti	-12448
▁raamat	-12449
▁raiska	-12450
▁ringis	-12451
▁tasuda	-12452
▁Pariisi	-12453
▁järgida	-12454
▁saadeti	-12455
▁hoitakse	-12456
▁hüvitise	-12457
▁kõrgemat	-12458
▁soovitud	-12459
▁toimusid	-12460
▁vaikselt	-12461
▁ühinemis	-12462
oloogilise	-12463
▁Julgeolek	-12464
▁Savisaare	-12465
▁ajutiselt	-12466
▁tutvustan	-12467
▁töötukass	-12468
▁kehtestati	-12469
▁lõpetamise	-12470
▁novembriks	-12471
▁süsteemiga	-12472
▁vähenemist	-12473
▁üldharidus	-12474
formierakond	-12475
▁langetamise	-12476
▁sanktsioonide	-12477
▁lisandväärtust	-12478
▁ühemõtteliselt	-12479
201	-12480
kom	-12481
▁194	-12482
▁Kun	-12483
▁Van	-12484
▁dia	-12485
▁tip	-12486
parla	-12487
aktiiv	-12488
andmed	-12489
kontor	-12490
▁Prakt	-12491
▁Purga	-12492
▁autod	-12493
▁ebatä	-12494
▁passi	-12495
▁selja	-12496
▁Neljas	-12497
▁algust	-12498
▁armast	-12499
▁huvite	-12500
▁kaardi	-12501
▁lapsel	-12502
▁omaste	-12503
▁viisak	-12504
▁Holsmer	-12505
▁distsip	-12506
▁hetkest	-12507
▁laiemas	-12508
▁platvor	-12509
uregistri	-12510
▁Vaarmann	-12511
▁eestveda	-12512
▁jäätmete	-12513
▁ressurss	-12514
▁tegeliku	-12515
▁valikute	-12516
▁vastanda	-12517
▁jaanuaris	-12518
▁järgnevad	-12519
▁kaasamise	-12520
▁ostetakse	-12521
▁teadlikud	-12522
▁ehitatakse	-12523
▁reaktsioon	-12524
▁temaatikat	-12525
▁Põhiseaduse	-12526
▁kaitsevõime	-12527
▁kinnitamine	-12528
▁kolmapäeval	-12529
▁olulisemaid	-12530
▁registrisse	-12531
▁töötajatele	-12532
▁õiguslikult	-12533
▁politseiamet	-12534
▁haridussüsteemi	-12535
–6	-12536
jja	-12537
tad	-12538
▁EL	-12539
deri	-12540
kuga	-12541
mahu	-12542
ulah	-12543
▁lõd	-12544
meest	-12545
tiisi	-12546
võist	-12547
▁Paul	-12548
▁Puud	-12549
▁käed	-12550
▁levi	-12551
▁stim	-12552
Kuidas	-12553
istega	-12554
koholi	-12555
▁otsas	-12556
▁toitu	-12557
joontes	-12558
kohtade	-12559
ustuste	-12560
▁arvuga	-12561
▁baseer	-12562
▁jagama	-12563
▁jääbki	-12564
▁materi	-12565
▁pikaks	-12566
▁surnud	-12567
▁tasude	-12568
endamist	-12569
praktika	-12570
▁Alender	-12571
▁Hiiumaa	-12572
▁algselt	-12573
▁juuniks	-12574
▁lihtsal	-12575
▁tänaval	-12576
▁tõsised	-12577
▁eksperte	-12578
▁jälginud	-12579
▁puudutav	-12580
▁teistega	-12581
▁materjale	-12582
▁mikrofoni	-12583
▁vältimise	-12584
positsiooni	-12585
▁autonoomia	-12586
oloogiliselt	-12587
▁Vabariigile	-12588
▁teistsuguse	-12589
▁ühiskonnast	-12590
kohtumenetluse	-12591
▁ettevõtjatega	-12592
▁sotsiaalmeedi	-12593
▁ettepanekutest	-12594
fun	-12595
iet	-12596
▁20,	-12597
▁Ülem	-12598
gudele	-12599
matuks	-12600
tavale	-12601
▁Ivari	-12602
▁Teema	-12603
▁läbis	-12604
▁mõõta	-12605
▁salli	-12606
▁täpse	-12607
kohased	-12608
mentide	-12609
▁Siiski	-12610
▁perele	-12611
▁saadab	-12612
▁soovid	-12613
vabadust	-12614
▁aluseid	-12615
▁kuuluma	-12616
▁ohjelda	-12617
▁suhetes	-12618
▁summast	-12619
▁tervelt	-12620
põhimõtte	-12621
▁aktsiise	-12622
▁kuritegu	-12623
▁teravalt	-12624
▁intervjuu	-12625
▁sõiduauto	-12626
▁toimetada	-12627
▁arvamusega	-12628
▁igapäevast	-12629
▁kutsutakse	-12630
▁järjekorrad	-12631
▁üksmeelselt	-12632
▁korraldatakse	-12633
▁lähisuhtevägi	-12634
▁päästekomando	-12635
▁põllumajanduses	-12636
eba	-12637
▁Eh	-12638
▁St	-12639
isal	-12640
panu	-12641
urid	-12642
▁Tol	-12643
▁lan	-12644
▁lät	-12645
Eerik	-12646
ikene	-12647
kasti	-12648
▁Kana	-12649
▁Trei	-12650
istlik	-12651
levisi	-12652
musest	-12653
reemia	-12654
▁hõiva	-12655
▁kaeva	-12656
▁maiks	-12657
▁tööri	-12658
kapital	-12659
▁Lubage	-12660
▁taheta	-12661
▁ühtset	-12662
▁arvanud	-12663
▁asutusi	-12664
▁eluaast	-12665
▁hoolega	-12666
▁liitrit	-12667
▁Kaitsevä	-12668
▁menetleb	-12669
▁märganud	-12670
▁televisi	-12671
▁tingimus	-12672
▁tõstmist	-12673
▁kirjaliku	-12674
▁tunnustan	-12675
▁Tulenevalt	-12676
▁Päästeameti	-12677
▁efektiivsem	-12678
▁iseseisvuse	-12679
▁märgatavalt	-12680
▁Ed	-12681
▁Is	-12682
▁Ber	-12683
▁Elu	-12684
▁Lah	-12685
Kalev	-12686
adist	-12687
igata	-12688
ingup	-12689
kütte	-12690
maalt	-12691
piisa	-12692
pooli	-12693
▁homo	-12694
▁julg	-12695
▁viit	-12696
▁2006.	-12697
▁kompl	-12698
▁pinge	-12699
▁poola	-12700
mustest	-12701
▁elutäh	-12702
▁kaalun	-12703
▁kaunis	-12704
▁keelde	-12705
▁mootor	-12706
▁propag	-12707
▁ületab	-12708
kandjale	-12709
▁nõustun	-12710
▁eelmiste	-12711
▁kogemust	-12712
▁paigalda	-12713
▁Läänemere	-12714
▁piirikaub	-12715
konverentsi	-12716
▁liikmetelt	-12717
▁programmis	-12718
▁sõnastuses	-12719
▁tõlgendada	-12720
▁iseseisvalt	-12721
▁matemaatika	-12722
▁keerulisemaks	-12723
▁probleemidele	-12724
▁tasandusfondi	-12725
bu	-12726
Ain	-12727
gar	-12728
kama	-12729
ukku	-12730
umad	-12731
▁fan	-12732
errit	-12733
guste	-12734
ulude	-12735
vilja	-12736
▁Tunn	-12737
Niiles	-12738
invest	-12739
▁manip	-12740
protsed	-12741
▁häirib	-12742
▁suruda	-12743
utustega	-12744
▁Maailma	-12745
▁ajutine	-12746
▁huvisid	-12747
▁kombeks	-12748
nimetatud	-12749
▁eksporti	-12750
▁erakondi	-12751
▁küsisime	-12752
▁puhkudel	-12753
▁riigikee	-12754
▁sõltuvad	-12755
▁taotlusi	-12756
▁uurimist	-12757
▁kiirlaenu	-12758
▁maksimaal	-12759
▁ravijärje	-12760
▁seonduvad	-12761
▁riigipiiri	-12762
▁tulenevaid	-12763
▁vastutavad	-12764
▁kolleegidel	-12765
▁teenistuses	-12766
▁kollektiivse	-12767
▁õppetoetuste	-12768
▁kontseptsioon	-12769
Rah	-12770
▁ai	-12771
ieel	-12772
stav	-12773
teer	-12774
▁End	-12775
▁lär	-12776
Lauli	-12777
pilti	-12778
põgen	-12779
riike	-12780
▁4000	-12781
▁Mosk	-12782
▁Vara	-12783
▁haam	-12784
▁nota	-12785
▁valm	-12786
Helmen	-12787
vadega	-12788
▁ilmus	-12789
▁ääres	-12790
▁Valgev	-12791
▁instit	-12792
▁käidud	-12793
▁piloot	-12794
▁targem	-12795
▁töösuh	-12796
enistuse	-12797
▁käitumis	-12798
▁prokurör	-12799
▁pöörduma	-12800
▁versioon	-12801
▁korraliku	-12802
▁kvartalis	-12803
▁rikkumine	-12804
▁tunnistan	-12805
▁vabastada	-12806
▁õppelaenu	-12807
▁konsensust	-12808
▁maakondade	-12809
▁suudetakse	-12810
▁poliitikast	-12811
▁rakendamist	-12812
▁toetusrühma	-12813
▁vahenditega	-12814
▁vedelkütuse	-12815
▁konkreetsele	-12816
▁sissetulekut	-12817
Pe	-12818
bus	-12819
isra	-12820
meri	-12821
osas	-12822
pall	-12823
pand	-12824
▁14,	-12825
▁Rea	-12826
▁kap	-12827
▁pin	-12828
ingus	-12829
kamad	-12830
kuule	-12831
sjagu	-12832
vastu	-12833
▁kõrv	-12834
▁lipp	-12835
▁oper	-12836
▁toid	-12837
firmad	-12838
▁Juhin	-12839
▁haara	-12840
▁igast	-12841
▁lõhku	-12842
▁pidev	-12843
▁taand	-12844
▁areneb	-12845
▁asjaos	-12846
▁eestko	-12847
▁faasis	-12848
▁liialt	-12849
▁linnad	-12850
▁väited	-12851
▁pöördus	-12852
▁tugevam	-12853
▁ühekord	-12854
▁üksikas	-12855
▁augustil	-12856
▁eeldused	-12857
▁elukutse	-12858
▁eraldise	-12859
▁kolleege	-12860
▁pööranud	-12861
▁register	-12862
▁takistab	-12863
▁arutelule	-12864
▁esimesena	-12865
▁pakkumise	-12866
▁parasjagu	-12867
▁põllumehi	-12868
▁tendentsi	-12869
▁vajadused	-12870
▁väärtuste	-12871
▁euroopalik	-12872
▁menetletud	-12873
▁projektide	-12874
▁tulenevate	-12875
▁eestikeelne	-12876
▁hääletamine	-12877
▁peadirektor	-12878
▁põhiõiguste	-12879
▁funktsioonid	-12880
▁hädaolukorra	-12881
▁kontseptsiooni	-12882
▁Statistikaameti	-12883
▁komisjonipoolne	-12884
▁liikmesriikides	-12885
aag	-12886
voo	-12887
▁Ki	-12888
▁pi	-12889
▁auk	-12890
anske	-12891
itama	-12892
listi	-12893
▁Lang	-12894
▁Paar	-12895
▁lõun	-12896
▁süst	-12897
arvest	-12898
▁oskan	-12899
▁sõdur	-12900
▁voodi	-12901
väärtus	-12902
▁Jaapan	-12903
▁juhtiv	-12904
▁notari	-12905
▁panite	-12906
▁Muuseas	-12907
▁Mõlemad	-12908
▁Pension	-12909
▁Talviku	-12910
▁inimõig	-12911
▁kajastu	-12912
▁oodanud	-12913
▁rõhutas	-12914
▁õigusnõ	-12915
valitsust	-12916
▁kuupäeva	-12917
▁kümnenda	-12918
▁seksuaal	-12919
▁vastutav	-12920
▁kõnealune	-12921
▁liitlaste	-12922
▁tarbijale	-12923
▁internetis	-12924
▁kolmandate	-12925
▁käsitlevad	-12926
▁lapsevanem	-12927
▁riikidesse	-12928
▁inflatsioon	-12929
▁nendesamade	-12930
poliitiliselt	-12931
▁regulaarselt	-12932
▁toimetulekut	-12933
▁poliitilisest	-12934
▁spetsialiseer	-12935
▁sõnavõtusoove	-12936
▁ministeeriumil	-12937
bija	-12938
ikan	-12939
ksas	-12940
ksus	-12941
vool	-12942
▁170	-12943
▁Lan	-12944
▁Ras	-12945
▁Vik	-12946
asjad	-12947
datud	-12948
kavas	-12949
▁Anne	-12950
▁Linn	-12951
▁loja	-12952
järgul	-12953
põhise	-12954
▁deleg	-12955
▁toota	-12956
▁üpris	-12957
anduses	-12958
netuste	-12959
organid	-12960
▁aastaa	-12961
▁andsin	-12962
▁litsen	-12963
▁nähtus	-12964
koosolek	-12965
▁julgust	-12966
▁kuuluva	-12967
▁mitmete	-12968
▁noortel	-12969
▁piisava	-12970
▁vastaks	-12971
▁nõutakse	-12972
▁võidavad	-12973
▁Venemaale	-12974
▁asjaolude	-12975
▁füüsilise	-12976
▁haldusala	-12977
▁langetati	-12978
▁odavamaks	-12979
▁standardi	-12980
▁teadlaste	-12981
▁kolmandast	-12982
▁lahenduste	-12983
▁määramisel	-12984
▁septembris	-12985
▁üritatakse	-12986
▁füüsiliselt	-12987
▁optimistlik	-12988
▁seisukohaga	-12989
▁likvideerida	-12990
▁majandusliku	-12991
▁ettevõtlusega	-12992
▁parlamentaarse	-12993
tõl	-12994
iiga	-12995
▁1,2	-12996
▁õud	-12997
ikese	-12998
metsa	-12999
▁Kert	-13000
▁Küti	-13001
▁Tiit	-13002
▁kaab	-13003
▁mand	-13004
▁Tulen	-13005
▁perev	-13006
▁sõrme	-13007
▁taime	-13008
▁töölt	-13009
Atlandi	-13010
eeriumi	-13011
ülikool	-13012
▁Haigla	-13013
▁eesist	-13014
▁jumala	-13015
▁täides	-13016
enduseks	-13017
▁indekse	-13018
▁müüakse	-13019
▁õnnelik	-13020
▁Niimoodi	-13021
▁sõlminud	-13022
▁tekkisid	-13023
▁võõranda	-13024
▁Erinevalt	-13025
▁avalikkus	-13026
▁koostanud	-13027
▁määramise	-13028
▁ressursid	-13029
▁jaanuariks	-13030
▁ettepanekust	-13031
▁reformierakond	-13032
hv	-13033
hää	-13034
iha	-13035
Erki	-13036
itas	-13037
stel	-13038
tend	-13039
▁aju	-13040
▁kla	-13041
▁hoon	-13042
▁Ülle	-13043
▁demon	-13044
▁kuuga	-13045
▁pinna	-13046
▁rõõms	-13047
▁teadv	-13048
▁Ammase	-13049
▁keskus	-13050
▁lõiget	-13051
▁minagi	-13052
▁mindud	-13053
▁paikne	-13054
omanikud	-13055
▁hoidnud	-13056
▁järgneb	-13057
▁koolist	-13058
▁lugedes	-13059
▁pehmelt	-13060
▁reaalse	-13061
▁võimule	-13062
▁õiguses	-13063
aastaseks	-13064
eerimisel	-13065
▁kaalunud	-13066
▁karjääri	-13067
▁kinnipee	-13068
▁käsitles	-13069
▁lahkuvad	-13070
▁tehtavad	-13071
▁tootmine	-13072
▁vajadusi	-13073
▁kannatanu	-13074
▁kuritegel	-13075
▁maailmasõ	-13076
▁takistada	-13077
▁turvaline	-13078
▁ülikoolid	-13079
▁Kaitseliit	-13080
▁arengufond	-13081
▁eurotsooni	-13082
▁keerulised	-13083
▁kohtunikud	-13084
▁oktoobriks	-13085
poliitiliste	-13086
▁politseinike	-13087
▁realiseerida	-13088
▁ettevalmistus	-13089
▁kooseluseadus	-13090
▁kriminaalasja	-13091
▁vaieldamatult	-13092
▁rahvusvahelisi	-13093
are	-13094
vär	-13095
▁br	-13096
Mida	-13097
iisi	-13098
ptee	-13099
stid	-13100
susi	-13101
trit	-13102
tuid	-13103
võtu	-13104
–202	-13105
▁HIV	-13106
▁Lil	-13107
angud	-13108
▁Luge	-13109
▁odav	-13110
hulgas	-13111
seisev	-13112
stavad	-13113
▁Eerik	-13114
▁drast	-13115
▁jäeti	-13116
▁liiki	-13117
▁skept	-13118
▁turis	-13119
▁Iraagi	-13120
▁eksida	-13121
▁meedet	-13122
▁meetod	-13123
▁tahtis	-13124
▁teiegi	-13125
▁tulete	-13126
▁ühiste	-13127
istamise	-13128
▁Tamkivi	-13129
▁kõrgelt	-13130
▁valdade	-13131
▁väliste	-13132
kohustuse	-13133
▁ajalukku	-13134
▁lähtuvad	-13135
▁tublisti	-13136
▁tuhanded	-13137
▁valminud	-13138
▁Eestimaal	-13139
▁alustatud	-13140
▁kuulutada	-13141
▁lubatakse	-13142
▁projektid	-13143
▁rahastuse	-13144
▁konsensuse	-13145
▁niisuguste	-13146
▁sellistest	-13147
▁umbusaldus	-13148
▁valijatele	-13149
▁kiirustades	-13150
▁kindlustada	-13151
▁kuritegusid	-13152
▁lahendamata	-13153
▁Ministeeriumi	-13154
kindlustusameti	-13155
dru	-13156
ket	-13157
isis	-13158
kaja	-13159
rahu	-13160
▁192	-13161
▁lob	-13162
gmaat	-13163
jääki	-13164
▁Heid	-13165
▁Viis	-13166
▁eira	-13167
▁loov	-13168
hedalt	-13169
regule	-13170
viisil	-13171
▁liigu	-13172
▁sobil	-13173
aastalt	-13174
konnana	-13175
lastest	-13176
riigist	-13177
▁lubate	-13178
▁samale	-13179
kasvanud	-13180
riliselt	-13181
▁Estonia	-13182
▁erandid	-13183
▁lahkuda	-13184
▁looduse	-13185
▁ootused	-13186
▁stimule	-13187
▁toimuva	-13188
▁tühjaks	-13189
▁ületada	-13190
hääletust	-13191
ministrid	-13192
▁Veeteede	-13193
▁elatusta	-13194
▁koondada	-13195
▁maagaasi	-13196
▁ravimeid	-13197
ministrite	-13198
▁komponent	-13199
▁erinevatel	-13200
▁tutvustasid	-13201
▁vähendamist	-13202
▁omandireformi	-13203
▁põhimõttelise	-13204
He	-13205
nad	-13206
tli	-13207
uum	-13208
▁SE	-13209
hind	-13210
kuks	-13211
reag	-13212
teed	-13213
▁Kõl	-13214
▁Str	-13215
▁leg	-13216
giast	-13217
junkt	-13218
selgi	-13219
▁Pika	-13220
▁asus	-13221
▁kuld	-13222
▁maid	-13223
▁olge	-13224
▁süüa	-13225
Praegu	-13226
päevad	-13227
▁Lõpet	-13228
▁Menet	-13229
▁Välja	-13230
▁harva	-13231
▁kohan	-13232
▁viipe	-13233
astatud	-13234
gionaal	-13235
▁audite	-13236
▁maksuh	-13237
▁nähtav	-13238
▁sammas	-13239
▁soodus	-13240
useadust	-13241
▁hektari	-13242
▁kalapüü	-13243
▁tegevvä	-13244
▁võimude	-13245
▁dialoogi	-13246
▁finantsi	-13247
▁linnaosa	-13248
▁meenutan	-13249
▁minimaal	-13250
▁sarnased	-13251
▁teenitud	-13252
▁arutamise	-13253
▁vabariigi	-13254
▁väärtused	-13255
▁Lõpetuseks	-13256
▁arusaadava	-13257
▁hääletanud	-13258
▁väiksemaid	-13259
▁positiivsed	-13260
▁vastupidist	-13261
▁võlakoormus	-13262
▁läbivaatamist	-13263
▁regulatsioone	-13264
▁vajaduspõhise	-13265
▁karistusseadust	-13266
Lõ	-13267
▁99	-13268
Tall	-13269
Veel	-13270
ööki	-13271
▁130	-13272
▁hom	-13273
▁kuv	-13274
andis	-13275
kohas	-13276
ndada	-13277
septi	-13278
vahem	-13279
▁000-	-13280
▁Meen	-13281
▁kirg	-13282
▁Kõiki	-13283
▁Luiga	-13284
▁Ravim	-13285
▁kunag	-13286
▁loomi	-13287
▁palku	-13288
▁sobiv	-13289
iikluse	-13290
▁apteeg	-13291
▁erandi	-13292
▁masina	-13293
▁repres	-13294
▁saabub	-13295
▁samast	-13296
▁tunnis	-13297
▁täpsed	-13298
▁võtsin	-13299
▁Pikhofi	-13300
▁julgelt	-13301
▁kasutas	-13302
▁märkuse	-13303
▁põhjuse	-13304
▁sellelt	-13305
▁suurima	-13306
▁arengule	-13307
▁kahtlusi	-13308
▁osapooli	-13309
▁tagamise	-13310
▁välisesi	-13311
▁administr	-13312
▁aktiivsed	-13313
▁kindlusta	-13314
▁laekumise	-13315
▁lõpetades	-13316
▁regioonis	-13317
▁eesmärgist	-13318
▁mehhanismi	-13319
▁olukorrale	-13320
▁tõstmiseks	-13321
▁töövõimega	-13322
▁eestikeelse	-13323
▁Lugupeetavad	-13324
▁haldusterrit	-13325
▁suurendamist	-13326
▁elluviimiseks	-13327
▁informeeritud	-13328
▁põhiseadusest	-13329
▁vajaduspõhine	-13330
▁valitsusliidu	-13331
▁väliskomisjon	-13332
▁demokraatlikus	-13333
▁ET	-13334
▁Ro	-13335
kter	-13336
turg	-13337
ääre	-13338
▁2,5	-13339
▁kaa	-13340
itekt	-13341
umeet	-13342
▁Ansi	-13343
▁kärp	-13344
▁peas	-13345
metigi	-13346
▁eksin	-13347
▁emite	-13348
▁ootan	-13349
▁polit	-13350
▁teadu	-13351
▁lauset	-13352
▁mainet	-13353
▁numbri	-13354
▁pileti	-13355
keskused	-13356
kindlust	-13357
vastanud	-13358
▁autosid	-13359
▁jääksid	-13360
▁küsimär	-13361
▁peakski	-13362
▁sellegi	-13363
▁toimida	-13364
kohustusi	-13365
materjali	-13366
▁koosolek	-13367
▁maininud	-13368
▁majapida	-13369
▁piisavad	-13370
▁silmakir	-13371
▁usaldada	-13372
▁vaidluse	-13373
▁viimases	-13374
▁ütlemata	-13375
eerimisega	-13376
▁puudumine	-13377
▁seaduslik	-13378
▁vajadusel	-13379
▁vastamist	-13380
▁Ettepaneku	-13381
▁absoluutse	-13382
▁arupärijad	-13383
▁rahastatud	-13384
▁suurendama	-13385
▁teadmiseks	-13386
▁õiguslikku	-13387
▁sihtasutuse	-13388
▁moodustamise	-13389
▁jäätmeseaduse	-13390
▁kindlustunnet	-13391
▁vastutustunde	-13392
saa	-13393
tit	-13394
Viru	-13395
jala	-13396
kodu	-13397
küla	-13398
▁Jät	-13399
▁vms	-13400
▁kole	-13401
▁vesi	-13402
musele	-13403
vaterv	-13404
▁eksam	-13405
▁heast	-13406
▁looda	-13407
▁tõlki	-13408
▁legaal	-13409
erimisel	-13410
▁Kehtiva	-13411
▁ajutise	-13412
▁jõulise	-13413
▁mõttest	-13414
▁sarnast	-13415
▁suurele	-13416
▁viitate	-13417
▁edendada	-13418
▁eelarven	-13419
▁juhtkond	-13420
▁jõustada	-13421
▁kogemuse	-13422
▁mainisid	-13423
▁otsusele	-13424
▁töötajat	-13425
▁väheneks	-13426
▁väikeses	-13427
▁Saaremaal	-13428
▁alaealise	-13429
▁langetama	-13430
▁vastuargu	-13431
Loomulikult	-13432
▁Päästeamet	-13433
▁hääletasid	-13434
▁majandusse	-13435
▁ühiskondlik	-13436
▁korraldamisel	-13437
▁tööturuteenuste	-13438
Eks	-13439
ore	-13440
gani	-13441
hele	-13442
kõne	-13443
sõna	-13444
ulud	-13445
▁18,	-13446
▁75%	-13447
▁Ene	-13448
▁Püü	-13449
▁dig	-13450
▁när	-13451
elist	-13452
emate	-13453
ritel	-13454
sused	-13455
ulisi	-13456
▁Nime	-13457
▁silm	-13458
▁tüüp	-13459
haaval	-13460
▁Hästi	-13461
▁Umbes	-13462
▁kukub	-13463
▁ruttu	-13464
▁tasud	-13465
andjate	-13466
ibemaks	-13467
poolsed	-13468
võrgust	-13469
▁jalgra	-13470
▁laenud	-13471
▁turuos	-13472
▁andsime	-13473
▁asukoha	-13474
▁mõlemat	-13475
▁pääseda	-13476
▁tagatis	-13477
kondadele	-13478
▁Möödunud	-13479
▁arvatakse	-13480
▁muretsema	-13481
▁osalemist	-13482
▁protsesse	-13483
▁sisulised	-13484
▁tegevväel	-13485
▁aruteludes	-13486
▁stabiilsuse	-13487
▁täiendavate	-13488
▁veebruariks	-13489
▁Investeerimis	-13490
▁ajakirjanduse	-13491
▁halduskoormust	-13492
▁lastekaitsetöö	-13493
▁3%	-13494
imen	-13495
käit	-13496
külg	-13497
kümb	-13498
rini	-13499
▁19,	-13500
▁Mee	-13501
adusi	-13502
otsus	-13503
▁20%-	-13504
▁Meid	-13505
▁Pere	-13506
▁Täps	-13507
▁lemm	-13508
▁mahe	-13509
ööstus	-13510
▁Tekib	-13511
▁Vilja	-13512
▁magus	-13513
▁ostab	-13514
▁rongi	-13515
asutusi	-13516
keelega	-13517
likumad	-13518
▁Rüütli	-13519
▁kaduma	-13520
▁metsas	-13521
▁mudeli	-13522
▁pakend	-13523
▁vigade	-13524
gentuuri	-13525
▁Kohtume	-13526
▁analüüt	-13527
▁ehitust	-13528
▁elukoha	-13529
▁tehtaks	-13530
▁töörühm	-13531
lepingute	-13532
uuringute	-13533
▁ebapiisa	-13534
▁langetab	-13535
▁otsusest	-13536
▁peamised	-13537
▁suhelnud	-13538
▁Otsustati	-13539
▁kavatseme	-13540
▁kümmekond	-13541
▁maksutulu	-13542
▁meresõidu	-13543
▁reisijate	-13544
▁eraettevõt	-13545
▁hooldekodu	-13546
▁lugemisega	-13547
▁töötatakse	-13548
▁vanematele	-13549
▁vähenemise	-13550
▁üleandmine	-13551
▁Arupärimise	-13552
▁arusaadavalt	-13553
▁elementaarne	-13554
▁kirjutatakse	-13555
▁konkreetsemalt	-13556
fil	-13557
▁av	-13558
▁ul	-13559
rida	-13560
saat	-13561
suur	-13562
▁0,1	-13563
▁3,5	-13564
▁log	-13565
▁poo	-13566
enude	-13567
kides	-13568
uvana	-13569
▁Hans	-13570
▁Otse	-13571
gudega	-13572
puudus	-13573
▁Iisra	-13574
▁Portu	-13575
▁Toidu	-13576
▁kanti	-13577
▁püsib	-13578
▁solva	-13579
▁Noviko	-13580
▁otsime	-13581
▁saadik	-13582
▁tervet	-13583
▁tuttav	-13584
▁töösse	-13585
▁vaates	-13586
▁veenda	-13587
iteenuse	-13588
tamisele	-13589
▁detaile	-13590
▁komando	-13591
▁külasta	-13592
▁sõiduki	-13593
▁teadete	-13594
▁vormist	-13595
▁võtmine	-13596
▁innovaat	-13597
▁segamini	-13598
▁sõjaväel	-13599
▁uudiseid	-13600
▁alammäära	-13601
▁esindajat	-13602
▁identitee	-13603
▁koolidele	-13604
▁mõistetud	-13605
▁otsustame	-13606
▁reformiga	-13607
▁seonduvat	-13608
▁toetamist	-13609
raamatukogu	-13610
▁kompetents	-13611
▁käesoleval	-13612
▁kõrvaldada	-13613
▁küsimusena	-13614
▁panustavad	-13615
▁seadustest	-13616
▁perearstide	-13617
▁planeerinud	-13618
▁põhjustatud	-13619
▁kohtusüsteemi	-13620
▁maksukoormuse	-13621
▁riigiasutuste	-13622
▁staabiohvitse	-13623
▁elektrienergia	-13624
hoo	-13625
jul	-13626
õhu	-13627
üüe	-13628
itab	-13629
mina	-13630
▁luu	-13631
▁nup	-13632
imust	-13633
parte	-13634
riiki	-13635
äride	-13636
▁Pilv	-13637
▁ekst	-13638
▁saht	-13639
▁töid	-13640
tuvalt	-13641
▁käibe	-13642
▁prants	-13643
▁kindlus	-13644
▁tooteid	-13645
▁vanuses	-13646
▁üldises	-13647
▁lihtsama	-13648
▁toetasid	-13649
▁toiminud	-13650
▁Seejuures	-13651
▁elanikest	-13652
▁esitasite	-13653
▁märkisite	-13654
▁täpsustus	-13655
▁Liibanonis	-13656
▁väljaselgi	-13657
▁kaitseväela	-13658
▁solidaarsus	-13659
▁struktuurse	-13660
▁tervishoidu	-13661
▁vastuvõetav	-13662
▁peadirektori	-13663
▁sajaprotsend	-13664
▁kutsehariduse	-13665
▁vajaduspõhist	-13666
▁seaduseelnõusid	-13667
Mu	-13668
▁RK	-13669
eegl	-13670
stes	-13671
▁Mär	-13672
▁käs	-13673
itsat	-13674
kaart	-13675
orvaa	-13676
pääse	-13677
stele	-13678
▁Aasa	-13679
▁erit	-13680
▁istu	-13681
▁okei	-13682
▁Schen	-13683
▁Sikku	-13684
▁pettu	-13685
▁suhkr	-13686
▁sündi	-13687
▁Hannes	-13688
▁ebaloo	-13689
▁haakub	-13690
▁määrad	-13691
▁uskuge	-13692
▁üksiku	-13693
keskuses	-13694
tavatest	-13695
▁Hiljuti	-13696
▁jälgima	-13697
▁kaotame	-13698
▁mängida	-13699
▁pikemas	-13700
▁raskusi	-13701
▁soovist	-13702
ingimused	-13703
▁Põhiline	-13704
▁kaalutud	-13705
▁teadmata	-13706
▁väikseid	-13707
▁Prantsuse	-13708
▁hääletage	-13709
▁rahvaterv	-13710
▁pensionäri	-13711
▁subjektiiv	-13712
▁vähendatud	-13713
▁paindlikkust	-13714
▁taasiseseisv	-13715
▁täiskasvanute	-13716
kindlustusmakse	-13717
▁valitsemisalas	-13718
jäl	-13719
nel	-13720
iini	-13721
kind	-13722
naab	-13723
nägi	-13724
riba	-13725
▁900	-13726
▁Inn	-13727
kusse	-13728
umeel	-13729
▁lepe	-13730
▁valu	-13731
jaaegu	-13732
kandin	-13733
ühingu	-13734
▁Karel	-13735
▁april	-13736
▁korte	-13737
▁Inglis	-13738
▁ajanud	-13739
▁esmane	-13740
▁kohtud	-13741
▁kutsub	-13742
▁lubage	-13743
▁vedada	-13744
▁vägisi	-13745
▁Elering	-13746
▁Mälberg	-13747
▁Tehnika	-13748
▁haamril	-13749
▁lõikest	-13750
▁soojuse	-13751
▁sotside	-13752
▁tagasta	-13753
▁üksuste	-13754
▁kasutata	-13755
▁loobunud	-13756
▁reeglina	-13757
▁rikkunud	-13758
▁tsiteeri	-13759
Järgmisena	-13760
▁elanikuga	-13761
▁iseseisev	-13762
▁lubadused	-13763
▁paigutada	-13764
▁sõjalisel	-13765
▁täiskogus	-13766
▁Kaitsevägi	-13767
▁suurendame	-13768
▁ettevõtetel	-13769
▁keeruliseks	-13770
▁negatiivset	-13771
▁osapooltega	-13772
▁teisipäeval	-13773
iguskantsleri	-13774
▁motiveeritud	-13775
▁põhimõtetest	-13776
▁sotsiaalsete	-13777
▁võimalustest	-13778
▁emotsionaalne	-13779
▁Konservatiivne	-13780
▁Parlamentaarse	-13781
▁Riigikantselei	-13782
▁registreerimise	-13783
3,	-13784
Ter	-13785
kle	-13786
▁UN	-13787
elis	-13788
jäär	-13789
▁180	-13790
liini	-13791
taali	-13792
▁kurv	-13793
iksime	-13794
mistes	-13795
▁Andke	-13796
▁Otsus	-13797
▁eluga	-13798
▁lisan	-13799
▁tubak	-13800
▁viska	-13801
gevuses	-13802
▁faktid	-13803
▁lähima	-13804
▁Nendele	-13805
▁haritud	-13806
▁kujutab	-13807
▁kuulama	-13808
▁kohtulah	-13809
▁väljavii	-13810
▁õigusest	-13811
kandinaavi	-13812
▁analüüsis	-13813
▁hakkaksid	-13814
▁karistust	-13815
▁lastetoet	-13816
▁pankrotti	-13817
operatsioon	-13818
▁elektritur	-13819
▁kokkuvõtte	-13820
▁liikmetega	-13821
▁mäletamist	-13822
▁terrorismi	-13823
▁Komisjonile	-13824
▁kohtumistel	-13825
▁kavatsetakse	-13826
▁sotsiaalseid	-13827
▁keskkonnamõju	-13828
▁matusetoetuse	-13829
ministeeriumilt	-13830
▁tasakaalustatud	-13831
KM	-13832
▁89	-13833
▁õn	-13834
kiir	-13835
umit	-13836
▁rap	-13837
anded	-13838
andil	-13839
iduse	-13840
kohus	-13841
vasse	-13842
▁Mitu	-13843
▁port	-13844
likest	-13845
▁Malis	-13846
▁astub	-13847
▁jagan	-13848
▁korid	-13849
▁kütus	-13850
▁omaga	-13851
▁patri	-13852
▁seesu	-13853
kandida	-13854
õbralik	-13855
▁Aastal	-13856
▁Horvaa	-13857
▁kurssi	-13858
▁lähete	-13859
▁magist	-13860
▁müügil	-13861
▁nõudma	-13862
▁päästa	-13863
tegevuse	-13864
▁eriline	-13865
▁juhtuks	-13866
▁lapsest	-13867
▁leppima	-13868
▁lootuse	-13869
▁rahvuse	-13870
▁väiksed	-13871
emissioon	-13872
juhtimise	-13873
▁Euroopat	-13874
▁Haapsalu	-13875
▁alustama	-13876
▁edastada	-13877
▁järgmisi	-13878
▁lõpetame	-13879
▁manipule	-13880
▁nimetama	-13881
▁survesta	-13882
▁tihedalt	-13883
▁Küsimuste	-13884
▁Regionaal	-13885
▁millegagi	-13886
▁edaspidigi	-13887
▁lähtutakse	-13888
▁pensionisa	-13889
▁praktilist	-13890
▁juhuslikult	-13891
▁kodulehekül	-13892
deklaratsioon	-13893
▁Rahvaerakond	-13894
▁peaministrik	-13895
▁siseministri	-13896
▁täiskasvanud	-13897
▁rakendamisega	-13898
▁silmakirjalik	-13899
▁majanduskriisi	-13900
aam	-13901
▁EU	-13902
▁Sü	-13903
▁eas	-13904
▁lim	-13905
ravim	-13906
▁Hilj	-13907
▁alat	-13908
▁kius	-13909
▁takt	-13910
tamatu	-13911
▁Andre	-13912
▁Riina	-13913
▁fakte	-13914
▁hätta	-13915
▁keskl	-13916
▁laene	-13917
▁usume	-13918
Esiteks	-13919
eelarve	-13920
eloomul	-13921
▁Jõgeva	-13922
▁neljal	-13923
▁subsid	-13924
▁vallad	-13925
▁õigeid	-13926
▁Räägime	-13927
▁jookseb	-13928
▁keelest	-13929
▁kinnist	-13930
▁laieneb	-13931
▁mitmest	-13932
▁tugineb	-13933
▁ajaloost	-13934
▁arutelus	-13935
▁kalendri	-13936
▁küsijale	-13937
▁otsekohe	-13938
▁seitsmes	-13939
▁usalduse	-13940
▁vaheline	-13941
endamiseks	-13942
▁Niisugune	-13943
▁esitamine	-13944
▁infotunni	-13945
▁kohtumisi	-13946
▁kokkuhoiu	-13947
▁parvlaeva	-13948
▁tõeliselt	-13949
▁Valitsuses	-13950
▁abieluvara	-13951
▁erinevused	-13952
▁maksmiseks	-13953
▁pensionäre	-13954
▁valimistule	-13955
kaitseseaduse	-13956
▁direktiiviga	-13957
▁kvalifitseer	-13958
▁valitsusliikme	-13959
▁raamatupidamise	-13960
4,	-13961
hü	-13962
bes	-13963
get	-13964
gma	-13965
▁Su	-13966
Need	-13967
tsele	-13968
▁Laar	-13969
▁Võrr	-13970
▁hamb	-13971
▁praa	-13972
▁reit	-13973
▁süva	-13974
Kolmas	-13975
▁osast	-13976
▁võidu	-13977
selgelt	-13978
▁ajakoh	-13979
▁kerkis	-13980
▁targad	-13981
▁vanane	-13982
aastaste	-13983
kindlalt	-13984
reeritud	-13985
▁likviid	-13986
▁märtsis	-13987
▁teisigi	-13988
▁varasem	-13989
▁veerand	-13990
▁õppetöö	-13991
▁esitades	-13992
▁finantst	-13993
▁hektarit	-13994
▁kaetakse	-13995
▁rahulole	-13996
▁regiooni	-13997
▁südamest	-13998
▁toodangu	-13999
▁erakonnas	-14000
▁käitumise	-14001
▁mõeldakse	-14002
▁täpsusega	-14003
▁Praeguseks	-14004
▁aruteludel	-14005
▁korralikku	-14006
▁negatiivse	-14007
▁partnerite	-14008
▁sinnapoole	-14009
▁süüdistada	-14010
▁vastuseisu	-14011
▁veebruaris	-14012
▁ehitamiseks	-14013
▁seisukohtadega	-14014
idis	-14015
▁Lad	-14016
▁kra	-14017
atiiv	-14018
näita	-14019
võtja	-14020
▁Ilma	-14021
▁Urbo	-14022
▁häir	-14023
▁reed	-14024
Järvel	-14025
gilise	-14026
iaasta	-14027
piiril	-14028
▁Akker	-14029
▁Esial	-14030
▁Sadam	-14031
▁Strea	-14032
▁maatü	-14033
▁omaks	-14034
▁super	-14035
▁tüdru	-14036
kultuur	-14037
telefon	-14038
▁Julgen	-14039
▁kodust	-14040
▁kolled	-14041
▁lõpust	-14042
▁vaatle	-14043
kerakond	-14044
▁avaldab	-14045
▁jätkama	-14046
▁kontser	-14047
▁lõikele	-14048
▁meetodi	-14049
▁määrust	-14050
▁optimis	-14051
▁vastuvä	-14052
▁advokaat	-14053
▁ilmnenud	-14054
▁kantsler	-14055
▁kuulsite	-14056
▁lisaküsi	-14057
▁mingitel	-14058
▁mõttekas	-14059
▁pidasite	-14060
▁rahvaarv	-14061
▁tegeldud	-14062
▁tänaseni	-14063
▁üksikute	-14064
ustamisega	-14065
▁2014–2020	-14066
▁käsutuses	-14067
▁takistusi	-14068
▁arusaamine	-14069
▁hinnatõusu	-14070
▁kaotatakse	-14071
▁paralleeli	-14072
Seaduseelnõu	-14073
▁esmatasandi	-14074
▁formaalselt	-14075
▁teistsugust	-14076
▁turvalisust	-14077
▁erakorraline	-14078
▁kuritegevuse	-14079
▁olemasolevat	-14080
▁tarbijakredi	-14081
▁läbivaatamise	-14082
▁maaelukomisjon	-14083
6,	-14084
7%	-14085
jum	-14086
sad	-14087
jaos	-14088
kiga	-14089
pind	-14090
stra	-14091
▁0,8	-14092
▁Put	-14093
▁Rum	-14094
▁tõd	-14095
kudes	-14096
ränne	-14097
▁Krem	-14098
▁Kuni	-14099
▁katk	-14100
▁neto	-14101
▁taun	-14102
karist	-14103
ksanda	-14104
▁Johan	-14105
▁karmi	-14106
▁põlve	-14107
▁toitl	-14108
tustest	-14109
▁aineid	-14110
▁efekti	-14111
▁euroli	-14112
▁fookus	-14113
▁loovad	-14114
▁saasta	-14115
▁senist	-14116
▁talvel	-14117
▁valiti	-14118
▁Eestiga	-14119
▁arengud	-14120
▁hetkeks	-14121
▁kandnud	-14122
▁kohtuda	-14123
▁peatada	-14124
▁puhkuse	-14125
▁suhtlus	-14126
▁volitus	-14127
▁õiglust	-14128
reformist	-14129
▁kiidetud	-14130
▁kuludest	-14131
▁punktiga	-14132
▁sajandil	-14133
▁tootjate	-14134
▁asetäitja	-14135
▁ennustada	-14136
▁erinevusi	-14137
▁maaomanik	-14138
▁oodatakse	-14139
▁rahvaalga	-14140
▁selgitage	-14141
▁kandidaati	-14142
▁tegelemine	-14143
▁tegevusele	-14144
▁tegutsenud	-14145
▁välisriigi	-14146
▁ühtlustada	-14147
▁keskkonnale	-14148
▁kiireloomul	-14149
▁kolmandikku	-14150
▁reageerimis	-14151
▁samasugused	-14152
▁suurenemine	-14153
▁tunnustatud	-14154
▁visiiditasu	-14155
▁ühistransport	-14156
▁Valimiskomisjon	-14157
Miks	-14158
kümn	-14159
otsa	-14160
vele	-14161
▁MKM	-14162
▁lad	-14163
Liina	-14164
antud	-14165
paket	-14166
raali	-14167
▁usta	-14168
▁Kross	-14169
▁Teist	-14170
[...]
