<unk>	0
<s>	0
</s>	0
se	-0
st	-1
▁k	-2
le	-3
▁e	-4
▁o	-5
▁t	-6
▁m	-7
si	-8
al	-9
▁v	-10
in	-11
da	-12
▁p	-13
▁se	-14
ja	-15
ik	-16
te	-17
ta	-18
is	-19
ud	-20
▁a	-21
▁on	-22
ma	-23
ga	-24
el	-25
us	-26
▁te	-27
▁n	-28
it	-29
oo	-30
me	-31
an	-32
▁et	-33
id	-34
use	-35
▁s	-36
ks	-37
▁l	-38
ra	-39
ise	-40
ri	-41
▁ja	-42
ad	-43
ust	-44
ul	-45
▁ko	-46
ist	-47
▁ka	-48
en	-49
▁j	-50
ig	-51
ee	-52
ast	-53
il	-54
uu	-55
▁sel	-56
gu	-57
▁võ	-58
ko	-59
es	-60
▁ei	-61
est	-62
▁h	-63
un	-64
▁ü	-65
▁K	-66
▁ole	-67
▁si	-68
aa	-69
▁M	-70
▁ku	-71
va	-72
na	-73
äh	-74
gi	-75
mise	-76
▁selle	-77
tud	-78
ine	-79
ii	-80
▁me	-81
▁"	-82
▁E	-83
▁S	-84
ea	-85
ää	-86
ne	-87
▁või	-88
▁see	-89
▁ma	-90
▁ar	-91
em	-92
ku	-93
▁ol	-94
▁kui	-95
▁vä	-96
▁kü	-97
as	-98
ar	-99
de	-100
on	-101
ti	-102
tsi	-103
ha	-104
▁r	-105
▁ju	-106
▁A	-107
är	-108
tu	-109
▁R	-110
nud	-111
er	-112
▁ta	-113
vad	-114
mis	-115
la	-116
ol	-117
õu	-118
▁min	-119
val	-120
▁T	-121
lt	-122
ida	-123
▁siis	-124
▁küsi	-125
▁eel	-126
nd	-127
▁seda	-128
▁va	-129
▁ette	-130
ka	-131
ge	-132
esti	-133
▁ra	-134
uur	-135
uta	-136
▁pal	-137
▁tu	-138
öö	-139
oon	-140
▁kõ	-141
et	-142
▁P	-143
ki	-144
ro	-145
▁V	-146
ult	-147
ime	-148
ie	-149
▁tä	-150
▁pea	-151
iig	-152
▁saa	-153
ts	-154
jon	-155
▁esi	-156
itäh	-157
▁in	-158
▁sa	-159
▁oma	-160
ane	-161
▁küsim	-162
asta	-163
▁mis	-164
and	-165
its	-166
usta	-167
nõu	-168
▁ri	-169
▁koh	-170
ba	-171
▁al	-172
▁L	-173
lik	-174
im	-175
▁kas	-176
▁val	-177
iko	-178
kon	-179
▁mõ	-180
▁Ma	-181
misjon	-182
▁õ	-183
▁sead	-184
um	-185
kse	-186
!"	-187
tte	-188
▁mil	-189
▁N	-190
▁Riig	-191
▁tule	-192
▁la	-193
or	-194
tuse	-195
enda	-196
õh	-197
ju	-198
Aitäh	-199
▁muu	-200
▁väga	-201
ide	-202
tsioon	-203
igi	-204
pe	-205
▁Eesti	-206
▁eelnõu	-207
alt	-208
▁Riigiko	-209
▁üh	-210
eg	-211
▁töö	-212
▁to	-213
."	-214
▁aga	-215
kt	-216
tle	-217
sid	-218
▁tõ	-219
pane	-220
di	-221
▁1	-222
uste	-223
▁vast	-224
▁kes	-225
▁li	-226
alik	-227
▁nä	-228
min	-229
▁See	-230
mine	-231
▁Riigikogu	-232
▁2	-233
ur	-234
▁väl	-235
▁üle	-236
▁inime	-237
ita	-238
üü	-239
isi	-240
tse	-241
bi	-242
konna	-243
▁võim	-244
▁suur	-245
▁pro	-246
▁arv	-247
▁J	-248
ool	-249
▁H	-250
▁mit	-251
taja	-252
▁nii	-253
ema	-254
▁Ku	-255
mist	-256
▁kor	-257
▁kä	-258
nda	-259
▁seaduse	-260
kor	-261
mas	-262
▁põh	-263
võ	-264
▁mida	-265
ind	-266
minist	-267
▁kol	-268
▁oli	-269
ing	-270
sa	-271
▁lu	-272
iks	-273
uh	-274
eed	-275
▁palun	-276
end	-277
ite	-278
ele	-279
takse	-280
eeri	-281
ile	-282
▁rah	-283
used	-284
▁na	-285
eel	-286
ut	-287
sta	-288
▁kon	-289
ära	-290
▁õig	-291
hk	-292
▁sell	-293
▁aasta	-294
▁ne	-295
ika	-296
itse	-297
äe	-298
usi	-299
selt	-300
ke	-301
▁f	-302
▁lõ	-303
uud	-304
▁Aga	-305
▁siin	-306
komisjon	-307
▁juh	-308
▁jär	-309
▁ots	-310
ikult	-311
▁aru	-312
▁mille	-313
▁as	-314
ak	-315
egu	-316
iselt	-317
▁–	-318
▁Kui	-319
▁välja	-320
elle	-321
▁tea	-322
pa	-323
indl	-324
ende	-325
▁Me	-326
▁pra	-327
▁meie	-328
re	-329
▁minist	-330
sed	-331
asti	-332
ll	-333
▁kõik	-334
▁lä	-335
▁le	-336
▁mitte	-337
koh	-338
ääle	-339
▁Kas	-340
ve	-341
paneku	-342
▁rää	-343
▁need	-344
▁sõ	-345
▁vastu	-346
isu	-347
alun	-348
▁ütle	-349
inud	-350
▁esime	-351
ustatud	-352
gel	-353
iga	-354
▁täh	-355
▁taga	-356
▁loo	-357
tada	-358
ub	-359
▁20	-360
▁küsimus	-361
▁üks	-362
iit	-363
gem	-364
tel	-365
?"	-366
▁olnud	-367
▁ettek	-368
aal	-369
ir	-370
▁koo	-371
▁muuda	-372
▁juha	-373
▁liik	-374
▁nende	-375
▁oleks	-376
▁par	-377
▁läh	-378
▁väh	-379
▁I	-380
uroo	-381
▁kus	-382
isa	-383
itsuse	-384
sse	-385
pp	-386
▁teha	-387
▁ö	-388
▁Te	-389
▁soo	-390
vi	-391
jand	-392
▁jä	-393
idu	-394
jad	-395
▁öel	-396
ige	-397
▁ning	-398
ole	-399
üüd	-400
▁kuida	-401
he	-402
▁palju	-403
gup	-404
ia	-405
sin	-406
▁Euroo	-407
▁võib	-408
▁tege	-409
andja	-410
tus	-411
jal	-412
▁Va	-413
▁maks	-414
▁veel	-415
ru	-416
▁nagu	-417
▁vii	-418
äär	-419
▁kohta	-420
valt	-421
▁neid	-422
indlasti	-423
sime	-424
oole	-425
gupee	-426
▁er	-427
▁läbi	-428
▁an	-429
▁tuleb	-430
▁esita	-431
▁Palun	-432
▁kolle	-433
▁hea	-434
inn	-435
eri	-436
tsiooni	-437
tes	-438
iku	-439
▁eest	-440
▁pa	-441
iste	-442
▁riigi	-443
▁sellest	-444
misel	-445
▁riik	-446
▁tul	-447
gupeetud	-448
▁riig	-449
▁Euroopa	-450
anud	-451
▁teie	-452
▁juhataja	-453
▁puud	-454
▁O	-455
mi	-456
▁võimalik	-457
▁praegu	-458
ega	-459
kku	-460
▁hääle	-461
li	-462
tusette	-463
ohk	-464
▁kolleeg	-465
otsi	-466
▁liikme	-467
▁meil	-468
▁võt	-469
ohkem	-470
unud	-471
▁komisjon	-472
▁omaval	-473
▁juba	-474
uma	-475
iiv	-476
oliit	-477
iir	-478
ised	-479
panek	-480
eerium	-481
▁ise	-482
▁küsimuse	-483
▁võimal	-484
rak	-485
una	-486
▁osa	-487
miseks	-488
▁ettekandja	-489
ble	-490
äeva	-491
▁arva	-492
▁tun	-493
du	-494
▁tee	-495
▁aast	-496
▁Ja	-497
site	-498
▁Vaba	-499
▁kee	-500
▁Selle	-501
korra	-502
▁kuidas	-503
▁tegel	-504
ene	-505
▁juur	-506
▁lah	-507
▁kindlasti	-508
▁ül	-509
▁vaa	-510
▁raha	-511
▁nad	-512
ikka	-513
▁minister	-514
▁ära	-515
▁näite	-516
itsus	-517
otsiaal	-518
ingu	-519
▁selles	-520
▁jää	-521
ht	-522
hel	-523
▁frak	-524
rakonna	-525
uro	-526
minister	-527
▁inimest	-528
▁Min	-529
ead	-530
▁pan	-531
ude	-532
uv	-533
▁ees	-534
▁ke	-535
▁täna	-536
▁Eest	-537
▁proble	-538
sti	-539
uses	-540
rv	-541
▁sü	-542
komisjoni	-543
▁ikka	-544
▁Ka	-545
mata	-546
▁euro	-547
▁õigus	-548
▁seisu	-549
▁os	-550
▁täi	-551
itud	-552
riigi	-553
▁oleme	-554
▁suu	-555
▁ain	-556
▁maa	-557
▁saab	-558
▁kokku	-559
▁vaja	-560
met	-561
▁peaks	-562
▁olla	-563
esta	-564
kond	-565
inna	-566
▁muudatusette	-567
▁teema	-568
▁olul	-569
ni	-570
▁muut	-571
▁vaid	-572
▁rohkem	-573
jandus	-574
for	-575
▁üld	-576
ugupeetud	-577
at	-578
ärast	-579
▁hak	-580
▁re	-581
▁põhj	-582
▁arvan	-583
▁teh	-584
▁ist	-585
mm	-586
▁minu	-587
▁vasta	-588
▁201	-589
ree	-590
▁uu	-591
ärra	-592
võt	-593
▁juurde	-594
▁eda	-595
▁Val	-596
▁tagasi	-597
▁kasuta	-598
üh	-599
▁puh	-600
▁mee	-601
su	-602
des	-603
▁Ko	-604
usega	-605
▁3	-606
▁just	-607
▁öelda	-608
▁en	-609
▁kir	-610
▁aruta	-611
▁ühe	-612
00	-613
▁Li	-614
vus	-615
▁näiteks	-616
ral	-617
▁toim	-618
▁Ü	-619
▁iga	-620
▁pe	-621
▁Aitäh	-622
▁kogu	-623
je	-624
nu	-625
dus	-626
ib	-627
andus	-628
sioon	-629
▁kuul	-630
▁tegelikult	-631
▁Vabariigi	-632
▁nüüd	-633
▁Nii	-634
▁kesk	-635
▁puuduta	-636
▁päeva	-637
▁olema	-638
▁and	-639
▁istun	-640
▁seisukoh	-641
▁Eestis	-642
▁probleem	-643
elt	-644
▁asja	-645
▁hakka	-646
tr	-647
▁küll	-648
▁lähe	-649
▁olen	-650
ule	-651
jate	-652
▁era	-653
adus	-654
▁teine	-655
▁täp	-656
▁ming	-657
▁sest	-658
▁seal	-659
▁teise	-660
▁ainult	-661
ides	-662
▁alga	-663
▁too	-664
äri	-665
▁aastal	-666
▁peab	-667
ttu	-668
▁mill	-669
mb	-670
ike	-671
▁Ra	-672
▁el	-673
▁järg	-674
▁d	-675
▁ettepaneku	-676
▁toe	-677
▁lugem	-678
▁hä	-679
elnõu	-680
ista	-681
tatud	-682
▁olu	-683
▁nõ	-684
ministeerium	-685
▁Sa	-686
ooli	-687
▁aval	-688
oolt	-689
▁liig	-690
▁mu	-691
▁tas	-692
ksid	-693
▁mul	-694
rd	-695
▁taha	-696
▁jät	-697
hts	-698
▁kõige	-699
▁võiks	-700
anda	-701
▁il	-702
poole	-703
. 	-704
ua	-705
▁eelar	-706
stee	-707
lus	-708
▁sellise	-709
▁võtta	-710
mär	-711
▁selline	-712
kas	-713
arid	-714
rite	-715
▁5	-716
ääki	-717
▁lugemine	-718
▁puhul	-719
▁midagi	-720
endada	-721
nam	-722
maks	-723
▁""	-724
dan	-725
▁Kü	-726
▁men	-727
▁soov	-728
men	-729
aduse	-730
▁keh	-731
vest	-732
tiv	-733
▁Hea	-734
trol	-735
▁suh	-736
▁lihts	-737
▁härra	-738
▁olemas	-739
olla	-740
▁Se	-741
▁ajal	-742
▁sellega	-743
▁menet	-744
▁kohalik	-745
▁jõ	-746
sel	-747
rääki	-748
▁arvesta	-749
▁kelle	-750
usel	-751
▁teen	-752
▁Kes	-753
▁edasi	-754
▁omavalits	-755
▁per	-756
net	-757
ande	-758
▁ettepanek	-759
ril	-760
▁nim	-761
▁nime	-762
▁enam	-763
oodi	-764
▁seo	-765
▁terv	-766
all	-767
ttes	-768
▁poliit	-769
▁ha	-770
▁Lugupeetud	-771
▁kaas	-772
konda	-773
▁sellele	-774
▁sotsiaal	-775
kord	-776
ala	-777
▁kolleegid	-778
▁teile	-779
▁4	-780
▁esinda	-781
tab	-782
▁saal	-783
▁lõpe	-784
▁ega	-785
kõ	-786
▁toet	-787
kra	-788
▁nõu	-789
▁kah	-790
▁Liidu	-791
▁lap	-792
tame	-793
▁valitsus	-794
nan	-795
vat	-796
▁majandus	-797
▁miljon	-798
▁kinn	-799
▁ikkagi	-800
vate	-801
kir	-802
▁last	-803
▁kul	-804
tav	-805
iin	-806
▁eurot	-807
▁küsimusi	-808
▁Kõ	-809
gus	-810
äära	-811
▁korral	-812
mad	-813
tust	-814
juta	-815
▁aja	-816
▁inimesed	-817
▁isi	-818
stu	-819
▁ehk	-820
▁de	-821
▁pär	-822
kree	-823
▁valitsuse	-824
liku	-825
▁ala	-826
▁luge	-827
päri	-828
▁peale	-829
▁eesmär	-830
mus	-831
eer	-832
▁Austatud	-833
▁räägi	-834
▁joo	-835
sem	-836
▁läbirääki	-837
idi	-838
mul	-839
▁enne	-840
▁ho	-841
▁muutmise	-842
usest	-843
▁selleks	-844
▁seadus	-845
▁vah	-846
▁näe	-847
kogu	-848
▁konkree	-849
▁rääk	-850
▁amet	-851
▁st	-852
to	-853
▁kõr	-854
tas	-855
▁poolt	-856
▁hal	-857
por	-858
ktiiv	-859
ell	-860
▁piir	-861
▁fraktsioon	-862
▁kuna	-863
▁vähem	-864
mised	-865
▁lõpp	-866
▁põ	-867
dud	-868
▁pik	-869
nes	-870
▁koos	-871
▁miks	-872
enud	-873
imõ	-874
misega	-875
▁arutel	-876
les	-877
gil	-878
▁puudutab	-879
tan	-880
▁teist	-881
▁üles	-882
ensi	-883
▁teki	-884
▁saada	-885
moodi	-886
kus	-887
▁Mis	-888
▁eri	-889
ter	-890
ula	-891
▁mär	-892
▁pole	-893
useid	-894
ustada	-895
▁Minu	-896
▁tek	-897
▁us	-898
""	-899
▁huv	-900
▁Võ	-901
▁erine	-902
esi	-903
▁Re	-904
iti	-905
itsioon	-906
▁pii	-907
mulikult	-908
osi	-909
mu	-910
▁U	-911
endab	-912
likult	-913
▁võe	-914
▁komisjoni	-915
▁tema	-916
ension	-917
gra	-918
▁poole	-919
aar	-920
ini	-921
▁kom	-922
ses	-923
▁koha	-924
uks	-925
▁kaks	-926
poliit	-927
▁lihtsalt	-928
maa	-929
tele	-930
elda	-931
▁esimees	-932
▁ela	-933
▁pärast	-934
ade	-935
▁saanud	-936
pan	-937
rist	-938
mend	-939
vik	-940
▁kontrol	-941
▁tõesti	-942
▁Valitsuse	-943
▁konkreetse	-944
▁üldse	-945
▁põhise	-946
▁kaitse	-947
oor	-948
▁arupäri	-949
emo	-950
elikult	-951
▁käsi	-952
▁kaasa	-953
▁ettevõt	-954
ilise	-955
▁natu	-956
nõ	-957
▁protse	-958
▁6	-959
▁anna	-960
▁Mul	-961
res	-962
▁pida	-963
▁ühis	-964
pun	-965
ih	-966
▁jooks	-967
▁jao	-968
▁enda	-969
▁hul	-970
ina	-971
▁mitme	-972
▁mõist	-973
test	-974
▁kool	-975
Austatud	-976
misele	-977
uda	-978
▁Ta	-979
ants	-980
▁päevakorra	-981
jär	-982
▁fraktsiooni	-983
▁vaada	-984
ksi	-985
▁olete	-986
▁hästi	-987
▁meel	-988
▁päris	-989
▁lisa	-990
▁sisse	-991
▁Mar	-992
▁viima	-993
ood	-994
oleku	-995
kti	-996
form	-997
vaid	-998
▁selge	-999
tusele	-1000
▁seisukoht	-1001
ang	-1002
vahel	-1003
misest	-1004
▁eesi	-1005
tub	-1006
▁asi	-1007
▁vald	-1008
▁Seda	-1009
uuri	-1010
vast	-1011
sus	-1012
jalik	-1013
▁7	-1014
luse	-1015
▁saalis	-1016
elar	-1017
▁juhul	-1018
▁soovi	-1019
▁eesistu	-1020
mused	-1021
ustus	-1022
▁jõu	-1023
▁nend	-1024
ilt	-1025
▁sõna	-1026
▁esimene	-1027
▁tehtud	-1028
endi	-1029
▁rahandus	-1030
▁tar	-1031
▁miljonit	-1032
hu	-1033
▁teada	-1034
aas	-1035
▁tänu	-1036
ed	-1037
▁inimeste	-1038
ppe	-1039
▁jooksul	-1040
iline	-1041
▁teinud	-1042
▁olid	-1043
pro	-1044
konnas	-1045
▁tähele	-1046
tavad	-1047
emokra	-1048
tõ	-1049
kirja	-1050
▁määra	-1051
▁korda	-1052
▁sis	-1053
mme	-1054
korda	-1055
aridus	-1056
misi	-1057
▁mõne	-1058
gen	-1059
▁Tä	-1060
▁Rah	-1061
han	-1062
umb	-1063
▁minut	-1064
igus	-1065
rit	-1066
iis	-1067
tama	-1068
testa	-1069
000	-1070
ieelar	-1071
▁kau	-1072
▁reg	-1073
▁anda	-1074
iv	-1075
▁kiir	-1076
tiiv	-1077
▁muud	-1078
▁kord	-1079
tis	-1080
▁põhimõ	-1081
▁nimel	-1082
▁aastat	-1083
uuda	-1084
▁var	-1085
▁seotud	-1086
▁tegele	-1087
alüü	-1088
▁keegi	-1089
alitsioon	-1090
▁aren	-1091
▁eesistuja	-1092
▁Head	-1093
▁võr	-1094
set	-1095
▁tegem	-1096
▁tead	-1097
nast	-1098
▁näh	-1099
▁vali	-1100
vas	-1101
▁aega	-1102
▁käsitle	-1103
▁rak	-1104
nn	-1105
ksa	-1106
▁sõl	-1107
ho	-1108
▁oluline	-1109
▁pension	-1110
ikud	-1111
isug	-1112
▁minutit	-1113
▁ühte	-1114
▁siiski	-1115
umaks	-1116
▁riigieelar	-1117
pärast	-1118
kur	-1119
▁jaoks	-1120
tusi	-1121
esse	-1122
▁invest	-1123
ste	-1124
▁otsuse	-1125
▁palj	-1126
▁õpe	-1127
ministeeriumi	-1128
▁mina	-1129
ingi	-1130
▁ongi	-1131
▁kri	-1132
gan	-1133
▁mingi	-1134
▁inimesi	-1135
▁sellist	-1136
▁hääletada	-1137
ume	-1138
ani	-1139
▁Keske	-1140
▁teatud	-1141
▁Tall	-1142
os	-1143
maal	-1144
▁jõud	-1145
▁korra	-1146
endus	-1147
▁sä	-1148
▁sama	-1149
▁hinn	-1150
iisa	-1151
poolest	-1152
ksime	-1153
uua	-1154
▁aeg	-1155
▁ak	-1156
▁eelarve	-1157
▁Sotsiaal	-1158
ustele	-1159
gelt	-1160
kuse	-1161
▁läheb	-1162
▁väik	-1163
▁kult	-1164
▁välis	-1165
ot	-1166
▁kahe	-1167
▁all	-1168
ama	-1169
▁lõp	-1170
▁rahvus	-1171
▁süstee	-1172
▁algatatud	-1173
▁peaminister	-1174
▁arvates	-1175
▁pla	-1176
▁esitatud	-1177
▁lai	-1178
muti	-1179
▁täiesti	-1180
▁istungi	-1181
meti	-1182
tega	-1183
▁järgi	-1184
▁tähelepan	-1185
useks	-1186
▁meile	-1187
pingu	-1188
kel	-1189
aasi	-1190
oli	-1191
▁analüü	-1192
▁isegi	-1193
▁mõttes	-1194
nna	-1195
▁mä	-1196
▁tegemist	-1197
▁tal	-1198
epoolest	-1199
▁kohtu	-1200
▁tuleks	-1201
▁sil	-1202
▁arutelu	-1203
▁eesmärk	-1204
üstee	-1205
▁alla	-1206
▁parla	-1207
▁tunn	-1208
▁leid	-1209
▁seaduseelnõu	-1210
gia	-1211
▁On	-1212
▁tegev	-1213
▁ab	-1214
▁(	-1215
▁jul	-1216
▁tähendab	-1217
▁jäl	-1218
kata	-1219
▁Na	-1220
alda	-1221
▁Need	-1222
las	-1223
▁nel	-1224
tivkomisjoni	-1225
idas	-1226
stöö	-1227
▁pak	-1228
▁menetle	-1229
▁lo	-1230
▁Tõ	-1231
▁liiget	-1232
▁lae	-1233
▁parem	-1234
▁kun	-1235
gune	-1236
▁b	-1237
▁sum	-1238
▁küsimust	-1239
▁keel	-1240
▁meele	-1241
▁võimalus	-1242
▁jääb	-1243
naal	-1244
must	-1245
▁Pra	-1246
▁tõsi	-1247
▁ilm	-1248
▁palga	-1249
▁vahel	-1250
▁lugupeetud	-1251
▁rahva	-1252
▁–,	-1253
▁kolm	-1254
ab	-1255
▁ase	-1256
▁saavad	-1257
idele	-1258
ange	-1259
▁teiste	-1260
▁koalitsioon	-1261
▁lis	-1262
tanud	-1263
üm	-1264
▁Mina	-1265
▁oo	-1266
▁pool	-1267
▁õige	-1268
tee	-1269
▁elu	-1270
▁tegu	-1271
▁kuidagi	-1272
ministri	-1273
▁ettevõ	-1274
▁liikmed	-1275
▁Kuidas	-1276
Ma	-1277
igem	-1278
tt	-1279
▁siia	-1280
▁ve	-1281
▁eelnõ	-1282
▁peame	-1283
▁Tallinna	-1284
▁omavalitsuse	-1285
▁minna	-1286
▁tähelepanu	-1287
sest	-1288
▁täpselt	-1289
▁kuu	-1290
tsiisi	-1291
pidi	-1292
üsi	-1293
▁inf	-1294
▁kõne	-1295
▁esitanud	-1296
▁väär	-1297
▁hoo	-1298
▁komisjonis	-1299
pealt	-1300
tne	-1301
▁isik	-1302
▁8	-1303
▁kirja	-1304
idega	-1305
▁suuna	-1306
▁kasva	-1307
▁päevakorrapun	-1308
poliitika	-1309
▁eh	-1310
▁suurema	-1311
tused	-1312
▁rääki	-1313
vaa	-1314
▁nr	-1315
▁eba	-1316
▁Nüüd	-1317
▁rääkida	-1318
mat	-1319
itu	-1320
▁mur	-1321
eme	-1322
▁kõnet	-1323
ran	-1324
▁lapse	-1325
▁Nagu	-1326
päe	-1327
iseks	-1328
▁toh	-1329
▁tur	-1330
sen	-1331
▁otse	-1332
▁sisul	-1333
▁vajalik	-1334
▁täis	-1335
▁natuke	-1336
▁inimene	-1337
▁ele	-1338
Palun	-1339
▁koostöö	-1340
▁eks	-1341
▁pun	-1342
▁austatud	-1343
sna	-1344
▁kolma	-1345
seid	-1346
usaa	-1347
▁di	-1348
▁Eelnõu	-1349
Hea	-1350
▁loomulikult	-1351
seks	-1352
▁tulevik	-1353
ev	-1354
▁maksu	-1355
anne	-1356
▁sinna	-1357
▁otsust	-1358
▁vab	-1359
▁mõju	-1360
▁Keskerakonna	-1361
▁panna	-1362
▁vajad	-1363
▁vähemalt	-1364
▁andme	-1365
tajate	-1366
▁alati	-1367
inda	-1368
▁ras	-1369
▁teeb	-1370
▁abi	-1371
aste	-1372
▁Komisjon	-1373
▁B	-1374
ori	-1375
▁otsusta	-1376
▁osale	-1377
▁käib	-1378
▁Tar	-1379
▁kinnita	-1380
ustega	-1381
▁Juh	-1382
▁määr	-1383
▁Mil	-1384
▁And	-1385
teen	-1386
olitse	-1387
▁ter	-1388
demokra	-1389
▁Loo	-1390
▁rea	-1391
usele	-1392
▁kuni	-1393
▁sise	-1394
▁sellel	-1395
▁pöö	-1396
▁saaks	-1397
▁mo	-1398
idest	-1399
mal	-1400
▁arengu	-1401
▁Hel	-1402
▁200	-1403
▁ava	-1404
▁keele	-1405
▁van	-1406
▁ministeerium	-1407
▁10	-1408
▁Meie	-1409
emaks	-1410
▁g	-1411
▁tööd	-1412
▁täps	-1413
olu	-1414
alu	-1415
kaitse	-1416
▁läbirääkimised	-1417
▁põhimõtte	-1418
▁Ei	-1419
hal	-1420
▁teil	-1421
▁ümb	-1422
formie	-1423
sil	-1424
▁posi	-1425
gev	-1426
▁luba	-1427
▁põll	-1428
▁nõus	-1429
ov	-1430
▁alkoh	-1431
▁räägime	-1432
▁mõistlik	-1433
sug	-1434
▁paljud	-1435
onaal	-1436
▁arusaa	-1437
▁avalik	-1438
▁Al	-1439
▁valmis	-1440
▁põhiseadus	-1441
▁piisa	-1442
▁kehti	-1443
▁Küsi	-1444
idugi	-1445
▁kodu	-1446
▁vaadata	-1447
▁pere	-1448
tule	-1449
▁Jü	-1450
▁kõnetooli	-1451
vä	-1452
▁väike	-1453
tme	-1454
▁praeg	-1455
▁kontroll	-1456
▁eesti	-1457
▁kõigi	-1458
van	-1459
▁tulene	-1460
▁tund	-1461
▁peavad	-1462
▁Vä	-1463
▁15	-1464
▁toetust	-1465
utada	-1466
▁kuid	-1467
▁üsna	-1468
▁kirjuta	-1469
▁kuj	-1470
▁aut	-1471
▁su	-1472
▁Meil	-1473
tõttu	-1474
▁esindaja	-1475
▁isiku	-1476
▁millest	-1477
▁Lä	-1478
pool	-1479
▁Reformie	-1480
▁mak	-1481
▁võrd	-1482
anema	-1483
ksin	-1484
▁Teg	-1485
▁näita	-1486
▁mõtle	-1487
fon	-1488
tuks	-1489
▁tegi	-1490
▁tekk	-1491
▁suure	-1492
▁19	-1493
▁Siin	-1494
▁olukorra	-1495
▁Soo	-1496
Lugupeetud	-1497
▁Praegu	-1498
▁keskkonna	-1499
▁haridus	-1500
uudatusette	-1501
ades	-1502
lust	-1503
riik	-1504
▁rahvusvahel	-1505
▁alg	-1506
▁plaan	-1507
▁kell	-1508
▁täit	-1509
ima	-1510
▁La	-1511
▁võime	-1512
▁pigem	-1513
▁kao	-1514
▁olukord	-1515
▁saame	-1516
▁jah	-1517
iliselt	-1518
▁tegema	-1519
▁suuda	-1520
▁u	-1521
▁vaba	-1522
▁piiri	-1523
ssi	-1524
▁oska	-1525
kust	-1526
▁korralda	-1527
▁otsus	-1528
▁seadust	-1529
▁sele	-1530
sele	-1531
▁ni	-1532
udu	-1533
▁pr	-1534
erida	-1535
▁lii	-1536
▁umb	-1537
▁mulle	-1538
▁selgelt	-1539
▁saan	-1540
▁Aru	-1541
▁haldus	-1542
▁ütlesin	-1543
▁Kindlasti	-1544
und	-1545
▁kül	-1546
▁lõpetada	-1547
enema	-1548
per	-1549
▁võetud	-1550
▁asjad	-1551
▁rahasta	-1552
▁maail	-1553
panekute	-1554
▁kehtesta	-1555
▁juhtu	-1556
kes	-1557
▁järele	-1558
ikku	-1559
semel	-1560
htu	-1561
▁alusel	-1562
▁tõepoolest	-1563
▁hinna	-1564
muse	-1565
▁elekt	-1566
▁hu	-1567
ktor	-1568
ääletust	-1569
ment	-1570
▁tõttu	-1571
▁päe	-1572
▁suurem	-1573
▁Miks	-1574
oll	-1575
uvad	-1576
▁para	-1577
▁mõte	-1578
▁kahju	-1579
iva	-1580
duvalt	-1581
▁vahe	-1582
▁konkur	-1583
▁kand	-1584
alist	-1585
▁ettekande	-1586
▁ümber	-1587
miste	-1588
formi	-1589
▁rääg	-1590
▁lange	-1591
ulemused	-1592
antsle	-1593
lased	-1594
▁täienda	-1595
7.	-1596
▁ütlen	-1597
▁head	-1598
▁tõsta	-1599
▁9	-1600
▁lahend	-1601
▁kan	-1602
▁teid	-1603
▁investeer	-1604
▁erapoole	-1605
▁samuti	-1606
▁do	-1607
päeva	-1608
▁tut	-1609
duse	-1610
ame	-1611
rul	-1612
▁Samas	-1613
▁kohust	-1614
väär	-1615
▁end	-1616
▁tähtaja	-1617
▁õpp	-1618
ali	-1619
▁eelarv	-1620
ääletustulemused	-1621
jaid	-1622
▁het	-1623
hääle	-1624
▁muuta	-1625
▁regist	-1626
entsi	-1627
▁küsimusele	-1628
▁analüüsi	-1629
▁Too	-1630
 –	-1631
▁mingisug	-1632
son	-1633
▁ig	-1634
▁summa	-1635
▁kohaselt	-1636
▁lahenda	-1637
▁kindl	-1638
▁küsin	-1639
▁prakt	-1640
▁julge	-1641
▁öelnud	-1642
▁tulumaks	-1643
Suur	-1644
▁koht	-1645
▁ütles	-1646
▁Ette	-1647
▁Rahandus	-1648
▁kasutada	-1649
▁neile	-1650
▁tahan	-1651
▁tulevikus	-1652
▁hakkab	-1653
▁millega	-1654
tamise	-1655
utus	-1656
▁huvita	-1657
ilist	-1658
nik	-1659
pis	-1660
ganisa	-1661
▁Suur	-1662
▁parlamend	-1663
▁annab	-1664
▁jäänud	-1665
▁liige	-1666
▁hääletusele	-1667
▁12	-1668
▁viia	-1669
▁laste	-1670
▁lü	-1671
▁mitu	-1672
▁Üks	-1673
itsi	-1674
▁kulu	-1675
▁kokkule	-1676
likud	-1677
▁op	-1678
▁vale	-1679
▁Kol	-1680
▁teame	-1681
▁kodan	-1682
emal	-1683
petsi	-1684
Tä	-1685
▁aita	-1686
▁maksta	-1687
kantsle	-1688
▁vol	-1689
suse	-1690
▁näd	-1691
▁istung	-1692
kul	-1693
▁Põh	-1694
▁püü	-1695
ip	-1696
aka	-1697
ven	-1698
▁Ole	-1699
▁omavalitsuste	-1700
angu	-1701
▁elan	-1702
▁teeme	-1703
▁muidugi	-1704
▁Ar	-1705
▁õp	-1706
itakse	-1707
▁eriti	-1708
▁meelest	-1709
mo	-1710
toet	-1711
▁– 	-1712
▁sõn	-1713
▁igal	-1714
alise	-1715
musi	-1716
▁Riigikogus	-1717
enä	-1718
seaduse	-1719
▁Võib	-1720
▁istungil	-1721
▁ilma	-1722
umi	-1723
▁Kõige	-1724
▁tulnud	-1725
resid	-1726
▁mingit	-1727
demokraat	-1728
▁hil	-1729
▁kunagi	-1730
▁Er	-1731
▁umbes	-1732
▁puu	-1733
▁samas	-1734
▁niimoodi	-1735
ent	-1736
▁eelkõ	-1737
▁pean	-1738
erakonna	-1739
eerida	-1740
▁tutv	-1741
iits	-1742
▁loodan	-1743
▁kõiki	-1744
▁valim	-1745
▁varem	-1746
▁Venema	-1747
hoi	-1748
▁lüh	-1749
oma	-1750
▁tuua	-1751
▁neil	-1752
taks	-1753
isse	-1754
▁noor	-1755
ber	-1756
kondade	-1757
▁In	-1758
▁tulla	-1759
konn	-1760
mista	-1761
tsa	-1762
▁selgi	-1763
▁kasv	-1764
▁hinda	-1765
▁tehakse	-1766
▁esitada	-1767
usa	-1768
põh	-1769
▁po	-1770
▁Mill	-1771
▁täielikult	-1772
▁saav	-1773
võime	-1774
▁paranda	-1775
6.	-1776
kl	-1777
▁proua	-1778
1.	-1779
lan	-1780
vah	-1781
▁usun	-1782
▁tänan	-1783
gas	-1784
▁järgmise	-1785
idel	-1786
▁alkoholi	-1787
▁vee	-1788
ikas	-1789
▁toime	-1790
be	-1791
▁ilmselt	-1792
▁milline	-1793
▁möö	-1794
▁sees	-1795
▁or	-1796
▁näha	-1797
õig	-1798
▁mõtte	-1799
▁eral	-1800
▁Andres	-1801
▁asju	-1802
▁kolmanda	-1803
oloo	-1804
tivkomisjon	-1805
▁keerul	-1806
▁hinnang	-1807
eritud	-1808
▁vara	-1809
▁konsen	-1810
▁kuhu	-1811
▁vähe	-1812
▁liiga	-1813
ümn	-1814
3.	-1815
▁sisu	-1816
itus	-1817
▁sta	-1818
rakond	-1819
▁Esime	-1820
▁küm	-1821
▁tingi	-1822
▁fin	-1823
▁ministri	-1824
▁toimub	-1825
▁kaudu	-1826
▁main	-1827
ner	-1828
iik	-1829
▁sul	-1830
▁võrr	-1831
dakond	-1832
▁kooli	-1833
▁juht	-1834
▁hoopis	-1835
pal	-1836
▁majand	-1837
ikaitse	-1838
▁pakku	-1839
▁riigieelarve	-1840
▁samm	-1841
▁rakenda	-1842
▁ehita	-1843
▁kellel	-1844
▁selliseid	-1845
▁nelja	-1846
▁tuli	-1847
▁põhjalik	-1848
▁Lu	-1849
▁kar	-1850
▁olulise	-1851
▁kind	-1852
▁arvestada	-1853
sema	-1854
▁nimelt	-1855
matu	-1856
▁jne	-1857
▁nendest	-1858
oet	-1859
▁küsida	-1860
võim	-1861
▁jälle	-1862
▁toeta	-1863
nne	-1864
▁jaga	-1865
▁võtnud	-1866
▁Sell	-1867
sur	-1868
▁paku	-1869
▁inimese	-1870
aada	-1871
kava	-1872
▁võik	-1873
no	-1874
▁Põ	-1875
koha	-1876
▁kolme	-1877
▁kval	-1878
▁olukorda	-1879
▁komp	-1880
▁probleemi	-1881
▁inimestele	-1882
▁kohe	-1883
▁tegevus	-1884
gl	-1885
töö	-1886
▁ütleb	-1887
▁kur	-1888
▁linna	-1889
5.	-1890
▁rõh	-1891
▁tervis	-1892
▁kontrolli	-1893
dab	-1894
▁põhimõttel	-1895
▁positiiv	-1896
▁juhti	-1897
ati	-1898
ustame	-1899
gn	-1900
adi	-1901
kene	-1902
▁arvest	-1903
▁Kaitse	-1904
20	-1905
▁kuts	-1906
raha	-1907
likku	-1908
ikomisjon	-1909
▁vähenda	-1910
▁esitamise	-1911
▁Loomulikult	-1912
▁lep	-1913
▁kohal	-1914
eid	-1915
▁Kuna	-1916
oove	-1917
▁Nä	-1918
▁vaatame	-1919
jää	-1920
▁Kõik	-1921
▁koosse	-1922
kki	-1923
rista	-1924
inist	-1925
▁meetme	-1926
▁Ur	-1927
▁mood	-1928
pordi	-1929
▁küsija	-1930
▁mõni	-1931
alle	-1932
ser	-1933
ikat	-1934
▁süsteem	-1935
gust	-1936
Ko	-1937
emalt	-1938
▁leidnud	-1939
▁aktsiisi	-1940
▁reaal	-1941
vald	-1942
▁tõus	-1943
▁millise	-1944
tava	-1945
▁pidada	-1946
▁raske	-1947
▁riigis	-1948
▁Tegelikult	-1949
orite	-1950
▁tervise	-1951
▁eelnõuga	-1952
▁nõukogu	-1953
llu	-1954
egule	-1955
▁sai	-1956
▁Reformierakonna	-1957
tal	-1958
▁ütlesite	-1959
▁seis	-1960
▁tööle	-1961
▁Kesk	-1962
▁hakkama	-1963
rid	-1964
eneb	-1965
▁mäle	-1966
▁tekib	-1967
▁tegutse	-1968
▁Juhtivkomisjoni	-1969
▁Pa	-1970
▁Jah	-1971
spe	-1972
▁kuigi	-1973
▁silmas	-1974
▁valimis	-1975
tuses	-1976
kan	-1977
▁jätta	-1978
tavasti	-1979
▁tõenä	-1980
▁eelkõige	-1981
umist	-1982
panekut	-1983
ümnaasi	-1984
dega	-1985
▁uue	-1986
▁liit	-1987
▁Valitsus	-1988
▁omavalitsus	-1989
▁huvi	-1990
iteks	-1991
▁000	-1992
aasta	-1993
adust	-1994
rukt	-1995
▁1.	-1996
utust	-1997
▁sisuliselt	-1998
4.	-1999
rah	-2000
▁täiskogu	-2001
▁tah	-2002
▁tähtajaks	-2003
ette	-2004
mente	-2005
▁Mart	-2006
▁peal	-2007
▁Soome	-2008
▁näeme	-2009
ten	-2010
▁sellepärast	-2011
▁Lõ	-2012
tist	-2013
vita	-2014
▁kümme	-2015
▁miin	-2016
▁lõpphääle	-2017
▁pane	-2018
▁eraldi	-2019
kä	-2020
▁läinud	-2021
ingute	-2022
▁uus	-2023
ktori	-2024
sete	-2025
▁läbirääkimisi	-2026
▁Jär	-2027
▁õiguskantsle	-2028
▁jäi	-2029
nt	-2030
▁viis	-2031
umine	-2032
▁doku	-2033
▁arvu	-2034
▁tundub	-2035
▁Muudatusette	-2036
▁endale	-2037
▁liikmete	-2038
usse	-2039
▁proje	-2040
Tänan	-2041
▁politse	-2042
▁käigus	-2043
▁kujun	-2044
▁Teine	-2045
▁Venemaa	-2046
▁hakata	-2047
▁juttu	-2048
asi	-2049
▁teadus	-2050
▁kultuuri	-2051
▁uur	-2052
▁regule	-2053
▁eelmise	-2054
▁põlluma	-2055
aast	-2056
▁jõudnud	-2057
▁kirjas	-2058
▁ühel	-2059
▁ennast	-2060
▁kõig	-2061
▁meelde	-2062
▁teemat	-2063
umis	-2064
vii	-2065
dust	-2066
▁Rohkem	-2067
▁kohaliku	-2068
emad	-2069
▁kat	-2070
▁millised	-2071
▁Näiteks	-2072
▁teisi	-2073
▁kodakond	-2074
▁müü	-2075
▁seletus	-2076
▁suhtes	-2077
komisjonis	-2078
sust	-2079
▁kinni	-2080
▁alles	-2081
▁teemal	-2082
▁leida	-2083
▁esimese	-2084
▁dis	-2085
oori	-2086
ül	-2087
lev	-2088
korral	-2089
▁kõrge	-2090
▁Mõ	-2091
ss	-2092
unn	-2093
▁pää	-2094
▁mõel	-2095
▁ühes	-2096
▁nimeta	-2097
8.	-2098
▁muude	-2099
lu	-2100
▁võimalust	-2101
▁30	-2102
oone	-2103
▁lähtu	-2104
▁koosta	-2105
ris	-2106
▁Täna	-2107
nesoove	-2108
gnoo	-2109
▁mine	-2110
umise	-2111
▁punkt	-2112
▁tunne	-2113
ikon	-2114
▁paremini	-2115
▁kultuur	-2116
▁järgmisel	-2117
▁arvestamata	-2118
▁Kõigepealt	-2119
emb	-2120
peal	-2121
▁hü	-2122
▁mõn	-2123
▁so	-2124
▁ap	-2125
▁juhtivkomisjon	-2126
▁lisaa	-2127
▁nor	-2128
▁õpetaja	-2129
▁sealt	-2130
pul	-2131
vale	-2132
▁deba	-2133
▁lepingu	-2134
▁laen	-2135
▁Pan	-2136
andust	-2137
▁keda	-2138
▁rahul	-2139
▁suurenda	-2140
▁mõjuta	-2141
▁auto	-2142
▁jätku	-2143
riig	-2144
▁üksi	-2145
▁Üh	-2146
jest	-2147
▁võivad	-2148
..	-2149
gram	-2150
▁tarbi	-2151
▁hetkel	-2152
▁hääleta	-2153
▁plan	-2154
idus	-2155
▁sur	-2156
▁osas	-2157
▁tasaka	-2158
isugune	-2159
▁Kon	-2160
valve	-2161
▁tohi	-2162
▁ühtegi	-2163
▁oleksid	-2164
▁id	-2165
▁Jüri	-2166
▁leia	-2167
▁peaksid	-2168
▁võimaluse	-2169
kk	-2170
kassa	-2171
reformi	-2172
last	-2173
ganisatsioon	-2174
▁infor	-2175
▁probleeme	-2176
rans	-2177
▁arupärimise	-2178
mp	-2179
▁töötu	-2180
▁vastata	-2181
▁küsimused	-2182
▁teised	-2183
menet	-2184
▁Helme	-2185
▁Teie	-2186
▁Kor	-2187
▁menetlus	-2188
▁seoses	-2189
▁Mida	-2190
udel	-2191
oot	-2192
▁otsused	-2193
▁tehn	-2194
▁ettevõtte	-2195
▁jõust	-2196
▁An	-2197
▁natukene	-2198
▁kooskõ	-2199
esime	-2200
▁lisaaega	-2201
▁juures	-2202
▁käest	-2203
▁ettevõte	-2204
otle	-2205
▁maha	-2206
mel	-2207
ktsioon	-2208
▁presid	-2209
▁päevakorrapunkt	-2210
dada	-2211
fe	-2212
maksu	-2213
▁nendele	-2214
▁tervik	-2215
▁ettekandjale	-2216
▁puudub	-2217
▁erapooletu	-2218
Head	-2219
dele	-2220
▁antud	-2221
▁esindajad	-2222
▁seaduste	-2223
geid	-2224
jatele	-2225
kui	-2226
▁sõltu	-2227
▁seaduses	-2228
▁spetsi	-2229
▁Mu	-2230
üsteemi	-2231
võrd	-2232
isel	-2233
▁julgeoleku	-2234
elu	-2235
loo	-2236
fitse	-2237
pte	-2238
▁otsi	-2239
▁mõned	-2240
▁riigikaitse	-2241
ikontrol	-2242
▁Erakonna	-2243
▁omavalitsused	-2244
▁kohustus	-2245
vasta	-2246
▁aseesime	-2247
▁tunnista	-2248
eldes	-2249
▁öeldud	-2250
▁riikide	-2251
▁ree	-2252
mast	-2253
▁põhjust	-2254
▁juhtivkomisjoni	-2255
▁pä	-2256
▁sellised	-2257
▁toot	-2258
▁tulevad	-2259
rup	-2260
▁õppe	-2261
malt	-2262
▁ris	-2263
%.	-2264
▁Ida	-2265
õigus	-2266
▁järel	-2267
▁millele	-2268
▁välj	-2269
demokraatliku	-2270
▁vahea	-2271
▁toetus	-2272
▁vanema	-2273
ikogu	-2274
▁hulgas	-2275
▁Just	-2276
taht	-2277
▁ettepanekut	-2278
▁taotle	-2279
oliselt	-2280
▁Tule	-2281
▁toetada	-2282
▁lub	-2283
▁uuri	-2284
▁ülesanne	-2285
▁res	-2286
▁kümne	-2287
▁äär	-2288
▁piisavalt	-2289
%-	-2290
▁kust	-2291
▁erakonna	-2292
võr	-2293
▁Vabaerakonna	-2294
▁etteval	-2295
▁peaksime	-2296
vit	-2297
▁Selles	-2298
▁kõigile	-2299
▁Siis	-2300
pida	-2301
▁kava	-2302
▁konkurentsi	-2303
koor	-2304
▁muutu	-2305
del	-2306
▁osuta	-2307
▁lõpuks	-2308
▁tulumaksu	-2309
▁kusk	-2310
▁liikmes	-2311
▁kohalike	-2312
▁lõppenud	-2313
▁töökoh	-2314
▁ula	-2315
endatud	-2316
▁jaan	-2317
▁põhjus	-2318
▁järje	-2319
lo	-2320
jale	-2321
▁ä	-2322
kesk	-2323
▁sen	-2324
▁käi	-2325
▁Eel	-2326
▁riigil	-2327
hail	-2328
eeter	-2329
minaal	-2330
dame	-2331
ihhail	-2332
gal	-2333
ivar	-2334
▁tervishoi	-2335
▁dire	-2336
▁oposi	-2337
▁kättes	-2338
▁Küsimus	-2339
juh	-2340
ikaas	-2341
▁luua	-2342
▁tuge	-2343
ingud	-2344
▁mind	-2345
▁edas	-2346
▁piira	-2347
miselt	-2348
▁pri	-2349
ena	-2350
▁hinnangul	-2351
ääl	-2352
▁Teiseks	-2353
▁harid	-2354
▁aus	-2355
▁siit	-2356
▁tõst	-2357
kst	-2358
osa	-2359
▁üht	-2360
gul	-2361
▁kvalite	-2362
▁kuula	-2363
▁Nad	-2364
▁osal	-2365
▁kätte	-2366
gude	-2367
▁tööta	-2368
▁küsimuses	-2369
▁kii	-2370
▁Avan	-2371
▁pealt	-2372
valv	-2373
▁töökorra	-2374
Vir	-2375
tuleku	-2376
▁heaks	-2377
siteks	-2378
▁sätesta	-2379
▁asu	-2380
▁ühine	-2381
üsteem	-2382
▁seletuskirja	-2383
ilised	-2384
emist	-2385
ustab	-2386
semalt	-2387
▁käit	-2388
▁pand	-2389
▁50	-2390
▁vastust	-2391
▁võin	-2392
▁süsteemi	-2393
▁regi	-2394
▁ühiskonna	-2395
sis	-2396
▁hool	-2397
▁regula	-2398
▁kahjuks	-2399
▁tulu	-2400
▁nädal	-2401
useaduse	-2402
▁eralda	-2403
▁Her	-2404
mõ	-2405
utuste	-2406
▁elektri	-2407
menta	-2408
▁erapooletuid	-2409
▁alates	-2410
▁seetõttu	-2411
gid	-2412
▁hääletas	-2413
▁saad	-2414
ca	-2415
isest	-2416
▁Väga	-2417
▁vist	-2418
▁rõhuta	-2419
▁11	-2420
▁Sellest	-2421
tsemb	-2422
ksite	-2423
▁hilj	-2424
▁Liit	-2425
▁kättesaada	-2426
▁kiiresti	-2427
▁suhtel	-2428
▁otsuseid	-2429
▁sellesse	-2430
▁ga	-2431
▁meid	-2432
sama	-2433
▁100	-2434
väe	-2435
▁kaal	-2436
▁vastuvõt	-2437
▁lahendada	-2438
▁võimalusi	-2439
mmun	-2440
seme	-2441
▁25	-2442
rgen	-2443
▁vastus	-2444
▁uuesti	-2445
▁Seetõttu	-2446
▁Tea	-2447
▁panen	-2448
ovemb	-2449
▁protsed	-2450
▁teevad	-2451
än	-2452
▁tahame	-2453
▁eksi	-2454
▁Euroop	-2455
▁oh	-2456
▁sünd	-2457
▁vaata	-2458
▁vene	-2459
▁saama	-2460
▁Seega	-2461
▁hoida	-2462
▁Herkel	-2463
▁kanna	-2464
ihti	-2465
▁suurt	-2466
päeval	-2467
▁kutse	-2468
▁kogem	-2469
tsin	-2470
aak	-2471
neb	-2472
ktoo	-2473
ratee	-2474
idata	-2475
vara	-2476
▁Kuid	-2477
▁prognoo	-2478
▁tagada	-2479
▁võrreldes	-2480
▁kasu	-2481
like	-2482
▁ker	-2483
▁tor	-2484
2.	-2485
▁Esiteks	-2486
▁14	-2487
af	-2488
akt	-2489
▁lugemisel	-2490
▁niisug	-2491
kad	-2492
▁oluliselt	-2493
▁ühiskonnas	-2494
vis	-2495
▁Eks	-2496
▁tehti	-2497
▁Esimene	-2498
▁tava	-2499
▁Seal	-2500
▁avalda	-2501
▁rääkinud	-2502
▁olukorras	-2503
▁pee	-2504
▁riigieelarv	-2505
endeid	-2506
▁eelnõus	-2507
▁seon	-2508
▁justkui	-2509
▁es	-2510
▁nähtud	-2511
▁esimehe	-2512
.)	-2513
▁Pea	-2514
▁lastea	-2515
ratsioon	-2516
▁ülevaa	-2517
▁täpsusta	-2518
▁Komisjoni	-2519
▁vor	-2520
▁informa	-2521
▁ettepanekuid	-2522
▁arutada	-2523
▁..	-2524
▁sinu	-2525
▁Tartu	-2526
▁ressur	-2527
▁mad	-2528
kondades	-2529
▁sh	-2530
▁loe	-2531
▁Ligi	-2532
Viruma	-2533
ana	-2534
▁äri	-2535
▁Mulle	-2536
▁seisukohta	-2537
▁kuus	-2538
▁mingeid	-2539
nane	-2540
▁Pal	-2541
▁un	-2542
▁kal	-2543
▁suhtu	-2544
bar	-2545
▁lugemise	-2546
▁vi	-2547
▁edaspidi	-2548
asse	-2549
▁Par	-2550
▁Stal	-2551
▁haige	-2552
▁tean	-2553
▁gümnaasi	-2554
nuh	-2555
▁suunas	-2556
uväär	-2557
▁erinevad	-2558
▁otsustas	-2559
▁võtab	-2560
▁karist	-2561
▁maailma	-2562
▁tekkinud	-2563
keel	-2564
▁konte	-2565
▁võimalikult	-2566
▁töötaja	-2567
▁liht	-2568
gud	-2569
kasv	-2570
▁maja	-2571
▁saavuta	-2572
▁tähenda	-2573
kindl	-2574
▁vastuse	-2575
▁õigesti	-2576
▁õnn	-2577
▁mingil	-2578
▁tasemel	-2579
▁esimesel	-2580
▁andnud	-2581
.""	-2582
▁16	-2583
▁kolmas	-2584
nuhh	-2585
▁neli	-2586
▁Stalnuhh	-2587
▁hiljem	-2588
ruu	-2589
▁aastatel	-2590
am	-2591
▁maksma	-2592
▁palka	-2593
▁toodud	-2594
▁konkreetselt	-2595
▁võrra	-2596
▁riikides	-2597
▁Sõ	-2598
tselt	-2599
saad	-2600
▁võit	-2601
tuste	-2602
▁kurite	-2603
▁laeku	-2604
▁lisaks	-2605
▁konsensus	-2606
▁loob	-2607
▁saaksid	-2608
kee	-2609
▁mõle	-2610
▁he	-2611
sõ	-2612
▁päde	-2613
▁määral	-2614
kunud	-2615
9.	-2616
ulu	-2617
enesest	-2618
par	-2619
▁strukt	-2620
▁inst	-2621
▁tasu	-2622
tatakse	-2623
▁miljoni	-2624
▁ülesande	-2625
▁Ol	-2626
inguid	-2627
ises	-2628
▁õpil	-2629
▁päevakorda	-2630
. "	-2631
▁nn	-2632
▁demokra	-2633
ela	-2634
▁17.	-2635
▁peaministri	-2636
▁toimunud	-2637
▁ener	-2638
▁omavahel	-2639
erimise	-2640
▁kõike	-2641
▁har	-2642
aaegu	-2643
eeritud	-2644
▁arutanud	-2645
ikatsioon	-2646
▁efe	-2647
ps	-2648
roon	-2649
▁sellisel	-2650
AT	-2651
▁abil	-2652
grammi	-2653
▁ast	-2654
▁võetakse	-2655
▁13	-2656
▁miinim	-2657
▁tasand	-2658
▁vajadus	-2659
▁mõelda	-2660
▁ütleme	-2661
▁neist	-2662
konnad	-2663
▁määrata	-2664
Mar	-2665
▁vähendada	-2666
0,	-2667
▁käibemaks	-2668
▁muutunud	-2669
iiri	-2670
▁Kree	-2671
▁tänase	-2672
▁põhimõte	-2673
▁omavalitsust	-2674
klaa	-2675
▁Nende	-2676
▁Mihhail	-2677
▁tõenäoliselt	-2678
kte	-2679
"".	-2680
▁soovita	-2681
▁vabataht	-2682
▁riigile	-2683
tamine	-2684
tifitse	-2685
▁arvestatud	-2686
▁haka	-2687
piir	-2688
harid	-2689
▁tulenevalt	-2690
tur	-2691
▁avaliku	-2692
▁kriisi	-2693
▁ametikaas	-2694
▁är	-2695
▁Vii	-2696
tusega	-2697
▁ühist	-2698
▁kellele	-2699
eni	-2700
vid	-2701
meet	-2702
vatiiv	-2703
▁soovivad	-2704
▁Aivar	-2705
▁Jürgen	-2706
aktsiisi	-2707
panekuid	-2708
pet	-2709
▁Tu	-2710
▁toimus	-2711
▁teo	-2712
▁õpetajate	-2713
▁näeb	-2714
▁ettekandeks	-2715
Kohal	-2716
▁pidanud	-2717
ATO	-2718
▁talle	-2719
bru	-2720
▁numb	-2721
▁saali	-2722
istel	-2723
bje	-2724
▁suhteliselt	-2725
▁öeldes	-2726
▁peaaegu	-2727
 000	-2728
▁lapsed	-2729
▁aseesimees	-2730
▁peri	-2731
▁haig	-2732
▁Maa	-2733
▁NATO	-2734
▁linn	-2735
▁korras	-2736
pord	-2737
ilisi	-2738
tor	-2739
lane	-2740
▁viimase	-2741
%,	-2742
nä	-2743
▁suuri	-2744
▁tihti	-2745
ire	-2746
pit	-2747
▁argu	-2748
▁eksper	-2749
▁arutas	-2750
▁põhimõtteliselt	-2751
ktoob	-2752
▁hinnangu	-2753
▁kaht	-2754
▁lihtne	-2755
▁pöör	-2756
▁aastast	-2757
luses	-2758
vab	-2759
▁priorite	-2760
mises	-2761
▁missioon	-2762
▁pul	-2763
uri	-2764
endid	-2765
▁võiksid	-2766
seis	-2767
▁tõsiselt	-2768
▁keeles	-2769
▁alust	-2770
▁saata	-2771
aari	-2772
kõik	-2773
ustuse	-2774
▁suurendada	-2775
▁seni	-2776
▁parema	-2777
▁algataja	-2778
▁lahendus	-2779
▁samamoodi	-2780
▁Sise	-2781
▁Läti	-2782
▁aastate	-2783
jaks	-2784
▁info	-2785
▁aktiiv	-2786
▁küsimustele	-2787
▁lepp	-2788
▁teate	-2789
▁pil	-2790
Ku	-2791
▁Sel	-2792
▁aitäh	-2793
▁män	-2794
▁kõigepealt	-2795
▁tõl	-2796
▁kulud	-2797
adri	-2798
▁hulk	-2799
ralik	-2800
▁võtame	-2801
▁1,	-2802
▁sega	-2803
▁käes	-2804
▁kindel	-2805
▁kriit	-2806
▁kriminaal	-2807
samaa	-2808
▁Nar	-2809
▁riiki	-2810
▁jaanua	-2811
RL	-2812
▁põhik	-2813
servatiiv	-2814
▁mööda	-2815
riid	-2816
▁eelarvest	-2817
▁juu	-2818
uuril	-2819
meid	-2820
▁naa	-2821
▁säil	-2822
▁lõpetatud	-2823
gramm	-2824
▁Tarmo	-2825
▁kandida	-2826
▁aastas	-2827
▁praegune	-2828
jev	-2829
▁kõnepul	-2830
▁poliitilise	-2831
▁Urmas	-2832
antse	-2833
▁asemel	-2834
▁suured	-2835
▁kontekst	-2836
reer	-2837
▁IRL	-2838
▁detsemb	-2839
ah	-2840
iivi	-2841
▁paar	-2842
▁Ern	-2843
▁Rein	-2844
▁finants	-2845
▁laenu	-2846
ski	-2847
▁kütuse	-2848
▁keeruline	-2849
▁valdkonnas	-2850
▁Majandus	-2851
oni	-2852
▁vastuta	-2853
▁kompen	-2854
▁mõeldud	-2855
▁juhatuse	-2856
raal	-2857
jõu	-2858
isaks	-2859
▁nõue	-2860
eda	-2861
▁mure	-2862
lis	-2863
med	-2864
▁terve	-2865
▁lähevad	-2866
▁justiits	-2867
▁korduvalt	-2868
▁alguses	-2869
▁põhiseaduse	-2870
dava	-2871
▁Vast	-2872
▁näinud	-2873
▁organisatsioon	-2874
▁tugev	-2875
▁ratifitse	-2876
▁mõtet	-2877
▁jätka	-2878
eerimis	-2879
▁poliitika	-2880
kka	-2881
▁diskus	-2882
▁17	-2883
alti	-2884
▁elanik	-2885
ustamine	-2886
▁novemb	-2887
hed	-2888
▁au	-2889
ver	-2890
▁mõiste	-2891
▁näitab	-2892
Härra	-2893
▁palk	-2894
▁Riigikontrol	-2895
ms	-2896
hus	-2897
▁edu	-2898
iliste	-2899
▁vähen	-2900
▁kuskil	-2901
▁rahvast	-2902
uga	-2903
▁ametikaaslased	-2904
▁18	-2905
▁ellu	-2906
imelt	-2907
▁rel	-2908
▁Arupäri	-2909
ustamise	-2910
hn	-2911
▁samal	-2912
▁arenda	-2913
▁statist	-2914
▁infot	-2915
▁pandud	-2916
▁tahe	-2917
tate	-2918
▁nõuko	-2919
▁pensioni	-2920
riit	-2921
vuse	-2922
▁kõrg	-2923
▁tähta	-2924
▁Ha	-2925
▁Tänan	-2926
▁Keskkonna	-2927
pla	-2928
▁taot	-2929
pära	-2930
fondi	-2931
kool	-2932
▁Järg	-2933
▁Nimelt	-2934
▁juhtum	-2935
▁nendes	-2936
▁Justiits	-2937
▁aastaid	-2938
Poolt	-2939
▁kokkuleppe	-2940
▁Samuti	-2941
ikul	-2942
mia	-2943
▁sain	-2944
pea	-2945
▁Teile	-2946
▁põhjal	-2947
ustest	-2948
▁lugeda	-2949
ptemb	-2950
▁puutub	-2951
▁tahaks	-2952
sol	-2953
▁otseselt	-2954
▁seadusega	-2955
abi	-2956
leri	-2957
▁Sead	-2958
▁Euroopas	-2959
dest	-2960
▁Ernits	-2961
▁efektiiv	-2962
0.	-2963
▁Küll	-2964
▁Balti	-2965
▁ameti	-2966
▁muutub	-2967
▁millal	-2968
▁maksumaks	-2969
likke	-2970
▁Neid	-2971
amatu	-2972
▁arvamust	-2973
udes	-2974
toko	-2975
tõus	-2976
▁rav	-2977
▁Ukra	-2978
▁ligi	-2979
▁kuulu	-2980
▁ti	-2981
juur	-2982
kande	-2983
nikud	-2984
▁avada	-2985
▁punkti	-2986
▁ülik	-2987
▁riigid	-2988
▁ettevalmista	-2989
▁võimalused	-2990
▁räägitud	-2991
▁fraktsioonide	-2992
tavate	-2993
▁järjest	-2994
▁halv	-2995
jõ	-2996
asu	-2997
tsioone	-2998
▁kall	-2999
▁eelmisel	-3000
▁valdkonna	-3001
rill	-3002
ilis	-3003
▁valitse	-3004
tult	-3005
▁Sim	-3006
▁diskussioon	-3007
▁moel	-3008
▁juriid	-3009
dav	-3010
▁vari	-3011
sugune	-3012
▁panga	-3013
▁vastab	-3014
ratsiooni	-3015
▁nõude	-3016
▁päev	-3017
stun	-3018
eeriumis	-3019
▁hakkavad	-3020
▁muudatusi	-3021
mba	-3022
▁Jaan	-3023
▁lapsi	-3024
▁inimestel	-3025
▁õiguse	-3026
▁aspe	-3027
▁meeldi	-3028
▁teisel	-3029
▁regionaal	-3030
tamist	-3031
▁Isamaa	-3032
▁järgmine	-3033
▁Stalnuhhin	-3034
▁Ettepanek	-3035
▁Kreeka	-3036
▁kommente	-3037
▁Simson	-3038
küsi	-3039
▁mainisi	-3040
ksu	-3041
vaks	-3042
ür	-3043
vaba	-3044
tlemata	-3045
▁Alustame	-3046
biil	-3047
mmunikatsioon	-3048
andi	-3049
lap	-3050
äheme	-3051
emine	-3052
▁sõlm	-3053
▁tegelda	-3054
male	-3055
vust	-3056
▁püüd	-3057
dis	-3058
viku	-3059
▁Tamm	-3060
▁Härra	-3061
▁protsessi	-3062
tnud	-3063
▁Selleks	-3064
adid	-3065
jelda	-3066
▁olgu	-3067
▁kontekstis	-3068
▁Nõu	-3069
▁selg	-3070
tokoll	-3071
▁laiemalt	-3072
▁muudatused	-3073
ndi	-3074
▁lükata	-3075
▁ülevaate	-3076
▁Korb	-3077
▁aastaks	-3078
amet	-3079
▁tug	-3080
itada	-3081
▁rahvasaad	-3082
imine	-3083
kesta	-3084
▁huvides	-3085
▁põllume	-3086
▁ministeeriumi	-3087
▁võl	-3088
▁jutt	-3089
▁märki	-3090
▁näide	-3091
▁otsustada	-3092
▁tähtis	-3093
▁järelevalve	-3094
▁saate	-3095
▁keelt	-3096
uut	-3097
este	-3098
▁Kah	-3099
likkuse	-3100
▁vastavalt	-3101
▁põhi	-3102
▁kauge	-3103
▁seadusena	-3104
anduse	-3105
▁tähts	-3106
▁haigekassa	-3107
▁hind	-3108
▁Olen	-3109
▁oled	-3110
do	-3111
▁muret	-3112
▁ki	-3113
Me	-3114
▁tra	-3115
▁tasakaal	-3116
▁arupärimine	-3117
▁tüh	-3118
▁pide	-3119
▁pikalt	-3120
▁ettekand	-3121
▁Lisaks	-3122
aldus	-3123
istada	-3124
▁reegl	-3125
▁taval	-3126
▁koosseisu	-3127
istus	-3128
udest	-3129
▁kõrval	-3130
ots	-3131
▁omavalitsustele	-3132
▁maailmas	-3133
kri	-3134
misse	-3135
▁Eestisse	-3136
▁jäävad	-3137
▁kavatse	-3138
▁tööandja	-3139
juures	-3140
▁valla	-3141
▁makse	-3142
ulik	-3143
pil	-3144
▁Rahva	-3145
▁ettevõtlus	-3146
lepingu	-3147
▁maksa	-3148
▁üldiselt	-3149
ituse	-3150
▁roll	-3151
▁taht	-3152
idesse	-3153
▁muudatus	-3154
mentaar	-3155
▁erinevaid	-3156
▁im	-3157
tasu	-3158
unik	-3159
vajad	-3160
adis	-3161
aavi	-3162
▁Han	-3163
▁lahti	-3164
▁hoia	-3165
▁jälgi	-3166
▁koostööd	-3167
▁tak	-3168
▁küsimuste	-3169
▁Pro	-3170
tti	-3171
meer	-3172
▁võla	-3173
▁pöörd	-3174
▁ükskõik	-3175
maid	-3176
▁nimetatud	-3177
▁Tõepoolest	-3178
▁soovitakse	-3179
dist	-3180
▁koosseis	-3181
üks	-3182
mistel	-3183
▁ettepanekud	-3184
aastal	-3185
▁nendel	-3186
▁obje	-3187
▁pari	-3188
▁veelgi	-3189
▁probleemid	-3190
emini	-3191
aat	-3192
istuse	-3193
pension	-3194
▁Kadri	-3195
▁kujul	-3196
▁reguleeri	-3197
▁deta	-3198
▁kahj	-3199
▁süüd	-3200
▁vajab	-3201
▁Peeter	-3202
iminist	-3203
▁tohiks	-3204
▁praeguse	-3205
if	-3206
▁toon	-3207
Te	-3208
liik	-3209
mmas	-3210
rat	-3211
ring	-3212
▁püsi	-3213
iseid	-3214
ear	-3215
star	-3216
▁nendega	-3217
oos	-3218
▁iseenesest	-3219
ikut	-3220
▁ooda	-3221
▁raame	-3222
▁Os	-3223
▁Vas	-3224
▁arst	-3225
▁arvamus	-3226
▁arengukava	-3227
▁territ	-3228
▁Ju	-3229
lusi	-3230
▁199	-3231
▁manda	-3232
▁väide	-3233
▁tasuta	-3234
▁lahku	-3235
konnast	-3236
▁registreer	-3237
makse	-3238
▁läks	-3239
▁sõltub	-3240
barse	-3241
birääki	-3242
▁vabandust	-3243
▁esine	-3244
▁põllumajandus	-3245
Jär	-3246
▁Pär	-3247
itsust	-3248
▁võtma	-3249
▁normaal	-3250
▁plaanis	-3251
▁koalitsiooni	-3252
red	-3253
eet	-3254
▁tervishoiu	-3255
▁puudu	-3256
▁rahast	-3257
▁milleks	-3258
▁ülejää	-3259
tentsi	-3260
kaal	-3261
võtte	-3262
▁läheme	-3263
▁juhatus	-3264
var	-3265
mete	-3266
õl	-3267
▁Rand	-3268
ikomisjoni	-3269
ost	-3270
▁Rõ	-3271
▁kait	-3272
▁paremaks	-3273
▁Oma	-3274
▁mitmeid	-3275
▁madala	-3276
▁Vassil	-3277
▁antakse	-3278
▁põhjusel	-3279
▁konkreetne	-3280
▁sea	-3281
ubandus	-3282
▁turu	-3283
▁äkki	-3284
▁suurus	-3285
▁sood	-3286
▁uusi	-3287
▁veebru	-3288
▁õiguskantsler	-3289
õpe	-3290
▁sobi	-3291
▁valitsuses	-3292
Kui	-3293
▁ad	-3294
▁süü	-3295
▁jõua	-3296
liki	-3297
▁ühele	-3298
▁kõikide	-3299
▁Res	-3300
▁Jaak	-3301
protse	-3302
rupp	-3303
▁aitab	-3304
▁40	-3305
terjal	-3306
▁veend	-3307
▁Minist	-3308
▁kodanik	-3309
▁ulatuses	-3310
endite	-3311
▁vahet	-3312
And	-3313
▁reform	-3314
▁soovib	-3315
▁kõnepulti	-3316
ndus	-3317
ikute	-3318
tudes	-3319
▁ütlema	-3320
See	-3321
▁Kül	-3322
itust	-3323
susega	-3324
enduste	-3325
▁parandada	-3326
▁inim	-3327
▁pakkuda	-3328
▁ope	-3329
▁minema	-3330
▁pöördu	-3331
grah	-3332
▁tõuse	-3333
▁ühest	-3334
▁pikk	-3335
▁lähen	-3336
▁raames	-3337
▁hir	-3338
▁mõnes	-3339
▁tahab	-3340
▁institu	-3341
▁kõnesoove	-3342
▁paind	-3343
▁igasug	-3344
▁nädala	-3345
jalt	-3346
reid	-3347
kla	-3348
▁kasvab	-3349
▁tervikuna	-3350
▁Sest	-3351
▁Lõpe	-3352
järg	-3353
▁Sven	-3354
▁poliitiline	-3355
▁eelnõusid	-3356
▁lõpphääletusele	-3357
janduse	-3358
▁oht	-3359
määra	-3360
niku	-3361
gevuse	-3362
panekud	-3363
▁nõust	-3364
▁teises	-3365
▁seisukoha	-3366
atia	-3367
▁parlamendi	-3368
teri	-3369
▁uud	-3370
ere	-3371
▁asjade	-3372
laste	-3373
menetluse	-3374
istu	-3375
▁meedi	-3376
▁nemad	-3377
▁Tal	-3378
▁teenuse	-3379
▁aprill	-3380
▁sada	-3381
▁SK	-3382
▁konven	-3383
▁teda	-3384
▁Kübarse	-3385
▁isiklikult	-3386
▁Leed	-3387
▁võimalda	-3388
mid	-3389
▁Ül	-3390
ustama	-3391
▁Istun	-3392
▁pü	-3393
olek	-3394
soluu	-3395
▁Liidus	-3396
▁idee	-3397
▁loodus	-3398
eb	-3399
▁protokoll	-3400
lasi	-3401
rina	-3402
▁koor	-3403
▁kirjelda	-3404
▁sal	-3405
▁uut	-3406
ikast	-3407
udega	-3408
▁täita	-3409
▁Kalle	-3410
▁kohtus	-3411
essi	-3412
▁Roo	-3413
graaf	-3414
▁näete	-3415
▁pööra	-3416
Eesti	-3417
▁esimest	-3418
nike	-3419
▁loog	-3420
▁raud	-3421
uväärt	-3422
▁käinud	-3423
▁Riigikohtu	-3424
▁muid	-3425
▁õigust	-3426
mendi	-3427
▁Inime	-3428
▁aidata	-3429
▁tegelema	-3430
La	-3431
ener	-3432
▁võeti	-3433
rä	-3434
rüh	-3435
▁reklaa	-3436
▁ost	-3437
▁kindla	-3438
iki	-3439
▁tekkis	-3440
tik	-3441
adu	-3442
▁Lauri	-3443
uminist	-3444
▁tööjõu	-3445
pi	-3446
▁suures	-3447
▁no	-3448
▁andis	-3449
▁jääda	-3450
▁valda	-3451
▁...	-3452
▁ühiskond	-3453
▁vaatama	-3454
▁viimast	-3455
▁rõ	-3456
▁oktoob	-3457
▁väljas	-3458
▁Kõnesoove	-3459
juks	-3460
▁ülemine	-3461
uline	-3462
▁sotsi	-3463
▁kujuta	-3464
▁erapooletuks	-3465
ubli	-3466
▁Lõpetan	-3467
▁kav	-3468
gin	-3469
elik	-3470
▁ainu	-3471
▁0,	-3472
▁turval	-3473
hhan	-3474
istab	-3475
▁korrup	-3476
▁tegevust	-3477
▁partne	-3478
▁vaheaega	-3479
▁regulatsioon	-3480
teks	-3481
▁toetab	-3482
▁kuulnud	-3483
meel	-3484
▁milja	-3485
▁suv	-3486
▁kaua	-3487
▁detail	-3488
▁maksum	-3489
▁tegevuse	-3490
▁prognoosi	-3491
võte	-3492
▁Kolm	-3493
▁maksab	-3494
aline	-3495
ping	-3496
▁tasandil	-3497
vee	-3498
▁taas	-3499
▁vähene	-3500
▁õiguskantsleri	-3501
▁teiseks	-3502
port	-3503
▁hoid	-3504
▁toob	-3505
▁õnnest	-3506
▁kõrvale	-3507
▁arutatud	-3508
tati	-3509
▁aktsi	-3510
▁töövõime	-3511
▁paraku	-3512
▁arvestades	-3513
peri	-3514
bleem	-3515
▁arvate	-3516
▁taasta	-3517
▁teemaga	-3518
▁kodakondsuse	-3519
▁Ega	-3520
teenuste	-3521
▁majanduskasv	-3522
mer	-3523
utud	-3524
▁tsi	-3525
▁laua	-3526
rateegia	-3527
tsionaal	-3528
▁tulemuse	-3529
▁struktuur	-3530
Riig	-3531
▁siht	-3532
hhanis	-3533
▁märtsi	-3534
▁samasu	-3535
korras	-3536
▁rääkis	-3537
egist	-3538
muste	-3539
▁Publi	-3540
kül	-3541
kandja	-3542
▁praktika	-3543
▁kohaloleku	-3544
ikeel	-3545
aliste	-3546
▁perear	-3547
▁mingisugust	-3548
▁Publica	-3549
▁60	-3550
fond	-3551
▁informatsiooni	-3552
▁16.	-3553
▁rääkima	-3554
oloogia	-3555
õiguse	-3556
õiv	-3557
▁opositsioon	-3558
bel	-3559
▁põhjalikult	-3560
serv	-3561
ant	-3562
▁mets	-3563
▁räägib	-3564
Rohkem	-3565
▁noorte	-3566
▁reformi	-3567
▁jäe	-3568
▁osta	-3569
▁koolis	-3570
jat	-3571
▁seesama	-3572
▁lausa	-3573
▁kompense	-3574
 "	-3575
▁Määr	-3576
▁erinev	-3577
▁silma	-3578
▁klas	-3579
aloo	-3580
dala	-3581
kiri	-3582
▁miinimum	-3583
õr	-3584
etoet	-3585
▁Saar	-3586
▁kõigil	-3587
▁Priit	-3588
▁perspe	-3589
▁tü	-3590
ääne	-3591
▁kil	-3592
imist	-3593
ndaks	-3594
▁viie	-3595
▁andma	-3596
▁rikku	-3597
▁septemb	-3598
▁Tallinnas	-3599
▁ema	-3600
▁prof	-3601
SM	-3602
▁teenuste	-3603
▁politsei	-3604
▁volikogu	-3605
aja	-3606
▁sektor	-3607
▁istungit	-3608
▁vana	-3609
▁toetuse	-3610
nni	-3611
▁vaes	-3612
enduse	-3613
▁ausalt	-3614
▁noo	-3615
▁korralik	-3616
mma	-3617
▁mõõ	-3618
levki	-3619
▁välti	-3620
▁projekt	-3621
▁väheneb	-3622
mit	-3623
▁Või	-3624
▁ruu	-3625
maat	-3626
▁aud	-3627
▁sõja	-3628
▁positiivne	-3629
ikus	-3630
olli	-3631
▁teed	-3632
▁käsitlemise	-3633
▁Martin	-3634
▁milles	-3635
▁absoluu	-3636
muuda	-3637
vadel	-3638
üvit	-3639
▁protseduuril	-3640
▁fon	-3641
▁liikmesriik	-3642
▁Iga	-3643
hoid	-3644
▁Madis	-3645
▁väida	-3646
enn	-3647
rekt	-3648
olitsei	-3649
▁erakond	-3650
▁mingisugune	-3651
isele	-3652
▁Taavi	-3653
▁räägin	-3654
▁selliste	-3655
mite	-3656
▁Ees	-3657
▁Kal	-3658
▁üri	-3659
aajal	-3660
ikust	-3661
endust	-3662
▁mitmed	-3663
▁Konservatiiv	-3664
giline	-3665
teid	-3666
▁Mit	-3667
idalt	-3668
▁raamatu	-3669
▁teisele	-3670
▁mitmesug	-3671
viisi	-3672
▁nõud	-3673
▁väiksem	-3674
riigis	-3675
▁Rootsi	-3676
▁mingid	-3677
pää	-3678
riks	-3679
▁mere	-3680
▁Panga	-3681
▁selgu	-3682
lda	-3683
gupeetav	-3684
▁taseme	-3685
▁sol	-3686
allik	-3687
pid	-3688
▁kaalu	-3689
semad	-3690
stada	-3691
▁otsustab	-3692
▁hakatakse	-3693
▁Kübarsepp	-3694
▁niisugune	-3695
▁täida	-3696
▁laps	-3697
▁Määran	-3698
▁vastutust	-3699
▁Haridus	-3700
▁metsa	-3701
stus	-3702
tavalt	-3703
▁rõõ	-3704
Andres	-3705
▁tekst	-3706
▁for	-3707
▁Veel	-3708
▁homm	-3709
▁võta	-3710
▁kohalikud	-3711
▁kasutamise	-3712
eh	-3713
edi	-3714
juht	-3715
lega	-3716
iseaduse	-3717
▁protsess	-3718
▁kuulda	-3719
▁spordi	-3720
▁han	-3721
▁hääl	-3722
adusega	-3723
misväär	-3724
▁vahepeal	-3725
▁järgmised	-3726
▁spetsialist	-3727
▁ministrile	-3728
▁andmed	-3729
▁tulemus	-3730
pu	-3731
enti	-3732
oleva	-3733
▁tähtsa	-3734
pär	-3735
▁Kult	-3736
▁keela	-3737
▁mujal	-3738
▁kavanda	-3739
▁viita	-3740
▁mäletan	-3741
▁mõtlema	-3742
▁raja	-3743
▁andmeid	-3744
tusel	-3745
▁alus	-3746
▁erakondade	-3747
Küsi	-3748
▁ühistrans	-3749
tsid	-3750
▁sih	-3751
▁veidi	-3752
▁ütlevad	-3753
gatiiv	-3754
▁igati	-3755
Kas	-3756
▁Ammas	-3757
ania	-3758
▁staa	-3759
▁Toomas	-3760
▁2,	-3761
▁hinnata	-3762
▁kuud	-3763
▁valiku	-3764
▁tahavad	-3765
etud	-3766
▁Narva	-3767
▁koosel	-3768
po	-3769
▁lõpus	-3770
▁mõista	-3771
nele	-3772
▁risk	-3773
▁negatiiv	-3774
iim	-3775
dunud	-3776
itsme	-3777
▁põlevki	-3778
▁eelarves	-3779
kü	-3780
ull	-3781
vade	-3782
▁lõh	-3783
▁inter	-3784
▁haldusreformi	-3785
▁tegeleb	-3786
▁territoori	-3787
liit	-3788
porti	-3789
▁väit	-3790
rile	-3791
▁teenust	-3792
▁Il	-3793
▁mees	-3794
ktsiooni	-3795
▁seonduvalt	-3796
taal	-3797
▁sõnast	-3798
▁tulema	-3799
▁piirangu	-3800
▁Töö	-3801
▁läb	-3802
▁hulka	-3803
▁kehtib	-3804
guse	-3805
▁pannud	-3806
▁alkohol	-3807
▁dokument	-3808
ör	-3809
▁Ehk	-3810
ktiivi	-3811
▁2013.	-3812
▁kaheksa	-3813
▁Urve	-3814
▁vahendeid	-3815
geni	-3816
made	-3817
▁Para	-3818
▁täpsemalt	-3819
▁Ise	-3820
jatega	-3821
▁Põhja	-3822
jo	-3823
▁paragrah	-3824
üle	-3825
üro	-3826
usid	-3827
▁kaja	-3828
▁Sellega	-3829
▁elektroon	-3830
▁saavutada	-3831
▁puudutavad	-3832
▁koon	-3833
▁Teadus	-3834
▁huvitav	-3835
ürokra	-3836
▁teiega	-3837
▁tegelik	-3838
▁hakkame	-3839
päev	-3840
▁eelda	-3841
haridus	-3842
▁sar	-3843
▁nimetada	-3844
järgu	-3845
jus	-3846
ivad	-3847
▁2015.	-3848
intsi	-3849
utatud	-3850
▁Pe	-3851
valits	-3852
▁Milline	-3853
▁majanduse	-3854
▁ESM	-3855
▁pidevalt	-3856
sinov	-3857
▁kasvanud	-3858
▁periood	-3859
hi	-3860
▁12.	-3861
▁Est	-3862
▁opti	-3863
▁koostöös	-3864
▁räägitakse	-3865
▁elavad	-3866
▁Ossinov	-3867
▁väärtus	-3868
▁pikaajal	-3869
▁president	-3870
▁lugemisele	-3871
? "	-3872
▁vastates	-3873
▁24	-3874
▁päeval	-3875
▁küllalt	-3876
"",	-3877
▁olegi	-3878
▁Riigikogule	-3879
▁lubatud	-3880
▁viimasel	-3881
▁selgitada	-3882
kat	-3883
▁Üld	-3884
▁paika	-3885
▁Ukraina	-3886
idud	-3887
jas	-3888
päevast	-3889
▁nädalal	-3890
▁liikmetel	-3891
iina	-3892
▁tõh	-3893
▁laekunud	-3894
▁valdkond	-3895
▁Tõn	-3896
▁eile	-3897
▁võttis	-3898
▁Tegemist	-3899
▁endiselt	-3900
▁ring	-3901
▁konf	-3902
▁ettekandes	-3903
▁21	-3904
▁Nest	-3905
▁valmist	-3906
anemad	-3907
lused	-3908
▁töös	-3909
▁Põllu	-3910
▁viga	-3911
likuks	-3912
▁Oleme	-3913
genud	-3914
▁esile	-3915
▁tr	-3916
▁astu	-3917
utakse	-3918
▁leping	-3919
▁maaelu	-3920
▁viida	-3921
▁Selline	-3922
▁aastaga	-3923
▁keskmine	-3924
▁trans	-3925
▁registr	-3926
tä	-3927
▁ilus	-3928
▁suutnud	-3929
Mis	-3930
▁süga	-3931
▁Ameer	-3932
▁katte	-3933
▁seisa	-3934
▁tuleneb	-3935
tide	-3936
▁programm	-3937
▁menetlemise	-3938
tajad	-3939
▁vang	-3940
tar	-3941
vatele	-3942
▁aluseks	-3943
▁Läbirääki	-3944
▁san	-3945
▁tunduvalt	-3946
▁erand	-3947
▁ravim	-3948
▁tasakaalu	-3949
gist	-3950
▁Reformierakond	-3951
▁koalitsioonile	-3952
▁eur	-3953
maani	-3954
▁meen	-3955
▁Ind	-3956
eline	-3957
nädala	-3958
▁kvaliteet	-3959
▁kel	-3960
▁Sõer	-3961
▁garan	-3962
RO	-3963
▁ülikool	-3964
▁Mi	-3965
▁tuba	-3966
▁toimetuleku	-3967
▁fakt	-3968
Eelnõu	-3969
len	-3970
▁inte	-3971
▁reag	-3972
▁projekti	-3973
kohal	-3974
Kohaloleku	-3975
▁las	-3976
▁üleva	-3977
▁toonud	-3978
fin	-3979
sektori	-3980
▁Vassiljev	-3981
▁Ossinovski	-3982
▁prioriteet	-3983
▁ravi	-3984
▁kahtlemata	-3985
oov	-3986
–20	-3987
▁sõjal	-3988
▁asenda	-3989
▁Küsimusi	-3990
ald	-3991
lle	-3992
▁ro	-3993
▁näen	-3994
▁kinnitada	-3995
▁No	-3996
matult	-3997
Virumaa	-3998
▁rahastamise	-3999
adee	-4000
▁mulje	-4001
▁suuremad	-4002
▁käibemaksu	-4003
▁põhjendatud	-4004
▁rahvusvahelise	-4005
giat	-4006
▁äärmiselt	-4007
▁pidi	-4008
▁rask	-4009
▁jätkus	-4010
eerimise	-4011
▁märkimisväär	-4012
vu	-4013
▁Ti	-4014
▁riikliku	-4015
▁Pev	-4016
▁öeldakse	-4017
▁olevat	-4018
▁osaleda	-4019
▁nimekirja	-4020
ents	-4021
▁Tuus	-4022
▁jõuab	-4023
▁Valeri	-4024
▁töötada	-4025
▁selgeks	-4026
▁häda	-4027
▁märk	-4028
▁tagatud	-4029
▁katkesta	-4030
▁ettevõtja	-4031
▁kokkulepe	-4032
▁märksa	-4033
▁paljude	-4034
▁võimaldab	-4035
▁Kru	-4036
▁lahendusi	-4037
puu	-4038
▁ed	-4039
semaks	-4040
Laul	-4041
▁halb	-4042
▁rakendus	-4043
toetuse	-4044
▁lühidalt	-4045
▁tuleviku	-4046
Ka	-4047
▁vastuseid	-4048
▁õnne	-4049
seadus	-4050
▁jõuda	-4051
asutuste	-4052
▁sekku	-4053
▁väärt	-4054
▁reserv	-4055
rus	-4056
▁Ada	-4057
▁Vaa	-4058
▁Parla	-4059
▁tekitab	-4060
▁arutasime	-4061
inga	-4062
puud	-4063
riteeri	-4064
▁Mailis	-4065
▁ettekandjaks	-4066
rast	-4067
▁vajavad	-4068
ooni	-4069
▁top	-4070
▁jätnud	-4071
▁opositsiooni	-4072
▁tol	-4073
▁üli	-4074
▁Krista	-4075
paania	-4076
▁sektori	-4077
▁ot	-4078
▁tõlg	-4079
▁Välis	-4080
Nüüd	-4081
juha	-4082
▁tuh	-4083
▁17.1	-4084
▁sõidu	-4085
▁Jä	-4086
▁viib	-4087
▁lähia	-4088
vo	-4089
ete	-4090
▁tub	-4091
hüvit	-4092
võttes	-4093
▁esitas	-4094
▁Vah	-4095
▁juhtub	-4096
▁ametnik	-4097
▁poolest	-4098
▁erivajad	-4099
▁perspektiiv	-4100
▁seadusmuuda	-4101
▁fun	-4102
▁kli	-4103
kutse	-4104
ustan	-4105
▁Ener	-4106
▁said	-4107
▁korrekt	-4108
▁Riigi	-4109
▁otstar	-4110
▁võrrelda	-4111
iktor	-4112
▁haa	-4113
▁käiv	-4114
▁töötab	-4115
▁tagajär	-4116
▁kaitsevä	-4117
▁kehtestada	-4118
▁Kommunikatsioon	-4119
itöö	-4120
kute	-4121
▁vae	-4122
▁kolmand	-4123
▁väljatöö	-4124
eli	-4125
▁jõul	-4126
▁kohtun	-4127
▁milliseid	-4128
▁kirjutatud	-4129
▁SKT	-4130
onika	-4131
▁2015	-4132
▁tarb	-4133
▁maksi	-4134
▁isikute	-4135
▁riigilõiv	-4136
▁kär	-4137
▁sulle	-4138
▁ettevõtete	-4139
▁Rahvaerakonna	-4140
▁pank	-4141
▁vastuol	-4142
▁jätkusuut	-4143
▁rääkisite	-4144
▁menetlemisel	-4145
sja	-4146
stru	-4147
liidu	-4148
▁käia	-4149
▁Konservatiivse	-4150
▁kod	-4151
▁Saksa	-4152
nnu	-4153
raa	-4154
▁35	-4155
▁ÜRO	-4156
▁Sellepärast	-4157
▁Alga	-4158
▁väite	-4159
kurat	-4160
▁2016	-4161
reform	-4162
sektor	-4163
▁jätkata	-4164
▁väiksema	-4165
▁Ütle	-4166
Jah	-4167
gor	-4168
▁Ter	-4169
▁kaup	-4170
▁pääst	-4171
▁Istungi	-4172
▁siseminister	-4173
▁fil	-4174
erimine	-4175
),	-4176
-,	-4177
▁2014.	-4178
▁Eestist	-4179
▁arutame	-4180
▁kodaniku	-4181
ted	-4182
▁soovime	-4183
ustatakse	-4184
ikes	-4185
▁Vil	-4186
▁Kolma	-4187
▁anname	-4188
▁hariduse	-4189
▁artik	-4190
▁kasvu	-4191
▁sünni	-4192
▁omanda	-4193
▁kooskõl	-4194
▁Sama	-4195
valvea	-4196
▁arvata	-4197
▁erak	-4198
▁rahvas	-4199
redi	-4200
kokku	-4201
terna	-4202
▁teistes	-4203
anen	-4204
▁annan	-4205
▁ametiko	-4206
▁Hau	-4207
▁Eiki	-4208
▁tõsine	-4209
▁iseseis	-4210
▁ringi	-4211
tentsiaal	-4212
▁kasutatakse	-4213
ministeeriumis	-4214
ustavad	-4215
▁lisand	-4216
▁klassi	-4217
▁parlament	-4218
▁pis	-4219
▁taast	-4220
▁vägi	-4221
▁arvel	-4222
▁käivad	-4223
▁institutsioon	-4224
kanõ	-4225
▁Haukanõ	-4226
▁bürokra	-4227
▁rakendada	-4228
Järg	-4229
tusest	-4230
▁arvesse	-4231
▁töötavad	-4232
▁direktiiv	-4233
puni	-4234
▁vai	-4235
▁Piiri	-4236
▁paneb	-4237
teist	-4238
▁presidendi	-4239
▁teksti	-4240
▁võttes	-4241
▁ettevõtjad	-4242
ante	-4243
ulge	-4244
▁üksnes	-4245
▁arutelul	-4246
▁põhjenda	-4247
rek	-4248
Panen	-4249
▁sund	-4250
▁kaits	-4251
▁rolli	-4252
▁julgen	-4253
▁kuulub	-4254
▁varasema	-4255
▁Mik	-4256
▁kõla	-4257
▁kohale	-4258
▁lõpuni	-4259
▁juun	-4260
▁juhtud	-4261
▁suunatud	-4262
küm	-4263
▁tore	-4264
idetud	-4265
▁Maksu	-4266
▁pead	-4267
▁suuremat	-4268
demokraadid	-4269
▁uute	-4270
▁millist	-4271
▁kohapeal	-4272
▁Toob	-4273
▁tulen	-4274
▁Ühend	-4275
▁valmista	-4276
ministrile	-4277
iri	-4278
▁näiteid	-4279
▁töötajate	-4280
▁veebrua	-4281
vahet	-4282
▁arvatud	-4283
eerib	-4284
▁üheks	-4285
▁Põlluaas	-4286
▁menetluse	-4287
▁Ain	-4288
ditsi	-4289
▁eestikeel	-4290
▁teenuseid	-4291
ivo	-4292
ääst	-4293
▁korraldada	-4294
koht	-4295
▁sõnum	-4296
▁aspekt	-4297
▁lastele	-4298
▁sissetuleku	-4299
erima	-4300
▁pensionär	-4301
▁vastupidi	-4302
▁füü	-4303
▁kilo	-4304
jel	-4305
▁kahel	-4306
▁kohustusi	-4307
▁täpsustada	-4308
iministeerium	-4309
väh	-4310
hekül	-4311
menti	-4312
▁2020	-4313
▁Baltic	-4314
▁seletuskirjas	-4315
▁28	-4316
▁pruu	-4317
▁peate	-4318
▁vastutus	-4319
▁vähenenud	-4320
▁pid	-4321
▁vär	-4322
▁ajaks	-4323
▁valimistel	-4324
▁maksumaksja	-4325
▁riigieelarvest	-4326
▁eris	-4327
▁viimane	-4328
▁paindlik	-4329
davad	-4330
▁2016.	-4331
▁Viima	-4332
▁sõnavõ	-4333
▁ven	-4334
kordselt	-4335
▁avalikkuse	-4336
uto	-4337
▁Lääne	-4338
▁ütlesid	-4339
pärane	-4340
▁küsis	-4341
▁oskate	-4342
▁22	-4343
elnõ	-4344
▁Kall	-4345
▁Tõsi	-4346
mendid	-4347
▁eelne	-4348
gis	-4349
▁amm	-4350
▁tekkida	-4351
▁olulised	-4352
petsialist	-4353
▁Eestit	-4354
▁Politsei	-4355
▁väljenda	-4356
▁viimastel	-4357
up	-4358
beri	-4359
▁Vene	-4360
▁enamik	-4361
▁esitab	-4362
▁töökohta	-4363
▁Keskerakond	-4364
▁investeeringu	-4365
Mart	-4366
▁stabiil	-4367
▁ülejäänud	-4368
▁saade	-4369
▁kuluta	-4370
▁menetlusse	-4371
ate	-4372
ret	-4373
▁Reins	-4374
▁meelt	-4375
▁kedagi	-4376
▁valesti	-4377
võimal	-4378
▁Kruuse	-4379
▁loogika	-4380
▁kindlust	-4381
▁kehtestatud	-4382
▁poliitilist	-4383
evgeni	-4384
▁arust	-4385
▁Kahjuks	-4386
▁ajakir	-4387
ustamist	-4388
▁makstakse	-4389
▁põllumajand	-4390
Tar	-4391
▁Peale	-4392
▁gaasi	-4393
hariduse	-4394
▁rääkisin	-4395
▁ülemineku	-4396
agil	-4397
▁Aas	-4398
▁ülla	-4399
▁tekki	-4400
▁osakonna	-4401
▁tulemusena	-4402
egi	-4403
▁11.	-4404
ressi	-4405
▁sätte	-4406
▁kompro	-4407
▁lühike	-4408
▁osaliselt	-4409
▁arupärimisi	-4410
▁Kohal	-4411
▁Mille	-4412
▁allkirja	-4413
ugu	-4414
unni	-4415
kuses	-4416
▁Enne	-4417
▁Toll	-4418
oloogil	-4419
▁töönädala	-4420
aduses	-4421
▁kinnis	-4422
pere	-4423
▁Teatavasti	-4424
▁positsioon	-4425
,5	-4426
Va	-4427
▁80	-4428
▁Ker	-4429
pitali	-4430
▁meede	-4431
jut	-4432
▁lugu	-4433
vanema	-4434
▁sõnad	-4435
▁haigla	-4436
▁Nõukogu	-4437
▁arusaama	-4438
Ette	-4439
▁pisut	-4440
▁küljest	-4441
▁võiksime	-4442
▁kohas	-4443
▁jal	-4444
▁tähtaeg	-4445
▁sotsiaalmaksu	-4446
lase	-4447
teeg	-4448
▁usaldus	-4449
▁leidis	-4450
▁tänane	-4451
▁viisil	-4452
▁kellegi	-4453
▁Ameerika	-4454
▁sellises	-4455
▁23	-4456
▁alanda	-4457
▁kõnele	-4458
▁karista	-4459
▁võinud	-4460
▁valimisi	-4461
leeg	-4462
▁otstarbe	-4463
▁mainisite	-4464
koalitsioon	-4465
▁Le	-4466
▁500	-4467
eerima	-4468
▁veendunud	-4469
bine	-4470
▁põl	-4471
▁käis	-4472
▁olulisem	-4473
Ur	-4474
▁odava	-4475
▁läbipa	-4476
▁korteri	-4477
▁lähtudes	-4478
▁otsustati	-4479
▁homme	-4480
▁riike	-4481
▁Eestile	-4482
▁istungjärgu	-4483
juti	-4484
▁kumm	-4485
▁Kaitseväe	-4486
▁lause	-4487
▁miljard	-4488
der	-4489
▁seitsme	-4490
▁reaalselt	-4491
▁-	-4492
▁aine	-4493
▁uued	-4494
▁Hanno	-4495
▁eesmärgi	-4496
▁teistsug	-4497
▁mõj	-4498
tuaal	-4499
▁maakonna	-4500
▁sugu	-4501
▁Marko	-4502
▁energia	-4503
▁väljaspool	-4504
▁ettevõtjate	-4505
Na	-4506
vel	-4507
▁Rail	-4508
▁kella	-4509
▁mõlemad	-4510
▁kriteeri	-4511
ganisatsiooni	-4512
▁ükski	-4513
▁alterna	-4514
▁konflik	-4515
tua	-4516
▁maksus	-4517
▁noored	-4518
▁kaitsta	-4519
▁laie	-4520
▁otsa	-4521
▁läbirääkimiste	-4522
did	-4523
õppe	-4524
gevus	-4525
▁lennu	-4526
▁nõuab	-4527
▁mingisuguseid	-4528
▁rik	-4529
▁loodud	-4530
▁soovin	-4531
▁kooskõlas	-4532
energia	-4533
▁saadud	-4534
▁summad	-4535
▁Seaduse	-4536
▁liiklus	-4537
▁printsi	-4538
▁valimiste	-4539
▁omavalitsusi	-4540
▁teel	-4541
▁Pr	-4542
andeid	-4543
▁kompe	-4544
▁kaasne	-4545
▁lugemist	-4546
▁elus	-4547
▁lahk	-4548
▁kulude	-4549
▁mõjutab	-4550
ute	-4551
▁He	-4552
eeme	-4553
▁olin	-4554
▁väikese	-4555
hääl	-4556
▁15.	-4557
▁nõr	-4558
ppi	-4559
▁lihtsa	-4560
▁pannakse	-4561
▁inimesele	-4562
mate	-4563
▁trah	-4564
▁kodus	-4565
▁valik	-4566
▁kuulata	-4567
▁tugine	-4568
▁kiiremini	-4569
▁sätestatud	-4570
engu	-4571
▁tugeva	-4572
▁inimestega	-4573
▁konsensusega	-4574
▁2014	-4575
▁mõnda	-4576
▁koonda	-4577
▁meditsi	-4578
▁olemasole	-4579
▁õiguskomisjoni	-4580
▁protseduuriline	-4581
▁sala	-4582
▁patsi	-4583
▁kõikidele	-4584
▁kad	-4585
▁ütlete	-4586
▁perearst	-4587
▁seisukohti	-4588
kalt	-4589
▁digi	-4590
▁kehtima	-4591
▁liikmeid	-4592
▁teistmoodi	-4593
vatest	-4594
▁ühtse	-4595
▁avatud	-4596
▁saaksime	-4597
▁arvestanud	-4598
▁valitsusel	-4599
asja	-4600
▁sii	-4601
▁räägite	-4602
tunud	-4603
iigume	-4604
▁Jevgeni	-4605
▁juhtudel	-4606
▁lõpphääletuse	-4607
samas	-4608
▁kordan	-4609
▁suudame	-4610
riga	-4611
tavat	-4612
▁Kalev	-4613
▁pikema	-4614
sk	-4615
aare	-4616
▁13.	-4617
▁tõde	-4618
▁väita	-4619
▁propor	-4620
▁vastama	-4621
▁programmi	-4622
▁Kahe	-4623
liselt	-4624
▁pruugi	-4625
▁materjal	-4626
▁vajaduspõh	-4627
▁lau	-4628
▁sellesama	-4629
Aga	-4630
▁kits	-4631
▁Ülik	-4632
▁tagant	-4633
▁vastan	-4634
▁kirjalik	-4635
▁kl	-4636
peale	-4637
▁valida	-4638
▁teiselt	-4639
▁Po	-4640
itusi	-4641
likus	-4642
▁Sõerd	-4643
▁kulusid	-4644
▁eelarvet	-4645
▁27	-4646
komisjonilt	-4647
dusi	-4648
▁Üle	-4649
iamet	-4650
alised	-4651
▁Tuleb	-4652
▁kahte	-4653
▁arut	-4654
▁usku	-4655
▁meist	-4656
▁Nestor	-4657
▁eelnõust	-4658
▁demokraat	-4659
ärt	-4660
märk	-4661
▁Reps	-4662
▁teab	-4663
▁füüsil	-4664
▁küsimusega	-4665
telu	-4666
punkt	-4667
ustas	-4668
järele	-4669
▁kontse	-4670
adustiku	-4671
▁Muidugi	-4672
▁toimu	-4673
istatud	-4674
▁Soomes	-4675
▁vastas	-4676
▁seadusi	-4677
▁vaadates	-4678
▁Piirivalvea	-4679
jõud	-4680
▁seega	-4681
▁ehitus	-4682
▁potentsiaal	-4683
▁Kee	-4684
▁plus	-4685
▁esial	-4686
▁arutati	-4687
▁hel	-4688
▁piirang	-4689
▁tingimust	-4690
▁kollektiiv	-4691
▁suund	-4692
▁vallas	-4693
▁finantse	-4694
▁erakorral	-4695
irma	-4696
▁ene	-4697
▁seas	-4698
▁kandid	-4699
▁pet	-4700
antsin	-4701
▁meetmeid	-4702
▁jaanuaril	-4703
stud	-4704
▁keskend	-4705
▁prokurat	-4706
eno	-4707
▁45	-4708
▁EK	-4709
▁lik	-4710
▁kest	-4711
▁ettekanne	-4712
▁Pigem	-4713
eerimine	-4714
▁arutama	-4715
RE	-4716
▁ammu	-4717
▁Indrek	-4718
▁teisest	-4719
ase	-4720
▁pilt	-4721
idanud	-4722
▁piisav	-4723
kindlustus	-4724
▁akt	-4725
annet	-4726
▁iganes	-4727
▁niivõrd	-4728
▁uuringu	-4729
▁arenduste	-4730
▁territoorium	-4731
mõist	-4732
vähem	-4733
▁tuletan	-4734
▁käsitleb	-4735
▁suureneb	-4736
▁tele	-4737
▁siiamaani	-4738
▁Riigikontroll	-4739
▁vastused	-4740
▁lahendust	-4741
▁kiit	-4742
▁suunata	-4743
).	-4744
vasti	-4745
Peeter	-4746
▁tulem	-4747
▁Haukanõmm	-4748
õpil	-4749
▁hulga	-4750
▁Tiidus	-4751
▁Pik	-4752
▁looma	-4753
▁mitmel	-4754
▁naiste	-4755
▁kujunda	-4756
▁meetmed	-4757
tulek	-4758
▁toidu	-4759
▁perekonna	-4760
▁kõl	-4761
▁Kogu	-4762
▁leev	-4763
▁õiguste	-4764
valla	-4765
▁arvam	-4766
▁jällegi	-4767
goo	-4768
ili	-4769
▁teede	-4770
▁Paraku	-4771
▁pikenda	-4772
▁Marika	-4773
▁Tõesti	-4774
▁debatt	-4775
▁põhikooli	-4776
▁investeeringute	-4777
sip	-4778
▁süg	-4779
▁häid	-4780
▁Lätis	-4781
▁käitu	-4782
▁samme	-4783
▁puudega	-4784
SA	-4785
▁70	-4786
▁ühelt	-4787
▁seaduseelnõ	-4788
lad	-4789
uti	-4790
isin	-4791
▁mah	-4792
süsteemi	-4793
▁esiteks	-4794
eti	-4795
▁Mind	-4796
▁saat	-4797
▁saime	-4798
▁protsen	-4799
▁Reinsalu	-4800
aab	-4801
▁26	-4802
▁öö	-4803
▁läheks	-4804
▁vajaduse	-4805
piik	-4806
sise	-4807
▁Krist	-4808
▁Rahvus	-4809
▁muudatuse	-4810
▁visi	-4811
▁Panen	-4812
▁keskmise	-4813
kand	-4814
fitsi	-4815
▁pakutud	-4816
▁investeeringuid	-4817
▁elab	-4818
▁asjaol	-4819
▁kõrgem	-4820
▁kohalikele	-4821
▁tööl	-4822
▁tõele	-4823
▁Sellel	-4824
▁tahate	-4825
▁usalda	-4826
detavasti	-4827
▁konkreetset	-4828
organisatsioon	-4829
jaga	-4830
▁tõi	-4831
kohtu	-4832
▁muuse	-4833
▁Külliki	-4834
▁seadusandja	-4835
▁mer	-4836
▁esindab	-4837
, 	-4838
stab	-4839
▁voliko	-4840
▁Ettekandja	-4841
utt	-4842
▁ide	-4843
gnaal	-4844
▁elada	-4845
▁Läheme	-4846
▁hakanud	-4847
▁vabasta	-4848
isem	-4849
mann	-4850
ääri	-4851
▁Riik	-4852
▁pika	-4853
▁Ratas	-4854
▁lõike	-4855
vikindl	-4856
▁arusaadav	-4857
▁lahenduse	-4858
▁kiire	-4859
▁käima	-4860
▁äriüh	-4861
▁ilmsel	-4862
▁analüüs	-4863
poliitikat	-4864
▁esindajana	-4865
▁põhiseadusega	-4866
▁säte	-4867
▁otsuste	-4868
▁tuu	-4869
▁EKRE	-4870
▁Adams	-4871
▁kaupa	-4872
▁ajalool	-4873
▁rõhutan	-4874
▁täpsustav	-4875
luste	-4876
▁kursis	-4877
▁küsisin	-4878
pak	-4879
▁mudel	-4880
▁seondu	-4881
▁õigustatud	-4882
▁eksa	-4883
▁10.	-4884
järel	-4885
▁Vaada	-4886
▁reisi	-4887
▁Arv	-4888
▁Täp	-4889
▁proov	-4890
▁suurusjär	-4891
itatud	-4892
▁leiab	-4893
▁toetanud	-4894
▁pu	-4895
ivas	-4896
▁2012.	-4897
▁2017.	-4898
tehn	-4899
ameti	-4900
▁sõit	-4901
▁Madison	-4902
▁inimesel	-4903
▁seadusest	-4904
mäe	-4905
oof	-4906
loome	-4907
▁eril	-4908
▁tänaseks	-4909
▁2.	-4910
inik	-4911
▁sünn	-4912
▁tera	-4913
▁kesta	-4914
▁tõusu	-4915
▁osakaal	-4916
▁arvestama	-4917
sul	-4918
▁jäätme	-4919
▁sõnavõt	-4920
▁Ilm	-4921
olijaid	-4922
ikaa	-4923
▁motiv	-4924
Virumaal	-4925
▁arusaam	-4926
▁isiklik	-4927
▁kusagil	-4928
oolekande	-4929
valitsuse	-4930
▁hõl	-4931
▁mõninga	-4932
▁tarbija	-4933
vet	-4934
igas	-4935
▁suud	-4936
▁tipp	-4937
▁Praeg	-4938
▁tõuseb	-4939
▁Energia	-4940
▁realise	-4941
▁suurene	-4942
▁kasutamine	-4943
▁ülesandeid	-4944
▁valitsusele	-4945
guses	-4946
▁ehitada	-4947
▁Kultuuri	-4948
▁lasteaia	-4949
▁elamis	-4950
▁valdkonda	-4951
▁nar	-4952
▁loen	-4953
▁omal	-4954
▁üldine	-4955
▁rahvusvaheliste	-4956
män	-4957
geli	-4958
▁Tallinn	-4959
▁eelmine	-4960
▁vastuvõ	-4961
isid	-4962
kste	-4963
▁hoone	-4964
▁võimu	-4965
▁Riigikontrolli	-4966
▁tahetakse	-4967
▁Mä	-4968
koormus	-4969
▁peaminist	-4970
tka	-4971
▁õh	-4972
▁ime	-4973
▁paari	-4974
▁pagul	-4975
endused	-4976
 1	-4977
viil	-4978
▁eesku	-4979
▁kohus	-4980
iseadus	-4981
▁parlamendis	-4982
tsime	-4983
▁Jaanus	-4984
▁vastuolijaid	-4985
leid	-4986
proje	-4987
▁rida	-4988
piiker	-4989
▁puutu	-4990
▁Esimese	-4991
▁muutmine	-4992
▁absoluutselt	-4993
igu	-4994
tii	-4995
▁paha	-4996
▁tell	-4997
▁Mitte	-4998
▁raudtee	-4999
▁kuuluvad	-5000
▁otsustanud	-5001
▁kontrollida	-5002
hoiu	-5003
kätt	-5004
▁ting	-5005
Riigikogu	-5006
eluminist	-5007
▁eesmärki	-5008
oh	-5009
iksoo	-5010
▁olles	-5011
▁millel	-5012
▁kindlustus	-5013
idaar	-5014
▁esma	-5015
▁võite	-5016
▁kompromis	-5017
▁vajalikud	-5018
▁tunnistama	-5019
▁demokraatia	-5020
▁Toobal	-5021
▁vastuste	-5022
uvii	-5023
▁Täh	-5024
▁Igor	-5025
▁hirm	-5026
▁tõste	-5027
toetust	-5028
▁jäetud	-5029
▁selgus	-5030
▁sugugi	-5031
▁valimise	-5032
▁esmas	-5033
▁saalist	-5034
▁Koh	-5035
▁elua	-5036
▁pärit	-5037
mpaania	-5038
ditsioon	-5039
▁kontrollKohal	-5040
▁51	-5041
▁hoi	-5042
kirju	-5043
▁divid	-5044
AS	-5045
dal	-5046
▁75	-5047
duda	-5048
oola	-5049
▁kõnes	-5050
▁annavad	-5051
aalt	-5052
▁mängi	-5053
▁meelega	-5054
▁lei	-5055
▁küsite	-5056
▁rü	-5057
palga	-5058
▁kanda	-5059
▁millegi	-5060
side	-5061
▁sunn	-5062
▁nõuded	-5063
õn	-5064
▁steno	-5065
▁signaal	-5066
▁konsensuslikult	-5067
▁hää	-5068
▁Leedu	-5069
▁selgub	-5070
nenud	-5071
vatel	-5072
erinud	-5073
neleja	-5074
▁Rõivas	-5075
▁üleval	-5076
▁olev	-5077
▁Viktor	-5078
▁direktiivi	-5079
enu	-5080
Euroo	-5081
▁tugi	-5082
lusest	-5083
vesteer	-5084
▁lepitud	-5085
▁turvalis	-5086
▁rän	-5087
Läheme	-5088
▁kohtle	-5089
▁vahele	-5090
▁näidata	-5091
▁ametnikud	-5092
▁kohustuste	-5093
▁usu	-5094
▁initsi	-5095
ler	-5096
▁Talvik	-5097
▁palgad	-5098
▁teavita	-5099
▁alustada	-5100
▁ravikindl	-5101
▁diskussiooni	-5102
tavaid	-5103
▁ettevalmist	-5104
▁mahu	-5105
▁mahus	-5106
▁tööturu	-5107
poolt	-5108
▁pingu	-5109
▁sisalda	-5110
▁vajadust	-5111
▁18.	-5112
Selle	-5113
▁töökohti	-5114
spektsioon	-5115
väga	-5116
rateeg	-5117
▁hüvit	-5118
▁toimi	-5119
▁termin	-5120
▁Minister	-5121
▁põhjustel	-5122
▁tegelevad	-5123
ras	-5124
▁laeva	-5125
▁riiklik	-5126
ria	-5127
▁kolleegi	-5128
▁lugemiseks	-5129
▁planeeritud	-5130
▁eriar	-5131
▁vaatan	-5132
▁ülevaade	-5133
alad	-5134
ustust	-5135
▁lisak	-5136
▁kellelegi	-5137
tiva	-5138
▁tsiviil	-5139
▁32	-5140
▁Har	-5141
▁naab	-5142
▁alusta	-5143
▁3.	-5144
ruusi	-5145
võrra	-5146
▁sina	-5147
▁südame	-5148
▁solidaar	-5149
õna	-5150
leme	-5151
statud	-5152
▁sõida	-5153
▁olulist	-5154
▁kirjutada	-5155
▁koosseisus	-5156
▁seisukohal	-5157
▁statistika	-5158
▁parlamendil	-5159
võrgu	-5160
▁tegime	-5161
▁õigeks	-5162
▁regulatsiooni	-5163
art	-5164
▁mingisuguse	-5165
▁asjaolu	-5166
▁vaielda	-5167
▁katteallik	-5168
▁tingimused	-5169
Muudatusette	-5170
▁Nor	-5171
lusega	-5172
▁kavas	-5173
▁paralle	-5174
▁tuvasta	-5175
▁teemasid	-5176
▁Ne	-5177
kide	-5178
▁Ala	-5179
▁õigusi	-5180
▁liikuda	-5181
essionaal	-5182
▁tegemata	-5183
▁venekeel	-5184
▁asjast	-5185
▁suuren	-5186
list	-5187
▁asuta	-5188
▁erakool	-5189
▁paljudes	-5190
Nii	-5191
▁31	-5192
▁33	-5193
▁puudutas	-5194
koo	-5195
▁miljardit	-5196
iss	-5197
siga	-5198
▁Sil	-5199
▁jõuame	-5200
inantsin	-5201
▁Sellele	-5202
▁elanike	-5203
▁vastuolus	-5204
▁seisukohad	-5205
uar	-5206
jandi	-5207
▁ajast	-5208
▁välisminister	-5209
bil	-5210
▁lihtsam	-5211
▁teistele	-5212
rü	-5213
▁muudetakse	-5214
▁mar	-5215
▁süv	-5216
elised	-5217
▁plaani	-5218
▁seitse	-5219
▁juhtunud	-5220
▁konventsiooni	-5221
▁Igal	-5222
▁riski	-5223
▁Kolleeg	-5224
▁kevadel	-5225
▁muudatust	-5226
▁seadusele	-5227
üri	-5228
▁14.	-5229
▁oleva	-5230
▁inimestest	-5231
▁küsimustes	-5232
kaas	-5233
▁Mic	-5234
▁huvitab	-5235
▁liikmetele	-5236
utan	-5237
▁kaev	-5238
▁maal	-5239
▁Tõnis	-5240
▁euroni	-5241
▁muudatuste	-5242
▁arupärimisele	-5243
▁1. 	-5244
▁ingl	-5245
▁kõlas	-5246
▁eeskätt	-5247
▁protsent	-5248
▁normaalne	-5249
muudatusette	-5250
▁jätkub	-5251
▁informatsioon	-5252
imar	-5253
▁Len	-5254
organ	-5255
tesse	-5256
ulise	-5257
kordne	-5258
▁popul	-5259
▁sammu	-5260
▁järelevalv	-5261
▁5.	-5262
õpet	-5263
▁komb	-5264
▁maad	-5265
▁Kokku	-5266
▁tulub	-5267
▁toetuste	-5268
▁konkreetsed	-5269
▁29	-5270
▁34	-5271
▁paig	-5272
▁hooli	-5273
▁relva	-5274
süsteem	-5275
▁kehtiva	-5276
▁kandidaat	-5277
▁ida	-5278
imõig	-5279
teeri	-5280
kohane	-5281
likkus	-5282
▁Michal	-5283
▁koolit	-5284
▁karistus	-5285
▁omakorda	-5286
uli	-5287
undus	-5288
▁pikka	-5289
▁majandust	-5290
▁vajalikuks	-5291
▁oku	-5292
Tarmo	-5293
▁alae	-5294
▁sõnu	-5295
▁tavaliselt	-5296
▁ps	-5297
▁300	-5298
istan	-5299
▁Tema	-5300
▁lähene	-5301
▁kaaluda	-5302
▁välismaal	-5303
▁rakendamise	-5304
tü	-5305
ikse	-5306
▁ena	-5307
▁situa	-5308
▁Prants	-5309
▁missug	-5310
▁Kohaloleku	-5311
Ar	-5312
konnal	-5313
▁Eestil	-5314
▁maksua	-5315
▁minuti	-5316
▁teemad	-5317
▁topelt	-5318
tamiseks	-5319
▁strateeg	-5320
▁seisukohalt	-5321
▁ell	-5322
olijaks	-5323
▁Pevkur	-5324
▁novembril	-5325
eaeg	-5326
ikro	-5327
▁ron	-5328
▁tahaksin	-5329
▁9.	-5330
▁Savis	-5331
▁kerge	-5332
▁jagada	-5333
▁sageli	-5334
▁tutvusta	-5335
▁lähtuvalt	-5336
▁operatsioon	-5337
mig	-5338
▁Kus	-5339
imõtte	-5340
▁Artur	-5341
▁tsite	-5342
▁suhtle	-5343
inime	-5344
piiri	-5345
▁mitmes	-5346
▁kohalda	-5347
▁läbipaist	-5348
▁3,	-5349
▁2018	-5350
▁likvid	-5351
▁lisada	-5352
▁paberi	-5353
ettevõte	-5354
▁lehekül	-5355
▁niiviisi	-5356
hof	-5357
iisama	-5358
▁infos	-5359
▁kauba	-5360
▁vaadanud	-5361
▁vastuolu	-5362
▁huvitatud	-5363
ismi	-5364
▁suun	-5365
▁õppida	-5366
▁initsiat	-5367
▁määratud	-5368
▁aj	-5369
tlus	-5370
▁muutma	-5371
▁puldist	-5372
▁valitud	-5373
▁mõnevõrra	-5374
▁Kolmandaks	-5375
ään	-5376
▁Et	-5377
▁Kä	-5378
kulud	-5379
▁2017	-5380
▁automaa	-5381
▁elluvii	-5382
▁hiljuti	-5383
õus	-5384
▁90	-5385
▁tüü	-5386
▁aptee	-5387
▁mikro	-5388
▁jääks	-5389
▁soovite	-5390
▁Komisjonis	-5391
undi	-5392
▁arvamuse	-5393
▁kindlaks	-5394
valitsuste	-5395
▁ettevõtted	-5396
ess	-5397
sku	-5398
▁mail	-5399
▁jõudu	-5400
▁tundi	-5401
▁Pikhof	-5402
▁omanik	-5403
▁töötanud	-5404
▁korruptsiooni	-5405
▁Samal	-5406
valdkonna	-5407
▁Randpere	-5408
▁kaitseminister	-5409
pl	-5410
näh	-5411
tri	-5412
▁IT	-5413
▁seadusand	-5414
–1	-5415
eva	-5416
haig	-5417
kõike	-5418
▁Kuigi	-5419
▁nõunik	-5420
▁rakend	-5421
▁ebavõrd	-5422
väl	-5423
▁ver	-5424
▁ükste	-5425
▁küllap	-5426
▁kilomeet	-5427
▁mai	-5428
▁hüvita	-5429
▁mõelnud	-5430
▁alt	-5431
riigid	-5432
▁Vaatame	-5433
idet	-5434
probleem	-5435
Ja	-5436
too	-5437
kulude	-5438
▁arvud	-5439
▁pädev	-5440
▁Sester	-5441
▁kaheks	-5442
▁tekitada	-5443
▁professionaal	-5444
kohta	-5445
▁Andrus	-5446
igümnaasi	-5447
▁ministrid	-5448
▁sotsiaalt	-5449
unnis	-5450
▁täitma	-5451
▁Ilmselt	-5452
▁teisiti	-5453
▁tegeleda	-5454
▁põlevkivi	-5455
afr	-5456
vam	-5457
umid	-5458
koos	-5459
aluse	-5460
▁igas	-5461
▁võõr	-5462
istest	-5463
likkust	-5464
septe	-5465
▁mäleta	-5466
▁niisama	-5467
▁erinevalt	-5468
rdi	-5469
▁lüka	-5470
▁päevast	-5471
▁mainisin	-5472
▁esimesele	-5473
▁38	-5474
▁Rää	-5475
oreet	-5476
▁parte	-5477
▁pääste	-5478
▁kellega	-5479
▁vältida	-5480
▁löö	-5481
▁pol	-5482
▁ret	-5483
tingi	-5484
▁Vasta	-5485
▁kredi	-5486
▁muidu	-5487
leh	-5488
jaan	-5489
maalselt	-5490
▁juhtida	-5491
▁kaugele	-5492
vor	-5493
▁sõb	-5494
▁Vahe	-5495
▁temp	-5496
Krista	-5497
istele	-5498
▁defin	-5499
▁laual	-5500
▁tabel	-5501
▁toode	-5502
adeemia	-5503
Komisjon	-5504
▁tahtnud	-5505
▁katkestada	-5506
▁küsimusest	-5507
▁kv	-5508
usin	-5509
astus	-5510
dused	-5511
motsi	-5512
▁taks	-5513
▁minul	-5514
eks	-5515
▁inno	-5516
analüü	-5517
▁laienda	-5518
▁selgita	-5519
▁Millised	-5520
▁looduskaitse	-5521
alne	-5522
erakond	-5523
▁kuskilt	-5524
▁ametisse	-5525
▁Valitsust	-5526
▁palgatõus	-5527
ett	-5528
pia	-5529
nara	-5530
▁laiem	-5531
▁haridust	-5532
▁tegemine	-5533
▁erinevate	-5534
▁kasutusele	-5535
aeg	-5536
poolne	-5537
ratiiv	-5538
▁maksut	-5539
▁temaat	-5540
▁vahendid	-5541
mar	-5542
oro	-5543
rad	-5544
▁Henn	-5545
astele	-5546
▁huvide	-5547
▁lastega	-5548
▁tekivad	-5549
▁arendada	-5550
▁omavalitsustes	-5551
kusi	-5552
▁söö	-5553
▁anti	-5554
▁Põlda	-5555
▁organ	-5556
▁ametis	-5557
▁suudab	-5558
▁andmete	-5559
▁toetama	-5560
▁perioodi	-5561
▁ütleksin	-5562
▁tunnistada	-5563
Ei	-5564
idelt	-5565
▁käsitlemine	-5566
Tere	-5567
▁Siit	-5568
▁arve	-5569
▁kuhugi	-5570
▁rääkides	-5571
▁To	-5572
▁Enn	-5573
▁vest	-5574
▁Põldaru	-5575
▁ressurssi	-5576
▁tekitanud	-5577
▁55	-5578
▁2011.	-5579
▁lubad	-5580
▁paber	-5581
teenuse	-5582
ustanud	-5583
▁lugenud	-5584
Küsimused	-5585
▁avalduse	-5586
▁kommenteerida	-5587
▁perspektiivis	-5588
ägi	-5589
▁alternatiiv	-5590
▁Ning	-5591
▁Helmen	-5592
▁naaber	-5593
▁oodata	-5594
▁uurimis	-5595
▁vaheaeg	-5596
▁menetluses	-5597
deks	-5598
ults	-5599
▁Ots	-5600
▁Monika	-5601
▁emotsi	-5602
eerimist	-5603
▁piiratud	-5604
õpp	-5605
▁süüdi	-5606
▁siiani	-5607
▁piirika	-5608
▁eelnõude	-5609
▁liikmena	-5610
▁seadusesse	-5611
▁tulumaksuvaba	-5612
▁65	-5613
▁ajut	-5614
▁Kohtu	-5615
▁analoo	-5616
▁iseloo	-5617
▁ettevõtluse	-5618
▁lasta	-5619
▁asjaga	-5620
▁eb	-5621
emon	-5622
iima	-5623
▁pas	-5624
▁vil	-5625
ikuks	-5626
▁Arto	-5627
▁lang	-5628
▁tasub	-5629
▁konstru	-5630
▁investeeringud	-5631
maja	-5632
viis	-5633
▁2018.	-5634
▁katse	-5635
riikide	-5636
▁Pärast	-5637
▁olulisi	-5638
▁peamine	-5639
▁kirjutanud	-5640
▁töötukassa	-5641
?""	-5642
inu	-5643
une	-5644
iabi	-5645
partne	-5646
tsioonis	-5647
▁sedasama	-5648
Ettepaneku	-5649
▁täiendavalt	-5650
▁fraktsioonilt	-5651
▁36	-5652
ritega	-5653
erimist	-5654
▁sõnasta	-5655
▁vanemad	-5656
itü	-5657
kaar	-5658
klar	-5659
▁Raivo	-5660
▁peetud	-5661
▁aastani	-5662
▁aktsepte	-5663
hoolekande	-5664
▁Vabariigis	-5665
neti	-5666
▁kusjuures	-5667
▁gümnaasiumi	-5668
▁traditsioon	-5669
▁Sults	-5670
▁täite	-5671
▁üksik	-5672
▁lõpeta	-5673
▁hääletust	-5674
▁jätkuvalt	-5675
elge	-5676
kest	-5677
▁müüa	-5678
endusi	-5679
▁kehtiv	-5680
toetuste	-5681
▁nõukogus	-5682
▁selliselt	-5683
▁arupärimist	-5684
aneb	-5685
▁nägi	-5686
regist	-5687
uliselt	-5688
▁korraga	-5689
▁vastuvõtmise	-5690
▁laia	-5691
▁vaim	-5692
▁esimeh	-5693
▁kasulik	-5694
lluma	-5695
▁meeto	-5696
▁koolides	-5697
pra	-5698
ikuid	-5699
▁Kari	-5700
▁huvig	-5701
▁kasum	-5702
Liigume	-5703
▁annaks	-5704
▁toimib	-5705
Kol	-5706
eto	-5707
stanud	-5708
▁rahaga	-5709
▁reeglid	-5710
▁kvaliteedi	-5711
tuseks	-5712
ühistu	-5713
kontrol	-5714
▁küsima	-5715
▁kellelgi	-5716
▁tasemele	-5717
▁vaatamata	-5718
▁lähenemine	-5719
uni	-5720
▁48	-5721
▁heaolu	-5722
▁lubada	-5723
▁perede	-5724
▁langetada	-5725
▁kodakondsus	-5726
mand	-5727
määr	-5728
▁dekla	-5729
▁kaalut	-5730
▁komple	-5731
▁loogiline	-5732
▁meditsiin	-5733
▁eelarvesse	-5734
rik	-5735
▁20.	-5736
▁rum	-5737
▁mehhanis	-5738
▁sissejuha	-5739
▁19.	-5740
▁kümn	-5741
▁Lihts	-5742
▁tööst	-5743
▁Kristen	-5744
▁maksude	-5745
▁kohustused	-5746
mes	-5747
alas	-5748
itüma	-5749
▁süda	-5750
▁Vastu	-5751
▁suurte	-5752
▁lisaraha	-5753
oolis	-5754
▁põhja	-5755
▁paneme	-5756
▁ettepanekuga	-5757
sun	-5758
▁lõppe	-5759
▁deklar	-5760
▁kutsun	-5761
▁muudab	-5762
▁teavad	-5763
▁tulevikku	-5764
▁teatavasti	-5765
▁tõu	-5766
kogude	-5767
▁Lõuna	-5768
▁fikse	-5769
▁mõtlen	-5770
▁selleni	-5771
▁sügisel	-5772
▁seadused	-5773
▁kinnisvara	-5774
▁seisukohast	-5775
▁4.	-5776
▁ken	-5777
▁käe	-5778
rühma	-5779
▁Kütt	-5780
▁tahes	-5781
▁järgne	-5782
▁möödunud	-5783
▁protokolli	-5784
▁teistsugune	-5785
tul	-5786
▁enn	-5787
▁advo	-5788
▁kaub	-5789
ettevõt	-5790
▁konsul	-5791
so	-5792
iska	-5793
▁püh	-5794
▁mõnel	-5795
Järgmine	-5796
eeritakse	-5797
▁paratama	-5798
▁põhjused	-5799
▁taotleda	-5800
pes	-5801
▁Vab	-5802
jatel	-5803
▁ohtu	-5804
▁17.15.	-5805
▁Margus	-5806
üsteemis	-5807
öde	-5808
neid	-5809
▁met	-5810
▁püüame	-5811
▁tõenäos	-5812
▁näitavad	-5813
▁lõpetatakse	-5814
▁riigigümnaasi	-5815
gias	-5816
umide	-5817
▁kahet	-5818
▁vastuses	-5819
▁protsenti	-5820
Kõ	-5821
har	-5822
üan	-5823
kile	-5824
▁maht	-5825
▁pääse	-5826
▁üliõpil	-5827
▁Järgmine	-5828
▁argument	-5829
▁toetavad	-5830
▁siinkohal	-5831
▁protseduur	-5832
▁sissetulek	-5833
▁uh	-5834
laid	-5835
urga	-5836
▁kaug	-5837
▁siir	-5838
▁puldis	-5839
▁üldise	-5840
▁kõvasti	-5841
▁erakonnad	-5842
▁oluliseks	-5843
spektsiooni	-5844
▁ilmselgelt	-5845
▁4,	-5846
umalt	-5847
▁puht	-5848
▁võitle	-5849
▁struktuuri	-5850
▁registreeritud	-5851
ive	-5852
▁liitu	-5853
Euroopa	-5854
politse	-5855
▁teosta	-5856
▁meeldib	-5857
▁juhtumeid	-5858
▁7.	-5859
▁ajaloo	-5860
▁algusest	-5861
▁kulutusi	-5862
loa	-5863
veo	-5864
ikord	-5865
▁kate	-5866
▁omad	-5867
valitsus	-5868
▁osapool	-5869
▁kasutatud	-5870
kokkuvõttes	-5871
▁37	-5872
dama	-5873
▁eet	-5874
▁sub	-5875
desse	-5876
▁Valdo	-5877
▁eelnõud	-5878
▁lugesin	-5879
▁toetusi	-5880
▁järgmist	-5881
▁miinimumi	-5882
▁teadusminister	-5883
▁Nel	-5884
etega	-5885
▁Päeva	-5886
▁andmetel	-5887
▁koostatud	-5888
▁investeerimis	-5889
▁Kokk	-5890
▁null	-5891
krimin	-5892
olekul	-5893
▁tegid	-5894
▁objekt	-5895
▁tekiks	-5896
▁koolide	-5897
▁erakonda	-5898
▁pöörduda	-5899
▁tööpäeva	-5900
▁ennekõike	-5901
▁piirkonnas	-5902
▁sanktsioon	-5903
akas	-5904
▁2013	-5905
maalne	-5906
periood	-5907
▁debatti	-5908
▁küsinud	-5909
▁rääkisime	-5910
▁seadustiku	-5911
▁tihtipeale	-5912
pide	-5913
▁rõõm	-5914
▁skee	-5915
▁leppida	-5916
▁vastupid	-5917
▁ühiskonda	-5918
▁21.	-5919
keele	-5920
▁Juba	-5921
▁libe	-5922
missioon	-5923
▁väikest	-5924
▁ühiselt	-5925
▁hääletamise	-5926
▁..."	-5927
▁Nend	-5928
▁Toom	-5929
koormust	-5930
pensioni	-5931
▁taastuv	-5932
▁mainitud	-5933
hool	-5934
palju	-5935
▁seisab	-5936
▁otsustus	-5937
▁konkreetseid	-5938
▁majanduskasvu	-5939
▁keelatud	-5940
▁spetsiif	-5941
▁oktoobril	-5942
sam	-5943
▁turul	-5944
▁ühise	-5945
▁asjaoma	-5946
▁võtavad	-5947
▁ohv	-5948
▁märg	-5949
▁Juhan	-5950
etoetuste	-5951
▁lähte	-5952
▁ootama	-5953
keskkonna	-5954
▁täitmisel	-5955
▁ülesanded	-5956
▁Juhtivkomisjon	-5957
kondi	-5958
▁nüan	-5959
▁viibi	-5960
▁tõesta	-5961
▁tahtsin	-5962
▁õigused	-5963
▁omavalitsuses	-5964
teo	-5965
▁kroon	-5966
▁juhtus	-5967
▁varsti	-5968
eerinud	-5969
▁isikud	-5970
▁pidama	-5971
▁tuleva	-5972
▁auväärt	-5973
▁mõtteid	-5974
▁Inimesed	-5975
▁vastutab	-5976
poliitikas	-5977
panga	-5978
susest	-5979
▁algab	-5980
▁märga	-5981
aliselt	-5982
▁põhine	-5983
▁kaasatud	-5984
▁korralduse	-5985
▁konventsioon	-5986
aine	-5987
line	-5988
▁must	-5989
▁mälu	-5990
▁tõite	-5991
▁päevakorras	-5992
udele	-5993
▁liidu	-5994
▁püüan	-5995
▁reguleeritud	-5996
utab	-5997
▁isa	-5998
tamisel	-5999
▁valits	-6000
▁kõlanud	-6001
▁püüdnud	-6002
▁kutsutud	-6003
Lu	-6004
see	-6005
juhul	-6006
▁Koht	-6007
▁kannab	-6008
ettevõtte	-6009
▁paljusid	-6010
▁loodetavasti	-6011
vol	-6012
▁Sul	-6013
▁Ühe	-6014
▁räägiti	-6015
▁peetakse	-6016
▁praeguses	-6017
▁automaatselt	-6018
Hel	-6019
idust	-6020
istes	-6021
▁psüh	-6022
▁ärge	-6023
miseni	-6024
▁juunil	-6025
▁tänavu	-6026
▁vastanud	-6027
▁Üldiselt	-6028
▁valitsust	-6029
▁riigikontrol	-6030
▁41	-6031
▁tänast	-6032
eritakse	-6033
majandus	-6034
▁tegeleme	-6035
▁ministeeriumide	-6036
▁ag	-6037
▁eta	-6038
ituste	-6039
▁heakski	-6040
▁märtsil	-6041
▁lähiajal	-6042
▁räägivad	-6043
▁aktiivselt	-6044
▁202	-6045
▁tän	-6046
endamise	-6047
▁tulemusi	-6048
▁riikidega	-6049
▁rahastamine	-6050
▁6.	-6051
▁Ke	-6052
unde	-6053
▁üha	-6054
masti	-6055
pital	-6056
▁Aadu	-6057
Aitüma	-6058
▁Võtame	-6059
▁ettenäh	-6060
▁nõnda	-6061
▁loomul	-6062
▁asendus	-6063
▁Rep	-6064
lusel	-6065
▁Palj	-6066
iameti	-6067
ktiivne	-6068
suh	-6069
▁raam	-6070
▁Heljo	-6071
▁fondi	-6072
▁variant	-6073
▁novembri	-6074
▁põhiline	-6075
▁toetused	-6076
▁niisugust	-6077
▁käsitletud	-6078
▁ministrite	-6079
▁kurb	-6080
▁suver	-6081
▁eksist	-6082
▁juhtuda	-6083
▁Samamoodi	-6084
▁valdkondades	-6085
▁Iva	-6086
mitri	-6087
toetus	-6088
▁maine	-6089
▁kaubandus	-6090
kut	-6091
üld	-6092
mini	-6093
▁Tartus	-6094
▁ebaõig	-6095
▁üheksa	-6096
▁kaotada	-6097
▁kenasti	-6098
▁Probleem	-6099
▁aprillil	-6100
▁osapoole	-6101
▁kaitseväe	-6102
▁probleemide	-6103
▁reguleerida	-6104
vise	-6105
▁Oli	-6106
▁meedia	-6107
▁Kaheksa	-6108
▁sõlmitud	-6109
▁õpetajad	-6110
▁kohustust	-6111
▁viitasite	-6112
▁kooskõlast	-6113
demokraatide	-6114
Kül	-6115
uun	-6116
plaan	-6117
▁kogemus	-6118
▁soodust	-6119
valdkonnas	-6120
dit	-6121
▁EAS	-6122
▁Must	-6123
▁intr	-6124
▁keht	-6125
▁kauem	-6126
▁läheda	-6127
▁maksusta	-6128
kis	-6129
siiv	-6130
▁noori	-6131
▁spord	-6132
▁Presid	-6133
▁väljend	-6134
▁sõltumata	-6135
▁karistusse	-6136
▁As	-6137
▁nimi	-6138
▁toll	-6139
▁abielu	-6140
▁abivah	-6141
▁leppinud	-6142
▁liikmeks	-6143
▁Kaitseliidu	-6144
era	-6145
hti	-6146
vin	-6147
▁hõlma	-6148
▁säilita	-6149
▁kasutama	-6150
▁5,	-6151
iigi	-6152
▁kuue	-6153
kirjad	-6154
▁Selge	-6155
▁võlgu	-6156
▁jurist	-6157
▁muutuvad	-6158
▁teenused	-6159
▁Põhiseadus	-6160
hutu	-6161
▁kehv	-6162
▁lauale	-6163
võimalik	-6164
▁perioodil	-6165
ap	-6166
Pro	-6167
adet	-6168
kriisi	-6169
▁sarna	-6170
▁endast	-6171
▁hakkaks	-6172
▁rahvaesi	-6173
▁paranduse	-6174
2,	-6175
▁eeldab	-6176
▁jaanuar	-6177
▁ehitatud	-6178
kesi	-6179
ringhääl	-6180
▁kasutavad	-6181
▁kooskõlasta	-6182
▁usaldusväär	-6183
▁järelevalvet	-6184
▁lõpphääletus	-6185
▁lõik	-6186
▁pakub	-6187
▁tarist	-6188
▁loodame	-6189
▁mikrofon	-6190
▁muutmist	-6191
▁puudujää	-6192
▁sündinud	-6193
▁õigusabi	-6194
▁menetleda	-6195
▁rohel	-6196
▁tehes	-6197
▁küsisite	-6198
▁hommikust	-6199
▁valitsemis	-6200
▁veebruaril	-6201
posi	-6202
▁näol	-6203
▁jääma	-6204
▁palgal	-6205
▁analüüsida	-6206
▁infotunnis	-6207
▁riigieelarves	-6208
▁Läh	-6209
▁side	-6210
entide	-6211
misena	-6212
▁määruse	-6213
▁arenguka	-6214
▁küllaltki	-6215
▁kättesaadav	-6216
▁rahvasaadikut	-6217
▁49	-6218
helt	-6219
imis	-6220
▁Laan	-6221
▁sunni	-6222
▁linnas	-6223
▁maksud	-6224
▁tuhande	-6225
▁täitmise	-6226
▁keskmiselt	-6227
▁vanemahüvit	-6228
Mul	-6229
fer	-6230
git	-6231
umaa	-6232
iksid	-6233
▁ülal	-6234
▁kohustuse	-6235
▁Jõ	-6236
▁rä	-6237
tund	-6238
mmenda	-6239
▁audit	-6240
▁reaalne	-6241
▁paljudel	-6242
▁komisjonide	-6243
lub	-6244
▁Märt	-6245
▁põlv	-6246
▁Liitu	-6247
▁isikut	-6248
▁küsiti	-6249
verentsi	-6250
▁detsembril	-6251
▁tõenäosusega	-6252
▁ge	-6253
deko	-6254
duses	-6255
▁tase	-6256
jaanua	-6257
▁tulid	-6258
▁Tänane	-6259
▁ammenda	-6260
▁Lugupeetav	-6261
▁põllumajandust	-6262
TÜ	-6263
nar	-6264
joon	-6265
▁Eriti	-6266
▁riigihan	-6267
ministrina	-6268
üles	-6269
▁Riis	-6270
omanik	-6271
▁öeldi	-6272
kandeks	-6273
▁seisuga	-6274
▁mõjutada	-6275
▁Ülikooli	-6276
▁Riigikaitse	-6277
▁valitsusliik	-6278
etusi	-6279
▁jutu	-6280
▁tark	-6281
▁immig	-6282
▁vahendi	-6283
▁välista	-6284
▁neljanda	-6285
stit	-6286
▁asub	-6287
▁Inara	-6288
▁Pärnu	-6289
▁arvab	-6290
▁hakkas	-6291
▁muutus	-6292
▁sektoris	-6293
▁kütuseaktsiisi	-6294
▁kommunikatsioon	-6295
nor	-6296
oses	-6297
▁400	-6298
▁soe	-6299
Teine	-6300
▁arutle	-6301
▁oleksime	-6302
ikatsiooni	-6303
▁riigieelarvesse	-6304
aldor	-6305
▁Erki	-6306
▁kütte	-6307
▁taust	-6308
▁aruand	-6309
▁seatud	-6310
▁viiakse	-6311
ees	-6312
▁pih	-6313
tamis	-6314
▁Siim	-6315
▁Laanet	-6316
▁jõudis	-6317
▁sulgen	-6318
▁tulude	-6319
▁esitati	-6320
▁valimised	-6321
rdin	-6322
sahk	-6323
erite	-6324
▁appi	-6325
▁Minul	-6326
Külliki	-6327
▁Prantsus	-6328
▁soovitan	-6329
▁kasutanud	-6330
kvaa	-6331
ulist	-6332
▁1000	-6333
▁kaar	-6334
▁Tsahk	-6335
▁Eesmaa	-6336
erib	-6337
tast	-6338
alisi	-6339
▁5000	-6340
▁Rõiva	-6341
▁allik	-6342
▁hoole	-6343
▁omand	-6344
▁arvamusi	-6345
▁maksavad	-6346
▁teistest	-6347
▁poliitikat	-6348
▁Ef	-6349
üroo	-6350
▁tre	-6351
▁Teil	-6352
▁umbus	-6353
▁Saarema	-6354
▁avalikus	-6355
Lugupeetav	-6356
▁maksuvaba	-6357
mide	-6358
▁bus	-6359
samad	-6360
▁kalli	-6361
▁varja	-6362
antsele	-6363
▁Efendi	-6364
▁toimuma	-6365
▁kehtivad	-6366
▁mismoodi	-6367
MK	-6368
gula	-6369
▁võid	-6370
▁Algab	-6371
▁hanke	-6372
▁küsib	-6373
▁koolid	-6374
▁teistpidi	-6375
ldar	-6376
tarv	-6377
iniku	-6378
ilises	-6379
▁hetke	-6380
▁tagab	-6381
▁takso	-6382
▁võtan	-6383
korralduse	-6384
▁eesmärgid	-6385
▁poliitikas	-6386
▁transpordi	-6387
▁parlamentaar	-6388
iteen	-6389
tustega	-6390
▁teenus	-6391
▁vormis	-6392
▁luuakse	-6393
▁teoreet	-6394
protsessi	-6395
rei	-6396
itsa	-6397
kult	-6398
▁Eile	-6399
leping	-6400
likust	-6401
▁tähtsusega	-6402
▁muga	-6403
▁Tahan	-6404
▁ometi	-6405
▁ollakse	-6406
imõiguste	-6407
▁praegust	-6408
▁reklaami	-6409
▁kinnitatud	-6410
istõ	-6411
▁joon	-6412
▁elama	-6413
▁Lihtsalt	-6414
▁tutvustas	-6415
▁Esi	-6416
▁Kalju	-6417
▁takist	-6418
komisjonile	-6419
▁strateegia	-6420
▁RMK	-6421
kogus	-6422
▁lipu	-6423
▁nõuda	-6424
▁oligi	-6425
▁metood	-6426
▁toetas	-6427
▁Tsahkna	-6428
▁kuskile	-6429
▁rõhutada	-6430
▁käsitleda	-6431
iner	-6432
▁USA	-6433
tsion	-6434
ümpia	-6435
▁avata	-6436
▁otsida	-6437
▁suurendab	-6438
▁piirivalve	-6439
▁poliitikud	-6440
...	-6441
▁44	-6442
sõidu	-6443
▁Enam	-6444
▁teete	-6445
▁kohtusse	-6446
▁otsusega	-6447
▁nimetasite	-6448
▁emotsionaal	-6449
ske	-6450
▁AS	-6451
inas	-6452
inge	-6453
grupp	-6454
▁Palo	-6455
istõttu	-6456
▁jutuks	-6457
▁tänada	-6458
▁internet	-6459
▁reeglite	-6460
▁sunnitud	-6461
▁valguses	-6462
▁vastavad	-6463
▁panustada	-6464
▁lahendatud	-6465
▁Valitsusele	-6466
▁peaministrile	-6467
jevi	-6468
dagoo	-6469
▁eesmärke	-6470
▁interneti	-6471
luba	-6472
▁10%	-6473
▁MTÜ	-6474
▁Sele	-6475
▁kuri	-6476
▁sõlmi	-6477
▁astuda	-6478
ulgeoleku	-6479
▁elektrit	-6480
Al	-6481
ased	-6482
giks	-6483
itur	-6484
jana	-6485
▁Met	-6486
▁Var	-6487
aalne	-6488
▁pluss	-6489
halduse	-6490
▁tarvis	-6491
▁Auväärt	-6492
▁Täpselt	-6493
▁teaduse	-6494
▁kodanike	-6495
▁mistõttu	-6496
▁püütakse	-6497
▁õigusakt	-6498
▁Lii	-6499
▁mun	-6500
▁Mari	-6501
▁sõita	-6502
▁vanemate	-6503
▁Seaduseelnõu	-6504
▁omavalitsusele	-6505
rge	-6506
tta	-6507
▁bi	-6508
▁Väh	-6509
▁tihe	-6510
ritise	-6511
▁Meile	-6512
▁alguse	-6513
rastrukt	-6514
▁territooriumil	-6515
▁pre	-6516
osoof	-6517
▁eaka	-6518
▁saar	-6519
▁suhe	-6520
▁sula	-6521
jatest	-6522
▁korter	-6523
▁ajakirja	-6524
▁asjadest	-6525
▁näidanud	-6526
▁täidetud	-6527
▁ülesannete	-6528
velt	-6529
▁amb	-6530
▁Pall	-6531
▁Kallo	-6532
▁vääri	-6533
▁sammud	-6534
▁Savisaar	-6535
▁vahendite	-6536
jast	-6537
▁sool	-6538
▁äsja	-6539
õukogu	-6540
eerivad	-6541
▁person	-6542
▁kõikides	-6543
▁kaitseväel	-6544
▁täitmiseks	-6545
▁mitmesuguseid	-6546
põ	-6547
!""	-6548
küsimus	-6549
vastase	-6550
▁tubaka	-6551
▁kutsuda	-6552
▁oleksin	-6553
▁võimatu	-6554
▁suudavad	-6555
▁Vastupidi	-6556
▁juhatusele	-6557
atiat	-6558
semat	-6559
▁tundu	-6560
õpetaja	-6561
▁Kohalik	-6562
▁riigist	-6563
▁hommikul	-6564
▁kuulsime	-6565
▁muudetud	-6566
▁hääletama	-6567
▁ettenähtud	-6568
▁õigusloome	-6569
▁omavalitsustel	-6570
nii	-6571
▁Sta	-6572
▁aset	-6573
▁elav	-6574
▁Maris	-6575
▁Eesmärk	-6576
▁mingite	-6577
▁igapäeva	-6578
▁tegemise	-6579
▁kodanikud	-6580
▁praktikas	-6581
▁põhjaliku	-6582
▁investeerida	-6583
▁korraldamise	-6584
ülik	-6585
▁tan	-6586
▁ootame	-6587
▁halvasti	-6588
▁osalenud	-6589
▁praegusel	-6590
ned	-6591
itused	-6592
▁kuriteo	-6593
▁pakkunud	-6594
▁septembril	-6595
II	-6596
ühis	-6597
▁vas	-6598
emale	-6599
▁poleks	-6600
päraselt	-6601
▁aitavad	-6602
▁millises	-6603
▁tulubaasi	-6604
▁ühiskonnale	-6605
▁8.	-6606
ssid	-6607
tuna	-6608
▁Inf	-6609
▁Vak	-6610
damise	-6611
▁propa	-6612
▁kritise	-6613
▁nõudeid	-6614
▁kujunenud	-6615
ohu	-6616
akti	-6617
tari	-6618
▁Kiis	-6619
▁Ansip	-6620
▁motiva	-6621
tsioonid	-6622
▁rahapes	-6623
akadeemia	-6624
▁eelnõusse	-6625
▁kohalikke	-6626
▁kolmandat	-6627
▁Riigikokku	-6628
palk	-6629
kordi	-6630
▁ainuke	-6631
▁igaüks	-6632
▁Vabariik	-6633
▁toimuvad	-6634
▁tõstmine	-6635
▁käesoleva	-6636
▁missiooni	-6637
▁põllumeest	-6638
▁ministeeriumis	-6639
ente	-6640
kooli	-6641
Valdor	-6642
afrika	-6643
▁delega	-6644
▁standa	-6645
▁viidud	-6646
▁diskrimin	-6647
▁suhtumine	-6648
▁Parlamendi	-6649
▁jaanuarist	-6650
▁rahvastiku	-6651
▁liikmesriikide	-6652
▁Pen	-6653
sesse	-6654
▁rände	-6655
▁kaugel	-6656
▁langeb	-6657
kantsler	-6658
▁lähtuda	-6659
▁taotluse	-6660
▁riigisise	-6661
▁sõnavõtus	-6662
▁tegevused	-6663
▁registreerus	-6664
hinn	-6665
ajalt	-6666
asart	-6667
ruumi	-6668
▁kasvavad	-6669
▁argumente	-6670
▁hoolimata	-6671
▁paralleel	-6672
▁gümnaasiumise	-6673
tra	-6674
tun	-6675
▁palve	-6676
▁vanem	-6677
▁Küllap	-6678
▁kestab	-6679
▁koolil	-6680
▁uuring	-6681
▁erineva	-6682
▁õpilaste	-6683
▁taastuvenergia	-6684
▁muul	-6685
▁kaasas	-6686
▁maapiir	-6687
▁kompeten	-6688
▁liberaal	-6689
▁projekte	-6690
▁järjepide	-6691
puh	-6692
▁39	-6693
▁43	-6694
inde	-6695
▁kõn	-6696
kusest	-6697
▁liigub	-6698
asartmän	-6699
▁pidades	-6700
▁hääletuse	-6701
Eest	-6702
alis	-6703
itav	-6704
▁Kar	-6705
▁tõin	-6706
dekvaa	-6707
▁pihta	-6708
▁teilt	-6709
▁Seadus	-6710
▁Vaadake	-6711
▁erikomisjoni	-6712
iministeeriumi	-6713
▁46	-6714
minut	-6715
▁päri	-6716
▁püst	-6717
Martin	-6718
▁senti	-6719
majanduse	-6720
spetsialist	-6721
▁tutvustada	-6722
op	-6723
▁ah	-6724
erik	-6725
maad	-6726
▁kaob	-6727
▁post	-6728
▁lähtub	-6729
▁adekvaa	-6730
▁lasteai	-6731
▁suverään	-6732
▁siinsamas	-6733
ühma	-6734
▁Kri	-6735
▁vih	-6736
isime	-6737
juhtu	-6738
▁piin	-6739
etakse	-6740
▁sulge	-6741
▁vahend	-6742
▁ütleks	-6743
▁Saksamaa	-6744
▁piiriüle	-6745
▁ettevõtjatele	-6746
ron	-6747
umma	-6748
plaus	-6749
▁rahu	-6750
tasude	-6751
▁reklaam	-6752
▁konservatiiv	-6753
▁ühistranspord	-6754
▁Kust	-6755
▁jään	-6756
▁uudis	-6757
▁tulemused	-6758
rig	-6759
▁spe	-6760
gleid	-6761
▁Annan	-6762
▁avasta	-6763
▁kohane	-6764
▁saamiseks	-6765
▁haldusreform	-6766
▁Ni	-6767
arve	-6768
▁rai	-6769
▁paik	-6770
▁kasuks	-6771
▁võimekus	-6772
▁parandusette	-6773
▁Aa	-6774
▁õl	-6775
tsus	-6776
–201	-6777
vikus	-6778
▁koju	-6779
▁pered	-6780
▁kontsep	-6781
▁tõkesta	-6782
▁teeninda	-6783
kol	-6784
▁peh	-6785
▁ran	-6786
kaalu	-6787
▁kala	-6788
▁põle	-6789
▁siga	-6790
likule	-6791
▁ühenda	-6792
▁jälgida	-6793
▁üheselt	-6794
▁tegemisel	-6795
▁Arupärijate	-6796
erin	-6797
fgan	-6798
▁2009.	-6799
▁Vakra	-6800
▁laiali	-6801
▁turule	-6802
▁Riisalu	-6803
▁inglise	-6804
▁suureks	-6805
▁tulebki	-6806
dub	-6807
▁47	-6808
giga	-6809
▁demo	-6810
▁elat	-6811
▁Linna	-6812
▁tehta	-6813
▁arvuta	-6814
▁suuresti	-6815
auto	-6816
▁Süü	-6817
▁Võru	-6818
▁eeldan	-6819
▁kabine	-6820
mehhanis	-6821
▁elaniku	-6822
▁osalesid	-6823
ei	-6824
eas	-6825
kule	-6826
artne	-6827
tasid	-6828
▁Rata	-6829
▁Vastus	-6830
koormuse	-6831
jutus	-6832
valim	-6833
▁ühtl	-6834
▁Muuda	-6835
susväär	-6836
▁Seoses	-6837
▁hooldus	-6838
▁Praegune	-6839
▁sisuline	-6840
▁menetlust	-6841
eris	-6842
▁Raid	-6843
▁Isegi	-6844
▁olime	-6845
▁panema	-6846
▁tingitud	-6847
▁piirkonna	-6848
▁kinnitanud	-6849
▁töökohtade	-6850
▁Arupärimisele	-6851
▁kooseluseaduse	-6852
▁jäid	-6853
▁ukse	-6854
▁Pomer	-6855
▁olene	-6856
▁ulatus	-6857
▁kindlalt	-6858
▁krediidi	-6859
▁vähendab	-6860
▁Pomerants	-6861
▁funktsioon	-6862
▁suurusjärgus	-6863
.)"	-6864
gne	-6865
alga	-6866
avad	-6867
eamet	-6868
▁kohti	-6869
▁jätkan	-6870
▁leiame	-6871
▁mingis	-6872
▁väidan	-6873
programm	-6874
▁laiendada	-6875
▁ressursse	-6876
▁rääkimata	-6877
▁väiksemad	-6878
euro	-6879
▁Põl	-6880
▁leh	-6881
jaama	-6882
võimu	-6883
▁Boro	-6884
musega	-6885
ustati	-6886
▁Anvelt	-6887
▁üleüld	-6888
▁Balticu	-6889
▁esitama	-6890
▁kulutused	-6891
▁parlamendiliik	-6892
▁lõpeb	-6893
▁seada	-6894
▁Borodit	-6895
▁algatas	-6896
▁paremat	-6897
▁algatada	-6898
▁esitasid	-6899
▁selgitas	-6900
▁pikendada	-6901
▁ajakirjand	-6902
imõtteliselt	-6903
▁seaduseelnõuga	-6904
kuid	-6905
turu	-6906
vaat	-6907
▁kip	-6908
imalt	-6909
▁Toon	-6910
▁ürit	-6911
▁Eelnõ	-6912
▁pankro	-6913
▁ettepanekul	-6914
▁ajada	-6915
▁teabe	-6916
▁võrgu	-6917
▁puuetega	-6918
ure	-6919
oetuse	-6920
▁reser	-6921
▁toona	-6922
ubanduse	-6923
▁seekord	-6924
▁riikidest	-6925
▁elanikkonna	-6926
▁eelarvestratee	-6927
▁erivajadustega	-6928
▁nal	-6929
eniss	-6930
▁Pean	-6931
▁Rainer	-6932
▁jõustub	-6933
▁kõigest	-6934
▁pädevus	-6935
▁tähtsam	-6936
▁Iseenesest	-6937
▁Piirivalveameti	-6938
elnud	-6939
▁tere	-6940
▁vaik	-6941
aduste	-6942
▁huvid	-6943
▁Tuletan	-6944
▁kohtunik	-6945
▁seejärel	-6946
enäoliselt	-6947
▁ebaseadus	-6948
▁olemasolu	-6949
▁kasutamist	-6950
▁võimalikud	-6951
▁konsensuslik	-6952
ün	-6953
elli	-6954
etult	-6955
temaat	-6956
▁ainus	-6957
projekt	-6958
▁aruande	-6959
▁kuuluta	-6960
▁pöörata	-6961
llumajandus	-6962
▁paragrahvi	-6963
▁raamatupida	-6964
muga	-6965
▁foo	-6966
matud	-6967
oktoob	-6968
▁lõppu	-6969
▁kaasata	-6970
▁lubanud	-6971
▁infrastrukt	-6972
▁rahvaesinda	-6973
raat	-6974
▁pani	-6975
▁toit	-6976
▁Lutse	-6977
eliselt	-6978
▁võrdle	-6979
vahendeid	-6980
▁kasutades	-6981
▁keerulise	-6982
lah	-6983
nime	-6984
õigust	-6985
▁suvel	-6986
▁teeks	-6987
▁sõnaga	-6988
▁toetan	-6989
▁majanda	-6990
▁digitaal	-6991
▁eesmärgil	-6992
▁vastutuse	-6993
▁rahulikult	-6994
▁täiendavat	-6995
▁taristuminist	-6996
30	-6997
tsed	-6998
▁Pank	-6999
▁ümbr	-7000
fondide	-7001
olevalt	-7002
▁tulemust	-7003
▁Vabandust	-7004
▁hinnangut	-7005
▁tasakaalus	-7006
▁riigireformi	-7007
punkti	-7008
▁hindate	-7009
▁ametnike	-7010
▁piirangud	-7011
rabi	-7012
▁Sib	-7013
gevust	-7014
▁surve	-7015
▁üleand	-7016
▁Sellist	-7017
▁loetelu	-7018
▁kompensa	-7019
▁tegemiseks	-7020
▁esmaspäeval	-7021
▁initsiatiiv	-7022
sume	-7023
▁22.	-7024
▁Lemb	-7025
▁ping	-7026
▁enese	-7027
▁tausta	-7028
▁tuleme	-7029
▁töötus	-7030
▁Karilaid	-7031
▁kogukonna	-7032
▁printsiip	-7033
▁maksumuuda	-7034
▁kõikvõimalik	-7035
▁moodustamine	-7036
bo	-7037
oode	-7038
▁Ent	-7039
Aivar	-7040
▁Afgan	-7041
▁ideed	-7042
▁tunda	-7043
▁Kohtla	-7044
▁Narvas	-7045
▁korrig	-7046
tamisega	-7047
▁iseenda	-7048
▁lapsele	-7049
investeer	-7050
▁nõuetele	-7051
▁teemadel	-7052
ikomisjonis	-7053
▁ettevõtteid	-7054
▁igasuguseid	-7055
▁avalikkusele	-7056
▁riigihalduse	-7057
▁rahvusvaheline	-7058
jä	-7059
▁rep	-7060
▁huve	-7061
▁okupa	-7062
▁kuivõrd	-7063
▁puhtalt	-7064
▁ressursi	-7065
▁tegutseda	-7066
▁võimaliku	-7067
▁jõustumise	-7068
▁läbirääkimistel	-7069
istun	-7070
vanem	-7071
▁Neeme	-7072
▁lõige	-7073
▁matuse	-7074
▁naised	-7075
▁kasutab	-7076
▁määrati	-7077
▁juhtinud	-7078
▁pikemalt	-7079
▁esindajate	-7080
▁muutmiseks	-7081
▁komisjonile	-7082
alal	-7083
ikule	-7084
▁lenn	-7085
Aplaus	-7086
erimis	-7087
▁enamasti	-7088
▁nõustuda	-7089
▁populaar	-7090
▁lahendused	-7091
▁lastekaitse	-7092
▁positsiooni	-7093
lid	-7094
gused	-7095
▁fond	-7096
▁juhin	-7097
▁samba	-7098
▁näevad	-7099
▁selged	-7100
▁avalikku	-7101
▁vastasin	-7102
▁väikesed	-7103
▁rahvastik	-7104
▁samasugune	-7105
▁konkreetsete	-7106
▁spetsialistid	-7107
▁64	-7108
▁terro	-7109
▁kompon	-7110
▁vaidlus	-7111
▁otsusena	-7112
▁pealkirja	-7113
vim	-7114
eneda	-7115
▁ehit	-7116
▁lask	-7117
▁igale	-7118
▁saamise	-7119
▁hooldeko	-7120
▁viimased	-7121
▁suuremaid	-7122
▁prioriteed	-7123
▁põhimõtteline	-7124
ministeeriumiga	-7125
ravi	-7126
▁mon	-7127
▁mehed	-7128
▁viinud	-7129
▁õppima	-7130
ktsioone	-7131
▁olevate	-7132
▁eraldatud	-7133
▁peamiselt	-7134
▁stenogrammi	-7135
lise	-7136
unkt	-7137
▁Laane	-7138
▁piima	-7139
▁spiiker	-7140
▁tõusnud	-7141
▁töötama	-7142
▁avalikult	-7143
▁küsimustega	-7144
Meie	-7145
kass	-7146
vägi	-7147
▁juuni	-7148
▁tagama	-7149
▁vähema	-7150
▁üldist	-7151
▁Jaanson	-7152
▁Tuiksoo	-7153
▁statistikat	-7154
▁täiendavaid	-7155
▁jätkusuutlik	-7156
▁väliskomisjoni	-7157
kah	-7158
aalse	-7159
▁Sild	-7160
▁lükka	-7161
▁kinnip	-7162
▁veebruar	-7163
▁viimaste	-7164
joo	-7165
utöö	-7166
Proua	-7167
▁Lenk	-7168
▁ootab	-7169
▁parim	-7170
▁peast	-7171
▁asutus	-7172
▁esitaja	-7173
▁häälteen	-7174
▁mõnikord	-7175
▁osalevad	-7176
▁kolmandale	-7177
▁ettevõtjaid	-7178
▁OE	-7179
väel	-7180
▁vorm	-7181
▁õigel	-7182
▁Kolmas	-7183
▁debati	-7184
▁eriala	-7185
asutused	-7186
▁demograaf	-7187
ringhäälingu	-7188
▁korraldatud	-7189
iver	-7190
kulu	-7191
▁Aeg	-7192
▁sti	-7193
▁tend	-7194
eameti	-7195
kurite	-7196
▁endal	-7197
▁olite	-7198
▁tugis	-7199
▁Luigas	-7200
▁läbivii	-7201
▁vastast	-7202
▁õiglane	-7203
▁kaitstud	-7204
▁maamaksu	-7205
▁täiendav	-7206
▁Vabaerakond	-7207
Ra	-7208
kam	-7209
▁Ühes	-7210
▁interv	-7211
▁raudte	-7212
▁läbivaa	-7213
▁senisest	-7214
man	-7215
tsu	-7216
deid	-7217
evad	-7218
▁Post	-7219
detsemb	-7220
materjal	-7221
▁teistel	-7222
▁konflikti	-7223
▁tänapäeva	-7224
▁piirkondades	-7225
▁õht	-7226
rüsse	-7227
▁Amet	-7228
anenud	-7229
▁konta	-7230
▁laadi	-7231
▁pandi	-7232
▁munitsi	-7233
▁detsembri	-7234
▁töölepingu	-7235
▁Tõenäoliselt	-7236
ministeeriumil	-7237
visi	-7238
usalt	-7239
▁hetk	-7240
andada	-7241
endaks	-7242
keskuse	-7243
▁Brüsse	-7244
▁Pentus	-7245
▁moraal	-7246
▁asjadega	-7247
▁eelnõule	-7248
▁sätestab	-7249
mil	-7250
▁Ele	-7251
▁ton	-7252
Esime	-7253
▁firma	-7254
▁august	-7255
▁kommun	-7256
▁küsitud	-7257
▁Eelmisel	-7258
▁kooskõlla	-7259
▁paragrahv	-7260
▁võimelised	-7261
▁tingimustes	-7262
▁proportsionaal	-7263
das	-7264
▁am	-7265
▁usal	-7266
▁tööga	-7267
sektoris	-7268
▁arengut	-7269
▁kümneid	-7270
▁loomine	-7271
▁võrdselt	-7272
▁ettepanekute	-7273
fir	-7274
▁Osa	-7275
siooni	-7276
▁kunst	-7277
▁hinnad	-7278
▁vaatab	-7279
▁arengus	-7280
▁Viljandi	-7281
▁üldjuhul	-7282
▁Efendijev	-7283
▁täiendava	-7284
▁juriidilise	-7285
▁Läbirääkimiste	-7286
uule	-7287
oonis	-7288
▁heas	-7289
võimet	-7290
▁Eelkõ	-7291
astatel	-7292
▁univer	-7293
▁esindus	-7294
▁esimeses	-7295
▁hinnatõus	-7296
▁gümnaasium	-7297
▁ministrina	-7298
▁tervishoius	-7299
▁fraktsioonid	-7300
▁lõppkokkuvõttes	-7301
▁is	-7302
Naer	-7303
Vaba	-7304
liks	-7305
sika	-7306
senaari	-7307
▁piirata	-7308
▁tuuakse	-7309
▁kahtlust	-7310
▁eelmisele	-7311
▁ambitsioon	-7312
gema	-7313
▁Era	-7314
isuse	-7315
▁Pärn	-7316
▁ütel	-7317
▁2019.	-7318
▁pilti	-7319
asutust	-7320
▁juhuks	-7321
osakonna	-7322
▁Seletus	-7323
▁kadunud	-7324
▁paremad	-7325
▁siiralt	-7326
▁loomulik	-7327
▁rääkisid	-7328
▁korrektne	-7329
▁aktsiisitõus	-7330
▁korruptsioon	-7331
▁riigieelarvet	-7332
müü	-7333
äbi	-7334
▁25.	-7335
▁arh	-7336
▁loa	-7337
▁baas	-7338
▁korr	-7339
novemb	-7340
ustusi	-7341
Mihhail	-7342
▁Seeder	-7343
▁Eelnõuga	-7344
▁mandaadi	-7345
▁Põhimõtteliselt	-7346
ban	-7347
div	-7348
▁1%	-7349
kasva	-7350
▁saagi	-7351
▁edenda	-7352
▁lähedal	-7353
▁infotehn	-7354
▁eksperdid	-7355
▁tulemusel	-7356
▁vabatahtlik	-7357
▁maaeluminist	-7358
lü	-7359
▁hõ	-7360
Urve	-7361
galt	-7362
▁tõr	-7363
▁avaldanud	-7364
▁kavandatud	-7365
▁vastuvõtmist	-7366
▁Läbirääkimisi	-7367
ch	-7368
järje	-7369
utult	-7370
▁Poola	-7371
▁muide	-7372
▁sääst	-7373
osimann	-7374
▁kohalikel	-7375
▁78	-7376
▁aina	-7377
▁sind	-7378
▁Kotka	-7379
▁asutuse	-7380
▁eelmises	-7381
▁minnakse	-7382
▁Nõukogude	-7383
▁olukorrast	-7384
▁otstarbekas	-7385
▁organisatsiooni	-7386
▁6,	-7387
hinna	-7388
▁oste	-7389
▁tubli	-7390
▁täide	-7391
▁koosoleku	-7392
Vä	-7393
tma	-7394
vil	-7395
▁Lo	-7396
ustel	-7397
▁kaud	-7398
Kaitse	-7399
ifitse	-7400
▁samad	-7401
▁teadma	-7402
▁liikmel	-7403
▁määratle	-7404
▁noortele	-7405
▁universa	-7406
▁Tolliameti	-7407
▁tööminister	-7408
▁sotsiaalkaitse	-7409
ustes	-7410
▁mini	-7411
otstar	-7412
põhine	-7413
▁Ütlen	-7414
menetlus	-7415
▁rahvale	-7416
▁Riigikohus	-7417
▁hääletamist	-7418
▁kahetsusväär	-7419
▁erivajadusega	-7420
kkus	-7421
▁Mõni	-7422
▁Harju	-7423
▁tolle	-7424
▁arvavad	-7425
▁administ	-7426
▁filosoof	-7427
▁kõikidel	-7428
▁süüdista	-7429
▁valikuid	-7430
▁algatajate	-7431
ministeeriumist	-7432
inii	-7433
siku	-7434
Kõige	-7435
unnet	-7436
▁harj	-7437
▁saja	-7438
▁2010.	-7439
▁narko	-7440
antselei	-7441
kurentsi	-7442
▁omaette	-7443
▁toetame	-7444
▁arutelud	-7445
▁leitakse	-7446
▁taastada	-7447
▁igasugune	-7448
▁tulenevad	-7449
ministeeriumile	-7450
eldud	-7451
ustöö	-7452
▁2012	-7453
▁lood	-7454
▁turg	-7455
▁koole	-7456
▁leian	-7457
▁regul	-7458
ikuinii	-7459
olukorra	-7460
▁kohtute	-7461
▁keskmisest	-7462
▁põhiliselt	-7463
▁väljakutse	-7464
▁õnnestunud	-7465
iret	-7466
paal	-7467
üksi	-7468
▁por	-7469
imise	-7470
▁diis	-7471
tavaks	-7472
▁loota	-7473
▁tulud	-7474
▁kantud	-7475
▁leitud	-7476
▁andmise	-7477
▁intressi	-7478
ustamiseks	-7479
▁säilitada	-7480
▁kirjalikult	-7481
▁tagantjärele	-7482
▁elektroonilise	-7483
▁54	-7484
▁57	-7485
▁elanud	-7486
▁kitsas	-7487
▁tohutu	-7488
▁Statist	-7489
▁Tervise	-7490
▁jätkame	-7491
▁loomise	-7492
▁õigemini	-7493
▁mõistlikum	-7494
▁rahastamist	-7495
▁esindajatega	-7496
iera	-7497
likü	-7498
vinud	-7499
elased	-7500
▁areng	-7501
stamise	-7502
▁lugema	-7503
▁Vaheaeg	-7504
▁üksmeel	-7505
▁Kaljuvee	-7506
▁vormista	-7507
▁esindatud	-7508
▁võimekust	-7509
▁kodakondsust	-7510
▁lahendamiseks	-7511
Henn	-7512
▁Hil	-7513
▁Sis	-7514
▁tõm	-7515
ritan	-7516
▁jätab	-7517
▁tohib	-7518
▁otsima	-7519
▁suitse	-7520
▁matemaat	-7521
▁majanduslik	-7522
▁õiguskomisjon	-7523
hes	-7524
▁ca	-7525
▁Keh	-7526
juhid	-7527
omaat	-7528
ttunud	-7529
▁Pääst	-7530
▁Millal	-7531
▁aktuaal	-7532
▁Tähendab	-7533
▁hääletus	-7534
▁seletada	-7535
▁tegevusi	-7536
▁viitasin	-7537
▁arengufondi	-7538
▁korralikult	-7539
▁nimetatakse	-7540
iil	-7541
ism	-7542
kub	-7543
▁53	-7544
rupi	-7545
▁Muu	-7546
Urmas	-7547
▁sule	-7548
kabine	-7549
▁arsti	-7550
▁vaidle	-7551
▁kellest	-7552
▁vastava	-7553
▁Tolliamet	-7554
▁kampaania	-7555
▁temaatika	-7556
▁esitatakse	-7557
▁järgmistel	-7558
▁millegipärast	-7559
tea	-7560
▁võis	-7561
efitsi	-7562
usesse	-7563
▁madal	-7564
ustades	-7565
▁paljus	-7566
▁selget	-7567
▁võtate	-7568
▁liikuma	-7569
▁teenist	-7570
▁vägivalla	-7571
▁Arupärimine	-7572
palgal	-7573
▁soori	-7574
andmete	-7575
▁rahulda	-7576
▁lasteaeda	-7577
▁osapooled	-7578
▁hääletamis	-7579
▁52	-7580
õuna	-7581
▁Nime	-7582
samble	-7583
▁raama	-7584
▁tõmba	-7585
estades	-7586
▁Arengu	-7587
▁tõenda	-7588
Rosimann	-7589
▁aegadel	-7590
▁andmine	-7591
▁tutvuda	-7592
▁vastusest	-7593
▁kvalifitse	-7594
▁võimalikke	-7595
kaks	-7596
tsite	-7597
▁2019	-7598
▁sooj	-7599
aalselt	-7600
▁Maante	-7601
▁Mikser	-7602
▁temaga	-7603
▁saamata	-7604
▁tööstus	-7605
▁mandaati	-7606
▁meetmete	-7607
▁niikuinii	-7608
▁probleemiga	-7609
▁prokuratuur	-7610
▁erakonnakaas	-7611
▁suurendamine	-7612
0-	-7613
mele	-7614
orid	-7615
▁30.	-7616
▁Jutt	-7617
▁pinn	-7618
▁Nelja	-7619
▁subje	-7620
utamine	-7621
▁juhtumi	-7622
▁punktis	-7623
▁päriselt	-7624
▁ravimite	-7625
▁tähtaega	-7626
▁ministrit	-7627
▁pensionile	-7628
siis	-7629
tasin	-7630
tluse	-7631
▁Luik	-7632
▁kaase	-7633
▁Heimar	-7634
▁korraks	-7635
▁liigume	-7636
▁mõtleme	-7637
▁teadlik	-7638
▁tahaksime	-7639
aid	-7640
▁ajaga	-7641
▁ausad	-7642
ipartne	-7643
raamatu	-7644
▁täidab	-7645
▁nähakse	-7646
▁vaatasin	-7647
▁eelnevalt	-7648
▁erakordselt	-7649
▁poliitilised	-7650
▁Aav	-7651
▁Tee	-7652
aksid	-7653
▁Eldar	-7654
▁Küsin	-7655
▁hulle	-7656
▁katta	-7657
▁remon	-7658
▁Kruusi	-7659
▁kahtle	-7660
▁pöördunud	-7661
▁vähendamine	-7662
▁kokkuleppele	-7663
▁prokuratuuri	-7664
▁vabatahtlikult	-7665
ites	-7666
kate	-7667
ütle	-7668
▁23.	-7669
veebru	-7670
▁endine	-7671
▁innova	-7672
▁leidma	-7673
▁uurida	-7674
▁partner	-7675
▁kaevanda	-7676
▁lõpetanud	-7677
▁objektiiv	-7678
Minu	-7679
mees	-7680
▁Alati	-7681
▁võida	-7682
▁võrdse	-7683
▁lõpetan	-7684
▁ekspordi	-7685
▁kaasette	-7686
▁paljudele	-7687
▁tegutsevad	-7688
▁arupärijate	-7689
▁vastutustund	-7690
▁arendustegevuse	-7691
▁20%	-7692
hinda	-7693
▁Ming	-7694
itamine	-7695
▁lastev	-7696
▁võtsid	-7697
▁viidatud	-7698
▁tingimusi	-7699
▁tagasiside	-7700
▁sotsiaalmaks	-7701
eku	-7702
seda	-7703
▁Asi	-7704
▁müügi	-7705
▁ettehe	-7706
▁Randjär	-7707
▁tervita	-7708
▁sattunud	-7709
▁dokumendi	-7710
▁praktikat	-7711
▁erasektori	-7712
▁kättesaadavus	-7713
hke	-7714
▁42	-7715
▁76	-7716
▁Kiv	-7717
▁osu	-7718
▁kallis	-7719
▁seisus	-7720
▁suurel	-7721
▁vahest	-7722
▁ajalugu	-7723
▁kaitset	-7724
▁tööpuud	-7725
▁välisma	-7726
▁kahtluse	-7727
▁kapitali	-7728
▁Rahvusvahel	-7729
▁kompetentsi	-7730
lit	-7731
sik	-7732
▁küla	-7733
▁kobar	-7734
▁mängu	-7735
▁rumal	-7736
teerida	-7737
▁Lembit	-7738
▁nõuete	-7739
▁esialgu	-7740
▁meedias	-7741
▁seisneb	-7742
▁dokumend	-7743
▁kohtades	-7744
▁optimist	-7745
▁ääretult	-7746
▁kaugemale	-7747
▁riigikontrolör	-7748
▁raa	-7749
maale	-7750
▁idea	-7751
▁viies	-7752
▁ühegi	-7753
▁makstud	-7754
▁sõlmida	-7755
▁teenida	-7756
▁kompleks	-7757
▁planeeri	-7758
▁reegleid	-7759
▁vahelise	-7760
▁poliitiliste	-7761
onoo	-7762
▁Ran	-7763
kasvan	-7764
▁2020.	-7765
▁toote	-7766
▁kliima	-7767
▁kodule	-7768
▁töötasu	-7769
▁rahapesu	-7770
▁riigiabi	-7771
▁täiendada	-7772
▁tehnoloogia	-7773
▁Piirivalveamet	-7774
▁äh	-7775
▁sin	-7776
britan	-7777
▁tüüpi	-7778
prognoo	-7779
▁neljas	-7780
▁leiavad	-7781
▁sisulist	-7782
asartmängu	-7783
▁analüüsid	-7784
▁nõukogude	-7785
▁põhimõtet	-7786
▁võimeline	-7787
jaa	-7788
uru	-7789
iige	-7790
▁lig	-7791
▁Kaja	-7792
▁17.15	-7793
▁varju	-7794
▁tõmmata	-7795
kaubandus	-7796
▁juhtimise	-7797
▁munitsipaal	-7798
▁Põllumajandus	-7799
▁taristuminister	-7800
emis	-7801
firma	-7802
stuse	-7803
▁Keegi	-7804
▁Liisa	-7805
▁toodi	-7806
▁Estoni	-7807
▁laekub	-7808
▁poolteist	-7809
▁Suurbritan	-7810
▁järelikult	-7811
▁põhimõtted	-7812
▁tööandjate	-7813
vla	-7814
Jaak	-7815
▁panus	-7816
▁püüab	-7817
aastast	-7818
▁võimul	-7819
▁Keskuse	-7820
▁loobuda	-7821
▁võrgust	-7822
oovi	-7823
haigla	-7824
▁vaidl	-7825
▁hakati	-7826
▁aspekti	-7827
▁koordin	-7828
▁avaldada	-7829
▁kavatseb	-7830
▁saadakse	-7831
▁töötajad	-7832
▁68	-7833
▁Sii	-7834
gusid	-7835
hoidu	-7836
mudel	-7837
likuma	-7838
poolse	-7839
▁Ester	-7840
▁omalt	-7841
▁2016. 	-7842
▁Kiisler	-7843
▁muutnud	-7844
▁näitaja	-7845
Kaitseväe	-7846
▁ratsionaal	-7847
▁ministeeriumid	-7848
▁märkimisväärne	-7849
▁rahvusvahelist	-7850
daja	-7851
▁häb	-7852
ingut	-7853
utama	-7854
▁peatu	-7855
▁juhtis	-7856
▁eeldada	-7857
▁suuruse	-7858
▁vanadus	-7859
▁ametikoh	-7860
▁huvigrupp	-7861
▁seaduseks	-7862
▁arutatakse	-7863
▁sotsiaaltöö	-7864
▁Seletuskirja	-7865
▁mingisugused	-7866
uba	-7867
Jüri	-7868
emat	-7869
▁liin	-7870
dusele	-7871
▁kvalif	-7872
riikides	-7873
▁eeskuju	-7874
▁mandaat	-7875
▁taotlus	-7876
▁eraldada	-7877
▁soovinud	-7878
▁kohtuniku	-7879
▁kommentaar	-7880
▁7,	-7881
tell	-7882
▁vea	-7883
Marti	-7884
▁naer	-7885
Valeri	-7886
▁täpne	-7887
juhtide	-7888
ndamise	-7889
▁viitas	-7890
▁vägagi	-7891
▁omaniku	-7892
▁jaanuari	-7893
▁missugune	-7894
▁Ministeerium	-7895
▁ühistranspordi	-7896
utaga	-7897
▁kaeb	-7898
▁tahet	-7899
▁tunni	-7900
▁hävita	-7901
▁eespool	-7902
▁tunnist	-7903
▁õppekava	-7904
▁eesistumise	-7905
▁ümberkorral	-7906
juhti	-7907
pääsu	-7908
▁hange	-7909
grammis	-7910
▁aitaks	-7911
▁jõutud	-7912
▁ootavad	-7913
▁soovitus	-7914
▁järgmiseks	-7915
▁kohalikule	-7916
▁Stalnuhhini	-7917
sü	-7918
oku	-7919
puks	-7920
▁kvar	-7921
▁riske	-7922
▁selts	-7923
aastane	-7924
päevane	-7925
▁euroga	-7926
▁arutluse	-7927
▁Järelikult	-7928
▁koosolekul	-7929
▁paratamatult	-7930
▁c	-7931
ino	-7932
kid	-7933
täh	-7934
tarbi	-7935
▁Kaia	-7936
▁Helir	-7937
▁seisma	-7938
▁tuntud	-7939
▁võtaks	-7940
▁Kultuur	-7941
▁Palling	-7942
▁täitnud	-7943
▁esimehena	-7944
▁järgmiste	-7945
▁niisuguse	-7946
▁piiranguid	-7947
▁positiivse	-7948
▁korteriühistu	-7949
▁konkurentsivõim	-7950
kida	-7951
stan	-7952
▁Tür	-7953
tsust	-7954
tusse	-7955
andjad	-7956
▁Kivim	-7957
▁kohati	-7958
kapitali	-7959
▁Rootsis	-7960
▁jõuavad	-7961
▁kõrgema	-7962
▁lootust	-7963
▁viienda	-7964
▁Estonian	-7965
▁kriitika	-7966
▁Arvestades	-7967
▁suurenenud	-7968
ari	-7969
▁Uu	-7970
tead	-7971
▁hek	-7972
▁ohu	-7973
habil	-7974
usime	-7975
▁Olga	-7976
▁Võsa	-7977
▁ühed	-7978
▁Oleks	-7979
▁toreda	-7980
▁Ettevõt	-7981
▁Valimis	-7982
▁kohtutä	-7983
▁täielik	-7984
▁kohtuots	-7985
▁jõuliselt	-7986
▁koalitsioonis	-7987
pank	-7988
▁juhi	-7989
▁tari	-7990
turval	-7991
▁Kelle	-7992
▁Poolt	-7993
▁hamba	-7994
▁kehte	-7995
▁mures	-7996
▁refor	-7997
▁turva	-7998
▁2015. 	-7999
▁kindlad	-8000
▁profess	-8001
▁Kruusimäe	-8002
▁tarbimine	-8003
▁majanduste	-8004
▁nimetamine	-8005
▁täiskasvan	-8006
▁poliitiliselt	-8007
▁56	-8008
▁58	-8009
geet	-8010
▁voor	-8011
inenud	-8012
▁häiri	-8013
▁kiita	-8014
▁polnud	-8015
▁arenenud	-8016
▁erinevus	-8017
▁esitamist	-8018
▁pakutakse	-8019
▁ravikindlustuse	-8020
IS	-8021
–2	-8022
▁61	-8023
▁71	-8024
pääs	-8025
uudi	-8026
▁glo	-8027
goori	-8028
innas	-8029
itest	-8030
▁riku	-8031
▁Aasta	-8032
▁aluse	-8033
▁juhid	-8034
▁kulub	-8035
▁puudus	-8036
keskkond	-8037
▁riigiga	-8038
▁tulevast	-8039
▁needsamad	-8040
▁valdavalt	-8041
▁ 	-8042
ondi	-8043
kohti	-8044
▁kaun	-8045
keskus	-8046
▁nalja	-8047
▁ruumi	-8048
seadust	-8049
▁jahime	-8050
▁olevad	-8051
▁tähend	-8052
▁vastav	-8053
▁defitsi	-8054
▁põhiõig	-8055
▁asutuste	-8056
▁häälteena	-8057
▁täpsustan	-8058
▁Kuu	-8059
aasis	-8060
duste	-8061
ikaal	-8062
pakku	-8063
selle	-8064
▁Kask	-8065
▁anne	-8066
▁grupp	-8067
septemb	-8068
▁doktor	-8069
▁kujuneb	-8070
▁vaatate	-8071
▁maksuvab	-8072
▁palgalõh	-8073
▁rahalise	-8074
▁mitmekesi	-8075
▁teenistuse	-8076
▁kilomeetrit	-8077
ooru	-8078
▁fir	-8079
▁tap	-8080
▁"...	-8081
▁Sara	-8082
▁veendum	-8083
▁ülimalt	-8084
▁kinnitan	-8085
▁kogemusi	-8086
▁kulutada	-8087
▁arutelusid	-8088
▁aseesimehe	-8089
▁olukorraga	-8090
▁vaadatakse	-8091
eta	-8092
▁67	-8093
andida	-8094
ritele	-8095
▁2008.	-8096
▁mõtted	-8097
▁parvla	-8098
▁ülevõt	-8099
▁summasid	-8100
▁töökohad	-8101
▁maakonnas	-8102
▁Sisekaitse	-8103
▁argumendid	-8104
▁arvestatakse	-8105
▁valitsuskabine	-8106
mut	-8107
emas	-8108
▁atra	-8109
Monika	-8110
▁Mõned	-8111
▁lubab	-8112
▁Kaskpe	-8113
▁Lutsepp	-8114
▁miljardi	-8115
▁õiguslik	-8116
▁pensionis	-8117
▁sotsiaalse	-8118
▁arusaamatuks	-8119
oim	-8120
ajal	-8121
▁lül	-8122
prakt	-8123
õnaga	-8124
▁Sulgen	-8125
▁aegade	-8126
▁seista	-8127
▁aastaküm	-8128
▁poliitik	-8129
▁tugevalt	-8130
julgeoleku	-8131
▁Tallinnast	-8132
▁rahastamis	-8133
▁menetluslikud	-8134
imu	-8135
anti	-8136
▁prü	-8137
metunn	-8138
▁Laasi	-8139
▁majas	-8140
▁säära	-8141
▁võist	-8142
utamise	-8143
▁kütust	-8144
▁maaoma	-8145
▁vaheaja	-8146
▁Eestimaa	-8147
▁lahkunud	-8148
▁nendesse	-8149
▁signaali	-8150
▁tunnevad	-8151
▁menetlusest	-8152
5%	-8153
unne	-8154
aalis	-8155
astal	-8156
etsed	-8157
insus	-8158
mando	-8159
▁Keit	-8160
▁Neil	-8161
▁alam	-8162
akasva	-8163
▁Parts	-8164
eldakse	-8165
▁paluda	-8166
tsioonide	-8167
▁sisulise	-8168
▁täiendus	-8169
aru	-8170
▁sek	-8171
iteid	-8172
minud	-8173
▁Olgu	-8174
kusega	-8175
laselt	-8176
tensiiv	-8177
▁astmel	-8178
▁täitev	-8179
kodakond	-8180
▁Konkree	-8181
▁väärteo	-8182
▁majandusele	-8183
▁rahvaesindajad	-8184
itle	-8185
sina	-8186
ssil	-8187
uden	-8188
lükka	-8189
utame	-8190
▁Kaks	-8191
▁kohad	-8192
▁telli	-8193
▁Tõniste	-8194
▁informe	-8195
▁koolito	-8196
▁palkade	-8197
▁peadire	-8198
▁turismi	-8199
▁vähemaks	-8200
▁Selliseid	-8201
▁protsendi	-8202
▁Konkurentsi	-8203
▁elektriaktsiisi	-8204
öid	-8205
ress	-8206
▁Täi	-8207
kohad	-8208
tsiis	-8209
▁suve	-8210
tajaid	-8211
ttevõt	-8212
▁peagi	-8213
▁suhted	-8214
▁vabalt	-8215
▁eelmist	-8216
▁kuulsin	-8217
▁kinnitas	-8218
▁vajaliku	-8219
teenistuse	-8220
▁sõltumatu	-8221
▁uuringuid	-8222
▁kolmandaks	-8223
▁2%	-8224
▁Nemad	-8225
▁Tamme	-8226
▁baasi	-8227
▁hoiak	-8228
▁meest	-8229
▁tõhusa	-8230
äbirääki	-8231
▁käivita	-8232
▁lükatud	-8233
▁rahastus	-8234
▁liikumine	-8235
▁lisandväär	-8236
▁kehtestatakse	-8237
pik	-8238
▁77	-8239
▁79	-8240
alade	-8241
▁Korbi	-8242
▁refer	-8243
▁andsid	-8244
▁tõsist	-8245
▁rehabil	-8246
▁tõlgenda	-8247
▁Seepärast	-8248
▁otsustama	-8249
▁selliseks	-8250
▁hääletamisele	-8251
rme	-8252
etöö	-8253
alune	-8254
stama	-8255
▁Seni	-8256
▁Tund	-8257
▁Halle	-8258
▁Sealt	-8259
▁rahas	-8260
▁trend	-8261
▁valmi	-8262
▁summat	-8263
perioodi	-8264
▁muutuda	-8265
▁nädalat	-8266
▁nominaal	-8267
▁regulaar	-8268
▁sellisest	-8269
▁komisjonid	-8270
▁riigihange	-8271
▁tagasihoid	-8272
▁väljendanud	-8273
▁investeering	-8274
jed	-8275
▁sümp	-8276
kkunud	-8277
▁kaetud	-8278
▁plaanid	-8279
iseeritud	-8280
vahendite	-8281
▁vastuvõe	-8282
▁moodustab	-8283
▁veebruari	-8284
▁võimalike	-8285
kindlustuse	-8286
▁72	-8287
ganda	-8288
nõude	-8289
tavas	-8290
▁peatü	-8291
▁pulti	-8292
▁rünna	-8293
keskust	-8294
▁number	-8295
▁odavam	-8296
haridust	-8297
▁Liidust	-8298
▁Sarapuu	-8299
▁garanti	-8300
▁hinnaga	-8301
▁tervist	-8302
▁tänasel	-8303
▁alustame	-8304
▁asjatund	-8305
▁lühikese	-8306
▁käitumine	-8307
▁ettekannet	-8308
▁koostamisel	-8309
▁vähendamise	-8310
▁välispoliitika	-8311
▁omavalitsustega	-8312
ale	-8313
kto	-8314
tut	-8315
teede	-8316
▁Sibul	-8317
▁käega	-8318
▁Paljud	-8319
▁jõudma	-8320
▁rahako	-8321
kõneleja	-8322
▁süüdist	-8323
▁Kivimägi	-8324
▁valimist	-8325
▁ülikooli	-8326
▁Kahtlemata	-8327
▁arusaamatu	-8328
▁võimalikku	-8329
öderatsiooni	-8330
▁Juha	-8331
▁lõpu	-8332
▁Pevku	-8333
▁kevad	-8334
▁küber	-8335
▁surma	-8336
vastane	-8337
▁endise	-8338
▁jätkab	-8339
▁käituda	-8340
▁planeer	-8341
▁riigilt	-8342
▁vaadake	-8343
▁Hallemaa	-8344
▁liiguvad	-8345
▁puuduvad	-8346
▁vastamise	-8347
▁koolilõuna	-8348
▁kvaliteeti	-8349
▁reguleerib	-8350
▁valimisring	-8351
hul	-8352
Nagu	-8353
ilma	-8354
▁Euro	-8355
▁keeru	-8356
▁nägem	-8357
▁pikem	-8358
▁püüda	-8359
aliseer	-8360
▁minule	-8361
▁õnneks	-8362
▁arutlusel	-8363
▁lahendama	-8364
▁positiivset	-8365
▁põllumajanduse	-8366
sõnu	-8367
▁26.	-8368
▁päh	-8369
konto	-8370
▁Maks	-8371
▁arvad	-8372
▁koost	-8373
▁asunud	-8374
▁kahest	-8375
▁Eelmise	-8376
▁esineja	-8377
▁lapsega	-8378
▁tekitas	-8379
keskkonda	-8380
▁diislikü	-8381
▁kehtinud	-8382
▁kuritarv	-8383
▁haldusalas	-8384
▁Prantsusmaa	-8385
▁konverentsi	-8386
▁omavalitsusel	-8387
▁nu	-8388
▁ren	-8389
vesta	-8390
▁puhk	-8391
▁uhke	-8392
▁hukka	-8393
▁esitan	-8394
▁käesole	-8395
▁tulemas	-8396
Vabariigi	-8397
▁autorite	-8398
▁millisel	-8399
▁tegutseb	-8400
▁üleüldse	-8401
▁stsenaari	-8402
▁vähemasti	-8403
▁maailmavaa	-8404
▁dokumentide	-8405
▁rakendamine	-8406
▁fraktsioonidel	-8407
▁mü	-8408
hkel	-8409
▁Üht	-8410
valda	-8411
▁püha	-8412
gramme	-8413
ritest	-8414
▁Ometi	-8415
▁kõlab	-8416
uväärne	-8417
▁loogil	-8418
▁kinnitab	-8419
▁tingimata	-8420
▁tuginedes	-8421
▁menetlemine	-8422
▁62	-8423
edel	-8424
rühm	-8425
▁Hol	-8426
▁Koo	-8427
Kalle	-8428
▁tsen	-8429
▁jookse	-8430
▁kolmel	-8431
▁krooni	-8432
▁vaadatud	-8433
▁kasvatada	-8434
▁kriitikat	-8435
▁seletuskiri	-8436
 2	-8437
msi	-8438
akte	-8439
gile	-8440
▁31.	-8441
▁Ken	-8442
▁Mõn	-8443
▁eil	-8444
ladim	-8445
▁rohk	-8446
▁Laine	-8447
▁asjas	-8448
▁maade	-8449
▁eurost	-8450
tulundus	-8451
▁isikuid	-8452
▁märgitud	-8453
▁uuringud	-8454
▁töötajaid	-8455
▁võrdõigus	-8456
▁Riigikogul	-8457
▁saavutatud	-8458
▁tööjõumaks	-8459
▁majanduslikult	-8460
▁28.	-8461
▁Teise	-8462
▁hääli	-8463
▁õhtul	-8464
▁selgem	-8465
▁päevakord	-8466
▁teinekord	-8467
▁asjakohane	-8468
▁Or	-8469
mere	-8470
▁50%	-8471
▁geo	-8472
▁Kõva	-8473
▁Taha	-8474
Eestis	-8475
▁Päris	-8476
ladimir	-8477
▁meeste	-8478
▁pagula	-8479
▁Oluline	-8480
▁piinlik	-8481
▁pretsed	-8482
▁tahaksid	-8483
Kõigepealt	-8484
insuskaitse	-8485
▁Vassiljevi	-8486
▁missioonil	-8487
▁bürokraatia	-8488
▁Maaeluminist	-8489
▁infrastruktuuri	-8490
tid	-8491
komp	-8492
sena	-8493
terin	-8494
▁tõhus	-8495
▁ühesu	-8496
uregist	-8497
▁järsku	-8498
vabaduse	-8499
▁euroala	-8500
▁sihtasu	-8501
▁takista	-8502
programmi	-8503
▁ilusasti	-8504
▁tänapäeval	-8505
koalitsiooni	-8506
▁24.	-8507
▁tuule	-8508
▁õigem	-8509
▁algatab	-8510
▁kasutan	-8511
▁vaidlusi	-8512
▁intensiiv	-8513
▁perearsti	-8514
▁eesmärgiks	-8515
▁võimaluste	-8516
emõ	-8517
melt	-8518
võrk	-8519
▁ases	-8520
▁Mikko	-8521
▁Valga	-8522
▁niigi	-8523
▁parima	-8524
▁sügava	-8525
▁numbrid	-8526
▁pooleli	-8527
▁oktoobri	-8528
▁seadustes	-8529
kil	-8530
▁IM	-8531
tude	-8532
ikesk	-8533
▁juul	-8534
▁lõuna	-8535
▁renov	-8536
▁sattu	-8537
▁tooma	-8538
▁Ühelt	-8539
kulusid	-8540
▁poolel	-8541
▁üksiki	-8542
▁aprilli	-8543
▁avaldus	-8544
▁paistab	-8545
▁tähendaks	-8546
▁66	-8547
iive	-8548
leppe	-8549
▁Käes	-8550
▁õlle	-8551
damine	-8552
matuse	-8553
reklaa	-8554
▁täiel	-8555
▁vasak	-8556
▁Leedus	-8557
▁Loodan	-8558
▁pangad	-8559
▁pooled	-8560
▁Maruste	-8561
▁eriarst	-8562
▁palgata	-8563
tamiskava	-8564
▁esimesed	-8565
▁osakaalu	-8566
▁riiklikult	-8567
▁liikmesriigid	-8568
kval	-8569
sist	-8570
▁arma	-8571
▁jama	-8572
nevalt	-8573
▁asuda	-8574
▁miski	-8575
lastele	-8576
▁Partsi	-8577
▁mujalt	-8578
▁näited	-8579
▁sõbrad	-8580
▁osutada	-8581
▁rahaline	-8582
▁maksuamet	-8583
▁lähiaastatel	-8584
1,	-8585
kuul	-8586
plan	-8587
vist	-8588
iajal	-8589
▁igaü	-8590
▁Hääle	-8591
▁lubas	-8592
▁Mihkel	-8593
▁ohtlik	-8594
▁vangla	-8595
statakse	-8596
▁valinud	-8597
▁Assamble	-8598
▁kummaline	-8599
▁eesmärkide	-8600
▁hinnanguid	-8601
▁kriteerium	-8602
▁moodustada	-8603
▁seisukohale	-8604
keti	-8605
▁Vel	-8606
▁vigu	-8607
kordse	-8608
▁ajate	-8609
ohutuse	-8610
▁akadee	-8611
▁dialoo	-8612
▁eeldus	-8613
▁koguda	-8614
▁määrus	-8615
▁mõlema	-8616
▁turist	-8617
▁astunud	-8618
▁kiirabi	-8619
▁lähtuma	-8620
▁Eelkõige	-8621
▁maksmise	-8622
▁protsend	-8623
▁Venemaaga	-8624
▁suuremaks	-8625
poliitiline	-8626
▁Sisuliselt	-8627
▁tagamiseks	-8628
▁II	-8629
▁11,	-8630
etkel	-8631
▁Kinn	-8632
▁heit	-8633
▁uues	-8634
ikaasa	-8635
▁pidur	-8636
koostöö	-8637
ktorite	-8638
▁Kersna	-8639
▁meeles	-8640
▁trahvi	-8641
▁Põhjama	-8642
▁aruanne	-8643
▁ühtemoodi	-8644
▁asespiiker	-8645
▁praeguseks	-8646
▁südametunn	-8647
▁eelkõneleja	-8648
geda	-8649
õude	-8650
▁29.	-8651
▁vaate	-8652
oetuste	-8653
▁Rannar	-8654
▁Tundub	-8655
▁andmeb	-8656
▁mainis	-8657
▁sätted	-8658
▁väikse	-8659
▁ütelda	-8660
seaduses	-8661
▁Millest	-8662
▁aidanud	-8663
▁koosneb	-8664
▁Aaviksoo	-8665
▁tegelenud	-8666
▁õpetajaid	-8667
▁suurepärane	-8668
▁tingimustel	-8669
pä	-8670
rän	-8671
▁ER	-8672
▁His	-8673
▁Allik	-8674
▁globa	-8675
▁range	-8676
▁asuvad	-8677
▁diskute	-8678
▁juhitud	-8679
▁pakkuma	-8680
▁võrdsed	-8681
kontrolli	-8682
▁teadmine	-8683
▁ministril	-8684
▁süsteemis	-8685
▁tekitatud	-8686
▁kohustatud	-8687
▁tegevuskava	-8688
▁praktiliselt	-8689
Sa	-8690
▁63	-8691
gent	-8692
▁riskid	-8693
▁tundus	-8694
▁töötle	-8695
valiselt	-8696
▁alustan	-8697
▁kehtest	-8698
▁koormus	-8699
▁suurust	-8700
erimiseks	-8701
▁ainuüksi	-8702
▁piirkond	-8703
▁politsein	-8704
▁kompromiss	-8705
▁teadlikult	-8706
▁fraktsioonis	-8707
EB	-8708
Võ	-8709
rg	-8710
hat	-8711
ikor	-8712
▁Kir	-8713
▁Sih	-8714
▁ent	-8715
ikool	-8716
jõudu	-8717
randi	-8718
▁tööh	-8719
dusega	-8720
konsen	-8721
▁Jälle	-8722
▁Põlva	-8723
▁asume	-8724
▁kanal	-8725
asutuse	-8726
▁kaugelt	-8727
▁olemuse	-8728
iminister	-8729
▁lepingut	-8730
▁olukordi	-8731
▁kandidaadi	-8732
▁vastuvõtmiseks	-8733
▁8,	-8734
▁VII	-8735
imetsa	-8736
▁Kalvi	-8737
▁algul	-8738
▁kange	-8739
lastega	-8740
▁prokur	-8741
▁sajand	-8742
▁ametiüh	-8743
▁eelista	-8744
▁valijate	-8745
ker	-8746
mne	-8747
aega	-8748
vali	-8749
▁Ann	-8750
▁Kur	-8751
▁ori	-8752
ember	-8753
▁seos	-8754
davalt	-8755
▁heade	-8756
▁juhib	-8757
▁juhus	-8758
▁rikka	-8759
teenust	-8760
▁küsime	-8761
▁iseloom	-8762
▁kasutus	-8763
▁telefon	-8764
▁nimekiri	-8765
▁hindamise	-8766
▁küsitakse	-8767
▁pädevuses	-8768
▁äriühingu	-8769
▁otsustatud	-8770
▁analüüsinud	-8771
▁põhimõtteid	-8772
▁põhimõttest	-8773
▁õiguskaitse	-8774
▁konstruktiiv	-8775
▁kooskõlastus	-8776
▁opositsioonis	-8777
rvu	-8778
▁Hä	-8779
eelis	-8780
▁Nutt	-8781
▁ajas	-8782
komite	-8783
▁ammend	-8784
▁koduma	-8785
▁mõnele	-8786
▁panuse	-8787
▁vabadus	-8788
▁väljast	-8789
▁kohtunud	-8790
▁milliste	-8791
▁tegelnud	-8792
▁nõusoleku	-8793
▁välistada	-8794
▁üleskutse	-8795
▁tegeldakse	-8796
▁põhiseadust	-8797
▁kättesaadavad	-8798
▁parandamiseks	-8799
aldu	-8800
kaid	-8801
märg	-8802
▁alal	-8803
▁kena	-8804
▁kerg	-8805
iskaal	-8806
▁tegite	-8807
▁edasise	-8808
▁asutused	-8809
▁kehtetuks	-8810
▁rõhutanud	-8811
▁Presidendi	-8812
▁moodustavad	-8813
▁bürokraatiat	-8814
▁150	-8815
▁lüü	-8816
oetus	-8817
▁Aust	-8818
▁Tehn	-8819
▁sadu	-8820
▁Eelar	-8821
▁esialg	-8822
▁salaja	-8823
▁nagunii	-8824
▁abikaasa	-8825
▁kokkulepp	-8826
▁sellisele	-8827
▁ülevaadet	-8828
▁negatiivne	-8829
▁põllumehed	-8830
▁teadaolevalt	-8831
▁rahvasaadikud	-8832
▁seletuskirjast	-8833
ppu	-8834
Mina	-8835
miga	-8836
▁Hii	-8837
▁jms	-8838
enist	-8839
matus	-8840
kohustus	-8841
▁edukalt	-8842
▁klassik	-8843
▁numbrit	-8844
▁analüüse	-8845
▁ülalpida	-8846
▁kuritegude	-8847
▁tõstetakse	-8848
▁vähenemine	-8849
▁järjekorras	-8850
eep	-8851
olt	-8852
Väga	-8853
ksti	-8854
mõju	-8855
▁Olu	-8856
rikku	-8857
▁Taga	-8858
rahast	-8859
ustaks	-8860
▁Keele	-8861
▁infla	-8862
▁võeta	-8863
▁ühtne	-8864
ilisest	-8865
▁elatis	-8866
▁enamus	-8867
▁sümpaa	-8868
▁Sellisel	-8869
▁dokumente	-8870
▁kohalikul	-8871
▁valdkondi	-8872
▁korrakaitse	-8873
õidu	-8874
tuvad	-8875
▁Aval	-8876
▁pisi	-8877
▁õpet	-8878
eaasta	-8879
semaid	-8880
▁mitut	-8881
▁põgen	-8882
▁põgus	-8883
▁vaeva	-8884
mistest	-8885
▁piiril	-8886
▁retoor	-8887
▁kapital	-8888
kampaania	-8889
▁prognoos	-8890
▁vahetult	-8891
▁eelarvega	-8892
▁kohustuslik	-8893
ves	-8894
terv	-8895
itaar	-8896
uning	-8897
▁Kuts	-8898
▁Tegu	-8899
enevad	-8900
oetust	-8901
▁Metso	-8902
▁seksu	-8903
stamine	-8904
▁abista	-8905
▁aitama	-8906
▁näitas	-8907
▁arstide	-8908
▁hoolitse	-8909
▁kohalikku	-8910
▁parlamenti	-8911
▁saavutanud	-8912
▁sissemakse	-8913
▁inimõiguste	-8914
▁delegatsiooni	-8915
obje	-8916
nevad	-8917
▁Kagu	-8918
▁Mõle	-8919
▁häält	-8920
▁laulu	-8921
▁leiti	-8922
▁maini	-8923
▁treen	-8924
▁viisa	-8925
▁ähvar	-8926
▁Põhjus	-8927
▁kõigis	-8928
▁parane	-8929
▁poolte	-8930
▁tookord	-8931
▁tulusid	-8932
▁ühtlasi	-8933
▁sõnastus	-8934
▁elementaar	-8935
▁lahendamise	-8936
ohv	-8937
▁74	-8938
imus	-8939
vane	-8940
▁Jaa	-8941
▁nut	-8942
teema	-8943
ustav	-8944
▁häbi	-8945
▁pähe	-8946
▁rahv	-8947
üsimus	-8948
▁igaks	-8949
vanemad	-8950
▁eurots	-8951
▁piirid	-8952
▁väitis	-8953
jalikult	-8954
▁arstiabi	-8955
▁mäletate	-8956
▁registri	-8957
▁saadetud	-8958
▁üheskoos	-8959
Too	-8960
gad	-8961
Kuna	-8962
▁Haa	-8963
▁Meri	-8964
▁Võim	-8965
▁hull	-8966
▁stre	-8967
▁värsk	-8968
▁kombel	-8969
▁madalam	-8970
▁pankade	-8971
▁väikeste	-8972
▁käitumist	-8973
▁realiseer	-8974
▁kokkulepet	-8975
▁kõrgharidus	-8976
▁muudatusega	-8977
▁situatsioon	-8978
▁arupärimiste	-8979
▁maksimaalselt	-8980
sead	-8981
▁Tul	-8982
alast	-8983
▁muus	-8984
▁Asume	-8985
▁pidas	-8986
▁hilise	-8987
▁kommer	-8988
Alustame	-8989
▁kantsle	-8990
▁kestnud	-8991
▁koolita	-8992
▁palgast	-8993
▁sarnane	-8994
Virumaale	-8995
▁mõtlesin	-8996
▁valmistatud	-8997
▁põllumeestele	-8998
aval	-8999
▁bör	-9000
tsuse	-9001
▁Rait	-9002
tamata	-9003
▁Muuse	-9004
▁astme	-9005
▁elame	-9006
▁kuule	-9007
▁mõõde	-9008
▁nurga	-9009
▁pildi	-9010
▁välju	-9011
▁öelge	-9012
▁finant	-9013
▁mobiil	-9014
▁määrab	-9015
▁osaleb	-9016
▁osanud	-9017
▁fiskaal	-9018
▁saatnud	-9019
▁väitnud	-9020
▁Vladimir	-9021
▁sisaldab	-9022
▁arvamused	-9023
▁teenistus	-9024
▁volikogus	-9025
▁juhtimisel	-9026
▁konkurents	-9027
▁stabiilsus	-9028
▁Ühendriikide	-9029
liin	-9030
▁ostu	-9031
korrad	-9032
setele	-9033
▁Repsi	-9034
▁kahes	-9035
koolide	-9036
päevaks	-9037
▁nägema	-9038
▁teenib	-9039
▁tiheda	-9040
▁Ütleme	-9041
▁akadeem	-9042
▁elanikud	-9043
▁paljuski	-9044
▁väärtust	-9045
▁allapoole	-9046
▁isikutele	-9047
▁kümneminut	-9048
▁tagajärjel	-9049
▁tunnustada	-9050
▁täiendamise	-9051
▁valdkondade	-9052
gime	-9053
kasu	-9054
kula	-9055
gaasi	-9056
▁ülem	-9057
▁sisust	-9058
▁töötas	-9059
▁teemast	-9060
▁niipalju	-9061
▁tööturul	-9062
▁õnnestub	-9063
▁panustama	-9064
▁transpord	-9065
▁koostamise	-9066
▁fikseeritud	-9067
▁poliitikute	-9068
▁pensionäride	-9069
andid	-9070
▁meeld	-9071
▁märka	-9072
▁naisi	-9073
▁psühh	-9074
aktsiis	-9075
▁hädava	-9076
▁kardan	-9077
▁mujale	-9078
▁Metsoja	-9079
▁aktsiis	-9080
▁Randjärv	-9081
poliitikast	-9082
▁määratakse	-9083
▁õiguskomisjonis	-9084
õli	-9085
▁59	-9086
alus	-9087
▁Vir	-9088
▁kiri	-9089
▁nenti	-9090
▁tuden	-9091
▁tasuks	-9092
▁võrdne	-9093
▁asemele	-9094
▁korrale	-9095
▁maakond	-9096
▁sekkuda	-9097
▁toimuda	-9098
▁riiklike	-9099
▁täitmist	-9100
▁personali	-9101
▁rahvahääle	-9102
▁liikmesriigi	-9103
▁kommenteerite	-9104
▁tugispetsialist	-9105
mre	-9106
inõu	-9107
välja	-9108
▁Arno	-9109
konnaa	-9110
setest	-9111
▁vabad	-9112
▁kohast	-9113
▁massil	-9114
▁suurim	-9115
▁maksnud	-9116
▁õpilast	-9117
▁garantii	-9118
▁koefitsi	-9119
▁lubadusi	-9120
▁nõukogud	-9121
▁seakasva	-9122
▁suudetud	-9123
▁tõstmise	-9124
▁tuhandeid	-9125
▁27.	-9126
▁Eda	-9127
▁Mer	-9128
–2020	-9129
▁Iraa	-9130
dividu	-9131
jategi	-9132
▁läksid	-9133
▁omandi	-9134
▁otsast	-9135
▁täitsa	-9136
▁asutust	-9137
teenuseid	-9138
▁arutusel	-9139
▁oleksite	-9140
▁tõusevad	-9141
▁nimetasin	-9142
▁kinnitamise	-9143
klas	-9144
▁tih	-9145
susele	-9146
▁õiged	-9147
Esimene	-9148
▁Kersti	-9149
▁ajaleh	-9150
▁arvame	-9151
▁jõuaks	-9152
▁tekita	-9153
ieelarve	-9154
▁Loodame	-9155
▁Postime	-9156
▁maamaks	-9157
▁selgust	-9158
▁energiat	-9159
▁individu	-9160
▁määranud	-9161
▁nüüdseks	-9162
valitsused	-9163
▁seepärast	-9164
▁väljaütle	-9165
▁leevendada	-9166
▁niisuguseid	-9167
▁kompenseerida	-9168
▁mittetulundus	-9169
▁tab	-9170
imõte	-9171
uroop	-9172
▁Infot	-9173
▁Saare	-9174
▁ehkki	-9175
elikuks	-9176
kümmend	-9177
▁Teiselt	-9178
▁Marrandi	-9179
▁ebamõist	-9180
▁paremaid	-9181
ettevõtete	-9182
▁kaalutlus	-9183
▁kategoori	-9184
mismissioon	-9185
▁tõstatatud	-9186
▁universaal	-9187
▁maaeluminister	-9188
▁120	-9189
▁pel	-9190
isalt	-9191
▁Maja	-9192
▁absur	-9193
▁seost	-9194
▁tsita	-9195
ressiiv	-9196
▁poolda	-9197
▁siduda	-9198
▁Marianne	-9199
▁sularaha	-9200
▁sõnadega	-9201
▁ametikoha	-9202
▁millestki	-9203
▁Reformiera	-9204
▁konsensuslikud	-9205
kke	-9206
pse	-9207
▁5%	-9208
▁73	-9209
aale	-9210
koda	-9211
uure	-9212
▁näp	-9213
Raivo	-9214
pärase	-9215
udekki	-9216
▁mahtu	-9217
▁riiva	-9218
▁autonoo	-9219
▁pakendi	-9220
▁teemade	-9221
▁võtsime	-9222
▁juhtumit	-9223
▁vaesuses	-9224
▁heakskiit	-9225
▁pikendamine	-9226
▁häälteenamust	-9227
go	-9228
kohe	-9229
kodan	-9230
umäära	-9231
▁külge	-9232
▁raadi	-9233
▁uuele	-9234
iliseks	-9235
nõukogu	-9236
▁hõlmab	-9237
erimisega	-9238
▁arutasite	-9239
▁korraldus	-9240
▁muudatustega	-9241
▁vanemahüvitise	-9242
kast	-9243
▁võõ	-9244
▁2000	-9245
▁Kõne	-9246
▁lase	-9247
▁lüüa	-9248
▁vaat	-9249
▁kriis	-9250
kirjuta	-9251
▁illega	-9252
▁piires	-9253
▁varjupa	-9254
▁juhtimis	-9255
▁kommenta	-9256
▁maksupet	-9257
▁perekond	-9258
▁tuletada	-9259
Rosimannus	-9260
▁aspektist	-9261
▁keskkonda	-9262
▁maksutõus	-9263
▁kompromissi	-9264
▁kodanikuühis	-9265
▁tegelikkuses	-9266
sä	-9267
aks	-9268
kite	-9269
▁aad	-9270
▁mig	-9271
▁veo	-9272
ikuus	-9273
likul	-9274
▁king	-9275
vamaks	-9276
▁teade	-9277
▁valija	-9278
▁isikule	-9279
▁arvestus	-9280
▁kommerts	-9281
▁varianti	-9282
ministriga	-9283
▁poliitiku	-9284
▁suhtumist	-9285
▁tegutsema	-9286
▁lapsevanema	-9287
▁menetlemist	-9288
▁ettepanekutega	-9289
iseer	-9290
ituks	-9291
kogul	-9292
▁2011	-9293
▁avan	-9294
▁maan	-9295
▁sõnul	-9296
Küsimus	-9297
▁Minule	-9298
▁laevad	-9299
▁vanuse	-9300
volikogu	-9301
▁soolise	-9302
▁taustal	-9303
õpetajate	-9304
▁Ukrainas	-9305
▁rahastada	-9306
▁territori	-9307
▁rehabilita	-9308
▁ettekandjat	-9309
▁ettevõtlust	-9310
PA	-9311
aga	-9312
õnn	-9313
Olen	-9314
itja	-9315
mala	-9316
astme	-9317
ideks	-9318
▁dipl	-9319
▁tõmb	-9320
kaardi	-9321
▁Erine	-9322
▁autor	-9323
▁loome	-9324
▁tunnen	-9325
▁välise	-9326
kultuuri	-9327
ustusega	-9328
▁kellelt	-9329
▁levinud	-9330
▁olümpia	-9331
▁seadnud	-9332
eerimiseks	-9333
seadustiku	-9334
▁Järgmisena	-9335
▁vajadusest	-9336
▁protseduuri	-9337
▁riigieelarvele	-9338
▁teoreetiliselt	-9339
dur	-9340
one	-9341
tvor	-9342
vaja	-9343
tkame	-9344
▁jälg	-9345
▁raie	-9346
eelnõu	-9347
▁Sinna	-9348
▁lahus	-9349
▁rapor	-9350
▁kõlama	-9351
▁parand	-9352
olukorda	-9353
teeritud	-9354
▁tühista	-9355
perioodil	-9356
▁Kaskpeit	-9357
▁Venemaal	-9358
▁isikliku	-9359
▁lõpetati	-9360
▁kohtunike	-9361
▁pensionid	-9362
▁vähenevad	-9363
▁1,5	-9364
itule	-9365
emõtte	-9366
kohast	-9367
▁bussi	-9368
▁ilusa	-9369
▁piisab	-9370
▁samaks	-9371
▁vähegi	-9372
▁Eelnõus	-9373
▁Sesteri	-9374
▁olevaid	-9375
▁keskmist	-9376
▁konkursi	-9377
▁sisulisi	-9378
▁pagulaste	-9379
▁lastevanema	-9380
▁väljastpoolt	-9381
▁keskkonnatasude	-9382
inf	-9383
käi	-9384
nia	-9385
tage	-9386
adest	-9387
▁Hols	-9388
konnan	-9389
nduste	-9390
▁Ameti	-9391
▁ajale	-9392
▁bensi	-9393
▁eurole	-9394
▁hoidma	-9395
▁senise	-9396
▁sisuga	-9397
▁suunda	-9398
▁kuuluda	-9399
▁muutuks	-9400
▁mõistes	-9401
▁kuulanud	-9402
▁eestlased	-9403
▁vastasite	-9404
▁abipolitse	-9405
▁koalitsioonil	-9406
▁seaduseelnõus	-9407
Re	-9408
pü	-9409
oko	-9410
▁Es	-9411
eksa	-9412
koot	-9413
▁Rak	-9414
▁kih	-9415
ikuse	-9416
palka	-9417
▁näed	-9418
▁korja	-9419
▁Ainult	-9420
▁Soovin	-9421
tamisest	-9422
▁punktid	-9423
▁raamist	-9424
▁teadnud	-9425
▁harjunud	-9426
▁linnapea	-9427
▁peredele	-9428
▁õpilased	-9429
▁pensionit	-9430
▁tarbimist	-9431
▁keerulisem	-9432
▁niisugused	-9433
▁kokkuvõttes	-9434
▁peretoetuste	-9435
asartmängumaksu	-9436
IA	-9437
Üks	-9438
adel	-9439
tute	-9440
▁600	-9441
itega	-9442
▁huma	-9443
▁Haige	-9444
▁massi	-9445
▁tegin	-9446
jõudude	-9447
▁kergem	-9448
▁kiirla	-9449
▁lootus	-9450
▁lõikes	-9451
▁märkus	-9452
▁palume	-9453
▁tingim	-9454
▁pikemat	-9455
Kindlasti	-9456
valimiste	-9457
▁Vähemalt	-9458
▁liikunud	-9459
▁tavaline	-9460
▁esitasime	-9461
▁kujundada	-9462
▁riikidele	-9463
▁Ühesõnaga	-9464
▁protsessis	-9465
▁reageerida	-9466
▁vahendusel	-9467
▁poliitilisi	-9468
▁vahenditest	-9469
▁maavalitsuste	-9470
50	-9471
sega	-9472
uble	-9473
▁Uus	-9474
▁sor	-9475
liste	-9476
vates	-9477
▁pers	-9478
▁Kuula	-9479
▁integ	-9480
▁neilt	-9481
▁näida	-9482
▁taset	-9483
▁lisatud	-9484
▁mõistan	-9485
▁vaesuse	-9486
▁kodanikele	-9487
▁kriitiline	-9488
pt	-9489
mmi	-9490
mor	-9491
▁VEB	-9492
▁õhku	-9493
▁mõjub	-9494
▁võtke	-9495
▁sihtas	-9496
▁ekspert	-9497
▁koolitus	-9498
▁kuulates	-9499
▁rahalist	-9500
▁tullakse	-9501
▁väitsite	-9502
▁arutelude	-9503
▁kallimaks	-9504
▁kohtlemise	-9505
▁väljamakse	-9506
▁Ettekandeks	-9507
▁positiivselt	-9508
jet	-9509
▁82	-9510
isuh	-9511
▁nur	-9512
▁paa	-9513
Priit	-9514
dekla	-9515
erime	-9516
▁Kuul	-9517
▁pile	-9518
▁seegi	-9519
partner	-9520
▁andeks	-9521
▁möödas	-9522
▁nägime	-9523
▁näidet	-9524
▁analoog	-9525
▁kaitsma	-9526
▁loomade	-9527
valdkonda	-9528
▁lepingud	-9529
▁vahetada	-9530
▁esimeseks	-9531
▁kogemused	-9532
▁mehhanism	-9533
▁põhjendus	-9534
▁vastuseks	-9535
haa	-9536
kib	-9537
▁14-	-9538
▁2007.	-9539
▁Taani	-9540
▁büroo	-9541
▁lauda	-9542
rahasta	-9543
▁edukas	-9544
▁jagune	-9545
▁palunud	-9546
▁peaksin	-9547
▁tubakat	-9548
▁Sellised	-9549
▁dokumendid	-9550
▁eesmärgiga	-9551
▁propaganda	-9552
▁Statistikaa	-9553
▁infosüsteemi	-9554
5,	-9555
doku	-9556
saar	-9557
elise	-9558
pendi	-9559
ürgen	-9560
▁Aasi	-9561
▁laul	-9562
▁veid	-9563
▁ärme	-9564
▁elust	-9565
▁endas	-9566
▁oskab	-9567
▁lastel	-9568
▁avaldas	-9569
▁erisood	-9570
▁hulgast	-9571
▁käituma	-9572
▁oodatud	-9573
▁pedagoo	-9574
▁protest	-9575
▁toimima	-9576
▁väärtpa	-9577
▁langenud	-9578
▁algatanud	-9579
▁arutelust	-9580
▁kaasnevad	-9581
▁määrusega	-9582
▁mõistliku	-9583
▁olemuselt	-9584
▁võimaldada	-9585
▁põllumeeste	-9586
daks	-9587
▁Eri	-9588
▁põr	-9589
▁Natu	-9590
▁Usun	-9591
▁halba	-9592
▁keera	-9593
▁loodi	-9594
▁annate	-9595
▁eraisi	-9596
▁häälte	-9597
▁kandma	-9598
▁meiega	-9599
▁sadama	-9600
▁tunneb	-9601
idetakse	-9602
põhiselt	-9603
▁edaspid	-9604
▁kasvama	-9605
▁laastus	-9606
▁õpetada	-9607
olukorras	-9608
võimalusi	-9609
▁põhikool	-9610
▁teadmisi	-9611
▁tegevuses	-9612
▁majanduses	-9613
▁otsustasime	-9614
▁maksusüsteemi	-9615
▁kättesaadavuse	-9616
nuks	-9617
▁bio	-9618
istev	-9619
meele	-9620
tlust	-9621
Jürgen	-9622
▁kuuluv	-9623
▁saatis	-9624
utatakse	-9625
▁Keskera	-9626
▁korrata	-9627
tsiooniga	-9628
▁Rõivasele	-9629
▁tööandjad	-9630
▁hädavajalik	-9631
▁ülesannetes	-9632
lend	-9633
roof	-9634
tunn	-9635
▁Kot	-9636
undit	-9637
▁andke	-9638
▁erald	-9639
▁hanki	-9640
kirjade	-9641
ktoober	-9642
planeer	-9643
▁maailm	-9644
alistele	-9645
▁kannata	-9646
▁otseses	-9647
▁palgaga	-9648
▁tänases	-9649
▁ükskord	-9650
▁isiklikku	-9651
▁operatiiv	-9652
▁palgalõhe	-9653
▁tehniline	-9654
▁valitsused	-9655
▁pikaajaline	-9656
▁ajakirjandus	-9657
kaa	-9658
kar	-9659
Jaan	-9660
Märt	-9661
ktri	-9662
seer	-9663
▁10,	-9664
jades	-9665
mmast	-9666
gupida	-9667
▁sobib	-9668
▁tarbe	-9669
▁vormi	-9670
useadus	-9671
▁toovad	-9672
ülikooli	-9673
▁esineda	-9674
▁panevad	-9675
▁ettevaat	-9676
▁huvitava	-9677
▁segadust	-9678
▁professor	-9679
▁Peaminister	-9680
hä	-9681
kuj	-9682
gede	-9683
taol	-9684
ikuga	-9685
▁aegu	-9686
eerime	-9687
eldada	-9688
▁Loone	-9689
▁täies	-9690
vahetus	-9691
▁minuga	-9692
▁partei	-9693
utustele	-9694
▁asjalik	-9695
▁kaasneb	-9696
▁pakuvad	-9697
▁kaotanud	-9698
▁Assamblee	-9699
▁seejuures	-9700
▁valitsusse	-9701
▁ettevõtetele	-9702
▁kõrghariduse	-9703
▁deklaratsiooni	-9704
kr	-9705
pon	-9706
lale	-9707
neda	-9708
▁Vits	-9709
▁heal	-9710
▁Tihti	-9711
▁duble	-9712
▁alused	-9713
▁kõneal	-9714
▁ligika	-9715
grammist	-9716
▁Simsoni	-9717
▁narkoot	-9718
▁nimetas	-9719
▁riigina	-9720
▁sätteid	-9721
▁hakkasid	-9722
▁kirjutas	-9723
▁menetleme	-9724
▁riigiamet	-9725
▁toetamise	-9726
▁ühinemise	-9727
▁infosüsteem	-9728
▁juriidiline	-9729
▁probleemist	-9730
▁spetsialiste	-9731
▁täpsustatakse	-9732
▁topeltkodakond	-9733
etul	-9734
▁emo	-9735
▁pah	-9736
kinud	-9737
äheda	-9738
▁sümb	-9739
▁tran	-9740
tasime	-9741
utraal	-9742
▁Muide	-9743
▁Teeme	-9744
▁ennet	-9745
▁kitse	-9746
▁prote	-9747
▁tonni	-9748
▁instru	-9749
▁Liiduga	-9750
▁Milling	-9751
▁keeleos	-9752
▁linnade	-9753
▁tekstis	-9754
▁üksinda	-9755
▁liikumis	-9756
▁sõjalise	-9757
▁töötatud	-9758
▁algatajad	-9759
▁jagatakse	-9760
▁kavatsete	-9761
▁tarbimise	-9762
▁Keskkonnaa	-9763
▁jõustumist	-9764
▁pensionide	-9765
▁sihtotstar	-9766
▁turvalisuse	-9767
▁mittetulundusüh	-9768
9,	-9769
▁ba	-9770
ikoh	-9771
▁Vee	-9772
▁sob	-9773
▁Pako	-9774
▁Vaat	-9775
bralik	-9776
▁nägin	-9777
▁omaos	-9778
▁tsent	-9779
▁Lõpuks	-9780
▁vajuta	-9781
▁üldosa	-9782
õiguslik	-9783
▁elavate	-9784
▁globaal	-9785
▁õppinud	-9786
▁direktor	-9787
▁kasutame	-9788
▁standard	-9789
▁kodukorra	-9790
▁kolmandik	-9791
▁miljonist	-9792
▁mõistetav	-9793
▁mõningaid	-9794
▁otsustavad	-9795
▁õigusemõist	-9796
▁kättesaadavust	-9797
mets	-9798
vata	-9799
endit	-9800
likum	-9801
▁Juhul	-9802
▁Süüri	-9803
▁fakti	-9804
▁arutab	-9805
▁jõustu	-9806
▁punkte	-9807
▁väikee	-9808
▁teemaks	-9809
▁edastanud	-9810
▁ekspertide	-9811
▁keskkonnas	-9812
▁käsitlenud	-9813
▁seadusmuudatus	-9814
mule	-9815
▁naf	-9816
võrku	-9817
▁ausa	-9818
▁kumb	-9819
▁norm	-9820
asutus	-9821
▁ideid	-9822
▁koond	-9823
▁tuhat	-9824
▁aastad	-9825
▁absurd	-9826
▁vaesus	-9827
▁raporti	-9828
▁enamikus	-9829
▁illegaal	-9830
▁koostada	-9831
▁tasandus	-9832
▁metoodika	-9833
▁toetamine	-9834
▁vajalikke	-9835
poliitilist	-9836
▁mõjuanalüü	-9837
▁protsessid	-9838
▁järjekordselt	-9839
▁põhjalikumalt	-9840
 3	-9841
püü	-9842
isus	-9843
kret	-9844
▁pur	-9845
kütuse	-9846
▁huvir	-9847
▁kogus	-9848
▁laias	-9849
ohvitse	-9850
▁jaotus	-9851
▁nõusta	-9852
▁osales	-9853
registri	-9854
▁reserve	-9855
▁Algataja	-9856
▁Tõnisson	-9857
▁kaitseks	-9858
▁kolmandal	-9859
▁põhjuseks	-9860
▁tervisele	-9861
▁volitatud	-9862
▁Haigekassa	-9863
▁valdkonnad	-9864
▁probleemile	-9865
▁Suurbritannia	-9866
jao	-9867
plo	-9868
öri	-9869
jusi	-9870
▁kop	-9871
ringi	-9872
rismi	-9873
▁inde	-9874
kusele	-9875
▁algas	-9876
▁liiku	-9877
▁energi	-9878
▁paigas	-9879
▁täpset	-9880
▁väikes	-9881
▁arendus	-9882
▁kogutud	-9883
▁tarvita	-9884
▁valikud	-9885
▁erinevat	-9886
▁jäetakse	-9887
▁moodusta	-9888
▁tohutult	-9889
▁võiksite	-9890
▁Saksamaal	-9891
▁seadustega	-9892
Ju	-9893
▁700	-9894
▁rad	-9895
▁ser	-9896
avald	-9897
dangu	-9898
▁Mati	-9899
bilise	-9900
ikindl	-9901
▁Teisi	-9902
▁peres	-9903
▁tehke	-9904
etulnud	-9905
▁jätame	-9906
▁kaotab	-9907
▁tempos	-9908
▁Arutelu	-9909
▁esitame	-9910
▁põhineb	-9911
korraldus	-9912
▁avaldatud	-9913
▁kinnipida	-9914
▁praktiline	-9915
▁konkreetses	-9916
▁moodustatud	-9917
▁mõistlikuks	-9918
▁olemasoleva	-9919
▁aktsiisimäära	-9920
▁Sen	-9921
▁osk	-9922
ieksa	-9923
inski	-9924
nneks	-9925
tades	-9926
▁veer	-9927
õnnest	-9928
▁Palju	-9929
▁andes	-9930
▁	-9931
e	-9932
a	-9933
i	-9934
s	-9935
t	-9936
u	-9937
l	-9938
n	-9939
k	-9940
o	-9941
d	-9942
m	-9943
r	-9944
v	-9945
g	-9946
,	-9947
h	-9948
p	-9949
j	-9950
ä	-9951
õ	-9952
.	-9953
ü	-9954
b	-9955
"	-9956
!	-9957
K	-9958
M	-9959
ö	-9960
A	-9961
S	-9962
E	-9963
R	-9964
T	-9965
0	-9966
P	-9967
V	-9968
1	-9969
f	-9970
-	-9971
L	-9972
?	-9973
2	-9974
N	-9975
H	-9976
J	-9977
 	-9978
–	-9979
5	-9980
I	-9981
3	-9982
O	-9983
4	-9984
6	-9985
:	-9986
7	-9987
9	-9988
8	-9989
Ü	-9990
%	-9991
U	-9992
c	-9993
)	-9994
(	-9995
B	-9996
