<unk>	0
<s>	0
</s>	0
,	-2.78257
.	-3.27172
▁on	-3.6681
▁ja	-4.16239
▁et	-4.16871
▁ei	-4.4626
▁	-4.47283
s	-4.74496
!	-4.76507
▁"	-4.85485
▁see	-4.92017
t	-4.94386
▁ka	-4.96024
d	-5.00098
st	-5.13458
▁kui	-5.21606
e	-5.27228
le	-5.28088
l	-5.3309
▁seda	-5.34348
▁siis	-5.38431
i	-5.3896
▁ole	-5.40372
-	-5.41297
ga	-5.42007
▁selle	-5.48483
▁me	-5.4894
▁ma	-5.55157
ks	-5.60905
▁mis	-5.63332
▁või	-5.66306
▁Ma	-5.73108
!"	-5.73901
Aitäh	-5.78765
▁väga	-5.80534
te	-5.80547
▁Eesti	-5.82379
▁aga	-5.87233
▁eelnõu	-5.88225
."	-5.91825
▁Riigikogu	-5.97754
id	-5.98177
▁oma	-5.98879
?	-5.9918
▁te	-6.10161
▁See	-6.11767
▁oli	-6.11921
da	-6.16722
▁nii	-6.19123
▁palun	-6.19285
b	-6.21704
ma	-6.22764
▁–	-6.24067
▁kes	-6.25726
▁kas	-6.29312
▁Aga	-6.32764
▁Kui	-6.34895
lt	-6.3636
▁siin	-6.37119
▁meie	-6.40709
▁mitte	-6.4237
▁Kas	-6.44375
▁need	-6.45401
▁mida	-6.46519
▁välja	-6.47987
▁küsimus	-6.4837
de	-6.48397
ud	-6.49996
me	-6.51247
▁üle	-6.53539
a	-6.54011
▁olnud	-6.54612
▁seaduse	-6.55107
n	-6.55368
?"	-6.5614
▁oleks	-6.58265
ne	-6.61828
▁ning	-6.6318
▁palju	-6.64435
ta	-6.64466
vad	-6.64922
gi	-6.65068
▁võib	-6.65474
▁ta	-6.65935
▁vastu	-6.67872
▁neid	-6.67992
▁nagu	-6.68082
nud	-6.68764
▁kohta	-6.69621
mine	-6.69698
▁Palun	-6.69783
▁tuleb	-6.71259
▁nende	-6.71345
▁Euroopa	-6.7197
▁üks	-6.72422
:	-6.72755
▁aasta	-6.73098
▁veel	-6.73509
u	-6.75023
▁juhataja	-6.7556
▁teha	-6.76583
▁sellest	-6.76674
se	-6.78522
▁Me	-6.79007
▁hea	-6.79739
▁kus	-6.80408
▁meil	-6.80646
▁teie	-6.80805
tud	-6.81304
▁kõik	-6.81354
▁juba	-6.81763
▁eest	-6.82569
▁riigi	-6.82924
▁praegu	-6.83543
▁saa	-6.83991
na	-6.8418
▁muudatus	-6.85423
sse	-6.87262
▁raha	-6.88856
▁kuidas	-6.89938
▁kindlasti	-6.90427
ti	-6.91916
▁nad	-6.92894
▁ju	-6.92944
▁ära	-6.93327
▁minister	-6.93722
takse	-6.97741
▁mille	-6.97742
▁selles	-6.97947
▁ette	-6.98372
mist	-6.99741
▁võimalik	-6.99921
ki	-7.01817
m	-7.0205
▁peaks	-7.02995
▁oleme	-7.03424
▁rohkem	-7.04021
▁saab	-7.04878
r	-7.05813
▁arvan	-7.06498
▁minu	-7.07111
▁ettekandja	-7.07474
▁olla	-7.08807
mise	-7.09897
▁aastal	-7.12163
▁juurde	-7.12278
▁näiteks	-7.13765
▁Ja	-7.16103
▁Nii	-7.16218
▁Vabariigi	-7.16493
▁tegelikult	-7.1682
sid	-7.17207
▁kogu	-7.17471
▁olema	-7.18547
▁tagasi	-7.1857
▁Aitäh	-7.19258
▁nüüd	-7.20079
▁olen	-7.20387
▁ühe	-7.20395
▁aru	-7.20413
▁öelda	-7.21252
▁vaja	-7.21516
▁sest	-7.21704
▁ainult	-7.21952
▁küll	-7.22151
▁peab	-7.22759
▁seal	-7.23391
ni	-7.24141
▁vaid	-7.24315
▁teine	-7.25114
v	-7.25988
▁töö	-7.26925
des	-7.28096
▁Te	-7.29549
▁läbi	-7.29657
▁võiks	-7.29667
▁võtta	-7.318
▁selline	-7.31966
▁osa	-7.32541
▁midagi	-7.32909
▁lugemine	-7.32936
▁puhul	-7.32949
ja	-7.33522
▁Eestis	-7.34525
▁""	-7.34592
olla	-7.34852
▁Hea	-7.34945
▁küsimuse	-7.35254
▁härra	-7.35988
▁kolleegid	-7.3661
▁kokku	-7.37582
▁Liidu	-7.38585
▁sellega	-7.39136
ku	-7.39263
▁täna	-7.39496
▁suur	-7.40395
▁Lugupeetud	-7.41172
▁teile	-7.4216
▁kõige	-7.42346
▁ega	-7.43643
▁edasi	-7.44642
▁sellele	-7.44836
▁ikkagi	-7.44887
▁just	-7.46075
komisjoni	-7.46742
▁eurot	-7.46951
▁sa	-7.47646
▁küsimusi	-7.47851
h	-7.47967
▁inimesed	-7.48912
ed	-7.49738
o	-7.50434
▁peale	-7.50578
▁ise	-7.51188
▁muutmise	-7.51196
▁valitsus	-7.52022
▁Austat	-7.52175
▁ehk	-7.52322
▁olemas	-7.53005
▁poolt	-7.53875
is	-7.55251
▁selleks	-7.55407
va	-7.5569
k	-7.55713
▁komisjoni	-7.55934
ge	-7.56159
ka	-7.56199
es	-7.56206
▁fraktsiooni	-7.56964
▁riik	-7.56983
ke	-7.57781
▁Minu	-7.58285
▁Ka	-7.59084
▁miks	-7.59164
▁puudutab	-7.59814
▁enne	-7.60273
▁Mis	-7.61004
▁teema	-7.61251
▁enam	-7.61268
▁kolleeg	-7.6137
▁ajal	-7.61542
la	-7.61557
▁ettepanek	-7.62893
▁eelarve	-7.63705
▁saada	-7.64526
▁esimees	-7.65715
▁õigus	-7.66674
ri	-7.67222
▁pole	-7.67706
▁n	-7.68281
▁lihtsalt	-7.68433
line	-7.69193
▁Selle	-7.69455
▁pärast	-7.69731
▁saanud	-7.70373
▁tõesti	-7.70814
tu	-7.70867
▁üldse	-7.71505
ide	-7.72393
▁kaks	-7.73114
Austat	-7.73158
el	-7.73333
▁inimeste	-7.74257
▁päris	-7.744
▁hästi	-7.75173
▁asja	-7.76172
▁eri	-7.76345
""	-7.76384
▁tänu	-7.7673
▁seisukoht	-7.76947
▁Valitsuse	-7.78197
▁kord	-7.78461
▁olete	-7.78611
▁tema	-7.78721
▁asi	-7.78738
▁Seda	-7.78738
▁saalis	-7.79156
▁miljonit	-7.79919
▁juhul	-7.80119
▁iga	-7.80218
▁tehtud	-7.80576
▁esimene	-7.80592
▁sotsiaal	-7.80955
▁seadus	-7.8099
▁jooksul	-7.82239
▁teinud	-7.82375
▁majandus	-7.82891
▁korda	-7.83885
ministeeriumi	-7.83896
▁ettepaneku	-7.83954
▁tea	-7.84686
▁arutelu	-7.84866
ö	-7.8539
est	-7.85563
▁olid	-7.86288
▁pea	-7.86396
▁teada	-7.86404
▁anda	-7.86444
▁aastat	-7.8655
▁nimel	-7.87119
ra	-7.87147
▁kaasa	-7.87444
▁poole	-7.87829
▁valitsuse	-7.87924
▁seotud	-7.88042
▁mul	-7.8807
ä	-7.88078
▁keegi	-7.88122
▁teise	-7.8829
▁eesistuja	-7.88298
▁koos	-7.89501
test	-7.89566
ega	-7.90222
▁Head	-7.90543
▁e	-7.90553
▁oluline	-7.91016
re	-7.91047
▁minutit	-7.91543
▁jaoks	-7.92524
in	-7.92873
▁siiski	-7.9299
▁aeg	-7.93225
li	-7.93785
▁aja	-7.94041
si	-7.94097
▁mina	-7.94113
▁soovi	-7.94558
▁inimesi	-7.94616
▁hääletada	-7.9484
▁teatud	-7.9489
▁otsuse	-7.95351
ü	-7.95863
▁seaduseelnõu	-7.96529
▁järgi	-7.96533
▁elu	-7.96567
us	-7.96938
▁tuleks	-7.97837
▁läheb	-7.98337
p	-7.98885
▁probleem	-7.98925
▁mõttes	-7.99169
▁peaminister	-7.99185
▁algatatud	-7.99221
▁arvates	-7.99571
▁täiesti	-7.99613
▁mingi	-7.99638
▁esitatud	-7.99644
▁a	-7.9978
▁Sotsiaal	-8.0021
▁istungi	-8.00548
▁selge	-8.00596
▁mõju	-8.00863
▁võimalus	-8.00966
▁tegemist	-8.011
tele	-8.01206
▁isegi	-8.01452
▁teiste	-8.01592
sin	-8.01709
▁meile	-8.02235
▁õige	-8.03203
▁Mul	-8.03316
▁On	-8.03316
▁(	-8.03318
▁ikka	-8.03408
seaduse	-8.03528
▁ongi	-8.03773
▁aega	-8.04067
▁tähendab	-8.04076
▁Need	-8.04792
▁sellist	-8.05089
ettepaneku	-8.05206
mis	-8.05664
▁sõna	-8.05902
▁jääb	-8.05921
▁liiget	-8.06082
Ma	-8.06524
miseks	-8.06644
▁valmis	-8.06875
▁lugupeetud	-8.07006
0	-8.07092
▁tähelepanu	-8.07989
▁kuna	-8.08189
▁alla	-8.08202
tes	-8.08292
▁saavad	-8.08326
tus	-8.08378
▁k	-8.0852
▁Mina	-8.09009
maks	-8.09764
▁Kuidas	-8.09825
▁kodu	-8.09891
gu	-8.10008
▁liikmed	-8.10392
▁peame	-8.10637
▁päevakorrapunkt	-8.10799
▁täpselt	-8.1102
▁otsus	-8.11308
▁esitanud	-8.11765
▁kolm	-8.12461
▁kahe	-8.1285
▁kuidagi	-8.1317
▁komisjonis	-8.13364
tada	-8.13625
▁korral	-8.13701
tel	-8.14051
▁sellise	-8.14063
▁Keskerakonna	-8.14075
▁eesmärk	-8.14433
▁kooli	-8.14527
▁nr	-8.14561
▁rääkida	-8.14596
▁Nüüd	-8.14772
▁Nagu	-8.15056
Hea	-8.15108
lise	-8.15148
▁natuke	-8.15418
Palun	-8.15507
▁Eelnõu	-8.15811
er	-8.159
▁inimene	-8.159
▁alati	-8.16004
1	-8.16155
vi	-8.1618
▁austatud	-8.16404
▁loomulikult	-8.1653
▁sama	-8.16807
2	-8.172
▁vähemalt	-8.17253
▁Ei	-8.1746
▁maa	-8.17486
▁kaitse	-8.17907
▁kuni	-8.17973
▁teeb	-8.18498
▁sinna	-8.18635
ele	-8.18884
5	-8.1914
▁euro	-8.19448
▁minna	-8.19544
▁000	-8.19693
▁kõnetooli	-8.20199
▁saaks	-8.20347
▁Meie	-8.20975
al	-8.21062
▁teil	-8.21228
sime	-8.21541
▁läbirääkimised	-8.21609
▁fraktsioon	-8.21633
▁sisse	-8.21841
pi	-8.22134
▁tööd	-8.22338
▁vahel	-8.22383
▁lisa	-8.22512
▁räägime	-8.23254
lik	-8.23256
▁laste	-8.23539
▁olukord	-8.23598
▁liikme	-8.23964
▁uue	-8.24513
▁huvi	-8.24986
▁vaadata	-8.25021
ettepanek	-8.25225
▁Ta	-8.2549
▁abi	-8.26047
▁sellel	-8.26104
▁peavad	-8.26291
▁Meil	-8.26584
▁üsna	-8.26693
poliitika	-8.27416
▁siia	-8.27509
▁eesti	-8.27557
▁haridus	-8.2773
▁all	-8.27739
il	-8.27751
Lugupeetud	-8.28125
▁toetust	-8.28336
▁tegema	-8.285
▁pool	-8.286
▁nõus	-8.28765
dega	-8.29378
▁ees	-8.29637
▁küsimust	-8.29701
ettepanekute	-8.30064
▁kinni	-8.30465
komisjon	-8.30644
▁kohtu	-8.30813
▁pigem	-8.30926
tega	-8.30973
it	-8.31095
▁enda	-8.31239
▁E	-8.31622
▁koalitsiooni	-8.31776
▁saame	-8.31938
▁probleemi	-8.32915
▁A	-8.32959
▁kell	-8.33068
▁taga	-8.3325
▁selgelt	-8.33578
▁mulle	-8.33807
▁ütlesin	-8.3393
▁Kindlasti	-8.34135
▁kultuuri	-8.34147
▁lõpetada	-8.34182
dest	-8.34236
▁keskkonna	-8.34277
▁saan	-8.34428
▁võetud	-8.34558
▁Siin	-8.34603
ministeerium	-8.34696
tav	-8.35041
▁alusel	-8.35162
▁tõepoolest	-8.35205
▁tuli	-8.35211
▁mitu	-8.35375
▁Miks	-8.35656
del	-8.35816
▁tõttu	-8.36197
▁piiri	-8.36453
▁väike	-8.36664
▁Tallinna	-8.36954
liku	-8.36991
selt	-8.37009
nd	-8.37086
▁millest	-8.37177
▁raske	-8.37401
▁maksu	-8.37408
▁muu	-8.37713
▁Praegu	-8.37857
▁panna	-8.3789
▁ütlen	-8.38185
nn	-8.38555
ar	-8.38729
▁põhiseadus	-8.38968
▁suurem	-8.39023
▁samuti	-8.39033
▁keele	-8.3907
▁omavalitsuste	-8.39126
4	-8.3919
ru	-8.392
▁S	-8.39543
f	-8.40234
▁sel	-8.40469
▁arvu	-8.40543
▁kohaliku	-8.40899
▁riigieelarve	-8.41015
▁summa	-8.41051
▁teid	-8.41346
▁muuta	-8.41505
▁ütles	-8.41699
Suur	-8.41742
▁kuid	-8.41742
▁mõistlik	-8.41832
▁kohaselt	-8.41927
▁vähem	-8.41989
▁küsin	-8.4201
▁tasu	-8.42073
▁tulevikus	-8.42105
▁kontrolli	-8.42153
6	-8.4225
▁liige	-8.42567
▁öelnud	-8.42699
▁palga	-8.42789
▁mõne	-8.42821
tuse	-8.42975
▁küsimusele	-8.43224
9	-8.43269
▁Samas	-8.43282
▁omavalitsuse	-8.43334
site	-8.43482
▁kasutada	-8.43516
▁neil	-8.43605
▁tahan	-8.43623
▁hakkab	-8.43669
▁neile	-8.43907
▁s	-8.44147
▁annab	-8.44289
▁jäänud	-8.44304
▁igal	-8.44335
▁üles	-8.44642
▁hääletusele	-8.44646
õ	-8.44899
▁kunagi	-8.45005
▁ümber	-8.45276
▁sisu	-8.45428
▁millega	-8.45572
▁esindaja	-8.45629
3	-8.46139
▁teame	-8.46539
▁rahandus	-8.46621
▁Üks	-8.46723
▁rahva	-8.46733
▁esimese	-8.46848
▁järgmise	-8.46849
ha	-8.46962
8	-8.47315
ve	-8.47673
he	-8.47721
▁muidugi	-8.48062
▁20	-8.48079
▁põhjus	-8.48114
▁mingit	-8.48195
▁ilma	-8.48202
▁istungil	-8.48218
▁teeme	-8.48416
▁kelle	-8.48658
▁tule	-8.48687
ist	-8.48696
7	-8.48714
maa	-8.48744
–	-8.48808
▁eriti	-8.4886
▁1.	-8.49051
▁meelest	-8.49117
▁Võib	-8.49735
sed	-8.49785
ndi	-8.4979
▁esitamise	-8.4993
▁tulnud	-8.50046
▁päeva	-8.50261
▁suure	-8.5029
▁umbes	-8.50409
▁asju	-8.50444
▁inimese	-8.50517
▁niimoodi	-8.50591
▁pean	-8.51136
▁varem	-8.51297
▁analüüsi	-8.5135
▁loodan	-8.51578
eid	-8.51604
▁nõukogu	-8.51605
as	-8.5181
▁mõni	-8.51821
▁arv	-8.51923
▁pa	-8.51927
▁tee	-8.51985
▁taha	-8.52057
▁põhi	-8.52157
an	-8.52409
▁oska	-8.52571
▁tehakse	-8.52978
▁kõiki	-8.52993
▁komisjon	-8.53247
ksid	-8.53329
▁esitada	-8.5336
▁Rahandus	-8.5347
▁proua	-8.53643
▁täielikult	-8.5386
▁head	-8.53915
▁kolme	-8.541
misel	-8.54412
list	-8.54635
▁tänan	-8.54754
ite	-8.54924
▁ühte	-8.54985
▁usun	-8.55039
▁küsija	-8.55207
▁ilmselt	-8.55216
oo	-8.5524
▁vaba	-8.55295
▁milline	-8.55573
▁jäi	-8.55614
▁Andres	-8.55695
▁seaduste	-8.5607
▁Muudatus	-8.56174
mu	-8.56375
liselt	-8.56576
▁hoopis	-8.56708
or	-8.56726
▁kohe	-8.56726
▁liiga	-8.56941
▁alkoholi	-8.56959
▁asjad	-8.56982
▁sai	-8.57253
▁vähe	-8.57319
Hääletustulemuse	-8.57359
pa	-8.57662
lu	-8.57712
▁toimub	-8.57761
▁h	-8.57811
▁kaudu	-8.57926
aja	-8.57937
▁süsteemi	-8.58211
liste	-8.58627
use	-8.58643
mata	-8.5881
▁Kõik	-8.58947
eri	-8.59074
▁tõsta	-8.59091
▁selliseid	-8.59158
▁pere	-8.59396
▁la	-8.5967
▁arvestada	-8.5979
misega	-8.59825
▁jne	-8.5987
▁Reformierakonna	-8.60104
▁küsida	-8.60196
ik	-8.60651
▁viia	-8.60736
▁võtnud	-8.60814
▁riigis	-8.60836
ad	-8.60852
du	-8.6089
▁eraldi	-8.61032
▁nimelt	-8.61428
▁tulla	-8.61579
▁Venemaa	-8.61584
▁tal	-8.61587
▁täiskogu	-8.61659
▁liikmete	-8.61962
▁olukorda	-8.62117
▁ütleb	-8.62117
▁Loomulikult	-8.63421
▁inimestele	-8.63449
Tänan	-8.63532
▁muud	-8.63642
▁vaatame	-8.63785
dele	-8.63935
tatud	-8.63977
▁lepingu	-8.64026
▁nendest	-8.64159
▁juhtivkomisjoni	-8.64285
▁luba	-8.64616
▁kuu	-8.649
▁leidnud	-8.65017
eks	-8.65051
▁hakkama	-8.65081
▁pidada	-8.65169
malt	-8.65185
▁riikide	-8.65193
▁Tegelikult	-8.65225
▁tuua	-8.65811
▁toeta	-8.6588
▁p	-8.66036
▁Riigikogus	-8.66171
▁ütlesite	-8.66197
▁Valitsus	-8.66397
▁Juhtivkomisjoni	-8.66602
▁tekib	-8.66779
sa	-8.66923
▁tegi	-8.67001
▁kümme	-8.67091
▁tervise	-8.67093
▁silmas	-8.67155
▁konkreetse	-8.67199
▁võimaluse	-8.67338
▁eelkõige	-8.67557
▁jätta	-8.67792
▁Jah	-8.67792
▁uus	-8.68405
mi	-8.68444
▁näha	-8.68777
▁sisuliselt	-8.68878
▁tähtajaks	-8.69281
▁re	-8.69317
▁Küsimus	-8.6935
▁näeme	-8.69583
▁sellepärast	-8.69652
▁pensioni	-8.69687
jad	-8.69736
▁läinud	-8.69964
▁ko	-8.70051
▁kirjas	-8.70145
▁arupärimise	-8.70494
▁läbirääkimisi	-8.70532
▁seadust	-8.7069
▁järgmisel	-8.70713
▁viis	-8.70801
ettepanekut	-8.70861
▁kuigi	-8.70893
tavad	-8.70896
▁käigus	-8.71173
▁tundub	-8.71302
▁välis	-8.71311
▁juttu	-8.71459
demokraatliku	-8.71607
▁15	-8.71674
S	-8.71763
▁lapse	-8.72014
▁hakata	-8.72182
▁endale	-8.72221
▁Kuna	-8.72338
▁Teine	-8.7235
vate	-8.72414
▁võime	-8.72495
▁jõudnud	-8.72725
▁Suur	-8.72782
▁kõigi	-8.72846
▁eelnõuga	-8.72913
ina	-8.73072
▁ennast	-8.73086
▁tohi	-8.73145
▁suhtes	-8.73216
nda	-8.73254
▁vale	-8.73393
tab	-8.73664
▁kohalike	-8.7368
▁hakka	-8.73717
▁omavalitsus	-8.73767
▁Rohkem	-8.73773
▁Näiteks	-8.7379
▁kulu	-8.73838
▁tegevus	-8.73844
ust	-8.73862
▁millised	-8.74104
ro	-8.7422
▁ühel	-8.74263
▁kuulu	-8.74413
▁teemal	-8.74471
▁parlamendi	-8.74638
▁alles	-8.74672
▁leida	-8.74751
▁eelmise	-8.74845
▁teemat	-8.74911
iga	-8.74933
▁meelde	-8.75134
▁ala	-8.75304
▁jah	-8.75502
jate	-8.75775
▁era	-8.75913
▁paremini	-8.76151
▁10	-8.76642
▁kellel	-8.76663
▁K	-8.76782
▁arvestamata	-8.76785
sti	-8.76874
▁miljoni	-8.76896
▁Kõigepealt	-8.76924
▁mind	-8.77086
▁juures	-8.77467
tamine	-8.77473
▁Aru	-8.77638
▁näe	-8.7781
▁parem	-8.78246
▁maha	-8.78525
▁hetkel	-8.78583
▁teist	-8.78693
▁kuhu	-8.78811
▁Jüri	-8.78843
▁hulgas	-8.78887
töö	-8.78927
▁Helme	-8.78939
▁vahe	-8.79146
▁ühtegi	-8.79278
▁käib	-8.79323
▁julgeoleku	-8.79422
▁sealt	-8.79749
▁vastata	-8.79759
komisjonis	-8.79832
▁T	-8.80267
▁vana	-8.8028
A	-8.80349
▁seoses	-8.80458
▁valimis	-8.80479
ba	-8.80532
ju	-8.80681
▁Teie	-8.80732
lisi	-8.80912
tava	-8.80933
▁võimalust	-8.81089
▁probleeme	-8.81092
▁peaksid	-8.81122
▁Mida	-8.81253
▁võivad	-8.81331
▁süsteem	-8.81338
▁natukene	-8.8181
▁õppe	-8.81916
▁osas	-8.8192
▁lisaaega	-8.82186
▁terve	-8.82193
▁sise	-8.82244
▁teised	-8.8226
▁inimest	-8.82352
▁kirja	-8.82438
▁oleksid	-8.82475
tanud	-8.82595
▁Erakonna	-8.82815
▁otsused	-8.82947
▁käest	-8.82975
▁antud	-8.82997
▁1	-8.83025
E	-8.83045
▁puudub	-8.83266
▁mõte	-8.83298
▁tänase	-8.83567
▁lähe	-8.83588
Head	-8.83603
▁küsimused	-8.83712
▁arengu	-8.83728
V	-8.83987
▁esimehe	-8.83989
ime	-8.84012
▁mõned	-8.84027
nu	-8.843
▁esindajad	-8.84396
▁lõpp	-8.84714
▁Nende	-8.84971
▁paljud	-8.84982
ile	-8.85105
▁Vabaerakonna	-8.85203
▁maksta	-8.85435
▁Sa	-8.85438
▁kahju	-8.85552
▁ava	-8.85558
▁öeldud	-8.85751
val	-8.85781
▁viimase	-8.85975
▁Komisjoni	-8.86036
▁ettekandjale	-8.86043
▁200	-8.86086
▁seni	-8.86092
▁omavalitsused	-8.86241
kas	-8.86265
▁teadus	-8.86443
▁tulevad	-8.8659
tama	-8.86697
▁riigikaitse	-8.86833
▁Ida	-8.86865
▁I	-8.87124
▁avaliku	-8.87219
▁kätte	-8.87347
▁nendele	-8.87431
▁sellised	-8.87435
▁eks	-8.87515
▁alus	-8.8758
ndus	-8.8774
▁toetada	-8.87952
g	-8.8796
▁vasta	-8.88004
▁mitme	-8.88049
▁tegu	-8.88082
laste	-8.88087
▁auto	-8.88169
▁piisavalt	-8.88174
▁va	-8.88217
▁kõne	-8.88347
▁ettepanekut	-8.88352
▁hääletas	-8.88402
mad	-8.88489
tamise	-8.88694
lised	-8.88897
▁peaksime	-8.89068
▁toetus	-8.892
▁Siis	-8.89236
▁tööle	-8.89662
▁tulu	-8.89715
▁lõpuks	-8.89872
▁kõigile	-8.90116
▁ameti	-8.90173
▁Selles	-8.90204
▁korras	-8.90215
▁lõppenud	-8.90258
ala	-8.9032
▁millele	-8.90535
ste	-8.9055
▁eba	-8.90727
▁kümne	-8.90878
▁kohal	-8.90936
ko	-8.90974
▁ettekande	-8.90987
▁mure	-8.91051
▁jälle	-8.91162
▁Täna	-8.9143
▁erakonna	-8.91701
▁meel	-8.91712
misest	-8.91772
likult	-8.91971
▁finants	-8.92045
▁seaduses	-8.92058
▁vi	-8.92092
▁edaspidi	-8.92233
▁õpetajate	-8.9233
)	-8.92594
▁siit	-8.92699
▁Teiseks	-8.93012
▁koostöö	-8.93068
dus	-8.93107
▁vajalik	-8.93291
to	-8.93374
▁ministri	-8.93379
O	-8.93412
▁Nad	-8.93419
▁too	-8.93543
▁Tartu	-8.93558
▁Avan	-8.93852
▁tegevuse	-8.93885
mas	-8.93968
▁isiku	-8.94141
▁töökorra	-8.94187
▁lugemise	-8.94265
ia	-8.94279
süsteemi	-8.94303
▁nelja	-8.94388
▁sinu	-8.94426
▁tulumaksu	-8.94458
▁hinna	-8.94841
▁pealt	-8.95165
▁nõu	-8.95438
▁kahjuks	-8.95731
vat	-8.95732
hu	-8.95932
▁määra	-8.95945
▁otsustas	-8.96094
▁põllumajandus	-8.96287
▁saama	-8.9638
ap	-8.96792
▁alates	-8.9687
▁erapooletuid	-8.96875
▁seetõttu	-8.96932
lus	-8.97005
▁reformi	-8.97042
▁peaministri	-8.9709
um	-8.9739
▁vastuse	-8.974
▁Väga	-8.97407
▁vist	-8.97559
▁kiiresti	-8.97945
▁küsimuses	-8.98127
▁maksma	-8.98146
▁lahendada	-8.98282
▁12	-8.98404
kaitse	-8.9848
▁ühiskonnas	-8.98599
▁uuesti	-8.9866
▁vii	-8.98683
▁Seetõttu	-8.98779
▁2	-8.98786
▁toime	-8.98841
▁otsuseid	-8.98863
▁panen	-8.99004
▁punkti	-8.99074
▁Küll	-8.99098
▁käi	-8.99184
▁teevad	-8.9932
▁tahame	-8.99391
lepingu	-8.99412
▁Ligi	-8.99452
▁aktsiisi	-8.99483
▁võimalusi	-8.99801
▁kuus	-8.99933
päeva	-8.99974
▁laenu	-9.00006
▁hoida	-9.00073
▁rahvusvahelise	-9.00175
▁otse	-9.00202
▁Sellest	-9.00667
lli	-9.00695
▁Soome	-9.00802
▁ministeeriumi	-9.00833
ng	-9.00921
▁jõu	-9.00973
▁9	-9.01074
on	-9.01108
at	-9.01139
▁võrreldes	-9.01205
tsi	-9.01218
▁Eks	-9.01371
ub	-9.01544
▁linna	-9.01654
▁tagada	-9.0168
▁Seal	-9.01813
ut	-9.01891
▁tehti	-9.01947
▁võin	-9.02012
I	-9.02079
▁lugemisel	-9.0216
▁sellesse	-9.0217
▁juhtivkomisjon	-9.02211
▁saali	-9.02273
▁Esiteks	-9.02277
taks	-9.02353
▁oluliselt	-9.02397
▁taas	-9.02444
▁P	-9.02594
▁haldus	-9.02689
▁rääkinud	-9.02762
▁justkui	-9.02912
▁Esimene	-9.02913
▁olukorras	-9.03016
▁samas	-9.03047
▁M	-9.0315
▁nähtud	-9.033
▁Läti	-9.03388
▁sh	-9.03395
▁hinnangul	-9.03408
▁Tänan	-9.03424
▁11	-9.03869
▁arutada	-9.03874
▁vastus	-9.03876
▁nime	-9.04061
▁suurt	-9.04078
ksin	-9.0419
▁vara	-9.04225
pu	-9.04272
▁mingeid	-9.04376
▁ühiskonna	-9.04406
am	-9.04505
▁politsei	-9.04506
raha	-9.04508
▁tasemel	-9.04533
▁suunas	-9.04784
▁kolmanda	-9.04911
▁palka	-9.05148
▁toimus	-9.05195
▁päevakorra	-9.05488
et	-9.05497
▁ettepanekuid	-9.05666
▁info	-9.05675
vaid	-9.05756
▁aastatel	-9.058
▁neli	-9.05823
▁sellisel	-9.05857
▁tekkinud	-9.05897
▁võtab	-9.06005
ol	-9.06021
▁tava	-9.06026
▁mingil	-9.06067
▁aseesimees	-9.06069
▁erinevad	-9.06082
▁valdkonna	-9.0612
▁korra	-9.06216
▁Mulle	-9.06242
▁esimesel	-9.06421
▁kõrge	-9.06506
▁hiljem	-9.06519
▁andnud	-9.06587
▁tean	-9.06603
võt	-9.06624
▁õigesti	-9.06698
▁võrra	-9.06701
▁metsa	-9.06835
em	-9.06878
▁kolmas	-9.06927
▁arengukava	-9.06997
▁meid	-9.06998
▁pe	-9.0705
▁poliitika	-9.07059
▁lisaks	-9.07117
▁toodud	-9.07222
▁kontroll	-9.07264
▁konkreetselt	-9.07482
ise	-9.07754
▁määral	-9.07808
tame	-9.07897
loo	-9.08103
▁V	-9.08128
en	-9.0815
▁Seega	-9.08161
▁saaksid	-9.08324
▁päevakorda	-9.0871
▁Keskkonna	-9.08845
▁praeguse	-9.08936
rä	-9.09207
▁ha	-9.09409
▁toimunud	-9.09538
▁Või	-9.09632
▁opositsiooni	-9.0985
▁30	-9.10002
▁arutanud	-9.10116
rahandusminister	-9.10166
▁ve	-9.10171
▁määrata	-9.10347
su	-9.10367
▁kust	-9.10515
▁võetakse	-9.10701
▁tunne	-9.1077
ngu	-9.10782
▁soov	-9.10821
▁ütleme	-9.1083
minister	-9.11007
tan	-9.11035
▁Kuid	-9.11127
suse	-9.11166
▁tähenda	-9.11168
▁mõtte	-9.11212
▁neist	-9.11219
▁vähendada	-9.11222
▁aastast	-9.11366
▁16	-9.11422
▁muutunud	-9.11439
▁koha	-9.11454
▁lahendus	-9.11539
▁tõenäoliselt	-9.11544
▁kriisi	-9.11627
K	-9.1176
di	-9.12053
▁Kreeka	-9.1209
▁Mihhail	-9.12106
stamise	-9.12187
▁ühes	-9.12451
▁põhiseaduse	-9.12562
▁arvestatud	-9.12671
▁piir	-9.12804
▁tulenevalt	-9.12827
▁Aivar	-9.12855
▁arutas	-9.13045
pe	-9.13135
and	-9.13169
▁fraktsioonide	-9.13265
▁elektri	-9.13319
▁riikides	-9.13631
▁pidanud	-9.13808
▁soovivad	-9.13988
▁juhatuse	-9.14012
▁näeb	-9.14154
▁peaaegu	-9.14242
▁näide	-9.14281
▁suhteliselt	-9.14328
▁ettekandeks	-9.14332
▁koht	-9.14334
▁Tu	-9.14433
▁õiguse	-9.14552
▁öeldes	-9.14554
▁muude	-9.14668
▁selliste	-9.14757
▁gümnaasiumi	-9.14859
▁NATO	-9.14929
▁talle	-9.15023
▁saata	-9.15026
▁koosseisu	-9.15137
▁teate	-9.15446
▁järelevalve	-9.15469
▁põhimõtteliselt	-9.15598
▁lapsed	-9.15686
▁plaani	-9.1573
ini	-9.15772
▁abil	-9.15902
L	-9.15921
▁maailma	-9.16016
▁kasutamise	-9.16075
▁lihtne	-9.16083
▁vene	-9.16202
▁toetuse	-9.16275
▁puuduta	-9.16427
▁su	-9.1652
tust	-9.16532
▁mööda	-9.16589
ul	-9.16639
▁keeles	-9.16671
▁Herkel	-9.16754
▁tegele	-9.1684
tatakse	-9.16902
▁tõsiselt	-9.17068
▁suurema	-9.17099
▁samamoodi	-9.17222
▁14	-9.17374
▁suurendada	-9.17466
▁100	-9.17514
▁kõike	-9.17548
▁kohustus	-9.1757
▁üld	-9.17584
▁mõtet	-9.17619
▁olulise	-9.17646
▁aastate	-9.17724
ettepanekuid	-9.1776
▁riigile	-9.17772
▁kõigepealt	-9.17851
▁aitäh	-9.17915
abi	-9.17931
Kohaloleku	-9.18013
▁luua	-9.18061
▁hulk	-9.18216
▁valdkonnas	-9.18313
▁kõrval	-9.18451
▁võimalikul	-9.18545
▁võtame	-9.18589
atsiooni	-9.18655
▁haigekassa	-9.18692
▁pu	-9.18741
▁algataja	-9.18809
▁kindel	-9.18822
▁küsimustele	-9.1883
nt	-9.19125
▁protsessi	-9.1915
▁ellu	-9.19215
▁mõelda	-9.19277
▁võiksid	-9.1928
▁spordi	-9.1928
▁kesk	-9.19451
▁poliitilise	-9.19476
▁puudu	-9.19524
▁lahti	-9.19615
▁lõpetatud	-9.19827
▁asemel	-9.19891
▁ülevaate	-9.19958
▁Urmas	-9.20005
▁riiki	-9.2005
▁mõtle	-9.20081
▁Pa	-9.20137
▁alguses	-9.20273
▁Tarmo	-9.20334
T	-9.20372
po	-9.20379
▁punkt	-9.20397
lased	-9.20412
▁IRL	-9.20462
▁mere	-9.20472
▁arva	-9.20517
▁mu	-9.20786
▁keeruline	-9.20794
▁samal	-9.20862
▁Ra	-9.20891
▁volikogu	-9.209
▁ra	-9.21073
ade	-9.21183
▁mõeldud	-9.21193
▁ühine	-9.21213
▁korduvalt	-9.21393
kogu	-9.21465
▁praegune	-9.21497
▁Jürgen	-9.2151
▁lähevad	-9.21583
▁keda	-9.21615
stada	-9.21676
koha	-9.21712
▁kuskil	-9.21727
▁peal	-9.21729
Härra	-9.21734
▁Ettepanek	-9.21773
▁O	-9.21786
▁suured	-9.21918
▁50	-9.21948
▁näinud	-9.22066
▁eksi	-9.22101
▁juht	-9.22294
▁küsi	-9.22339
▁programmi	-9.22574
▁näitab	-9.22668
▁arvamust	-9.22784
▁järele	-9.22785
▁omavahel	-9.22863
▁hind	-9.22921
▁hinda	-9.22923
▁valla	-9.23232
▁eelnõus	-9.2333
▁ametikaaslased	-9.23349
▁Isamaa	-9.23417
desse	-9.23477
▁vee	-9.23649
▁ettevõtete	-9.23674
"".	-9.23719
▁Mart	-9.23783
im	-9.23805
▁Komisjon	-9.23806
▁huvides	-9.2381
▁inimestel	-9.23859
▁tahaks	-9.23957
▁kõikide	-9.24013
▁pandud	-9.24032
ksime	-9.24104
▁ülesanne	-9.24333
▁viie	-9.24351
▁võtma	-9.24469
▁kodakondsuse	-9.24617
▁kaalu	-9.247
likku	-9.24776
▁Nimelt	-9.24789
konna	-9.24818
misi	-9.24994
▁kaota	-9.25005
ur	-9.25018
▁Samuti	-9.25066
▁näite	-9.25083
▁õ	-9.25087
▁tervishoiu	-9.25401
▁asjade	-9.25414
▁põhjal	-9.25663
▁lugeda	-9.25698
▁sain	-9.25754
▁puutub	-9.25814
▁otseselt	-9.25887
▁Teile	-9.2591
▁saate	-9.25937
▁Ernits	-9.2604
▁Riigikohtu	-9.26048
▁kiire	-9.26097
▁käibemaksu	-9.26113
▁loo	-9.26135
▁Neid	-9.26191
▁muutub	-9.26251
▁läks	-9.26293
▁millal	-9.26321
▁joo	-9.26434
▁suuda	-9.2648
▁noorte	-9.26519
▁kontekstis	-9.26545
▁eelmisel	-9.26744
▁Ukraina	-9.26745
▁usu	-9.26885
▁teksti	-9.2689
▁13	-9.26952
▁avada	-9.26985
▁Tamm	-9.26985
▁räägitud	-9.27056
▁jutt	-9.2711
▁keelt	-9.27162
▁osuta	-9.27167
seid	-9.27173
elt	-9.27214
▁nimeta	-9.27222
▁järjest	-9.27291
▁heaks	-9.27397
ult	-9.2742
▁vastust	-9.27425
sus	-9.27517
▁arvamus	-9.27585
▁aastas	-9.27744
▁moel	-9.27831
▁väärtus	-9.27897
▁Liit	-9.28137
▁aastaid	-9.28165
▁vastab	-9.28168
▁hakkavad	-9.28383
no	-9.28391
▁mõiste	-9.28452
▁võimalused	-9.28453
▁prognoosi	-9.28646
▁järgmine	-9.28663
▁18	-9.28765
▁olgu	-9.28879
▁Riigi	-9.28885
▁osale	-9.28934
▁8	-9.28974
▁olukorra	-9.29019
▁lapsi	-9.29093
▁teisel	-9.29135
os	-9.29168
▁menetlus	-9.29179
▁kehtiva	-9.29216
▁Justiits	-9.29233
▁üht	-9.29248
statud	-9.29368
▁teisi	-9.29538
▁Alustame	-9.2956
▁vajaduse	-9.296
▁rahvus	-9.29657
▁langeta	-9.2974
▁käsitle	-9.29765
P	-9.29787
▁aastaks	-9.29852
▁suurenda	-9.29913
▁Majandus	-9.29972
alt	-9.30068
▁ütlema	-9.30156
▁vastupidi	-9.30264
▁jää	-9.30443
▁laiemalt	-9.30508
sel	-9.30563
▁äri	-9.30579
▁g	-9.30596
▁nädala	-9.30684
▁lükata	-9.30692
▁Olen	-9.30723
õiguse	-9.3089
▁vajadus	-9.309
▁tööta	-9.30926
seks	-9.3113
▁Korb	-9.31228
▁Ko	-9.31345
▁otsustada	-9.31384
▁vastavalt	-9.31399
▁tähtis	-9.3143
▁päev	-9.31447
▁ettevõtte	-9.31496
▁muudatused	-9.31501
▁Härra	-9.3157
.""	-9.31627
▁kooskõlas	-9.31711
▁põhjust	-9.31768
▁pidi	-9.31779
ude	-9.31931
likud	-9.31932
▁kokkuleppe	-9.31963
▁sektori	-9.32013
▁Selleks	-9.32102
▁asu	-9.32109
▁kriminaal	-9.32213
osa	-9.32277
unud	-9.32288
▁arupärimine	-9.32394
▁rahastamise	-9.32473
▁lõike	-9.32571
sioon	-9.32578
iku	-9.32608
kooli	-9.32683
▁küsimuste	-9.32683
▁hääleta	-9.3271
▁pikalt	-9.32713
▁Lisaks	-9.32766
▁otsust	-9.32792
öö	-9.32842
▁ükskõik	-9.32842
▁25	-9.32895
▁seadusega	-9.32972
▁majanduse	-9.33062
ir	-9.33167
▁jäävad	-9.33276
▁Stalnuhhin	-9.33354
▁muudatusi	-9.33404
▁seadusena	-9.33547
▁pöördu	-9.33641
aadi	-9.33686
riigi	-9.3381
▁B	-9.33897
tamist	-9.3392
▁erinevaid	-9.34044
▁minema	-9.34062
uuri	-9.34131
▁19	-9.34147
▁arvesta	-9.34168
▁üldiselt	-9.34189
▁Euroopas	-9.34265
▁omavalitsustele	-9.34331
▁juhatus	-9.34356
aasta	-9.34496
▁otsi	-9.34507
▁tekkis	-9.34513
▁organisatsiooni	-9.34636
▁räägi	-9.34732
▁riigid	-9.34833
valt	-9.35023
▁...	-9.35217
▁samm	-9.35279
▁probleemid	-9.35332
Kui	-9.35363
▁palk	-9.35551
▁Tõepoolest	-9.3574
▁keel	-9.35778
▁nimetatud	-9.35789
.)	-9.35838
▁koostööd	-9.35922
▁paar	-9.35989
▁kujul	-9.36041
▁menetle	-9.36048
▁Kadri	-9.36062
▁24	-9.36149
▁soovitakse	-9.3619
▁selgita	-9.36323
▁2015.	-9.36357
▁kasvu	-9.36444
▁pika	-9.36509
ing	-9.36554
tis	-9.3682
▁maailmas	-9.36827
▁protsess	-9.37015
▁lahenda	-9.3706
tati	-9.37125
▁ravi	-9.37149
luse	-9.37149
▁tohiks	-9.37189
▁Eestisse	-9.37193
▁Peeter	-9.37235
üh	-9.37352
▁Kolm	-9.37371
▁vabandust	-9.37602
ses	-9.37664
▁Res	-9.37701
▁veelgi	-9.37745
maksu	-9.37771
▁tasandil	-9.37805
▁plaanis	-9.37908
lane	-9.37917
▁õiguskantsleri	-9.37951
misele	-9.38113
▁võimu	-9.3812
▁vajab	-9.38364
▁projekti	-9.38383
▁mingisugust	-9.3859
▁sõltub	-9.38716
▁raames	-9.38751
▁riikliku	-9.38838
▁tunnista	-9.38956
00	-9.39099
▁lahku	-9.39258
▁po	-9.39258
▁praktika	-9.39272
▁andma	-9.39355
▁pikk	-9.39391
▁nendel	-9.39426
%	-9.39434
▁esimest	-9.3958
▁teenuste	-9.39591
▁täis	-9.39728
▁läheme	-9.39761
▁äkki	-9.39819
ab	-9.3989
▁inim	-9.399
kki	-9.39924
▁jätku	-9.40014
▁põhjusel	-9.40077
▁seisukohta	-9.40101
▁informatsiooni	-9.40123
▁antakse	-9.40144
▁eel	-9.40212
▁konkreetne	-9.40221
ksite	-9.40223
▁turu	-9.40243
▁ulatuses	-9.4039
▁mitmeid	-9.40412
▁paremaks	-9.40449
▁mõnes	-9.40512
▁makse	-9.40588
▁suuna	-9.40615
toetuse	-9.40652
▁tasakaalu	-9.4069
▁Ühe	-9.407
kond	-9.40728
▁arvamuse	-9.4077
▁valitsuses	-9.40987
▁Jaak	-9.40998
20	-9.41055
▁aitab	-9.41075
▁ettepanekud	-9.41166
ooni	-9.4124
tult	-9.41373
▁uusi	-9.41398
▁st	-9.41494
▁kõnepulti	-9.41519
▁aidata	-9.41577
▁juhi	-9.41617
▁16.	-9.4168
▁pakkuda	-9.41765
▁liit	-9.41792
▁parandada	-9.41811
▁3	-9.41996
▁paranda	-9.42047
▁õiguskantsler	-9.42053
▁õpetaja	-9.4206
▁seis	-9.42134
▁kasuta	-9.42256
▁soovib	-9.42307
▁5	-9.42337
ministri	-9.42345
▁kulud	-9.42354
▁kur	-9.42364
▁ettevõtlus	-9.42414
▁tasuta	-9.4247
ani	-9.4254
▁vaatama	-9.4266
▁kõnesoove	-9.42669
▁Sise	-9.42675
tas	-9.42779
▁erakondade	-9.42799
▁lõpeta	-9.42835
▁kasvab	-9.4289
▁vähenda	-9.42894
pp	-9.4291
▁tervikuna	-9.43019
▁tõusu	-9.431
▁Lauri	-9.43104
▁rääkima	-9.43108
▁kaheksa	-9.43157
▁tahab	-9.43159
lo	-9.43171
▁Ammas	-9.4325
M	-9.43272
▁tõus	-9.43323
▁Sven	-9.43331
▁uut	-9.43442
▁milleks	-9.43517
▁haldusreformi	-9.43519
▁veidi	-9.43584
Eesti	-9.43586
▁poliitiline	-9.43609
▁17	-9.43686
▁nendega	-9.43745
▁lõpphääletusele	-9.43858
ho	-9.43977
▁iseenesest	-9.43979
ali	-9.44048
▁6	-9.44131
▁menetlemise	-9.44277
▁vastas	-9.44302
▁nemad	-9.44423
tiiv	-9.44522
▁tegelema	-9.44606
set	-9.44628
▁suures	-9.44786
See	-9.44901
▁isiklikult	-9.44933
▁toimi	-9.44959
▁idee	-9.45215
▁Toomas	-9.45365
▁Va	-9.45374
▁U	-9.45403
▁ligi	-9.45452
▁La	-9.45602
▁võeti	-9.45607
▁täita	-9.45651
▁hoo	-9.45723
menetluse	-9.45747
▁muid	-9.45798
▁Kõnesoov	-9.45859
▁au	-9.4587
ameti	-9.45881
▁käinud	-9.45886
▁Kalle	-9.45913
▁kõrgema	-9.45934
▁eelnõusid	-9.46093
▁hariduse	-9.46101
▁näete	-9.46113
▁teises	-9.46185
▁loogika	-9.46203
▁käsitlemise	-9.46273
▁kaua	-9.464
▁Panga	-9.46459
▁40	-9.46463
▁energia	-9.4648
▁ühele	-9.46563
mat	-9.46568
▁töötajate	-9.46685
▁suu	-9.46702
▁No	-9.46737
▁andis	-9.46889
▁rolli	-9.46913
▁väikese	-9.4692
▁jälgi	-9.46938
dPoolt	-9.47202
▁lausa	-9.47233
▁mõista	-9.47275
▁tutvusta	-9.47276
▁jääda	-9.47309
▁maksumaksja	-9.47674
▁ühis	-9.47691
▁2016.	-9.47785
▁direktiivi	-9.47787
▁nendes	-9.47863
▁erapooletuks	-9.47953
▁Lõpetan	-9.4809
tasu	-9.48108
▁Maksu	-9.48189
tesse	-9.48346
▁Liidus	-9.4845
▁199	-9.48543
▁ühest	-9.48622
▁kuulnud	-9.48633
▁tõ	-9.48664
▁vaheaega	-9.48741
▁kohaloleku	-9.48805
▁tööandja	-9.48811
nik	-9.48822
▁maksab	-9.48889
▁kerge	-9.48891
▁toetab	-9.4898
▁plaan	-9.49
▁Haridus	-9.49065
strateegia	-9.49083
▁arvestades	-9.49145
▁mulje	-9.49181
saa	-9.49322
▁suhtu	-9.49332
▁paraku	-9.49448
▁tulemus	-9.49552
▁arvate	-9.4968
▁lause	-9.49713
▁osta	-9.49719
▁arutatud	-9.49729
▁toob	-9.49761
▁tihti	-9.49773
per	-9.49838
▁Tallinnas	-9.49882
▁kuud	-9.49905
liit	-9.49941
▁kõigil	-9.50016
ettepanekud	-9.5028
▁sissetuleku	-9.50309
▁relva	-9.50338
määra	-9.50342
▁kutsu	-9.50396
jaid	-9.5049
▁rääkis	-9.50536
▁uute	-9.50655
▁rakendamise	-9.50745
süsteem	-9.5075
▁Publica	-9.50753
▁millise	-9.50811
▁soo	-9.50889
▁teda	-9.50889
▁elanike	-9.50932
kat	-9.50944
▁ettevõtjate	-9.50966
ris	-9.5102
▁president	-9.51029
Rohkem	-9.51057
▁lõpus	-9.51095
▁f	-9.51114
▁kuula	-9.51138
▁kõrvale	-9.51159
▁mäleta	-9.51223
▁valiku	-9.5124
▁teiseks	-9.51269
▁teenuse	-9.51461
▁Ega	-9.51508
▁põhjalikult	-9.51605
▁Narva	-9.51739
ima	-9.51774
vus	-9.51782
▁otsuste	-9.51809
▁ringi	-9.51833
iv	-9.51878
misse	-9.52006
▁õpi	-9.52129
▁räägib	-9.52158
▁vastuste	-9.52241
▁seesama	-9.52433
▁laps	-9.52529
▁isikute	-9.52571
▁Priit	-9.52637
▁kütuse	-9.52684
R	-9.52702
▁tegelda	-9.52741
▁2013.	-9.52764
amet	-9.52942
▁ausalt	-9.52981
▁teemaga	-9.53022
▁järel	-9.53098
▁presidendi	-9.53111
▁pr	-9.53137
▁2014.	-9.53154
▁julge	-9.53196
▁hinnangu	-9.53211
▁istungit	-9.53295
▁R	-9.53463
▁12.	-9.537
▁regulatsiooni	-9.53701
▁kuulda	-9.53735
▁tead	-9.53744
▁väheneb	-9.53758
neb	-9.53772
▁to	-9.53839
▁Teadus	-9.53938
▁meeldi	-9.53938
▁taotle	-9.53993
▁tulema	-9.54008
▁Martin	-9.54016
▁mõtlema	-9.54031
▁positiivne	-9.54123
▁räägin	-9.5448
▁Simson	-9.54491
▁Millise	-9.54499
▁ela	-9.54603
▁si	-9.54629
▁eelda	-9.5464
bu	-9.54696
▁kehtesta	-9.54751
▁Taavi	-9.54865
▁sotsiaalmaksu	-9.54916
▁Määra	-9.5496
▁mingisugune	-9.55067
▁müü	-9.55116
asutuste	-9.55125
reid	-9.55164
hüvitis	-9.55171
kuu	-9.55308
▁raudtee	-9.55334
▁istu	-9.55353
▁panga	-9.55408
▁riigil	-9.55479
▁laeva	-9.55571
▁erakond	-9.55607
▁ürita	-9.55617
▁paika	-9.55635
▁kohus	-9.55856
maid	-9.55889
▁Reformierakond	-9.56087
j	-9.56134
▁rahu	-9.56184
nduse	-9.56328
▁kohapeal	-9.56372
▁üldise	-9.56413
▁arvel	-9.56487
▁liikmetel	-9.56507
▁roll	-9.56557
▁väiksem	-9.56628
▁vahepeal	-9.56751
▁silma	-9.56864
▁mitmed	-9.5693
▁tähtaja	-9.56956
▁kutse	-9.57093
▁Kübarsepp	-9.57132
▁võimalda	-9.57171
▁in	-9.57173
▁niisugune	-9.57213
▁otsustab	-9.57215
Andres	-9.57218
▁hakatakse	-9.57232
▁avalik	-9.57261
aks	-9.57273
▁lugu	-9.57355
▁ehita	-9.57391
▁novembri	-9.57486
tsu	-9.57745
▁mujal	-9.57841
▁paari	-9.57988
▁Le	-9.5801
▁põhikooli	-9.58114
▁27	-9.58159
▁Veel	-9.58269
▁detsembri	-9.58459
▁nimekirja	-9.58587
▁erinevate	-9.58614
▁teede	-9.58631
▁0	-9.58692
▁ettevõtja	-9.58734
like	-9.58764
▁milles	-9.58778
▁ajaloo	-9.58815
▁ettekandes	-9.58837
▁tuleviku	-9.58838
▁teeni	-9.58963
▁andmed	-9.58964
▁karistus	-9.59196
▁mäletan	-9.59199
▁kulude	-9.59218
▁teisele	-9.59246
▁protokolli	-9.59251
poole	-9.59363
▁hinnata	-9.59412
kirja	-9.59427
seadus	-9.59464
▁andmeid	-9.59503
up	-9.59602
▁mingid	-9.5961
▁sõja	-9.59816
▁ütlevad	-9.59843
▁positiivse	-9.59844
▁lähtu	-9.59911
▁ehitus	-9.59921
▁õigust	-9.60265
▁jä	-9.60271
usi	-9.60273
▁muutu	-9.60289
aine	-9.60318
▁ministrile	-9.60321
▁kohalikud	-9.60327
▁igati	-9.60359
▁konkurentsi	-9.60445
▁otsa	-9.60632
▁järgmised	-9.60634
▁püsi	-9.60661
▁tõe	-9.60697
▁huvitav	-9.60753
nti	-9.60769
ndada	-9.60805
▁kirjuta	-9.60813
▁tahavad	-9.60815
ati	-9.60839
▁Millin	-9.60851
▁tegeleb	-9.61034
▁koolis	-9.61387
▁koostöös	-9.61448
▁sul	-9.61463
▁uudis	-9.61623
▁Istungi	-9.61658
▁seonduvalt	-9.61723
▁hulka	-9.61756
▁pannud	-9.61925
tegevuse	-9.61925
▁kehtib	-9.6193
▁täpsemalt	-9.61989
▁Ehk	-9.62043
▁Urve	-9.62051
▁vali	-9.62162
▁parema	-9.62486
▁kirjelda	-9.62516
Kas	-9.62602
▁vahendeid	-9.62604
▁küsis	-9.62643
c	-9.62662
▁vastan	-9.62722
▁töönädala	-9.62727
▁saavutada	-9.62729
▁konventsiooni	-9.62738
Eelnõu	-9.62807
▁paljude	-9.6289
▁seisukoha	-9.62962
▁viimasel	-9.62963
▁hakkame	-9.62987
▁puudutavad	-9.63039
▁tegevust	-9.6305
▁tarbija	-9.63157
▁muutus	-9.63283
▁päeval	-9.63308
▁missiooni	-9.63333
▁nimetada	-9.63465
▁teed	-9.63749
▁Oma	-9.63913
▁soovita	-9.63913
▁ESM	-9.63946
mo	-9.63959
▁tööjõu	-9.63966
▁pidevalt	-9.63983
▁räägitakse	-9.6407
▁esitas	-9.6425
▁eralda	-9.64255
▁kasvanud	-9.64255
justiitsminister	-9.64363
kord	-9.64387
▁vanema	-9.64491
N	-9.64494
ame	-9.64498
▁isik	-9.64521
▁vastates	-9.64529
▁maksa	-9.64597
▁jaanuaril	-9.64599
▁Ossinovski	-9.64664
▁küllalt	-9.64668
▁60	-9.64704
▁elavad	-9.6471
▁registri	-9.6474
korra	-9.64783
kku	-9.64889
▁parlament	-9.64921
▁selgitada	-9.64939
▁4	-9.6494
▁lubatud	-9.64965
▁laekunud	-9.65182
▁sotsiaalse	-9.65219
▁investeeringute	-9.65257
▁sammu	-9.65276
▁võttis	-9.65284
▁väiksema	-9.65316
▁saavuta	-9.65333
▁Tegemis	-9.65355
▁endiselt	-9.65498
▁eelarves	-9.65523
Laul	-9.65605
tavate	-9.65632
▁Sellega	-9.65637
▁diskussiooni	-9.65642
▁nädalal	-9.65649
▁sü	-9.65663
▁koalitsioon	-9.65676
ena	-9.65737
▁läbirääkimiste	-9.65808
▁kohas	-9.65821
▁menetluse	-9.65917
▁tekita	-9.6593
▁Kaitseväe	-9.65976
▁Nestor	-9.66116
aastase	-9.66138
▁jahi	-9.6614
▁avalda	-9.66176
▁Oleme	-9.66184
▁väide	-9.66233
▁Selline	-9.66261
juht	-9.66268
▁11.	-9.66302
▁reklaami	-9.66448
▁lugemisele	-9.66455
▁tuleneb	-9.6662
▁pööra	-9.66626
▁esile	-9.66649
▁N	-9.6665
▁vähene	-9.66679
▁vastutus	-9.66717
▁Põlluaas	-9.66744
▁suutnud	-9.66745
▁rahvusvaheliste	-9.66819
▁keskmine	-9.66835
▁mingisuguse	-9.6689
▁jõud	-9.669
▁täpsusta	-9.66943
▁regionaal	-9.67075
▁perekonna	-9.67116
▁juhtumi	-9.67216
väär	-9.67235
rite	-9.67327
▁anna	-9.67344
Mis	-9.67374
▁tunduvalt	-9.67383
▁aluseks	-9.67487
▁kohalik	-9.67523
▁vä	-9.67553
▁Teise	-9.67592
▁kellele	-9.6764
▁kasu	-9.67728
▁looma	-9.6783
▁Ameerika	-9.67904
▁kujuta	-9.67938
▁õiguskomisjoni	-9.67946
▁Esimese	-9.68028
kuse	-9.68049
▁Sõerd	-9.6812
▁probleemide	-9.68384
▁naiste	-9.68484
▁mõlema	-9.68523
▁tõsise	-9.68529
▁sõlmi	-9.68538
konkurentsivõime	-9.68561
▁juuni	-9.68646
▁ema	-9.68738
▁1,	-9.68743
▁kahtlemata	-9.68876
▁Välis	-9.68953
elu	-9.68983
▁last	-9.69022
▁toonud	-9.69047
▁alg	-9.69131
▁pro	-9.69212
▁keskmise	-9.69219
teema	-9.69234
▁kinnitada	-9.69309
▁riski	-9.69315
eti	-9.69425
liidu	-9.69431
▁leia	-9.69455
▁arenda	-9.69526
▁olevat	-9.69607
▁astu	-9.69609
▁põhjendatud	-9.69621
▁näen	-9.69661
▁17.	-9.69664
▁klassi	-9.69681
▁Nõukogu	-9.69687
endi	-9.69749
▁käima	-9.69772
▁Tuus	-9.69797
▁korruptsiooni	-9.69839
▁äärmiselt	-9.69839
▁maja	-9.69964
poolse	-9.70036
▁öeldakse	-9.7008
▁Konservatiivse	-9.70113
iste	-9.70206
▁osaleda	-9.70265
vä	-9.70279
▁reguleeri	-9.7034
▁teiega	-9.70366
▁Al	-9.70385
▁Küsimusi	-9.70414
▁ministeerium	-9.70448
▁jõuab	-9.70464
▁Re	-9.70478
▁Keskerakond	-9.70494
▁teenust	-9.70635
▁oleva	-9.7066
▁rahul	-9.70717
▁suuremad	-9.70762
▁tõi	-9.70783
▁märksa	-9.70827
▁Tõsi	-9.70844
▁oled	-9.70869
▁töötada	-9.70908
▁Valeri	-9.70926
▁Rahvaerakonna	-9.70931
▁võimaldab	-9.70936
▁tagatud	-9.70937
▁Iga	-9.71009
▁Sellise	-9.71022
▁Mailis	-9.71038
▁lühidalt	-9.71149
▁toimetuleku	-9.71157
▁Jä	-9.71256
kus	-9.71268
▁prioriteet	-9.71359
▁istungjärgu	-9.71372
▁arve	-9.71383
▁demokraatia	-9.7148
▁lahendusi	-9.71635
▁Kruuse	-9.717
▁kella	-9.71719
▁Vassiljev	-9.71739
aar	-9.71751
▁arutasime	-9.71886
▁2,	-9.71916
▁tekitab	-9.71917
▁selgeks	-9.71959
▁2017.	-9.71987
Nüüd	-9.72008
▁jõuda	-9.72055
▁jätnud	-9.72143
▁vastuseid	-9.72157
miste	-9.72219
▁olulisem	-9.72253
▁hoone	-9.72265
▁võta	-9.72412
kulude	-9.72435
▁Rõivas	-9.72445
▁parima	-9.72459
▁esma	-9.72548
▁Politsei	-9.72587
tegevus	-9.72729
▁tähtaeg	-9.72735
▁Adams	-9.7281
▁Kommunikatsioon	-9.7281
sama	-9.72832
▁piira	-9.72874
▁Krista	-9.72884
▁menetlemisel	-9.72919
▁rahvas	-9.72974
▁istung	-9.72975
▁põlevkivi	-9.72981
▁võrrelda	-9.73034
▁juhtub	-9.73081
▁aastaga	-9.73094
ika	-9.73095
▁proovi	-9.73148
▁põhjenda	-9.73269
▁julgen	-9.73269
▁toidu	-9.73278
▁kehtestada	-9.73281
lase	-9.7335
▁SKT	-9.7337
▁osakonna	-9.73411
pidi	-9.73426
▁tugeva	-9.73433
▁kirjutatud	-9.73606
▁vajavad	-9.73624
▁telli	-9.73664
lasi	-9.73677
üli	-9.73726
▁töötab	-9.73745
uma	-9.73758
ine	-9.73769
▁milliseid	-9.73806
▁vaata	-9.73807
▁olegi	-9.74001
▁ÜRO	-9.74046
Jah	-9.74065
▁35	-9.74075
▁seletuskirja	-9.74075
▁rääkisite	-9.74078
▁sulle	-9.74191
▁pädevus	-9.74192
▁jätkata	-9.74243
▁Sellepärast	-9.74312
▁ro	-9.74413
▁15.	-9.74449
▁enamik	-9.74475
isa	-9.74546
▁esinda	-9.7455
fi	-9.74573
▁siseminister	-9.74641
▁eeldus	-9.74656
▁loomise	-9.74663
likke	-9.7468
▁parandus	-9.74713
▁Energia	-9.74726
▁arvata	-9.74774
▁teosta	-9.74828
▁käia	-9.74879
▁vormis	-9.74902
▁viibi	-9.74944
▁suurene	-9.74988
▁positsiooni	-9.75008
▁lahenduse	-9.75066
▁kasva	-9.75117
▁arutame	-9.75181
Me	-9.75186
▁pane	-9.75202
▁anname	-9.75574
kava	-9.75647
▁Kaitse	-9.75653
▁oskus	-9.75777
riik	-9.75854
▁tõsine	-9.75873
etri	-9.75887
▁suuremat	-9.75919
▁esine	-9.75941
▁Eiki	-9.75966
demokraadid	-9.75987
▁palu	-9.76111
▁kasutatakse	-9.76127
▁annan	-9.76141
▁Leedu	-9.76157
▁käes	-9.7618
▁soovime	-9.76236
tamiseks	-9.7625
▁väite	-9.76311
▁loe	-9.76315
Panen	-9.76357
▁sellises	-9.76381
▁käe	-9.7643
ruumi	-9.76442
▁valimistel	-9.7647
▁rakendada	-9.76521
▁jätka	-9.76531
▁13.	-9.76564
ndamise	-9.7658
▁kuul	-9.76581
▁käivad	-9.76612
▁võttes	-9.76682
▁vastuvõtmise	-9.76726
▁Haukanõmm	-9.76797
▁lihtsa	-9.76814
▁poolest	-9.76839
▁lasteaia	-9.76918
▁pani	-9.77001
▁arvesse	-9.77028
▁ettekandjaks	-9.77085
▁paneb	-9.77139
levi	-9.77165
▁töötavad	-9.77201
▁valimiste	-9.77293
▁pension	-9.77314
▁lõpu	-9.77317
▁tore	-9.77322
▁teistes	-9.77366
▁üksnes	-9.77405
▁sünni	-9.77498
eni	-9.77553
▁lõpuni	-9.77569
▁said	-9.77598
▁Tiidus	-9.77614
▁sea	-9.77629
konto	-9.77644
▁Pi	-9.77695
koht	-9.77722
▁suunatud	-9.77774
▁ettevõtjad	-9.77843
küsimus	-9.77878
▁suuri	-9.77893
▁laeku	-9.77909
▁kuulub	-9.77945
▁väljenda	-9.77953
▁Vene	-9.77957
▁Sel	-9.78008
▁arutelul	-9.78045
ana	-9.7807
ent	-9.78102
pär	-9.78167
▁regulatsioon	-9.78193
kirju	-9.7823
▁korraldada	-9.78322
▁las	-9.78409
▁nõustu	-9.78462
▁Toobal	-9.78556
tades	-9.78619
Te	-9.78626
▁näiteid	-9.78641
▁arvatud	-9.78751
ski	-9.78837
▁ministeeriumide	-9.78875
▁kohale	-9.78911
sust	-9.78936
▁valik	-9.79008
▁maakonna	-9.79148
hinna	-9.79203
▁gaasi	-9.79276
▁läheks	-9.79292
nne	-9.79319
▁kuue	-9.79453
▁kindlustus	-9.79524
uks	-9.79573
▁teenuseid	-9.79593
▁taotlus	-9.79604
Virumaa	-9.7964
▁liikmesriikide	-9.79656
▁vähenenud	-9.79665
▁viimane	-9.79684
▁seletuskirjas	-9.79697
▁täpsustada	-9.79742
▁tähtsa	-9.79862
▁viimastel	-9.79933
▁maksude	-9.79961
5%	-9.79982
▁Riigikontrolli	-9.80113
▁21	-9.80143
nenud	-9.80172
▁jaanuari	-9.80175
▁Kultuuri	-9.80224
▁oktoobri	-9.80244
▁kohustusi	-9.80281
▁muret	-9.80307
▁halb	-9.80342
teenuse	-9.80397
▁reaalse	-9.80436
▁sobi	-9.80479
▁näi	-9.80536
▁jõudu	-9.80537
sest	-9.80633
ida	-9.80696
▁andmise	-9.80702
õigus	-9.80719
▁tekkida	-9.80829
▁perioodi	-9.80841
uste	-9.80869
▁b	-9.80882
rit	-9.80983
turu	-9.80995
▁valesti	-9.81006
▁500	-9.81023
voo	-9.81086
▁vastama	-9.81206
▁hääle	-9.81222
▁esitab	-9.81254
▁ülejäänud	-9.81273
▁käis	-9.81278
▁Reinsalu	-9.81435
▁kedagi	-9.81547
▁asjaolu	-9.81662
▁ammu	-9.81676
▁lastele	-9.81696
▁kehtestatud	-9.81699
▁ütlesid	-9.817
▁ettevõtluse	-9.81707
▁dokument	-9.81732
▁ülesannete	-9.81737
eeritud	-9.81739
aeg	-9.81762
▁oskate	-9.81796
▁Talvik	-9.81803
▁Kahjuks	-9.81834
▁töötaja	-9.81849
▁rääkisin	-9.81985
▁siht	-9.82001
▁makstakse	-9.82028
▁arupärimisi	-9.82046
▁kusagil	-9.82046
▁r	-9.82123
▁ajaks	-9.82146
pan	-9.82176
▁olulised	-9.82202
▁tulemusena	-9.82237
▁sõit	-9.82294
▁eriala	-9.82325
▁Peale	-9.82405
▁arutama	-9.82408
▁tundi	-9.82435
▁osaliselt	-9.82462
▁Teatavasti	-9.82537
▁kodaniku	-9.82582
▁Kesk	-9.82595
▁ühise	-9.82601
▁karista	-9.82621
▁liiklus	-9.82716
▁Madison	-9.82726
▁käsi	-9.82811
▁hoid	-9.82825
▁riigieelarvest	-9.82913
▁andmete	-9.82968
▁avalduse	-9.82985
▁lugemist	-9.82988
▁vastuolu	-9.82994
▁kahel	-9.83128
viisi	-9.83129
▁kon	-9.83148
▁mai	-9.8318
pool	-9.832
▁meede	-9.83251
▁pisut	-9.83278
▁viisil	-9.83301
last	-9.83329
▁lõpphääletuse	-9.83445
sektori	-9.83507
▁küljest	-9.83521
▁tulen	-9.83587
▁menetlusse	-9.83588
▁piima	-9.83592
▁meelt	-9.83601
▁novembril	-9.83688
▁tegutse	-9.83706
▁perede	-9.83708
▁Kes	-9.83709
▁leidis	-9.83775
▁meedia	-9.83858
▁jutu	-9.8388
▁mängi	-9.83909
maal	-9.8392
▁korraldamise	-9.83926
je	-9.83955
▁otsustati	-9.83961
las	-9.83985
▁vaidlus	-9.83999
▁usalda	-9.84025
▁haigla	-9.84057
▁kodus	-9.84078
vu	-9.84098
▁võiksime	-9.84109
▁põhimõte	-9.84119
▁tugev	-9.84138
▁mainisite	-9.84181
▁lii	-9.84204
▁toon	-9.8423
▁kellegi	-9.84275
▁maaelu	-9.84352
▁lähtudes	-9.84364
▁veendunud	-9.84417
▁statistika	-9.84417
▁varasema	-9.84459
ot	-9.84462
▁eesmärgi	-9.8448
▁erinev	-9.84525
▁maini	-9.84548
▁Kalev	-9.84632
▁nõunik	-9.8465
▁sees	-9.84656
▁Hanno	-9.84657
▁sõ	-9.84671
▁To	-9.84716
▁töötu	-9.84748
▁jõua	-9.8476
hoolekande	-9.84777
▁homme	-9.84777
▁näitaja	-9.84813
▁peate	-9.84815
moodi	-9.84823
▁veebruari	-9.84826
▁laiema	-9.8486
ek	-9.84883
▁seadusandja	-9.84939
▁sega	-9.84961
▁reaalselt	-9.84968
▁reisi	-9.85051
mõ	-9.8506
▁puudutas	-9.85087
▁väljaspool	-9.85157
▁raamatu	-9.85228
atsioon	-9.85341
▁vanemate	-9.85384
▁Marko	-9.85409
▁lo	-9.85424
▁Rail	-9.85462
ministeeriumis	-9.85468
vas	-9.85482
▁mingisuguseid	-9.85592
▁elus	-9.8566
▁alternatiiv	-9.85662
vastase	-9.85767
idele	-9.85859
▁kaitsta	-9.8587
▁koolide	-9.85995
▁aruande	-9.86029
▁pruugi	-9.86044
▁hulga	-9.86068
▁soovin	-9.86085
▁ühtse	-9.86088
▁valimisi	-9.86101
fondi	-9.86102
▁nõuab	-9.86154
▁noored	-9.86175
▁rakenda	-9.86187
▁22	-9.86218
usega	-9.86223
▁nõue	-9.86235
▁loodud	-9.86246
▁28	-9.86256
▁ütle	-9.86281
▁saadud	-9.86322
▁mõlemad	-9.86327
Virumaal	-9.86392
▁valitsusel	-9.864
▁aita	-9.86511
▁kuulata	-9.86525
▁esita	-9.86529
▁Riigikogule	-9.86556
▁keskendu	-9.86557
▁ülikooli	-9.86582
▁seas	-9.86586
▁piisav	-9.86637
▁Soomes	-9.86647
pärast	-9.86667
▁arusaam	-9.86722
▁mitmel	-9.86812
kohtu	-9.8689
▁võrdse	-9.87
tulu	-9.87001
▁kauba	-9.87037
▁komisjonide	-9.87045
▁mõjutab	-9.87063
▁pannakse	-9.87077
▁investeeri	-9.87089
juhi	-9.87122
▁mil	-9.87125
▁Jevgeni	-9.8714
▁tänane	-9.87187
▁ruumi	-9.87203
▁sätestatud	-9.87291
▁kiiremini	-9.87463
▁erineva	-9.87491
▁töös	-9.87499
▁vallas	-9.87516
▁mõnda	-9.87585
▁kehtima	-9.87593
▁konsensusega	-9.87616
▁juhtudel	-9.87632
ate	-9.87701
▁mo	-9.87712
▁teistmoodi	-9.8773
▁ükski	-9.87738
▁m	-9.87741
▁protseduuriline	-9.87749
▁valimise	-9.87756
rge	-9.8779
▁paberi	-9.87815
▁ootus	-9.87939
▁tubaka	-9.87972
▁omavalitsusi	-9.87983
▁arusaadav	-9.88115
▁vajadust	-9.88212
▁loobu	-9.88218
▁turva	-9.88243
▁ütlete	-9.88282
▁Kogu	-9.88287
▁arvestanud	-9.88313
▁Töö	-9.88335
▁saaksime	-9.88391
▁Pea	-9.88397
▁avatud	-9.8841
▁vastava	-9.8846
▁loen	-9.8847
ver	-9.88482
Liigume	-9.88496
▁uued	-9.88516
▁2012.	-9.88567
▁ühistranspordi	-9.88628
sete	-9.88628
▁suunata	-9.8863
▁suudame	-9.88642
▁hääletamise	-9.88695
▁räägite	-9.88749
▁kohustuste	-9.88794
▁väita	-9.88802
▁täiendava	-9.88812
vast	-9.88814
▁arusaama	-9.88906
▁põhjaliku	-9.88923
▁aprilli	-9.8894
▁jõustu	-9.88951
▁kõikidele	-9.89002
hk	-9.89012
▁Enne	-9.89042
vähem	-9.89069
▁edu	-9.89071
▁Lätis	-9.89111
▁10.	-9.89116
▁analüüs	-9.89155
▁Reps	-9.89157
▁keerulise	-9.8924
teks	-9.89252
▁sellesama	-9.89254
▁de	-9.8926
▁kasvata	-9.8935
▁kordan	-9.89366
▁kahte	-9.89437
▁liikmeid	-9.89442
▁inimesele	-9.89444
▁südame	-9.8946
▁Ratas	-9.89469
rahanduskomisjon	-9.89548
▁valida	-9.89552
▁kavatse	-9.89582
ppi	-9.89597
▁riike	-9.89672
▁vääri	-9.89674
▁müügi	-9.89699
▁Viktor	-9.8978
idest	-9.89786
▁Kõige	-9.89795
▁Tuleb	-9.89812
keel	-9.89836
ettevõtte	-9.89877
▁kaas	-9.89897
▁45	-9.89944
▁arutati	-9.90007
▁L	-9.90016
▁kulusid	-9.90065
▁Muidugi	-9.90074
▁vaadates	-9.90075
▁registreeri	-9.90143
),	-9.90158
▁arust	-9.90211
enda	-9.90229
▁14.	-9.90297
▁suuruse	-9.90468
eerimise	-9.90487
▁tuletan	-9.90575
▁pluss	-9.90613
ori	-9.90626
allika	-9.90635
▁jääks	-9.90757
▁tunni	-9.90783
▁teel	-9.90824
sõna	-9.90974
▁Indrek	-9.91143
pea	-9.91154
▁fondi	-9.91156
▁erinevus	-9.91252
▁pikka	-9.91255
▁debati	-9.91411
▁siiamaani	-9.91411
oli	-9.91431
▁tunnusta	-9.91472
▁loodus	-9.91494
▁Mille	-9.91495
▁inimestega	-9.91523
▁Pigem	-9.91551
▁meetmeid	-9.91564
▁liitu	-9.9167
eg	-9.91672
▁meditsiini	-9.91682
▁seisukohti	-9.91728
keskus	-9.9173
Peeter	-9.91762
▁niivõrd	-9.91764
▁muutma	-9.91765
demokraatide	-9.91847
▁32	-9.91872
▁reform	-9.91912
▁iganes	-9.91961
▁meist	-9.91973
idega	-9.91984
▁10%	-9.92017
akt	-9.92023
▁teiselt	-9.92064
▁suureneb	-9.9208
▁panusta	-9.92081
päev	-9.92089
▁18.	-9.9211
▁avalikus	-9.92133
äri	-9.92137
▁sekku	-9.92286
▁käsitleb	-9.92314
ak	-9.92326
▁ettevõte	-9.92365
▁olin	-9.92402
▁transpordi	-9.92625
▁milliste	-9.92628
▁debatt	-9.92639
▁võinud	-9.92697
▁õpeta	-9.92733
▁lange	-9.92817
▁suurte	-9.92822
keskuse	-9.92832
▁mail	-9.92871
kust	-9.92939
▁ühiskond	-9.92958
▁lennu	-9.92961
▁jällegi	-9.92984
▁kuluta	-9.9299
▁majanduskasvu	-9.93006
▁planeeri	-9.93097
▁In	-9.9311
tulemus	-9.93206
▁Mi	-9.93232
▁Ju	-9.93246
▁päri	-9.9327
▁kvaliteedi	-9.93297
seisu	-9.93333
▁meetmed	-9.93411
▁soovitus	-9.93452
▁Mu	-9.93453
▁näidata	-9.93495
▁takista	-9.93507
▁huvide	-9.93553
nõu	-9.93566
▁inimesel	-9.93585
▁Paraku	-9.93587
▁Tõesti	-9.93587
itsi	-9.93742
▁puudega	-9.93744
▁2.	-9.93756
hariduse	-9.93772
▁Mind	-9.93774
▁häid	-9.93805
▁töötukassa	-9.93862
▁Val	-9.93935
▁Marika	-9.93944
▁esiteks	-9.94004
▁2018.	-9.94027
▁seadusi	-9.94032
▁isiklik	-9.94041
▁23	-9.94117
▁seisu	-9.94123
▁negatiivse	-9.94138
▁tund	-9.94287
▁edasta	-9.94352
▁kokkulepe	-9.94375
tusi	-9.94552
eerida	-9.94563
▁põhimõtte	-9.94567
▁tõsi	-9.94629
▁rakendus	-9.94643
Aga	-9.94655
▁vastused	-9.94661
▁oktoobril	-9.94671
menetlus	-9.94681
▁samme	-9.94775
▁isa	-9.94799
asi	-9.94802
▁kogemus	-9.94849
programmi	-9.94924
▁pakutud	-9.94941
▁viga	-9.94947
▁konkreetset	-9.94963
▁Põhja	-9.9497
▁investeeringuid	-9.94977
▁saime	-9.9504
komisjonilt	-9.95054
valdkonna	-9.95071
▁täpsustav	-9.95086
▁paragrahvi	-9.951
▁elab	-9.9513
▁Rootsi	-9.95146
▁üleval	-9.95202
▁Riik	-9.95233
▁küsima	-9.95391
isi	-9.9542
▁rõhutan	-9.95525
▁hakanud	-9.9553
▁tasakaalus	-9.95594
▁esindab	-9.95635
aa	-9.95647
ada	-9.95671
▁tol	-9.95706
▁kaupa	-9.95714
▁Külliki	-9.95727
▁tõele	-9.9574
▁muuda	-9.95803
▁EKRE	-9.95811
▁vähendamise	-9.95812
▁elada	-9.95848
▁Ku	-9.95865
▁miinimum	-9.95946
▁hiljuti	-9.95951
▁tehta	-9.96
▁septembri	-9.96022
▁Panen	-9.96063
taja	-9.96068
▁kursis	-9.96094
▁annaks	-9.96184
▁toetuste	-9.96219
▁öö	-9.96276
▁õhu	-9.96306
▁7	-9.96346
▁tahate	-9.96378
▁selgus	-9.9638
▁ravimi	-9.96405
▁esindajana	-9.96436
▁lihtsam	-9.96441
▁fakt	-9.96457
▁küsisin	-9.96496
▁teen	-9.96513
▁ametnike	-9.96527
elda	-9.96533
päeval	-9.96578
õl	-9.96584
▁Läheme	-9.96595
▁paku	-9.96653
▁õigustatud	-9.96693
▁ettekanne	-9.96702
tuks	-9.96703
▁kõlas	-9.96756
▁osalus	-9.96786
▁3.	-9.96822
▁õpilaste	-9.9684
▁kohalikele	-9.96878
▁asenda	-9.96883
▁põhiseadusega	-9.96888
▁20%	-9.96891
kohustus	-9.96937
▁sõnum	-9.96946
▁34	-9.96982
▁lahendust	-9.97162
▁küsimusega	-9.9717
▁leiab	-9.97201
▁arvestama	-9.97324
▁huvitava	-9.97385
▁teisest	-9.97422
stiku	-9.97433
▁toetanud	-9.97481
kondade	-9.97564
▁51	-9.97676
▁mitmes	-9.9768
▁5.	-9.9771
majandus	-9.9774
▁käitu	-9.97778
▁määruse	-9.9781
rg	-9.97839
▁no	-9.97907
stamine	-9.97927
▁Su	-9.97948
▁surve	-9.98108
Va	-9.98128
andja	-9.98163
▁dokumendi	-9.98174
▁tõuseb	-9.98176
▁usaldus	-9.98229
▁Võ	-9.98301
▁noor	-9.98301
spetsialist	-9.98317
▁raja	-9.98422
▁sada	-9.98455
▁tänaseks	-9.985
▁9.	-9.98515
▁minuti	-9.98556
▁ülesandeid	-9.98571
ige	-9.98576
▁täitmise	-9.98591
▁Sellel	-9.98595
▁kasutamine	-9.98607
tee	-9.98627
Tere	-9.9863
▁eelarvet	-9.98634
▁investeerimis	-9.98668
▁Igor	-9.98687
▁vahet	-9.98689
▁kodanike	-9.98723
▁eelmine	-9.98741
▁süüdi	-9.98753
▁uuringu	-9.98821
▁üldine	-9.98822
▁märtsi	-9.98827
▁ehitada	-9.98828
▁lepi	-9.98853
▁nä	-9.9886
▁ühelt	-9.98889
▁tunnistama	-9.9896
▁mahus	-9.98988
▁laua	-9.98999
▁tuleva	-9.9903
▁kujunda	-9.9911
▁avalikkuse	-9.99129
kulu	-9.99137
▁absoluutselt	-9.99152
▁tahetakse	-9.9917
▁Rein	-9.99214
▁valdkond	-9.99236
isu	-9.99285
▁Pärnu	-9.99304
▁valija	-9.99363
▁laia	-9.99364
▁Mitte	-9.9939
▁eestikeelse	-9.99396
▁sala	-9.99407
▁küla	-9.99433
▁maks	-9.99636
▁muudatuste	-9.99783
funktsioon	-9.9982
▁registreeru	-9.99826
▁vastuolijaid	-9.99826
▁süü	-9.99856
▁juuli	-9.99866
▁rida	-9.99869
▁vastuolus	-9.99875
▁Jaanus	-9.99887
▁mahu	-9.99909
▁muutmine	-9.99976
hti	-10.0003
ib	-10.0003
▁püüd	-10.0005
teenuste	-10.0011
▁olles	-10.0012
▁hinnang	-10.0019
▁otsustanud	-10.0022
▁baas	-10.0029
valitsus	-10.0031
▁teab	-10.0031
▁hetke	-10.0031
käi	-10.0033
H	-10.0033
▁Ülikooli	-10.0034
eh	-10.0049
põ	-10.0056
kulud	-10.0056
▁paljudes	-10.0057
kordse	-10.0061
rid	-10.0061
▁üheksa	-10.0063
▁strateegia	-10.0068
▁fakti	-10.0068
▁ost	-10.0068
▁perearsti	-10.0075
Muudatus	-10.0076
▁eesmärki	-10.008
▁kontrollida	-10.0086
▁kuuluvad	-10.0089
▁sugugi	-10.0091
▁meele	-10.0094
▁ajast	-10.0099
▁jäetud	-10.01
fond	-10.0104
punkti	-10.0109
õr	-10.011
▁Sults	-10.0116
mä	-10.0124
▁kontrollKohal	-10.0126
Ei	-10.0133
▁laienda	-10.014
▁muudatuse	-10.014
▁33	-10.0146
▁H	-10.0151
▁tänavu	-10.0154
▁3,	-10.0155
are	-10.0157
▁vajalikud	-10.0158
▁ratifitseeri	-10.0159
▁käesoleva	-10.016
▁annavad	-10.0163
▁koonda	-10.0165
▁suund	-10.0166
▁Ki	-10.0166
▁interneti	-10.0173
▁töövõime	-10.0184
▁õiguste	-10.0187
haridus	-10.0188
▁Kohtu	-10.019
▁struktuuri	-10.0191
▁summad	-10.0195
▁Põhiseadus	-10.0198
▁aktiivse	-10.0202
▁kõnes	-10.0209
tsa	-10.021
▁asutus	-10.0217
▁osakaal	-10.0219
mees	-10.022
▁tõstmise	-10.0223
Läheme	-10.0226
Riigikogu	-10.0227
▁meelega	-10.023
▁kul	-10.0238
▁konsensuslikult	-10.0252
▁küsite	-10.0256
▁kasulik	-10.0261
▁selgub	-10.0265
joon	-10.0275
toetuste	-10.0275
Küsimused	-10.0278
).	-10.0279
umise	-10.0282
▁mingite	-10.0285
▁Vä	-10.0288
summa	-10.029
kke	-10.0294
▁koosseisus	-10.0303
van	-10.0304
▁seleta	-10.0312
▁nõuded	-10.0319
▁lepitud	-10.0321
▁arsti	-10.0327
hei	-10.0332
▁ametnikud	-10.0334
▁põhjendus	-10.0334
▁programm	-10.0334
toetust	-10.0337
luba	-10.0339
▁teavita	-10.0343
▁Kuu	-10.0344
▁kavas	-10.0348
▁tulumaksuvaba	-10.0348
▁alustada	-10.035
▁miljardit	-10.0351
▁investeeringu	-10.0351
▁valitsusele	-10.0362
▁infot	-10.037
elge	-10.0377
▁põhjustel	-10.0382
▁Lu	-10.0387
vara	-10.0389
▁küsimustes	-10.0394
▁sõltumatu	-10.0396
▁töökohti	-10.0405
akti	-10.0412
▁partner	-10.0414
▁olemasoleva	-10.0414
▁arendamise	-10.0417
aalne	-10.0427
▁materjali	-10.043
▁kindlaks	-10.0436
▁kanda	-10.0438
maja	-10.044
▁Minister	-10.0442
▁lähi	-10.0447
ettevõtja	-10.0447
▁partei	-10.0448
▁kavanda	-10.0451
▁planeeritud	-10.0459
▁efektiivse	-10.046
▁lisaraha	-10.0462
▁tegelevad	-10.0462
▁olev	-10.0464
majanduse	-10.0465
▁korralduse	-10.0465
▁avalikku	-10.0467
▁vaatan	-10.0468
▁Just	-10.0469
Nii	-10.0473
mma	-10.0477
▁Maa	-10.0485
▁ülevaade	-10.0489
▁seisukohal	-10.049
▁kellelegi	-10.0497
pidamise	-10.05
▁kapitali	-10.0502
▁ohtu	-10.0503
▁lä	-10.0508
▁liidu	-10.0529
▁tööl	-10.0532
▁pidas	-10.0538
▁jõuame	-10.0553
▁kirjutada	-10.0556
▁sina	-10.0556
▁oht	-10.0564
▁lugemiseks	-10.0576
▁Randpere	-10.0586
▁katteallika	-10.0586
▁auväär	-10.0587
Selle	-10.0597
▁rahvasaadikut	-10.0602
▁variant	-10.0612
▁tegime	-10.0615
▁debatti	-10.0616
▁Ettekandja	-10.0616
▁kolleegi	-10.0618
▁firma	-10.062
seadust	-10.0626
▁palgad	-10.063
▁liikuda	-10.0633
▁detsembril	-10.0635
▁meenuta	-10.0638
ela	-10.0644
▁tegelik	-10.0647
▁tingimused	-10.0648
▁Igal	-10.0657
▁tegemise	-10.0661
▁arendus	-10.0663
▁protsent	-10.0669
▁mängu	-10.0673
▁26	-10.0678
▁mees	-10.0689
▁valdkonda	-10.0691
▁teemasid	-10.0693
▁tegemata	-10.0694
▁21.	-10.0704
▁kasutama	-10.0706
ev	-10.0718
kool	-10.0719
▁tark	-10.072
▁parlamendis	-10.0723
▁veebruaril	-10.0727
▁rahulda	-10.073
▁2011.	-10.0736
vee	-10.0736
rdi	-10.0738
▁ühenda	-10.0739
▁tugi	-10.074
▁juhtunud	-10.0741
▁lipu	-10.0742
▁välisminister	-10.0747
▁rahvastiku	-10.0747
▁hääletuse	-10.0747
▁19.	-10.0752
▁kava	-10.0752
▁seitse	-10.0758
op	-10.0763
stab	-10.0772
▁kevadel	-10.0777
▁vahendite	-10.0782
sk	-10.0788
▁määr	-10.0796
▁muudetakse	-10.0798
▁õigeks	-10.0803
Euroopa	-10.0819
▁300	-10.0823
▁leping	-10.0826
▁seisukohad	-10.0828
▁huvitab	-10.0832
▁ilus	-10.0832
uu	-10.0833
▁kasv	-10.0836
▁üldist	-10.0836
▁Kaheksa	-10.0837
▁meetmete	-10.0838
iti	-10.0839
▁rahastus	-10.0841
▁hooldus	-10.0845
▁kä	-10.0864
▁reageeri	-10.0864
▁võimaliku	-10.0866
▁seitsme	-10.0868
▁eeskätt	-10.0869
▁tipp	-10.087
▁ohu	-10.0881
▁normaalne	-10.0886
▁kindla	-10.089
▁juhtu	-10.0903
▁kannata	-10.0914
▁Aas	-10.0915
Tarmo	-10.0917
▁euroni	-10.0918
▁erandi	-10.0919
▁väikse	-10.092
▁Pevkur	-10.0923
kan	-10.0924
▁Vastus	-10.0925
▁protsenti	-10.0926
▁7.	-10.0928
▁tegev	-10.0933
▁kohustuse	-10.0933
▁Et	-10.0936
▁poliitilist	-10.094
▁jätkub	-10.0941
▁millel	-10.0942
▁kaubandus	-10.0949
▁oodata	-10.0949
▁pääste	-10.095
asutuse	-10.0951
stama	-10.0952
▁omakorda	-10.0962
▁sätesta	-10.0963
palga	-10.0966
▁hakkaks	-10.0968
▁võeta	-10.0971
kapitali	-10.0979
▁vahele	-10.0983
▁aspekti	-10.0987
▁konsensus	-10.0988
▁ainu	-10.0992
▁põhja	-10.0998
▁80	-10.0999
▁saalist	-10.1007
▁hä	-10.1008
▁vajalikuks	-10.101
▁tavaliselt	-10.1011
▁artikli	-10.1013
▁38	-10.102
▁anti	-10.1021
ran	-10.1024
▁üksik	-10.1026
või	-10.1027
reformi	-10.1034
▁Oli	-10.1042
▁maal	-10.1048
ides	-10.1049
▁Artur	-10.1055
▁septembril	-10.1055
▁taotluse	-10.1058
▁arupärimisele	-10.1059
▁Riigikontroll	-10.1063
keskuste	-10.1072
▁juunil	-10.1074
▁lahendamise	-10.1074
▁tundu	-10.1074
▁Ar	-10.1076
▁suurus	-10.1077
▁suhtle	-10.1079
olijaks	-10.1079
▁kaaluda	-10.108
▁Tema	-10.108
▁lai	-10.1082
hääl	-10.1084
Ka	-10.1085
▁järeldus	-10.1087
▁riigilõivu	-10.1091
▁esindajate	-10.1093
▁sageli	-10.1096
▁lähtuvalt	-10.1097
▁täitma	-10.11
▁koolides	-10.1102
organisatsioonid	-10.1103
▁tahaksin	-10.1111
▁Savisaar	-10.1112
▁märtsil	-10.1118
▁laual	-10.1119
▁kutsun	-10.112
▁jagada	-10.1131
▁niisuguse	-10.1135
▁ülemineku	-10.1136
▁kohtuniku	-10.114
▁kasumi	-10.1143
iili	-10.1143
▁süüdista	-10.1149
ok	-10.1149
▁seisukohalt	-10.1151
▁niiviisi	-10.1156
kaubandus	-10.116
▁arvud	-10.1161
▁vaadanud	-10.1161
▁tähele	-10.1161
▁pääse	-10.1162
▁teistsuguse	-10.1163
▁eelarvest	-10.1166
▁arene	-10.1167
▁kandidaat	-10.117
▁huvitatud	-10.1173
▁maksmise	-10.1183
tavat	-10.1184
▁ametis	-10.1185
▁kindlusta	-10.1186
▁liikmetele	-10.1188
▁konkreetsed	-10.1193
▁mõnevõrra	-10.1194
▁õppida	-10.1194
▁teistele	-10.1194
nõukogu	-10.1198
▁tõde	-10.1198
ikku	-10.1205
▁Samal	-10.1209
▁võitle	-10.1209
▁piirivalve	-10.1211
▁valitud	-10.1212
▁70	-10.1216
▁protsendi	-10.1217
▁asjast	-10.1221
▁sulge	-10.1222
▁Kolmandaks	-10.1223
▁kodakondsus	-10.1229
▁määratud	-10.123
▁Vii	-10.1232
▁kõnele	-10.1238
▁alust	-10.1242
jatele	-10.1243
▁likvideeri	-10.1244
▁tehnilise	-10.1244
▁vabasta	-10.125
▁aus	-10.1252
▁vastutuse	-10.1254
määr	-10.1255
▁puldist	-10.1258
▁kaitseväe	-10.1263
▁lisada	-10.1267
juhtide	-10.1268
▁määrus	-10.1274
▁samba	-10.1277
▁teadlik	-10.1278
aste	-10.1287
▁sõltu	-10.1292
▁turul	-10.1294
▁Pikhof	-10.1294
▁tõesta	-10.1297
▁1%	-10.13
äi	-10.1307
▁Anvelt	-10.1311
▁heaolu	-10.1311
▁struktuurse	-10.1312
▁kajasta	-10.1314
▁IT	-10.1314
▁miinimumi	-10.1316
tund	-10.1318
▁4.	-10.132
▁töötanud	-10.133
ettevõtete	-10.133
▁Sellele	-10.1334
htu	-10.1335
▁aprillil	-10.1336
▁sisulise	-10.1341
▁Viljandi	-10.1344
▁mõelnud	-10.1344
▁kaitseminister	-10.1346
▁õigusi	-10.1348
arsti	-10.1355
▁vaheaeg	-10.1359
▁Balti	-10.136
vahe	-10.1363
▁hanke	-10.1366
jaama	-10.1372
▁Kokku	-10.1374
▁Vaatame	-10.1378
▁argument	-10.1378
umine	-10.1388
õi	-10.1388
▁kinnisvara	-10.1397
suhte	-10.1398
▁moodusta	-10.1411
▁võ	-10.1429
▁ettevõtted	-10.143
iidi	-10.143
▁tekitada	-10.143
▁vormi	-10.1438
▁Andrus	-10.1442
▁loetelu	-10.1445
▁ressursi	-10.1447
▁toote	-10.1449
õpetaja	-10.1449
ari	-10.1454
▁esitaja	-10.1456
leppe	-10.1456
▁Ilmselt	-10.1462
registri	-10.1462
▁normaalse	-10.1463
ig	-10.1464
▁neljanda	-10.1468
▁inimestest	-10.1472
▁põ	-10.1474
▁tuu	-10.1477
▁kogukonna	-10.1481
▁tegeleda	-10.1484
Krista	-10.1485
▁teisiti	-10.1486
▁erinevalt	-10.1486
▁pagulas	-10.1486
▁mõnel	-10.1494
▁36	-10.1494
▁erasektori	-10.1495
▁laiem	-10.1496
▁enese	-10.1497
▁teadmise	-10.1501
▁koormus	-10.1503
kordne	-10.1504
▁jaanuarist	-10.1513
taseme	-10.1514
▁Komisjonis	-10.1515
▁Balticu	-10.1522
uri	-10.1523
▁niisama	-10.1528
▁vältida	-10.153
▁soovite	-10.1536
▁mainisin	-10.1537
poliitikat	-10.1541
▁muidu	-10.1543
▁hirmu	-10.1545
▁juhtida	-10.1549
▁perspektiivis	-10.1551
tuste	-10.1559
▁Sester	-10.156
▁2015	-10.1563
▁tahtnud	-10.1564
▁Siit	-10.1564
▁aastani	-10.1566
▁valmi	-10.1571
koormus	-10.1572
▁puudus	-10.1575
kindlus	-10.1575
gem	-10.1578
▁48	-10.1579
▁operatsiooni	-10.1583
▁Muu	-10.1584
▁vaat	-10.1585
rik	-10.1586
▁välismaal	-10.1589
▁Praeguse	-10.1593
poolne	-10.1596
▁seadustiku	-10.16
▁panus	-10.1602
korraldus	-10.1605
▁maamaksu	-10.1605
▁Üle	-10.1606
▁toetama	-10.1607
▁katkestada	-10.1612
▁omaniku	-10.1613
▁Enn	-10.1614
▁eksami	-10.1616
▁Pomerants	-10.1616
▁tõlgenda	-10.1616
▁looduskaitse	-10.1618
▁konkreetsete	-10.1621
▁lõpphääletus	-10.1623
▁pikema	-10.1623
▁takso	-10.1636
▁kasutusele	-10.1636
▁ministrid	-10.1639
jää	-10.164
▁eesmärkide	-10.1645
▁ametisse	-10.1648
▁tegemine	-10.1651
▁20.	-10.1659
▁kaugele	-10.166
▁teemad	-10.1668
▁tutvustas	-10.1671
▁so	-10.1673
kaardi	-10.1674
ilm	-10.1674
kra	-10.1684
▁pikenda	-10.1687
mini	-10.1689
▁37	-10.169
▁tuleneva	-10.1694
väärtus	-10.1694
üle	-10.1703
▁Henn	-10.1706
▁söö	-10.171
sem	-10.1713
▁tekivad	-10.1713
▁Põldaru	-10.172
▁vahendid	-10.1724
▁ütleksin	-10.1725
▁Sellist	-10.1726
▁arendada	-10.1736
▁rääkides	-10.174
▁omavalitsustes	-10.1744
6%	-10.1747
▁tunnistada	-10.1749
▁kuhugi	-10.1754
▁maksuvaba	-10.1764
▁kuskilt	-10.1765
▁käsitlemine	-10.1766
▁6.	-10.1766
▁suudab	-10.1769
probleem	-10.1772
▁tööpäeva	-10.1774
vajadus	-10.1783
▁lugenud	-10.1784
▁Eestile	-10.1785
▁sääst	-10.1787
▁korteri	-10.1789
rve	-10.1789
▁tekitanud	-10.1794
▁55	-10.1798
▁peatu	-10.1803
Ning	-10.1807
▁kommenteerida	-10.1809
▁kellega	-10.181
teenistuse	-10.1813
keskkonna	-10.1817
tööd	-10.183
lust	-10.183
▁kiir	-10.183
▁Saar	-10.1838
▁protseduuri	-10.1842
▁piiratud	-10.1842
▁Kaitseliidu	-10.1843
▁Ha	-10.185
▁päevast	-10.1853
▁65	-10.1864
▁millist	-10.1865
mate	-10.1872
▁Helmen	-10.1874
▁koolitus	-10.1879
tra	-10.1881
ata	-10.1886
▁siiani	-10.1892
leping	-10.19
▁Arto	-10.1903
▁asutuse	-10.1906
▁Monika	-10.1907
mm	-10.1912
▁Kütt	-10.1913
▁Pärast	-10.1913
▁menetluses	-10.1915
▁temaatika	-10.1915
valitse	-10.1918
▁stenogrammi	-10.192
▁Kuigi	-10.1922
▁2016	-10.1924
▁igas	-10.1925
▁tahet	-10.1926
▁unusta	-10.1928
▁olulisi	-10.1931
▁aktsepteeri	-10.1931
▁ühiskonda	-10.1933
▁kuriteo	-10.1934
▁andmetel	-10.1935
▁liikmena	-10.1935
▁eelnõude	-10.1937
▁täiendavalt	-10.1938
▁..."	-10.1938
kor	-10.1939
▁vald	-10.194
▁oota	-10.1941
▁kaup	-10.1942
▁esimesele	-10.1943
▁piirkonnas	-10.1947
▁tööstus	-10.195
▁jätkuvalt	-10.1951
▁seonduva	-10.1952
▁kirjutanud	-10.1953
▁kusjuures	-10.1956
▁Valitsust	-10.1956
▁saamise	-10.1963
▁elanikkonna	-10.1967
▁peetud	-10.1967
▁venekeelse	-10.1967
stuse	-10.1971
▁jõustumise	-10.1972
▁maksukoormus	-10.1973
▁katse	-10.1978
▁mõjuta	-10.198
jo	-10.1983
▁Raivo	-10.1984
järgu	-10.1984
▁endi	-10.1986
▁asutuste	-10.1998
▁investeeringud	-10.1999
▁Probleem	-10.2002
▁kala	-10.2003
▁abielu	-10.2008
pidaja	-10.201
▁kompenseeri	-10.2012
▁seadusest	-10.2012
▁ärge	-10.2013
õppe	-10.2015
▁31	-10.202
▁meetme	-10.202
Proua	-10.2021
▁sedasama	-10.2026
▁lastega	-10.2028
▁jurist	-10.203
▁tasub	-10.203
▁tekiks	-10.2035
▁kriteeriumi	-10.2036
▁Parlamendi	-10.2038
▁trahvi	-10.2052
▁täpse	-10.2053
oon	-10.2056
▁asuta	-10.2056
▁peamine	-10.2057
rr	-10.2058
▁päevakorras	-10.2081
nä	-10.2081
▁vanemad	-10.2085
sele	-10.2086
▁võla	-10.2092
▁Eestist	-10.2093
▁kõ	-10.2096
vahetus	-10.2096
▁ministrite	-10.2108
oni	-10.2111
▁avaldus	-10.2115
▁minul	-10.2116
rühma	-10.2126
▁lähenemine	-10.2129
▁Lõuna	-10.2129
▁kanna	-10.2129
umi	-10.2133
▁Piirivalveameti	-10.2133
▁tarbi	-10.2136
▁lae	-10.2139
▁29	-10.2142
J	-10.2142
▁para	-10.2143
▁Aasta	-10.2144
▁kellelgi	-10.2147
tavalt	-10.215
▁toimib	-10.2152
▁kõrgem	-10.2153
▁töökohtade	-10.2158
▁kandidaadi	-10.2159
▁vaatamata	-10.216
▁tugine	-10.2161
▁täitmisel	-10.2171
▁reeglid	-10.2171
Ü	-10.2178
võime	-10.2179
▁korraga	-10.218
▁loogiline	-10.2183
▁mälu	-10.2183
▁praeguses	-10.2183
▁üli	-10.2189
▁aine	-10.2191
ute	-10.2195
▁fraktsioonilt	-10.2196
astme	-10.22
▁tsiviil	-10.2201
▁palve	-10.2201
▁teenus	-10.2204
▁vaeva	-10.2205
aegse	-10.2205
▁teatavasti	-10.2205
▁lõige	-10.2206
▁side	-10.2209
▁Põhi	-10.2209
▁kvaliteet	-10.2212
▁koolid	-10.2213
▁langetada	-10.2218
ment	-10.2224
riikide	-10.2225
tur	-10.223
▁Kristen	-10.2234
Järgmine	-10.2234
▁ekspordi	-10.2238
▁pidama	-10.2238
▁allkirja	-10.2242
▁lubada	-10.2247
lõ	-10.2248
▁tulevikku	-10.2259
▁möödunud	-10.2261
▁paneme	-10.2262
firma	-10.2263
▁Osa	-10.2267
▁paha	-10.2268
▁erikomisjoni	-10.2268
▁muudab	-10.2268
▁juhtimise	-10.227
▁sügisel	-10.2272
▁mandaadi	-10.2275
ange	-10.228
uni	-10.2281
pääs	-10.2285
▁seadusesse	-10.2292
▁kohustused	-10.2296
imu	-10.23
▁territooriumil	-10.2302
▁kehti	-10.2303
Aitüma	-10.2311
▁kool	-10.2312
▁teistsugune	-10.2313
rje	-10.2313
▁mõtlen	-10.2313
▁tahe	-10.2314
▁lõi	-10.2316
▁piirkonna	-10.2318
▁eelarvesse	-10.2325
Ko	-10.2326
▁Mõni	-10.233
▁omal	-10.2331
▁sammud	-10.2342
▁kandideeri	-10.2346
?""	-10.2347
▁poliitiliste	-10.2348
▁Margus	-10.2349
▁puldis	-10.2352
mmi	-10.2354
▁juhtis	-10.2358
turgu	-10.2361
▁tasemele	-10.2361
▁näitavad	-10.2361
▁õigusabi	-10.2362
▁tekst	-10.2365
▁esindus	-10.2367
▁siinkohal	-10.2367
▁rõhu	-10.237
▁püsti	-10.2371
▁maht	-10.2374
▁püüame	-10.2374
▁teavad	-10.2379
▁põhjused	-10.2383
▁mõistliku	-10.2389
▁asjaga	-10.2389
▁taotleda	-10.239
▁tahes	-10.2397
võrgu	-10.2399
▁seisukohast	-10.2402
väe	-10.2402
▁Rahva	-10.2404
▁lõpetatakse	-10.2407
▁ilmselgelt	-10.241
▁pilt	-10.241
▁selliselt	-10.2416
▁ometi	-10.2423
▁4,	-10.2423
▁kõvasti	-10.2424
staa	-10.2425
▁olulist	-10.2426
▁registreeritud	-10.2438
▁Valdo	-10.2446
▁toetavad	-10.2447
▁ülesande	-10.2448
▁märgi	-10.2448
▁viib	-10.2461
▁astme	-10.2461
▁linn	-10.2464
▁17.15.	-10.2465
▁sügava	-10.2471
▁Kokk	-10.2472
▁tuvasta	-10.2477
▁juhtumeid	-10.2481
uh	-10.2491
▁ütleks	-10.2494
eta	-10.2498
▁tulude	-10.25
▁kulutusi	-10.25
▁lugesin	-10.2501
▁eelista	-10.2505
▁tuhande	-10.251
▁kurb	-10.2515
▁riigigümnaasium	-10.2519
▁meeldib	-10.2519
▁juhtus	-10.2519
piiri	-10.2521
▁Seni	-10.2521
▁oluliseks	-10.2529
▁Luigas	-10.2536
▁konsensuslik	-10.2538
▁Järgmine	-10.2539
▁teadusminister	-10.254
▁rääkisime	-10.254
▁kasutatud	-10.2545
▁41	-10.2546
▁taseme	-10.2548
▁koostatud	-10.2554
▁ennekõike	-10.2555
▁sajandi	-10.2556
▁Palo	-10.2557
▁jätkusuutlik	-10.2561
▁endise	-10.2567
▁toona	-10.2567
▁tihtipeale	-10.2573
uda	-10.2579
ots	-10.2583
▁rahvast	-10.2584
jõud	-10.2584
▁luge	-10.2584
▁pöörduda	-10.2588
hv	-10.2588
▁stabiilsus	-10.2593
▁lubadus	-10.2602
▁arutelude	-10.2604
▁teeks	-10.2607
▁järje	-10.261
▁leppida	-10.2611
▁lähte	-10.2611
▁võite	-10.2612
▁naa	-10.2629
▁Juba	-10.2633
aega	-10.2635
mäe	-10.2641
veo	-10.2643
statakse	-10.2644
kka	-10.2649
▁Eestit	-10.265
▁muretse	-10.2657
▁diskussioon	-10.266
▁keelatud	-10.266
▁Selge	-10.2662
▁ühiselt	-10.2663
▁alguse	-10.2665
▁seisab	-10.2665
▁konflikti	-10.2665
▁mainitud	-10.2666
▁Juhan	-10.2669
▁turismi	-10.2669
▁keeldu	-10.267
▁lühike	-10.2671
▁häda	-10.2673
▁teenistuse	-10.2677
▁kommenteeri	-10.2677
▁hääletus	-10.2678
▁vastuses	-10.268
▁toetusi	-10.268
▁võimatu	-10.2682
▁küsinud	-10.2685
väga	-10.269
▁kujune	-10.2694
rühm	-10.2694
▁alt	-10.2704
ajal	-10.2704
▁loa	-10.2705
▁algusest	-10.2707
▁valijate	-10.271
▁võtavad	-10.2712
▁kaugel	-10.2714
▁erakonnad	-10.2716
▁kodanik	-10.2729
suguse	-10.2729
▁maine	-10.2734
▁Hääletustulemus	-10.2735
▁seadusele	-10.2739
ministrile	-10.2741
▁ettepanekuga	-10.2742
▁rahandusministr	-10.2759
▁tahtsin	-10.2765
▁varsti	-10.2765
plaani	-10.2765
▁samasuguse	-10.2768
▁valdkondades	-10.2768
▁Vasta	-10.2768
valdkonnas	-10.277
▁konkreetseid	-10.2775
▁tõenda	-10.2775
▁ülesanded	-10.2776
▁sund	-10.2778
otsi	-10.278
iministeeriumi	-10.2788
▁sunni	-10.2791
▁49	-10.2801
▁lähedal	-10.2801
▁sündi	-10.2802
▁sektoris	-10.2805
▁normi	-10.2809
▁Inimesed	-10.2818
▁loodetavasti	-10.2823
▁algab	-10.2824
▁seisukohtade	-10.2831
▁tänapäeva	-10.2836
organ	-10.2844
▁säilita	-10.2849
ismi	-10.2851
▁reguleeritud	-10.2862
▁vastutab	-10.2865
▁mõtteid	-10.2867
▁kalli	-10.2868
▁püüan	-10.2869
▁olevate	-10.2872
▁seos	-10.2876
▁säte	-10.2877
äh	-10.288
▁kutsutud	-10.2885
▁kõlanud	-10.2887
▁tegid	-10.2891
▁omavalitsuses	-10.2891
▁püüdnud	-10.2898
▁projekt	-10.29
▁kõikides	-10.29
▁tõite	-10.29
▁Seadus	-10.2902
▁kauem	-10.2903
▁automaatselt	-10.2904
▁Loo	-10.2904
gress	-10.2907
▁juhin	-10.2915
▁isikliku	-10.2918
▁peetakse	-10.2921
▁voli	-10.2922
▁kannab	-10.2922
▁lähemal	-10.2923
üksus	-10.2923
▁õppekava	-10.2923
rikka	-10.2924
▁Aadu	-10.2926
▁räägiti	-10.2927
▁end	-10.2939
▁Üldiselt	-10.294
▁toetamise	-10.2941
▁käivita	-10.2941
▁Võtame	-10.2942
▁aktiivselt	-10.2944
▁lähiajal	-10.2946
▁kaasatud	-10.2946
▁sõnu	-10.2948
3.	-10.295
toetus	-10.2952
▁miinus	-10.2953
▁nõukogude	-10.2956
▁Poola	-10.2961
▁seadusmuudatus	-10.2961
▁täida	-10.2967
▁juriidilise	-10.297
▁toetas	-10.2974
▁22.	-10.2977
▁algatus	-10.2979
▁vangla	-10.298
konda	-10.298
▁organisatsioon	-10.2982
▁tegeleme	-10.2986
töötajate	-10.299
▁toimuva	-10.2991
▁madala	-10.2991
▁Juhtivkomisjon	-10.2992
ants	-10.2993
usest	-10.2996
▁deklareeri	-10.2999
▁üha	-10.3
▁vastanud	-10.3
▁rahastamine	-10.3002
▁räägivad	-10.3013
kon	-10.3019
▁nõnda	-10.3019
▁Viimase	-10.302
tused	-10.3021
▁5%	-10.3025
▁halva	-10.3029
▁riigikontrolör	-10.304
kontrolli	-10.3042
used	-10.3049
▁sadama	-10.305
▁vanuse	-10.3053
▁objekti	-10.3054
▁nimi	-10.3057
▁väikeste	-10.3059
▁õigusloome	-10.3059
▁õigused	-10.3059
tti	-10.306
▁välista	-10.3066
▁isikud	-10.3069
▁küsimusest	-10.3075
▁eelnõust	-10.3075
▁linnas	-10.3077
▁vastamise	-10.3077
auto	-10.308
▁vabadus	-10.3081
▁tulemusi	-10.3086
▁keela	-10.3086
▁ajakirjandus	-10.3089
▁käsitletud	-10.3089
▁Märt	-10.3096
▁loomulik	-10.3098
ndatud	-10.3099
▁Samamoodi	-10.3099
▁laiene	-10.31
▁Heljo	-10.3101
▁2009.	-10.3101
kk	-10.3105
▁põhiline	-10.3106
▁poolda	-10.3108
rus	-10.3112
▁nõuete	-10.3115
▁8.	-10.3121
7%	-10.3122
▁juhtuda	-10.3126
▁Seaduseelnõu	-10.313
▁erisus	-10.3133
tuna	-10.3134
▁EAS	-10.3139
▁kolmapäeva	-10.3139
▁kenasti	-10.314
▁maad	-10.3143
uga	-10.3151
▁teistpidi	-10.3162
▁viitasite	-10.3162
▁selleni	-10.3163
▁hakkas	-10.3166
▁tahte	-10.3166
▁tööandjate	-10.3167
▁kasutus	-10.3174
▁reguleerida	-10.3177
▁kaotada	-10.3179
▁Karilaid	-10.3179
▁sõlmitud	-10.318
▁kohane	-10.318
▁toimuma	-10.318
▁sõjalise	-10.3182
▁Tõ	-10.3184
▁informatsioon	-10.3189
keskkond	-10.3196
▁põhimõtete	-10.3198
▁leppinud	-10.3199
▁perioodil	-10.3204
▁paljusid	-10.3207
▁Seeder	-10.3207
▁rahast	-10.3208
▁riigireformi	-10.3213
▁usku	-10.3215
korralduse	-10.3218
saar	-10.3218
▁An	-10.3221
▁sõltumata	-10.3222
▁senise	-10.3226
teadus	-10.3226
▁võlgu	-10.3229
▁jääma	-10.3231
▁soovitan	-10.3235
▁soe	-10.3237
tule	-10.3244
▁väliskomisjoni	-10.3245
märgi	-10.3246
▁tr	-10.3249
▁riikidega	-10.3249
▁elektroonilise	-10.3251
▁asendus	-10.3251
▁vaielda	-10.3252
grupp	-10.3254
▁muutmist	-10.326
▁tõhus	-10.3264
▁Tolliameti	-10.3265
▁märkus	-10.3268
põhise	-10.3269
▁karmi	-10.3277
▁rea	-10.3277
▁noori	-10.3277
▁Ain	-10.328
kahju	-10.329
ikute	-10.3291
vaba	-10.3292
▁Liitu	-10.3293
kõne	-10.3298
una	-10.3299
▁krooni	-10.3301
▁44	-10.3305
▁muutuvad	-10.3307
▁toimu	-10.3308
▁Ri	-10.331
▁pildi	-10.3314
▁taastuvenergia	-10.3321
▁ülal	-10.3321
▁õpetajad	-10.3328
saadiku	-10.3331
▁õnnestu	-10.3334
▁Ühendriikide	-10.3341
▁arendustegevuse	-10.3342
▁hääletama	-10.3351
▁liikmesriigi	-10.3357
▁lükka	-10.3357
▁värske	-10.3362
▁senti	-10.3362
▁eeldab	-10.3364
▁ehitatud	-10.3365
▁täiendavat	-10.3365
▁infotunnis	-10.3365
▁näol	-10.3367
▁paljudel	-10.3375
ratifitseerimise	-10.3376
▁mõninga	-10.3378
▁toetused	-10.3379
▁löö	-10.338
▁regiooni	-10.3382
kindlustuse	-10.3388
▁Järgmise	-10.3391
▁loodame	-10.3391
U	-10.3392
▁küsisite	-10.3393
▁välispoliitika	-10.3394
▁sündinud	-10.3396
▁kasutavad	-10.3397
▁piisava	-10.3398
▁hommikust	-10.3403
▁tehes	-10.3404
av	-10.3406
▁pakub	-10.3411
meeste	-10.3412
▁Lo	-10.3416
▁lauale	-10.3416
▁tagama	-10.3422
▁2%	-10.3424
▁takistus	-10.3424
Lugupeetav	-10.3434
sõidu	-10.3435
▁menetleda	-10.3437
▁kohustust	-10.3438
▁teenused	-10.344
▁öeldi	-10.3444
▁rahaga	-10.3446
▁kinnitas	-10.3447
ivse	-10.3453
▁tühista	-10.3455
risti	-10.3455
▁Tänase	-10.346
▁pankade	-10.3466
kalt	-10.3468
▁osutu	-10.3473
grupi	-10.3476
deks	-10.3485
▁eksisteeri	-10.3487
rü	-10.3489
▁reaalne	-10.3494
▁ilusa	-10.3495
▁küsiti	-10.3495
▁2019.	-10.3495
piirkonda	-10.3496
▁keskmiselt	-10.3499
▁sõnastus	-10.3499
▁jaota	-10.3499
▁igasuguse	-10.3502
▁75	-10.3505
▁võtme	-10.3507
▁400	-10.3519
▁praegusel	-10.352
▁vaate	-10.352
Mul	-10.3521
▁Vahe	-10.3526
▁kütuseaktsiisi	-10.3528
▁tubli	-10.3529
▁tõenäosusega	-10.3529
▁võtaks	-10.3532
▁Toon	-10.3533
▁analüüsida	-10.3534
▁liikmeks	-10.3538
▁Teil	-10.3542
▁aruta	-10.3546
õõ	-10.3548
▁Inara	-10.3548
▁vastutust	-10.3557
▁esitama	-10.3557
▁puu	-10.3557
▁hinnangut	-10.3565
▁Läbirääkimis	-10.3571
▁millises	-10.3572
lit	-10.3574
▁infosüsteemi	-10.3574
ministeeriumil	-10.3575
▁Eriti	-10.3577
▁mõjutada	-10.3583
osakonna	-10.3584
Naer	-10.3587
▁sulgen	-10.3588
▁valda	-10.3588
▁ettenähtu	-10.359
▁välju	-10.3591
▁hindamise	-10.3591
▁Riigikaitse	-10.3594
▁Ette	-10.3594
▁appi	-10.3596
▁Must	-10.3599
▁rände	-10.3603
Külliki	-10.3603
▁põhjalik	-10.3604
▁Eesmaa	-10.3611
▁korteriühistu	-10.3611
▁avasta	-10.3614
▁Siim	-10.3617
matult	-10.3618
umist	-10.3619
▁teabe	-10.3638
▁fa	-10.364
▁Suure	-10.3644
ld	-10.3645
Teine	-10.3647
▁esitati	-10.3649
▁dokumentide	-10.365
▁tõhusa	-10.365
▁kr	-10.3659
▁seisuga	-10.3659
▁Lugupeetav	-10.3662
▁jõudis	-10.3665
▁asub	-10.3666
▁dividendi	-10.3674
▁pikaajalise	-10.3675
▁olemasolu	-10.3675
▁iseseisva	-10.3675
▁viiakse	-10.3676
▁50%	-10.3681
võtmine	-10.3688
projekti	-10.3689
▁Erki	-10.369
▁seatud	-10.3694
▁riigieelarvesse	-10.3697
▁teadma	-10.3699
▁arvab	-10.37
▁5000	-10.3704
põhine	-10.371
tavaid	-10.3713
▁kättesaadav	-10.3714
ingu	-10.3716
▁Prantsusmaa	-10.3717
▁Kallo	-10.3717
▁kasutanud	-10.3719
▁1000	-10.3719
▁selgitas	-10.372
▁Saaremaa	-10.3721
▁kollektiiv	-10.3722
▁pandi	-10.373
▁ühendus	-10.373
▁pensionäride	-10.3731
▁füüsilise	-10.3733
▁Tsahkna	-10.3738
▁järelevalvet	-10.3738
idel	-10.374
▁jäätme	-10.3741
▁poliitikat	-10.3741
▁Li	-10.3741
▁majandust	-10.3745
▁eeskuju	-10.3746
▁uurimis	-10.3751
▁soodusta	-10.3753
▁töötasu	-10.3753
▁39	-10.376
haigla	-10.3774
kriisi	-10.3777
▁missuguse	-10.3778
▁endast	-10.378
▁digi	-10.378
▁Vaadake	-10.3781
▁valguses	-10.3781
▁eemal	-10.3782
▁raporti	-10.3784
▁pärit	-10.3786
▁maksavad	-10.3786
▁Kus	-10.3788
▁suhe	-10.3794
▁omavalitsustel	-10.3795
▁ühi	-10.38
▁Efendijev	-10.3802
▁palkade	-10.3802
▁erand	-10.3803
▁haigus	-10.3803
▁Lääne	-10.3809
▁põle	-10.3813
isiku	-10.3814
▁algatas	-10.3816
▁kommunikatsioon	-10.3822
▁avata	-10.3822
kad	-10.3831
lin	-10.3832
▁autori	-10.3841
▁küsib	-10.3842
▁elaniku	-10.3843
▁riiklik	-10.3843
▁luuakse	-10.3846
kasu	-10.3847
▁Tal	-10.3848
▁Algab	-10.3848
▁majanduslik	-10.385
▁vahelise	-10.3853
▁elama	-10.3856
▁lasta	-10.3857
tamisel	-10.3857
▁Ü	-10.386
▁suru	-10.386
▁valimised	-10.3861
▁oleksime	-10.3862
▁mismoodi	-10.3863
▁tähendus	-10.3864
▁Tahan	-10.3867
▁pead	-10.3868
▁43	-10.387
▁42	-10.3873
▁arvamusi	-10.3874
tusega	-10.3874
▁võtan	-10.3874
▁teaduse	-10.3875
protsessi	-10.3881
▁ulatu	-10.3882
▁Vabariigis	-10.3884
▁eelkõneleja	-10.3888
▁täiskasvanu	-10.3888
▁tähtsusega	-10.389
▁sisulist	-10.3891
▁ilmne	-10.3891
▁Toom	-10.3894
soo	-10.3897
▁riigieelarves	-10.3902
▁risk	-10.3909
▁RMK	-10.391
▁maantee	-10.391
▁ollakse	-10.3915
▁Pro	-10.3917
▁niisugust	-10.392
▁lähen	-10.3921
▁kinnitatud	-10.3924
▁praktikas	-10.3927
▁Lihtsalt	-10.3932
▁rõhutada	-10.3935
▁omandi	-10.3935
▁tausta	-10.3936
▁46	-10.3938
▁eesmärgid	-10.3939
▁ettepanekute	-10.3939
▁aset	-10.3952
▁Vastupidi	-10.3954
▁sõnavõtu	-10.3956
▁47	-10.3958
▁tehnoloogia	-10.396
sektoris	-10.3961
▁külas	-10.3966
▁valu	-10.3969
▁kohtute	-10.397
▁ida	-10.3971
▁kehtivad	-10.3974
▁USA	-10.3975
▁häiri	-10.3975
vaks	-10.3987
lugu	-10.399
vahendite	-10.3992
▁jäta	-10.3999
▁tagab	-10.4003
▁nimetasite	-10.4005
▁perekond	-10.4007
▁alustas	-10.4012
▁põllumajanduse	-10.4012
▁käsitleda	-10.4015
jõu	-10.4023
▁lõppu	-10.4026
oor	-10.4028
▁poliitikud	-10.4029
▁tulid	-10.403
▁võimekus	-10.4031
▁sunnitud	-10.4031
▁panustada	-10.4034
▁suurendab	-10.4035
▁otsida	-10.4035
koalitsiooni	-10.404
▁MTÜ	-10.4041
▁tühja	-10.4041
▁Täpselt	-10.4041
▁nõuda	-10.4041
▁Mikser	-10.4047
var	-10.405
▁lahendatud	-10.405
▁AS	-10.4054
▁auditi	-10.4058
ajalt	-10.4059
▁Eestimaa	-10.406
▁52	-10.4061
▁90	-10.4065
▁madalama	-10.4069
▁meeste	-10.4074
▁töölepingu	-10.4076
▁tiheda	-10.4077
▁püütakse	-10.4085
▁vanem	-10.4086
▁Neil	-10.4097
▁jutuks	-10.4098
▁sõnumi	-10.4099
▁hääletust	-10.41
▁Aeg	-10.4104
▁liik	-10.4106
▁mistõttu	-10.4107
▁tarvis	-10.4107
▁üheks	-10.4111
▁Minul	-10.4114
▁kohtusse	-10.4115
▁ime	-10.4116
▁liini	-10.4116
▁2018	-10.4125
▁astuda	-10.4128
piirkonna	-10.4128
▁Eesmärk	-10.4129
▁sõita	-10.4133
▁hoiaku	-10.4137
▁kuskile	-10.4142
▁reserv	-10.4146
▁arvestus	-10.4147
▁vastavad	-10.4148
▁abikaasa	-10.4151
▁toode	-10.4152
▁Auväärt	-10.4153
▁täidetud	-10.4157
▁Saksamaa	-10.4159
punkt	-10.4164
aktsiisi	-10.4166
▁Laanet	-10.417
reform	-10.4172
▁sarnase	-10.4173
▁äsja	-10.4173
▁näidanud	-10.4174
dEttepaneku	-10.4175
▁ametikoha	-10.4178
▁pla	-10.4194
▁lõuna	-10.4196
▁mitmesuguseid	-10.4196
▁lühikese	-10.4203
▁prokuratuuri	-10.4204
ühingu	-10.4205
▁tulemuse	-10.4206
▁kahjusta	-10.4207
▁teemade	-10.4207
ikud	-10.4209
▁teete	-10.421
▁reeglite	-10.4211
▁andme	-10.4213
▁linnade	-10.4219
▁Hei	-10.4225
raal	-10.4229
▁peaministrile	-10.4239
▁rongi	-10.4241
▁eelis	-10.4242
▁puhas	-10.4242
▁5,	-10.4243
▁toimingu	-10.4247
▁teki	-10.4247
spekt	-10.4254
▁vea	-10.4257
▁tehtava	-10.4261
▁kompromiss	-10.4262
▁korraldus	-10.4263
▁hommikul	-10.4263
▁ettevalmistus	-10.4268
▁kuulsime	-10.4268
▁investeerida	-10.4277
▁täitmiseks	-10.4278
▁Läbirääkimiste	-10.4279
▁ainuke	-10.428
▁muudetud	-10.4281
▁suudavad	-10.4282
▁halvasti	-10.4288
▁kutsuda	-10.4292
aat	-10.4292
▁mandaati	-10.4296
▁osalenud	-10.4302
▁juhtimis	-10.4302
▁kultuur	-10.4303
▁tulubaasi	-10.4304
▁panema	-10.4305
▁kiirusta	-10.4314
▁aluse	-10.432
▁detail	-10.4321
▁kampaania	-10.4321
reklaam	-10.4323
kuus	-10.4325
▁Maris	-10.4325
▁eesistumise	-10.4326
▁ootame	-10.4327
▁liigu	-10.4327
▁kritiseeri	-10.433
▁pakkunud	-10.433
▁süvene	-10.433
mahu	-10.4335
▁Eile	-10.4337
▁aktsiis	-10.4344
▁kujunenud	-10.4345
▁printsiip	-10.4352
kaart	-10.4352
▁rahapesu	-10.4353
▁Pank	-10.4355
▁laiali	-10.436
ettevalmistamist	-10.4366
▁kahtluse	-10.4374
ressurss	-10.4374
og	-10.4375
▁aitavad	-10.4376
▁Riigikokku	-10.4377
▁kolmandat	-10.4384
▁23.	-10.4389
▁sisuka	-10.4393
▁arupärimist	-10.4393
▁paralleel	-10.4396
▁igaüks	-10.4399
▁raskus	-10.4399
▁viimaste	-10.4401
▁nõudeid	-10.4402
▁hirm	-10.4403
▁kodanikud	-10.4403
▁kooseluseaduse	-10.4406
▁jään	-10.4407
eksami	-10.4409
▁kohalikke	-10.4412
▁prognoos	-10.4413
▁vabatahtliku	-10.442
▁Riisalu	-10.4421
▁Palling	-10.4421
▁tõstmine	-10.4421
▁Vabariik	-10.4422
▁tase	-10.4423
Valdor	-10.4424
▁asjadest	-10.4432
▁juhatusele	-10.4436
▁tõin	-10.4438
koormuse	-10.4443
▁viidud	-10.4445
▁tänada	-10.4445
▁Vakra	-10.4445
puhku	-10.4451
▁koju	-10.4453
▁varasemate	-10.4457
▁Mõne	-10.4458
stamist	-10.4461
▁Arupärijate	-10.4467
▁Kiisler	-10.4467
▁diskrimineeri	-10.4467
▁teisipäeva	-10.4472
▁juhtum	-10.4475
▁lase	-10.4476
▁suhtumine	-10.4476
▁liikumis	-10.4479
▁paremat	-10.4482
▁eeldan	-10.4483
▁järgmiste	-10.4485
▁hoolimata	-10.4492
▁nõude	-10.4492
▁langeb	-10.4504
▁2020	-10.4508
▁Ole	-10.4508
▁ideed	-10.4509
ristusseadustiku	-10.451
kuritegu	-10.4511
▁pidades	-10.4513
▁bussi	-10.4513
▁mõõt	-10.4513
▁toimuvad	-10.4513
▁ühiskonnale	-10.4515
▁lähtuda	-10.4516
▁kasvavad	-10.4516
▁pakendi	-10.4521
▁sõidu	-10.4522
▁teistest	-10.4522
▁kiriku	-10.4523
9%	-10.4523
vatele	-10.4524
▁pihta	-10.4536
▁pinge	-10.4536
▁siinsamas	-10.4536
▁osapoolte	-10.4537
omanike	-10.4544
Martin	-10.4553
omanik	-10.4554
▁eesmärke	-10.4557
arve	-10.4558
▁omavalitsusele	-10.4558
arvu	-10.456
▁ametnik	-10.4561
▁Kolleeg	-10.4562
kokku	-10.4563
▁paber	-10.4564
▁arusaamatu	-10.457
▁teatava	-10.4571
▁algatajate	-10.4572
▁apteek	-10.4578
▁liigub	-10.458
▁hüvita	-10.4586
▁otsusega	-10.4588
tunne	-10.4594
▁kestab	-10.4601
▁regionaalse	-10.4602
▁tegemisel	-10.4602
▁oleksin	-10.4604
▁koli	-10.4607
▁laadi	-10.4607
▁kahtlus	-10.4611
▁aitaks	-10.4612
▁Paljud	-10.4614
▁2013	-10.4623
▁norm	-10.4627
▁pealkirja	-10.4631
▁institutsiooni	-10.4633
▁Meile	-10.4635
arv	-10.4636
▁direktiiv	-10.4639
▁tabeli	-10.4642
▁õigusliku	-10.4644
▁Po	-10.4656
▁tutvustada	-10.4661
seadustiku	-10.4661
▁kaob	-10.4662
asutus	-10.4663
▁vajaliku	-10.4667
▁muul	-10.4671
Aplaus	-10.4675
▁suurusjärgus	-10.4675
▁lähtub	-10.4675
▁erakorralise	-10.4675
liseks	-10.4677
▁Raha	-10.4681
Tuletan	-10.4694
▁realiseeri	-10.4699
▁pinguta	-10.4699
▁hoia	-10.4699
hvusringhäälingu	-10.4704
▁25.	-10.4705
lg	-10.4713
▁kriitilise	-10.4722
▁Annan	-10.4722
▁maksud	-10.4723
▁tüüpi	-10.4723
▁ühtlusta	-10.4723
▁häälte	-10.4724
▁intressi	-10.4725
▁2010.	-10.4737
▁poliitikute	-10.4737
kütus	-10.4743
poliitik	-10.4748
kindlustus	-10.475
alade	-10.475
▁positsioon	-10.4751
▁jätkan	-10.4759
seaduses	-10.476
▁kõrghariduse	-10.4763
▁suurima	-10.4764
▁õiglase	-10.4769
▁Seos	-10.4769
▁loob	-10.4779
▁sead	-10.4779
▁tegevused	-10.4781
▁tulemused	-10.4786
▁Valitsusele	-10.4788
eelse	-10.4791
▁maksustamise	-10.4791
▁inglise	-10.4793
▁range	-10.4795
▁ettevõtjatele	-10.4795
lahendus	-10.4798
▁lahendama	-10.4798
▁näita	-10.4798
▁ohtlik	-10.4804
õpet	-10.4806
▁maksumus	-10.4807
▁eesmärgil	-10.4809
▁Linna	-10.4817
ametnik	-10.482
hinda	-10.4823
sektor	-10.4829
▁üheselt	-10.4835
muse	-10.4837
▁lapsevanema	-10.4839
▁järgne	-10.4844
võrku	-10.4846
▁teemadel	-10.4847
Järve	-10.4848
▁jälgida	-10.485
▁teenistus	-10.4851
▁siseministri	-10.4856
võtja	-10.4864
▁süüdistus	-10.487
▁Iva	-10.4871
▁kasuks	-10.4873
▁J	-10.4875
▁Ho	-10.488
õu	-10.4881
piir	-10.4881
▁eduka	-10.4883
▁suuresti	-10.4884
▁saamiseks	-10.4889
▁pil	-10.489
▁juhtide	-10.489
▁osalesid	-10.489
järjekord	-10.4893
teenust	-10.4896
▁Kust	-10.4898
▁paindliku	-10.4905
▁Ameti	-10.491
sugune	-10.4912
▁kliima	-10.4912
▁Isegi	-10.4912
▁Vabaerakond	-10.4912
▁lu	-10.4914
▁määratle	-10.4914
▁arengufondi	-10.4916
▁tohutu	-10.4919
▁aruanne	-10.4921
lises	-10.4924
▁massi	-10.4926
▁isikut	-10.4931
▁oligi	-10.4934
▁Arupärimisele	-10.4936
▁kinnitanud	-10.4937
▁initsiatiivi	-10.4938
▁pöörata	-10.4939
▁tagatis	-10.4942
▁tingitud	-10.4944
▁poleks	-10.4946
▁ukse	-10.4946
▁sisuline	-10.4947
▁võimaluste	-10.4951
▁väidan	-10.496
▁püha	-10.496
▁augusti	-10.496
▁hoolda	-10.4961
▁valitsust	-10.4961
▁tsiteeri	-10.4963
Riigi	-10.4966
▁64	-10.4967
töötaja	-10.4968
▁mudeli	-10.4968
▁tähtsam	-10.4978
.)"	-10.4979
resident	-10.4982
▁ressursse	-10.4985
▁kindlalt	-10.4987
▁vähendab	-10.4994
▁laiendada	-10.4994
▁Praegune	-10.4999
▁üllatus	-10.4999
▁algata	-10.5001
▁Borodi	-10.5008
poolt	-10.5008
▁kulutused	-10.501
▁motiveeri	-10.5012
▁signaal	-10.5012
▁pikendada	-10.5013
▁leiame	-10.5017
go	-10.5019
▁rääkimata	-10.5023
võtmise	-10.5027
▁algatada	-10.5029
▁sihi	-10.5033
▁Jutt	-10.504
▁lõpeb	-10.5044
▁sõnad	-10.5044
▁tere	-10.5045
▁riigiabi	-10.5049
ministeeriumiga	-10.505
▁puudutava	-10.505
▁lõplik	-10.5053
öderatsiooni	-10.5053
▁Maaelu	-10.5054
amatu	-10.5055
▁pehme	-10.5057
▁terava	-10.5065
komisjonile	-10.5067
sotsiaalminister	-10.5069
politseinik	-10.5077
▁hari	-10.5078
▁Eestil	-10.508
järg	-10.5081
▁erivajadustega	-10.5081
▁puuetega	-10.5081
▁riku	-10.5081
märk	-10.5082
õe	-10.5082
▁ebaseaduslik	-10.5083
▁kallal	-10.5084
▁esitasid	-10.5084
▁vooru	-10.5086
▁muuseumi	-10.5089
▁seada	-10.5091
▁turule	-10.5091
▁läbirääkimistel	-10.51
▁Rainer	-10.5105
▁liikuma	-10.5106
▁teeninda	-10.5107
▁üritus	-10.5108
hoiu	-10.5108
▁null	-10.511
▁hävi	-10.511
▁rahalise	-10.5113
▁suureks	-10.5113
asja	-10.5114
▁2017	-10.5116
Hääle	-10.5117
▁2014	-10.5118
eniss	-10.5128
▁Seaduse	-10.5131
▁Iseenesest	-10.5131
▁53	-10.5136
▁tõmmata	-10.514
▁koosseis	-10.5141
mit	-10.5142
▁jõustub	-10.5142
▁tuge	-10.5143
▁olemus	-10.5144
▁talu	-10.5145
▁Vaat	-10.5145
▁Räägi	-10.5146
▁väiksemad	-10.5146
▁omanik	-10.5149
▁ainus	-10.5153
▁kaasata	-10.5153
▁riigihalduse	-10.5154
▁Narvas	-10.5155
vabadus	-10.5156
kohase	-10.5156
▁Pean	-10.5157
▁mures	-10.5164
üksi	-10.5169
▁seejärel	-10.517
▁suhete	-10.5172
valdkonda	-10.5174
▁Lii	-10.5177
▁kitsas	-10.5177
tasime	-10.5178
▁vägivalla	-10.5179
▁Sest	-10.5185
▁iseenda	-10.519
▁väär	-10.5194
▁personali	-10.5198
koor	-10.5204
▁rahulikult	-10.5207
▁kasutamist	-10.5208
▁demokraatlik	-10.5209
▁tulebki	-10.5212
▁müüa	-10.5217
▁kooselu	-10.5217
likkuse	-10.5224
▁nalja	-10.5228
▁üksteise	-10.5229
▁viitas	-10.5229
vilja	-10.5231
perioodi	-10.5234
keele	-10.5236
ondi	-10.5238
oleva	-10.5239
kultuuriminister	-10.524
▁2000	-10.524
▁tingimustes	-10.5241
▁rakendu	-10.5241
▁tuleme	-10.5243
▁kasutades	-10.525
aastane	-10.525
▁arusaadava	-10.5251
teist	-10.5251
▁Sama	-10.5252
▁Pentus	-10.5253
▁Otsus	-10.5254
▁teilt	-10.5254
▁He	-10.5255
▁Põllumajandus	-10.5258
▁viienda	-10.5261
▁parane	-10.5264
▁kohti	-10.5266
▁arupärijate	-10.5278
▁õppima	-10.5278
▁suvel	-10.528
▁Michal	-10.5283
▁lubanud	-10.5285
▁2020.	-10.5289
▁kvaliteetse	-10.5292
▁üksuse	-10.5293
▁spetsialistid	-10.5301
▁toetan	-10.5302
▁uhke	-10.5303
kuju	-10.5303
▁rahvusvaheline	-10.5303
vanema	-10.5306
▁Vabandust	-10.5306
▁tõmba	-10.5324
▁seadused	-10.5326
▁Kohtla	-10.5328
▁ca	-10.5329
▁Stalnuhhini	-10.5332
▁tootmise	-10.5338
▁Ent	-10.5338
▁tagant	-10.5338
ministeeriumile	-10.534
▁esmaspäeval	-10.534
▁Tartus	-10.5343
▁töötama	-10.5345
▁Madis	-10.5346
▁mitmesuguste	-10.5353
▁tunda	-10.5354
▁maksumuudatus	-10.5354
▁piirangud	-10.5355
▁ajada	-10.5357
▁ah	-10.5362
▁lootus	-10.5364
Aivar	-10.5365
▁moodustamine	-10.5372
▁korrigeeri	-10.5378
▁Tuiksoo	-10.5378
▁juhtinud	-10.5378
liini	-10.538
▁tehingu	-10.5384
koda	-10.5384
▁tegemiseks	-10.5387
▁seekord	-10.5387
▁jaotus	-10.5387
▁hindate	-10.5388
politsei	-10.539
▁puhtalt	-10.5391
▁ministeeriumis	-10.5394
▁tolle	-10.5398
▁tasku	-10.5402
▁huve	-10.5403
▁Sild	-10.5403
▁pikemalt	-10.5404
laeva	-10.5405
▁situatsiooni	-10.5408
▁igasuguseid	-10.5409
kultuuri	-10.5409
▁väärt	-10.5412
▁allu	-10.5413
▁majanduskasv	-10.5413
▁vaidle	-10.5413
▁mingis	-10.5419
▁kuivõrd	-10.5419
▁Neeme	-10.5428
▁enamasti	-10.5428
▁parim	-10.5434
▁avalikkusele	-10.5442
▁Tõnis	-10.5442
▁tegutseda	-10.5445
ravi	-10.5445
▁nõuetele	-10.545
aktsiooni	-10.5452
▁informeeri	-10.5453
▁määrati	-10.5454
▁samasugune	-10.5456
▁jäid	-10.5457
▁arupärimiste	-10.5459
loa	-10.5459
▁kõrgharidus	-10.546
▁54	-10.5461
▁lastekaitse	-10.5466
▁kasutab	-10.5466
▁ettevõtteid	-10.5466
▁eelnõusse	-10.5467
▁naised	-10.5469
▁Keskuse	-10.5471
Mart	-10.5472
▁tootja	-10.5472
▁nõustuda	-10.5473
▁hooldekodu	-10.5479
▁piinlik	-10.5479
▁Eel	-10.5489
▁arengut	-10.5492
▁Ve	-10.5493
▁edenda	-10.5498
tage	-10.5499
▁ekspertide	-10.5504
▁vastasin	-10.5507
▁jõuaks	-10.5513
▁tõusnud	-10.5517
▁järgmist	-10.5519
▁suuremate	-10.552
kolle	-10.5521
▁tarbimise	-10.5523
▁tulemusel	-10.5524
▁pilti	-10.5524
▁võlg	-10.5526
▁kuupäeva	-10.5526
▁ajakirjanik	-10.5529
▁ajutise	-10.553
▁peamiselt	-10.553
▁formaal	-10.5531
mehed	-10.5531
▁mõistlikum	-10.5532
▁piisa	-10.5534
▁piirkondades	-10.5535
ür	-10.5535
pidamis	-10.5537
▁põhimõtteline	-10.5538
▁deklaratsiooni	-10.5543
▁kohtus	-10.5543
▁lihtsusta	-10.5544
võimalus	-10.5544
▁järgmistel	-10.5545
▁Eelmise	-10.5546
▁Ratase	-10.555
▁esineja	-10.555
▁arst	-10.555
▁näevad	-10.5555
▁aseesimehe	-10.5555
▁narko	-10.5555
otsus	-10.5558
▁täiendav	-10.556
▁kange	-10.5571
▁vahetu	-10.5571
▁ilmu	-10.5574
liiklus	-10.5575
teenistus	-10.5577
▁spiiker	-10.5581
▁eraldatud	-10.5583
▁õiguslik	-10.5583
▁esi	-10.5583
▁täienda	-10.5584
▁täit	-10.5584
▁maade	-10.5587
▁eelmises	-10.5587
▁viinud	-10.5588
▁puutu	-10.559
▁kahane	-10.5593
Meie	-10.5596
▁täiendavaid	-10.5605
▁Lenk	-10.5606
▁lugema	-10.5606
▁Jaanson	-10.5606
▁30.	-10.5607
▁avalikult	-10.5609
▁turg	-10.5611
▁mõnikord	-10.5611
▁seaduseelnõuga	-10.5612
▁targem	-10.5614
▁vaesus	-10.5617
▁palgatõusu	-10.562
▁äriühingu	-10.562
▁huvid	-10.562
▁poliitikas	-10.5621
Minu	-10.5621
▁alanda	-10.5622
▁ettepanekul	-10.5624
▁noore	-10.5627
▁lahendused	-10.5628
▁otsusena	-10.5631
harju	-10.5632
▁algus	-10.5632
▁seadusmuudatuse	-10.5632
▁elavate	-10.5634
▁suuremaid	-10.5638
▁endal	-10.5642
▁suve	-10.565
▁ootab	-10.566
▁ring	-10.5663
▁OE	-10.5663
▁odavama	-10.5664
ring	-10.5668
hääletus	-10.5675
▁nägi	-10.5677
▁Ro	-10.5677
▁teistel	-10.5678
▁osalevad	-10.5678
liige	-10.5681
▁korraldatud	-10.5684
▁majanda	-10.5689
▁Ken	-10.5693
Küsimus	-10.5695
▁väikesed	-10.5697
asutused	-10.5698
ndeid	-10.57
▁haldusalas	-10.5703
▁statistikat	-10.5706
eerimine	-10.5706
▁lapsele	-10.5707
▁hooli	-10.5708
koolide	-10.5708
▁solidaarsus	-10.5709
▁tendents	-10.5709
▁õiglane	-10.5709
▁kaitstud	-10.5709
▁Põlva	-10.5709
▁lõhk	-10.571
▁viita	-10.571
▁kriitika	-10.5712
▁Eelmisel	-10.5712
▁liikmel	-10.5715
▁väljendu	-10.5717
▁edasise	-10.5722
▁mehed	-10.5724
▁ettevõtjaid	-10.5727
▁üksi	-10.573
õhu	-10.573
▁Kolmas	-10.573
▁koosoleku	-10.5733
▁sularaha	-10.5735
▁koorma	-10.5739
▁tegevuskava	-10.5739
▁Valga	-10.5743
▁Vaher	-10.5743
▁koostamise	-10.5744
▁erakonda	-10.5748
▁kaasne	-10.5749
turul	-10.5752
▁liitlas	-10.5764
▁sõnaga	-10.5765
▁sätestab	-10.5768
linna	-10.5773
▁arutamise	-10.5778
▁reaalsus	-10.5778
▁Tõenäoliselt	-10.5788
▁lõppkokkuvõttes	-10.5788
▁tagajärg	-10.5788
▁senisest	-10.579
pensioni	-10.5791
▁pank	-10.5791
▁är	-10.5792
▁võimalikud	-10.5794
kohtade	-10.5805
▁riikidest	-10.5807
▁kaalutlus	-10.581
▁kaasas	-10.5812
iguskantsler	-10.5813
▁kooskõlla	-10.5814
tunni	-10.5816
▁võimelised	-10.5823
▁piirangu	-10.5823
▁meedias	-10.5824
rea	-10.5824
▁ent	-10.5825
▁eelneva	-10.5826
kümne	-10.5831
▁78	-10.5834
▁piirata	-10.5838
▁kohalikel	-10.5845
▁ülikoolide	-10.5852
▁küsitud	-10.5856
▁kõikidel	-10.5859
rahva	-10.5864
▁järgneva	-10.5865
▁Põhjus	-10.5866
▁üldjuhul	-10.5866
▁Oluli	-10.5869
▁Eri	-10.5872
▁26.	-10.5874
form	-10.5875
▁saagi	-10.5875
ministeeriumist	-10.5876
▁võrdselt	-10.5876
▁otsima	-10.5876
▁nädal	-10.5883
▁loomine	-10.5888
▁57	-10.5891
▁kolmandale	-10.5892
▁surma	-10.5895
▁viimased	-10.5901
▁küsimustega	-10.5903
▁esimeses	-10.5906
ehitus	-10.5909
▁signaali	-10.5915
▁taristu	-10.5918
▁paiguta	-10.5919
▁segadus	-10.592
▁tuuakse	-10.592
ntsinspektsiooni	-10.5928
▁arstide	-10.5933
Mihhail	-10.5938
▁vaatab	-10.5941
käik	-10.5943
õhk	-10.5945
▁Üld	-10.5947
ära	-10.5947
▁haige	-10.5948
seis	-10.5951
▁kümneid	-10.5952
▁riskid	-10.5956
▁rahastamis	-10.5959
▁ravikindlustuse	-10.5962
uba	-10.5971
▁elluviimise	-10.5972
▁korrektne	-10.5972
▁siiralt	-10.5972
▁juhuks	-10.5972
▁leidma	-10.5973
▁üüri	-10.5973
▁kadunud	-10.5975
pärane	-10.5978
kese	-10.5979
%.	-10.598
▁miljardi	-10.5982
oko	-10.5993
Päevakorra	-10.5999
▁Põhimõtteliselt	-10.5999
▁lisandu	-10.6001
võimekus	-10.6002
▁passi	-10.6004
▁üksiku	-10.6009
▁otsustus	-10.6014
▁reservi	-10.6015
▁sündmus	-10.6015
aluse	-10.6018
B	-10.6019
▁otstarbe	-10.602
Urve	-10.602
▁7,	-10.6023
tervis	-10.6028
▁rääkisid	-10.6028
materjali	-10.6038
▁ministrina	-10.6041
kasv	-10.6043
▁mainis	-10.6043
▁finantseeri	-10.6048
vedu	-10.6051
▁Algataja	-10.6053
▁otstarbekas	-10.6054
▁minnakse	-10.6055
▁31.	-10.6057
▁lood	-10.6057
▁avaldanud	-10.6057
▁asjadega	-10.6058
▁tagasiside	-10.6058
▁uuringute	-10.6059
▁vastuvõtmist	-10.6062
▁kumma	-10.607
▁kavandatud	-10.6072
▁eksperdid	-10.6073
situatsioon	-10.6074
Rosimannus	-10.6079
▁Ometi	-10.6079
▁metoodika	-10.608
▁katkesta	-10.6081
▁lõpetan	-10.6084
▁Nõukogude	-10.6091
tunnistus	-10.6097
▁Anne	-10.6105
▁varju	-10.6106
▁kuritegude	-10.6108
▁austa	-10.6109
▁kolmandik	-10.6114
▁valitsemisala	-10.6116
▁suurendamise	-10.6122
sport	-10.6122
▁kallis	-10.6124
▁sind	-10.6124
▁kehtiv	-10.6126
ion	-10.6131
▁poliitiku	-10.6132
▁Kaljuvee	-10.6133
▁Sibul	-10.6133
▁Riigikohus	-10.6134
▁paremad	-10.6136
▁Mingi	-10.6139
▁pagulaste	-10.615
▁varu	-10.6151
▁üksmeel	-10.6152
▁tugevda	-10.6159
▁erivajadusega	-10.616
▁kajastu	-10.6162
kasutus	-10.6167
vedaja	-10.6171
▁olime	-10.6172
▁ministril	-10.6179
▁Tervise	-10.6188
▁2008.	-10.6188
▁kohtumise	-10.6189
▁Poolt	-10.619
▁väärika	-10.619
mehhanismi	-10.6191
▁tööminister	-10.6192
▁kohtades	-10.6195
▁õigel	-10.6195
▁raam	-10.6196
▁Ütlen	-10.6197
kohti	-10.6199
▁seisus	-10.6206
▁arutusel	-10.6208
▁tervik	-10.621
▁muide	-10.6212
▁sattu	-10.6214
▁muutmiseks	-10.6215
▁okupatsiooni	-10.6215
▁väljatöötamise	-10.6215
▁hinnad	-10.6216
▁areng	-10.6217
tajate	-10.6219
▁kütust	-10.6223
▁institutsioonid	-10.6223
justiitsministri	-10.6224
▁Taani	-10.6224
▁taba	-10.6233
▁tutvu	-10.6233
▁omaette	-10.6233
▁korralik	-10.6236
▁Saa	-10.6239
atu	-10.624
▁kevad	-10.6241
▁iseseisvus	-10.6242
▁leitakse	-10.6242
gramm	-10.6245
majade	-10.6247
▁kauge	-10.6248
▁igasugune	-10.6251
▁praeguste	-10.6252
▁põllumeeste	-10.6253
▁nõusoleku	-10.6253
viis	-10.6254
▁taastada	-10.6257
▁põhiliselt	-10.6258
▁28.	-10.6264
▁arvavad	-10.6268
▁56	-10.6268
▁väljakutse	-10.627
▁arvutus	-10.627
▁kantud	-10.6275
▁õigemini	-10.6276
partneri	-10.6278
mehe	-10.6279
▁õnnestunud	-10.6286
▁tootmis	-10.6291
nõude	-10.6292
▁valikuid	-10.6292
Henn	-10.6294
▁suurel	-10.6294
liik	-10.6297
võimu	-10.6297
▁tagantjärele	-10.6297
▁aegade	-10.6297
▁leitud	-10.6297
▁säilitada	-10.6299
▁täielik	-10.63
▁jätkame	-10.6305
▁kehtestamise	-10.6305
▁leian	-10.6305
▁Allik	-10.6307
▁kütte	-10.6316
▁võimekust	-10.6316
rbi	-10.6317
▁kirjalikult	-10.6318
▁kiri	-10.6318
▁loota	-10.6321
juures	-10.6322
▁konkursi	-10.6325
treener	-10.6325
▁Vaheaeg	-10.6326
▁tulenevad	-10.6331
laenu	-10.6333
▁elanud	-10.6334
▁territooriumi	-10.6341
▁toetame	-10.6346
▁loom	-10.6349
▁29.	-10.6352
▁millegipärast	-10.6353
▁koole	-10.6353
panga	-10.6354
▁selged	-10.6358
ühenduse	-10.636
sotsiaalkomisjon	-10.6364
▁kri	-10.6366
vahetuse	-10.6366
▁noortele	-10.6367
▁esindatud	-10.638
▁aktsia	-10.638
▁Millal	-10.638
▁Tähendab	-10.638
1%	-10.6382
▁võtmise	-10.6386
tunde	-10.6388
▁76	-10.6388
▁Ne	-10.6392
▁enamiku	-10.6398
kene	-10.6398
liitude	-10.6399
▁esitatakse	-10.64
Sa	-10.6401
▁sissetulek	-10.6404
Urmas	-10.6406
▁tooni	-10.6406
▁nõukogus	-10.6406
▁pakkumise	-10.6408
▁soorita	-10.6409
▁Too	-10.641
▁jätab	-10.641
õpe	-10.6413
▁viitasin	-10.6415
▁esindajatega	-10.6421
▁vaade	-10.6423
▁Era	-10.6424
▁osutamise	-10.6425
▁lahendamiseks	-10.6426
▁korralikult	-10.6428
▁keskmisest	-10.6428
organisatsiooni	-10.6434
▁niikuinii	-10.6436
▁intervjuu	-10.6436
▁osapooled	-10.6436
▁Mitme	-10.6436
3%	-10.6438
mar	-10.6441
▁Kallas	-10.6443
▁seletada	-10.6446
▁nimetatakse	-10.6447
▁eelmisele	-10.6448
▁maavalitsuste	-10.6451
▁erakoolide	-10.6453
küsimuse	-10.6457
otsuse	-10.646
▁Arupärimine	-10.6463
▁parlamentaarse	-10.6463
▁raiu	-10.6466
▁plaanid	-10.6467
▁ühenduse	-10.6469
õigust	-10.6476
▁2012	-10.6476
▁termin	-10.6477
▁euroala	-10.648
▁kättesaadavus	-10.648
▁tohib	-10.6485
▁mõis	-10.649
▁sõjaväe	-10.6492
püü	-10.6493
▁õpe	-10.6495
vaidlus	-10.6496
▁Eelnõuga	-10.6497
▁hetk	-10.6501
▁Heimar	-10.6503
ndust	-10.6503
▁kohustuslik	-10.6504
▁mudel	-10.6508
▁võtate	-10.6512
▁kõigest	-10.6519
▁garanteeri	-10.652
▁nüanss	-10.652
▁suitseta	-10.652
▁Põhjamaade	-10.652
▁andmine	-10.652
▁kompromissi	-10.652
▁piirdu	-10.6522
▁Luik	-10.6523
▁Pu	-10.6527
▁kuule	-10.6535
▁võrdlus	-10.6535
▁objekt	-10.6535
▁aegadel	-10.6536
▁tutvuda	-10.6541
ch	-10.6542
▁audit	-10.6545
ostu	-10.6545
▁vasak	-10.6549
▁kom	-10.6555
▁jõudma	-10.6556
▁kohtunike	-10.6557
Siseministeerium	-10.6558
▁viima	-10.6558
▁kodakondsust	-10.6559
tootja	-10.656
▁riigieelarvet	-10.6563
toetused	-10.6575
▁Lembit	-10.6576
▁68	-10.6587
kulusid	-10.6594
▁põhimõtet	-10.6596
▁suurendamine	-10.6596
▁erapooletu	-10.6599
▁päriselt	-10.6601
▁erakordselt	-10.6604
▁uurida	-10.6605
▁sõnavõtt	-10.6605
▁panuse	-10.6611
▁ühinemis	-10.6612
▁vaatasin	-10.6613
rme	-10.6613
auk	-10.6618
▁tahaksime	-10.6619
▁ehitamise	-10.662
▁tõsist	-10.6623
▁liigume	-10.6623
▁Oleks	-10.6627
▁72	-10.6629
▁kahtle	-10.6631
▁kommentaari	-10.6631
▁kiida	-10.6634
▁nähakse	-10.6634
▁rahvale	-10.6635
▁saja	-10.6641
▁komisjonile	-10.6641
▁eelnevalt	-10.6652
▁vabatahtlikult	-10.6656
▁emotsioon	-10.6661
▁täidab	-10.6661
▁arutlusel	-10.6662
▁Alati	-10.6663
▁raie	-10.6665
!""	-10.6667
▁mõtleme	-10.6668
▁vabatahtlik	-10.6668
▁võimul	-10.6668
▁Küsin	-10.6674
▁must	-10.6675
▁saamata	-10.6675
▁Omavalitsus	-10.6675
leht	-10.6676
liikme	-10.6679
▁ideaal	-10.6683
▁endine	-10.6684
▁tegevusi	-10.6685
▁viies	-10.6688
▁õhtu	-10.6688
▁olukorrast	-10.6689
▁katta	-10.6689
▁konkureeri	-10.669
▁ausad	-10.6695
▁rõõmu	-10.6698
▁Eldar	-10.6698
▁kogemuse	-10.6704
▁vähendamine	-10.6704
▁pöördunud	-10.6708
▁neljas	-10.6714
▁võimalikke	-10.6718
▁fraktsioonidel	-10.6718
▁Aaviksoo	-10.6718
pidamine	-10.6719
▁võtsid	-10.6719
▁delegatsiooni	-10.672
erakonna	-10.6721
▁lapsetoetus	-10.6722
▁nädalat	-10.6722
▁kõnealuse	-10.6724
▁majandusliku	-10.6738
▁17.15	-10.6741
▁vähese	-10.6741
Marti	-10.6743
▁toreda	-10.6744
koalitsioon	-10.6745
▁ametlik	-10.6747
▁viidatud	-10.6747
▁kompetentsi	-10.6749
▁lõpetanud	-10.675
▁pakkus	-10.675
50	-10.6754
▁vaese	-10.6754
▁eestlaste	-10.6756
▁sattunud	-10.676
eelarve	-10.6766
▁ettekannet	-10.6767
poliitilise	-10.6772
▁Randjärv	-10.6776
▁inter	-10.6777
▁kitsa	-10.6779
▁vaheaja	-10.6782
▁korraks	-10.6789
▁võrgu	-10.6794
▁tegutsevad	-10.6796
▁seisa	-10.6798
▁esialgu	-10.6805
▁ääretult	-10.6805
▁lahuta	-10.6806
▁tükk	-10.6809
▁ajalugu	-10.681
▁tööpuudus	-10.6811
▁Asi	-10.6817
▁institutsioon	-10.682
▁Soovi	-10.6822
tööstus	-10.6825
▁karda	-10.6825
▁rahastamist	-10.6828
▁ministrit	-10.6829
▁kokkuleppele	-10.683
▁sobiva	-10.683
▁loome	-10.6834
▁heakskiit	-10.6834
▁puudujääk	-10.6834
▁150	-10.6835
▁tähtaega	-10.6836
▁seisneb	-10.6836
▁tingimusi	-10.6839
▁praktikat	-10.6842
rvishoiuteenuste	-10.6843
▁Laste	-10.6844
▁ravimite	-10.6847
▁bio	-10.6851
▁turvalisus	-10.6852
▁maavalitsus	-10.6853
vaat	-10.6861
▁möön	-10.6862
▁kaugemale	-10.6863
▁ohvri	-10.6863
▁haiglate	-10.6864
▁Na	-10.6866
▁tingimuste	-10.6869
puu	-10.6872
▁Rootsis	-10.6885
▁täiendada	-10.6888
▁reegleid	-10.689
▁sõlmida	-10.689
täht	-10.6891
▁makstud	-10.6891
põlve	-10.6892
▁hullem	-10.6894
Kaitseväe	-10.6896
tarbija	-10.6896
▁punktis	-10.6897
▁koosolekul	-10.6899
▁Tallinn	-10.69
▁ostu	-10.6906
oomi	-10.6908
▁67	-10.6915
▁vaadake	-10.6921
▁Liisa	-10.6924
▁teenida	-10.6927
▁poliitilised	-10.6927
▁100%	-10.6929
käigu	-10.6933
▁tingimustel	-10.6936
▁tasakaal	-10.6943
▁taristuminister	-10.6952
paiga	-10.6953
▁näpu	-10.6953
▁sõnastuse	-10.6954
▁näitas	-10.6956
▁leiavad	-10.6956
▁toodi	-10.6959
Jaak	-10.6959
▁kaitset	-10.6963
▁kilomeetrit	-10.6968
pension	-10.697
▁täpsustus	-10.6973
tulumaksuseaduse	-10.6975
▁Keegi	-10.698
▁Suurbritannia	-10.698
▁järelikult	-10.698
▁hakati	-10.698
▁kiirabi	-10.6982
▁poolteist	-10.6983
▁hange	-10.6984
▁saadakse	-10.6984
▁potentsiaalse	-10.6985
missioonil	-10.6985
valimiste	-10.699
▁eluaasta	-10.6994
ktor	-10.6996
▁nurga	-10.6997
▁Arutelu	-10.6998
▁kellest	-10.7007
▁vastusest	-10.7008
▁professionaalse	-10.701
▁skeemi	-10.701
▁võimeline	-10.7011
▁62	-10.7013
▁tulud	-10.7022
kolm	-10.7023
▁58	-10.7024
varustus	-10.7024
▁püüab	-10.7025
ktsioon	-10.7027
▁loobuda	-10.7028
▁laekub	-10.7028
▁ühinemise	-10.7034
▁väljaõppe	-10.7035
▁paljudele	-10.7035
▁defineeri	-10.7039
▁ajend	-10.704
▁probleemiga	-10.704
Valeri	-10.7044
▁käsitleva	-10.7047
▁mahtu	-10.7049
▁märk	-10.7052
ppe	-10.7063
▁võimalikku	-10.7066
▁rikkumise	-10.7067
▁märkimisväärne	-10.7069
▁kliendi	-10.7069
▁allkirjasta	-10.7069
▁Ester	-10.7069
▁muutnud	-10.707
▁rahasta	-10.7073
▁vangi	-10.7073
▁õiguskomisjon	-10.7077
▁rahvusvahelist	-10.7078
▁kavatseb	-10.7083
▁parlamenti	-10.7084
kõ	-10.709
▁põhimõtted	-10.7092
▁majas	-10.7097
▁apteegi	-10.7097
▁avaldada	-10.7098
▁Kruusimäe	-10.7099
▁Norra	-10.7099
▁objektiivse	-10.7099
eldi	-10.7106
▁garantii	-10.7113
▁piirang	-10.7119
vaata	-10.7123
tööstuse	-10.7125
võrk	-10.7128
Jüri	-10.7135
alkoholiaktsiisi	-10.7142
▁bürokraatia	-10.7145
▁arutatakse	-10.7148
▁kohati	-10.715
▁otsustama	-10.7151
▁Aafrika	-10.7153
▁täpne	-10.7158
▁kinnitamise	-10.7159
▁hinge	-10.7159
▁eraldada	-10.7159
▁linnapea	-10.7161
▁sektor	-10.7161
Ja	-10.7164
▁eespool	-10.7164
▁tööga	-10.7164
▁osakaalu	-10.7165
▁eeldada	-10.7165
▁seisma	-10.7166
toodangu	-10.7171
▁ennetus	-10.7176
▁lootust	-10.7177
▁täiendamise	-10.7177
▁riiklike	-10.7179
▁väärtuse	-10.7182
▁töökoha	-10.7183
▁kõrgkooli	-10.7183
▁selget	-10.7186
▁töötajad	-10.7187
▁ennusta	-10.7188
▁tugispetsialist	-10.7189
2%	-10.7192
▁Võsa	-10.7192
kriteerium	-10.7192
▁arvuti	-10.7197
▁jõ	-10.7198
▁Tõniste	-10.7202
▁missugune	-10.7203
▁vahest	-10.7207
▁ootavad	-10.721
▁vajalikku	-10.7211
▁täie	-10.7217
tavasti	-10.7217
▁soojus	-10.722
▁Kooli	-10.7221
rand	-10.7224
▁Jaan	-10.7225
▁mingisugused	-10.7229
▁paratamatult	-10.723
▁loll	-10.7231
▁tugevama	-10.7234
▁ministeeriumid	-10.7235
▁Kohal	-10.7245
▁Järelikult	-10.7249
▁tuntud	-10.7249
▁targa	-10.7252
▁partnerite	-10.7256
▁Helir	-10.7259
▁61	-10.726
▁täitnud	-10.7263
▁laevade	-10.7264
▁staatuse	-10.7264
oodi	-10.7268
▁täpsustan	-10.7272
▁piiranguid	-10.7279
▁Arvestades	-10.7279
▁jõutud	-10.728
▁halba	-10.7282
▁spetsialistide	-10.7283
teenuseid	-10.7295
▁Vassiljevi	-10.7299
▁osalemise	-10.73
▁71	-10.7302
▁ajaga	-10.7304
▁vaesuse	-10.7309
▁Sulge	-10.731
▁Kaia	-10.7312
▁tegeliku	-10.7314
▁paindlikkus	-10.7315
▁Estonian	-10.7316
▁riske	-10.7317
▁ratifitseerimis	-10.7319
hind	-10.7321
loogilise	-10.7325
▁tolli	-10.7327
▁Palju	-10.7328
▁eakate	-10.7329
▁märkimisväärse	-10.7333
igus	-10.7339
▁Ettekande	-10.734
▁Olga	-10.7341
▁jõuavad	-10.7341
▁vaimu	-10.7343
▁temaga	-10.7343
▁opositsioon	-10.7347
▁suurenenud	-10.7348
▁tulumaks	-10.735
▁menetlusliku	-10.735
▁esimehena	-10.735
▁rõhutas	-10.7352
▁jõuliselt	-10.7362
▁muutuma	-10.7363
▁kättesaadavuse	-10.7364
▁maksusüsteemi	-10.7365
▁soovinud	-10.7365
▁meetodi	-10.7371
Lõpetuseks	-10.7371
▁Kelle	-10.7371
▁polnud	-10.7371
▁kuritegevus	-10.7371
▁küsitlus	-10.7372
▁sõnade	-10.7373
▁tööturu	-10.7379
▁millisel	-10.7381
▁toit	-10.7386
▁maakonnas	-10.7386
▁tarbimine	-10.7391
euro	-10.7392
▁piires	-10.7393
▁arenenud	-10.7394
liikmete	-10.7399
▁koolilõuna	-10.7401
▁kompensatsiooni	-10.7402
▁pöördumise	-10.7402
▁saladus	-10.7406
kohane	-10.7406
▁maaelukomisjoni	-10.7407
▁infrastruktuuri	-10.7408
▁Mõned	-10.7413
▁kiita	-10.7416
▁asjaolude	-10.7418
▁perspektiivi	-10.7421
▁pakutakse	-10.7421
▁esitamist	-10.7423
▁nimetamine	-10.7429
▁needsamad	-10.7432
▁kumb	-10.7433
▁teadmiste	-10.7435
▁kahtlust	-10.7437
▁valdavalt	-10.7441
▁kiirema	-10.7444
▁kohtuotsus	-10.7447
▁tekitas	-10.7451
▁vajaduspõhise	-10.7451
▁poliitiliselt	-10.7454
pere	-10.7456
rgu	-10.7459
▁79	-10.7467
▁kiit	-10.7471
▁Parts	-10.7472
▁vahend	-10.7472
Monika	-10.7473
investeeringute	-10.7474
hääle	-10.7476
▁pikkus	-10.748
▁määramise	-10.749
▁palgalõhe	-10.7494
▁pädeva	-10.7496
▁kindlad	-10.7499
▁positiivset	-10.7499
eelne	-10.7502
vahendeid	-10.7504
8%	-10.7507
▁järgmiseks	-10.7511
▁kinnitan	-10.7523
▁pensionile	-10.7524
▁mehi	-10.7525
▁kujuneb	-10.7526
▁vaadatakse	-10.7527
▁ettevalmista	-10.7527
▁veendumus	-10.7527
▁ülimalt	-10.7528
Eerik	-10.7535
▁vastav	-10.7536
▁kena	-10.7536
▁tegelikku	-10.7537
▁täiendus	-10.7538
fondide	-10.754
▁77	-10.7541
▁poe	-10.7541
▁Enamik	-10.7544
▁jätkusuutlikkus	-10.7545
▁armasta	-10.7545
jon	-10.7545
raport	-10.7547
▁600	-10.7554
▁Lutsepp	-10.7556
▁valitsuskabinet	-10.7556
▁umbusaldus	-10.7556
▁häbi	-10.7556
▁argumendid	-10.7556
kaitseakadeemia	-10.7557
▁elektriaktsiisi	-10.7558
▁töötavate	-10.756
▁Saare	-10.7565
▁keskuse	-10.7567
▁summasid	-10.7576
▁vaesuses	-10.7576
▁vaatate	-10.7578
▁Ansip	-10.7582
III	-10.7585
▁Kaskpeit	-10.7587
▁tehnilist	-10.7587
avaldus	-10.7588
▁kulutada	-10.7594
▁arvestatakse	-10.7594
efekt	-10.7598
▁numbri	-10.7598
järelevalve	-10.7599
▁kü	-10.76
▁veo	-10.7604
▁printsiibi	-10.7605
▁arutelusid	-10.7606
▁inimõiguste	-10.7607
▁arusaamatuks	-10.7607
▁ressursside	-10.7614
▁trend	-10.7617
▁Kotka	-10.7617
▁Sarapuu	-10.7619
▁patsiendi	-10.7619
▁63	-10.7619
▁kogemusi	-10.7626
▁töökohad	-10.7626
▁tööturul	-10.7633
▁tingi	-10.7634
uuringu	-10.7637
▁missioonil	-10.7638
▁odavam	-10.7638
▁leppe	-10.7639
▁tugevalt	-10.764
▁variandi	-10.7643
võistlus	-10.7644
ce	-10.7645
▁Päris	-10.7651
▁Laasi	-10.7652
▁kirjutas	-10.7656
▁jooksva	-10.7657
kiri	-10.7666
▁Korbi	-10.7674
kompetents	-10.7678
tute	-10.768
olümpia	-10.7682
▁hektari	-10.7682
▁suveräänsus	-10.7682
▁Olgu	-10.7682
▁Keit	-10.7682
▁Euro	-10.7682
▁peadirektor	-10.7682
▁tunnevad	-10.7686
meelsus	-10.7689
▁juhid	-10.769
dokument	-10.7695
tingimuste	-10.7695
▁top	-10.7696
▁lahkunud	-10.7699
▁turvalisuse	-10.7707
▁rahvaesindajad	-10.7713
▁olukorraga	-10.7719
▁tooma	-10.7722
▁kuulsin	-10.7722
▁suudaks	-10.7723
▁professor	-10.7725
▁avalike	-10.7726
▁tarbijate	-10.7728
▁nõua	-10.7729
▁par	-10.773
▁erakooli	-10.7734
aastaste	-10.7735
teenus	-10.7738
▁paluda	-10.7738
▁paigas	-10.7744
▁Maruste	-10.7745
▁pulti	-10.7746
▁sõiduki	-10.7746
▁vähemaks	-10.7749
▁nimetus	-10.7749
▁lubab	-10.7751
valimi	-10.7751
▁täpsema	-10.7752
▁riigisisese	-10.7753
▁keerulisem	-10.7757
ob	-10.7759
ohutuse	-10.7768
kümmend	-10.7777
▁Itaalia	-10.7777
▁suhted	-10.7778
alase	-10.7779
▁lahus	-10.7781
▁tervist	-10.7786
▁koostamisel	-10.7788
▁tõuse	-10.7788
kodu	-10.779
▁väidet	-10.7791
▁Tamme	-10.7792
▁hoiu	-10.7797
▁kär	-10.7806
▁hääletamis	-10.7807
▁Kivimägi	-10.7809
▁konkurss	-10.7809
▁lükatud	-10.7809
▁liikumine	-10.7809
tajad	-10.781
▁Nemad	-10.7811
▁õlle	-10.7812
▁euroga	-10.7817
▁haridussüsteemi	-10.7825
▁langetamise	-10.7825
▁omavalitsust	-10.7826
▁detailide	-10.7832
▁uuringuid	-10.7834
▁tingimus	-10.7835
▁pikem	-10.7839
▁kehtestatakse	-10.784
▁rehabilit	-10.7841
▁andsid	-10.7841
▁Simsoni	-10.7842
▁pädevuses	-10.785
▁langus	-10.7852
▁maksupoliitika	-10.7852
▁kuuluva	-10.7859
▁Seepärast	-10.7863
▁liikmesriik	-10.7865
▁taju	-10.7871
▁Hallemaa	-10.7873
▁algatuse	-10.7875
▁keskkonnatasude	-10.7875
toodete	-10.7876
ruum	-10.7886
▁eelmiste	-10.7889
meelse	-10.7893
suuna	-10.7894
▁madal	-10.7897
▁piiride	-10.7899
▁oluliste	-10.79
▁viisa	-10.7903
▁mõtted	-10.7903
0%	-10.7905
▁pakkuma	-10.7905
▁emakeele	-10.7906
riski	-10.7906
oloogia	-10.7907
▁tuule	-10.7907
▁väljendanud	-10.7907
▁tänasel	-10.7911
▁kaetud	-10.7925
▁kerki	-10.7925
▁tulemas	-10.7926
▁oh	-10.7926
mineku	-10.7929
▁Pä	-10.7932
operatsioon	-10.7932
▁66	-10.7932
▁arutluse	-10.7936
▁vägivald	-10.7938
▁emotsionaalse	-10.7938
▁valge	-10.7938
▁muutuda	-10.7942
▁hääletamisele	-10.7944
▁moodustab	-10.7944
▁vabalt	-10.7945
▁alustame	-10.7947
▁toimimise	-10.7948
▁uuring	-10.7948
▁missioon	-10.7949
▁hõlma	-10.795
soodustus	-10.7953
piirangu	-10.7954
▁seista	-10.7955
▁majandusele	-10.7958
▁protseduur	-10.7959
▁käsitlus	-10.7959
▁käitumine	-10.7965
▁lubaduse	-10.7966
▁õnneks	-10.797
▁kulub	-10.797
▁Kahtlemata	-10.797
▁hii	-10.7971
hooldus	-10.7973
▁number	-10.7974
▁uurimiskomisjon	-10.7978
▁leevenda	-10.7982
▁menetlusest	-10.7982
vabaduse	-10.7983
▁kolmandaks	-10.7984
▁liiguvad	-10.7989
▁kogukond	-10.7996
▁maksuameti	-10.7997
kultuurikomisjon	-10.7998
hoone	-10.8
▁Kõva	-10.8003
▁elamisluba	-10.8003
▁Presidendi	-10.8003
▁igapäevase	-10.8003
▁sõltuvus	-10.8005
tulek	-10.8007
▁esitan	-10.8007
säili	-10.801
▁märki	-10.8012
▁peagi	-10.8015
tasude	-10.8016
▁salaja	-10.8017
Nagu	-10.802
▁aspekt	-10.8021
ään	-10.8025
kandja	-10.8026
▁reguleerib	-10.8029
▁vähemasti	-10.8035
tootjate	-10.804
▁ausa	-10.804
▁toetu	-10.8042
▁järsku	-10.8044
▁kanali	-10.8046
▁büroo	-10.8047
▁valmistu	-10.8049
▁käituda	-10.805
▁Lang	-10.8055
puudus	-10.8056
▁jätkab	-10.8058
▁merendus	-10.8059
▁puuduvad	-10.8066
▁püüda	-10.8068
▁kohad	-10.8068
▁kvaliteeti	-10.8083
Kalle	-10.8087
▁tegutseb	-10.8087
▁vigu	-10.8088
▁innovatsiooni	-10.8088
▁maavanema	-10.809
▁kehtinud	-10.809
▁valdkondade	-10.8093
▁akti	-10.8099
▁riive	-10.8101
▁üleüldse	-10.8101
▁maailmavaate	-10.8102
▁omavalitsusel	-10.8102
rahv	-10.8107
▁sätte	-10.8107
▁kriis	-10.8109
▁tegevuste	-10.811
▁Arv	-10.8113
▁tuginedes	-10.8114
ühistu	-10.8117
toetusi	-10.8119
▁asunud	-10.8123
kasvataja	-10.813
▁sõnavõtus	-10.813
▁päästjate	-10.8132
▁meenu	-10.8132
▁rakendamine	-10.8133
akadeemia	-10.8133
▁kabineti	-10.8134
▁Kõigi	-10.8134
ühenduste	-10.8134
▁Küsi	-10.8135
ministrina	-10.8135
▁tingimata	-10.8136
▁matusetoetus	-10.8138
aluste	-10.8146
kaalu	-10.8146
ndla	-10.8147
▁kõlab	-10.815
▁Leedus	-10.8152
võrd	-10.8152
▁piirangute	-10.8153
▁kinnitab	-10.8155
▁päevakord	-10.8159
oleku	-10.8162
▁kriitikat	-10.8164
▁raamatupidamis	-10.8165
▁vaadatud	-10.8167
▁seletuskiri	-10.8167
▁pinna	-10.8168
▁Uue	-10.8169
▁anta	-10.8169
▁jookse	-10.817
▁ootama	-10.8183
▁ajakirjanduses	-10.8184
▁silm	-10.8184
▁menetlemine	-10.8186
Vabariigi	-10.8187
õnnetus	-10.8188
▁loomade	-10.8188
▁prokuratuur	-10.8188
▁meeles	-10.8191
▁õigusaktide	-10.8191
▁enamus	-10.8194
▁lapsetoetuse	-10.8195
aasi	-10.8199
usid	-10.82
▁hääli	-10.8201
▁õhtul	-10.8204
▁Laine	-10.8205
▁karistuse	-10.8205
õigusliku	-10.8212
▁mõistet	-10.8218
▁märgitud	-10.822
▁ajaloolise	-10.8221
▁hinnaga	-10.8223
aina	-10.8224
▁kasvatada	-10.8229
▁Sealt	-10.823
▁riiva	-10.8234
▁kohtlemise	-10.8235
▁saavutatud	-10.8236
▁mugav	-10.8238
▁punktide	-10.8238
▁asjakohane	-10.8238
afi	-10.8241
▁töötajaid	-10.8241
▁majanduslikult	-10.8249
Komisjoni	-10.8251
▁elava	-10.8253
Kõigepealt	-10.8254
▁vaidlusta	-10.8255
▁teinekord	-10.8256
gruppide	-10.826
▁keera	-10.8267
▁Arengu	-10.8269
kompleks	-10.8272
▁kohustusliku	-10.8281
▁nendesse	-10.8283
ühendus	-10.8284
▁keskmist	-10.8284
▁tempo	-10.8296
erakond	-10.8299
▁intensiiv	-10.8301
▁Mikko	-10.8301
▁Türgi	-10.8301
▁notari	-10.8301
deklaratsiooni	-10.8301
▁ilusasti	-10.8304
toiming	-10.8304
▁pealinna	-10.8306
huvi	-10.8313
ens	-10.8318
puude	-10.8319
büroo	-10.8323
▁Pevkuri	-10.8323
▁kahjulik	-10.8323
▁pensionide	-10.8324
▁võitlus	-10.8326
õiguslik	-10.8329
▁reegli	-10.833
▁selliseks	-10.8332
▁menetlust	-10.8332
▁õigem	-10.8334
▁optimistlik	-10.8334
▁isikuid	-10.8336
▁arstiabi	-10.8337
istung	-10.8346
kanali	-10.8351
astu	-10.8352
▁kasutan	-10.8357
▁liikumise	-10.8359
majanduskomisjon	-10.8361
▁algatab	-10.8362
▁Inimeste	-10.8368
▁koordineeri	-10.8368
▁renoveeri	-10.8368
▁käitumise	-10.8368
▁hullu	-10.8372
▁uuringud	-10.8372
▁mõistetav	-10.8374
▁pooleli	-10.8374
▁Ühelt	-10.8374
▁kohtunik	-10.8381
ndab	-10.8384
koostöö	-10.839
▁Sõ	-10.8395
lapse	-10.8398
▁tänapäeval	-10.8399
▁eesmärgiks	-10.84
▁käivitu	-10.8402
Eestis	-10.8403
▁pressi	-10.8406
▁numbrid	-10.8407
▁73	-10.8408
▁IM	-10.8408
korda	-10.8413
▁tahaksid	-10.8415
▁arvad	-10.8419
▁paistab	-10.8419
▁vaidlusi	-10.842
▁tühi	-10.8423
andmise	-10.8424
missiooni	-10.8425
▁tundus	-10.8427
▁elamis	-10.8431
▁mehhanism	-10.8431
▁Kersna	-10.8436
▁halvene	-10.8436
▁lähiaastatel	-10.8436
▁tunnustus	-10.8436
▁Loodan	-10.8436
▁märka	-10.8437
vormi	-10.8438
▁mehe	-10.8442
▁ressurssi	-10.8443
▁tulene	-10.8448
▁lapsega	-10.8448
turg	-10.8452
poliitiline	-10.8459
oht	-10.846
▁haldusreform	-10.8466
▁omavalitsustega	-10.8467
tarbe	-10.847
▁strateegilise	-10.847
▁Arno	-10.8474
▁kummaline	-10.8476
▁valitsemis	-10.8482
▁25%	-10.8482
▁piirikaubanduse	-10.8492
▁fi	-10.8493
▁asuda	-10.8496
▁juhtumite	-10.8498
▁Assamblee	-10.8504
Helmut	-10.8504
Juhataja	-10.8504
ruusia	-10.8504
▁tonni	-10.8505
▁põhimõttelise	-10.8509
▁valinud	-10.8512
▁liikmesriigid	-10.8513
▁sõbrad	-10.8513
▁avaldas	-10.8514
▁moodustada	-10.8514
▁Võru	-10.8515
▁riiklikult	-10.8515
▁Tallinnast	-10.852
ringi	-10.8522
nuks	-10.8525
▁naabri	-10.8525
▁millegi	-10.8533
▁küt	-10.8534
▁osutada	-10.8536
▁tähendaks	-10.8537
▁Eelkõige	-10.8539
▁Rannar	-10.8539
▁Sisuliselt	-10.8539
▁2007.	-10.8539
▁Kotkas	-10.8541
▁imelik	-10.8543
▁ühtemoodi	-10.8544
▁astunud	-10.8544
▁märkis	-10.8552
▁lähtuma	-10.856
▁mikrofoni	-10.8562
töid	-10.8563
▁hinnanguid	-10.8566
▁järjekorras	-10.8569
▁valdade	-10.8569
▁Meri	-10.8571
▁adekvaatse	-10.8573
▁alaealiste	-10.8573
▁asespiiker	-10.8573
▁aidanud	-10.8573
▁vanemahüvitise	-10.8573
▁südametunnistus	-10.8574
▁välisministri	-10.8576
▁tagamise	-10.8578
▁tookord	-10.8579
▁74	-10.8579
▁Sellisel	-10.8581
▁numbrit	-10.8589
▁praktiliselt	-10.8591
suur	-10.8597
▁pangad	-10.8598
▁kinnistu	-10.8606
▁Tundub	-10.8608
▁ütelda	-10.8608
▁Nutt	-10.8608
▁suurepärane	-10.8611
▁kõrva	-10.8615
▁tagamiseks	-10.8616
▁õnnetus	-10.8617
kesi	-10.8619
▁autode	-10.8621
▁koosneb	-10.8622
▁lepingute	-10.8626
aia	-10.8627
▁asuva	-10.8627
asjade	-10.8631
ovi	-10.8639
töötamiskavatsus	-10.8643
▁diskuteeri	-10.8643
▁kõnepuldis	-10.8643
▁motivatsiooni	-10.8643
▁Hiina	-10.8643
▁Kutsu	-10.8644
faasis	-10.8647
▁kohustatud	-10.8649
▁seost	-10.865
▁äär	-10.8651
▁vähemus	-10.8651
▁teadmine	-10.8657
▁saadikut	-10.8664
▁varianti	-10.8666
▁Mo	-10.8666
▁Partsi	-10.8671
Komisjon	-10.8672
▁tulemust	-10.8673
▁alustan	-10.8675
▁tegelenud	-10.8675
▁osalise	-10.8676
▁algas	-10.8676
sigaret	-10.8677
▁Hispaania	-10.8677
▁Ühis	-10.8677
Siret	-10.8678
▁sotsiaaltöötaja	-10.8678
▁Kalvi	-10.8678
▁õppimis	-10.8678
▁sätted	-10.8678
▁tekitatud	-10.8682
▁teadlikult	-10.8685
▁väärtuste	-10.8685
▁juhitud	-10.869
▁töörühma	-10.8691
▁võimekuse	-10.8695
▁suurust	-10.8699
ndamine	-10.8709
▁tähista	-10.8712
▁pähe	-10.8712
▁rahaline	-10.8713
▁lõhe	-10.8713
▁algul	-10.8716
▁häält	-10.8717
▁õpetajaid	-10.872
▁mujalt	-10.8725
▁kaaluka	-10.8727
▁praktilise	-10.873
▁staatus	-10.8732
▁vähenemise	-10.8732
▁hüvitist	-10.8733
▁ametniku	-10.8735
naabri	-10.874
▁suuremaks	-10.8743
▁keerulis	-10.8745
▁pettu	-10.8747
▁Kantselei	-10.8747
▁üksikisiku	-10.8748
▁leiti	-10.8749
▁huvigruppide	-10.875
▁Herkeli	-10.8751
▁Vaba	-10.8753
▁Millest	-10.8762
▁osutaja	-10.8763
▁sadu	-10.8767
▁Jo	-10.8769
▁asuvad	-10.8771
▁krediidi	-10.8774
kandidaat	-10.8775
potentsiaal	-10.8776
▁kehva	-10.8781
▁üliõpilas	-10.8781
▁asume	-10.8782
▁tegelnud	-10.8783
▁üleskutse	-10.8783
▁nimekiri	-10.8784
▁tegija	-10.8791
▁ülevaadet	-10.8792
▁seisukohale	-10.8794
▁puhta	-10.8798
▁näited	-10.8806
▁praeguseks	-10.8808
vahelise	-10.8809
praktika	-10.8811
▁otsustatud	-10.8811
▁põhimõtteid	-10.8813
▁pakett	-10.8817
▁tööhõive	-10.8818
▁sihtasutus	-10.8818
▁tegeldakse	-10.8819
▁ühistu	-10.8821
▁kättesaadavad	-10.8821
▁vastuvõtmiseks	-10.8824
▁väl	-10.8824
▁soolise	-10.8824
▁võrdsed	-10.8825
▁küsitakse	-10.883
▁võrdluse	-10.8834
põhiselt	-10.8838
▁töötamise	-10.8839
▁tulevik	-10.8844
raamatukogu	-10.8853
▁Marrandi	-10.8853
▁kehtetuks	-10.8853
▁sarnane	-10.8853
▁nägema	-10.8854
ov	-10.8856
▁kaitseväelaste	-10.8856
▁parandamiseks	-10.8859
▁muutuks	-10.8861
▁küsime	-10.8862
▁bürokraatiat	-10.8869
▁juhib	-10.8869
▁aitama	-10.8871
▁finantseerimis	-10.8872
▁tasandi	-10.8879
▁välistada	-10.8881
▁moodustavad	-10.8882
vahend	-10.8882
▁imesta	-10.8884
Liina	-10.8886
▁liitlaste	-10.8888
transport	-10.8888
▁alkohol	-10.8889
▁esialgse	-10.8889
▁kohtutäituri	-10.8889
▁negatiivne	-10.8889
▁teadaolevalt	-10.8889
▁Konkurentsiamet	-10.8889
▁kaitsma	-10.8889
▁Keele	-10.8889
▁solva	-10.8889
▁nagunii	-10.8891
▁kuku	-10.8892
▁rõhutanud	-10.8895
▁põhimõttest	-10.8898
▁Baltic	-10.8907
TA	-10.891
ekspert	-10.8915
▁analüüsinud	-10.8915
▁edukalt	-10.8916
▁Sadama	-10.8919
▁põllumehed	-10.8922
▁tunneta	-10.8924
▁jms	-10.8925
▁tõstetakse	-10.8925
Viru	-10.8925
kri	-10.8925
mbri	-10.8926
▁kasvama	-10.8929
▁kasvatamise	-10.8936
kohta	-10.8937
▁tihe	-10.8939
▁seo	-10.8942
▁kokkulepet	-10.8943
▁piirikaubandus	-10.8943
julgeolek	-10.8944
▁võrdle	-10.8945
▁sisaldu	-10.8947
turist	-10.8956
kursus	-10.8958
▁rahvasaadikud	-10.8959
▁juhtimisel	-10.896
▁inflatsioon	-10.8961
▁Eelarve	-10.8961
▁Venemaaga	-10.8962
Mina	-10.8962
juhtumi	-10.8962
▁andes	-10.8963
▁paragrahv	-10.8963
▁vähenemine	-10.8966
▁Kir	-10.8967
▁tavapärase	-10.8969
▁pidu	-10.8969
▁30%	-10.8973
▁tunde	-10.8977
positsiooni	-10.8978
istlik	-10.898
▁halvema	-10.8986
▁kohtunud	-10.8987
▁120	-10.8987
▁madalam	-10.899
"	-10.8992
▁tõkestamise	-10.8993
iguskomisjon	-10.8993
▁analüüse	-10.8993
▁vahetult	-10.8994
nõuete	-10.8995
▁kvoodi	-10.8997
▁59	-10.8998
▁60%	-10.9003
▁otsustamise	-10.9014
Rahanduskomisjon	-10.9017
▁lõppes	-10.9025
▁ühtne	-10.9027
▁vastutustundlik	-10.9028
Väga	-10.9028
▁Metsoja	-10.9033
▁läbipaistva	-10.9033
▁retoorika	-10.9033
▁seksuaal	-10.9033
▁hoolitse	-10.9033
▁sissemakse	-10.9035
▁Tegu	-10.9036
▁ühtlasi	-10.9036
psu	-10.9036
▁sissejuhatuse	-10.905
▁sugu	-10.9053
▁juur	-10.9054
▁aktsiisitõusu	-10.9055
▁mets	-10.9056
▁konkurents	-10.9057
sõbralik	-10.9057
▁lõpetamise	-10.9061
võtmist	-10.9062
▁kohalikku	-10.9063
hoo	-10.9065
▁Mõlema	-10.9069
▁kombel	-10.9069
▁mobiil	-10.9069
▁saadetud	-10.907
▁nõrk	-10.907
▁valdkondi	-10.9073
▁keelusta	-10.9073
▁saavutanud	-10.9076
▁hääletamist	-10.9077
▁planeerimis	-10.9077
▁40%	-10.9078
▁Kagu	-10.9079
▁kodukorra	-10.908
väli	-10.9081
firmade	-10.9084
▁Aja	-10.9085
Ta	-10.9085
kasvatus	-10.9088
▁panustama	-10.9091
pärase	-10.9096
▁visa	-10.9099
Alustame	-10.9101
▁argumente	-10.9103
▁Repsi	-10.9104
▁üheskoos	-10.9105
▁keha	-10.9106
▁väitis	-10.911
▁tegelikkuses	-10.9112
▁3%	-10.9114
järgse	-10.9115
▁Valimiskomisjon	-10.9119
▁grupp	-10.912
▁tulusid	-10.9128
▁looda	-10.913
▁põllu	-10.9131
▁Uus	-10.9134
▁tehnika	-10.9134
▁töökohta	-10.9136
▁ostma	-10.9137
▁tegite	-10.9138
▁selguse	-10.9141
▁Vladimir	-10.9142
▁kindlustunne	-10.9142
▁öelge	-10.9142
▁Seletuskirjas	-10.9142
▁vestlus	-10.9143
▁Milling	-10.9147
▁korrakaitse	-10.9149
▁maksimaalselt	-10.9151
üksuse	-10.9151
▁etapi	-10.9152
▁võõra	-10.9153
▁mandaat	-10.9161
▁asutused	-10.9166
graafik	-10.9175
energeetika	-10.9178
▁kantsler	-10.9178
▁haaku	-10.9179
▁nähtus	-10.9179
komitee	-10.9179
▁koolituse	-10.918
▁Üht	-10.918
▁käitumist	-10.9183
▁haru	-10.9184
▁Asume	-10.9188
▁kestnud	-10.9188
avalduse	-10.9189
▁mõtlesin	-10.9197
küsimuste	-10.92
materjal	-10.92
▁valmistatud	-10.9211
Kuna	-10.9214
▁mõõde	-10.9215
▁eksport	-10.9215
▁korter	-10.9216
▁väiksemate	-10.922
▁kulutuste	-10.922
▁saatnud	-10.922
▁Kersti	-10.9222
▁väitnud	-10.9226
▁mäletate	-10.9228
▁Rait	-10.9231
▁grupi	-10.9232
▁sisaldab	-10.9233
inspektsiooni	-10.9233
▁sooja	-10.9236
▁detailse	-10.9237
valdkond	-10.9237
olev	-10.9245
▁700	-10.9249
▁põllumeestele	-10.9249
▁küber	-10.9252
▁tootlikkus	-10.9253
programm	-10.9258
▁seletuskirjast	-10.9258
▁tavalise	-10.926
Virumaale	-10.926
▁ainete	-10.9262
▁fikseeritud	-10.9263
organite	-10.9263
▁tagajärjel	-10.9263
▁allapoole	-10.9264
▁Ütleme	-10.9265
▁niipalju	-10.9271
▁tunnustada	-10.9272
▁elame	-10.9275
▁Saksamaal	-10.9278
▁varja	-10.9278
▁vorm	-10.9283
tuur	-10.9284
▁Velman	-10.9289
▁hilja	-10.9289
▁paikne	-10.9289
▁korja	-10.929
▁teenib	-10.9292
▁suurim	-10.9295
mitri	-10.9298
▁paljuski	-10.93
▁Kon	-10.9311
ettevõte	-10.9312
▁õigusriigi	-10.9312
▁osaleb	-10.9317
▁peretoetuste	-10.9318
Ra	-10.9319
▁hindama	-10.9323
välja	-10.9325
▁õnnestub	-10.9325
▁toimuda	-10.9327
▁täitsa	-10.9329
kohtunik	-10.9331
sõja	-10.9335
▁tundma	-10.9343
▁kardan	-10.9344
▁viimast	-10.9347
▁kategooria	-10.935
▁määrab	-10.9359
Esimene	-10.9362
▁õiglus	-10.9364
▁tudeng	-10.9364
▁naisi	-10.9364
▁võrdne	-10.9364
▁ametiühingu	-10.9366
▁elanikud	-10.9368
▁täitmist	-10.9378
▁seire	-10.9388
▁asjaomase	-10.939
▁kolmandiku	-10.9391
▁määratakse	-10.9395
▁mõttetu	-10.9395
spordi	-10.9398
▁maksumaksjate	-10.9398
▁doktor	-10.9401
▁realiseeru	-10.9401
▁suudetud	-10.9401
▁vältimise	-10.9401
▁lasteaiaõpetaja	-10.9402
▁82	-10.9406
▁nägu	-10.9409
▁taotleja	-10.9412
▁rääki	-10.9413
▁komponent	-10.9414
▁rühma	-10.9414
▁olemasolevate	-10.9414
▁sekkuda	-10.9421
▁nimetasin	-10.9421
▁kommenteerite	-10.9423
▁Lisa	-10.9426
▁fikseeri	-10.9428
▁mahuka	-10.9434
▁turvalise	-10.9436
▁hädas	-10.9437
▁statistili	-10.9439
▁Pere	-10.944
Imre	-10.944
▁maksnud	-10.9442
aator	-10.9442
▁laul	-10.9443
liikmed	-10.9444
▁konflikt	-10.9445
▁digitaalse	-10.9449
▁800	-10.9452
▁tuhandeid	-10.9452
▁tõusevad	-10.9454
▁Kr	-10.9461
▁standardi	-10.9464
▁1,5	-10.9465
▁kollektiivse	-10.9465
▁tulevase	-10.9467
▁asekantsler	-10.9476
▁värvi	-10.9476
▁rohelise	-10.9476
▁Loodame	-10.9476
▁puidu	-10.9478
▁tegutsema	-10.9479
▁kasutaja	-10.948
▁juhtumit	-10.9482
▁Ansipi	-10.9482
▁muudatusega	-10.9483
võrgustik	-10.9483
ettevalmistamise	-10.9487
▁lubadusi	-10.9488
edPoolt	-10.949
▁teatas	-10.9492
▁isikutele	-10.9494
▁õiguskomisjonis	-10.9495
arendus	-10.9496
▁leevendada	-10.9501
▁kustuta	-10.9514
▁ebamõistlik	-10.9514
▁Marianne	-10.9514
Oudekki	-10.9514
▁kilo	-10.9515
▁nüüdseks	-10.9517
▁maaeluminister	-10.9518
Olen	-10.952
▁kompenseerida	-10.952
partnerlus	-10.9522
▁mujale	-10.9524
▁arvame	-10.953
▁määranud	-10.953
▁investeering	-10.9533
▁tõstatatud	-10.9533
▁niisuguseid	-10.9536
▁joogi	-10.9546
▁tooda	-10.9547
▁arvamused	-10.9551
▁absurd	-10.9552
kurjategija	-10.9552
▁siduda	-10.9553
klubi	-10.9553
Raivo	-10.9553
▁tehke	-10.9554
mõju	-10.9556
▁igasuguste	-10.9556
▁liial	-10.9559
▁eksperdi	-10.9562
▁kuuenda	-10.9563
teenused	-10.9567
▁Sesteri	-10.9569
keskkonda	-10.957
▁reede	-10.957
prokurör	-10.9571
baasi	-10.9571
seadme	-10.9573
▁paremaid	-10.9574
▁laekumise	-10.9584
▁läksid	-10.9584
park	-10.9585
▁konsensuslikud	-10.9586
augu	-10.9589
▁keskkonda	-10.9589
autonoomia	-10.959
▁Sihtasutus	-10.959
▁läbipaistvus	-10.959
▁ähvarda	-10.959
▁võtsime	-10.9591
▁häälteenamust	-10.9591
Järgmise	-10.9592
▁käega	-10.9594
kodanik	-10.9595
▁kaitseväelase	-10.9598
▁laekuva	-10.9604
▁infotehnoloogia	-10.9605
▁püüa	-10.9608
▁pikendamine	-10.9618
▁märkuse	-10.9621
perioodil	-10.9623
▁taustal	-10.9623
uju	-10.9627
▁börsi	-10.9629
▁lüüa	-10.9629
▁selgust	-10.9629
▁võtke	-10.9629
▁Elering	-10.963
▁millestki	-10.9637
▁ehkki	-10.964
▁miinuses	-10.9643
▁arutasite	-10.9646
▁hõlmab	-10.9652
▁asemele	-10.9654
▁nimetas	-10.9657
juhend	-10.9657
▁sõnadega	-10.9662
▁külge	-10.9662
rahu	-10.9664
▁hoidma	-10.9664
▁õli	-10.9665
▁telefoni	-10.9667
▁otsast	-10.9668
▁ühistransport	-10.9668
▁Konkreetse	-10.967
Toomas	-10.967
ränne	-10.9671
▁suhtumist	-10.9672
▁maksutulu	-10.9674
▁seepärast	-10.9689
▁propaganda	-10.9691
mõistmis	-10.9691
muuseum	-10.9695
▁äärmus	-10.9696
▁tuletada	-10.9702
▁ebavõrdsus	-10.9706
▁tulemuste	-10.971
▁menetlemist	-10.9712
pakk	-10.9715
struktuur	-10.9717
▁Ba	-10.9718
▁olge	-10.9721
▁taastu	-10.9721
▁tulevaste	-10.9723
▁täide	-10.9726
▁101	-10.9727
▁võlakoormus	-10.9728
▁põhiseaduslikku	-10.9729
co	-10.9738
▁Sinna	-10.9745
▁ebavõrdse	-10.9745
15	-10.9745
raamistik	-10.9745
▁vande	-10.9746
▁teoreetiliselt	-10.9749
▁kandma	-10.975
▁musta	-10.9752
▁seletus	-10.9759
kvalifikatsiooni	-10.9761
▁piirilepingu	-10.977
▁sihtasutuse	-10.977
▁kodanikuühiskon	-10.9778
▁vanu	-10.9779
▁lahingu	-10.9784
▁nägemus	-10.9784
▁levinud	-10.9784
▁Par	-10.9786
märkimisväärselt	-10.9792
▁täpsustuse	-10.9793
,4%	-10.9793
laev	-10.9794
▁posti	-10.9797
▁sõnul	-10.9802
▁Järgmisena	-10.9804
▁fiskaal	-10.9804
▁seadnud	-10.9804
▁projektide	-10.9808
▁lihtsama	-10.9811
▁aspektist	-10.9811
▁tegin	-10.9812
▁hoidmise	-10.9814
konventsioon	-10.9818
▁oleksite	-10.9819
▁tõu	-10.9822
▁vähenevad	-10.9831
▁lõpetati	-10.9832
Ettepaneku	-10.9833
▁rahastada	-10.9834
▁asjaoma	-10.9834
▁reservide	-10.9836
▁tunnen	-10.9836
▁kokkuvõttes	-10.984
▁kõlama	-10.9841
▁kasutatava	-10.9842
▁patsientide	-10.9848
▁analoog	-10.9853
aani	-10.9853
▁piisab	-10.9853
kaaslase	-10.9853
partner	-10.9858
▁looduse	-10.986
▁kunsti	-10.9862
▁versioon	-10.9862
▁väljastpoolt	-10.9862
▁harjunud	-10.9862
▁eurotsooni	-10.9864
ülesanne	-10.9867
▁kokkuhoid	-10.9868
▁muudatustega	-10.987
▁põhiseadusliku	-10.9873
▁organi	-10.9876
iminister	-10.9876
▁sisulisi	-10.9881
▁pikemat	-10.9883
▁kaldu	-10.9884
▁arvestatav	-10.9884
▁naabrite	-10.9887
▁ettepanekutega	-10.9887
vaheline	-10.9887
▁vabatahtlikku	-10.9897
lepingute	-10.9898
▁tootjate	-10.9898
▁soodsa	-10.9899
kli	-10.99
stumise	-10.9901
▁Holsmer	-10.9901
Jätkame	-10.9901
▁muusika	-10.9901
▁andke	-10.9902
▁töövõimereformi	-10.9902
▁Ainult	-10.9903
kasutuse	-10.9903
Üks	-10.9906
Kindlasti	-10.9906
olukorda	-10.9912
▁matemaatika	-10.9916
▁Soovin	-10.992
▁kandidaatide	-10.9928
▁vastasite	-10.9928
▁tublid	-10.9934
▁välismaalaste	-10.9942
▁Vähemalt	-10.9942
▁liikunud	-10.9942
Märt	-10.9946
▁naer	-10.9948
▁ühiskondlik	-10.9949
▁korraliku	-10.9952
▁kuulanud	-10.9956
▁taastamise	-10.9958
▁sundi	-10.9962
▁ühekordse	-10.9962
▁eestlased	-10.9966
▁võitluse	-10.9974
▁kriitiline	-10.998
▁Ühesõnaga	-10.998
register	-10.998
▁lääne	-10.998
▁vahendusel	-10.998
▁õhku	-10.9981
▁veebi	-10.9984
vastane	-10.9986
maht	-10.9988
▁surnu	-10.9989
tingimused	-10.9989
inimese	-10.9989
▁näo	-10.9993
ette	-10.9994
▁esitasime	-10.9995
▁kirjaliku	-10.9997
▁teadnud	-10.9997
▁elavda	-10.9998
▁kujundada	-10.9998
▁2019	-11.0002
▁tarbimist	-11.0005
▁õpilased	-11.0011
▁proportsiooni	-11.0012
▁tavaline	-11.0013
minutili	-11.0013
kivi	-11.0015
▁kaunis	-11.0019
▁läbiviimise	-11.002
sõit	-11.002
▁käsk	-11.0022
▁väitsite	-11.0022
▁tullakse	-11.0022
▁otseses	-11.0024
kogemus	-11.0026
Priit	-11.0027
▁poliitilisi	-11.0027
▁suunda	-11.0031
▁palume	-11.0031
▁reageerida	-11.0032
▁suhtumise	-11.0041
▁eaka	-11.0042
▁kontrollima	-11.0042
palju	-11.0047
▁15%	-11.0048
▁mõjude	-11.0051
luure	-11.0053
▁viisaka	-11.0055
▁kivi	-11.0057
▁õnne	-11.0059
▁Brüsselis	-11.006
▁Haigekassa	-11.006
▁Sooäär	-11.006
▁VEB	-11.006
▁tõlgendus	-11.006
▁lapsetoetust	-11.006
▁elamisloa	-11.0061
▁kuuluda	-11.0061
▁Airi	-11.0061
▁niisugused	-11.0063
▁lehe	-11.0068
▁väljamakse	-11.0074
▁vanaduspension	-11.0075
▁moodustamise	-11.0075
▁kuulates	-11.0076
metsa	-11.008
Kolm	-11.008
▁hoiak	-11.0083
▁Teate	-11.0086
▁mõistan	-11.0087
▁positiivselt	-11.0092
▁kallimaks	-11.0094
ametnike	-11.0099
▁riigihangete	-11.01
▁prügi	-11.01
▁seadusloome	-11.01
▁andeks	-11.0101
▁tekkima	-11.0101
lisus	-11.0113
▁valmisoleku	-11.0114
▁investori	-11.0115
▁kõla	-11.0115
▁üllata	-11.0116
pidav	-11.0117
▁komp	-11.0118
▁laulu	-11.0118
partnerite	-11.012
▁liht	-11.0123
▁nägime	-11.0124
▁rendi	-11.0124
▁toimiva	-11.0126
▁riigiasutuste	-11.0127
lehekülje	-11.0127
▁hinnatõusu	-11.0128
▁peredele	-11.0128
▁vahetada	-11.0129
▁suulise	-11.0131
▁vahenditest	-11.0132
▁oodatud	-11.0141
▁operatiiv	-11.0141
olukorras	-11.0144
▁veni	-11.0144
▁väe	-11.0146
▁valitsussektori	-11.0148
Aafrika	-11.0149
▁lahenduste	-11.0154
▁mehhanismi	-11.0162
▁85	-11.0165
▁õpilase	-11.0166
▁Loone	-11.0169
▁kodanikele	-11.0169
▁rahvasaadiku	-11.017
kraadi	-11.0173
vastus	-11.0178
▁maailm	-11.018
▁sisene	-11.018
▁keeruka	-11.0181
võrdõiguslikkuse	-11.0181
▁ehitis	-11.0181
▁langenud	-11.0182
▁olemuselt	-11.0183
▁konservatiivse	-11.0184
▁Aasia	-11.0185
▁üldosa	-11.0188
▁lisatud	-11.0199
müügi	-11.0201
▁algatanud	-11.0202
▁eesmärgiga	-11.0203
kohustuse	-11.021
▁kogemused	-11.0212
▁laena	-11.0215
▁taset	-11.0215
põgenik	-11.0218
▁loodi	-11.0219
▁Usun	-11.0222
▁laastus	-11.0222
▁69	-11.0222
▁lasteaedade	-11.0224
▁Keskus	-11.0225
▁teadmisi	-11.0226
▁ootamatu	-11.0228
▁segadust	-11.0228
üüd	-11.0228
korraldaja	-11.023
▁toimima	-11.0232
plaan	-11.0233
▁kilomeetri	-11.0238
▁otsustasime	-11.0239
▁õnn	-11.0241
▁kasutata	-11.0243
▁käituma	-11.0247
▁õpetada	-11.0248
▁aju	-11.0254
▁kaasnevad	-11.0258
efektiivsus	-11.026
võimalusi	-11.0261
▁lasteaed	-11.0262
▁diislikütuse	-11.0263
▁hädavajalik	-11.0263
eeskirja	-11.0264
▁topelt	-11.0264
▁psühholoogi	-11.0265
▁võimaldada	-11.027
Viktor	-11.0272
▁Rõivasele	-11.0274
▁traditsiooni	-11.0277
▁miljon	-11.0278
soovi	-11.0283
▁sisalda	-11.0286
▁lisakulu	-11.0289
▁töövõimetus	-11.0291
Jaa	-11.0292
▁lahendi	-11.0293
▁sõjalis	-11.0299
▁Iraagi	-11.0304
▁topeltkodakonds	-11.0304
▁minimaalse	-11.0304
▁oktoober	-11.0304
▁pikaajaline	-11.0304
▁suurusjärk	-11.0304
▁tehniline	-11.0304
▁usaldusväärsus	-11.0304
▁direktori	-11.0304
▁protesti	-11.0305
▁valva	-11.0305
▁vabatahtlike	-11.0309
▁ükskord	-11.031
Jürgen	-11.0314
▁dokumente	-11.0317
▁määrusega	-11.0319
▁erilist	-11.032
▁vastaja	-11.0325
valla	-11.0326
▁isiklikku	-11.0326
▁saatis	-11.0329
▁dokumendid	-11.0331
▁edukas	-11.0331
▁püsiva	-11.0332
▁eelmist	-11.0334
▁annate	-11.0339
▁arvestuse	-11.034
▁korrata	-11.0342
▁lühenda	-11.0345
▁dubleeri	-11.0345
▁alustel	-11.0346
▁Riigieelarve	-11.0346
▁kattu	-11.0347
▁eriarvamus	-11.0347
▁ettevaatlik	-11.0347
▁Peaminister	-11.0348
▁kõneleja	-11.035
lähedase	-11.0351
▁poliit	-11.0351
▁kirg	-11.0354
▁tunneb	-11.0356
▁fookus	-11.0359
▁termini	-11.0361
nõunik	-11.0361
▁parvlaeva	-11.0363
▁tervislik	-11.0367
▁peaksin	-11.0373
Mark	-11.0378
▁oskab	-11.038
▁üldharidus	-11.0382
▁Hiiumaa	-11.0386
▁definitsioon	-11.0386
▁paketi	-11.039
▁panevad	-11.0391
▁80%	-11.0392
▁Ütle	-11.0399
▁Muide	-11.04
▁proportsionaals	-11.0402
pedagoog	-11.0408
▁periood	-11.041
▁sobib	-11.0412
▁sätteid	-11.0419
▁esineda	-11.042
aktsiis	-11.042
▁kaasneb	-11.042
▁tegutseva	-11.0422
▁pakuvad	-11.0424
▁juriidiline	-11.0428
▁kõrvu	-11.0428
mitrijev	-11.0428
▁spetsialiste	-11.0429
▁Täht	-11.043
▁lähenemise	-11.0432
ndate	-11.0435
▁nõustamis	-11.0446
▁toovad	-11.0449
▁tri	-11.045
▁Harjumaa	-11.045
▁nägin	-11.045
nneks	-11.0457
vahemik	-11.0458
▁Teema	-11.0458
ndamist	-11.046
▁kaotanud	-11.046
▁täpsustatakse	-11.0464
iimi	-11.0465
▁jagatakse	-11.0468
koosolek	-11.0468
▁suhkru	-11.0469
▁õppinud	-11.0469
▁Edasi	-11.0469
▁Viimaste	-11.0469
▁Raidma	-11.047
petaja	-11.047
▁Teeme	-11.0473
▁viite	-11.0473
▁üksinda	-11.0473
▁täies	-11.0475
▁liigi	-11.0477
energia	-11.0481
projekt	-11.0481
▁Avalik	-11.0485
Täna	-11.0492
▁kõnealu	-11.0494
▁universaalse	-11.0494
▁garantiid	-11.0495
▁Lõpuks	-11.0495
▁seejuures	-11.0495
investor	-11.0496
▁pangandus	-11.0498
▁äriühingute	-11.0501
▁otsustavad	-11.0501
▁enamikus	-11.0504
▁viide	-11.0504
▁menetleme	-11.0507
▁Pakosta	-11.0511
▁kaitsmise	-11.0511
järjekorrad	-11.0512
▁omaosalus	-11.0512
▁vajuta	-11.0512
osakond	-11.0513
▁kommentaar	-11.0513
küla	-11.0524
▁juhus	-11.0533
▁Kümme	-11.0553
▁suhtlus	-11.0553
▁tuhat	-11.0553
▁Juhul	-11.0553
▁India	-11.0553
▁prioriteetide	-11.0557
▁volitatud	-11.0557
▁põhjalikumalt	-11.0559
▁hakkasid	-11.0561
▁ohusta	-11.0562
▁Lõpp	-11.0563
▁mõningaid	-11.0564
▁kavatsete	-11.0565
▁täpset	-11.0565
▁kirjutama	-11.0566
▁võõr	-11.0572
haru	-11.0572
▁kättesaadavust	-11.0579
▁hümni	-11.0579
▁Lä	-11.0581
▁kasutame	-11.059
▁pais	-11.0591
▁edastanud	-11.0591
tootmine	-11.0593
▁Vitsut	-11.0595
▁nafta	-11.0595
▁häbene	-11.0595
▁järjekordselt	-11.0595
▁annetus	-11.0596
▁Rahvusvahelise	-11.0596
▁potentsiaali	-11.0597
▁kontseptsiooni	-11.0598
▁tempos	-11.0602
muudatus	-11.0602
▁alused	-11.0604
▁liberaal	-11.0606
▁reserve	-11.0606
▁ideid	-11.0608
▁töötatud	-11.0608
▁käsu	-11.0613
▁elatis	-11.0614
▁võidelda	-11.0615
tähelepanelikult	-11.0622
▁koostada	-11.0623
▁käsitlenud	-11.0624
▁arutab	-11.0629
▁valitsusliikme	-11.0629
▁ametikoht	-11.0632
▁haldusala	-11.0635
▁jäetakse	-11.0638
▁Tõnisson	-11.0638
▁eilse	-11.0638
▁keeleoskus	-11.064
▁Kunagi	-11.0644
▁rahvuslik	-11.0646
▁sanktsioonide	-11.0651
▁jõuka	-11.0651
juhataja	-11.0652
▁erakonnakaaslas	-11.0656
▁kohtusüsteemi	-11.0659
▁esmaspäeva	-11.0659
▁sure	-11.0662
▁kandis	-11.0663
▁põhjuseks	-11.0663
▁vajalikke	-11.0666
▁tohutult	-11.0669
volinik	-11.067
▁Tolliamet	-11.067
valimiskampaania	-11.0674
▁konverentsi	-11.0675
▁tõstatas	-11.0676
sekretär	-11.068
▁bensiini	-11.068
▁tarvita	-11.068
rca	-11.0681
▁lipp	-11.0681
▁filmi	-11.0681
▁teadlaste	-11.0687
▁4%	-11.0689
10	-11.0697
▁omanike	-11.0701
▁rõõm	-11.0704
▁jätame	-11.0715
andmete	-11.0715
▁käibe	-11.0716
▁avaldust	-11.0719
▁praktiline	-11.0723
tulundusühingu	-11.0723
▁väärtpaberi	-11.0723
▁tõlki	-11.0723
▁lähenemist	-11.0723
▁väljend	-11.0724
kommunikatsiooni	-11.0726
▁majandustegevus	-11.0726
staabi	-11.0727
▁toetamine	-11.0729
mäng	-11.0729
▁aktsiisimäära	-11.0729
▁õpiku	-11.073
▁linnaosa	-11.073
▁Kred	-11.073
▁põhineb	-11.0733
▁mitmete	-11.0733
vorm	-11.0733
▁kasvas	-11.074
seire	-11.0742
vaate	-11.0743
tõrje	-11.0745
▁kõva	-11.0747
▁jagamise	-11.0747
kaitseminister	-11.0748
▁moodustatud	-11.0753
▁ligikaud	-11.0758
tavus	-11.0762
▁juriidiliselt	-11.0763
▁rõõmusta	-11.0764
▁nõrgema	-11.0766
▁vastuvõetav	-11.0766
▁tervishoid	-11.0767
▁maakondades	-11.0767
▁avaldatud	-11.0768
▁teehoiu	-11.077
kiirus	-11.077
▁liitumis	-11.0772
▁esitame	-11.0772
press	-11.078
▁rakendatakse	-11.0797
▁niisuguste	-11.0798
▁pankroti	-11.0809
▁pensionitõus	-11.0809
▁iseloomusta	-11.0809
▁kuritarvita	-11.0809
▁Ühtlasi	-11.081
▁selgituse	-11.081
▁VII	-11.0812
▁vigade	-11.0813
▁mõistlikuks	-11.0815
▁sõlmimise	-11.0815
nähtav	-11.0817
ohutus	-11.0818
▁summade	-11.082
▁Toomi	-11.0827
▁haridusminister	-11.0827
▁rajada	-11.0828
▁sisejulgeoleku	-11.0834
▁sõda	-11.0838
Pa	-11.0842
▁kaotab	-11.0844
▁muudeti	-11.0844
▁sügavalt	-11.0851
▁teretulnud	-11.0852
▁Maailma	-11.0852
▁maksimum	-11.0852
▁Jõu	-11.0853
▁ci	-11.0855
▁Olge	-11.086
▁Har	-11.0865
▁puht	-11.0866
▁paista	-11.0866
▁kiiruse	-11.0869
▁väärteo	-11.087
suhete	-11.087
rände	-11.0872
▁asendada	-11.0873
▁väärib	-11.0875
info	-11.0875
▁vabaduse	-11.0878
▁valmisolek	-11.0886
▁lennuki	-11.0886
▁hoiab	-11.0886
▁nulli	-11.0889
▁jõulu	-11.089
▁eraldatakse	-11.0892
▁vaidlused	-11.0892
▁Koda	-11.0895
▁ebaõnnestu	-11.0896
▁keskvalitsuse	-11.0896
▁Niisiis	-11.0896
teenistuja	-11.0896
▁põlvkond	-11.0897
▁peretoetus	-11.0897
▁seitsmenda	-11.09
▁üleminekutoetus	-11.0904
▁Pole	-11.0904
▁Seejärel	-11.0904
▁Majandamis	-11.0912
Siin	-11.0914
pra	-11.0914
▁otsene	-11.0916
▁põl	-11.0916
keskused	-11.0917
▁kolmandate	-11.0922
Pea	-11.0923
▁linnu	-11.0926
▁toimuks	-11.0927
▁tervita	-11.0934
▁tõenäosus	-11.0936
▁hukka	-11.0937
▁valima	-11.0938
▁globaalse	-11.0939
▁Küpros	-11.0939
Hetkel	-11.0939
▁pakkuja	-11.094
▁asjatundja	-11.094
▁lõpe	-11.094
▁Käesoleva	-11.094
▁käibemaks	-11.0942
mur	-11.0945
▁odava	-11.0945
▁teenivad	-11.0954
▁perearst	-11.0958
▁Maanteeameti	-11.0959
▁kiirelt	-11.0965
▁sündimus	-11.0967
▁valitsusliikmed	-11.0971
▁aktsiiside	-11.0973
▁tähtsus	-11.0973
▁kannatanu	-11.0981
struktuuri	-11.0982
▁karjääri	-11.0983
▁maapiirkondades	-11.0983
▁selgunud	-11.0983
▁ümar	-11.0983
▁Päästeameti	-11.0984
▁Väike	-11.0984
▁kiirlaenu	-11.0984
territoriaalse	-11.0988
▁kutsekooli	-11.0997
▁2011	-11.1
▁keelata	-11.1001
Marika	-11.1002
aalsus	-11.1007
▁täitu	-11.1008
▁selja	-11.1009
▁mõjutavad	-11.1009
▁valikute	-11.1013
▁Kodu	-11.1013
nõuded	-11.1018
inants	-11.1018
▁palgata	-11.1024
▁terrori	-11.1027
▁kobareelnõu	-11.1027
▁põgusalt	-11.1027
▁eetika	-11.1027
▁ütlus	-11.1027
adupärast	-11.1029
▁kaugemas	-11.1032
raamat	-11.1032
▁konstruktiivse	-11.1033
▁peresid	-11.1035
▁kutseharidus	-11.1035
▁tähtsust	-11.1035
▁täitevvõimu	-11.1041
▁laekus	-11.1042
▁leheküljel	-11.1042
▁prioriteedid	-11.1042
mängu	-11.1045
▁sõidab	-11.1045
▁vastatud	-11.1047
▁83	-11.1047
▁lähtume	-11.105
▁ajendatud	-11.1072
▁süvenda	-11.1072
▁motiiv	-11.1074
▁maksmine	-11.1075
▁väit	-11.1076
▁järeldusele	-11.108
▁tõdeda	-11.1084
▁84	-11.1086
▁81	-11.1086
▁ravikindlustus	-11.1092
▁reaal	-11.1094
▁ohutu	-11.1098
▁järeldusi	-11.1104
▁enamuse	-11.1109
aegne	-11.1114
▁PPA	-11.1116
▁vajaduspõhist	-11.1116
▁tähenduses	-11.1122
▁koolivõrgu	-11.1124
▁rõõmsa	-11.1125
200	-11.1128
▁korrektselt	-11.1132
▁kaupade	-11.1135
▁Ministeeriumi	-11.1147
eesmärk	-11.1149
müü	-11.115
▁rumala	-11.1151
▁rakendatud	-11.1154
audiitor	-11.1161
▁Organisatsiooni	-11.1161
▁rahutagamis	-11.1161
▁pingutus	-11.1161
▁uurinud	-11.1162
▁alammäär	-11.1163
▁pii	-11.1166
▁Tahaks	-11.1167
▁võimalikuks	-11.1169
antsinspektsioon	-11.1169
▁etapp	-11.1171
▁lähtunud	-11.1172
▁tööturule	-11.1173
▁töövõtja	-11.1175
▁250	-11.1177
▁tarbimis	-11.1179
▁projekte	-11.1186
▁esitasin	-11.1189
▁euroraha	-11.1189
▁paraneb	-11.1198
▁protseduurilis	-11.12
▁hääletame	-11.1204
▁naise	-11.1204
▁kaasamise	-11.1205
▁ilmtingimata	-11.1206
▁Läänemere	-11.1206
▁muuseas	-11.1206
▁viitab	-11.1207
▁tõsiasi	-11.1207
▁neto	-11.1207
▁piltlikult	-11.1209
toote	-11.121
seadmete	-11.1211
▁viina	-11.1219
▁kuuluvate	-11.1221
eerima	-11.1223
eerimist	-11.1224
▁vett	-11.1224
▁ehitama	-11.1226
▁seadusandliku	-11.1228
▁saarte	-11.1236
17	-11.1236
▁tegutsemis	-11.1238
▁ligipääs	-11.1242
▁Peep	-11.1251
▁Punkt	-11.1251
▁Randver	-11.1251
▁kiusa	-11.1251
▁ülejäägi	-11.1251
▁raadio	-11.1251
▁loosung	-11.1251
▁Amet	-11.1256
▁paindlikumaks	-11.1256
▁jagatud	-11.1257
▁nais	-11.1264
▁loomist	-11.1269
▁edendamise	-11.127
▁märkida	-11.128
▁ülevõtmise	-11.1282
▁Kehtiva	-11.1285
▁Kohaliku	-11.1285
konsensus	-11.1286
▁üleminek	-11.1287
▁nimetanud	-11.1291
▁elanikku	-11.1296
▁tütar	-11.1296
▁Koalitsioon	-11.1296
▁Ministri	-11.1296
Neljas	-11.1296
▁pealkiri	-11.1297
▁jõudsime	-11.1308
▁lõplikult	-11.1311
▁juhitava	-11.1322
▁sätestatakse	-11.1323
▁ülemäära	-11.1325
▁palub	-11.1327
▁lisandub	-11.133
▁neis	-11.1335
▁Laurson	-11.1341
▁järk	-11.1342
▁sporti	-11.1342
▁viime	-11.1343
▁kärpe	-11.1343
▁venita	-11.1349
▁saaksite	-11.135
▁Esma	-11.1357
▁Võin	-11.1357
▁munitsipaal	-11.1359
▁selgemaks	-11.1367
▁rahaliselt	-11.1369
▁tugevdada	-11.1377
▁sanktsioonid	-11.138
▁Haapsalu	-11.1387
▁konsulteeri	-11.1387
▁Vahepeal	-11.1387
▁puhke	-11.1387
▁lastevanemate	-11.1387
▁püütud	-11.1387
▁Neljandaks	-11.1387
▁lehekülge	-11.1387
▁Erineva	-11.1389
▁nõudlus	-11.139
▁pileti	-11.139
▁istub	-11.1392
▁asukoha	-11.1393
▁erandeid	-11.1394
▁mõistlikult	-11.1398
▁lihtsamaks	-11.1399
▁koondamis	-11.1403
Artur	-11.1411
▁käisid	-11.1415
▁maksuvabastus	-11.1416
▁õigusakti	-11.1416
tsooni	-11.1419
▁eeskujuks	-11.142
▁Alusta	-11.1423
▁elektrituru	-11.1423
lõik	-11.143
tsükli	-11.1433
▁Ivanova	-11.1433
▁Piiri	-11.1433
▁sild	-11.1434
prognoos	-11.1434
Meil	-11.1434
▁suhelda	-11.1436
▁keeleõppe	-11.1439
lehtede	-11.1439
Juhatus	-11.1441
▁toel	-11.145
▁kiitnud	-11.1451
▁kõrg	-11.1458
▁järjepidev	-11.1465
▁Elu	-11.147
tevalmistamisel	-11.1472
▁alkoholiaktsiis	-11.1475
▁käisin	-11.1476
konservatiiv	-11.1476
▁detsember	-11.1479
▁tõrju	-11.1479
▁naaberriikide	-11.1479
▁kavatsus	-11.1482
▁süda	-11.1485
▁suurenevad	-11.1485
▁suudaksime	-11.1488
▁Musta	-11.1491
▁järjepidevus	-11.1493
▁elamu	-11.1494
pood	-11.1498
▁silmis	-11.1505
varu	-11.1505
numbri	-11.1506
▁uurimise	-11.1515
▁Michali	-11.1515
▁soosi	-11.1519
▁analoogse	-11.1519
▁õigusselgus	-11.1525
komponendi	-11.1525
▁muinsuskaitse	-11.1525
▁olenemata	-11.1526
▁riiklikku	-11.1528
▁meeskonna	-11.1528
▁maksusoodustus	-11.1529
▁Asja	-11.1531
▁kallim	-11.1533
▁tekitavad	-11.154
▁Ants	-11.1545
Seda	-11.1553
▁suhtelise	-11.1555
▁asjaolusid	-11.1555
taotlus	-11.1562
▁maksupettus	-11.1563
palk	-11.1568
▁Riigimetsa	-11.1573
▁isikuandmete	-11.1573
▁selgitama	-11.1574
▁Remo	-11.1575
▁teoks	-11.1576
▁abivahendite	-11.1582
tähtaeg	-11.1582
▁suunis	-11.1585
töötuskindlustus	-11.1591
konsul	-11.1593
Majanduskomisjon	-11.1595
▁kooseluseadus	-11.1597
sõnu	-11.1599
sisese	-11.16
▁absoluut	-11.1612
▁taotlemise	-11.1613
▁jõustunud	-11.1616
▁Seesama	-11.1618
▁Julge	-11.1618
▁Olles	-11.1618
▁kogenud	-11.1619
marginaal	-11.1619
▁moment	-11.162
▁uskuda	-11.162
▁organiseeri	-11.1622
▁otsese	-11.1625
▁suunatakse	-11.1626
parlamendiliikme	-11.1629
poliitilist	-11.1632
▁tasand	-11.1632
▁suurepäraselt	-11.1637
▁sedavõrd	-11.1639
▁pedagoogi	-11.164
▁naine	-11.1642
saaja	-11.1643
▁maksustamis	-11.1644
▁aspekte	-11.1645
põhimõte	-11.1646
omandi	-11.1647
tasandi	-11.1649
▁laenude	-11.165
▁juriidilis	-11.1656
▁Kordan	-11.1665
▁alaealise	-11.1665
▁peeta	-11.1666
▁välispoliitilis	-11.1667
▁sõidavad	-11.1678
▁eripära	-11.1684
kül	-11.1685
vahendid	-11.1689
▁vaidluse	-11.169
keelse	-11.1691
näitaja	-11.1694
jätmise	-11.1699
▁raamides	-11.1705
liin	-11.1708
▁kujutada	-11.1711
analüüs	-11.1711
▁Vaadates	-11.1713
▁väidab	-11.1713
▁lahja	-11.1713
haldur	-11.1713
▁Vastu	-11.1715
▁kiitis	-11.1721
▁sammas	-11.1722
▁välisriigi	-11.1723
▁selgitus	-11.1724
▁üleandmise	-11.1736
▁maksame	-11.1737
▁elukoha	-11.1737
andmeid	-11.1743
▁sünnib	-11.1745
▁meeldiv	-11.1745
▁loetakse	-11.1751
koefitsient	-11.176
▁eluaseme	-11.176
professiona	-11.176
▁vastuollu	-11.176
▁loetle	-11.1761
▁korraldama	-11.1764
▁kirjeldatud	-11.1765
▁leidmise	-11.1765
▁tõstma	-11.1766
▁Laaneti	-11.1767
▁Kahe	-11.177
▁Hä	-11.1775
▁kuulasin	-11.1778
▁perearstide	-11.1779
▁päevadel	-11.1784
▁panustab	-11.1785
▁Soo	-11.1786
▁plaanitud	-11.1796
▁liberaalse	-11.1796
laua	-11.1799
▁maksusüsteem	-11.1803
▁liig	-11.1804
radi	-11.1804
instituudi	-11.1808
▁efektiivne	-11.1808
▁kommerts	-11.1808
▁päritolu	-11.1808
▁Kutse	-11.1808
tüki	-11.1808
▁saadetakse	-11.1809
▁ringkonna	-11.1809
▁mõistuse	-11.1811
▁tuvastada	-11.1813
▁parandamise	-11.182
▁kurva	-11.1824
▁sätete	-11.1828
▁seisavad	-11.1829
▁paratamatu	-11.1838
raamatu	-11.184
▁jõuti	-11.1849
▁klient	-11.1855
▁Oviir	-11.1855
▁Holland	-11.1856
▁valitseb	-11.1856
▁voliniku	-11.1857
▁tugiteenuste	-11.1857
▁Meelis	-11.1857
▁jaanuar	-11.1858
▁nimistu	-11.1862
▁teatri	-11.1862
Andre	-11.187
▁uuendus	-11.1873
▁täitmine	-11.1879
▁jõustumist	-11.188
▁väärtusta	-11.1882
▁Põ	-11.1887
▁päästja	-11.1888
▁loeb	-11.189
▁suurendamiseks	-11.1894
▁palutud	-11.1901
▁ambitsioon	-11.1902
▁Peipsi	-11.1903
▁advokaadi	-11.1903
▁hüve	-11.1904
▁Viimane	-11.1904
▁võidakse	-11.1904
▁rahvahääletuse	-11.1904
▁Teatud	-11.1904
▁korraldab	-11.1905
▁tähtsama	-11.1917
▁Nool	-11.1917
▁palgafondi	-11.1921
▁dialoogi	-11.1926
▁kaasneva	-11.1928
▁tööjõumaksude	-11.1935
stsenaarium	-11.1939
▁samasugust	-11.1941
▁rahastatakse	-11.1944
▁väidetaval	-11.1949
▁piirkondade	-11.195
ekspertiisi	-11.1952
▁Repinski	-11.1952
▁formuleeri	-11.1952
▁välistatud	-11.1952
▁Mihkelson	-11.1952
▁protokoll	-11.1953
▁aktiivne	-11.1954
▁jääme	-11.1954
▁politseinike	-11.1958
klassi	-11.1961
▁valgusta	-11.1963
▁võidab	-11.1964
▁muudame	-11.1964
▁reaktsioon	-11.1966
▁193	-11.1966
kauplus	-11.1969
▁kehvema	-11.197
▁sõida	-11.1974
olukord	-11.1977
eldakse	-11.1981
▁ostmise	-11.1987
muutus	-11.1987
▁rakendama	-11.199
▁kaug	-11.1994
▁klientide	-11.2001
eerib	-11.2002
▁ajalehe	-11.2002
ärme	-11.2007
▁hinnatud	-11.2008
▁lahendab	-11.2025
liigi	-11.2036
▁Enam	-11.2041
▁Järelevalve	-11.2049
▁Siinkohal	-11.2049
▁koondu	-11.2049
▁andsite	-11.2049
▁Infotund	-11.2049
▁lahke	-11.205
▁elatisabi	-11.205
kindlustusameti	-11.2051
täit	-11.2052
Ettekandjale	-11.2052
▁ühisosa	-11.2054
▁kandideerida	-11.2055
▁vaatavad	-11.2057
▁kogemuste	-11.2061
▁Erakond	-11.2061
▁osalema	-11.2063
▁kaotamise	-11.2068
▁põnev	-11.2072
▁liituda	-11.2079
protsess	-11.2079
▁jõulise	-11.2081
▁1,3	-11.2082
hoidu	-11.2085
kontroll	-11.2086
▁kontakt	-11.2091
▁kutsehariduse	-11.2095
▁elektroonilis	-11.2097
▁debateeri	-11.2098
▁Siia	-11.2098
▁suudeta	-11.2098
▁liha	-11.2099
▁soodustada	-11.21
▁üliõpilaste	-11.21
▁pakume	-11.2101
▁astuma	-11.2101
▁aadressi	-11.2102
▁vähendama	-11.2103
▁sündmuste	-11.2103
▁üksikute	-11.2104
▁kaheksanda	-11.2108
▁töökoormus	-11.2114
▁Sõna	-11.2114
▁Vana	-11.2117
IE	-11.2117
▁tõendi	-11.212
mõtte	-11.2131
tehnoloogia	-11.2132
Jaanus	-11.2133
Kadri	-11.2133
▁täitmata	-11.2141
▁õnneliku	-11.2143
▁rajamise	-11.2145
▁naaber	-11.2146
▁paindlik	-11.2147
stitutsioon	-11.2147
▁põlvkonna	-11.2147
▁trassi	-11.2147
▁majutus	-11.2149
▁paralleelselt	-11.2152
▁kuuluv	-11.2156
▁sünnitus	-11.2157
▁peaspetsialist	-11.2161
▁198	-11.2161
▁varjatud	-11.2162
▁reguleerima	-11.2164
▁tagajärjed	-11.2168
▁hindamis	-11.2174
▁põhiküsimus	-11.218
▁jõutakse	-11.2182
▁kompenseerimise	-11.2182
▁ettevalmistuse	-11.2186
▁loonud	-11.2187
▁moodus	-11.2192
aomavalitsuste	-11.2197
▁väidate	-11.2197
▁pidurda	-11.2197
▁Alates	-11.2197
mootor	-11.2198
▁kinnisasja	-11.2199
▁Käi	-11.2203
▁vari	-11.2207
▁lõppemise	-11.2209
gustatud	-11.221
▁kodanikke	-11.221
▁kuulama	-11.2211
▁kasutusel	-11.2214
▁viimati	-11.2217
▁Süürias	-11.2217
lõivuseaduse	-11.2218
▁Süüria	-11.2226
▁langetamine	-11.2231
▁seab	-11.2232
dokumendi	-11.2233
▁istungitel	-11.224
▁projekteeri	-11.2243
▁terviklikku	-11.2245
▁Kümne	-11.2247
▁Lepingu	-11.2247
▁vastuvõetud	-11.2247
▁leidsime	-11.2247
▁suutma	-11.2248
▁ründa	-11.2249
▁90%	-11.2252
tootmise	-11.2252
▁põhiseaduslik	-11.2253
▁jumal	-11.226
▁Nimeta	-11.2269
▁ehituse	-11.227
▁planeerida	-11.2272
▁arutatava	-11.2273
▁prioriteedi	-11.228
▁sotside	-11.228
▁suurepärase	-11.2282
▁Piirivalveamet	-11.2284
▁Kolleegid	-11.2285
▁terviku	-11.2292
▁86	-11.2297
▁Haigla	-11.2297
▁Vaarmann	-11.2297
▁bürokraatlik	-11.2297
▁ametkonna	-11.2297
▁murelikuks	-11.2297
▁julgus	-11.2299
▁tanki	-11.2299
▁luu	-11.23
▁75%	-11.2302
eurose	-11.2306
▁eriarsti	-11.2309
▁igaühel	-11.2312
▁mikrofon	-11.2313
valmidus	-11.2314
planeering	-11.2314
▁kohelda	-11.2317
kood	-11.2324
▁maksutõusu	-11.2328
▁sõbra	-11.2332
▁esineb	-11.2334
▁möödu	-11.2334
maailma	-11.2338
▁veeseaduse	-11.2338
▁kirjutab	-11.2345
▁repliigi	-11.2347
▁siinkõneleja	-11.2347
▁spetsiifilise	-11.2347
agentuur	-11.2347
▁Inimene	-11.2347
▁Tavaliselt	-11.2347
▁jättis	-11.2347
▁haara	-11.2348
▁seina	-11.2349
▁kaovad	-11.2351
▁juhtkonna	-11.2354
▁kuidagimoodi	-11.2359
päraselt	-11.2359
▁saavutamiseks	-11.2362
▁ametlikult	-11.2363
▁püüavad	-11.2364
▁õigusruumi	-11.2368
▁vastamata	-11.237
▁palgatõus	-11.2371
üür	-11.2375
▁korrektse	-11.238
ülesande	-11.2384
▁levita	-11.2397
Hasartmängumaksu	-11.2397
▁artikkel	-11.2397
▁2021	-11.2397
▁jälitus	-11.2397
▁Hanso	-11.2397
täienduskoolitus	-11.24
▁Ikka	-11.2401
norm	-11.2404
▁lobi	-11.2408
▁füüsilis	-11.2411
▁märku	-11.2422
▁alandamise	-11.2426
▁kaevandamis	-11.2434
inimeste	-11.2437
▁kujundamisel	-11.2442
▁valitakse	-11.2444
▁selgitusi	-11.2446
▁Laaneots	-11.2448
▁Mälberg	-11.2448
▁halvenda	-11.2448
▁kipub	-11.2448
▁puudujäägi	-11.2448
▁tasandusfondi	-11.2448
Urbo	-11.2448
▁Ausalt	-11.2448
▁viidanud	-11.2448
▁esitavad	-11.2449
▁volituste	-11.2449
▁pärand	-11.245
▁sõltuvalt	-11.2451
iteedi	-11.2451
▁püüdsin	-11.246
▁toitu	-11.2462
▁Kolmanda	-11.2463
▁toru	-11.2464
▁soodus	-11.2466
▁põhiseadusvasta	-11.2467
lõivu	-11.2468
mehhanism	-11.2472
▁Peab	-11.2475
▁pinnalt	-11.2476
tehingu	-11.2477
▁alustanud	-11.2487
▁kaugemal	-11.2491
▁tsiteerin	-11.2492
▁kinnipidamis	-11.2497
irektor	-11.2498
häälteenamus	-11.2498
instrument	-11.2499
▁integreeri	-11.2499
▁suhteid	-11.25
▁andmekogu	-11.2501
▁tegevusloa	-11.2503
▁pakutava	-11.2505
▁efektiivselt	-11.2507
▁maavara	-11.2509
▁Koos	-11.2509
▁pideva	-11.2512
pargi	-11.2518
pinda	-11.2521
▁elav	-11.2521
▁volikogude	-11.2523
▁tabel	-11.2525
piirkond	-11.2539
▁konteksti	-11.254
▁küsitav	-11.2541
▁käitunud	-11.2543
▁motiveerida	-11.2543
erakondade	-11.2543
▁lisaküsimus	-11.2547
▁eraõiguslik	-11.2548
▁halda	-11.255
▁hamba	-11.255
sfääri	-11.255
▁immigratsiooni	-11.255
▁hotelli	-11.255
▁päästekomando	-11.255
▁võltsi	-11.2551
▁Lapse	-11.2551
▁planeerimise	-11.2551
▁2004.	-11.2551
▁Koostöö	-11.2555
▁peeti	-11.2557
▁Kõnealu	-11.2557
▁juhtima	-11.2559
▁lõpetamist	-11.256
▁unustada	-11.256
▁loeme	-11.2566
▁helista	-11.257
▁õpivad	-11.2572
▁valusa	-11.2574
▁suvi	-11.2575
kapital	-11.2578
▁seadusandlik	-11.2578
▁vastuvõtmine	-11.2581
meetmete	-11.2592
▁kaeva	-11.26
▁Aasa	-11.2601
portfell	-11.2602
▁Jõhvi	-11.2602
▁seeläbi	-11.2602
▁Postimehe	-11.2602
Sotsiaalkomisjon	-11.2602
▁talituse	-11.2602
▁70%	-11.2608
analüüsi	-11.2622
▁sobiv	-11.2624
valgus	-11.2626
▁puutunud	-11.2627
▁seisnud	-11.2628
▁täpsustava	-11.2636
olukorra	-11.2643
▁rakendub	-11.2644
▁põhjalikku	-11.2645
▁näitama	-11.2647
▁noorema	-11.2649
▁alandada	-11.2653
▁pühenda	-11.2654
▁kaugeltki	-11.2654
▁poolteise	-11.2654
▁küün	-11.2655
▁keskkonnamõju	-11.2657
palka	-11.2659
▁loobuma	-11.2659
▁vähendatakse	-11.2659
▁maksukorralduse	-11.266
▁meelita	-11.2662
oodetavasti	-11.267
▁kehtestanud	-11.267
▁üksteist	-11.268
▁juhtuma	-11.2683
▁detailselt	-11.2684
▁kaitsevõime	-11.2692
▁selgitust	-11.2695
Igor	-11.2697
▁illegaalse	-11.2702
▁nominaalse	-11.2704
Täpse	-11.2706
▁pahatahtlik	-11.2706
▁Riigikantselei	-11.2706
▁aktuaalne	-11.2706
▁defitsiit	-11.2706
▁Kross	-11.2706
▁direktor	-11.2706
▁Statistikaameti	-11.2707
pensionisüsteemi	-11.2711
▁arusaamise	-11.2721
▁Võrumaa	-11.2723
▁kiirenda	-11.2726
▁rahvasaadik	-11.2727
▁olulisemad	-11.2728
kriis	-11.2731
▁riigipiiri	-11.2737
▁jõustuma	-11.2741
müük	-11.2741
▁3000	-11.2746
▁kaasettekande	-11.2758
▁ratsionaalse	-11.2758
▁Alender	-11.2758
▁eelkäija	-11.2758
▁läheneda	-11.2759
▁lühiajalis	-11.2759
saadik	-11.276
▁liitumise	-11.276
unapuu	-11.2761
▁seltsi	-11.2763
õiguslikku	-11.2766
võimsus	-11.2774
▁võimaldavad	-11.2777
koosseisu	-11.2783
▁lõigu	-11.2783
▁tuttava	-11.279
relv	-11.2791
▁registreerimise	-11.2793
▁kohatu	-11.2794
▁keskel	-11.2795
▁arvestamise	-11.2796
▁initsiatiiv	-11.2805
▁alampalga	-11.2811
▁mineviku	-11.2811
▁ideoloogia	-11.2811
▁pisike	-11.2811
▁ääremaa	-11.2811
▁valve	-11.2811
▁kriminaalasja	-11.2811
teooria	-11.2812
▁Lõ	-11.2812
▁võlakirju	-11.2813
▁puhkuse	-11.2813
▁teadlased	-11.2818
▁lühema	-11.2825
▁maksumäära	-11.2825
▁patsient	-11.283
▁trendi	-11.2833
▁lähima	-11.2848
asju	-11.2849
▁baasil	-11.2852
Vabandust	-11.2856
▁panustanud	-11.2863
▁humanitaar	-11.2864
▁moraalse	-11.2864
▁Varem	-11.2864
teadlikkus	-11.2867
▁ülempiir	-11.2868
▁lugesite	-11.287
▁külalised	-11.2873
tükk	-11.2874
▁kindlust	-11.2876
▁kehtestamine	-11.288
▁hindade	-11.2883
▁nõuavad	-11.2886
päi	-11.2888
▁prokuröri	-11.2891
▁paranenud	-11.2892
▁Kur	-11.2892
▁ohtliku	-11.2899
▁võitja	-11.2908
oskus	-11.291
▁kokkulepete	-11.2914
▁riigiasutus	-11.2914
▁spetsiaal	-11.2917
▁kahetsusväärne	-11.2917
▁kingitus	-11.2917
▁kukkunud	-11.2917
▁spekuleeri	-11.2917
▁leidsid	-11.2917
▁tõlgi	-11.2917
▁teavitus	-11.2918
▁esitle	-11.2918
▁märksõna	-11.2918
▁President	-11.292
▁lahendatakse	-11.2927
▁maksustada	-11.2936
▁mõistus	-11.2938
▁õlu	-11.2941
▁vastanda	-11.2957
▁lenda	-11.2961
pilgu	-11.2962
▁põhjendamatu	-11.2966
öödunud	-11.297
▁Jällegi	-11.297
▁Liibanoni	-11.297
▁SKAIS	-11.297
▁ebaõiglus	-11.297
▁läbipaistev	-11.297
▁ettekujutus	-11.2971
▁juhtimine	-11.2971
▁katteks	-11.2973
▁tuld	-11.2977
▁abinõu	-11.298
tähe	-11.2984
▁käsitletakse	-11.2985
▁Paar	-11.2997
eelmise	-11.2997
▁täidavad	-11.3006
▁absoluutse	-11.3011
▁põhimõttelist	-11.3012
▁juriidiliste	-11.3013
▁majanduslikku	-11.3017
▁hirmuta	-11.3022
▁peaasjalikult	-11.3024
tööde	-11.3026
▁miljoneid	-11.3027
▁siduv	-11.3028
▁sõnavõttude	-11.3029
kett	-11.3032
▁haridusministri	-11.3036
▁kokkuhoiu	-11.3038
▁lihtsustatud	-11.3048
▁Eelmine	-11.305
▁kooskõlastus	-11.3054
objekti	-11.3068
rahandusministri	-11.3069
paketi	-11.3073
Praegu	-11.3074
pöörd	-11.3076
üritus	-11.3077
nimõiguste	-11.3078
▁PRIA	-11.3078
▁lammuta	-11.3078
▁Natuke	-11.3078
▁pikaajalist	-11.3078
▁tollal	-11.3079
▁realistlik	-11.3079
▁eriarstiabi	-11.3079
surma	-11.308
▁toetusrühma	-11.3083
▁Arvan	-11.3083
▁vabanda	-11.3086
▁võimeka	-11.3092
ünni	-11.3097
▁murd	-11.3098
▁numbrite	-11.3105
▁võrdsusta	-11.3112
▁vähenema	-11.3113
▁soodustuse	-11.3117
▁tähelepanek	-11.3123
▁hambaravi	-11.3125
Teiseks	-11.3128
parandus	-11.3128
▁märgata	-11.3132
▁arutades	-11.3132
▁Olukord	-11.3133
▁markeeri	-11.3133
▁kodulehel	-11.3133
▁seltskond	-11.3133
▁Andrei	-11.3133
▁ambitsioonika	-11.3134
▁efekti	-11.3134
▁valituks	-11.3135
▁vastuvõtu	-11.3136
▁möönan	-11.3137
▁pühendu	-11.3138
▁piirmäära	-11.3139
▁tervitatav	-11.314
▁halvem	-11.3148
▁sügav	-11.3162
▁teistsugust	-11.3166
organisatsioon	-11.3172
▁kaitseministri	-11.318
preemia	-11.3187
▁tõstetud	-11.3187
valimised	-11.3188
▁Tänu	-11.3188
▁veerand	-11.319
▁õpilasi	-11.3191
▁graafiku	-11.3193
▁Padar	-11.3194
▁tegude	-11.3204
▁armas	-11.3207
▁liiklusseaduse	-11.3213
▁valitsusliidu	-11.3215
▁ainukene	-11.3221
▁kahtlusta	-11.3226
▁tõusis	-11.3226
Arno	-11.3239
Auväärt	-11.3239
▁Päevakord	-11.3242
▁stabiilse	-11.3242
▁säärane	-11.3242
▁veterinaar	-11.3242
▁Sõtnik	-11.3242
▁suitsu	-11.3242
▁põhiõiguste	-11.3242
▁esmatasandi	-11.3243
▁peatüki	-11.3247
▁perspektiiv	-11.3249
▁võrgutasu	-11.3249
▁planeeringu	-11.3251
▁ametnikke	-11.3255
▁vabariigi	-11.3257
vabastus	-11.3259
▁võrdleme	-11.3265
▁tulenev	-11.3265
▁piirkondlik	-11.3271
▁SA	-11.3271
▁varusta	-11.3273
emokraatlik	-11.3284
▁Parlament	-11.3298
▁rikkumist	-11.3298
▁Kõiv	-11.3298
▁õieti	-11.3298
▁Linde	-11.3298
▁tarbeks	-11.3298
▁rakendusaktid	-11.3299
▁rikkus	-11.33
▁liigse	-11.3302
▁turuosa	-11.3304
▁sügise	-11.3305
▁maksustamine	-11.3307
▁arusaamist	-11.3314
▁kehtivus	-11.3315
▁makstava	-11.3315
▁rikutud	-11.3323
▁130	-11.3327
▁ammendava	-11.3327
jäätmete	-11.3333
▁meeskond	-11.334
▁jumala	-11.3342
▁Kinnisvara	-11.3353
▁dividende	-11.3353
▁kümneminutilist	-11.3353
▁leebe	-11.3353
▁optimeeri	-11.3353
▁tõlke	-11.3353
▁sõiduauto	-11.3354
▁võrdlemisi	-11.3355
rohke	-11.3355
▁kättesaadavaks	-11.3355
▁tervikliku	-11.3358
▁Täpsusta	-11.3363
andmed	-11.3366
▁Bre	-11.338
▁täieliku	-11.3381
▁majandusaasta	-11.3382
▁kuuleme	-11.3385
▁miinimumpalk	-11.3391
▁Muidu	-11.3396
▁muutused	-11.3405
▁Istung	-11.3407
▁november	-11.3409
▁Väino	-11.3409
▁vastavuse	-11.3412
▁pensionifondide	-11.3412
▁tagajärgede	-11.3413
▁õppejõud	-11.3414
▁kontakti	-11.3417
▁menetleja	-11.3426
▁võrdsus	-11.3431
▁sõnastatud	-11.3434
▁nähtava	-11.3435
eerinud	-11.3435
stabiilsus	-11.3464
läbirääkimiste	-11.3464
▁tehnilisi	-11.3465
▁nutika	-11.3465
▁Krimmi	-11.3465
▁vastastikuse	-11.3465
▁hukku	-11.3465
▁läbivaatamise	-11.3465
▁lahene	-11.3466
▁Nõu	-11.3466
▁maakondlik	-11.3467
▁OÜ	-11.3468
paika	-11.3475
▁tulubaas	-11.3476
▁teadusministri	-11.348
▁kahepoolse	-11.3481
kaaslaste	-11.3481
▁kaudselt	-11.3482
▁kallima	-11.3483
ulenevalt	-11.3488
▁170	-11.3496
▁põhjuseid	-11.3503
▁0,2	-11.3515
argument	-11.3521
▁elanikke	-11.3522
▁remondi	-11.3522
Tartu	-11.3522
▁Teataja	-11.3522
▁Tiina	-11.3522
▁hallata	-11.3522
esindaja	-11.3522
▁kaevanda	-11.3527
▁krediidiasutus	-11.3535
▁turgude	-11.3536
häire	-11.3538
▁kohtumenetluse	-11.3538
▁kümnenda	-11.3547
deklaratsioon	-11.3548
▁SE	-11.355
▁ilmselge	-11.3561
▁memorandumi	-11.3578
▁optimaalne	-11.3578
▁pälvi	-11.3578
▁laudadel	-11.3579
reserv	-11.3579
▁rünnaku	-11.3582
▁Ilma	-11.3583
▁juhata	-11.3584
▁üheksanda	-11.3585
▁hädaolukorra	-11.3586
▁kompleksse	-11.3592
▁Vastava	-11.3596
▁kerkinud	-11.36
▁õnnetu	-11.3604
kohus	-11.361
liikide	-11.3618
▁käitumis	-11.362
kontseptsioon	-11.3632
▁Jõgeva	-11.3636
▁Teisisõnu	-11.3636
▁minnes	-11.3636
▁säärase	-11.3636
▁juurdepääsu	-11.3636
▁Välja	-11.3636
haaval	-11.3636
▁teadvusta	-11.3636
▁sünnijärgse	-11.3636
▁haldamise	-11.3638
▁õppelaenu	-11.3639
▁lisavahendeid	-11.3641
▁vältel	-11.3641
▁Posti	-11.3642
▁tasuvus	-11.3652
▁Küsiti	-11.3653
▁helistab	-11.3658
▁traditsioonilis	-11.3667
▁rumal	-11.3681
▁ühiskondliku	-11.3682
▁nimetamise	-11.3693
▁sümpaatne	-11.3693
▁riigikassa	-11.3693
▁aastakümneid	-11.3693
▁ebamugav	-11.3693
▁erimärgistatu	-11.3693
▁suletud	-11.3694
transpordi	-11.3694
▁Info	-11.3695
kütteõli	-11.3695
partei	-11.3695
▁järjekorda	-11.3698
▁soovituse	-11.3705
normi	-11.3709
▁toetaja	-11.3711
▁pensionärid	-11.3712
ammu	-11.3713
▁täiendatakse	-11.3714
▁asendusliikme	-11.3717
▁kinnitavad	-11.373
tegemise	-11.3733
▁minek	-11.3741
▁võõranda	-11.3746
rünnak	-11.3747
▁ebameeldiv	-11.3751
▁repliik	-11.3751
ISA	-11.3751
▁Toompea	-11.3752
▁elektrienergia	-11.3752
▁miinimumpalga	-11.3753
▁terav	-11.3767
▁sotsid	-11.377
▁tutvunud	-11.3777
▁lahkumise	-11.3778
▁erineb	-11.3778
▁otsustatakse	-11.3779
▁standard	-11.3783
kvalifitseeritud	-11.3793
ungi	-11.3793
▁algatamise	-11.3796
▁seotu	-11.3797
▁külma	-11.3798
▁maksuamet	-11.3802
▁personaal	-11.3809
▁sissejuhatava	-11.3809
▁tõmbekeskus	-11.3809
▁volitused	-11.381
▁soodsama	-11.3813
▁dis	-11.3816
▁operatsioonide	-11.3816
võimalused	-11.3826
pudeli	-11.3826
▁ääres	-11.3856
▁päästa	-11.386
▁ulatuslik	-11.3864
▁Ungari	-11.3867
▁lülitada	-11.3867
▁pelgalt	-11.3867
▁tulles	-11.3867
▁lõpetuseks	-11.3867
▁raiska	-11.3868
▁Sepp	-11.3868
▁rahakoti	-11.3868
▁Lätti	-11.3868
▁kohtlemine	-11.3868
▁korraldamine	-11.3868
▁omandireformi	-11.3869
▁migratsiooni	-11.3869
▁funktsioone	-11.387
pakett	-11.3874
haigus	-11.3876
▁ammendatud	-11.3876
▁tagasihoidliku	-11.3877
▁valdav	-11.3879
saamise	-11.3888
relva	-11.39
▁osutunud	-11.3903
▁õigusriik	-11.3917
▁kinnitust	-11.3917
▁avaldamise	-11.3923
▁ERR	-11.3926
▁asetäitja	-11.3926
▁sanktsioone	-11.3927
▁saadeti	-11.3928
▁tavapärane	-11.3929
▁harva	-11.3929
▁õpetamise	-11.3929
▁Kuhu	-11.3932
▁lepe	-11.3932
▁stsenaariumi	-11.3941
▁lisatasu	-11.3945
indeksi	-11.3948
▁ilmunud	-11.3955
▁sõnastada	-11.3956
tellimus	-11.3974
▁Elektri	-11.3985
▁advokaat	-11.3985
▁pretsedendi	-11.3985
▁Silla	-11.3985
▁sõduri	-11.3986
▁Sulling	-11.3986
▁järeldada	-11.3986
▁tõstnud	-11.3986
▁Nord	-11.3989
▁hilis	-11.3993
panek	-11.4002
▁põhjendused	-11.4009
▁antava	-11.401
▁juhtkond	-11.4022
▁kehv	-11.4042
▁Täiesti	-11.4045
▁abivajaja	-11.4045
▁ammendumiseni	-11.4045
▁ebaõiglane	-11.4045
▁valimislubadus	-11.4045
▁mitmesugused	-11.4045
▁pakkumine	-11.4045
▁teavet	-11.4046
▁koolitoidu	-11.4047
Kolleeg	-11.4051
Mailis	-11.4051
▁põhikirja	-11.4057
▁14%	-11.406
▁arvutused	-11.4065
▁katke	-11.4078
▁kultuuritöötaja	-11.4099
▁Parlamentaarse	-11.4105
▁moraali	-11.4105
▁tõsteti	-11.4105
▁ainsa	-11.4105
▁ettekirjutus	-11.4106
▁idapiiri	-11.4106
▁elatisraha	-11.4107
▁riigihanke	-11.4112
▁Võimalik	-11.4113
loomade	-11.4114
▁tööjõudu	-11.4116
emokraatia	-11.4122
kaaslane	-11.4124
▁ajalooline	-11.4133
pilet	-11.4139
põhisus	-11.4163
▁maksupoliitilis	-11.4164
▁lähitulevikus	-11.4165
▁vaatevinklist	-11.4165
▁võlakirjade	-11.4165
▁hakatud	-11.4165
▁Kohus	-11.4165
▁andmebaasi	-11.4166
▁Kusjuures	-11.4166
▁seakasvatus	-11.4166
▁Tanel	-11.4167
▁tuntav	-11.4168
▁Vähe	-11.4173
▁stipendiumi	-11.4173
▁eetilis	-11.4175
▁tähelepaneku	-11.4177
▁pidasin	-11.418
▁tõstatanud	-11.419
▁politseiniku	-11.4204
status	-11.4224
▁Saksa	-11.4224
▁Uskuge	-11.4226
▁arhiivi	-11.4226
▁atraktiivse	-11.4226
▁hõiva	-11.4226
▁komando	-11.4226
▁arutleda	-11.4226
▁Purga	-11.4226
▁piiriületus	-11.4226
▁struktuurne	-11.4226
▁õppetoetuste	-11.4232
vooru	-11.4234
▁kummalis	-11.4238
sisaldus	-11.4249
probleemide	-11.4264
▁hüvitamise	-11.4277
▁regulaar	-11.4284
Atlandi	-11.4287
▁demagoog	-11.4287
▁solidaarse	-11.4287
▁tsentraliseeri	-11.4287
▁katuseraha	-11.4287
▁element	-11.4287
▁Lähtu	-11.4287
▁hilisema	-11.4288
▁tähtpäev	-11.4292
▁hiljemalt	-11.4297
stikuregistri	-11.4302
▁ulatusliku	-11.4305
▁194	-11.4305
▁maksustatud	-11.4307
visiit	-11.4314
▁hoiame	-11.4323
ringkondade	-11.4341
▁keemia	-11.4348
▁lisandväärtust	-11.4348
▁proviisor	-11.4348
▁skandaal	-11.4348
▁tõstmist	-11.4349
▁heita	-11.4349
▁saavutus	-11.4349
▁ametkondade	-11.4349
▁sihtrühma	-11.435
▁punase	-11.435
▁usk	-11.4352
▁tagasimakse	-11.4354
▁rõhutasin	-11.4356
põhimõtte	-11.4357
▁kaalutlusõigus	-11.4358
sääst	-11.4358
▁tugevasti	-11.4359
▁viidi	-11.4365
suund	-11.4365
jaotus	-11.4366
▁ühtlase	-11.4391
▁igaühe	-11.4391
direktiivi	-11.4401
salves	-11.4402
argumendi	-11.4409
▁hoitakse	-11.441
▁kvartalis	-11.441
▁patrull	-11.441
▁vedelkütuse	-11.441
▁ühemõtteliselt	-11.441
▁Pariisi	-11.441
▁nüansi	-11.441
▁vaikselt	-11.441
▁praktilist	-11.441
▁õigusemõistmise	-11.441
▁kaugusel	-11.4411
▁lõimumis	-11.4411
▁vahi	-11.4411
apteek	-11.442
Kuidas	-11.4422
▁Paul	-11.4423
▁võõrkeel	-11.4433
▁900	-11.4444
mbe	-11.4459
▁ümbriku	-11.4472
▁kitsenda	-11.4472
brigaad	-11.4472
▁terrorismi	-11.4472
▁ostetakse	-11.4472
▁Trei	-11.4472
▁Lähi	-11.4472
▁külje	-11.4475
▁elektriarve	-11.4475
▁olulisemaid	-11.4479
▁asjakohase	-11.4484
kaupa	-11.4485
võlg	-11.4492
▁lõpliku	-11.4524
vahelist	-11.4527
Tervis	-11.4534
▁Rakvere	-11.4534
▁baseeru	-11.4534
▁Tihti	-11.4534
▁Küti	-11.4534
▁erakorralist	-11.4534
▁autoriteet	-11.4535
▁materjale	-11.4535
▁eksperte	-11.4535
▁Kert	-11.4536
▁sotsiaalmeedia	-11.4537
▁väliskaubandus	-11.4541
äärse	-11.4546
Kalev	-11.455
teadlase	-11.4557
▁ametliku	-11.4561
▁mineva	-11.4563
▁allikas	-11.4578
▁Rüütli	-11.4597
▁ohjelda	-11.4597
▁siseturvalisuse	-11.4597
▁kukkus	-11.4597
▁odav	-11.4598
▁korraldatakse	-11.4598
▁igapäevast	-11.4598
▁Klaas	-11.4598
▁üksmeelselt	-11.4603
▁täideta	-11.461
▁Ivari	-11.461
haldus	-11.4631
▁Estonia	-11.4646
tingimusi	-11.4652
▁pädev	-11.466
▁Lubage	-11.4661
▁märganud	-11.4661
▁formaat	-11.4661
▁killu	-11.4661
▁otsustusõigus	-11.4661
▁märgatavalt	-11.4662
▁jookide	-11.4662
▁tsiviilkohtu	-11.4662
▁hoolega	-11.4662
anske	-11.4663
▁taandu	-11.4668
majja	-11.467
tehnika	-11.4674
kihi	-11.4676
protseduur	-11.4676
▁pidev	-11.4688
ettevõtlus	-11.4705
▁Hiljuti	-11.4724
▁Tamkivi	-11.4724
▁paigalda	-11.4724
▁propageeri	-11.4724
leevendus	-11.4724
▁usaldusväärse	-11.4724
võlaõigusseaduse	-11.4724
▁topeltmaksusta	-11.4724
▁Juhin	-11.4725
▁2006.	-11.4725
▁kirjandus	-11.4731
▁liiguta	-11.4737
Helmen	-11.4739
▁trahv	-11.4742
irektiiv	-11.4744
▁külg	-11.4748
võimeline	-11.475
tüüp	-11.476
jutt	-11.4778
▁kombeks	-11.4788
▁ajutine	-11.4788
▁elanikkond	-11.4788
▁puhkudel	-11.4788
tariif	-11.4789
▁tungi	-11.4789
▁viska	-11.4792
laadse	-11.4794
▁lapsevanem	-11.4795
▁kindluse	-11.4799
No	-11.4811
▁kasvava	-11.4814
eeritakse	-11.4821
▁munitsipaalkool	-11.4827
õpetuse	-11.4848
konstruktsioon	-11.4853
▁2030	-11.4853
▁Valgevene	-11.4853
▁rikkumine	-11.4853
▁visiiditasu	-11.4853
▁elukutse	-11.4853
▁Julgeolekunõuko	-11.4853
▁suudetakse	-11.4853
▁Tulen	-11.4854
▁käidud	-11.4854
▁tootlus	-11.4857
▁lärm	-11.4858
▁viidata	-11.4871
▁administratiiv	-11.4878
▁lühi	-11.4887
▁fookuses	-11.4895
▁abivahendi	-11.4899
▁infotunni	-11.491
▁libe	-11.4918
▁Ravimi	-11.4918
▁euroopalik	-11.4918
▁konsolideeri	-11.4918
▁tsitaat	-11.4918
▁eestikeelne	-11.4918
▁leppima	-11.4918
▁põllumehi	-11.4918
▁Kanada	-11.4919
▁suvalise	-11.492
Kultuurikomisjon	-11.4922
▁heli	-11.4922
sjagu	-11.4924
▁tõkesta	-11.4926
▁Palu	-11.4931
▁jäätmeseaduse	-11.4933
aruande	-11.4934
▁alustama	-11.4941
jätmine	-11.495
▁4000	-11.4951
▁õnnelik	-11.4958
▁vangistus	-11.4973
▁sõnavõtusoove	-11.4983
▁Muuseas	-11.4983
▁oodanud	-11.4983
▁nendesamade	-11.4983
▁materiaal	-11.4983
▁Tiit	-11.4983
▁regulaarselt	-11.4986
▁kohtumistel	-11.4986
▁linnavalitsus	-11.4989
eeriva	-11.5007
▁litsents	-11.5049
▁populaarse	-11.5049
▁revisjoni	-11.5049
▁üpris	-11.5049
▁aktiivsus	-11.5049
▁samasooliste	-11.5049
▁mitmekesisus	-11.5049
▁filosoofilis	-11.5049
▁Toidu	-11.5049
▁andsin	-11.5049
▁aruandlus	-11.5049
▁akna	-11.505
▁kohaldamise	-11.5053
▁võidavad	-11.5058
Erki	-11.5068
omanikke	-11.5082
madalapalgaliste	-11.5099
▁kandu	-11.5101
▁argumentide	-11.5106
▁otsustaja	-11.5108
▁Statistika	-11.5114
▁Moskva	-11.5115
▁Veeteed	-11.5115
▁kaasettekandja	-11.5115
▁opereeri	-11.5115
▁Lember	-11.5115
▁aresti	-11.5115
▁müüakse	-11.5116
▁saatkonna	-11.5116
▁naaberriigi	-11.5116
vöönd	-11.5117
▁ametikohtade	-11.5121
▁riigilõiv	-11.5123
taolis	-11.5132
panemise	-11.5132
▁poodi	-11.5134
meetmeid	-11.5135
▁Pärnumaa	-11.5138
Mida	-11.514
▁individuaalse	-11.5151
▁gümnaasium	-11.5152
▁põllumees	-11.5163
territoorium	-11.5176
▁ülla	-11.518
▁Austria	-11.5182
▁Iirimaa	-11.5182
▁kuritegelik	-11.5182
▁radikaalse	-11.5182
▁ignoreeri	-11.5182
hääletamissedeli	-11.5182
▁delegeeri	-11.5182
▁indekseeri	-11.5182
▁etteheide	-11.5182
▁lähedaste	-11.5182
▁Ülle	-11.5183
▁vaieldamatult	-11.5183
▁Kaitseliit	-11.5186
▁Selts	-11.5198
kokkuleppe	-11.5203
vastutus	-11.5204
inspektsioon	-11.522
määruse	-11.5222
mõiste	-11.5225
▁HIV	-11.5249
▁spetsialiseeru	-11.5249
▁ajalukku	-11.5249
▁maagaasi	-11.5249
▁kuritegusid	-11.5249
▁tahtis	-11.525
▁umb	-11.525
▁jäeti	-11.5254
▁tõsiasja	-11.5255
▁tublisti	-11.5255
▁teadete	-11.5256
▁Huvitav	-11.5258
▁nõudma	-11.5258
▁sõnavõtja	-11.5258
▁uurima	-11.5261
▁tundlik	-11.5263
suutlikkus	-11.5264
reguleeri	-11.527
voog	-11.5271
▁reformierakondl	-11.5274
konverentsil	-11.5275
▁2010	-11.5277
voolu	-11.5288
konverents	-11.5298
▁vanemapensioni	-11.5302
tarkvara	-11.5304
▁administreeri	-11.5317
▁2014–2020	-11.5317
▁aktuaalse	-11.5317
▁integratsiooni	-11.5317
▁stimuleeri	-11.5317
▁kunstlik	-11.5317
▁elatustase	-11.5317
▁ravimeid	-11.5317
▁Soosaar	-11.5317
▁metsanduse	-11.5319
▁hinnatõus	-11.5338
kandidaadi	-11.5339
ehhi	-11.5352
▁veebruar	-11.5357
▁vaenu	-11.5375
▁strateegilist	-11.5385
▁Investeerimis	-11.5385
▁elutähtsa	-11.5385
▁otsekohe	-11.5385
▁läbivaatamist	-11.5385
▁siiras	-11.5385
väeteenistuse	-11.5385
▁tööturuteenuste	-11.5386
▁sildista	-11.5388
▁astmelise	-11.5398
Veel	-11.5401
▁koori	-11.5408
▁inimõigus	-11.5426
▁Valimis	-11.5431
▁mugavam	-11.5437
▁põhineva	-11.5449
▁kaudse	-11.545
monopol	-11.5453
Ühendkuningriigi	-11.5453
▁pankrotti	-11.5453
▁sihtotstarbelis	-11.5453
▁koolitoit	-11.5453
▁kuvand	-11.5453
▁võtsin	-11.5454
▁mandri	-11.5454
▁loomingu	-11.5454
▁vaiki	-11.5454
▁vajaduspõhine	-11.5456
▁Lugupeetavad	-11.5459
▁opt	-11.5469
arvamus	-11.5474
investeering	-11.5477
Loomulikult	-11.5477
lähedane	-11.5495
Näe	-11.5512
▁tähelda	-11.5522
▁põgene	-11.5522
▁klassikalise	-11.5522
▁silmakirjalik	-11.5523
▁kaubalaeva	-11.5523
▁ülejääk	-11.5527
▁peatükk	-11.5527
▁otsetoetuste	-11.5528
▁sünnipäeva	-11.5532
▁argumenteeri	-11.5534
▁eelistus	-11.5537
▁hinnangulisel	-11.5547
▁rumalus	-11.5551
▁digitaal	-11.5575
Kristjan	-11.5591
▁Instituudi	-11.5591
▁kõikvõimalikk	-11.5591
▁sarnast	-11.5591
▁vms	-11.5592
farmid	-11.5592
▁maaomaniku	-11.5592
▁tüli	-11.5596
kohut	-11.5604
▁tuttav	-11.562
audit	-11.5624
▁perekonnaseadus	-11.5642
▁õppekeel	-11.5651
▁diplomaat	-11.5651
ümnaasium	-11.566
▁laiapõhjalis	-11.5661
▁remonti	-11.5661
▁säärast	-11.5661
▁Raudtee	-11.5661
▁Umbes	-11.5661
▁ruttu	-11.5661
▁kutseõppeasutus	-11.5661
▁küpse	-11.5661
▁Ülejäänu	-11.5662
▁andsime	-11.5662
▁vihja	-11.5662
▁Rahvaerakond	-11.5662
▁ametkond	-11.5662
▁peen	-11.5662
▁kärbi	-11.5664
▁Otsustati	-11.5664
▁keskpanga	-11.5664
▁Hästi	-11.5664
▁põgenike	-11.5669
pädevus	-11.5687
kvaliteet	-11.5688
▁politseiametnik	-11.5689
Sotsiaal	-11.5694
kampaania	-11.57
▁loodava	-11.5702
▁Läänemaa	-11.571
▁survesta	-11.5725
▁esitatava	-11.5727
▁elementaarne	-11.5732
▁kõikvõimalike	-11.5732
▁ebapiisav	-11.5732
▁lemmik	-11.5732
▁suhelnud	-11.5732
▁üleandmine	-11.5732
▁unistus	-11.5732
▁vaimse	-11.5732
▁Tekib	-11.5733
▁ülejärgmise	-11.5733
▁peamised	-11.5734
▁sigade	-11.5735
▁tahtlik	-11.5736
▁kompetentsus	-11.5737
terminal	-11.5747
▁lennundus	-11.5764
▁Konservatiiv	-11.5766
säte	-11.5777
▁soodustust	-11.5788
▁Novikov	-11.5803
▁Portugal	-11.5803
▁heakskiidu	-11.5803
▁Iisrael	-11.5803
▁streik	-11.5803
▁Rapla	-11.5803
▁külmuta	-11.5804
▁välismaalase	-11.5804
▁Otse	-11.5804
▁külva	-11.5805
risoodustusmaksu	-11.5805
▁segamini	-11.5805
▁erametsa	-11.5806
▁0,8	-11.5807
▁mõjuanalüüsi	-11.5808
▁kohutav	-11.5816
▁maksimaalse	-11.5856
▁tagasihoidlik	-11.5862
▁sisaldava	-11.5871
▁julgusta	-11.5873
hommiku	-11.5873
▁narkootikum	-11.5874
▁ebaõiglas	-11.5874
▁maailmavaade	-11.5874
▁sahtli	-11.5874
▁Andke	-11.5874
▁nupu	-11.5875
▁Auto	-11.5875
▁Karel	-11.5875
▁sunniraha	-11.5879
▁märkisite	-11.5883
laitmatu	-11.5887
mehi	-11.5889
▁saatkond	-11.5893
rvishoiuteenuse	-11.5895
nurga	-11.5908
enesestmõistetav	-11.592
▁hoiata	-11.5924
püstitus	-11.5929
valitsusliitude	-11.5936
▁Prantsuse	-11.5946
▁bruto	-11.5946
▁normitehnilis	-11.5946
koefitsiendi	-11.5946
▁televisiooni	-11.5946
▁Hannes	-11.5946
▁okei	-11.5946
▁hulgi	-11.5946
▁Sikkut	-11.5947
▁turistide	-11.5947
▁välisesindus	-11.5948
▁referendumi	-11.5948
promi	-11.5963
▁valdava	-11.5973
Barbi	-11.5975
pinna	-11.5979
eesti	-11.5997
▁edasiminek	-11.6002
proportsionaalne	-11.6019
▁emotsionaalne	-11.6019
▁iseseisev	-11.6019
▁rikkunud	-11.6019
▁Kaitsevägi	-11.6019
▁vägisi	-11.6019
▁oludes	-11.6019
▁trüki	-11.6019
▁vältimatu	-11.6019
▁Kohalike	-11.6019
▁vedada	-11.6019
▁järve	-11.6021
▁kohaldata	-11.6021
▁põllumehe	-11.6025
tagastus	-11.6048
▁maksustata	-11.6049
▁valitseva	-11.6054
▁pääst	-11.6078
▁Inglismaa	-11.6092
▁Regionaal	-11.6092
▁lõbu	-11.6092
▁Andme	-11.6092
▁uurimus	-11.6093
▁vähi	-11.6093
▁tekkiva	-11.6102
tarkus	-11.6102
▁toimunu	-11.6104
rahastus	-11.6105
▁ülikool	-11.6121
Seaduseelnõu	-11.6125
Esiteks	-11.6125
▁kvalifikatsioon	-11.6134
▁voor	-11.6145
positsioon	-11.6152
▁Horvaatia	-11.6165
▁Kübarsepa	-11.6165
▁kirjeldus	-11.6165
▁maapõue	-11.6165
▁manipuleeri	-11.6165
▁elementaarse	-11.6165
▁järgmisi	-11.6165
▁eraisikute	-11.6165
▁kurssi	-11.6165
▁rahakott	-11.6166
sigarettide	-11.6166
Haldus	-11.6167
▁juhuslikult	-11.6167
▁võlgade	-11.6169
▁aprill	-11.617
▁Riina	-11.6171
Need	-11.62
▁Kahju	-11.6202
Kolmas	-11.6204
▁kokkuvõtte	-11.6207
▁väljendit	-11.6219
kaabli	-11.6222
arvestus	-11.6233
▁Hiljem	-11.6239
▁Pilvre	-11.6239
▁lugupeetav	-11.6239
▁pensionäre	-11.6239
▁vastutustundetu	-11.6239
▁sajaprotsendili	-11.6239
▁pindala	-11.6239
▁Sinu	-11.624
▁hätta	-11.624
▁sujuva	-11.624
▁Näi	-11.6243
skindlustusmakse	-11.6262
▁rassi	-11.6271
▁kohtulahend	-11.6314
▁nuppu	-11.6314
▁täpsusega	-11.6314
▁Hinna	-11.6314
kalkulatsioon	-11.6314
▁käsutuses	-11.6314
▁homo	-11.6314
▁mõnu	-11.6314
▁mõeldakse	-11.6316
▁kaotus	-11.6328
▁Sadam	-11.6329
▁aktsiisitõus	-11.6343
▁kaevandus	-11.6343
karistus	-11.635
▁asukoht	-11.6357
▁kujund	-11.6376
▁Esialg	-11.6389
▁Stream	-11.6389
▁streigi	-11.6389
▁tegeldud	-11.6389
▁erakorraline	-11.6389
▁optimism	-11.6389
▁Ettevõtlus	-11.639
▁arusaamine	-11.6393
▁missugust	-11.6394
▁taeva	-11.6424
▁märts	-11.6426
reeglite	-11.6428
Vene	-11.6428
Miks	-11.6429
residendi	-11.6462
▁lõhesta	-11.6464
revolutsioon	-11.6465
▁Akkermann	-11.6465
▁demograafilise	-11.6465
▁istungisaalis	-11.6465
▁kiidetud	-11.6465
▁Viimsi	-11.6465
▁mõelge	-11.6465
▁diplom	-11.6465
▁oodatakse	-11.6466
▁jahimeeste	-11.6467
▁kandnud	-11.6467
▁vallavanema	-11.6468
▁Vaatama	-11.6472
▁proportsioon	-11.648
▁seonduv	-11.6524
▁majapidamis	-11.6525
vargus	-11.6541
▁MKM	-11.6541
▁Kaubandus	-11.6541
▁rahulolematu	-11.6541
▁subjekt	-11.6541
▁ülioluline	-11.6541
▁tehnoloogilis	-11.6541
▁väikesaarte	-11.6541
▁nentis	-11.6542
▁Keskpanga	-11.6543
▁vahva	-11.6544
▁säiliks	-11.6547
▁universaal	-11.6572
▁Harju	-11.6579
▁Tuleta	-11.6595
▁sanktsiooni	-11.6606
▁RKAS	-11.6618
▁Schengeni	-11.6618
▁olulisus	-11.6618
▁peegelda	-11.6618
▁pretsedent	-11.6618
▁uhkus	-11.662
▁ammenda	-11.6643
NR	-11.6644
hetsusväärselt	-11.6652
delegatsioon	-11.6691
▁Kosovo	-11.6695
▁Aktsiisi	-11.6696
▁Põltsamaa	-11.6696
▁Skandinaavia	-11.6696
▁ingliskeelse	-11.6696
▁rekonstrueeri	-11.6696
▁rahvatervise	-11.6696
▁majutusasutuste	-11.6697
▁kesklinna	-11.6699
▁tekkimise	-11.6699
▁kaalutle	-11.67
elemendi	-11.6701
▁veenva	-11.671
▁edene	-11.671
▁1999.	-11.6713
esindus	-11.6717
▁Ott	-11.6725
Tegelikult	-11.6738
Rein	-11.6739
▁valimisringkond	-11.6749
löögi	-11.6768
▁Rõhutan	-11.6774
▁adekvaatne	-11.6774
▁tahtsid	-11.6774
▁legaalse	-11.6774
edbank	-11.6774
▁doteeri	-11.6774
▁pilguga	-11.6774
▁leppisime	-11.6775
▁mõistma	-11.6776
keskne	-11.6779
▁pensioniea	-11.6783
▁Ministeerium	-11.6798
Kinni	-11.6798
ahela	-11.6808
Tallinna	-11.6818
▁traditsioon	-11.6839
▁Järvamaa	-11.6852
▁immigrantide	-11.6852
▁keelekümblus	-11.6852
▁lükati	-11.6852
▁subjektiivse	-11.6852
▁homse	-11.6852
▁Jents	-11.6852
▁nõrga	-11.6852
▁valimisringkonn	-11.6852
▁üksjagu	-11.6853
▁ühetaolise	-11.6853
▁kokkuvõte	-11.6853
▁arvatavasti	-11.6855
▁puutuva	-11.6856
hetk	-11.6861
Poliitik	-11.6869
gümnaasiumi	-11.6889
pildi	-11.69
Teie	-11.69
▁korraldas	-11.6927
konkurent	-11.6931
▁kvalifitseeru	-11.6932
▁PBK	-11.6932
▁ametivande	-11.6932
▁keskpank	-11.6932
▁Kujuta	-11.6932
▁Arengufondi	-11.6933
▁kelleltki	-11.6933
▁soodustusi	-11.6934
▁retsepti	-11.6934
reeglid	-11.6979
Hääl	-11.6982
intress	-11.7002
hisuhtevägivalla	-11.7012
▁ETV	-11.7012
▁Siiamaani	-11.7012
▁akadeemilise	-11.7012
▁logopeed	-11.7012
▁üldjoontes	-11.7012
▁staabiohvitseri	-11.7012
▁Tulemus	-11.7012
▁abiellu	-11.7012
▁meeleolu	-11.7012
▁metalli	-11.7013
▁Puudu	-11.7013
alkoholireklaami	-11.7023
▁kartus	-11.7027
▁läbirääkimis	-11.7058
(	-11.706
parlamendi	-11.706
▁hull	-11.7081
▁Innove	-11.7092
▁Linnavolikogu	-11.7092
▁Rummo	-11.7092
▁eestkõneleja	-11.7092
▁esialgne	-11.7092
▁haamrilööki	-11.7092
▁optimaalse	-11.7092
▁resolutsioon	-11.7092
▁Kremli	-11.7092
▁kaugkütte	-11.7092
▁taktika	-11.7092
lehekülg	-11.7093
▁püügi	-11.7093
▁Kumb	-11.7095
▁katastroofi	-11.7096
▁ennist	-11.7099
▁Püü	-11.7121
▁kasumlik	-11.7132
tevõtlusminister	-11.7133
▁Maanteeamet	-11.7137
Heimar	-11.7142
▁Pääste	-11.7173
▁kobarseadus	-11.7174
▁sealhulgas	-11.7174
▁Jaapani	-11.7174
▁klaari	-11.7174
▁nihku	-11.7174
▁igapäevane	-11.7174
▁tulge	-11.7174
eluvararegistri	-11.7174
▁omista	-11.7174
▁voodi	-11.7174
▁Luige	-11.7176
▁juuruta	-11.7177
▁magusa	-11.7177
▁külalis	-11.7178
▁efektiivsuse	-11.718
▁Abi	-11.7181
▁Tööinspektsioon	-11.7209
Kuuenda	-11.721
jandusprognoosi	-11.7219
▁lubamatu	-11.7222
turvalisus	-11.7224
▁kehvem	-11.7234
kaudu	-11.724
▁leppis	-11.7255
▁Pikamäe	-11.7256
▁inimarengu	-11.7256
▁ministreid	-11.7256
▁mälestus	-11.7256
▁populaarne	-11.7256
▁ratsionaalne	-11.7256
▁drastilis	-11.7256
▁Jürgenstein	-11.7256
▁Noorte	-11.7256
kompanii	-11.7257
▁võrgustiku	-11.7269
▁Igasugu	-11.7273
▁uuris	-11.7284
ustavaks	-11.7288
▁struktuurifondi	-11.7304
kultuur	-11.7307
protsendi	-11.7307
Arto	-11.7308
regulatsioon	-11.7308
▁Kontroll	-11.7338
▁Mõelge	-11.7338
▁elektrooniline	-11.7338
▁spekulatsioon	-11.7338
▁transiidi	-11.7338
▁vihje	-11.7338
▁represseeri	-11.7338
▁piiriülese	-11.7339
▁hiline	-11.7339
▁Võrreld	-11.7339
▁tubakatoodete	-11.734
▁nominaal	-11.7341
▁raamistiku	-11.7343
▁taguse	-11.7343
▁kaardista	-11.7358
variant	-11.7391
keskse	-11.7397
oportsionaalselt	-11.7409
periood	-11.7421
▁piirivalvur	-11.7422
Protseduuri	-11.7422
▁Island	-11.7422
▁neidsamu	-11.7422
▁pistmist	-11.7422
▁pigista	-11.7422
▁riigimehelik	-11.7432
▁kätt	-11.7457
aruanne	-11.7462
komponent	-11.7476
investeeringuid	-11.7476
berg	-11.7479
▁RES	-11.7506
▁diisli	-11.7506
▁pöördmaksustami	-11.7506
▁teekasutustasu	-11.7506
▁uimasti	-11.7506
▁jälitustoimingu	-11.7506
▁Menetlus	-11.7506
▁versus	-11.7506
▁teisalt	-11.7506
▁omandanud	-11.7506
▁lükatakse	-11.7508
eelnõu	-11.755
▁lahend	-11.7561
Helir	-11.7562
ühiskonna	-11.7574
katastroof	-11.7587
distsipliin	-11.759
▁kummitempli	-11.759
▁tihumeetri	-11.759
▁Ootame	-11.759
▁pakkumist	-11.759
▁lehma	-11.7591
▁Muuseum	-11.7591
▁võtsite	-11.7591
▁sellessamas	-11.7591
▁sealiha	-11.7591
▁kogumispensioni	-11.7592
▁puutumatu	-11.7596
▁kõnelda	-11.7596
▁salvesta	-11.7609
trend	-11.7623
▁igasugu	-11.7672
Neljanda	-11.7675
▁mikro	-11.7676
▁identiteedi	-11.7676
▁konstruktiivne	-11.7676
▁mõõduka	-11.7676
▁strateegiline	-11.7676
▁sümbol	-11.7676
▁praami	-11.7676
▁korruta	-11.7676
▁teerulli	-11.7676
▁sõpru	-11.7676
▁süüteo	-11.7676
▁Kär	-11.7691
hanke	-11.7724
Istungi	-11.7735
erakonnakaaslane	-11.7761
tõend	-11.7762
▁intellektuaal	-11.7762
▁tarbijakrediidi	-11.7762
▁traagilis	-11.7762
▁Hansson	-11.7762
▁Rajaleidja	-11.7762
▁kokkukutsuja	-11.7762
▁platvormi	-11.7762
▁Edgar	-11.7762
arendustegevusse	-11.7762
seadustikku	-11.7769
▁öeldu	-11.7782
Eldar	-11.7823
Kõik	-11.7823
mööda	-11.7823
▁varasta	-11.7839
meditsiin	-11.7848
▁populaarsus	-11.7849
▁rikkuda	-11.7849
▁tippkohtumise	-11.7849
▁ostetud	-11.7849
▁Kõrg	-11.785
▁leibkond	-11.785
▁võrdu	-11.7862
▁Jumal	-11.7874
laskmis	-11.7897
kultuuriministri	-11.7922
▁Kuulat	-11.7929
Käesolev	-11.7935
▁stabiilne	-11.7937
▁teenusepakkuja	-11.7937
▁väärtushinnangu	-11.7937
▁Kangro	-11.7937
▁leidsin	-11.7937
▁Teisalt	-11.7937
▁Hoolimat	-11.7937
▁abipolitseiniku	-11.7937
▁sellestsamast	-11.7937
▁piirkondi	-11.7938
▁Selgus	-11.7938
▁nõudmise	-11.7952
▁külm	-11.7972
Siim	-11.8001
ktiivne	-11.8001
informatsioon	-11.8001
▁lühem	-11.8002
klass	-11.8005
langus	-11.8015
portaali	-11.8025
▁Praktika	-11.8025
▁konsultatsiooni	-11.8025
▁kõikvõimaliku	-11.8025
▁tankla	-11.8025
▁täitemenetluse	-11.8025
▁esinaine	-11.8025
▁kärpida	-11.8025
▁ülemkogu	-11.8025
▁suundumus	-11.8026
▁teineteise	-11.8026
▁korista	-11.803
värk	-11.8032
▁maitse	-11.8034
Infotunni	-11.8042
▁heidet	-11.8067
▁Laeva	-11.807
▁Pensioni	-11.8115
▁arengusuundade	-11.8115
▁igatahes	-11.8115
▁indikatsioon	-11.8115
▁innovaatilis	-11.8115
▁kinnipeetava	-11.8115
▁rikkumisi	-11.8115
▁Luksemburg	-11.8115
▁seltskonna	-11.8115
▁tahtmist	-11.8115
▁rohelist	-11.8115
▁mõistnud	-11.8115
▁pahameel	-11.8116
▁Kõne	-11.8129
Valdo	-11.8171
Asume	-11.8181
Aadu	-11.8182
olümpiavõitja	-11.8205
▁Kliinikum	-11.8205
▁Veterinaar	-11.8205
▁hüppeliselt	-11.8205
▁peakorteri	-11.8205
▁kindlustunde	-11.8205
▁sõprade	-11.8205
▁Ainuke	-11.8205
▁säilib	-11.8205
▁Kuuluta	-11.8206
▁otstarbekam	-11.822
laekumise	-11.8258
▁infotehnoloogi	-11.8263
▁kiireloomulis	-11.8296
▁Kuressaare	-11.8296
▁eesotsas	-11.8296
▁Ükskõik	-11.8296
▁ümberkorraldami	-11.8296
▁hoitud	-11.8296
▁Mõte	-11.8296
▁leidmine	-11.8296
▁dollari	-11.8296
▁Viiendaks	-11.8296
▁lõppemist	-11.8296
▁kalluta	-11.8296
kõlastusringil	-11.8315
▁Inimese	-11.832
Saalis	-11.8332
tarbimise	-11.8333
▁Rahvusvaheli	-11.8386
▁KIK	-11.8387
▁Volmer	-11.8387
▁agressiivse	-11.8387
▁eestvedamisel	-11.8387
▁elekter	-11.8387
▁Vahemere	-11.8387
▁jõuluvana	-11.8387
▁Ilves	-11.8387
▁Lillo	-11.8387
▁osatähtsus	-11.8387
▁jättes	-11.8388
sammult	-11.8388
▁emiteeri	-11.8388
võtluskeskkonna	-11.8391
▁paslik	-11.8391
▁analüütiku	-11.8392
▁ebapr	-11.8437
▁Nimetat	-11.844
standardi	-11.8459
▁saabuva	-11.846
▁veendu	-11.8463
▁justiits	-11.8471
▁identiteet	-11.848
▁KOV	-11.848
▁energiajookide	-11.848
▁naeruväärista	-11.848
▁ooteala	-11.848
▁spetsiifiline	-11.848
▁täidesaatva	-11.848
▁tüdruku	-11.848
▁umbusalda	-11.848
▁Ühendriigid	-11.848
▁filosoofia	-11.848
▁käitlemise	-11.848
▁iial	-11.848
▁video	-11.8481
▁korraldanud	-11.8481
▁pärsi	-11.8481
▁ahista	-11.8488
▁maksutõus	-11.8514
▁märgista	-11.8534
▁Moldova	-11.8573
▁Töötukassa	-11.8573
▁kantselei	-11.8573
▁soomlased	-11.8573
▁magistri	-11.8573
▁rakkerühm	-11.8573
▁jalaväe	-11.8574
▁loovuta	-11.8574
▁enim	-11.8575
▁lootusetu	-11.8596
Lauri	-11.8649
kuriteo	-11.8649
▁ELAK	-11.8668
▁Helsingi	-11.8668
▁Tihtipeale	-11.8668
▁konfiskeeri	-11.8668
▁psühhiaatri	-11.8668
▁suveräänse	-11.8668
▁tsitaadi	-11.8668
▁tõenäoline	-11.8668
▁maksuhalduri	-11.8668
▁luksus	-11.8669
▁geograafilise	-11.8669
▁hajuta	-11.8671
▁Paragrahvi	-11.8671
▁teovõime	-11.8674
▁alkoholitarbimi	-11.8701
▁taanda	-11.8706
▁individuaal	-11.8712
Rahandusminister	-11.8725
väärteomenetluse	-11.8726
onsensuslikult	-11.8739
ütlemise	-11.8741
sotsiaalministri	-11.8745
võla	-11.8745
▁miljard	-11.8752
▁elluviimine	-11.8763
▁jalgpalli	-11.8763
▁minimaalne	-11.8763
▁pressiteate	-11.8763
▁ranitsatoetus	-11.8763
▁korrektiiv	-11.8763
▁tahtmise	-11.8763
▁Maripuu	-11.8763
▁Tulevikus	-11.8764
▁korva	-11.8765
▁anneta	-11.8767
▁Tegelik	-11.8773
▁hasartmängu	-11.8781
▁uskumatu	-11.8786
▁leita	-11.8789
poliitilisi	-11.8836
Kersti	-11.8842
samuti	-11.8842
objekt	-11.8849
Analüüs	-11.8859
▁diferentseeri	-11.8859
▁rahvusooperi	-11.8859
▁domineeri	-11.8859
▁etteteatamise	-11.8859
▁rõhuasetus	-11.8859
▁tänuväärne	-11.8859
▁lasknud	-11.8859
▁harjumus	-11.8859
▁sedeli	-11.8859
▁enesemääramis	-11.886
▁kärbe	-11.886
▁muudkui	-11.886
▁aastakümnete	-11.886
▁nõusolek	-11.8924
▁Reaal	-11.8933
migratsioon	-11.8954
▁Tehnilise	-11.8956
▁maksimaalne	-11.8956
▁moraalne	-11.8956
▁nentida	-11.8956
▁kaebuse	-11.8956
▁Üsna	-11.8957
▁säilimise	-11.896
▁ohvitser	-11.8962
omavalitsusjuhid	-11.8963
▁Samasugu	-11.8978
▁poiss	-11.8998
naalse	-11.9001
▁maavanem	-11.9001
▁koridor	-11.9031
kokkulepe	-11.9039
toidu	-11.904
ohvitseri	-11.9049
meresõiduohutuse	-11.9054
▁IKT	-11.9054
▁Tutvustan	-11.9054
▁taasiseseisvumi	-11.9054
▁halvusta	-11.9054
▁kõhklus	-11.9054
▁põhialused	-11.9054
▁doktorandi	-11.9054
▁Toetus	-11.9061
onjunktuuri	-11.9071
juhtimise	-11.9122
rvishoiutöötaja	-11.9122
hasartmängumaksu	-11.9135
Tõepoolest	-11.9139
▁geograaf	-11.9151
▁rakenduskõrg	-11.9153
Seitsmes	-11.9153
▁Leinatamm	-11.9153
▁Setomaa	-11.9153
▁Spordi	-11.9153
▁ideoloogilise	-11.9153
▁korrelatsioon	-11.9153
▁populistlik	-11.9153
▁vaadatuna	-11.9153
▁legaliseeri	-11.9153
▁Alguses	-11.9153
▁kõlba	-11.9153
kõlblik	-11.9154
▁start	-11.9155
Viienda	-11.9156
▁liidri	-11.9158
▁ülejäänu	-11.9186
nõupidamisel	-11.9199
nädal	-11.9218
riiet	-11.9222
suguste	-11.9234
õpilaste	-11.924
ressursi	-11.924
Heljo	-11.924
Esimese	-11.924
▁reeglistik	-11.9252
▁Keemia	-11.9253
▁broneeri	-11.9253
▁diagnoosi	-11.9253
▁tervikpilti	-11.9253
▁Üldjuhul	-11.9253
▁siitsamast	-11.9253
▁buumi	-11.9254
▁tõstis	-11.9254
▁avaldu	-11.9255
ülekanne	-11.9265
vaenulik	-11.9268
▁rahusta	-11.9324
▁Alkoholi	-11.9328
number	-11.9342
Algab	-11.9342
Võib	-11.9342
Kultuur	-11.935
▁Edaspidi	-11.9354
▁alltöövõtja	-11.9354
▁praktilisi	-11.9354
▁murra	-11.9355
▁parajast	-11.9356
▁kindlustusselts	-11.9356
▁kohvi	-11.9361
produkt	-11.9383
▁Seletuskir	-11.9455
▁Belgia	-11.9456
▁Ehitus	-11.9456
▁politiseeri	-11.9456
▁stiimul	-11.9456
▁hämmastav	-11.9456
▁privaat	-11.9456
▁Kohtumiseni	-11.9456
▁treeni	-11.9456
▁viipekeel	-11.9456
▁vastavusse	-11.9456
▁Ühtegi	-11.9456
▁nihuta	-11.9456
▁unista	-11.9473
▁ligipääsetav	-11.948
▁proteste	-11.9491
väljaanne	-11.9502
garantii	-11.9549
akonnakeskustes	-11.955
▁assotsi	-11.9559
Kriminaal	-11.9559
instrumendi	-11.9559
▁filosoofiline	-11.9559
▁hiljaaegu	-11.9559
▁import	-11.9559
▁riiuli	-11.9559
▁vaadati	-11.9559
▁vanemaealis	-11.9559
▁huvigrupid	-11.9559
▁maksuerisus	-11.9559
▁jagamismajandus	-11.9559
▁Lennu	-11.9559
▁jätsite	-11.956
▁ühesugused	-11.956
pettuste	-11.9577
▁ettevõtlik	-11.9582
temaatika	-11.9615
labor	-11.9622
löök	-11.9626
Täpsus	-11.9645
Seadus	-11.9655
ravimite	-11.9656
aadress	-11.9656
Pealtnägija	-11.9663
▁läbimõeldu	-11.9664
▁Päevalehe	-11.9664
▁kriminaliseeri	-11.9664
▁minevikku	-11.9664
▁rehkenda	-11.9664
▁subjektiivne	-11.9664
▁toitlustus	-11.9664
▁Arusaadav	-11.9664
▁sinnamaani	-11.9664
▁algavad	-11.9664
▁alampalk	-11.9664
▁naudi	-11.9669
riigivaraseaduse	-11.9669
▁Läbi	-11.9683
▁tõdemus	-11.9691
▁analoogilis	-11.9704
▁koosnev	-11.9714
▁nähta	-11.9725
kompensatsioon	-11.9766
▁Liibüa	-11.9769
▁impordi	-11.9769
▁mõeldes	-11.9769
▁reglement	-11.9769
▁reitingu	-11.9769
▁Putini	-11.9769
▁viidates	-11.9769
▁töötlemise	-11.977
▁Endise	-11.9774
▁määratlus	-11.9776
plokk	-11.9776
▁diplomaatilis	-11.9785
põhjus	-11.9868
meedia	-11.9872
instituut	-11.9875
▁spetsiifilist	-11.9875
▁Rumeenia	-11.9875
▁Setumaa	-11.9875
▁Süsteem	-11.9875
▁eesistumine	-11.9875
▁kalendriaasta	-11.9875
▁petitsiooni	-11.9875
▁objektiivne	-11.9875
▁igavesti	-11.9875
▁noorsootöö	-11.9875
