<unk>	0
<s>	0
</s>	0
,	-2.71459
.	-3.20611
▁on	-3.59543
▁et	-4.09574
▁ja	-4.0996
▁ei	-4.39041
!	-4.69097
▁	-4.72988
▁"	-4.80781
▁see	-4.85386
▁ka	-4.94619
▁kui	-5.14603
s	-5.18673
▁seda	-5.27165
▁siis	-5.31123
d	-5.3276
▁ole	-5.34766
st	-5.35793
-	-5.35868
t	-5.40832
▁selle	-5.42416
▁me	-5.43045
le	-5.45922
▁ma	-5.49751
ga	-5.54747
▁mis	-5.57018
▁või	-5.61764
l	-5.66492
!"	-5.66501
▁Ma	-5.68001
Aitäh	-5.71586
▁väga	-5.74085
▁Eesti	-5.7624
▁aga	-5.79905
e	-5.8101
▁eelnõu	-5.82934
."	-5.84356
ks	-5.85045
▁Riigikogu	-5.9162
?	-5.91779
i	-5.91989
▁oma	-5.96236
▁See	-6.05233
▁oli	-6.0598
▁te	-6.0684
▁palun	-6.12549
▁nii	-6.13023
▁kes	-6.20376
▁kas	-6.22118
▁Aga	-6.25464
te	-6.27732
▁Kui	-6.2804
id	-6.29703
▁siin	-6.29944
▁meie	-6.34186
▁mitte	-6.36565
▁Kas	-6.3732
▁need	-6.38292
▁mida	-6.39288
▁küsimus	-6.42272
▁olnud	-6.47323
?"	-6.4874
▁välja	-6.48926
▁seaduse	-6.49619
▁oleks	-6.51576
▁üle	-6.55092
▁ning	-6.55909
ud	-6.56552
▁–	-6.5703
▁palju	-6.5769
▁võib	-6.58073
lt	-6.58754
▁neid	-6.60866
▁nagu	-6.60886
▁kohta	-6.62233
▁Palun	-6.62415
▁tuleb	-6.63979
▁nende	-6.65505
:	-6.65549
▁veel	-6.66345
▁Euroopa	-6.66646
▁ta	-6.66781
▁juhataja	-6.68156
▁sellest	-6.68866
▁üks	-6.68962
▁teha	-6.69337
▁vastu	-6.69487
▁kus	-6.73118
▁meil	-6.74393
▁teie	-6.74547
▁juba	-6.74603
▁Me	-6.75429
▁kõik	-6.75509
▁aasta	-6.76409
 	-6.76499
▁eest	-6.78392
▁hea	-6.78463
▁praegu	-6.79922
▁kuidas	-6.82728
▁kindlasti	-6.8336
▁nad	-6.85591
▁muudatus	-6.85749
▁minister	-6.86313
▁ju	-6.86768
▁ära	-6.88405
▁raha	-6.88463
▁selles	-6.90518
▁mille	-6.92275
▁ette	-6.95695
▁riigi	-6.96066
ma	-6.9638
da	-6.96899
▁võimalik	-6.97171
▁oleme	-6.97327
b	-6.9741
▁rohkem	-6.9764
▁peaks	-6.9803
▁saa	-6.9906
▁arvan	-7.00094
▁olla	-7.01398
▁saab	-7.01471
▁ettekandja	-7.01908
▁minu	-7.05169
na	-7.05773
▁juurde	-7.0591
sse	-7.06295
▁näiteks	-7.06681
ta	-7.08804
▁Vabariigi	-7.09428
▁tegelikult	-7.09828
gi	-7.1016
▁Aitäh	-7.10958
▁Ja	-7.10994
▁olema	-7.12587
▁nüüd	-7.13186
▁olen	-7.13241
▁Nii	-7.13952
▁öelda	-7.14013
▁tagasi	-7.14088
▁sest	-7.14352
de	-7.14428
▁ainult	-7.14755
me	-7.15303
a	-7.15434
▁aastal	-7.1566
n	-7.16811
▁vaid	-7.1698
▁peab	-7.1749
▁teine	-7.178
▁vaja	-7.18678
ne	-7.18753
▁seal	-7.19003
▁aru	-7.20294
▁küll	-7.20987
mine	-7.21126
▁võiks	-7.23252
▁võtta	-7.2446
▁ühe	-7.24651
▁selline	-7.249
vad	-7.25435
▁lugemine	-7.2554
▁midagi	-7.2554
▁puhul	-7.25574
▁Eestis	-7.2621
▁kogu	-7.26807
▁""	-7.27302
se	-7.27426
▁läbi	-7.27497
▁Hea	-7.27635
olla	-7.28651
▁härra	-7.28653
▁küsimuse	-7.2981
▁sellega	-7.31569
▁Lugupeetud	-7.33699
▁teile	-7.34717
▁kõige	-7.35292
▁kokku	-7.35477
▁ega	-7.35994
▁kolleegid	-7.36209
▁Liidu	-7.36259
ki	-7.366
▁sellele	-7.37379
▁ikkagi	-7.37804
▁just	-7.38929
▁edasi	-7.39156
▁eurot	-7.39458
▁suur	-7.39805
▁küsimusi	-7.40061
▁osa	-7.41024
▁inimesed	-7.41559
▁Te	-7.41914
▁peale	-7.43591
▁täna	-7.43868
▁Austat	-7.4474
nud	-7.45086
▁ehk	-7.4512
▁muutmise	-7.45847
m	-7.46054
▁olemas	-7.4633
▁selleks	-7.47585
▁poolt	-7.47705
mist	-7.48432
tud	-7.48878
komisjoni	-7.48915
▁ise	-7.4892
▁riik	-7.50169
ni	-7.50967
▁miks	-7.51868
▁puudutab	-7.52448
▁Minu	-7.53916
ti	-7.54318
▁ajal	-7.54485
▁valitsus	-7.5453
▁töö	-7.54572
▁sa	-7.54776
▁ettepanek	-7.55747
▁komisjoni	-7.56978
▁kolleeg	-7.57106
▁enne	-7.57361
▁enam	-7.57751
u	-7.58119
▁Mis	-7.58305
sid	-7.58811
▁fraktsiooni	-7.59358
▁esimees	-7.60201
▁lihtsalt	-7.61421
des	-7.62185
▁pärast	-7.62386
▁saanud	-7.62857
▁Selle	-7.63496
▁tõesti	-7.63722
▁saada	-7.64175
▁teema	-7.64339
▁üldse	-7.64362
▁kaks	-7.6451
▁pole	-7.64538
Austat	-7.6593
▁päris	-7.67266
▁hästi	-7.67979
takse	-7.68209
▁inimeste	-7.68796
▁eelarve	-7.69339
v	-7.69376
▁seisukoht	-7.69786
▁olete	-7.70001
▁asi	-7.713
▁Seda	-7.71409
▁miljonit	-7.72196
▁tema	-7.72247
▁saalis	-7.72314
▁juhul	-7.72805
▁Ka	-7.72925
▁tänu	-7.73067
▁Valitsuse	-7.73095
▁esimene	-7.73355
▁tehtud	-7.73371
▁jooksul	-7.74842
▁teinud	-7.75139
▁kord	-7.77112
▁olid	-7.77958
▁ettepaneku	-7.78106
ministeeriumi	-7.78792
▁teada	-7.78887
▁anda	-7.79153
mise	-7.7946
▁nimel	-7.79882
""	-7.80167
▁aastat	-7.8055
▁seotud	-7.80774
▁keegi	-7.80881
▁eesistuja	-7.80915
▁iga	-7.81871
▁õigus	-7.82523
▁teise	-7.8259
▁Head	-7.82751
▁mul	-7.83299
▁oluline	-7.8377
▁sotsiaal	-7.83923
▁minutit	-7.84096
▁n	-7.84298
▁jaoks	-7.85136
▁siiski	-7.85586
▁inimesi	-7.87375
▁hääletada	-7.87391
▁korda	-7.87478
▁teatud	-7.87823
▁seadus	-7.87887
▁otsuse	-7.87927
▁valitsuse	-7.88074
ö	-7.89426
▁mina	-7.89589
▁e	-7.9101
▁läheb	-7.91072
▁kaasa	-7.91657
▁arutelu	-7.91742
▁algatatud	-7.91815
▁peaminister	-7.91843
▁arvates	-7.92096
▁esitatud	-7.92328
▁asja	-7.92448
▁täiesti	-7.92605
▁probleem	-7.9277
▁ongi	-7.92991
▁mõttes	-7.93391
▁poole	-7.93534
▁Sotsiaal	-7.93661
▁aeg	-7.93772
▁tegemist	-7.93854
▁tuleks	-7.94018
▁isegi	-7.9425
▁meile	-7.9425
▁eri	-7.9467
▁järgi	-7.94691
▁tea	-7.95092
▁võimalus	-7.9555
▁istungi	-7.95648
▁On	-7.96
▁pea	-7.96208
▁(	-7.96263
▁ikka	-7.963
▁majandus	-7.96433
▁Mul	-7.96672
▁aega	-7.967
▁tähendab	-7.96754
▁Need	-7.97464
▁mingi	-7.9766
es	-7.98468
▁liiget	-7.98497
▁lugupeetud	-7.99648
▁seaduseelnõu	-7.99709
▁sellist	-8.00054
▁teiste	-8.0056
▁saavad	-8.0085
▁kuna	-8.0109
▁Mina	-8.01662
▁koos	-8.01874
▁jääb	-8.02106
▁Kuidas	-8.02426
ettepaneku	-8.02638
▁alla	-8.02683
▁liikmed	-8.02803
▁peame	-8.03196
▁tähelepanu	-8.03471
▁täpselt	-8.03891
▁selge	-8.04123
▁esitanud	-8.04457
Ma	-8.05032
▁komisjonis	-8.05482
ku	-8.06213
▁Keskerakonna	-8.06716
▁nr	-8.07085
▁rääkida	-8.07254
▁kuidagi	-8.07478
▁Nagu	-8.07706
▁eesmärk	-8.07782
▁kolm	-8.07909
Palun	-8.07962
Hea	-8.08099
▁natuke	-8.08376
▁sõna	-8.08424
▁inimene	-8.08608
▁alati	-8.0889
▁austatud	-8.08995
ed	-8.09083
r	-8.09476
▁loomulikult	-8.09583
ja	-8.09681
▁õige	-8.10091
▁Nüüd	-8.10159
▁vähemalt	-8.1048
▁teeb	-8.11123
is	-8.11246
▁kuni	-8.11446
▁elu	-8.1169
▁Ei	-8.11996
▁minna	-8.12265
ide	-8.1242
▁soovi	-8.12749
▁kõnetooli	-8.12848
▁Meie	-8.13692
▁tööd	-8.1375
▁saaks	-8.13881
ega	-8.14024
▁teil	-8.14228
▁läbirääkimised	-8.14254
▁sinna	-8.15853
▁räägime	-8.15873
▁fraktsioon	-8.16167
▁Eelnõu	-8.16588
▁vahel	-8.17213
▁sellel	-8.17327
ettepanek	-8.17663
▁vaadata	-8.17724
▁peavad	-8.18864
▁otsus	-8.18926
line	-8.19119
▁Meil	-8.1941
▁siia	-8.2041
▁valmis	-8.20561
Lugupeetud	-8.20897
▁toetust	-8.21084
▁eesti	-8.21247
▁küsimust	-8.2131
▁nõus	-8.21363
▁tegema	-8.21408
▁korral	-8.21598
ka	-8.21696
▁üsna	-8.22181
ettepanekute	-8.2252
▁mõju	-8.22594
ge	-8.2289
▁olukord	-8.23467
▁liikme	-8.23552
▁pigem	-8.23719
▁saame	-8.24262
▁kodu	-8.24529
▁ees	-8.24891
tele	-8.25767
▁pool	-8.26068
▁kell	-8.26202
▁mulle	-8.26504
▁ütlesin	-8.26601
▁aja	-8.26665
▁Kindlasti	-8.26745
▁lõpetada	-8.26775
▁sisse	-8.26849
▁selgelt	-8.26857
▁saan	-8.26981
▁võetud	-8.27197
▁Siin	-8.27299
▁alusel	-8.2769
▁sellise	-8.27743
▁tõepoolest	-8.28256
o	-8.28389
est	-8.28742
▁tõttu	-8.28826
▁Miks	-8.2905
▁millest	-8.29287
▁a	-8.29397
ke	-8.29452
▁kuid	-8.30047
▁panna	-8.30636
▁ütlen	-8.30882
▁kultuuri	-8.31125
seaduse	-8.31387
▁Praegu	-8.31499
▁samuti	-8.31685
▁all	-8.31992
▁omavalitsuste	-8.32217
in	-8.32321
▁sama	-8.32505
▁suurem	-8.32554
va	-8.32636
▁–,	-8.32679
test	-8.32833
k	-8.33207
▁teid	-8.33306
▁muuta	-8.34125
▁Tallinna	-8.3441
 –	-8.34523
▁ütles	-8.34597
▁kohaselt	-8.34607
▁tulevikus	-8.34773
Suur	-8.35054
▁rahandus	-8.35399
▁kahe	-8.354
▁liige	-8.35427
▁öelnud	-8.35481
▁küsimusele	-8.35533
ministeerium	-8.35801
▁vähem	-8.35894
▁Samas	-8.35974
▁kasutada	-8.36143
▁tuli	-8.36191
▁omavalitsuse	-8.36222
▁tahan	-8.36224
▁hakkab	-8.36297
▁enda	-8.36298
▁neile	-8.36428
▁koalitsiooni	-8.36794
▁annab	-8.3698
▁jäänud	-8.3701
▁keskkonna	-8.37165
▁hääletusele	-8.37253
el	-8.37308
▁kunagi	-8.37754
▁igal	-8.37761
▁mitu	-8.38159
komisjon	-8.38702
▁teame	-8.39004
▁kaitse	-8.39091
▁laste	-8.39255
▁Üks	-8.39417
▁sel	-8.40772
▁meelest	-8.41043
▁teeme	-8.41063
▁muidugi	-8.41102
▁küsin	-8.41625
▁eriti	-8.41723
▁mingit	-8.41797
▁raske	-8.41835
▁kooli	-8.42112
▁riigieelarve	-8.42122
▁millega	-8.42183
▁Võib	-8.4242
▁kelle	-8.42521
▁tulnud	-8.42841
▁istungil	-8.42889
▁– 	-8.43046
▁üles	-8.43195
▁umbes	-8.43237
▁päevakorrapunkt	-8.43288
▁niimoodi	-8.4339
▁euro	-8.43559
▁pean	-8.43813
▁lisa	-8.44013
▁põhiseadus	-8.4403
▁Ta	-8.4421
▁loodan	-8.44234
▁neil	-8.44319
▁20	-8.44666
▁ilma	-8.45045
▁mõistlik	-8.45202
▁kõiki	-8.45339
▁Rahandus	-8.45546
▁keele	-8.45565
▁tehakse	-8.45774
▁haridus	-8.45894
▁esitada	-8.46048
tes	-8.46251
▁proua	-8.46276
▁arv	-8.46475
▁probleemi	-8.46552
▁täielikult	-8.46592
▁ümber	-8.4692
▁komisjon	-8.47058
la	-8.47166
▁tänan	-8.47361
▁varem	-8.47561
▁usun	-8.47592
h	-8.48097
▁ilmselt	-8.4816
▁milline	-8.48236
▁uue	-8.48283
ri	-8.48312
▁Andres	-8.48339
▁asju	-8.48426
▁esitamise	-8.48725
mis	-8.48987
▁kohaliku	-8.49105
sin	-8.49245
▁liiga	-8.49742
▁asjad	-8.49754
▁head	-8.50129
▁abi	-8.50161
▁toimub	-8.50374
▁kontrolli	-8.50433
▁kaudu	-8.50542
▁kinni	-8.50558
▁esindaja	-8.5061
▁maksu	-8.50644
▁väike	-8.50752
▁tee	-8.50811
▁ühte	-8.50899
▁kohe	-8.51119
▁Muudatus	-8.51323
▁mõni	-8.51414
▁nõukogu	-8.51872
▁selliseid	-8.51879
▁summa	-8.51947
▁küsija	-8.52001
5	-8.52071
▁taga	-8.52122
▁arvestada	-8.52306
▁alkoholi	-8.52361
▁jne	-8.52505
▁jäi	-8.52635
▁küsida	-8.52848
▁Reformierakonna	-8.53065
▁taha	-8.53249
si	-8.53257
▁viia	-8.53317
▁nimelt	-8.53451
▁võtnud	-8.53561
Hääletustulemuse	-8.54058
us	-8.54138
▁tulla	-8.544
poliitika	-8.54685
▁ütleb	-8.54901
▁suure	-8.54922
▁eraldi	-8.54929
▁hoopis	-8.55187
▁Riigikogus	-8.55249
▁mõne	-8.55711
▁inimestele	-8.55839
▁nendest	-8.55967
▁sai	-8.55999
▁Loomulikult	-8.56006
Tänan	-8.5631
▁vaatame	-8.56385
▁huvi	-8.56875
▁juhtivkomisjoni	-8.57036
▁leidnud	-8.57617
▁hakkama	-8.5772
sime	-8.57771
▁pidada	-8.57845
▁maa	-8.57854
3	-8.5789
tus	-8.57939
▁Tegelikult	-8.58004
▁muud	-8.58221
▁tuua	-8.58497
tu	-8.58567
maks	-8.58639
▁ütlesite	-8.5882
▁olukorda	-8.59041
▁Juhtivkomisjoni	-8.59271
▁tekib	-8.59551
▁võimaluse	-8.59605
▁Valitsus	-8.5973
▁silmas	-8.59857
ele	-8.60016
▁muu	-8.60027
▁jätta	-8.60391
▁tegi	-8.60466
▁eelkõige	-8.60595
2	-8.61048
▁000	-8.61294
▁vähe	-8.61448
▁näha	-8.61452
▁järgmise	-8.6146
▁sisu	-8.61474
▁sisuliselt	-8.61606
▁Jah	-8.61721
▁tähtajaks	-8.61812
▁uus	-8.62015
▁täiskogu	-8.62018
▁näeme	-8.62149
▁sellepärast	-8.62235
▁inimese	-8.62238
▁kuigi	-8.62621
▁kirjas	-8.62643
▁piiri	-8.62706
▁läinud	-8.62883
▁läbirääkimisi	-8.63116
ettepanekut	-8.63254
▁käigus	-8.63842
▁tule	-8.6387
▁tundub	-8.63946
▁s	-8.64053
▁juttu	-8.64178
▁seadust	-8.64331
▁eelnõuga	-8.64545
▁endale	-8.64704
ra	-8.64756
▁1.	-8.64855
▁hakata	-8.64987
▁Kuna	-8.65098
▁jah	-8.65137
8	-8.65167
▁riigis	-8.65428
▁jõudnud	-8.65493
▁ennast	-8.65686
▁kümme	-8.65725
▁tal	-8.65875
▁tohi	-8.65969
▁suhtes	-8.65989
▁Suur	-8.65995
vi	-8.66078
▁palga	-8.66105
▁Rohkem	-8.66298
tega	-8.66558
▁millised	-8.66581
▁teemat	-8.66592
▁Näiteks	-8.66605
▁viis	-8.66716
re	-8.66803
tel	-8.66966
▁Teine	-8.67366
▁leida	-8.67432
▁arvu	-8.68177
▁teemal	-8.68178
▁alles	-8.68321
4	-8.68575
▁Kõik	-8.68626
ä	-8.68637
▁paremini	-8.6883
▁meelde	-8.6889
▁järgmisel	-8.68923
▁rahva	-8.68946
▁liikmete	-8.69111
▁E	-8.69274
▁võime	-8.69298
▁arvestamata	-8.69363
▁k	-8.69418
6	-8.69617
▁Kõigepealt	-8.6962
▁seaduste	-8.6977
▁arupärimise	-8.69907
lise	-8.70548
▁hetkel	-8.71176
▁sealt	-8.713
▁juures	-8.7131
▁esimese	-8.7135
komisjonis	-8.7136
▁kolme	-8.71386
miseks	-8.71441
▁kuhu	-8.71457
▁põhjus	-8.71477
▁Jüri	-8.71581
▁Helme	-8.71593
▁süsteemi	-8.71598
▁teist	-8.71766
▁ühtegi	-8.72166
▁käib	-8.72178
dega	-8.72193
gu	-8.72396
il	-8.72459
▁vastata	-8.72578
▁võivad	-8.72619
▁osas	-8.72906
▁seoses	-8.73099
▁kellel	-8.73249
▁probleeme	-8.73437
▁Teie	-8.73444
▁peaksid	-8.73518
▁oleksid	-8.74253
▁võimalust	-8.74403
▁päeva	-8.74482
▁natukene	-8.74566
▁tõsta	-8.74596
▁lisaaega	-8.74782
▁oska	-8.74878
▁ühel	-8.7512
▁otsused	-8.75127
▁eelmise	-8.75148
pi	-8.75273
▁inimest	-8.75297
▁käest	-8.75304
▁küsimused	-8.75317
▁Erakonna	-8.75413
▁kohalike	-8.75796
▁puudub	-8.75813
ü	-8.75818
demokraatliku	-8.75866
Head	-8.75995
▁antud	-8.7607
▁mõned	-8.76255
▁maha	-8.76266
▁mind	-8.76369
▁parem	-8.76496
▁esindajad	-8.76631
▁paljud	-8.7674
▁Vabaerakonna	-8.77895
▁ettekandjale	-8.7809
▁teised	-8.78104
▁tasu	-8.78167
it	-8.78344
▁öeldud	-8.78387
▁Venemaa	-8.78493
▁riikide	-8.78641
▁omavalitsused	-8.78706
▁tulevad	-8.79182
1	-8.79232
▁nendele	-8.79262
▁mõte	-8.79297
▁sellised	-8.79554
▁Ida	-8.79636
▁hulgas	-8.79653
dest	-8.79897
▁riigikaitse	-8.79942
▁Küsimus	-8.80028
▁kuu	-8.80327
▁toetada	-8.80453
▁miljoni	-8.80812
▁piisavalt	-8.81083
▁ettepanekut	-8.81243
▁tööle	-8.81409
▁näe	-8.81589
▁peaksime	-8.81663
▁seaduses	-8.81747
–	-8.81888
▁Selles	-8.82154
▁omavalitsus	-8.82177
▁maksta	-8.82182
▁kõigile	-8.82497
▁lõpuks	-8.82504
▁millele	-8.82536
ist	-8.82645
▁tervise	-8.82888
▁lõppenud	-8.82955
▁terve	-8.82994
9	-8.83364
▁15	-8.83373
▁Mida	-8.83488
ksid	-8.83502
7	-8.83742
▁jälle	-8.84005
▁süsteem	-8.84021
lik	-8.84155
▁1	-8.84177
▁vaba	-8.84499
▁Komisjoni	-8.84848
▁kätte	-8.84999
▁siit	-8.85487
▁Teiseks	-8.85601
▁h	-8.85616
▁lapse	-8.85631
▁Nad	-8.86145
▁Avan	-8.86495
▁analüüsi	-8.86665
▁töökorra	-8.86807
▁hääletas	-8.87351
)	-8.87572
▁teadus	-8.87798
▁saama	-8.87817
▁kirja	-8.87929
▁kõigi	-8.87941
tav	-8.88359
▁pensioni	-8.88365
▁tulu	-8.88475
▁koostöö	-8.88659
▁kahjuks	-8.88777
▁meel	-8.89064
▁kahju	-8.89147
▁küsimuses	-8.89224
▁Aru	-8.89353
▁S	-8.8947
▁erapooletuid	-8.89565
▁seetõttu	-8.89583
▁alates	-8.89599
▁pealt	-8.89755
▁Siis	-8.89913
▁10	-8.89952
▁vist	-8.89956
▁Väga	-8.9014
▁vahe	-8.9044
site	-8.9046
▁kiiresti	-8.90587
▁ettekande	-8.9072
sed	-8.90989
▁lahendada	-8.91195
▁otsuseid	-8.9128
▁2	-8.91447
▁uuesti	-8.91476
▁Seetõttu	-8.91556
▁panen	-8.91612
▁teevad	-8.91861
▁edaspidi	-8.91883
▁Küll	-8.91888
▁tahame	-8.91919
▁kuus	-8.91954
▁võimalusi	-8.9197
aasta	-8.92006
▁põllumajandus	-8.92016
▁parlamendi	-8.92036
▁otsustas	-8.92332
▁esimehe	-8.92406
▁Sellest	-8.92507
▁hoida	-8.92674
▁võin	-8.92832
li	-8.93492
▁vale	-8.93578
▁Sa	-8.93755
▁sellesse	-8.94065
▁tulumaksu	-8.9412
▁võrreldes	-8.94187
▁tagada	-8.94223
▁lugemise	-8.94269
iga	-8.94398
▁tehti	-8.94609
p	-8.94679
▁lugemisel	-8.94796
▁juhtivkomisjon	-8.94846
▁Tänan	-8.94846
▁Esiteks	-8.94857
list	-8.94867
eid	-8.94868
▁Seal	-8.94911
▁hakka	-8.94972
▁kohtu	-8.95171
▁ühiskonnas	-8.95355
▁oluliselt	-8.95373
▁Esimene	-8.95474
▁rääkinud	-8.95571
▁olukorras	-8.9559
▁õpetajate	-8.95668
minister	-8.95691
▁justkui	-8.95803
▁hinnangul	-8.95875
▁nähtud	-8.95899
▁avaliku	-8.95952
▁vajalik	-8.95994
▁sh	-8.96106
▁konkreetse	-8.96223
▁vastus	-8.96227
▁arutada	-8.96657
▁suunas	-8.96813
▁Tartu	-8.96912
▁suurt	-8.96981
▁meid	-8.97064
▁tasemel	-8.97429
▁toetus	-8.97448
▁mingeid	-8.97594
▁ettepanekuid	-8.97794
▁Soome	-8.97828
▁lõpp	-8.97952
▁viimase	-8.98012
▁Täna	-8.98108
▁Eks	-8.98127
▁politsei	-8.98295
▁tekkinud	-8.98611
▁Ligi	-8.98654
▁võtab	-8.98656
▁erinevad	-8.98681
▁Mulle	-8.98694
▁tean	-8.98789
▁võimalikult	-8.98797
▁sinu	-8.98859
▁neli	-8.9886
▁mingil	-8.99173
▁esimesel	-8.99271
▁võrra	-8.99322
▁õigesti	-8.99328
er	-8.99333
▁hiljem	-8.99411
▁andnud	-8.99422
▁maksma	-8.99475
▁kolmas	-8.99553
▁Seega	-8.99616
▁lisaks	-8.99895
▁aastatel	-8.99989
▁toodud	-9.00023
▁määral	-9.00059
▁eks	-9.00088
▁korras	-9.0012
▁konkreetselt	-9.00191
tada	-9.00733
▁samas	-9.00818
▁saaksid	-9.00957
▁kulu	-9.00998
▁Kuid	-9.01043
▁tänase	-9.01134
▁A	-9.0135
▁päevakorda	-9.01472
▁erakonna	-9.01498
▁kust	-9.01594
▁nn	-9.01931
▁saali	-9.02102
▁Läti	-9.02179
▁toimunud	-9.02217
al	-9.02404
▁julgeoleku	-9.02422
▁määrata	-9.02809
▁arutanud	-9.02861
▁Nende	-9.02972
▁sellisel	-9.03047
▁tegevus	-9.03125
▁palka	-9.03189
▁võetakse	-9.03498
▁ütleme	-9.03689
rahandusminister	-9.03714
▁tegu	-9.03742
▁neist	-9.03765
▁vähendada	-9.03922
▁ühes	-9.04121
▁muutunud	-9.04166
▁vastuse	-9.04452
▁aktsiisi	-9.04514
. "	-9.04651
pa	-9.04683
ru	-9.04695
▁tõenäoliselt	-9.04696
▁linna	-9.04714
▁Mihhail	-9.0477
▁lepingu	-9.04827
▁30	-9.04842
ik	-9.05049
▁lahendus	-9.05114
▁arvestatud	-9.05257
▁kõne	-9.0533
eri	-9.05412
▁tulenevalt	-9.05572
▁arutas	-9.05572
▁aseesimees	-9.05601
▁Aivar	-9.05702
▁12	-9.06039
▁mitme	-9.06194
dele	-9.06226
▁toimus	-9.06419
▁soovivad	-9.06463
▁juhatuse	-9.06493
▁pidanud	-9.06655
▁näeb	-9.06713
▁laenu	-9.06722
▁saata	-9.06849
V	-9.06868
▁ettekandeks	-9.0693
▁suhteliselt	-9.07101
▁peaaegu	-9.07153
▁öeldes	-9.07153
▁finants	-9.07155
▁talle	-9.07441
▁NATO	-9.07841
▁lapsed	-9.07901
▁ühiskonna	-9.07911
▁abil	-9.07971
del	-9.07977
tavad	-9.07992
▁ministeeriumi	-9.08059
▁kõike	-9.08156
▁fraktsioonide	-9.08231
▁koosseisu	-9.0824
mata	-9.08287
▁järelevalve	-9.08308
▁eelnõus	-9.08335
▁põhimõtteliselt	-9.08492
▁riigile	-9.08629
▁keeles	-9.08642
▁lihtne	-9.08732
▁korra	-9.09252
▁Herkel	-9.09586
▁riikides	-9.09721
▁reformi	-9.09897
▁mõtet	-9.09935
▁suurendada	-9.09962
▁samamoodi	-9.10005
ettepanekuid	-9.10369
▁kümne	-9.10474
eks	-9.10529
nd	-9.10543
▁põhi	-9.10556
Kohaloleku	-9.10603
▁aitäh	-9.10643
▁kõigepealt	-9.10773
▁luua	-9.10777
▁kontroll	-9.10795
▁hulk	-9.1094
ite	-9.11109
▁ministri	-9.11238
▁küsimustele	-9.1125
▁võiksid	-9.11313
▁võtame	-9.11334
▁kindel	-9.11594
▁poliitika	-9.11704
mi	-9.1181
▁tõsiselt	-9.11919
▁ellu	-9.12121
▁seni	-9.12156
▁lõpetatud	-9.1235
▁välis	-9.12543
▁vara	-9.12573
▁kohustus	-9.12575
▁ülevaate	-9.1262
▁asemel	-9.12698
▁Urmas	-9.12744
▁riiki	-9.12848
▁Tarmo	-9.12896
taks	-9.12955
▁IRL	-9.13062
▁alguses	-9.13186
▁koht	-9.13448
▁keeruline	-9.13459
▁kohal	-9.1351
▁praegune	-9.13514
▁mõeldud	-9.13818
▁kuulu	-9.14018
▁suured	-9.14045
▁Jürgen	-9.14339
▁keda	-9.14381
▁lähevad	-9.14393
▁korduvalt	-9.14403
▁aastast	-9.14431
S	-9.14552
liselt	-9.14555
Härra	-9.14586
▁valdkonnas	-9.14672
▁näinud	-9.14676
▁samal	-9.14725
mad	-9.14904
misega	-9.14969
▁kuskil	-9.15069
▁Keskkonna	-9.151
▁T	-9.15181
▁näitab	-9.15433
tuse	-9.15449
▁teate	-9.15594
▁ametikaaslased	-9.15949
"".	-9.16019
▁Isamaa	-9.16109
▁saate	-9.16119
▁punkti	-9.16267
päevakorrapunkti	-9.16468
▁mure	-9.1663
▁pandud	-9.16672
▁Mart	-9.16703
▁Komisjon	-9.1683
or	-9.16901
tamine	-9.16991
▁peal	-9.17428
0	-9.17445
▁Nimelt	-9.17457
jad	-9.17579
▁taas	-9.17821
▁aastas	-9.1791
ina	-9.17951
▁Samuti	-9.17974
▁soov	-9.17977
▁sain	-9.18137
▁põhjal	-9.18262
▁lugeda	-9.18299
▁Teile	-9.18383
▁puutub	-9.18384
▁keelt	-9.18497
▁otseselt	-9.18524
▁päevakorra	-9.18588
▁tahaks	-9.18649
an	-9.18675
▁muutub	-9.18892
▁Neid	-9.19055
▁mu	-9.19179
töö	-9.19212
▁kontekstis	-9.19221
▁haigekassa	-9.19337
▁avada	-9.19472
▁lahti	-9.19603
▁räägitud	-9.19674
ust	-9.19686
▁aastaid	-9.1969
▁eelmisel	-9.1978
▁Tamm	-9.19842
▁jutt	-9.19921
▁arengukava	-9.2001
▁arvamust	-9.2008
▁lähe	-9.20121
▁vastust	-9.20179
▁moel	-9.2041
lisi	-9.20412
use	-9.20496
▁100	-9.20583
▁vastab	-9.20615
▁võimalused	-9.20649
▁Liit	-9.2066
▁peaministri	-9.20811
ad	-9.20823
▁heaks	-9.20851
▁hakkavad	-9.20852
▁opositsiooni	-9.21042
▁info	-9.21078
▁maailma	-9.21115
▁viie	-9.21138
▁järgmine	-9.21406
▁50	-9.21426
▁lapsi	-9.21585
▁Justiits	-9.21674
liku	-9.21685
▁isiku	-9.21766
▁järjest	-9.2177
▁teisel	-9.21825
▁inimestel	-9.21858
ha	-9.219
▁otse	-9.22057
▁Alustame	-9.22163
▁ala	-9.22298
õ	-9.22367
▁Olen	-9.22529
▁järele	-9.22595
▁käibemaksu	-9.22695
▁valimis	-9.22785
A	-9.23101
▁Ettepanek	-9.23169
▁laiemalt	-9.23265
aastal	-9.23266
▁lükata	-9.23292
vate	-9.23378
▁toime	-9.23393
.""	-9.23411
▁vene	-9.23508
▁muudatusi	-9.23661
▁25	-9.23778
▁huvides	-9.23786
▁muudatused	-9.23824
▁pere	-9.23871
▁Härra	-9.23892
▁Korb	-9.2404
▁mõelda	-9.24069
▁otsustada	-9.24079
▁tähtis	-9.24103
▁riigid	-9.24261
▁Selleks	-9.24427
▁vastavalt	-9.24459
▁seadusega	-9.24506
▁Kreeka	-9.24729
▁millal	-9.24762
▁hinna	-9.2487
▁praeguse	-9.25037
E	-9.25104
▁arupärimine	-9.25142
▁Euroopas	-9.25163
▁Riigikohtu	-9.25249
▁toeta	-9.25281
▁pikalt	-9.2529
▁põhiseaduse	-9.25371
▁Lisaks	-9.25378
▁omavahel	-9.25389
f	-9.25595
▁päev	-9.25798
▁seadusena	-9.25846
▁jäävad	-9.25988
ile	-9.26137
▁Stalnuhhin	-9.26193
▁asjade	-9.26263
▁võtma	-9.26427
Kui	-9.26527
selt	-9.26637
▁omavalitsustele	-9.26756
▁ükskõik	-9.26814
▁kõikide	-9.26822
▁üldiselt	-9.26848
▁Riigi	-9.26851
▁hind	-9.2686
▁organisatsiooni	-9.26864
▁aastaks	-9.26889
▁minema	-9.26904
▁nelja	-9.26918
▁erinevaid	-9.27088
▁vana	-9.27193
on	-9.2727
▁juhatus	-9.27545
▁põhjust	-9.2766
▁läks	-9.27745
▁samm	-9.28316
Eesti	-9.28354
▁küsimuste	-9.2836
▁nimetatud	-9.28377
▁Tõepoolest	-9.28397
▁koostööd	-9.28441
▁kriisi	-9.28527
▁valdkonna	-9.28544
▁soovitakse	-9.28551
ve	-9.28605
.)	-9.28641
▁aastate	-9.28647
▁kujul	-9.28717
▁olgu	-9.28787
misel	-9.28832
▁Ernits	-9.28881
▁kasvu	-9.2901
likult	-9.29024
▁Eestisse	-9.29229
▁volikogu	-9.29343
▁elektri	-9.29433
▁suuda	-9.29448
▁kriminaal	-9.29635
▁plaanis	-9.29642
▁tohiks	-9.29654
ar	-9.29708
▁usu	-9.29712
ksime	-9.29729
▁Peeter	-9.29846
nu	-9.29856
▁veelgi	-9.30008
▁vajab	-9.301
▁Või	-9.30115
▁noorte	-9.30125
▁16	-9.30247
▁tava	-9.303
▁õiguskantsleri	-9.30301
▁probleemid	-9.30401
▁g	-9.30658
▁5	-9.30967
▁vabandust	-9.30987
▁näide	-9.31028
▁ülesanne	-9.31256
▁sõltub	-9.31328
▁õppe	-9.31348
▁gümnaasiumi	-9.31383
▁raames	-9.31429
rä	-9.31452
▁la	-9.31491
▁tegevuse	-9.31526
▁Kadri	-9.31684
▁teenuste	-9.31698
▁praktika	-9.31758
▁Majandus	-9.31837
▁andma	-9.32148
maa	-9.32168
▁läheme	-9.32346
▁rahastamise	-9.32377
▁ettepanekud	-9.32543
▁mööda	-9.32656
▁I	-9.3268
▁põhjusel	-9.32689
▁re	-9.32721
ksin	-9.32787
▁makse	-9.32824
▁otsust	-9.32899
▁paremaks	-9.32914
▁informatsiooni	-9.32942
▁ettevõtte	-9.32946
▁metsa	-9.3298
▁konkreetne	-9.32982
▁antakse	-9.32983
▁ulatuses	-9.32996
▁olukorra	-9.33029
▁mitmeid	-9.33063
▁ütlema	-9.33117
▁äkki	-9.33144
ng	-9.33196
▁nendel	-9.33239
liste	-9.33398
▁Sise	-9.33528
▁Jaak	-9.33672
▁seisukohta	-9.33692
▁uusi	-9.33775
▁aitab	-9.33843
▁kõnepulti	-9.34119
ju	-9.34162
▁näite	-9.34305
▁arvamus	-9.3432
▁soovib	-9.34434
▁parandada	-9.34475
▁kolmanda	-9.34494
▁määra	-9.34625
▁pakkuda	-9.34692
▁kulud	-9.34718
▁Kolm	-9.34795
▁tasuta	-9.34919
▁õiguskantsler	-9.34993
▁suurema	-9.35015
▁arengu	-9.35227
▁kõnesoove	-9.35269
▁vaatama	-9.35332
▁valitsuses	-9.35347
vat	-9.35356
▁maailmas	-9.35448
▁tahab	-9.35479
▁kasvab	-9.35545
▁era	-9.35581
▁tervikuna	-9.35614
▁nendega	-9.35826
▁iseenesest	-9.35835
▁rääkima	-9.35874
▁punkt	-9.35997
▁Sven	-9.3608
▁haldusreformi	-9.3614
▁poliitiline	-9.36194
▁poliitilise	-9.36383
▁nendes	-9.36385
▁lõpphääletusele	-9.36395
See	-9.36643
▁kasutamise	-9.36812
▁uut	-9.36824
▁vee	-9.36946
ste	-9.37092
▁nemad	-9.37104
▁tegelema	-9.37216
ndi	-9.37489
▁isiklikult	-9.37593
as	-9.37637
▁teises	-9.37661
▁toetuse	-9.37743
▁mõnes	-9.3781
raha	-9.38047
▁teisi	-9.38089
▁eelnõusid	-9.38114
▁täita	-9.38223
et	-9.38236
▁rahvusvahelise	-9.38384
▁aidata	-9.38457
▁võeti	-9.38459
▁käsitlemise	-9.38473
▁Lauri	-9.38534
▁Kõnesoov	-9.38558
▁üht	-9.38569
▁spordi	-9.38604
▁koha	-9.38622
▁tasandil	-9.38642
g	-9.38678
▁tervishoiu	-9.38685
▁näete	-9.38705
▁käinud	-9.38752
▁...	-9.3888
▁kaua	-9.38977
▁Panga	-9.39057
▁tähenda	-9.39212
▁õpetaja	-9.39301
▁tekkis	-9.39302
▁ühest	-9.39342
▁andis	-9.39665
▁palk	-9.39957
▁lausa	-9.40012
▁riikliku	-9.40058
▁3	-9.40064
▁teda	-9.40136
▁ra	-9.40161
▁13	-9.40188
▁ligi	-9.40249
▁menetlus	-9.40321
oo	-9.40438
▁majanduse	-9.40438
 "	-9.4044
▁Ukraina	-9.40492
▁Res	-9.40499
malt	-9.40593
▁erapooletuks	-9.40614
▁Lõpetan	-9.40672
▁nime	-9.40845
▁suures	-9.41074
▁vaheaega	-9.41315
lised	-9.41315
K	-9.41323
▁kuulnud	-9.41335
▁toetab	-9.41422
ro	-9.41446
▁pa	-9.41446
▁14	-9.41462
▁äri	-9.41465
▁11	-9.41468
▁kohaloleku	-9.41499
▁milleks	-9.41636
▁Liidus	-9.41639
▁maksab	-9.41736
▁luba	-9.41737
süsteemi	-9.41759
▁valla	-9.4198
dPoolt	-9.42024
tama	-9.42059
▁olulise	-9.42071
▁Haridus	-9.42135
▁toob	-9.42178
ettepanekud	-9.42223
▁arutatud	-9.42278
▁arvate	-9.42331
▁paraku	-9.42473
▁arvestades	-9.4257
▁kõigil	-9.42587
▁kodakondsuse	-9.4259
aja	-9.43026
jate	-9.43055
▁Kalle	-9.43104
▁rääkis	-9.43107
▁Publica	-9.43352
▁teiseks	-9.43442
he	-9.4357
▁Ega	-9.43635
▁piir	-9.43794
▁ravi	-9.43808
Rohkem	-9.43818
▁teenuse	-9.43848
▁mingisugust	-9.43861
▁selliste	-9.43863
▁idee	-9.4396
▁õiguse	-9.43971
misest	-9.44204
▁jääda	-9.44253
▁esimest	-9.44333
▁menetlemise	-9.44335
▁põhjalikult	-9.44443
▁K	-9.44611
▁Narva	-9.44668
▁räägib	-9.44691
▁ettevõtete	-9.44783
▁istungit	-9.44805
▁sise	-9.4503
▁teemaga	-9.45069
▁tunne	-9.45129
▁muid	-9.45143
▁Priit	-9.45272
▁seesama	-9.4528
▁jää	-9.45411
▁tegelda	-9.45616
tust	-9.45884
▁2014.	-9.4589
▁täis	-9.46019
▁st	-9.46103
▁tulema	-9.46254
▁ausalt	-9.46394
▁Teadus	-9.46557
▁väheneb	-9.4657
▁laps	-9.46683
▁Martin	-9.46686
▁algataja	-9.46755
▁positiivne	-9.46815
▁kaheksa	-9.46826
ko	-9.46849
▁teksti	-9.46863
▁Tallinnas	-9.46902
▁räägin	-9.47066
▁programmi	-9.47215
▁Simson	-9.47314
▁17	-9.47415
▁ameti	-9.47427
▁Millise	-9.47431
lu	-9.4756
▁ühele	-9.47632
▁konkurentsi	-9.4765
▁Määra	-9.47653
▁sees	-9.47699
▁sotsiaalmaksu	-9.47713
▁Taavi	-9.47821
▁mingisugune	-9.48034
▁protsessi	-9.48119
▁kõrvale	-9.48135
at	-9.48158
▁paar	-9.48278
▁16.	-9.48438
▁tihti	-9.48685
▁mõtlema	-9.48937
▁Toomas	-9.49112
▁mere	-9.49189
▁kuulda	-9.492
▁mitmed	-9.49235
▁juht	-9.49294
ndus	-9.49347
▁protsess	-9.49431
tava	-9.49437
vaid	-9.49449
▁erakondade	-9.49466
Andres	-9.49664
▁Kübarsepp	-9.49731
▁väiksem	-9.49805
▁hakatakse	-9.49829
▁veidi	-9.49839
▁nädala	-9.49847
▁otsustab	-9.49877
▁muude	-9.49894
▁niisugune	-9.49963
▁roll	-9.50052
ime	-9.50262
tatud	-9.50272
▁40	-9.50426
▁üld	-9.50639
▁Maksu	-9.50877
▁Veel	-9.50974
▁mujal	-9.51011
▁riigil	-9.51121
▁18	-9.51128
▁mingid	-9.51182
▁Ammas	-9.51228
▁teisele	-9.51256
▁oled	-9.51447
▁andmed	-9.51593
▁maksumaksja	-9.51596
▁mäletan	-9.51625
▁tuleviku	-9.5167
Kas	-9.51792
▁kohalikud	-9.52071
▁andmeid	-9.52102
▁õigust	-9.52168
▁vasta	-9.52186
▁hinnata	-9.52353
▁järgmised	-9.52362
desse	-9.52384
▁ütlevad	-9.52385
▁ministrile	-9.52391
▁projekti	-9.52559
▁p	-9.52673
kki	-9.52714
▁töötajate	-9.528
▁igati	-9.52839
▁uute	-9.5311
▁kiire	-9.53135
▁jõu	-9.53143
▁tahavad	-9.53222
▁kuud	-9.53252
▁milles	-9.53786
▁lõpus	-9.53819
▁tegeleb	-9.53899
ia	-9.53974
▁huvitav	-9.54007
▁vajadus	-9.54073
▁Oma	-9.54089
▁au	-9.54156
▁rolli	-9.54165
▁väikese	-9.54231
▁seonduvalt	-9.54243
▁alus	-9.54252
▁hulka	-9.54263
O	-9.54286
tamise	-9.54324
▁kõrge	-9.54362
▁Istungi	-9.54436
▁koostöös	-9.54485
▁kehtib	-9.54555
▁sul	-9.54572
▁kütuse	-9.54574
▁pannud	-9.54622
▁Ehk	-9.54729
▁kõrval	-9.54845
▁Urve	-9.54856
▁täpsemalt	-9.5495
▁ettevõtja	-9.54959
▁vahendeid	-9.55008
▁tegevust	-9.5512
▁presidendi	-9.55202
▁president	-9.55261
▁saavutada	-9.55276
▁kooskõlas	-9.55303
▁puudutavad	-9.55408
Eelnõu	-9.55454
▁teed	-9.55536
▁paika	-9.55578
▁hakkame	-9.55671
sti	-9.55696
▁isikute	-9.5573
▁viimasel	-9.55808
▁nimetada	-9.55884
▁päeval	-9.55961
▁eelarves	-9.56027
▁ko	-9.56112
▁hariduse	-9.56131
▁2013.	-9.56299
▁ESM	-9.56545
▁pidevalt	-9.56676
▁kasvanud	-9.56769
▁järel	-9.56924
justiitsminister	-9.56969
▁räägitakse	-9.56998
du	-9.57077
▁vastates	-9.57236
▁koolis	-9.57243
▁elavad	-9.57253
▁küllalt	-9.57312
▁No	-9.57425
▁Millin	-9.57501
▁selgitada	-9.57507
▁lubatud	-9.57535
▁investeeringute	-9.57592
▁menetluse	-9.57673
▁pikk	-9.57679
menetluse	-9.57708
▁turu	-9.57775
▁vahepeal	-9.57804
likku	-9.57813
▁laekunud	-9.57895
▁Sellega	-9.57908
▁liikmetel	-9.57939
▁pidi	-9.58017
▁võttis	-9.58091
▁Tegemist	-9.5813
▁nädalal	-9.58161
▁endiselt	-9.5817
▁2015.	-9.58232
▁diskussiooni	-9.58325
▁läbirääkimiste	-9.58351
▁mõiste	-9.58396
▁lugemisele	-9.5842
▁auto	-9.58578
Mis	-9.58689
▁eel	-9.5887
▁Oleme	-9.58915
▁ettekandes	-9.58916
▁Kaitseväe	-9.58986
▁eksi	-9.5924
▁millise	-9.59245
▁koalitsioon	-9.59252
▁Selline	-9.59289
▁keskmine	-9.5929
▁plaani	-9.59312
▁esile	-9.59367
▁ringi	-9.59393
▁kellele	-9.59411
▁suutnud	-9.59449
tab	-9.59544
▁puuduta	-9.59571
▁rahvusvaheliste	-9.59577
▁tuleneb	-9.59685
▁tulemus	-9.59961
▁teede	-9.60063
▁aluseks	-9.60067
ise	-9.6007
▁tunduvalt	-9.60085
▁Teise	-9.60098
▁tõusu	-9.60136
▁mingisuguse	-9.60163
mas	-9.60165
nt	-9.60278
▁Reformierakond	-9.60323
maid	-9.60355
▁tõus	-9.60378
▁võimu	-9.60581
▁Ameerika	-9.60695
▁V	-9.6088
▁paljude	-9.60929
▁õiguskomisjoni	-9.61133
▁4	-9.61145
00	-9.61171
▁keskmise	-9.61384
▁kohalik	-9.61425
ini	-9.61495
▁kulude	-9.61554
▁toonud	-9.61646
▁kahtlemata	-9.61685
▁julge	-9.61725
▁mulje	-9.61788
▁sektori	-9.61889
▁kinnitada	-9.6195
▁arvel	-9.62014
▁näen	-9.62072
▁teiega	-9.62089
▁olevat	-9.62093
▁põhjendatud	-9.62257
ala	-9.62301
▁Nõukogu	-9.6236
▁Tuus	-9.62392
▁Küsimusi	-9.62396
▁äärmiselt	-9.62439
L	-9.6259
▁ministeerium	-9.62636
▁Konservatiivse	-9.62688
▁öeldakse	-9.62775
lus	-9.6278
▁juhi	-9.62871
▁anna	-9.62883
▁suuremad	-9.62929
▁osaleda	-9.63059
▁korruptsiooni	-9.6307
▁200	-9.63087
▁olegi	-9.6311
▁jõuab	-9.63166
▁räägi	-9.63209
▁töötada	-9.63251
valt	-9.63326
▁märksa	-9.6342
▁Valeri	-9.63421
▁võimaldab	-9.63478
▁tagatud	-9.63485
▁Rahvaerakonna	-9.63529
▁avalik	-9.63538
kas	-9.63568
▁protokolli	-9.63579
▁Mailis	-9.63587
▁Sellise	-9.63592
▁tasakaalu	-9.63814
▁12.	-9.63814
▁lühidalt	-9.63858
▁ava	-9.63918
▁panga	-9.6392
▁lahendusi	-9.64079
▁julgen	-9.64226
▁Kruuse	-9.64299
Nüüd	-9.643
▁jõuda	-9.6434
▁direktiivi	-9.64382
▁vastuseid	-9.64437
▁arutasime	-9.64452
▁tekitab	-9.64453
▁selgeks	-9.64509
▁Vassiljev	-9.6453
▁jätnud	-9.64742
▁esitas	-9.64761
▁teenust	-9.64771
▁6	-9.64882
▁lugu	-9.64914
▁isik	-9.64919
▁põhikooli	-9.64955
▁Politsei	-9.65207
ab	-9.65207
▁2017.	-9.65253
▁Krista	-9.65334
▁arva	-9.65336
▁raudtee	-9.65364
▁Kommunikatsioon	-9.65409
▁vajavad	-9.65457
▁menetlemisel	-9.65533
▁juhtub	-9.65569
▁60	-9.65639
▁paari	-9.65671
▁sammu	-9.6569
▁osakonna	-9.65738
sus	-9.65991
▁kehtestada	-9.66005
▁soovita	-9.66005
▁aastaga	-9.66025
▁töötab	-9.66088
osa	-9.66216
▁kirjutatud	-9.66221
▁SKT	-9.66307
tsi	-9.66354
▁milliseid	-9.66393
▁rääkisite	-9.66662
Jah	-9.66676
▁plaan	-9.66721
▁osta	-9.66792
▁lahenduse	-9.66872
▁ÜRO	-9.66985
▁Sellepärast	-9.66995
▁sulle	-9.67017
▁seletuskirja	-9.67213
▁jätkata	-9.67245
nda	-9.67329
▁arvata	-9.67446
▁too	-9.6752
▁siseminister	-9.6757
▁mõtte	-9.67648
▁kasu	-9.67661
▁töönädala	-9.67669
▁valimiste	-9.67722
▁last	-9.6784
seadus	-9.67844
en	-9.67854
▁arutame	-9.67877
▁maja	-9.67878
▁eba	-9.67953
▁anname	-9.68093
▁seis	-9.68145
▁ehitus	-9.68163
▁kutse	-9.68182
abi	-9.68271
▁soovime	-9.68276
pe	-9.68299
▁nõu	-9.68299
▁poolest	-9.68309
elt	-9.68322
▁Energia	-9.68363
▁kohas	-9.68489
▁Eiki	-9.68504
▁vajaduse	-9.68549
▁ettekandjaks	-9.68563
demokraadid	-9.68622
▁tõsine	-9.68648
lased	-9.68659
▁said	-9.68661
▁annan	-9.68667
▁Ossinovski	-9.68735
▁19	-9.68755
▁Leedu	-9.6886
▁kasutatakse	-9.68878
▁reklaami	-9.6897
▁regulatsiooni	-9.69042
Panen	-9.69209
▁suuri	-9.69233
▁võttes	-9.69404
▁käivad	-9.69412
▁rakendada	-9.69429
▁valimistel	-9.69497
▁vastupidi	-9.69516
õiguse	-9.69585
▁arvesse	-9.6959
▁suuremat	-9.69604
▁paneb	-9.69689
▁lause	-9.69742
▁töötavad	-9.69746
▁loogika	-9.69866
▁otsa	-9.69984
▁üksnes	-9.69988
▁tore	-9.70006
po	-9.70041
▁ministeeriumide	-9.70109
▁lõpuni	-9.7023
▁kuulub	-9.7026
▁rahul	-9.70322
▁suunatud	-9.7037
%	-9.7037
▁ettevõtjad	-9.70518
▁kohale	-9.70567
▁puudu	-9.70672
▁rahvas	-9.70795
▁oleva	-9.70839
▁Vene	-9.70883
riigi	-9.7109
tamist	-9.71167
atsiooni	-9.71168
▁näiteid	-9.71188
▁arvatud	-9.71219
▁erakond	-9.7126
▁kohus	-9.71322
▁mäleta	-9.71334
▁kella	-9.71393
▁keel	-9.71409
▁arutelul	-9.71416
▁kokkuleppe	-9.71509
▁korraldada	-9.71511
kogu	-9.71521
▁teistes	-9.71852
laste	-9.71862
▁teenuseid	-9.71928
▁Põlluaas	-9.71943
▁24	-9.71961
Virumaa	-9.72159
▁täpsustada	-9.7216
▁haldus	-9.72232
▁maksa	-9.72267
▁Kultuuri	-9.72345
▁silma	-9.72348
▁seletuskirjas	-9.72361
tatakse	-9.72366
▁vähenenud	-9.72376
▁kohustusi	-9.72523
ana	-9.72525
▁viimane	-9.72738
▁Riigikontrolli	-9.72759
▁kohapeal	-9.72804
▁viimastel	-9.72843
▁võta	-9.72844
muudatus	-9.72966
▁jätku	-9.73006
▁küsis	-9.73051
jaid	-9.73065
▁tegele	-9.73323
T	-9.73423
▁Tõsi	-9.73473
▁enamik	-9.73547
▁tekkida	-9.73549
▁ajaks	-9.73596
▁vastas	-9.73631
▁perede	-9.7364
▁vastama	-9.73641
▁lastele	-9.73659
▁ha	-9.73703
▁Keskerakond	-9.7375
▁lõike	-9.73791
▁oskate	-9.7381
▁valesti	-9.73811
▁esitab	-9.73823
ap	-9.7387
▁ütlesid	-9.73971
▁ülejäänud	-9.73982
▁vastan	-9.74046
hu	-9.74101
▁ammu	-9.74143
▁Reinsalu	-9.74157
▁kedagi	-9.74183
▁olulised	-9.74214
▁põlevkivi	-9.74283
▁kehtestatud	-9.74301
lane	-9.74334
▁istungjärgu	-9.74521
▁Kahjuks	-9.74522
▁makstakse	-9.74554
konna	-9.74569
▁rääkisin	-9.74689
▁Iga	-9.74689
▁riigieelarvest	-9.74718
ul	-9.74793
▁tulemusena	-9.74822
▁Peale	-9.74823
▁kehtiva	-9.74887
▁muret	-9.74893
▁istung	-9.74953
▁arutama	-9.7496
▁arupärimisi	-9.75013
▁meelt	-9.75129
▁osaliselt	-9.75173
▁toon	-9.7523
▁valik	-9.75264
▁Riigikogule	-9.7539
▁2016.	-9.75498
▁Teatavasti	-9.75506
▁lugemist	-9.75523
▁regionaal	-9.75536
tult	-9.7556
▁ühine	-9.75792
▁hinnangu	-9.75887
▁lõpphääletuse	-9.7598
▁pisut	-9.76001
▁konventsiooni	-9.76056
▁viisil	-9.76077
misse	-9.76078
▁küljest	-9.76095
▁olulisem	-9.76099
▁menetlusse	-9.76222
▁tähtaeg	-9.76236
val	-9.76261
▁O	-9.76374
▁riski	-9.76408
Me	-9.76411
ministeeriumis	-9.76485
▁leidis	-9.76499
▁otsustati	-9.76542
▁võiksime	-9.76679
im	-9.76715
▁kellegi	-9.76813
tame	-9.76863
▁mainisite	-9.76881
P	-9.76965
▁Kalev	-9.76978
▁veendunud	-9.77006
suse	-9.77108
▁käis	-9.77109
▁lähtudes	-9.77268
▁tulen	-9.77307
▁pu	-9.7732
▁ettevõtlus	-9.77347
vähem	-9.77371
▁homme	-9.77376
▁käes	-9.7749
▁Hanno	-9.77608
▁seas	-9.77612
▁seadusandja	-9.77637
▁va	-9.77705
▁statistika	-9.77729
Laul	-9.77746
▁valimisi	-9.77769
▁otsuste	-9.77771
mat	-9.77805
▁reaalselt	-9.77816
▁vastuolu	-9.77824
▁väljaspool	-9.77883
▁toidu	-9.78121
▁Marko	-9.7821
▁sellises	-9.7823
▁Rail	-9.78279
▁tänane	-9.78375
▁soovin	-9.78376
▁vastutus	-9.78426
▁missiooni	-9.78427
▁mõlemad	-9.78493
▁peate	-9.785
▁demokraatia	-9.78508
toetuse	-9.78529
ur	-9.78608
▁pruugi	-9.78643
▁nõuab	-9.78671
▁parlament	-9.7869
▁noored	-9.78738
▁7	-9.78772
▁kuulata	-9.78877
tati	-9.78942
▁loodud	-9.78958
▁mingisuguseid	-9.78995
ut	-9.79007
▁põhimõte	-9.79092
▁saadud	-9.79097
mu	-9.7915
ministri	-9.79263
▁ühise	-9.79302
Virumaal	-9.7942
▁tõi	-9.79422
▁mõjutab	-9.79495
▁erinev	-9.79562
▁elus	-9.79577
▁vallas	-9.79612
▁uued	-9.79656
▁käia	-9.79752
▁ükski	-9.79796
▁pannakse	-9.79801
▁tööandja	-9.79846
teenuse	-9.79965
▁omavalitsusi	-9.79993
▁kiiremini	-9.8006
▁sätestatud	-9.80119
▁laeva	-9.80131
▁riike	-9.80173
▁juhtudel	-9.80212
▁arvamuse	-9.80241
▁Jevgeni	-9.80245
▁mõnda	-9.80314
▁protseduuriline	-9.80326
▁konsensusega	-9.80403
▁piisav	-9.80406
▁kehtima	-9.80488
▁11.	-9.80549
▁arust	-9.80587
▁ettevõtjate	-9.80638
▁teistmoodi	-9.8071
▁ütlete	-9.80723
▁Kes	-9.80751
▁kohustuste	-9.80772
▁võinud	-9.80826
▁arvestanud	-9.80871
▁avatud	-9.809
▁Kogu	-9.80902
▁väärtus	-9.8092
▁suunata	-9.81015
▁saaksime	-9.81029
Liigume	-9.81095
I	-9.81132
▁17.	-9.81143
▁loen	-9.81158
ksite	-9.81159
▁2012.	-9.81179
▁räägite	-9.81189
▁põhjaliku	-9.81224
▁kodus	-9.81329
▁suudame	-9.81356
▁kõikidele	-9.8145
▁ema	-9.81455
▁inimesele	-9.81472
▁väita	-9.81499
▁Kaitse	-9.815
▁elanike	-9.81575
▁liikmeid	-9.81603
▁ühistranspordi	-9.81619
Aga	-9.81689
loo	-9.81782
▁Enne	-9.81813
▁kordan	-9.81839
▁500	-9.81923
▁looma	-9.81926
▁Reps	-9.81977
▁valida	-9.8207
▁sellesama	-9.82107
▁olin	-9.82139
▁töös	-9.82195
▁P	-9.8231
▁Kõige	-9.82369
ba	-9.82383
▁läheks	-9.82408
▁Tuleb	-9.8241
ade	-9.82432
▁su	-9.82445
▁kahte	-9.82454
▁käi	-9.82552
▁kulusid	-9.82656
▁valitsusel	-9.82708
▁prognoosi	-9.82738
▁seisukohti	-9.82788
▁jaanuaril	-9.82834
▁Muidugi	-9.82908
▁vaadates	-9.8294
▁Tiidus	-9.82986
▁mitmel	-9.82987
▁arutati	-9.83037
▁arusaadav	-9.83082
▁naiste	-9.8309
▁tuletan	-9.83257
tegevuse	-9.8329
),	-9.83297
▁halb	-9.83323
▁Soomes	-9.83374
▁seisukoha	-9.83407
▁Nestor	-9.83417
lli	-9.83507
▁Sõerd	-9.83507
▁inimestega	-9.83546
▁teiselt	-9.83868
▁kaitsta	-9.83876
▁Indrek	-9.83904
▁meetmeid	-9.84019
▁sünni	-9.84151
▁energia	-9.84164
▁tähtaja	-9.84193
▁Pigem	-9.84198
▁Ratas	-9.84309
Peeter	-9.84342
demokraatide	-9.84371
▁iganes	-9.84554
seid	-9.84618
▁niivõrd	-9.84624
▁Sel	-9.84626
▁suureneb	-9.84711
▁käsitleb	-9.84737
▁siiamaani	-9.84824
▁seadusi	-9.8483
 000	-9.84852
▁10%	-9.84999
▁hinda	-9.85169
▁perioodi	-9.85182
strateegia	-9.85252
lepingu	-9.85301
▁transpordi	-9.8536
▁vastuste	-9.85544
▁inimesel	-9.8584
▁meetmed	-9.85938
▁parema	-9.85952
▁käima	-9.86028
▁jällegi	-9.86139
▁Haukanõmm	-9.86202
▁Tõesti	-9.86212
▁toetuste	-9.86227
▁Paraku	-9.86228
▁Mind	-9.86331
▁häid	-9.86461
▁Marika	-9.86462
▁vastused	-9.86517
tasu	-9.86523
▁puudega	-9.86557
▁töötukassa	-9.866
▁konkreetset	-9.86611
▁analüüs	-9.86706
▁esiteks	-9.86739
stada	-9.86841
▁avalduse	-9.86922
▁samme	-9.86996
▁Ühe	-9.87039
▁perekonna	-9.87071
maksu	-9.87111
komisjonilt	-9.87194
▁Adams	-9.87218
▁muudatuse	-9.8722
▁saime	-9.87244
▁ühis	-9.87432
▁pakutud	-9.87455
▁teel	-9.87483
di	-9.87641
▁elab	-9.87644
▁13.	-9.87662
▁viga	-9.87673
▁investeeringuid	-9.87722
▁täpsustav	-9.87731
rahanduskomisjon	-9.87784
▁kokkulepe	-9.87894
▁tõele	-9.87988
su	-9.87995
▁esindab	-9.88056
▁Rootsi	-9.88072
▁üleval	-9.88122
▁vajadust	-9.88139
▁Külliki	-9.88157
▁osale	-9.88158
kulude	-9.8818
▁loo	-9.88267
▁hakanud	-9.8827
▁21	-9.88274
kaitse	-9.88287
▁elada	-9.88345
▁teen	-9.88353
▁Panen	-9.88363
▁kaupa	-9.88378
▁toimetuleku	-9.88398
▁tahate	-9.88433
pu	-9.88553
▁teisest	-9.88571
▁Lätis	-9.88574
▁küsimusega	-9.88636
▁kursis	-9.88692
▁rõhutan	-9.88693
▁eelarvet	-9.88813
▁M	-9.88826
▁EKRE	-9.88832
▁hiljuti	-9.88832
▁müügi	-9.88866
▁esindajana	-9.88894
▁küsisin	-9.8904
▁ühiskond	-9.89059
▁kohalikele	-9.89069
▁Läheme	-9.89105
▁määruse	-9.89161
▁õigustatud	-9.89177
võt	-9.89186
misi	-9.8925
tesse	-9.89336
▁põhiseadusega	-9.89417
▁arusaam	-9.89459
tanud	-9.89464
nik	-9.89546
▁selgus	-9.89564
▁tundi	-9.89612
Riigikogu	-9.89655
▁arvestama	-9.89668
▁leiab	-9.8976
▁lahendust	-9.89862
▁toetanud	-9.89875
▁maakonna	-9.89905
▁ühelt	-9.89921
▁Välis	-9.90085
▁B	-9.90194
koha	-9.90198
▁Sellel	-9.90397
▁täitmise	-9.90403
▁meist	-9.905
▁28	-9.90545
▁pika	-9.90635
likke	-9.90664
▁15.	-9.90675
▁huvide	-9.90702
▁nimekirja	-9.90833
▁tänaseks	-9.90864
os	-9.90908
▁tõuseb	-9.91006
▁kasutamine	-9.91049
▁ülesandeid	-9.91068
▁ettevõtluse	-9.91128
▁ehitada	-9.91151
▁tunnistama	-9.91195
▁üldine	-9.91411
▁35	-9.91473
▁Igor	-9.91508
tavate	-9.91526
süsteem	-9.91577
sel	-9.91641
▁mahu	-9.91644
▁liit	-9.91702
▁eelmine	-9.91719
▁Rein	-9.91734
▁rakendamise	-9.91769
likud	-9.91782
▁väide	-9.91854
▁mahus	-9.91867
▁tahetakse	-9.91869
▁27	-9.9198
▁valdkond	-9.9198
▁vastuolus	-9.91992
▁Mitte	-9.92178
R	-9.92183
▁teab	-9.92235
sa	-9.92343
▁vastuolijaid	-9.92425
▁sõja	-9.92556
▁muutmine	-9.92572
▁absoluutselt	-9.9261
▁Rõivas	-9.92611
▁Madison	-9.9265
▁Jaanus	-9.92698
▁otsustanud	-9.92762
▁Ülikooli	-9.92923
▁liikmesriikide	-9.92981
▁kuuluvad	-9.93102
▁positsiooni	-9.93111
▁olles	-9.93159
▁mil	-9.93172
▁üheksa	-9.93191
M	-9.93203
▁Ra	-9.93237
▁kontrollida	-9.93265
▁kindlustus	-9.93362
no	-9.93402
Muudatus	-9.93459
teema	-9.93537
▁eesmärki	-9.93569
▁t	-9.93591
▁jäetud	-9.93602
▁sugugi	-9.93628
▁kontrollKohal	-9.93867
statud	-9.93977
▁vajalikud	-9.94067
▁kaalu	-9.94237
▁annavad	-9.94442
▁olev	-9.94539
▁aita	-9.94602
▁kesk	-9.94623
like	-9.94627
bu	-9.94677
▁meedia	-9.94706
▁meelega	-9.94727
▁summad	-9.94735
▁küsite	-9.94789
▁22	-9.94791
Euroopa	-9.94811
▁valitsusele	-9.94817
▁laua	-9.94899
lo	-9.94921
Läheme	-9.94961
▁osakaal	-9.95064
▁näidata	-9.95093
▁kavas	-9.95223
▁Viktor	-9.9526
▁selgub	-9.95265
▁konsensuslikult	-9.95271
▁32	-9.95315
▁rahvus	-9.95447
▁nõuded	-9.9551
▁kuue	-9.95557
▁relva	-9.95591
▁jõua	-9.95613
▁lepitud	-9.95707
▁rahvastiku	-9.9572
▁kanda	-9.95756
▁51	-9.95787
▁suund	-9.95849
▁meede	-9.95862
Selle	-9.95874
▁puudutas	-9.95885
).	-9.95892
ing	-9.95916
▁miljardit	-9.95918
päeva	-9.95951
▁oht	-9.95951
stamine	-9.95965
▁koosseisus	-9.95988
▁ettekanne	-9.96034
▁vahet	-9.96064
▁loodus	-9.9611
▁hinnang	-9.96144
▁tulumaksuvaba	-9.9615
▁rahu	-9.96174
▁alustada	-9.96208
luse	-9.96213
▁Esimese	-9.96244
um	-9.96245
väga	-9.9628
▁põhjustel	-9.96285
▁ametnikud	-9.96299
Nii	-9.96335
ngu	-9.96396
▁Riik	-9.96403
▁korralduse	-9.96411
▁Va	-9.96413
▁vormis	-9.96427
▁tugev	-9.96576
▁arve	-9.96671
▁Toobal	-9.96725
▁töökohti	-9.9682
▁liidu	-9.96836
▁Just	-9.96947
▁Minister	-9.96994
▁õiguste	-9.97021
▁tegelevad	-9.97055
▁komisjonide	-9.97101
▁andmete	-9.97138
tan	-9.97221
▁planeeritud	-9.9725
▁Põhja	-9.97365
▁vaatan	-9.97436
▁tõsi	-9.97452
eti	-9.97513
▁mitmes	-9.97538
▁kellelegi	-9.9765
▁palgad	-9.9776
▁Et	-9.97766
▁seisukohal	-9.97798
▁ülevaade	-9.97909
▁jõuame	-9.97961
aadi	-9.97989
▁lihtsam	-9.9801
▁regulatsioon	-9.98017
▁lugemiseks	-9.98031
▁juhtumi	-9.98077
▁sina	-9.98102
▁eesmärgi	-9.98126
kulud	-9.98159
▁kirjutada	-9.98207
ameti	-9.98224
▁avalikus	-9.98255
▁Talvik	-9.98263
liit	-9.98351
▁mõista	-9.98385
▁Randpere	-9.98455
▁kapitali	-9.98587
▁tegime	-9.98612
▁koolide	-9.98682
kond	-9.98806
▁8	-9.98912
▁liikuda	-9.98923
▁tegemise	-9.98932
▁45	-9.98952
▁tingimused	-9.98969
▁investeerimis	-9.99287
▁teemasid	-9.99303
▁Igal	-9.9932
▁valdkonda	-9.99341
▁saalist	-9.99407
▁paragrahvi	-9.99451
▁erinevate	-9.99474
▁23	-9.99503
dus	-9.9955
▁pe	-9.99717
▁millel	-9.99869
▁muudatuste	-9.9989
vastase	-9.99974
▁vastuvõtmise	-10.0005
▁välisminister	-10.0005
▁Hääletustulemus	-10.0007
▁tööl	-10.001
▁Eestit	-10.0013
▁majanduskasvu	-10.0014
kus	-10.0019
tis	-10.0019
▁infot	-10.0019
▁õigeks	-10.002
▁valiku	-10.0027
▁seisukohad	-10.0038
▁muudetakse	-10.0041
organisatsioonid	-10.0042
▁strateegia	-10.0042
▁seitse	-10.005
▁kasv	-10.0051
▁2011.	-10.0053
▁juhtunud	-10.0054
▁maal	-10.0062
▁kevadel	-10.0062
öö	-10.0064
ses	-10.0066
▁paljudes	-10.0068
▁10.	-10.0076
teenuste	-10.0084
pp	-10.0086
▁kohustuse	-10.0095
▁huvitab	-10.0104
alt	-10.0104
▁kõnes	-10.0104
▁Kaheksa	-10.0105
▁Eestist	-10.011
ima	-10.011
▁vanema	-10.0133
Ei	-10.0133
▁kõlas	-10.014
▁normaalne	-10.0145
▁eeskätt	-10.0146
▁süüdi	-10.015
▁euroni	-10.0156
▁jõudu	-10.0167
▁jätkub	-10.0174
▁Tema	-10.018
▁muutma	-10.0185
Tarmo	-10.0185
▁ühtse	-10.0186
▁Aas	-10.0186
▁pikka	-10.019
▁eelarvest	-10.0191
▁küsima	-10.0191
▁1. 	-10.0192
▁noor	-10.0194
valdkonna	-10.02
▁küsimustes	-10.0209
ena	-10.0211
▁jääks	-10.0213
▁kvaliteedi	-10.0214
▁sobi	-10.022
▁oodata	-10.0226
▁poliitilist	-10.0236
to	-10.0239
▁parlamendis	-10.0243
▁2.	-10.0243
▁omakorda	-10.025
▁nõunik	-10.0266
▁vajalikuks	-10.0281
▁tavaliselt	-10.0283
▁arupärimisele	-10.0289
▁Pevkur	-10.0292
▁mees	-10.0297
▁kaaluda	-10.0301
▁tarbija	-10.0303
küsimus	-10.0304
▁Artur	-10.0305
▁asjast	-10.0308
▁anti	-10.0308
▁leping	-10.0315
▁vahele	-10.0321
▁Oli	-10.0325
▁18.	-10.0332
▁konkreetsed	-10.0333
▁suurte	-10.0335
▁lisaraha	-10.0336
▁liikmetele	-10.0337
▁Riigikontroll	-10.0349
▁õigusi	-10.0352
▁määr	-10.0354
▁gaasi	-10.0357
▁ütle	-10.0359
"",	-10.0361
▁teistele	-10.0363
▁L	-10.0366
▁täitma	-10.0371
▁sageli	-10.0373
▁tahaksin	-10.0373
▁lähtuvalt	-10.0374
▁novembril	-10.038
▁kauba	-10.0381
▁tähtsa	-10.0382
misele	-10.0383
▁jagada	-10.0386
▁seisukohalt	-10.0387
▁vastutuse	-10.04
▁kuula	-10.0415
▁Eestile	-10.0418
▁tähele	-10.0421
▁niiviisi	-10.0433
▁laual	-10.0436
▁kava	-10.0437
▁vaadanud	-10.0438
▁huvitatud	-10.0443
▁õppida	-10.0454
▁tegemata	-10.0457
▁parandus	-10.0464
▁määratud	-10.0466
asi	-10.0467
▁lisada	-10.0468
▁mõnevõrra	-10.0471
▁valitud	-10.0475
▁protsent	-10.0477
▁Sellele	-10.0484
▁kujuta	-10.0486
▁piirivalve	-10.0488
▁Kolmandaks	-10.0489
▁kodanike	-10.049
▁kasuta	-10.0491
▁ametnike	-10.0491
▁ruumi	-10.0494
▁töötaja	-10.05
▁suuna	-10.051
▁puldist	-10.051
and	-10.0511
20	-10.0514
▁miinimumi	-10.0514
▁Samal	-10.0518
▁konkreetsete	-10.0518
▁38	-10.0523
▁mingite	-10.0544
▁9	-10.0548
kooli	-10.0558
▁kodakondsus	-10.0561
▁töötanud	-10.0566
▁3.	-10.057
▁heaolu	-10.0571
▁inimestest	-10.0584
▁IT	-10.0588
▁sõnum	-10.0592
▁dokument	-10.0594
▁kaitseminister	-10.0603
▁vaheaeg	-10.0625
ir	-10.063
▁küllap	-10.0631
stamise	-10.0632
▁karistus	-10.0633
▁mõelnud	-10.0638
▁novembri	-10.0643
ski	-10.0643
em	-10.0646
▁soovite	-10.0652
riik	-10.0655
▁Vaatame	-10.0664
▁ettevõtted	-10.0665
▁Komisjonis	-10.0675
▁80	-10.0686
▁kinnisvara	-10.0689
▁tekitada	-10.0695
▁debatt	-10.0699
▁Andrus	-10.0699
▁seadusest	-10.0701
▁tööta	-10.0706
▁minuti	-10.0717
▁muutu	-10.0721
▁fondi	-10.0723
▁Ilmselt	-10.0725
▁f	-10.0726
▁tead	-10.0727
▁eriala	-10.0731
▁kogukonna	-10.0732
▁teisiti	-10.0733
▁meditsiini	-10.0735
▁tegeleda	-10.0735
▁pluss	-10.0737
▁miinimum	-10.0741
▁mail	-10.076
▁lahenda	-10.0767
▁Balticu	-10.077
Krista	-10.077
▁isa	-10.0771
▁33	-10.0779
▁erinevalt	-10.0792
▁mainisin	-10.0792
▁niisama	-10.0794
▁muidu	-10.0794
▁kahel	-10.08
▁toetama	-10.0805
▁eestikeelse	-10.0806
▁seadustiku	-10.0806
▁vältida	-10.0808
▁26	-10.0822
▁hääletamise	-10.0824
▁14.	-10.0827
poolne	-10.0827
▁võite	-10.0827
▁nõue	-10.0827
▁struktuuri	-10.0829
▁9.	-10.0831
▁ministrid	-10.0832
▁perspektiivis	-10.0833
ub	-10.0841
▁juhtida	-10.0842
▁leia	-10.0846
▁laiem	-10.0847
▁Sester	-10.0853
▁prioriteet	-10.0857
▁tahtnud	-10.0859
▁Siit	-10.0863
▁katkestada	-10.0863
Tere	-10.0875
▁annaks	-10.0876
▁kaugele	-10.0877
▁ametisse	-10.0881
▁võimalda	-10.0888
▁ülesannete	-10.0895
▁igas	-10.0909
▁omavalitsustes	-10.091
▁lõpphääletus	-10.0922
▁tunni	-10.0922
▁teemad	-10.0922
▁koolides	-10.0925
▁Enn	-10.0929
▁tegemine	-10.0937
saa	-10.0944
▁õpilaste	-10.0954
▁asutuse	-10.0959
▁piima	-10.0961
Küsimused	-10.0963
▁Henn	-10.0966
▁tekivad	-10.0968
▁arendada	-10.0969
▁Kuigi	-10.0969
▁lipu	-10.0973
▁Põldaru	-10.098
toetust	-10.0981
▁võrdse	-10.0981
▁ütleksin	-10.0983
▁tunnistada	-10.0986
▁vahendid	-10.0991
▁ela	-10.0993
ult	-10.0994
▁tänavu	-10.0996
▁päevast	-10.0998
▁suudab	-10.1
see	-10.1001
▁käsitlemine	-10.1002
Ning	-10.1014
▁tööpäeva	-10.1014
▁rääkides	-10.1016
▁tuleva	-10.1018
▁maaelu	-10.102
mo	-10.1021
▁kodaniku	-10.1024
▁liiklus	-10.1024
▁kuskilt	-10.1025
▁tööjõu	-10.1028
▁eelnõude	-10.1029
▁tekitanud	-10.1037
ei	-10.1044
▁arvud	-10.1045
▁kuhugi	-10.1047
▁esimesele	-10.1048
▁lugenud	-10.1051
▁kommenteerida	-10.1057
▁omal	-10.1058
seks	-10.1067
▁vähendamise	-10.1067
▁maksuvaba	-10.1068
▁jõustumise	-10.1071
▁Mu	-10.108
▁Pa	-10.1087
▁Le	-10.1088
▁5.	-10.1091
▁Valitsust	-10.1096
▁põhjenda	-10.1098
▁Kaitseliidu	-10.1103
▁ajast	-10.1103
▁Helmen	-10.1105
▁piiratud	-10.1106
▁maksude	-10.1119
▁kirjelda	-10.1119
▁Saar	-10.1125
endi	-10.1142
▁dokumendi	-10.1149
▁Monika	-10.1153
▁siiani	-10.1157
▁ametis	-10.1159
▁menetluses	-10.1165
▁Kütt	-10.1174
▁2016	-10.1175
▁liikmena	-10.1176
▁asu	-10.1181
▁lastega	-10.1185
▁olulisi	-10.1191
▁Arto	-10.1193
sama	-10.1193
▁auväär	-10.1194
▁kirjutanud	-10.1195
▁ühiskonda	-10.1197
▁Pärast	-10.1198
sõna	-10.1202
▁tasub	-10.1208
▁täiendavalt	-10.1222
▁protsendi	-10.1224
▁20%	-10.1225
▁Sults	-10.1226
▁Pärnu	-10.1228
▁uuringu	-10.1233
ate	-10.1235
▁investeeringud	-10.124
▁protsenti	-10.1244
▁peetud	-10.1244
▁rakendus	-10.1248
▁katse	-10.1249
▁peamine	-10.1254
nduse	-10.1257
▁sedasama	-10.1259
poliitikat	-10.1262
▁projekt	-10.1264
▁kusjuures	-10.1265
▁piirkonnas	-10.1265
▁Raivo	-10.1268
▁ärge	-10.1271
kindlustuse	-10.1272
▁jätkuvalt	-10.1283
ratifitseerimise	-10.1284
▁tekiks	-10.1285
▁Probleem	-10.1285
▁Parlamendi	-10.1298
▁vanemad	-10.1299
▁abielu	-10.1306
▁2015	-10.1308
vara	-10.1311
▁eelnõust	-10.1316
▁tasakaalus	-10.1318
uks	-10.133
▁istu	-10.1336
toetuste	-10.1338
▁korraldamise	-10.1347
▁37	-10.1362
ho	-10.1363
▁70	-10.1369
▁toimib	-10.1377
▁Piirivalveameti	-10.1379
▁isiklik	-10.1379
▁fraktsioonilt	-10.1386
elu	-10.1391
▁minul	-10.1393
▁aastani	-10.1404
▁Lõuna	-10.1407
▁lähenemine	-10.1407
õigus	-10.1408
▁töökohtade	-10.1419
▁juhtimise	-10.142
▁reeglid	-10.1421
▁millist	-10.1425
▁vaatamata	-10.1426
▁korraga	-10.1427
▁langetada	-10.1429
▁investeeringu	-10.143
asutuste	-10.1433
▁kellelgi	-10.1441
▁loogiline	-10.1443
▁mälu	-10.1443
▁lubada	-10.1444
▁jahi	-10.1448
▁vormi	-10.1451
aeg	-10.146
▁palve	-10.1461
up	-10.1462
▁2018.	-10.1465
▁seadusesse	-10.1475
uuri	-10.1488
▁meeldi	-10.1489
▁klassi	-10.1489
▁Kristen	-10.1491
▁ohtu	-10.1499
▁kasulik	-10.1503
▁sada	-10.1503
▁asutuste	-10.1504
konkurentsivõime	-10.1506
▁asjaga	-10.1509
▁partei	-10.1513
▁pidama	-10.1516
sest	-10.1517
▁piirkonna	-10.1518
▁registri	-10.1518
▁debatti	-10.1519
Järgmine	-10.152
▁pilt	-10.1521
▁paneme	-10.1523
▁kõrgem	-10.1524
▁selliselt	-10.1529
Te	-10.153
▁täitmisel	-10.1531
olijaks	-10.1533
▁Balti	-10.1534
▁tulevikku	-10.1536
▁teatavasti	-10.1536
▁tasemele	-10.1537
▁väiksema	-10.1541
▁allkirja	-10.1541
▁kohustused	-10.1545
▁muudab	-10.1546
▁poliitiliste	-10.1555
▁möödunud	-10.1555
▁eelarvesse	-10.1556
▁mõnel	-10.1559
▁mõtlen	-10.156
▁sügisel	-10.1565
▁mandaadi	-10.1565
▁kool	-10.1568
uma	-10.157
Aitüma	-10.1571
▁teistsugune	-10.1572
▁Töö	-10.1587
▁kutsun	-10.1597
▁maht	-10.1597
▁erikomisjoni	-10.1604
▁teavad	-10.1609
?""	-10.1609
▁taotleda	-10.1614
▁õigusabi	-10.1615
keskus	-10.1616
▁viib	-10.1616
▁tahes	-10.1616
▁esindus	-10.1616
▁hääletuse	-10.1617
▁seadusele	-10.1618
▁seisukohast	-10.1618
▁saavuta	-10.1625
▁Margus	-10.1627
▁linn	-10.163
▁põhjused	-10.1635
▁asjaolu	-10.1636
▁inim	-10.1638
▁edu	-10.1639
▁300	-10.1642
▁tol	-10.1645
▁püüame	-10.1648
kava	-10.1648
▁lõpetatakse	-10.1648
▁näitavad	-10.1652
lasi	-10.1654
▁juhtus	-10.1654
▁puldis	-10.1657
▁Maa	-10.1674
▁siinkohal	-10.1683
▁pääste	-10.169
▁kurb	-10.1691
▁3,	-10.1695
▁Valdo	-10.1701
▁kõvasti	-10.1702
▁ilmselgelt	-10.1706
▁seos	-10.1707
▁kindlaks	-10.1708
▁alt	-10.1711
▁toetavad	-10.1714
sust	-10.1718
sektori	-10.1721
▁registreeritud	-10.1723
▁võrrelda	-10.1723
iministeeriumi	-10.1728
▁Kokk	-10.173
▁olulist	-10.1733
▁34	-10.1745
▁tekst	-10.1748
▁meeldib	-10.1748
▁juhtumeid	-10.1752
▁surve	-10.1752
▁käesoleva	-10.1754
▁valimise	-10.1757
▁oluliseks	-10.1763
▁Järgmine	-10.1773
▁kulutusi	-10.1774
▁17.15.	-10.1778
hoolekande	-10.1779
▁kasutatud	-10.1784
▁kogemus	-10.1788
▁lugesin	-10.1797
▁199	-10.1799
▁teadusminister	-10.18
▁reform	-10.1802
are	-10.1803
▁jõud	-10.1806
▁vastuses	-10.1809
▁taotluse	-10.1814
▁Palo	-10.1815
▁koostatud	-10.1821
▁andmetel	-10.1828
▁ennekõike	-10.1834
määra	-10.1838
▁pöörduda	-10.184
▁Re	-10.184
▁ettevõte	-10.1842
▁soo	-10.1843
▁vastava	-10.1844
▁..."	-10.1845
▁riigigümnaasium	-10.1849
▁tihtipeale	-10.1852
▁toetusi	-10.1852
▁rääkisime	-10.1854
▁arusaama	-10.1856
▁endise	-10.1858
▁positiivse	-10.1862
▁Kesk	-10.1866
▁mai	-10.1867
▁29	-10.1868
▁R	-10.1871
▁leppida	-10.1871
▁Ko	-10.1884
▁Juba	-10.1891
▁erakonnad	-10.1897
▁alguse	-10.1904
▁tubaka	-10.1907
▁rea	-10.1911
▁mainitud	-10.1911
▁ühiselt	-10.1912
▁36	-10.1912
▁küsi	-10.1924
▁küsimusest	-10.193
▁võimatu	-10.1931
▁seisab	-10.1932
▁algusest	-10.1934
N	-10.1934
▁Juhan	-10.1937
▁Selge	-10.1938
▁küsinud	-10.1942
▁keelatud	-10.1952
▁turul	-10.1957
▁oktoobril	-10.1959
▁probleemide	-10.1961
▁juuni	-10.1972
▁31	-10.1977
▁võtavad	-10.1979
▁ettepanekuga	-10.1979
▁pane	-10.198
▁diskussioon	-10.1981
▁vii	-10.1982
▁Ettekandja	-10.1982
▁konkreetseid	-10.1992
▁to	-10.2008
▁tahtsin	-10.2025
▁48	-10.2027
▁ülesanded	-10.2039
▁muutus	-10.2041
▁varsti	-10.2044
▁omavalitsuses	-10.2061
vaba	-10.2069
▁tegid	-10.2073
▁Inimesed	-10.2074
▁usalda	-10.2074
▁lähedal	-10.2075
▁mõtteid	-10.2076
▁olevate	-10.208
▁side	-10.208
▁maad	-10.2086
▁algab	-10.2086
▁vastutab	-10.2087
▁vanemate	-10.2087
valdkonnas	-10.2088
▁joo	-10.2109
programmi	-10.2109
▁hakkaks	-10.2117
▁püüan	-10.2124
▁reguleeritud	-10.2126
▁19.	-10.2128
▁hoone	-10.213
▁tõite	-10.2132
▁puudus	-10.2138
▁kaasatud	-10.2139
▁ekspordi	-10.2141
▁kõlanud	-10.2143
▁püüdnud	-10.2144
▁kutsutud	-10.2145
▁jutu	-10.2154
▁valdkondades	-10.2154
▁loodetavasti	-10.2161
▁kauem	-10.2161
▁õigused	-10.2165
▁küla	-10.2165
▁kannab	-10.2167
pidi	-10.218
▁Aadu	-10.218
▁esinda	-10.218
▁peetakse	-10.2181
▁automaatselt	-10.2183
▁isikliku	-10.2184
▁räägiti	-10.219
▁hulga	-10.2192
▁selleni	-10.2197
▁mõtle	-10.2198
▁rahast	-10.2201
▁praeguses	-10.2206
▁Üldiselt	-10.2207
▁päevakorras	-10.2213
▁neljanda	-10.2215
▁55	-10.2223
▁2,	-10.2223
▁sõnu	-10.2231
▁tegeleme	-10.2232
▁vastanud	-10.2235
▁isikud	-10.2239
▁juunil	-10.2239
idele	-10.224
▁lähiajal	-10.2242
▁aktiivselt	-10.225
▁räägivad	-10.2252
fondi	-10.2256
▁samba	-10.2256
▁kusagil	-10.2264
▁tööandjate	-10.2267
▁tutvustas	-10.227
▁Juhtivkomisjon	-10.2273
eeritud	-10.2274
▁rahastamine	-10.2275
▁üha	-10.2279
▁Võtame	-10.2281
▁märtsil	-10.2284
▁programm	-10.2285
▁hanke	-10.2301
rge	-10.2318
▁49	-10.2318
▁õigusloome	-10.2319
▁Seni	-10.232
▁võimaliku	-10.2328
▁Põhiseadus	-10.2332
▁nimi	-10.2337
▁tulemusi	-10.2341
▁Märt	-10.2343
▁käsitletud	-10.2343
▁põhiline	-10.2347
▁41	-10.2351
▁linnas	-10.2352
rid	-10.2352
▁Heljo	-10.2356
▁paljusid	-10.2358
▁Samamoodi	-10.2359
kust	-10.236
▁4.	-10.2363
▁juhtuda	-10.2367
▁tsiviil	-10.2372
▁arsti	-10.2374
▁aruande	-10.2377
▁perearsti	-10.2379
▁kohane	-10.2379
kuu	-10.238
▁rahvasaadikut	-10.2382
▁kaubandus	-10.2386
▁vald	-10.2393
usi	-10.2393
ent	-10.2394
▁suurus	-10.2395
▁loomise	-10.2398
set	-10.2398
▁kenasti	-10.2399
▁Seaduseelnõu	-10.2403
▁aprillil	-10.2405
▁reguleerida	-10.2405
▁kaotada	-10.2408
am	-10.2414
▁varasema	-10.2418
▁EAS	-10.2419
▁viitasite	-10.242
▁toimuma	-10.242
▁teistpidi	-10.242
▁sõlmitud	-10.2422
▁21.	-10.2426
▁täpsusta	-10.2429
▁hääletama	-10.2432
▁perioodil	-10.2435
▁riikidega	-10.2436
▁elektroonilise	-10.2438
▁Vabariigis	-10.244
▁kasutama	-10.2444
▁7.	-10.2445
▁rahaga	-10.2452
▁aus	-10.2458
▁täiendava	-10.2459
▁informatsioon	-10.247
▁jääma	-10.2473
▁riigireformi	-10.248
▁sõltumata	-10.2481
▁end	-10.2482
▁avalikkuse	-10.2485
▁leppinud	-10.25
▁toetused	-10.2501
▁noori	-10.2504
▁Tolliameti	-10.2507
▁Tänase	-10.2508
▁suuruse	-10.2514
▁ajaloo	-10.2515
▁2009.	-10.2523
▁Liitu	-10.2528
▁muutmist	-10.253
▁õpetajad	-10.2533
▁võlgu	-10.2542
▁maksmise	-10.2543
▁väliskomisjoni	-10.2552
▁seleta	-10.2555
▁muutuvad	-10.2556
▁pildi	-10.2557
▁debati	-10.2565
▁vaata	-10.2568
▁krooni	-10.2579
▁detsembri	-10.2585
▁sektoris	-10.2592
▁taastuvenergia	-10.2601
▁ehitatud	-10.2604
▁enese	-10.2605
▁näol	-10.2607
▁eeldab	-10.2611
▁paljudel	-10.2617
idega	-10.263
ooni	-10.2632
▁kasutavad	-10.2633
▁senti	-10.2633
▁tõde	-10.2633
▁erinevus	-10.2636
▁infotunnis	-10.2639
▁loodame	-10.2645
▁sündinud	-10.2646
▁menetleda	-10.2647
▁pakub	-10.2648
▁arendustegevuse	-10.265
liidu	-10.2652
▁veebruaril	-10.2654
tas	-10.2654
▁lauale	-10.2656
▁eelda	-10.2657
▁territooriumil	-10.2659
▁kohustust	-10.2661
seadust	-10.2662
▁hommikust	-10.2663
▁tehes	-10.2663
▁küsisite	-10.2666
▁välispoliitika	-10.2671
▁niisuguse	-10.2674
▁La	-10.268
üh	-10.2686
▁65	-10.2692
▁teenused	-10.2702
▁seitsme	-10.2705
iku	-10.2714
▁liikmeks	-10.2717
Lugupeetav	-10.2719
▁N	-10.2722
▁öeldi	-10.2725
▁analüüsida	-10.2726
tuks	-10.2736
▁sulgen	-10.2749
▁küsiti	-10.2751
▁keskmiselt	-10.2752
▁kohtute	-10.2762
▁ministrite	-10.2764
▁vastutust	-10.2767
▁rida	-10.2767
▁reaalne	-10.2771
kirja	-10.2772
vus	-10.2775
▁igasuguse	-10.2783
▁pead	-10.2786
▁tagama	-10.2789
▁tõenäosusega	-10.2789
ol	-10.2793
▁sõltumatu	-10.28
töötajate	-10.2803
▁millises	-10.2807
▁Teil	-10.2808
toetus	-10.2816
▁pankade	-10.2816
▁teenus	-10.2819
▁eeldus	-10.2823
▁Inara	-10.2824
palga	-10.2825
Teine	-10.2825
▁vahendite	-10.2826
▁1%	-10.2833
▁Eriti	-10.2833
▁Must	-10.2836
▁detsembril	-10.2836
▁poliitikat	-10.2841
Naer	-10.2845
▁ohu	-10.2846
▁kerge	-10.2848
▁ütleks	-10.285
▁arvesta	-10.2851
▁appi	-10.2852
▁eelista	-10.2854
▁kütuseaktsiisi	-10.2857
▁siht	-10.2858
▁loetelu	-10.2859
▁kellega	-10.2863
pea	-10.2866
▁mõjutada	-10.2868
▁Riigikaitse	-10.287
▁Eesmaa	-10.2871
▁Siim	-10.2871
koht	-10.2877
▁seisuga	-10.2879
▁tipp	-10.2883
▁selgitas	-10.2884
▁kuriteo	-10.2885
Külliki	-10.2888
▁esitati	-10.2895
▁Lugupeetav	-10.2897
▁asub	-10.2903
▁haigla	-10.2908
▁arvab	-10.2914
▁pärit	-10.2915
▁vangla	-10.2916
▁44	-10.2919
▁järelevalvet	-10.2922
▁endast	-10.2923
▁algatas	-10.2932
▁olemasolu	-10.2934
▁hakkas	-10.2935
▁viiakse	-10.2935
▁trahvi	-10.2939
▁seatud	-10.294
▁töötu	-10.2945
▁hooldus	-10.2946
▁palkade	-10.2947
▁po	-10.2948
▁kaota	-10.2955
▁jõudis	-10.2959
▁Erki	-10.2965
ministrile	-10.2972
▁kolleegi	-10.2973
▁riigieelarves	-10.2975
▁riigieelarvesse	-10.2976
▁Kallo	-10.2978
▁soovitan	-10.2981
▁vaidlus	-10.2982
▁variant	-10.2985
▁tähtsam	-10.299
teks	-10.2991
▁sisulise	-10.2993
▁kasutanud	-10.2994
▁dokumentide	-10.2998
▁juhtis	-10.2998
▁Tsahkna	-10.2998
▁kättesaadav	-10.3
tiiv	-10.3001
▁avata	-10.3002
usega	-10.3002
▁50%	-10.3003
▁majandust	-10.3003
▁Vastus	-10.3009
▁proovi	-10.3017
▁5000	-10.3023
▁ürita	-10.3027
▁muuda	-10.3028
▁maksavad	-10.3032
▁1000	-10.3034
▁tutvusta	-10.3034
▁valimised	-10.3036
▁töötasu	-10.304
▁lai	-10.3048
▁Vaadake	-10.3051
▁lihtsa	-10.3052
▁stenogrammi	-10.3055
▁tegelik	-10.3055
▁eeskuju	-10.3056
▁vahelise	-10.3058
▁valguses	-10.3062
▁toetas	-10.3063
▁ravimi	-10.3063
▁omandi	-10.3066
▁Lääne	-10.3067
▁6.	-10.3067
▁üldise	-10.3068
taja	-10.3069
▁konflikti	-10.3074
▁oleksime	-10.3077
▁elama	-10.3078
▁Osa	-10.3086
▁omavalitsustel	-10.3086
▁mismoodi	-10.3088
▁arvamusi	-10.3089
▁normaalse	-10.3092
▁Eestil	-10.3094
▁90	-10.3094
▁küsib	-10.3094
vas	-10.3097
▁kala	-10.3102
▁üli	-10.3102
▁Algab	-10.3102
▁Ju	-10.3104
▁Toom	-10.3107
▁teaduse	-10.3108
sioon	-10.3111
▁interneti	-10.3115
▁pääse	-10.3118
▁võtan	-10.3119
▁luuakse	-10.3127
▁lasta	-10.3134
▁Kohtu	-10.3141
ali	-10.3141
▁tulid	-10.3142
▁tähtsusega	-10.315
▁veebruari	-10.315
▁firma	-10.315
▁kehtivad	-10.3153
▁tulemuse	-10.3155
▁praegusel	-10.3158
▁ometi	-10.3162
▁tagab	-10.3162
▁valda	-10.3165
koalitsiooni	-10.3167
▁eelkõneleja	-10.317
▁eesmärgid	-10.3172
▁ollakse	-10.3172
▁üheks	-10.3175
▁kinnitatud	-10.3176
▁Tahan	-10.3183
▁pro	-10.3183
▁välista	-10.3185
▁paberi	-10.3188
▁Lihtsalt	-10.3192
▁põhja	-10.321
gem	-10.3211
▁Vastupidi	-10.3214
aar	-10.3215
▁aktsepteeri	-10.3218
▁toote	-10.3229
▁RMK	-10.3235
▁rõhutada	-10.3236
▁käsitleda	-10.3244
▁tehnoloogia	-10.3245
▁nõuda	-10.3253
▁USA	-10.3257
▁kõrgema	-10.3265
▁otsida	-10.3265
▁suurendab	-10.3265
ajalt	-10.3275
▁hääletust	-10.3277
▁tõ	-10.3278
▁Aeg	-10.328
▁nimetasite	-10.3281
▁Üle	-10.3284
▁poliitikud	-10.3289
▁H	-10.329
▁praktikas	-10.3291
▁auditi	-10.3292
▁kasutusele	-10.3293
▁1,	-10.3295
▁eeldan	-10.3299
▁sea	-10.3304
▁sunnitud	-10.3305
▁AS	-10.3305
▁Kokku	-10.3306
▁lahendatud	-10.3308
▁panustada	-10.3309
▁võimekus	-10.331
allika	-10.3311
▁niisugust	-10.3312
▁konsensuslik	-10.3314
▁kohtusse	-10.332
▁vali	-10.3326
▁kuskile	-10.3333
aastase	-10.3341
▁para	-10.3342
▁nõude	-10.3343
▁jutuks	-10.3344
▁kõikides	-10.3345
äh	-10.3345
▁MTÜ	-10.3345
▁sega	-10.3345
▁astuda	-10.3353
▁ilus	-10.3353
▁reeglite	-10.3361
▁koolid	-10.3362
ine	-10.3366
▁mistõttu	-10.3367
▁tarvis	-10.3367
▁püütakse	-10.3367
▁Täpselt	-10.3367
j	-10.3369
▁vastavad	-10.3373
▁Saksamaa	-10.338
▁nõukogude	-10.3383
▁meetme	-10.3386
▁nõnda	-10.3389
▁saamise	-10.3391
▁sõita	-10.3396
teist	-10.3396
▁töölepingu	-10.3397
▁teete	-10.34
▁Auväärt	-10.3402
▁sammud	-10.3403
▁erasektori	-10.3411
tulu	-10.3422
▁lühikese	-10.3422
▁Eesmärk	-10.3433
▁näidanud	-10.3433
▁täidetud	-10.3435
▁peaministrile	-10.3442
▁Laanet	-10.3445
tööd	-10.3453
▁registreeru	-10.3463
nenud	-10.3466
▁tänada	-10.3471
▁takso	-10.3473
▁panema	-10.3475
▁Minul	-10.3476
▁mitmesuguseid	-10.3478
▁äsja	-10.3478
▁39	-10.348
▁vä	-10.3489
▁riigilõivu	-10.3495
ude	-10.35
▁puhas	-10.3502
▁kutsuda	-10.3507
▁lasteaia	-10.3511
▁46	-10.3511
ori	-10.352
▁suudavad	-10.3521
tegevus	-10.3522
▁hommikul	-10.3523
▁täitmiseks	-10.3524
▁kuulsime	-10.3525
▁ettenähtud	-10.3526
▁Läbirääkimiste	-10.3527
▁hoo	-10.3527
▁tõe	-10.3534
▁muudetud	-10.3536
▁prokuratuuri	-10.3536
▁Eile	-10.3545
▁Maris	-10.3549
▁tulubaasi	-10.3551
▁investeerida	-10.3551
▁Pi	-10.3554
▁paremat	-10.3564
juht	-10.3564
▁halvasti	-10.3568
▁ootame	-10.3574
▁tase	-10.3575
▁eesistumise	-10.3577
▁osalenud	-10.3578
▁taseme	-10.3579
▁süü	-10.358
▁kahtluse	-10.3581
▁mõjuta	-10.3589
▁pakkunud	-10.359
▁riiklik	-10.3591
▁teistest	-10.3598
▁järgmiste	-10.3599
▁turismi	-10.3601
▁loobu	-10.3609
▁eesmärke	-10.361
▁lõppu	-10.362
▁kodanikud	-10.3622
▁loa	-10.3622
▁aitavad	-10.3624
▁viimaste	-10.3628
▁asjadest	-10.3628
ld	-10.3631
▁43	-10.3633
▁sisuka	-10.3639
▁seadused	-10.3639
▁kolmandat	-10.3641
▁septembril	-10.3642
▁lahendamise	-10.3648
▁kooseluseaduse	-10.365
▁in	-10.3653
▁kujunenud	-10.3655
▁kampaania	-10.3657
▁Riigikokku	-10.3659
▁pandi	-10.3661
▁rahapesu	-10.3661
▁juhatusele	-10.3662
▁sügava	-10.3663
▁jään	-10.3663
▁kohalikke	-10.3665
▁kaugel	-10.3667
▁vanem	-10.3668
▁algatajate	-10.3672
▁Riisalu	-10.3681
▁tõstmine	-10.3681
Valdor	-10.3682
▁igaüks	-10.3682
▁nõudeid	-10.3683
▁kommunikatsioon	-10.3685
▁häda	-10.3687
▁tõin	-10.3699
eni	-10.37
▁põhjendus	-10.3701
▁paha	-10.3701
▁viidud	-10.3704
▁Vakra	-10.3704
▁suhtumine	-10.3707
▁Meile	-10.3709
▁arusaamatu	-10.371
ristusseadustiku	-10.3716
▁toimuvad	-10.3717
▁lähi	-10.372
▁Läbirääkimis	-10.3724
▁kindla	-10.3724
▁täida	-10.3726
▁Arupärijate	-10.3727
▁jätkan	-10.3727
▁koju	-10.3729
▁omavalitsusele	-10.3731
▁langeb	-10.3732
▁lähtuda	-10.3733
ida	-10.3736
▁õppekava	-10.3737
▁maksud	-10.3742
vä	-10.3748
▁hoolimata	-10.3751
▁ülikooli	-10.3755
▁muul	-10.3762
▁5,	-10.3764
▁otsusega	-10.3765
▁ühiskonnale	-10.3768
▁teeni	-10.3773
▁kasvavad	-10.3774
▁püsti	-10.3776
▁oleksin	-10.3776
Martin	-10.3785
▁kodanik	-10.3793
▁Kolleeg	-10.3794
▁kohtuniku	-10.3794
▁jaanuarist	-10.3796
▁47	-10.3798
aks	-10.3799
▁arupärimist	-10.3802
reid	-10.3805
▁tehta	-10.381
▁42	-10.3814
▁mängi	-10.3816
▁kestab	-10.3818
▁pidades	-10.3819
▁pihta	-10.3819
▁liigub	-10.3823
▁pension	-10.3824
nä	-10.3828
leping	-10.383
▁oligi	-10.3833
Tuletan	-10.3834
c	-10.3836
▁kandidaadi	-10.3847
maja	-10.385
▁teki	-10.3857
▁bussi	-10.3861
▁lahku	-10.3867
deks	-10.3868
idest	-10.387
▁tugeva	-10.3871
▁b	-10.3874
▁tutvustada	-10.3875
▁tegevused	-10.388
▁siinsamas	-10.3889
▁laadi	-10.3889
▁kommenteeri	-10.389
kuse	-10.3891
▁Savisaar	-10.3893
▁lähtub	-10.3895
▁tegemisel	-10.3895
▁näita	-10.3897
▁Rahva	-10.3902
▁käsi	-10.3908
▁maksustamise	-10.3909
▁Valitsusele	-10.3912
▁alust	-10.3915
▁poliitikute	-10.3917
▁pealkirja	-10.3921
▁milliste	-10.3923
▁kaob	-10.3928
▁päri	-10.3934
▁vajaliku	-10.3934
Aplaus	-10.3935
▁20.	-10.3944
hvusringhäälingu	-10.3962
▁meetmete	-10.3971
summa	-10.3972
▁avalda	-10.3972
▁Pank	-10.3982
▁erineva	-10.3984
▁2018	-10.3986
▁Annan	-10.3989
▁keela	-10.3992
▁tüüpi	-10.3994
▁lähen	-10.3995
iks	-10.3997
fi	-10.4
▁juhtide	-10.4003
▁suurusjärgus	-10.4003
▁juriidilise	-10.4005
▁esitama	-10.4005
turu	-10.4009
▁ettevõtjatele	-10.4009
▁400	-10.4017
▁laiema	-10.4026
▁õpeta	-10.4027
▁looduskaitse	-10.4029
▁2010.	-10.403
▁laiali	-10.4031
▁tulemused	-10.4032
▁tulude	-10.4039
▁Kust	-10.404
▁fakt	-10.4043
▁no	-10.4049
▁teemadel	-10.4053
elge	-10.4056
▁poleks	-10.4057
je	-10.4059
ppi	-10.406
▁jälgida	-10.4061
▁saamiseks	-10.4062
▁käe	-10.4066
▁Pikhof	-10.4074
▁inglise	-10.4077
kohustus	-10.4077
▁üheselt	-10.4078
▁isikut	-10.4078
▁eesmärgil	-10.4079
▁tõstmise	-10.408
▁kasuks	-10.4094
▁kuul	-10.4097
▁hääle	-10.4106
▁Pomerants	-10.411
eta	-10.4114
▁astme	-10.4118
▁käsitle	-10.4119
▁kvaliteet	-10.4119
elda	-10.412
▁liini	-10.4124
▁juhtu	-10.4132
▁suuresti	-10.4133
▁senise	-10.4135
▁üksi	-10.4135
▁tere	-10.4139
▁avasta	-10.4141
▁valitsust	-10.4144
▁Ameti	-10.4144
▁osalesid	-10.4144
▁süüdista	-10.4145
▁si	-10.4153
stab	-10.4158
▁sõnad	-10.4165
teenust	-10.4166
lase	-10.4168
asutuse	-10.4168
▁loob	-10.4169
komisjonile	-10.4171
▁vaielda	-10.4171
▁ve	-10.4177
▁direktiiv	-10.4179
eerimise	-10.4182
▁pöörata	-10.4182
▁tingitud	-10.4197
▁sisuline	-10.4198
▁Isegi	-10.4198
▁aspekti	-10.4199
▁nõustu	-10.42
▁toona	-10.4204
▁üldist	-10.4205
▁meeste	-10.4212
▁kinnitanud	-10.4212
aste	-10.4214
▁arengufondi	-10.4215
▁Arupärimisele	-10.4215
▁Vabaerakond	-10.4221
▁püha	-10.4225
▁vähendab	-10.4228
▁raamatu	-10.4233
▁Praegune	-10.4234
▁arendus	-10.4234
▁kindlalt	-10.4235
▁2013	-10.4235
.)"	-10.4238
▁Iva	-10.4241
▁52	-10.4245
▁turule	-10.4245
esse	-10.4245
▁lühike	-10.4246
▁väidan	-10.4246
▁vastamise	-10.4248
▁laiendada	-10.4252
▁tohutu	-10.4255
▁leiame	-10.4255
▁ressursse	-10.4256
▁teabe	-10.4265
▁8.	-10.4268
▁Borodi	-10.4268
▁rääkimata	-10.4269
õppe	-10.427
unud	-10.427
ndatud	-10.4271
ministeeriumiga	-10.4274
▁nõuete	-10.4276
▁hinnangut	-10.4279
▁teilt	-10.4288
▁kulutused	-10.4288
päev	-10.4291
▁suureks	-10.4293
janduskomisjoni	-10.4294
▁lõpeb	-10.4295
▁Jutt	-10.4295
▁sund	-10.4295
▁pikendada	-10.4299
▁algatada	-10.4299
▁Seaduse	-10.43
▁põle	-10.4303
▁seada	-10.4307
öderatsiooni	-10.4309
▁väiksemad	-10.431
iti	-10.4316
▁üksik	-10.4318
▁loomulik	-10.4322
▁soovitus	-10.4328
▁2020	-10.4332
▁tundu	-10.4333
▁esitasid	-10.4337
▁An	-10.4337
▁riigiabi	-10.4337
▁puuetega	-10.4341
▁kaasata	-10.4341
▁Poola	-10.4345
▁Sama	-10.4345
▁tulebki	-10.4355
▁aine	-10.4356
▁institutsiooni	-10.4358
▁märgi	-10.4359
▁erivajadustega	-10.4366
▁sihi	-10.4372
▁pani	-10.4372
▁Rainer	-10.4373
pool	-10.4376
rite	-10.4382
▁koosseis	-10.4384
eniss	-10.439
▁kohti	-10.4391
▁jõustub	-10.4393
▁Iseenesest	-10.4394
▁Sellist	-10.4394
▁Pean	-10.4396
▁2017	-10.4401
aastane	-10.4402
selle	-10.4405
▁Mille	-10.4409
▁Narvas	-10.4409
▁5%	-10.4409
▁seejärel	-10.4414
▁liikuma	-10.4415
▁ainus	-10.4415
▁riigihalduse	-10.4417
▁kur	-10.4418
▁tootmise	-10.4419
▁hääletus	-10.442
▁Sest	-10.4425
▁ajada	-10.4427
▁läbirääkimistel	-10.4428
▁nimeta	-10.4432
▁jaanuari	-10.4435
▁näitaja	-10.4436
▁tuleme	-10.4437
▁tugi	-10.4437
▁reageeri	-10.444
▁täiendavat	-10.4442
keskuse	-10.4445
kui	-10.4445
▁müüa	-10.4446
▁kasutamist	-10.4448
registri	-10.445
▁Seadus	-10.4452
▁maade	-10.4457
▁personali	-10.4461
▁eksami	-10.4464
▁tõsise	-10.4465
▁puu	-10.448
▁lubanud	-10.4484
▁otsi	-10.449
▁juhtum	-10.4492
▁kasutades	-10.4496
▁Anvelt	-10.4496
▁tubli	-10.4497
▁temaatika	-10.4499
▁tingimustes	-10.4506
oli	-10.4508
▁Stalnuhhini	-10.4513
▁Pentus	-10.4514
▁rahulikult	-10.4519
▁Põllumajandus	-10.4519
▁loe	-10.452
▁eelnõusse	-10.4522
▁töötama	-10.4524
Aivar	-10.4524
▁toetan	-10.4524
ika	-10.4527
▁avalikku	-10.4528
▁uudis	-10.4528
▁jäid	-10.4536
▁omad	-10.4536
▁õppima	-10.4538
▁viienda	-10.454
▁rahvast	-10.4546
▁arupärijate	-10.4548
▁teeks	-10.4558
▁seekord	-10.4563
▁kaasas	-10.4569
▁sõ	-10.4569
▁ülemineku	-10.4572
▁mängu	-10.4578
▁Vabandust	-10.458
▁esmaspäeval	-10.458
las	-10.458
▁suvel	-10.4581
▁andmise	-10.4583
▁tekita	-10.4586
kultuuri	-10.4588
▁Ent	-10.4592
▁rõhu	-10.4594
▁hindate	-10.4599
▁tahe	-10.4599
▁jätkusuutlik	-10.46
▁piirangud	-10.4602
▁tarbimise	-10.4603
▁venekeelse	-10.4604
▁huvid	-10.4609
▁moodustamine	-10.4618
mõ	-10.462
kord	-10.4629
▁pööra	-10.463
▁toetamise	-10.463
▁tegemiseks	-10.4634
▁edasise	-10.4634
▁Kohtla	-10.4638
▁Tuiksoo	-10.4638
▁rahvusvaheline	-10.4638
▁mitmesuguste	-10.4638
▁Su	-10.4638
▁kohtus	-10.4641
▁tunda	-10.4645
▁64	-10.4646
▁Michal	-10.4649
ib	-10.465
▁2000	-10.4654
▁2%	-10.4658
▁igasuguseid	-10.466
▁huve	-10.4663
▁Sild	-10.4663
Mul	-10.467
▁tegutseda	-10.4672
▁puhtalt	-10.4673
Minu	-10.4675
▁sõit	-10.4677
▁määrati	-10.468
▁seisukohtade	-10.468
▁õpi	-10.4685
▁nõuetele	-10.4687
▁seadusmuudatuse	-10.4688
▁juhtinud	-10.4688
arve	-10.4691
▁avalikkusele	-10.4692
eerida	-10.4695
▁kaitseväe	-10.4695
Mart	-10.4699
▁pikemalt	-10.47
▁kuivõrd	-10.47
▁ettepanekute	-10.4701
▁Neeme	-10.4702
▁kasutab	-10.4703
▁ettepanekul	-10.4706
▁Keskuse	-10.4712
▁enamasti	-10.4714
nõukogu	-10.4715
▁ettevõtteid	-10.4715
▁naised	-10.4716
▁spetsialistid	-10.4719
▁astu	-10.4721
▁nõustuda	-10.4723
▁2014	-10.4726
Meie	-10.4726
▁Tõnis	-10.4727
▁majanduskasv	-10.4729
isa	-10.4732
▁argument	-10.4736
▁Luigas	-10.4736
▁piinlik	-10.4739
▁samasugune	-10.474
▁seaduseelnõuga	-10.4745
▁mõistliku	-10.4748
▁juhin	-10.475
▁vastasin	-10.475
▁esineja	-10.476
stama	-10.4763
▁ekspertide	-10.4775
▁näevad	-10.4776
▁75	-10.478
▁pilti	-10.478
enda	-10.4781
▁asenda	-10.4782
ministeeriumil	-10.4782
▁väikeste	-10.4792
▁Eelmise	-10.4792
▁põhimõtteline	-10.4792
kat	-10.4793
kasu	-10.4801
sotsiaalminister	-10.4801
▁kirjuta	-10.4802
kontrolli	-10.4802
▁riikidest	-10.4803
▁mingis	-10.4805
hinna	-10.4805
▁lugema	-10.4806
▁aseesimehe	-10.4815
▁peamiselt	-10.4815
▁olime	-10.482
▁eraldatud	-10.482
nne	-10.4822
▁valijate	-10.4825
▁viinud	-10.4825
Proua	-10.4829
5%	-10.4831
▁turva	-10.4835
▁lahendused	-10.4835
▁järgmist	-10.484
▁spiiker	-10.484
▁endal	-10.4841
▁suve	-10.4843
▁müü	-10.4848
▁Toon	-10.4849
kultuuriminister	-10.485
▁olemasoleva	-10.4853
▁suuremaid	-10.4854
▁tõusnud	-10.4855
▁tööstus	-10.4862
▁tulemusel	-10.4865
▁Lenk	-10.4866
▁Seos	-10.4867
ettevõtete	-10.4868
▁lapsele	-10.4869
▁raja	-10.4871
▁väikesed	-10.4872
▁tuge	-10.4875
▁hindamise	-10.4877
▁saagi	-10.4879
▁koostamise	-10.488
▁parim	-10.4882
ver	-10.4884
▁otsusena	-10.4885
▁palgatõusu	-10.4889
▁täiendavaid	-10.4891
▁huvitava	-10.4891
▁missuguse	-10.4896
Küsimus	-10.4904
H	-10.4908
▁avalikult	-10.4908
▁statistikat	-10.491
▁teistel	-10.4911
väär	-10.4914
eg	-10.4915
▁mõnikord	-10.492
▁mehed	-10.492
▁äriühingu	-10.4922
▁samasuguse	-10.4922
tee	-10.4923
▁eesmärkide	-10.4925
▁ootab	-10.4926
▁osalevad	-10.4931
▁kuupäeva	-10.4934
▁täiendav	-10.4934
▁nägi	-10.4935
statakse	-10.4935
tunni	-10.4935
▁sõnaga	-10.4937
▁toimi	-10.4941
▁Paljud	-10.4942
▁võimalikud	-10.4943
▁korraldatud	-10.4945
▁OE	-10.4945
▁arengut	-10.495
▁sadama	-10.4953
▁piirkondades	-10.4964
▁ettevõtjaid	-10.4965
▁kaitstud	-10.4969
▁õiglane	-10.4969
▁ülikoolide	-10.497
▁jälgi	-10.4971
▁Kolmas	-10.4977
▁arenda	-10.4985
▁panus	-10.4985
▁järgmistel	-10.4985
▁asutus	-10.4987
▁suurendamise	-10.4987
▁selgita	-10.4988
▁ministeeriumis	-10.4991
▁sularaha	-10.4995
▁tegevuskava	-10.4997
▁kriitika	-10.4999
▁kallis	-10.5001
▁Eelmisel	-10.5008
▁viimased	-10.5009
▁operatsiooni	-10.5016
▁kajasta	-10.5026
▁Karilaid	-10.5028
▁tahte	-10.5028
▁otsima	-10.5028
ondi	-10.503
▁endi	-10.5032
▁signaali	-10.5036
▁erakonda	-10.5042
ige	-10.5044
▁piirata	-10.5044
▁omanik	-10.5049
▁senisest	-10.5049
▁Tõenäoliselt	-10.505
oma	-10.5057
▁infosüsteemi	-10.5058
▁kohalikel	-10.5058
ettevalmistamist	-10.5065
▁53	-10.5068
▁viibi	-10.507
▁kolmandale	-10.5071
miste	-10.5073
▁kehtestamise	-10.5073
▁null	-10.5078
▁lõige	-10.508
▁sätestab	-10.5081
▁kasumi	-10.5083
ndamise	-10.5083
vahendite	-10.5086
▁Tartus	-10.5086
iv	-10.5087
tamiseks	-10.509
▁kooskõlla	-10.51
reformi	-10.5103
▁küsitud	-10.5107
▁küsimustega	-10.5108
mäe	-10.5116
▁valija	-10.5122
▁Seeder	-10.5123
▁Põhjus	-10.5126
▁külas	-10.5127
▁võimelised	-10.513
kor	-10.5135
▁seisus	-10.5135
▁koolitus	-10.5139
▁de	-10.514
▁liikmesriigi	-10.514
▁loomine	-10.5144
▁võrdselt	-10.5147
▁tegutse	-10.5147
▁maine	-10.515
▁surma	-10.515
▁üldjuhul	-10.5153
aat	-10.5155
▁vaatab	-10.5165
▁pagulaste	-10.517
Mihhail	-10.517
▁võla	-10.5171
▁nädal	-10.5172
▁tänapäeva	-10.5173
▁ainuke	-10.5175
▁mõlema	-10.5176
▁Mõni	-10.5179
▁lõppkokkuvõttes	-10.5179
▁vägivalla	-10.5179
▁kõikidel	-10.5188
ak	-10.5197
▁4,	-10.5201
▁arstide	-10.5201
rik	-10.5201
▁kümneid	-10.5202
▁Tu	-10.5204
▁tuuakse	-10.5206
▁kange	-10.5207
▁sõltu	-10.5218
▁tark	-10.5223
▁säte	-10.5223
Urve	-10.5224
▁Kus	-10.5227
▁aprilli	-10.5229
▁ravikindlustuse	-10.523
▁vaeva	-10.5231
▁korrektne	-10.5232
▁juhuks	-10.5232
▁siiralt	-10.5232
▁õigel	-10.5233
▁püsi	-10.5235
▁kadunud	-10.5235
kulu	-10.524
hariduse	-10.5251
▁fakti	-10.5252
▁U	-10.5253
▁asjadega	-10.5255
▁leidma	-10.5259
▁22.	-10.5264
▁märtsi	-10.5265
▁Põhimõtteliselt	-10.5266
▁Efendijev	-10.5267
vu	-10.5269
▁78	-10.5271
▁ministrina	-10.5283
▁muutmiseks	-10.5288
▁rääkisid	-10.529
Ka	-10.5295
▁miljardi	-10.5295
tuna	-10.5298
▁lõuna	-10.5302
▁selged	-10.5302
▁eksperdid	-10.5312
▁uuringute	-10.5313
▁digi	-10.5313
▁otstarbekas	-10.5313
▁kavandatud	-10.5317
▁vastuvõtmist	-10.532
põhise	-10.532
▁avaldanud	-10.5321
ntsinspektsiooni	-10.5322
▁keeldu	-10.5326
ndada	-10.5329
▁liikmel	-10.5331
▁Nõukogude	-10.5332
▁paremad	-10.5332
▁metoodika	-10.5339
piiri	-10.5345
▁rahandusministr	-10.5358
▁piisa	-10.536
▁minnakse	-10.5367
▁tund	-10.5368
▁lõpetan	-10.5368
▁maantee	-10.5369
▁sind	-10.5371
▁ideed	-10.5371
▁hinnad	-10.5374
▁Eestimaa	-10.5376
▁teenistuse	-10.5387
▁organisatsioon	-10.5387
▁seadusmuudatus	-10.5389
▁paranda	-10.5392
▁Kaljuvee	-10.5393
▁ro	-10.5399
▁sotsiaalse	-10.5401
▁kohtades	-10.541
▁toimu	-10.5417
▁Riigikohus	-10.5421
▁esma	-10.5422
poole	-10.5425
▁aegade	-10.5427
▁lennu	-10.5429
▁aktiivse	-10.543
▁talu	-10.5437
▁muide	-10.5445
▁tööminister	-10.5446
▁kuritegude	-10.5448
▁pensionäride	-10.5448
▁erivajadusega	-10.5448
▁eralda	-10.5449
▁Ühendriikide	-10.545
▁viima	-10.5451
tule	-10.5451
▁suurenda	-10.5454
▁kliima	-10.546
▁Ütlen	-10.5463
▁2019.	-10.5465
▁kaitset	-10.5469
▁esimeses	-10.5476
mate	-10.5476
punkti	-10.5479
▁kõigest	-10.5481
▁austa	-10.5489
▁deklaratsiooni	-10.5491
▁naa	-10.5492
▁kandidaat	-10.5493
protsessi	-10.5493
▁laiene	-10.5493
▁arvavad	-10.5493
▁ilusa	-10.5496
dEttepaneku	-10.5496
B	-10.5496
panga	-10.5498
▁leitakse	-10.5502
▁57	-10.5503
▁igasugune	-10.5505
▁taastada	-10.5507
▁valikuid	-10.5507
▁madala	-10.5509
▁54	-10.551
sete	-10.5517
▁omaette	-10.5517
aegse	-10.5525
korralduse	-10.5525
ministeeriumile	-10.5529
▁põllumeeste	-10.5529
▁okupatsiooni	-10.553
▁toetame	-10.553
▁turg	-10.5531
▁väljakutse	-10.5533
▁õnnestunud	-10.5535
▁põhiliselt	-10.5538
▁leian	-10.5542
▁Val	-10.5544
▁tulenevad	-10.5545
alkoholiaktsiisi	-10.5548
Henn	-10.5551
▁tagantjärele	-10.5557
▁leitud	-10.5557
▁aset	-10.5558
▁tunnista	-10.5558
▁esitaja	-10.5559
▁oktoobri	-10.5559
▁kantud	-10.5559
▁põ	-10.5562
▁säilitada	-10.5563
▁kütte	-10.5569
▁võimekust	-10.557
▁kirjalikult	-10.5572
▁loota	-10.5574
▁eelmisele	-10.5575
▁eelmises	-10.5576
▁riigieelarvet	-10.5576
▁kehtiv	-10.5578
▁areng	-10.5585
▁rongi	-10.5585
▁noortele	-10.5586
neb	-10.5587
▁õigemini	-10.5588
▁jätkame	-10.5591
▁2008.	-10.5591
▁elanud	-10.5596
▁Vaheaeg	-10.5598
ev	-10.5603
Urmas	-10.5607
▁võtmise	-10.561
▁kujunda	-10.5611
▁teosta	-10.5611
▁mõistlikum	-10.5614
▁kon	-10.5618
▁konkursi	-10.5619
▁sõidu	-10.562
▁esindatud	-10.562
▁komisjonile	-10.562
▁puutu	-10.5624
jatele	-10.5633
atsioon	-10.5634
▁esindajatega	-10.5635
▁Viljandi	-10.5635
▁põhimõtte	-10.5644
▁muudatust	-10.5644
▁jätab	-10.5645
▁baas	-10.5647
▁Suure	-10.5647
▁lahendamiseks	-10.565
▁keskendu	-10.565
▁keskmisest	-10.5653
▁kehti	-10.5656
▁kompromissi	-10.5663
▁Millal	-10.5668
▁Tähendab	-10.5668
▁koole	-10.567
▁kompromiss	-10.567
▁viitasin	-10.5672
▁nimetatakse	-10.5674
▁miinus	-10.5676
hk	-10.5679
▁Eelnõuga	-10.568
▁seletada	-10.568
9%	-10.5681
▁korralikult	-10.5682
stamist	-10.5684
▁pakkumise	-10.5686
▁kommentaari	-10.5689
ministeeriumist	-10.569
▁neljas	-10.5692
▁erakoolide	-10.5695
▁madalama	-10.5695
▁millegipärast	-10.5696
▁esitatakse	-10.5699
Ja	-10.5701
▁tohib	-10.5702
▁panuse	-10.5707
▁vabadus	-10.5713
▁riigist	-10.5714
▁märkus	-10.5716
▁Mikser	-10.5717
▁Vahe	-10.572
▁rahvale	-10.5724
▁kanna	-10.5727
▁Arupärimine	-10.5728
uste	-10.5735
▁reguleeri	-10.5737
▁jõudma	-10.574
▁euroala	-10.5742
▁pädevus	-10.5743
▁parlamentaarse	-10.5744
▁olukorrast	-10.5747
▁võimaluste	-10.5747
▁tõhus	-10.5752
▁struktuurse	-10.5753
▁kohtunike	-10.5753
veo	-10.5754
▁Oleks	-10.5759
▁võtate	-10.5767
▁maavalitsuste	-10.5769
▁osapooled	-10.5773
▁ülesande	-10.5773
▁pöördu	-10.5773
▁aegadel	-10.5776
▁stabiilsus	-10.5777
akt	-10.5777
ruumi	-10.5778
kku	-10.5778
▁suurel	-10.578
▁Luik	-10.578
▁praeguste	-10.5781
▁Heimar	-10.5782
▁tutvuda	-10.5787
▁oota	-10.5789
keskkonna	-10.5789
▁ent	-10.579
▁tegevusi	-10.5793
menetlus	-10.5793
▁sõjalise	-10.5797
nti	-10.5803
▁andmine	-10.5805
▁mandaati	-10.5806
▁kättesaadavus	-10.5807
▁niikuinii	-10.5808
▁sajandi	-10.5811
▁audit	-10.5816
▁suurendamine	-10.5816
▁põhjalik	-10.5818
käi	-10.5827
tades	-10.5827
▁kütust	-10.5832
▁viies	-10.5834
põhine	-10.5836
▁liitu	-10.5837
▁risk	-10.5838
▁kultuur	-10.5839
▁Lembit	-10.5847
▁Aasta	-10.5847
▁päriselt	-10.585
▁kodakondsust	-10.5855
▁liigume	-10.5868
▁keerulisem	-10.5869
tavat	-10.5872
▁võimalikke	-10.5873
▁erapooletu	-10.5874
▁tahaksime	-10.5875
▁mõtleme	-10.5875
▁rahulda	-10.5876
▁piira	-10.5878
ata	-10.5887
▁nähakse	-10.5893
kad	-10.5894
▁saamata	-10.5895
▁erakordselt	-10.5896
▁vaatasin	-10.5896
▁ühinemise	-10.5898
organisatsiooni	-10.5899
▁majandusliku	-10.59
▁täidab	-10.5904
▁tööga	-10.5905
▁eelnevalt	-10.5905
Marti	-10.5908
▁haiglate	-10.5911
▁pr	-10.5913
▁esine	-10.5918
üle	-10.5919
▁Küsin	-10.5928
▁vähendamine	-10.5928
▁pöördunud	-10.593
▁katta	-10.5932
mahu	-10.5933
▁vabatahtlikult	-10.5935
kohtu	-10.5935
▁ausad	-10.5936
▁erakorralise	-10.5939
▁planeeri	-10.5939
▁õhtu	-10.5946
▁kõnealuse	-10.595
▁uurida	-10.595
▁Eldar	-10.595
▁hetk	-10.5954
▁vanuse	-10.5957
last	-10.5957
▁endine	-10.5959
▁kasvata	-10.5961
▁ostu	-10.5962
leppe	-10.5967
▁lõpetanud	-10.597
▁toreda	-10.5974
▁17.15	-10.5976
▁Aaviksoo	-10.5978
▁seisu	-10.5978
▁Alati	-10.598
tsu	-10.5984
rvishoiuteenuste	-10.5985
sele	-10.5985
▁ravimite	-10.5986
▁vääri	-10.5989
▁must	-10.5991
▁lastekaitse	-10.5992
▁korraks	-10.5994
▁riigikontrolör	-10.5994
▁võrgu	-10.5995
▁laienda	-10.5997
▁võrdlus	-10.6003
▁Ken	-10.6003
▁tegutsevad	-10.6006
koalitsioon	-10.6007
▁viidatud	-10.6008
▁võtsid	-10.6009
▁hetke	-10.6011
poolse	-10.6013
▁6,	-10.602
aalne	-10.6023
mees	-10.6027
▁las	-10.6029
▁rahastamist	-10.6029
▁vaheaja	-10.603
▁Ain	-10.6031
▁kokkuleppele	-10.6034
sotsiaalkomisjon	-10.6035
%.	-10.6038
▁Vabariik	-10.6038
▁sattunud	-10.6038
lust	-10.6039
▁selget	-10.6046
▁Asi	-10.6046
▁raporti	-10.6052
▁praktikat	-10.6054
▁osalemise	-10.6059
▁rõõmu	-10.6059
▁alg	-10.6061
▁ajalugu	-10.6066
▁tingimusi	-10.6066
▁regionaalse	-10.6067
▁delegatsiooni	-10.6071
▁sissetulek	-10.6081
ame	-10.6081
▁Eri	-10.6083
▁sisulist	-10.6086
▁poliitilised	-10.6087
▁esialgu	-10.6094
▁ääretult	-10.6094
▁seisneb	-10.6098
▁Ki	-10.6103
▁meedias	-10.6104
▁põhimõtet	-10.6104
▁vastusest	-10.6105
▁abikaasa	-10.6108
▁kiriku	-10.6111
▁näi	-10.6114
▁septembri	-10.6115
▁kaugemale	-10.6117
võrgu	-10.6117
▁võimalikku	-10.6118
▁76	-10.6125
tulumaksuseaduse	-10.6125
▁poliitikas	-10.6127
Kaitseväe	-10.6129
▁uurimis	-10.613
▁sõlmida	-10.613
seaduses	-10.613
▁makstud	-10.6131
võime	-10.6135
▁teenida	-10.6136
▁kellest	-10.6136
▁tekitas	-10.6139
▁reegleid	-10.6144
riikide	-10.6147
▁kehtesta	-10.6147
▁suhe	-10.6149
▁ministrit	-10.6151
▁koosolekul	-10.6151
▁probleemiga	-10.6156
▁võtaks	-10.6158
▁täiendada	-10.6161
▁Tallinn	-10.6169
ada	-10.6176
Jaak	-10.6183
▁nõukogus	-10.6186
▁panusta	-10.6187
▁Ha	-10.6188
▁halva	-10.6191
▁leiavad	-10.6193
▁Rootsis	-10.6193
▁võitle	-10.6195
▁näitas	-10.6196
▁institutsioon	-10.6197
▁vabatahtliku	-10.6198
▁korteri	-10.6199
▁Prantsusmaa	-10.62
▁kandideeri	-10.6203
▁tõmmata	-10.6211
▁taristuminister	-10.6212
▁toodi	-10.6213
▁vea	-10.6216
▁paljudele	-10.6217
▁Kiisler	-10.6219
sektoris	-10.6221
▁tasakaal	-10.6222
▁kilomeetrit	-10.6226
▁56	-10.6226
mm	-10.6236
▁Suurbritannia	-10.624
▁järelikult	-10.624
▁vaadake	-10.624
▁kr	-10.6242
▁Pea	-10.6242
▁võimeline	-10.6243
▁poolteist	-10.6244
▁laekub	-10.6245
▁eestlaste	-10.6246
▁Keegi	-10.6247
uu	-10.625
▁koorma	-10.6251
▁häälte	-10.6252
▁Arutelu	-10.6254
▁täpsustan	-10.6255
▁vaesuse	-10.6259
▁Liisa	-10.6261
▁parima	-10.6261
▁praegust	-10.6263
▁hakati	-10.627
▁viitas	-10.627
▁mahtu	-10.6272
▁püüab	-10.6273
▁ratifitseeri	-10.628
viisi	-10.6281
▁loobuda	-10.6282
▁68	-10.6282
van	-10.6286
majanduse	-10.6287
▁fraktsioonid	-10.629
▁põhimõtted	-10.6292
▁aitaks	-10.6299
Jüri	-10.63
▁arutelude	-10.63
▁saadakse	-10.6301
oni	-10.6307
▁kavatseb	-10.6308
▁hääleta	-10.6309
▁2012	-10.6311
▁avaldada	-10.6311
kke	-10.6312
▁ressursi	-10.6314
▁söö	-10.6316
õl	-10.6319
▁rikkumise	-10.632
▁kooselu	-10.6324
▁ajaga	-10.6325
▁vahest	-10.6326
▁kliendi	-10.6329
▁märkimisväärne	-10.6329
▁muutnud	-10.6329
Valeri	-10.633
▁õiguskomisjon	-10.6333
loa	-10.6333
▁tulud	-10.6333
▁positiivset	-10.6335
▁lõpeta	-10.6336
ig	-10.6336
▁arvuti	-10.6342
▁Ester	-10.6347
▁lootust	-10.635
▁suhtle	-10.6351
▁apteegi	-10.6351
▁2016. 	-10.6357
▁Kruusimäe	-10.6359
▁reisi	-10.6363
▁potentsiaalse	-10.6363
umi	-10.6364
▁lii	-10.6365
maal	-10.6365
▁kinnitamise	-10.6366
▁Muu	-10.6367
▁seisma	-10.637
▁eeldada	-10.6372
▁professionaalse	-10.6376
▁sektor	-10.6376
▁tausta	-10.638
▁arutatakse	-10.6381
▁langetamise	-10.6386
kulusid	-10.639
valimiste	-10.6392
▁kompetentsi	-10.6394
▁eraldada	-10.6399
▁osakaalu	-10.64
▁menetlusliku	-10.6402
▁ministeeriumid	-10.6404
▁varu	-10.6406
▁riiklike	-10.6408
▁kohati	-10.6408
▁rahvusvahelist	-10.6412
▁r	-10.6414
▁laevade	-10.6415
▁õiguslik	-10.6417
▁täpne	-10.6418
▁hinge	-10.6419
▁linnapea	-10.642
▁Aafrika	-10.6424
▁lä	-10.6424
▁pöördumise	-10.6424
▁staatuse	-10.6425
Siseministeerium	-10.643
ris	-10.6431
op	-10.6432
▁Poolt	-10.6433
▁töötajad	-10.6435
▁missugune	-10.644
tuste	-10.6444
▁Tõniste	-10.6445
▁Võsa	-10.6449
▁eespool	-10.6452
▁hoia	-10.6454
▁majas	-10.6458
▁kaas	-10.6463
▁bürokraatia	-10.6465
▁tahet	-10.6465
▁mo	-10.6467
▁rakendu	-10.6468
aastast	-10.6469
aina	-10.6471
keel	-10.6471
▁rahastus	-10.6479
▁piirang	-10.648
▁67	-10.6484
▁ootavad	-10.6486
▁omaniku	-10.6488
▁tõlgenda	-10.649
▁reaalse	-10.6492
õr	-10.6492
▁protseduuri	-10.6492
▁otsustama	-10.6493
▁soovinud	-10.6494
▁mingisugused	-10.6495
▁jõutud	-10.6496
amet	-10.6496
▁välismaal	-10.6496
▁korteriühistu	-10.6496
▁töökoha	-10.6502
isi	-10.6502
▁ca	-10.6504
▁Vassiljevi	-10.6506
▁Järelikult	-10.6509
▁punktis	-10.6509
▁Helir	-10.651
▁värske	-10.651
▁kinnitas	-10.6511
▁temaga	-10.6513
▁tagant	-10.6515
▁paratamatult	-10.6518
▁muutuma	-10.6523
▁eakate	-10.6531
▁Mõned	-10.6536
soo	-10.6536
▁täitnud	-10.6544
▁tuntud	-10.6548
nna	-10.6548
▁maamaksu	-10.6549
▁piiranguid	-10.6552
▁tugispetsialist	-10.6552
▁spetsialistide	-10.6555
▁riske	-10.6558
▁Kaia	-10.6568
▁Sulge	-10.657
▁taotle	-10.6571
▁diskrimineeri	-10.6572
0 000	-10.6572
▁Estonian	-10.6573
tused	-10.6574
▁suurenenud	-10.6574
▁Arvestades	-10.6576
▁kättesaadavuse	-10.6577
▁jõuavad	-10.6584
▁ukse	-10.6586
oor	-10.6587
▁esimehena	-10.6588
▁juhtimis	-10.6589
▁asjaolude	-10.6589
▁Neil	-10.6594
▁tööturu	-10.6596
▁m	-10.6596
▁elanikkonna	-10.6597
▁märkimisväärse	-10.6597
▁kavatse	-10.6597
▁Ettekande	-10.66
▁haldusalas	-10.66
▁jõuliselt	-10.6609
▁majanduslik	-10.6616
▁sündi	-10.6623
▁Olga	-10.6623
▁58	-10.6625
▁maksusüsteemi	-10.6627
linna	-10.6632
▁2020.	-10.6633
▁füüsilise	-10.6638
▁nimetamine	-10.6643
▁elaniku	-10.6643
▁tulumaks	-10.6646
▁tarbimine	-10.6651
saar	-10.6653
▁maks	-10.6658
▁Raha	-10.6662
▁saladus	-10.6662
▁polnud	-10.6663
▁tegevuste	-10.6663
▁kiita	-10.6665
välja	-10.6665
▁2015. 	-10.6665
▁pakutakse	-10.6665
▁lood	-10.6666
▁skeemi	-10.6666
▁arenenud	-10.6666
▁esitamist	-10.6666
▁otsustus	-10.6669
▁Kooli	-10.6673
▁rände	-10.6674
▁infrastruktuuri	-10.6675
▁perspektiivi	-10.6676
▁olite	-10.6681
▁pensionile	-10.6684
ment	-10.6684
alase	-10.6685
▁täiendamise	-10.6691
▁artikli	-10.6691
▁needsamad	-10.6692
▁koolilõuna	-10.6692
▁kindlad	-10.6695
8%	-10.6696
nõu	-10.6699
▁valdavalt	-10.6699
määr	-10.67
▁järgmiseks	-10.67
▁23.	-10.6703
▁millisel	-10.6705
▁ohtlik	-10.6709
tusi	-10.6714
▁alternatiiv	-10.6716
▁õhu	-10.6716
▁poliitiliselt	-10.6717
▁opositsioon	-10.6724
2.	-10.6724
▁Tal	-10.6725
▁kutsu	-10.6729
▁kompensatsiooni	-10.6731
▁72	-10.6735
▁nädalat	-10.6741
▁maaelukomisjoni	-10.6742
▁perekond	-10.6745
▁põllumajanduse	-10.6746
▁vajaduspõhise	-10.6748
▁palgalõhe	-10.6754
▁esindajate	-10.6755
▁kujuneb	-10.6757
Monika	-10.6758
investeeringute	-10.6759
▁teadmiste	-10.6763
▁jätkusuutlikkus	-10.6767
▁sunni	-10.6768
▁suu	-10.6769
▁võim	-10.6769
▁kiirabi	-10.6776
▁kinnitan	-10.6778
▁kuuluva	-10.6782
▁vaatate	-10.6783
▁Viimase	-10.6785
▁vaadatakse	-10.6786
▁ülimalt	-10.6786
▁kena	-10.6788
▁Saare	-10.6789
▁üllatus	-10.6794
▁kulutada	-10.6798
▁üüri	-10.6799
▁mures	-10.6801
▁sõnumi	-10.6802
rd	-10.6805
▁25.	-10.681
▁peast	-10.6812
vee	-10.6815
▁Lutsepp	-10.6816
▁valitsuskabinet	-10.6816
kaitseakadeemia	-10.6816
▁lahendama	-10.6817
▁Maaelu	-10.6821
umist	-10.6821
mehe	-10.6821
kaardi	-10.6821
▁saad	-10.6822
▁arvestatakse	-10.6823
▁kõ	-10.6829
▁kogemusi	-10.6829
makse	-10.683
ikute	-10.683
▁argumendid	-10.6831
tra	-10.6835
▁"...	-10.6835
▁heade	-10.6836
▁kõrghariduse	-10.6836
▁Parts	-10.6837
lõ	-10.6842
▁Korbi	-10.6843
1.	-10.6843
▁Kaskpeit	-10.6847
▁toimimise	-10.6847
järelevalve	-10.6853
▁missioonil	-10.6854
▁kohustuslik	-10.6855
▁tooma	-10.6858
▁summasid	-10.6861
▁turvalisuse	-10.6863
▁elektriaktsiisi	-10.6864
▁ratifitseerimis	-10.6864
▁trend	-10.6864
▁hirmu	-10.6865
▁arutelusid	-10.6866
▁pikema	-10.6867
▁omavalitsust	-10.6869
▁ressursside	-10.6869
▁töökohad	-10.687
▁euroga	-10.6872
▁töövõime	-10.6875
▁võimul	-10.6876
▁noore	-10.6876
▁Palling	-10.6876
▁territooriumi	-10.6878
▁Sarapuu	-10.6879
▁lubab	-10.688
kindlus	-10.6881
▁töötavate	-10.6882
▁tunnusta	-10.6883
▁juhid	-10.6884
▁täie	-10.6884
▁inimõiguste	-10.6886
▁muuseumi	-10.6886
ani	-10.6887
▁arusaamatuks	-10.6887
▁siseministri	-10.6888
▁tugevalt	-10.6899
▁maakonnas	-10.6905
▁patsiendi	-10.691
▁Laasi	-10.6911
▁unusta	-10.6913
▁Tamme	-10.6915
▁lahkunud	-10.6918
▁haige	-10.6929
▁õnnestu	-10.693
astme	-10.6932
▁küt	-10.6934
▁tunnevad	-10.6935
▁olukorraga	-10.6935
▁likvideeri	-10.6939
ea	-10.6939
▁teadlik	-10.694
▁Päris	-10.6942
▁Ansip	-10.6948
▁hoiu	-10.6948
▁eelis	-10.6949
▁mõtted	-10.6949
▁paluda	-10.695
▁korraldus	-10.6957
▁iseseisva	-10.6959
▁määrus	-10.6964
▁väärt	-10.6965
▁Keit	-10.6966
▁Olgu	-10.6973
▁sääst	-10.6975
▁ring	-10.6978
▁tööturul	-10.6978
▁koalitsioonis	-10.6982
▁rahvaesindajad	-10.6987
▁0	-10.6998
oomi	-10.6998
▁iseenda	-10.7001
jo	-10.7003
▁usaldus	-10.7004
▁ettekannet	-10.7005
▁Maruste	-10.7005
▁pikaajalise	-10.7006
▁taristu	-10.7014
▁paigas	-10.7017
huvi	-10.7019
▁kõnele	-10.702
▁vähemaks	-10.7024
▁plaanid	-10.7025
▁Simsoni	-10.7025
▁teavita	-10.7025
▁kasva	-10.7029
liiklus	-10.7031
6%	-10.7033
▁edasta	-10.7033
moodi	-10.7035
▁77	-10.7037
▁pulti	-10.7037
rg	-10.704
▁kuulsin	-10.704
▁nä	-10.7045
▁odavam	-10.7049
▁tänasel	-10.7056
nn	-10.7057
kuus	-10.7057
▁positsioon	-10.7061
▁Oluli	-10.7061
tavaid	-10.7062
▁Kivimägi	-10.7069
▁lükatud	-10.7069
▁konkurss	-10.7069
▁Nemad	-10.7069
▁koostamisel	-10.7069
▁uuringuid	-10.707
▁kehtestatakse	-10.7074
kümne	-10.7075
▁vaesuses	-10.7076
▁eelnõud	-10.7077
▁oluliste	-10.7078
▁Räägi	-10.708
▁liikumine	-10.7082
▁erand	-10.7088
▁suhted	-10.7097
▁vähene	-10.7099
una	-10.7099
▁hääletamist	-10.7099
▁Itaalia	-10.7101
▁andsid	-10.7104
hv	-10.7104
tajate	-10.7113
▁Seepärast	-10.7114
Eestis	-10.7115
▁väljenda	-10.7118
▁taju	-10.7119
▁vabalt	-10.7127
▁madal	-10.7132
▁Hallemaa	-10.7133
▁paku	-10.7134
▁täit	-10.7136
▁väljendanud	-10.7139
taseme	-10.7141
▁menetlusest	-10.7147
▁valdkondade	-10.7149
▁arutelud	-10.7149
▁kolmandaks	-10.7149
▁muutuda	-10.7151
▁keskkonnatasude	-10.7156
rus	-10.7158
▁majandusele	-10.7161
▁peagi	-10.7164
▁tulemas	-10.7166
ides	-10.7167
▁poolda	-10.717
▁kaetud	-10.7171
▁62	-10.7172
▁moodustab	-10.7173
mä	-10.7173
vajadus	-10.7176
meeste	-10.7179
▁eelneva	-10.7189
umise	-10.719
mini	-10.7191
▁maksupoliitika	-10.7191
▁hääletamisele	-10.7193
▁seista	-10.7193
▁pakkuma	-10.7198
▁tühja	-10.7201
▁suurima	-10.7202
või	-10.7202
▁tervist	-10.7204
▁alustame	-10.7206
Nagu	-10.7207
▁käitumine	-10.7214
▁korralik	-10.7219
▁hõlma	-10.7221
▁laia	-10.7221
▁haridussüsteemi	-10.7223
▁number	-10.7226
ruum	-10.7228
märgi	-10.7233
▁Kahtlemata	-10.7238
▁suru	-10.7242
tusega	-10.7244
▁pikem	-10.7244
▁kohad	-10.7245
▁63	-10.725
▁fraktsioonidel	-10.7252
▁tõmba	-10.7262
▁Kõva	-10.7263
▁Presidendi	-10.7263
▁igapäevase	-10.7264
▁üksuse	-10.7264
▁liiguvad	-10.7267
lg	-10.7267
▁esitan	-10.7269
▁jätkab	-10.7271
▁käituda	-10.7271
Vabariigi	-10.7272
kapitali	-10.7273
▁reguleerib	-10.7273
▁uuring	-10.7275
▁täienda	-10.7277
▁61	-10.728
võrku	-10.7282
juhtide	-10.7287
▁punktide	-10.7289
▁puuduvad	-10.729
▁omavalitsusel	-10.7295
▁saja	-10.7296
▁arutlusel	-10.7296
▁79	-10.7297
▁maksuameti	-10.7297
▁kvaliteeti	-10.7299
▁püüda	-10.7301
▁ausa	-10.7307
▁loomade	-10.7312
▁õnneks	-10.732
▁elava	-10.7321
▁kulub	-10.7321
▁päästjate	-10.7322
▁vigu	-10.7328
▁initsiatiivi	-10.7331
▁kehtinud	-10.7335
Kalle	-10.7339
▁takista	-10.7339
▁asunud	-10.7339
▁ajakirjandus	-10.734
▁deklareeri	-10.734
▁liikumise	-10.7344
▁sõltuvus	-10.7348
▁linnade	-10.7355
ajal	-10.7357
▁vähemasti	-10.7361
▁riive	-10.7361
▁üleüldse	-10.7362
▁loome	-10.7366
▁Sealt	-10.7366
▁järsku	-10.7367
▁rakendamine	-10.7368
▁hinnaga	-10.7369
ok	-10.7369
Va	-10.7372
▁tegutseb	-10.7372
▁innovatsiooni	-10.7376
9.	-10.7379
▁avaldus	-10.738
▁käitumise	-10.7381
▁lepingute	-10.7383
▁Ometi	-10.7386
▁leppe	-10.7387
▁tingimata	-10.7394
▁juhtumite	-10.7394
▁piirangute	-10.7395
uri	-10.7395
▁tuginedes	-10.7398
▁kõlab	-10.7398
▁menetlemine	-10.74
▁kinnitab	-10.7405
▁Kotka	-10.7407
▁ootus	-10.7411
▁mehe	-10.7413
▁Leedus	-10.7415
▁sätte	-10.7418
▁kriis	-10.742
▁päevakord	-10.7421
▁kriitikat	-10.7422
igus	-10.7422
av	-10.7425
▁vaadatud	-10.7427
▁seletuskiri	-10.7427
▁Uue	-10.7427
▁koormus	-10.7428
▁büroo	-10.7433
▁rakenda	-10.7434
imu	-10.7434
▁selliseks	-10.7435
▁autode	-10.7436
▁nendesse	-10.7437
▁Praeguse	-10.7438
Kõigepealt	-10.7438
▁sõjaväe	-10.7438
▁kasvatada	-10.7439
▁märka	-10.7439
▁õigusliku	-10.744
▁pädevuses	-10.7454
rikka	-10.7457
▁võimalike	-10.746
▁keskmist	-10.7465
▁märgitud	-10.7468
majandus	-10.747
▁saavutatud	-10.747
▁mehi	-10.7472
▁õigusaktide	-10.7475
▁teemade	-10.7476
▁arvad	-10.7481
▁sõnastus	-10.7482
▁õhtul	-10.7486
▁Laine	-10.7486
ch	-10.7491
▁majanduslikult	-10.7492
korra	-10.7494
▁kohtlemise	-10.7494
▁asjakohane	-10.7496
▁71	-10.7498
▁tundus	-10.7499
▁66	-10.7502
▁pensionide	-10.7503
▁teinekord	-10.7504
akti	-10.7506
▁institutsioonid	-10.7511
sk	-10.7512
▁hääli	-10.7513
▁prokuratuur	-10.7516
▁meeles	-10.752
▁võeta	-10.7523
▁töötajaid	-10.7524
▁kohalikul	-10.7528
turg	-10.7531
▁tunneta	-10.7533
▁enamus	-10.7533
poolt	-10.7536
▁objekti	-10.7536
▁kogukond	-10.7537
▁summat	-10.7539
▁Tallinnast	-10.7543
▁isikuid	-10.7547
▁Kaks	-10.7548
▁Jaan	-10.7551
likkuse	-10.7553
otsus	-10.7555
▁missioon	-10.7558
▁taotlus	-10.7558
▁nalja	-10.756
▁lubas	-10.756
▁õigem	-10.756
▁Mikko	-10.7561
▁Türgi	-10.7561
▁ilusasti	-10.7562
▁täielik	-10.7565
▁uuringud	-10.7566
▁millegi	-10.7569
▁vähenda	-10.757
▁kasutan	-10.7572
▁töötamise	-10.7572
▁Sibul	-10.7573
▁arupärimiste	-10.7573
▁vägagi	-10.7577
▁ootama	-10.7577
▁Jä	-10.7579
▁koosoleku	-10.7582
ministrina	-10.7584
▁Saaremaa	-10.7586
kirju	-10.7586
▁möön	-10.7591
▁ametnik	-10.7592
▁heas	-10.7594
pidamine	-10.7594
▁arstiabi	-10.7595
õpetaja	-10.7596
▁lapsega	-10.7597
firma	-10.7597
▁hullu	-10.7598
▁algatab	-10.7604
▁pooleli	-10.7605
▁väite	-10.7606
▁tänapäeval	-10.7612
▁vähenemise	-10.7613
▁elavate	-10.7614
majanduskomisjon	-10.7615
▁karmi	-10.7616
▁riskid	-10.7619
▁Küsi	-10.762
▁algata	-10.762
▁koordineeri	-10.7628
▁mudel	-10.763
▁tahaksid	-10.7631
grupi	-10.7636
hti	-10.7636
▁vaidlusi	-10.7637
▁kasvatamise	-10.7643
▁lõpetamise	-10.7644
▁Meri	-10.7647
▁kä	-10.7649
▁osalise	-10.7649
▁omavalitsustega	-10.7649
▁lootus	-10.7652
▁lo	-10.7652
▁sisust	-10.7654
▁eesmärgiks	-10.7657
▁IM	-10.7664
▁tuleneva	-10.7666
▁numbrid	-10.7667
stuse	-10.7668
▁paistab	-10.767
▁Al	-10.7684
▁Valga	-10.7686
▁telli	-10.7689
▁kolmel	-10.7691
▁Kersna	-10.7696
▁Loodan	-10.7696
▁tähendaks	-10.7697
▁vaidle	-10.7717
▁Arno	-10.7717
▁osapoolte	-10.7719
mehed	-10.7719
▁Ühelt	-10.7722
▁tarbi	-10.7723
htu	-10.7724
▁lõi	-10.773
▁osutamise	-10.7733
▁strateegilise	-10.7734
▁lähiaastatel	-10.7735
▁osutada	-10.7739
▁lähtuma	-10.7747
▁põhimõtete	-10.7747
▁asuda	-10.7748
▁haldusreform	-10.7748
▁sätesta	-10.7752
▁sõbrad	-10.7753
▁ressurssi	-10.7753
▁liikmesriigid	-10.7759
per	-10.7761
▁vaat	-10.7761
▁Assamblee	-10.7764
ruusia	-10.7764
▁Vä	-10.7765
▁kummaline	-10.7766
ati	-10.7766
▁moodustada	-10.7773
▁valinud	-10.7773
eb	-10.7776
▁riiklikult	-10.7776
▁Allik	-10.7779
▁tonni	-10.7779
▁võitlus	-10.7782
▁signaal	-10.7784
▁pangad	-10.7789
viis	-10.779
▁tunde	-10.7792
▁kahtlust	-10.7793
▁nimetas	-10.7795
▁150	-10.7796
▁Eelkõige	-10.7799
▁Sisuliselt	-10.7799
▁välisministri	-10.7802
▁piirikaubanduse	-10.7806
▁teeninda	-10.7806
▁aruta	-10.7807
▁25%	-10.7807
▁varianti	-10.7807
▁Rannar	-10.7807
pan	-10.7808
▁astunud	-10.7808
▁sellisest	-10.7809
▁muus	-10.7812
▁hinnanguid	-10.7816
hoone	-10.7817
▁kõrva	-10.7818
kultuurikomisjon	-10.7818
▁tingimuste	-10.7825
eva	-10.7826
▁tulemust	-10.7827
edPoolt	-10.7831
▁asespiiker	-10.7833
▁alaealiste	-10.7833
▁tookord	-10.7835
▁tagamiseks	-10.7835
▁ühtemoodi	-10.7835
aine	-10.7843
▁kaaluka	-10.7843
▁Jaanson	-10.7844
▁suurust	-10.7844
▁numbrit	-10.7844
▁mainis	-10.7852
▁sü	-10.7856
▁väikse	-10.7863
▁vanemahüvitise	-10.7864
▁rahaline	-10.7866
▁Tundub	-10.7868
▁aidanud	-10.7868
▁ütelda	-10.7868
▁Nutt	-10.7868
▁opositsioonis	-10.7869
▁suurepärane	-10.7869
▁hirm	-10.7871
▁koosneb	-10.7872
▁Võru	-10.7873
▁Sellisel	-10.7873
▁tingimustel	-10.7874
▁7,	-10.7876
▁Herkeli	-10.7884
▁tegelenud	-10.7884
▁jätka	-10.7885
aa	-10.7887
▁mujalt	-10.7889
▁vahetu	-10.7889
▁seadustes	-10.7894
töötamiskavatsus	-10.7903
▁30.	-10.7904
▁ost	-10.7907
▁kohustatud	-10.7907
▁tekitatud	-10.7911
▁intressi	-10.7914
▁praktiliselt	-10.7916
▁teadmine	-10.7918
▁võimekuse	-10.7919
▁katkesta	-10.7919
▁järjekorras	-10.7919
▁juhitud	-10.7921
▁sätted	-10.7926
▁nurga	-10.793
▁lõhe	-10.7933
juhi	-10.7934
puhku	-10.7934
▁näited	-10.7934
▁Hiina	-10.7937
▁Hispaania	-10.7937
▁ainuüksi	-10.7938
▁käitu	-10.7939
▁mehhanism	-10.794
▁suuremate	-10.7941
▁seisukohale	-10.7941
▁suuremaks	-10.7941
▁teadlikult	-10.7943
▁õpetajaid	-10.7944
▁Kalvi	-10.7947
▁eurost	-10.7949
▁2007.	-10.7949
▁asuvad	-10.7949
▁alustan	-10.7953
▁ühistu	-10.7957
▁väikest	-10.7957
▁Millest	-10.7961
lin	-10.7962
▁tutvu	-10.7963
▁kõrgharidus	-10.7963
▁motivatsiooni	-10.7964
▁väljaõppe	-10.7964
▁tähista	-10.7972
▁muutuks	-10.7976
▁investeeri	-10.7978
põhiselt	-10.7982
eh	-10.7985
▁muretse	-10.7985
▁kahest	-10.7986
▁asume	-10.7987
▁dividendi	-10.7987
▁praeguseks	-10.7991
▁seo	-10.7993
▁praktilise	-10.7993
teenus	-10.7998
▁võrdsed	-10.7999
▁üksteise	-10.7999
▁pered	-10.8001
▁Kantselei	-10.8007
▁pähe	-10.8007
▁algul	-10.8008
▁teistsuguse	-10.8012
▁soolise	-10.8019
▁kasutus	-10.802
tub	-10.8021
▁lõplik	-10.8021
▁omalt	-10.8022
kandidaat	-10.8025
▁prognoos	-10.8025
▁lepingut	-10.8025
▁sadu	-10.8026
▁Loo	-10.8026
▁ametniku	-10.8027
▁mets	-10.8028
kon	-10.8028
▁ülevaadet	-10.8032
▁vastuvõtmiseks	-10.8036
▁Saa	-10.8039
poliitikas	-10.804
▁registreeri	-10.804
▁üksikisiku	-10.8043
▁nimekiri	-10.8043
"	-10.8043
▁riigilt	-10.8044
mehhanismi	-10.8045
▁alkohol	-10.8048
▁pinge	-10.805
▁kiirusta	-10.805
▁küsitakse	-10.8051
▁sõnade	-10.8053
kra	-10.8055
▁küsime	-10.8057
▁otsustatud	-10.8057
rit	-10.8061
 1	-10.8062
▁sissetuleku	-10.8066
▁põhimõtteid	-10.8066
▁koolituse	-10.8068
▁töörühma	-10.8072
▁juhib	-10.8073
▁reserv	-10.8076
▁tegelnud	-10.8078
▁tööhõive	-10.8078
▁tegeldakse	-10.8078
▁leiti	-10.8079
▁Võ	-10.8079
▁üleskutse	-10.8079
▁parlamenti	-10.8079
▁kättesaadavad	-10.808
▁esimesed	-10.808
▁ministril	-10.8082
▁analüüsinud	-10.8083
▁jäätme	-10.8086
▁Venemaaga	-10.8089
▁aitama	-10.8089
▁puhta	-10.8096
hind	-10.8097
Mina	-10.8099
▁välistada	-10.81
▁parandamiseks	-10.8103
▁põhimõttest	-10.8103
▁bürokraatiat	-10.8107
▁Palju	-10.811
▁To	-10.8111
▁sarnane	-10.8113
▁nägema	-10.8113
ela	-10.8114
▁kohtunud	-10.8117
▁tulevik	-10.8118
▁kehtetuks	-10.8118
▁koguda	-10.8118
▁tänast	-10.812
▁moodustavad	-10.8121
▁hindama	-10.8122
▁26.	-10.8125
äri	-10.8125
!""	-10.8128
▁arendamise	-10.8131
▁hü	-10.8132
Väga	-10.8132
rühma	-10.8133
ostu	-10.8134
▁mudeli	-10.8135
▁mõistetav	-10.8137
▁kasvama	-10.8143
▁Marrandi	-10.8149
▁esialgse	-10.8149
▁negatiivne	-10.8149
▁Konkurentsiamet	-10.8149
▁teadaolevalt	-10.8149
▁solva	-10.8149
▁rõhutanud	-10.815
▁palu	-10.8152
▁vaade	-10.8155
Komisjon	-10.8158
▁nagunii	-10.816
idel	-10.8162
▁Keele	-10.8163
▁hooli	-10.8166
ek	-10.8168
▁ühed	-10.8169
▁31.	-10.8169
▁Sadama	-10.8171
▁põllumehed	-10.8173
rme	-10.8173
Rosimannus	-10.8177
▁Kuu	-10.8177
▁rahvusvahelisel	-10.8178
▁kaitseväelaste	-10.8178
tööstuse	-10.8183
hävi	-10.8184
seda	-10.8184
▁tõstetakse	-10.8185
▁kaitsma	-10.8185
▁tõkestamise	-10.8185
reform	-10.8193
▁vähenemine	-10.8194
▁rahvasaadikud	-10.8195
▁edukalt	-10.8197
▁jms	-10.82
▁Mo	-10.8202
▁kokkulepet	-10.8205
▁so	-10.8208
▁koli	-10.821
▁arene	-10.821
▁võrdle	-10.8213
▁Järgmise	-10.8217
▁saal	-10.8217
päeval	-10.8218
▁74	-10.8218
▁lähtu	-10.822
▁Eelarve	-10.8221
uga	-10.8222
▁andes	-10.8226
▁sotsiaaltöötaja	-10.8227
▁ime	-10.8228
▁kanali	-10.8228
▁häält	-10.8229
▁30%	-10.8231
▁õ	-10.8232
▁algas	-10.8235
▁haridust	-10.8243
▁korrigeeri	-10.8247
aega	-10.8248
▁Taani	-10.8249
▁lõppes	-10.8252
▁ühtne	-10.8253
osakonna	-10.8256
oleva	-10.8257
inspektsiooni	-10.8262
▁analüüse	-10.8262
otsi	-10.8268
▁Tegu	-10.827
▁taba	-10.8271
luba	-10.8273
▁vahetult	-10.8276
ama	-10.8278
▁Hei	-10.8282
▁juhtimisel	-10.8286
▁valdkondi	-10.8287
▁tõenda	-10.8287
▁tegite	-10.8288
▁panustama	-10.8288
▁komisjonid	-10.829
▁kollektiiv	-10.8291
▁sobiva	-10.8291
▁Metsoja	-10.8293
▁retoorika	-10.8293
▁kavanda	-10.8293
▁argumente	-10.8298
▁aspekt	-10.8299
missioonil	-10.83
▁Repsi	-10.8303
▁saavutanud	-10.8304
▁asutused	-10.8305
▁madalam	-10.8307
▁kohalikku	-10.8307
▁ostma	-10.8309
rgu	-10.831
▁pakkus	-10.8311
Kuna	-10.8314
tage	-10.8318
▁teenistus	-10.8323
▁olukordi	-10.8324
▁Kagu	-10.8329
▁Mõlema	-10.8329
rea	-10.8329
▁ühtlasi	-10.8331
▁pidas	-10.8339
▁Uus	-10.8346
▁3%	-10.8348
▁mõttetu	-10.8348
Alustame	-10.835
▁kombel	-10.835
▁seaduseks	-10.8353
iministeerium	-10.8356
vatele	-10.8357
▁piirikaubandus	-10.8359
▁tehnika	-10.8361
▁uues	-10.8361
▁tulusid	-10.8365
▁üheskoos	-10.8366
▁väitis	-10.8367
▁soe	-10.8369
▁60%	-10.837
▁saadetud	-10.837
▁osuta	-10.8372
▁73	-10.8373
▁asjas	-10.8376
▁sekku	-10.8379
▁kaup	-10.838
▁grupi	-10.8387
▁kvoodi	-10.8389
▁uhke	-10.839
▁raam	-10.8392
vale	-10.8393
▁olevad	-10.8398
▁öö	-10.8402
▁tavalise	-10.8405
kohtade	-10.8407
▁süsteemis	-10.8407
▁maksimaalselt	-10.8409
▁Vladimir	-10.841
▁pikenda	-10.8411
▁teadma	-10.8412
▁hari	-10.8415
▁konkurents	-10.8418
▁tegelikkuses	-10.8421
▁mäletate	-10.8423
▁töökohta	-10.8426
asutused	-10.8429
▁seletuskirjast	-10.8434
Virumaale	-10.8434
▁käitumist	-10.8435
▁öelge	-10.8438
▁tolli	-10.844
▁aktsiisitõusu	-10.8441
▁kestnud	-10.8441
2%	-10.8442
▁mõtlesin	-10.8445
▁valmistatud	-10.8449
kindlustus	-10.8449
▁planeerimis	-10.8453
▁28.	-10.8467
▁kollektiivse	-10.8472
ema	-10.8474
▁ajas	-10.8475
▁saatnud	-10.8476
▁toimuva	-10.8477
▁väitnud	-10.8478
▁Asume	-10.8478
▁Rait	-10.8479
▁sisaldab	-10.8483
ndust	-10.8487
▁aktsiis	-10.8488
▁elame	-10.8492
go	-10.8495
▁põllumeestele	-10.8497
▁osaleb	-10.8501
▁sooja	-10.8501
▁tegeliku	-10.8502
▁niigi	-10.8504
▁Kersti	-10.8509
▁Ütleme	-10.8516
▁allapoole	-10.8516
▁määrab	-10.8519
▁tagajärjel	-10.852
▁olemasolevate	-10.8521
▁tunnustada	-10.8524
▁poolel	-10.8526
▁teenib	-10.8528
vaks	-10.8536
kka	-10.8536
▁lõpu	-10.8537
suuna	-10.8537
▁ainete	-10.854
▁peretoetuste	-10.8544
▁paljuski	-10.8545
▁materjali	-10.8547
mitri	-10.8549
▁mõnele	-10.8551
▁fikseeritud	-10.8553
plaani	-10.8556
▁digitaalse	-10.8558
▁õnnestub	-10.856
▁niipalju	-10.8561
vast	-10.8561
▁kulutuste	-10.8561
▁hüvitist	-10.8564
▁suurim	-10.8565
▁seire	-10.8566
▁tähendus	-10.8567
ee	-10.8568
▁sõnavõtus	-10.8568
▁asjaomase	-10.8569
▁paikne	-10.8573
▁elanikud	-10.8575
▁sõlmi	-10.8575
▁vorm	-10.8577
uda	-10.8585
▁õlle	-10.8587
▁tuvasta	-10.8587
▁tõsist	-10.8588
▁tulemuste	-10.8589
▁pooled	-10.8593
▁kardan	-10.8594
▁kõigis	-10.8594
▁maksumaksjate	-10.8596
▁esi	-10.8597
▁naisi	-10.8597
▁kolmandiku	-10.8598
teenuseid	-10.8601
korraldus	-10.8602
auto	-10.8604
▁kiri	-10.8606
▁korrakaitse	-10.8606
▁määratakse	-10.8608
▁tulevase	-10.8609
▁29.	-10.8615
▁väär	-10.862
▁võrdne	-10.8624
▁arvamused	-10.8627
▁alanda	-10.8627
iste	-10.8628
▁laekumise	-10.863
▁täitmist	-10.863
▁40%	-10.863
▁Ukrainas	-10.8632
valdkond	-10.8633
▁sekkuda	-10.8633
teenused	-10.8633
▁toimuda	-10.8636
▁põhiseadust	-10.864
rahu	-10.8642
▁allkirjasta	-10.8644
kri	-10.8645
ov	-10.8646
Esimene	-10.8648
▁avaldas	-10.8648
tasime	-10.865
▁arutluse	-10.865
▁kommenteerite	-10.8654
Rahanduskomisjon	-10.8656
▁konflikt	-10.8657
▁osanud	-10.8657
▁juhtumit	-10.8659
▁suudetud	-10.8661
▁täitsa	-10.8662
▁viimast	-10.8662
▁komponent	-10.8663
▁vaate	-10.8667
▁Tõ	-10.8671
▁maksnud	-10.8672
▁muudatusega	-10.8673
▁tuhandeid	-10.8675
▁jõuaks	-10.8678
▁tootja	-10.8678
▁lubadusi	-10.868
▁arutusel	-10.8682
▁tegutsema	-10.8682
kese	-10.8685
▁tsiteeri	-10.8687
▁piirdu	-10.869
küsimuse	-10.8696
▁piirid	-10.8698
▁nägu	-10.8701
▁isikutele	-10.8701
▁mujale	-10.8702
▁tõusevad	-10.8705
▁tähtaega	-10.8705
▁nimetasin	-10.8707
kvalifikatsiooni	-10.8716
▁laul	-10.8718
▁negatiivse	-10.8725
▁Saksamaal	-10.8726
▁õiguskomisjonis	-10.8732
▁õigusriigi	-10.8735
▁59	-10.8736
▁Loodame	-10.8736
▁asekantsler	-10.8736
▁puidu	-10.8737
▁lasteaiaõpetaja	-10.8741
▁leevendada	-10.8743
▁rohelise	-10.8744
▁mitut	-10.8744
▁kompenseerida	-10.8745
ring	-10.8751
▁Sesteri	-10.8752
▁nüüdseks	-10.8755
koolide	-10.8756
▁Randjärv	-10.8757
▁regiooni	-10.8759
▁õiglase	-10.876
Raivo	-10.8762
▁määranud	-10.8763
▁käega	-10.8764
Olen	-10.8765
▁arvame	-10.8766
▁niisuguseid	-10.8771
lõivuseaduse	-10.8775
▁tasuks	-10.8775
▁maaeluminister	-10.8777
▁tõstatatud	-10.8781
▁teo	-10.8784
▁investeering	-10.8785
▁seepärast	-10.8788
▁sihtasutuse	-10.8788
▁keskkonda	-10.8789
▁Marianne	-10.8791
▁läksid	-10.8792
▁asemele	-10.8794
▁kategooria	-10.8794
▁esita	-10.8797
U	-10.8799
▁24.	-10.8801
▁siduda	-10.8812
▁tehke	-10.8813
▁lase	-10.8815
▁kuuenda	-10.8816
▁kinnistu	-10.8817
▁reaalsus	-10.8818
▁pagulas	-10.882
ast	-10.8823
▁paremaid	-10.8827
▁Kallas	-10.8835
▁taustal	-10.8835
▁Madis	-10.884
▁Liidust	-10.8841
▁tolle	-10.8845
jõud	-10.8846
sektor	-10.8848
▁häälteenamust	-10.8851
▁võtsime	-10.8851
arv	-10.8853
▁konsensuslikud	-10.8854
▁Pu	-10.8857
▁pikendamine	-10.8858
jää	-10.8858
▁tugine	-10.8859
atu	-10.886
▁peatu	-10.886
▁piires	-10.886
▁infotehnoloogia	-10.8861
▁mõjude	-10.8866
▁vastav	-10.8871
▁partner	-10.8872
▁suhtumise	-10.8874
▁hoidma	-10.8874
Toomas	-10.8877
▁otsast	-10.8878
kommunikatsiooni	-10.8882
▁selgust	-10.8883
mar	-10.8887
tsa	-10.8887
▁sõnadega	-10.8887
▁sellisele	-10.8891
▁suhtumist	-10.8893
▁võtke	-10.8894
stiku	-10.8896
Järve	-10.8898
▁millestki	-10.8899
▁käsitleva	-10.89
▁hõlmab	-10.89
▁riigiga	-10.89
▁arutasite	-10.8902
▁menetlust	-10.8906
▁palgast	-10.8906
▁külge	-10.8909
strateegias	-10.891
▁pehme	-10.8913
▁oleksite	-10.893
▁suulise	-10.8931
▁menetlemist	-10.8935
kordne	-10.8936
Üks	-10.8937
▁armasta	-10.8937
▁tuletada	-10.8939
▁varasemate	-10.8941
▁seost	-10.8945
▁häiri	-10.8945
▁propaganda	-10.8946
lises	-10.8946
▁igasuguste	-10.8947
ot	-10.8948
kalt	-10.8952
▁moodusta	-10.8953
▁karda	-10.8954
kool	-10.8954
▁projektide	-10.8954
▁maksumus	-10.8958
lisus	-10.8967
▁Algataja	-10.8969
▁igaks	-10.8971
▁ehkki	-10.8971
▁kuule	-10.8976
▁8,	-10.8977
iminister	-10.8977
7%	-10.8978
õigusliku	-10.8978
▁moodustamise	-10.8979
▁Ar	-10.898
aga	-10.8995
▁kiir	-10.8995
▁tootjate	-10.8999
▁alusta	-10.9003
▁Li	-10.9003
▁piisava	-10.9004
▁tegin	-10.9005
▁aspektist	-10.9005
▁kandma	-10.9006
pär	-10.9007
▁seletus	-10.9013
▁tulevaste	-10.9015
▁Po	-10.9017
▁pikemat	-10.9019
▁tendents	-10.902
▁82	-10.9022
▁levi	-10.9023
kodu	-10.9025
▁passi	-10.9028
▁protsessis	-10.903
▁Ku	-10.9032
▁Põhjamaade	-10.9035
▁rahastada	-10.904
▁looduse	-10.9041
▁lahingu	-10.9043
▁Sinna	-10.9043
▁põhiseadusliku	-10.9046
märkimisväärselt	-10.9047
▁olge	-10.9048
▁seadnud	-10.9048
▁levinud	-10.9049
▁lõpetati	-10.9051
▁teoreetiliselt	-10.9052
ase	-10.9055
▁terava	-10.9057
▁lange	-10.9057
▁tublid	-10.9059
▁Seletuskirjas	-10.906
vormi	-10.906
nõuete	-10.9066
justiitsministri	-10.9067
▁kohast	-10.9069
▁reservide	-10.9069
▁mandaat	-10.9071
▁sõnul	-10.9073
materjali	-10.9073
▁tunnen	-10.9077
teenistus	-10.9079
märk	-10.9081
eerimine	-10.9081
▁ebavõrdse	-10.9083
▁valu	-10.9084
▁arvestus	-10.9086
▁rühma	-10.9086
▁kõlama	-10.9088
▁posti	-10.9088
▁kontrollima	-10.9089
▁vähenevad	-10.9091
▁muudatustega	-10.9092
▁kirju	-10.9095
▁situatsiooni	-10.9095
▁ettepanekutega	-10.9098
▁paber	-10.9098
▁Järgmisena	-10.9101
▁patsientide	-10.9102
▁taastamise	-10.9106
▁lükka	-10.9108
▁ülesannetes	-10.911
▁väljastpoolt	-10.9122
ilt	-10.9122
▁eurotsooni	-10.9123
▁kirjutas	-10.9126
▁Pro	-10.9127
3%	-10.9129
▁mõistes	-10.9129
▁kokkuvõttes	-10.9131
▁kaldu	-10.9131
▁sisulisi	-10.9132
▁piirilepingu	-10.9134
▁piisab	-10.9135
▁ehita	-10.9138
põ	-10.914
lepingus	-10.9147
õhu	-10.9147
▁toit	-10.9148
Kindlasti	-10.9152
▁konkreetses	-10.9156
▁Soovin	-10.9167
▁korraliku	-10.9169
▁vastasite	-10.917
▁ehitamise	-10.9171
▁kuulanud	-10.9181
▁matemaatika	-10.9184
▁töövõimereformi	-10.9187
ismi	-10.9187
▁proportsionaals	-10.9188
▁eelarvega	-10.9188
▁kodanikuühiskon	-10.9188
▁aluse	-10.9193
▁menetle	-10.9193
▁arvestuse	-10.9194
▁minule	-10.9194
ndid	-10.9195
▁usku	-10.9198
▁kom	-10.9199
▁välismaalaste	-10.9201
▁muusika	-10.9201
▁Ainult	-10.9201
▁harjunud	-10.9204
▁101	-10.9207
▁isikule	-10.9213
▁lahenduste	-10.9213
▁teadnud	-10.9215
▁vajadusest	-10.9215
▁kuuluda	-10.9217
▁eestlased	-10.9224
ravi	-10.9226
▁majanduses	-10.9228
▁Vaat	-10.923
▁otseses	-10.9231
Märt	-10.9231
▁juuli	-10.9237
aluse	-10.9238
vedu	-10.9238
vastane	-10.9238
▁kandidaatide	-10.9239
▁põhiseaduslikku	-10.924
▁lääne	-10.924
▁Ühesõnaga	-10.924
▁vahendusel	-10.924
▁kivi	-10.924
▁liikunud	-10.9241
▁Vähemalt	-10.9241
▁asendus	-10.9242
▁välju	-10.9243
▁õhku	-10.9243
tingimused	-10.9244
▁esitasime	-10.9245
▁tarbimist	-10.9246
▁keskuse	-10.9248
▁õpilased	-10.9248
vastu	-10.9249
▁palume	-10.9249
arsti	-10.9251
▁avan	-10.9254
▁kujundada	-10.9254
▁nähtav	-10.9254
▁tavaline	-10.9254
▁reageerida	-10.9256
▁ühenduse	-10.9257
isu	-10.9259
▁õnne	-10.9262
pääs	-10.9266
võrd	-10.9268
Priit	-10.9272
▁kajastu	-10.9274
kene	-10.9274
▁osales	-10.9275
▁poliitilisi	-10.9276
▁suunda	-10.9276
▁näidet	-10.9276
▁tugevda	-10.9279
▁kriitiline	-10.928
▁läbiviimise	-10.928
▁lõikes	-10.9281
▁niisugused	-10.9294
▁südame	-10.9295
▁15%	-10.9298
ikud	-10.9299
pidaja	-10.9299
▁mõistan	-10.93
▁Venemaal	-10.9306
▁ilmne	-10.9308
▁kasvas	-10.9309
▁tehnilise	-10.931
▁korrale	-10.9316
aid	-10.932
▁Haigekassa	-10.932
▁VEB	-10.932
▁elamisloa	-10.932
▁varju	-10.932
▁Sooäär	-10.9321
▁väitsite	-10.9321
▁halba	-10.9321
▁normi	-10.9321
▁tullakse	-10.9321
▁andke	-10.9325
▁kuulates	-10.9325
▁viite	-10.9327
▁vahenditest	-10.9332
▁samad	-10.9333
▁kallimaks	-10.9343
▁lisatud	-10.9348
▁peredele	-10.9349
▁positiivselt	-10.9349
▁kindlusta	-10.935
▁Teate	-10.9352
▁puudujääk	-10.9353
▁segadust	-10.9356
▁seadusloome	-10.936
▁tekkima	-10.9361
▁andeks	-10.9361
▁ühekordse	-10.9366
▁algatuse	-10.9369
▁par	-10.9369
▁kogemuse	-10.9369
▁osalus	-10.937
tootjate	-10.937
▁vahetada	-10.937
▁nägime	-10.9372
▁kirjaliku	-10.9373
▁Airi	-10.9376
▁teatas	-10.9377
▁veni	-10.9379
▁piiril	-10.938
▁pensionid	-10.938
▁riigihangete	-10.9381
▁algus	-10.9381
▁olevaid	-10.9384
õigust	-10.9386
▁jaotus	-10.9391
▁uuele	-10.9392
Aafrika	-10.9393
▁vabatahtlike	-10.9395
▁konsensus	-10.9395
ute	-10.9398
▁kodanikele	-10.9398
▁tingimus	-10.9399
soodustus	-10.94
▁prügi	-10.9401
▁lehe	-10.9402
17	-10.9405
▁rendi	-10.9406
▁Loone	-10.9409
▁tühista	-10.941
▁fraktsioonis	-10.941
▁ühendus	-10.9412
▁kogemused	-10.9416
kahju	-10.9416
missiooni	-10.9418
▁taset	-10.942
▁punktid	-10.9424
▁hinnatõusu	-10.9425
▁miski	-10.9426
väärtus	-10.9428
Jürgen	-10.9434
▁üldosa	-10.9434
▁loodi	-10.9441
▁oodatud	-10.9441
▁konservatiivse	-10.9441
▁olemuselt	-10.9442
õi	-10.9442
▁piiride	-10.9443
▁üksmeel	-10.9446
▁sõlmimise	-10.9447
▁langenud	-10.9447
▁algatanud	-10.9448
▁toimima	-10.9456
▁käituma	-10.9458
tunde	-10.9458
▁mõjub	-10.946
mises	-10.9462
▁vastaja	-10.9462
▁riigiasutuste	-10.9463
▁võimaldada	-10.9463
▁Aasia	-10.9463
▁Laste	-10.9463
▁maailm	-10.9464
▁mitmete	-10.9464
▁voli	-10.9473
▁kaasnevad	-10.9477
▁edukas	-10.9479
▁Usun	-10.9482
▁laastus	-10.9482
▁märkis	-10.9483
▁Keskus	-10.9484
▁otsustasime	-10.9492
▁teadmisi	-10.9493
▁haigus	-10.9497
▁valitsussektori	-10.9498
▁õpetada	-10.9499
▁sõnavõtu	-10.9501
▁Kutsu	-10.9502
▁eesmärgiga	-10.9503
▁erilist	-10.9508
▁ametlik	-10.951
▁kirjutama	-10.9511
ärme	-10.9511
▁dokumendid	-10.9512
▁fookus	-10.9517
▁mõistet	-10.9518
▁täpsustus	-10.952
liseks	-10.9523
▁diislikütuse	-10.9523
▁hädavajalik	-10.9523
▁väärtusta	-10.9523
▁tunneb	-10.9524
▁dokumente	-10.9525
▁oskab	-10.9525
▁100%	-10.9525
▁lahendi	-10.9525
poliitiline	-10.9527
nneks	-10.9529
▁üritus	-10.9534
▁õiged	-10.9537
▁Kohal	-10.9538
▁käivita	-10.9539
lgi	-10.954
iili	-10.9543
haridus	-10.9544
▁arst	-10.9546
▁kritiseeri	-10.9548
▁saatis	-10.9549
▁annate	-10.9552
maad	-10.9554
▁sisuga	-10.9557
Viktor	-10.9557
oko	-10.9558
▁määrusega	-10.9558
valdkonda	-10.956
rje	-10.9561
▁korrata	-10.9562
▁pikaajaline	-10.9564
▁protesti	-10.9564
▁peaksin	-10.9566
▁Rõivasele	-10.9566
▁riigieelarvele	-10.9566
▁samaks	-10.9569
▁ametikoha	-10.957
▁isiklikku	-10.9573
tavalt	-10.9578
▁tänases	-10.9579
▁miljon	-10.958
▁tehniline	-10.9581
▁langetas	-10.9582
▁kõneleja	-10.9584
ür	-10.9584
▁ükskord	-10.9584
süsteemis	-10.9589
projekti	-10.9589
▁soodusta	-10.959
▁kompenseeri	-10.959
▁tööpuudus	-10.9591
▁Eelnõus	-10.9591
▁vastuseks	-10.9592
▁karistuse	-10.9597
▁poliitiku	-10.96
▁musta	-10.9602
▁Peaminister	-10.9607
▁paketi	-10.9608
▁näed	-10.9608
▁pakendi	-10.9609
▁õli	-10.9612
▁ettevaatlik	-10.9613
▁periood	-10.9614
▁Küsimuse	-10.9616
▁esineda	-10.9618
▁imelik	-10.9618
▁14-	-10.9619
▁1,5	-10.962
▁panevad	-10.962
▁täpset	-10.9623
▁sobib	-10.9628
▁esimeseks	-10.9629
▁toovad	-10.963
▁Riigieelarve	-10.9633
▁möödas	-10.9633
▁kaasne	-10.9638
kohustuse	-10.9648
▁Hiiumaa	-10.9649
▁riikidele	-10.9651
▁professor	-10.9652
▁pakuvad	-10.9655
▁kaasneb	-10.9656
▁kaotanud	-10.9658
▁omanike	-10.9659
▁meele	-10.9661
▁ida	-10.9661
▁enamikus	-10.9662
▁viide	-10.9664
▁karista	-10.9667
▁laekus	-10.9667
▁käibe	-10.9674
▁tööandjad	-10.9677
▁universaalse	-10.9677
pidamise	-10.9678
1%	-10.9679
▁meetodi	-10.9682
▁kilomeetri	-10.9684
▁eurole	-10.9684
▁seejuures	-10.9685
mitrijev	-10.9688
▁juriidiline	-10.9688
▁Täht	-10.9688
▁lähenemise	-10.9689
▁80%	-10.9691
ettevõtte	-10.9692
▁Teema	-10.9694
▁Muide	-10.9695
▁anta	-10.9695
▁menetleme	-10.9696
▁täies	-10.9697
▁täpsustatakse	-10.9697
▁otstarbe	-10.9699
▁jagamise	-10.97
▁eilse	-10.9708
▁spetsialiste	-10.9709
usest	-10.9709
▁sätteid	-10.9711
ili	-10.9714
▁eksisteeri	-10.9715
▁Ratase	-10.9715
▁äriühingute	-10.9719
kk	-10.972
▁printsiip	-10.9721
rdi	-10.9724
▁pressi	-10.9725
▁tervis	-10.9725
▁Viimaste	-10.9729
partnerite	-10.973
▁üksinda	-10.9731
▁prioriteetide	-10.9731
▁Raidma	-10.9735
▁Era	-10.974
mmi	-10.9743
▁alustel	-10.9746
▁jagatakse	-10.9746
▁säilita	-10.9747
▁tegevuses	-10.9749
▁enamiku	-10.9751
▁alused	-10.9753
▁liitlas	-10.9754
▁kavatsete	-10.9755
▁Teeme	-10.9756
▁lepingud	-10.9757
▁otsest	-10.9757
▁laias	-10.9758
▁keskus	-10.9759
▁Milling	-10.9761
▁hakkasid	-10.9763
▁kolmandal	-10.9764
▁tempos	-10.9764
võtmise	-10.9765
▁töötatud	-10.9766
▁soojus	-10.9768
▁vooru	-10.977
▁Pakosta	-10.9771
▁õppinud	-10.9771
▁kaitsmise	-10.9771
liini	-10.9772
vuse	-10.9772
▁tiheda	-10.9773
lit	-10.9776
▁väljatöötamise	-10.978
▁mõningaid	-10.9782
▁nägin	-10.9784
▁Edasi	-10.9784
▁27.	-10.9786
▁vabaduse	-10.9791
▁Lõpuks	-10.9791
▁kaasamise	-10.9792
▁kasutame	-10.9793
▁teemast	-10.9794
▁objektiivse	-10.9799
▁topeltkodakonds	-10.98
▁riigisisese	-10.9805
▁Juhul	-10.9813
▁Kümme	-10.9813
▁India	-10.9813
▁otsustavad	-10.9813
▁arengukavas	-10.9814
▁tootmis	-10.982
▁tuhat	-10.982
vahe	-10.9821
▁käsitlenud	-10.9823
▁huvita	-10.9825
▁hääl	-10.9827
▁energiat	-10.9827
▁edastanud	-10.9827
▁neilt	-10.9828
▁rahastamis	-10.9832
lehe	-10.9836
▁hoiak	-10.9837
▁kättesaadavust	-10.984
▁Rahvusvahelise	-10.984
▁Vii	-10.9842
▁jutust	-10.9845
▁eelmist	-10.9846
▁sanktsioonide	-10.9847
▁kumb	-10.9849
▁arutab	-10.9854
soovi	-10.9855
▁Vasta	-10.9856
▁põhjalikumalt	-10.9858
▁ideid	-10.9859
klassi	-10.9863
▁löö	-10.9865
▁järjekordselt	-10.9865
▁ettevõtetele	-10.9868
ran	-10.9869
▁suhtlus	-10.9869
tähelepanelikult	-10.987
▁Ri	-10.9872
▁õpilase	-10.9873
▁suhete	-10.9875
▁vabatahtlik	-10.9875
lk	-10.9878
▁koostada	-10.988
▁kolmandik	-10.9881
▁reserve	-10.9888
▁avalike	-10.9889
▁69	-10.989
▁seaduseelnõus	-10.9893
▁eduka	-10.9893
▁valima	-10.9894
▁vajalikke	-10.9897
▁toetamine	-10.9897
▁Kunagi	-10.9898
▁volitatud	-10.9898
kõne	-10.99
valimiskampaania	-10.9906
alade	-10.9907
▁kõva	-10.9908
▁garantii	-10.9909
▁kannata	-10.991
▁kandis	-10.9911
seisu	-10.9912
▁erinevat	-10.9919
▁oskus	-10.9921
▁suuremas	-10.9923
▁põhjuseks	-10.9927
ades	-10.9929
▁alustas	-10.993
▁sulge	-10.993
▁hulgast	-10.9931
▁potentsiaali	-10.9934
▁väljas	-10.9937
▁tarvita	-10.994
▁jäetakse	-10.994
▁tekstis	-10.9944
teid	-10.995
▁algatajad	-10.995
▁võidelda	-10.9952
aastased	-10.9957
▁palgaga	-10.9958
asjade	-10.9961
sead	-10.9963
eldi	-10.9964
▁tohutult	-10.9965
▁kaardi	-10.9966
▁Tolliamet	-10.9969
▁püüd	-10.9972
▁hoid	-10.9974
aator	-10.9974
▁analüüsid	-10.9977
▁teadlaste	-10.9978
▁valikute	-10.998
▁rõõm	-10.9981
▁praktiline	-10.9983
▁lähenemist	-10.9983
▁top	-10.9986
▁põhineb	-10.9989
▁moodustatud	-10.999
▁jätame	-10.999
▁esitame	-10.9992
▁avaldatud	-10.9993
täht	-10.9997
▁paista	-10.9997
▁punkte	-10.9999
tegevust	-11.0001
▁kaotab	-11.0002
▁palus	-11.0003
meelse	-11.0007
asutus	-11.0008
pere	-11.0008
suguse	-11.001
▁projekte	-11.0011
▁numbri	-11.0011
▁täiendus	-11.0012
▁Norra	-11.0012
▁vajuta	-11.0013
▁kontseptsiooni	-11.0013
4.	-11.002
▁muutusi	-11.0023
Siin	-11.0024
▁linnaosa	-11.003
▁staa	-11.0031
▁rakendatakse	-11.0032
10	-11.0033
▁aktsiiside	-11.0034
▁tooks	-11.0036
▁mõistlikuks	-11.0037
▁Toomi	-11.0038
▁filmi	-11.004
▁4%	-11.0041
▁nimekirjas	-11.0042
▁600	-11.0043
▁langeta	-11.0044
▁hümni	-11.0046
▁kahtlus	-11.005
▁juriidiliselt	-11.0052
▁endas	-11.0052
▁kohtusüsteemi	-11.0059
▁nõrgema	-11.0062
▁nulli	-11.0062
▁kuluta	-11.0064
lisest	-11.0064
▁niisuguste	-11.0069
nemine	-11.0069
▁kuritarvita	-11.0069
▁Ühtlasi	-11.0069
▁sisejulgeoleku	-11.0069
der	-11.0071
▁sõda	-11.0072
▁risti	-11.0073
fond	-11.0076
võimalusi	-11.0081
▁tarbijate	-11.0082
▁kodukorra	-11.0083
▁väärib	-11.0083
▁rajada	-11.0085
lapse	-11.0085
▁asendada	-11.0085
pärane	-11.0085
punkt	-11.0087
jaama	-11.0088
▁parane	-11.0089
perioodi	-11.0091
▁sügavalt	-11.0096
▁muudeti	-11.0099
▁tervik	-11.0102
▁maavanema	-11.0103
leht	-11.0103
▁täitu	-11.0105
liikmed	-11.0109
▁võiksite	-11.0111
▁märk	-11.0114
▁otsene	-11.0114
▁Pole	-11.0116
▁toimuks	-11.0117
▁eraldatakse	-11.0119
▁vaidlused	-11.0122
▁valikud	-11.0123
▁hoiab	-11.0126
▁lennuki	-11.0126
▁üleminekutoetus	-11.0126
▁Ettepaneku	-11.0126
omanike	-11.0127
▁veo	-11.0128
▁haridusminister	-11.0129
▁toodete	-11.0132
▁Kotkas	-11.0133
Jaa	-11.0134
▁konkureeri	-11.0146
▁õnnetus	-11.0147
tena	-11.0151
piir	-11.0153
▁Seejärel	-11.0156
▁teretulnud	-11.0156
▁Maailma	-11.0156
▁seitsmenda	-11.0157
▁Niisiis	-11.016
▁Majandamis	-11.0161
▁tõuse	-11.0167
▁jõulu	-11.0169
▁mehhanismi	-11.017
40	-11.0171
co	-11.0171
▁1990.	-11.0173
▁riigina	-11.0174
▁kiirelt	-11.0175
▁kogutud	-11.0176
▁vangi	-11.0178
▁langus	-11.0183
▁kurva	-11.0184
▁tähtsust	-11.0188
▁valmisolek	-11.0188
▁väljend	-11.019
▁suudaks	-11.019
kohta	-11.0191
▁tunnus	-11.0195
▁miljonist	-11.0196
▁tõenäosus	-11.0196
▁komisjonides	-11.0197
▁globaalse	-11.0199
Pea	-11.0203
▁valitsusliikmed	-11.0205
järgse	-11.0206
▁valdkonnad	-11.0211
▁osutaja	-11.0212
▁teenivad	-11.0213
▁ehitama	-11.0215
aia	-11.0217
if	-11.0219
▁kõnet	-11.022
▁tööst	-11.0221
▁vastatud	-11.0226
▁plaane	-11.0227
▁eelmiste	-11.0229
▁mõjutavad	-11.0231
▁ajutise	-11.0233
▁rehabilit	-11.0233
▁hüvitise	-11.024
jon	-11.024
▁Väike	-11.0244
▁Käesoleva	-11.0244
▁maailmavaate	-11.0245
▁peresid	-11.0246
▁õnn	-11.0247
▁selgunud	-11.0247
▁eluaasta	-11.0249
▁ajakirjanduses	-11.0249
▁kaitseks	-11.0249
äi	-11.0252
▁2011	-11.0252
▁käibemaks	-11.0252
▁lähtume	-11.0253
▁prioriteedid	-11.0258
▁keskuste	-11.0259
▁järeldusi	-11.0261
vorm	-11.0262
igi	-11.0269
▁lapsetoetuse	-11.027
▁jaota	-11.0273
iguskantsler	-11.0276
▁tervisele	-11.0277
deklaratsiooni	-11.0284
▁keelata	-11.0285
aegne	-11.0287
▁erandi	-11.0287
Marika	-11.0287
▁kobareelnõu	-11.0287
▁ütlus	-11.0287
suhete	-11.0288
▁Maanteeameti	-11.029
▁probleemidega	-11.0292
▁mängus	-11.0294
▁sõidab	-11.0296
▁täitevvõimu	-11.0297
kohti	-11.0302
▁Kodu	-11.0303
▁maksmine	-11.0304
▁naise	-11.0307
▁Päästeameti	-11.0307
▁eetika	-11.0311
▁keskvalitsuse	-11.0319
▁mahe	-11.0321
spordi	-11.0321
▁liikumis	-11.0324
▁kaupade	-11.0325
ah	-11.0325
▁demokraatliku	-11.0327
▁valitsusse	-11.0328
▁hukka	-11.0329
▁2019	-11.0329
▁põgusalt	-11.0332
▁Enamik	-11.0334
▁Otsus	-11.0337
▁emakeele	-11.0337
▁kvaliteetse	-11.0339
võtmist	-11.0339
▁situatsioon	-11.034
▁tähtsus	-11.0341
▁85	-11.0343
▁enamuse	-11.0346
▁kahes	-11.0348
▁konstruktiivse	-11.0351
umine	-11.0354
▁sisalda	-11.0357
▁tähenduses	-11.0359
▁tagatis	-11.036
▁järeldusele	-11.0365
▁Vaba	-11.0365
▁tühi	-11.0366
▁pädevust	-11.0367
keskuste	-11.0367
seis	-11.0368
▁rumala	-11.037
▁Minule	-11.0373
▁lepinguid	-11.0374
▁700	-11.0375
▁PPA	-11.0376
▁süvenda	-11.0376
▁ligikaudu	-11.0376
▁kallal	-11.0378
valitsus	-11.0382
▁rakendatud	-11.0383
▁majandustegevus	-11.0384
og	-11.0385
õõ	-11.0385
used	-11.0387
▁korrektselt	-11.0388
▁hääletame	-11.0389
▁lähtunud	-11.0389
sõidu	-11.039
▁kahjulik	-11.0391
▁tõdeda	-11.0396
▁kutseharidus	-11.0398
kesi	-11.0398
▁variandi	-11.0399
▁uurimise	-11.0402
▁viina	-11.0406
eelarve	-11.0409
▁peabki	-11.0411
▁seadustega	-11.0411
teenistuse	-11.0412
pro	-11.0416
▁Ministeeriumi	-11.0417
▁vastutustundlik	-11.0418
▁võimalikuks	-11.042
▁Euro	-11.0421
▁rahutagamis	-11.0421
itsi	-11.0422
valitse	-11.0425
▁piirangu	-11.0426
▁viitab	-11.0427
▁kuuluvate	-11.043
▁paraneb	-11.0431
▁alternatiivi	-11.0431
▁Organisatsiooni	-11.0432
▁paberil	-11.0432
nuks	-11.0432
▁arvamusel	-11.0433
▁Vaher	-11.0433
▁tööturule	-11.0436
▁printsiibi	-11.0438
▁üksuste	-11.0439
▁parandamise	-11.0439
▁selgitama	-11.0441
▁vaidlusta	-11.0441
▁vastustest	-11.0443
▁In	-11.0443
▁küsingi	-11.0445
▁esitasin	-11.0446
▁sarnase	-11.0448
▁kriitilise	-11.0457
▁kahtle	-11.0461
▁arutelust	-11.0461
▁poe	-11.0463
▁kaotamise	-11.0464
▁lüüa	-11.0465
▁Läänemere	-11.0465
▁ajendatud	-11.0466
▁tõsiasi	-11.0467
avad	-11.0468
▁probleemile	-11.0469
▁detsembris	-11.047
▁ühist	-11.0471
▁kaunis	-11.0472
puu	-11.0472
fondide	-11.0482
▁viime	-11.0484
▁segadus	-11.0484
itud	-11.0485
▁konverentsi	-11.0485
▁nimetanud	-11.0485
▁väärtuste	-11.0485
▁koolivõrgu	-11.0489
▁maakond	-11.0492
püü	-11.0494
▁ettevalmistus	-11.05
▁analoogse	-11.0502
▁seadusandliku	-11.0503
positsiooni	-11.0504
jaanuaril	-11.0504
igu	-11.0505
meetri	-11.0509
▁vett	-11.051
▁Randver	-11.0511
▁ilmtingimata	-11.0511
▁muuseas	-11.0511
▁uurinud	-11.0511
▁rahalise	-11.0511
▁raadio	-11.0512
uni	-11.0513
▁lihtsusta	-11.0513
ettevalmistamise	-11.0516
▁ravikindlustus	-11.0518
▁märkida	-11.0518
varu	-11.0519
▁loomist	-11.0522
▁palub	-11.0522
▁võimaldaks	-11.0523
▁reaal	-11.0525
▁lasteaias	-11.0526
▁kasumit	-11.0527
▁kordagi	-11.0527
antsinspektsioon	-11.0528
▁tegevusega	-11.0529
▁Peep	-11.0532
▁teemaks	-11.0533
▁jagatud	-11.0533
▁vaidluse	-11.0534
▁Kehtiva	-11.0534
Meil	-11.0535
▁teatava	-11.0536
▁Võin	-11.0545
▁ülemäära	-11.0545
▁saare	-11.0547
▁rahaliselt	-11.0548
▁Uno	-11.0549
▁allu	-11.0553
▁linnu	-11.0555
▁pealkiri	-11.0557
▁elanikku	-11.0557
▁sport	-11.0557
▁euroraha	-11.0561
▁sätestatakse	-11.0562
▁saaksite	-11.0564
▁lisandub	-11.0565
apteek	-11.0565
▁teadmise	-11.0566
▁üleminek	-11.0567
▁erakonnakaaslas	-11.0567
▁Ministri	-11.0568
▁sala	-11.0573
kohast	-11.0577
▁istub	-11.0579
▁valmistu	-11.0583
▁suust	-11.0583
▁turgu	-11.0588
turgu	-11.059
▁selgemaks	-11.0595
▁kul	-11.0595
▁kaugemas	-11.0595
▁käisid	-11.0595
▁maksukoormus	-11.06
▁Laurson	-11.0601
▁Elu	-11.0602
tute	-11.0602
▁paindlikumaks	-11.0603
▁piltlikult	-11.0604
Seda	-11.0604
▁jõudsime	-11.0606
▁aruanne	-11.0609
müügi	-11.061
▁lõplikult	-11.0612
▁tugevdada	-11.0612
▁juhitava	-11.0613
▁Punkt	-11.0613
▁saarte	-11.0616
▁väidet	-11.0616
▁joogi	-11.062
lepingute	-11.0623
▁saade	-11.0624
konda	-11.0629
▁lihtsamaks	-11.0631
kohad	-11.0632
▁valitsemisala	-11.0636
▁venita	-11.0637
▁odava	-11.0639
keskkond	-11.0639
▁konsulteeri	-11.0647
▁puhke	-11.0647
▁lastevanemate	-11.0647
▁lehekülge	-11.0647
▁Vahepeal	-11.0647
▁Erineva	-11.0648
▁suhte	-11.0649
▁erandeid	-11.0649
▁põllu	-11.0651
ood	-11.0653
rahandusministri	-11.0654
▁lisandu	-11.0656
▁Neljandaks	-11.0658
▁nõudlus	-11.0664
kate	-11.0664
tööstus	-11.0666
▁maapiirkondades	-11.0666
▁tagajärg	-11.0668
▁päevas	-11.0668
▁elektrituru	-11.067
▁pla	-11.0674
▁sanktsioonid	-11.0676
▁Ba	-11.0677
▁pileti	-11.0686
▁riiva	-11.0691
kasutus	-11.0691
▁Haapsalu	-11.0693
▁Ivanova	-11.0693
▁püütud	-11.0693
▁suhelda	-11.0694
▁sellisena	-11.0695
Artur	-11.0696
▁kiitnud	-11.0697
▁keeleõppe	-11.0697
▁soosi	-11.0701
▁Brüsselis	-11.0705
ühenduse	-11.0706
▁nafta	-11.0708
▁eeskujuks	-11.0709
▁käisin	-11.0709
▁asukoha	-11.0709
▁laenude	-11.0709
▁rahvusvahelises	-11.0711
tevalmistamisel	-11.0714
▁Musta	-11.0714
▁toetate	-11.0715
▁83	-11.0717
▁eripära	-11.0719
▁algatajale	-11.0721
▁lähte	-11.0721
▁Rõivase	-11.0724
otsuse	-11.0729
▁konventsioon	-11.0729
▁Ho	-11.073
▁reklaam	-11.0735
▁tõrju	-11.0739
▁suurenevad	-11.0743
▁uurimiskomisjon	-11.0744
▁mõõde	-11.0746
▁rajamise	-11.0747
▁elamis	-11.0749
▁silmis	-11.0755
▁Alle	-11.0755
▁konkurentsivõim	-11.0759
▁krediidi	-11.0764
▁tekitavad	-11.0766
▁valitsused	-11.077
▁riiklikku	-11.0771
▁reguleerima	-11.0775
▁toel	-11.0775
▁hoolitse	-11.0776
▁õpe	-11.0784
▁muinsuskaitse	-11.0785
▁olenemata	-11.0786
▁Asja	-11.0786
▁maksusoodustus	-11.0787
erakonna	-11.0788
inimeste	-11.079
▁suudaksime	-11.0791
▁hädas	-11.0795
▁karjääri	-11.0796
▁asjaolusid	-11.0798
▁olulisel	-11.0802
▁81	-11.0803
▁kallim	-11.0804
▁demokraatlik	-11.0805
▁ettevalmistuse	-11.0809
▁mõistlikult	-11.0816
▁Ants	-11.0817
raamatu	-11.0821
▁sinuga	-11.0822
▁turvalise	-11.0826
avaldus	-11.0829
▁bensiini	-11.083
aasi	-11.0832
▁jõustunud	-11.0836
▁Too	-11.0836
näitaja	-11.0837
organ	-11.0841
▁uskuda	-11.0843
vaate	-11.0843
▁valdade	-11.0844
▁Seesama	-11.0846
▁naer	-11.0846
▁ajaloolise	-11.0847
keelse	-11.0848
▁algatus	-11.0848
▁Remo	-11.0851
▁ennetus	-11.0856
▁meeskonna	-11.0859
▁toetuseks	-11.0862
▁soorita	-11.0864
▁abivahendite	-11.0867
▁aspekte	-11.087
▁teoks	-11.0871
avalduse	-11.0872
▁lahus	-11.0873
▁tükk	-11.0874
▁Mati	-11.0876
▁positiivseid	-11.0877
tre	-11.0878
▁Olles	-11.0878
▁kogenud	-11.0878
▁Võiks	-11.0879
▁Riigimetsa	-11.0879
▁isikuandmete	-11.0879
▁naine	-11.0884
▁üksus	-11.089
▁kooseluseadus	-11.089
▁kõikidest	-11.0891
▁suunatakse	-11.0892
▁sedavõrd	-11.0892
▁84	-11.0893
▁suurepäraselt	-11.0893
▁perearst	-11.0893
▁dokumenti	-11.0895
▁nimetus	-11.0899
▁lahuta	-11.0902
▁õiges	-11.0903
▁muust	-11.0906
ndamine	-11.091
▁volikogus	-11.0913
▁Kaja	-11.0915
vahendid	-11.0916
ettevõte	-11.0916
▁perearstide	-11.0916
▁kolleegidega	-11.0917
võrdõiguslikkuse	-11.0917
▁kompenseerimise	-11.0921
ule	-11.0922
▁topelt	-11.0923
andmete	-11.0925
▁Kordan	-11.0926
▁vastustes	-11.0929
▁kiirlaenu	-11.093
ndab	-11.093
▁sõidavad	-11.0932
▁hirmuta	-11.0933
▁asus	-11.0934
▁kohtunik	-11.0936
tunud	-11.0936
▁pädeva	-11.0936
▁alaealise	-11.0937
▁pöördus	-11.0938
▁elanikele	-11.0938
▁sotsiaalkaitse	-11.094
Ta	-11.0942
arvu	-11.0943
▁kujutada	-11.0953
▁kordi	-11.0956
▁maksame	-11.0957
▁tavapärase	-11.0959
▁olemegi	-11.096
turul	-11.0968
tul	-11.0969
plaan	-11.097
▁Vaadates	-11.0972
▁lahja	-11.0972
▁rakendama	-11.0973
▁kiitis	-11.0975
▁aastateks	-11.0975
▁väidab	-11.0977
ots	-11.0979
▁üleandmise	-11.0981
▁loetakse	-11.0981
▁kahjusta	-11.0983
▁liberaalse	-11.0983
▁veendumus	-11.0985
▁kirjeldatud	-11.0988
▁puudutava	-11.0989
▁arvas	-11.099
▁mõistuse	-11.0994
▁Laaneti	-11.0994
▁motiveeri	-11.0995
▁sündmuste	-11.0997
▁värvi	-11.0999
▁eelnõule	-11.1
▁munitsipaal	-11.1003
▁kohalikes	-11.1003
▁oskad	-11.1003
▁praegused	-11.1003
▁sünnib	-11.1005
▁valitsusliikme	-11.1005
▁kehtivas	-11.1006
par	-11.1006
tasandi	-11.1011
▁täpsustava	-11.1011
▁arendamiseks	-11.1014
▁realiseeru	-11.1014
▁sätete	-11.1014
▁õpetajatele	-11.102
▁turvalisus	-11.1021
▁korraldama	-11.1021
▁tõstma	-11.1022
▁keera	-11.1023
kandja	-11.1024
▁kuulasin	-11.1026
numbri	-11.1026
▁taastu	-11.1026
▁välisriigi	-11.1028
▁üliõpilaste	-11.1028
▁pinguta	-11.1031
▁panustab	-11.1037
▁numbreid	-11.1037
▁sammas	-11.104
oktoobri	-11.104
▁Na	-11.104
▁Valimiskomisjon	-11.1045
▁plaanitud	-11.1046
ari	-11.105
▁nõukogusse	-11.1051
▁800	-11.1051
vanema	-11.1053
staa	-11.1056
jõu	-11.1057
aastaste	-11.1058
▁ajaloos	-11.1059
kiri	-11.1062
▁Inimeste	-11.1062
7.	-11.1065
ette	-11.1067
▁efektiivne	-11.1068
▁vastuollu	-11.1068
▁materjalid	-11.1071
▁saadetakse	-11.1073
▁seisavad	-11.1073
▁päritolu	-11.1074
▁vähendama	-11.1075
Majanduskomisjon	-11.1077
▁tuvastada	-11.108
▁sugu	-11.108
▁juur	-11.1081
grupp	-11.1084
uses	-11.1084
▁loeb	-11.1086
▁Nestori	-11.1088
parlamendiliikme	-11.1089
▁polegi	-11.109
▁süvene	-11.1091
▁päevadel	-11.1092
▁jõuti	-11.1094
varustus	-11.1094
ps	-11.1097
ühistu	-11.1098
▁aktsiisimäära	-11.1098
▁liitlaste	-11.1099
pla	-11.1101
▁paratamatu	-11.1102
▁leheküljel	-11.1102
tut	-11.1102
▁tõstame	-11.1103
▁elamu	-11.1106
▁vastaks	-11.111
▁osalema	-11.1111
▁uuendus	-11.1112
▁Ole	-11.1112
▁piirkondade	-11.1113
ettevõtja	-11.1114
▁häbi	-11.1115
▁Oviir	-11.1115
▁valitseb	-11.1115
▁tugiteenuste	-11.1116
▁notari	-11.1117
▁väidetavalt	-11.1119
▁nimistu	-11.112
▁leiate	-11.112
▁paindlik	-11.1122
▁palutud	-11.1123
▁suurendamiseks	-11.1123
tavasti	-11.1126
▁elukoha	-11.1126
▁täitmine	-11.1126
▁tur	-11.1132
▁raie	-11.1132
▁Meelis	-11.1133
▁telefoni	-11.1133
▁üksikute	-11.1135
▁terrori	-11.1136
▁keelusta	-11.1137
▁ettevõtlust	-11.1138
▁maksusüsteem	-11.1139
poliitikast	-11.1145
▁sissemakse	-11.1149
15	-11.1152
telt	-11.1154
▁2005.	-11.1156
▁jääme	-11.1156
▁saite	-11.1158
▁fondide	-11.1159
▁esimehele	-11.1159
▁mõnest	-11.1159
▁põhimõttelise	-11.116
▁Järgmisel	-11.1161
▁mõtlete	-11.1161
▁silm	-11.1162
▁Peipsi	-11.1163
▁korraldab	-11.1164
järg	-11.1164
▁teatri	-11.1167
▁hüve	-11.1168
▁Teatud	-11.1169
kli	-11.1175
▁võidakse	-11.1177
▁astuma	-11.1178
▁Kohaliku	-11.1179
▁rahvasaadiku	-11.118
seadustiku	-11.1181
▁välistatud	-11.1182
▁muudame	-11.1184
▁rahastatakse	-11.1187
▁vähenes	-11.1188
30	-11.1189
▁tagamise	-11.119
▁lahendab	-11.119
▁alal	-11.1191
▁rahalist	-11.1192
▁mispärast	-11.1195
▁Nool	-11.1198
▁hinnatud	-11.12
▁protokoll	-11.12
▁kaug	-11.1201
lahendus	-11.1202
▁järgmisest	-11.1202
aani	-11.1203
▁Kred	-11.1203
▁aastasse	-11.1206
▁kehva	-11.1207
kondade	-11.1208
▁Mihkelson	-11.1212
▁viisi	-11.1214
▁võidab	-11.1215
▁He	-11.1215
kolm	-11.1216
stanud	-11.1219
▁ettekandest	-11.122
▁ah	-11.1221
▁haldusala	-11.1221
▁soovitusi	-11.1221
▁Repinski	-11.1222
▁palgafondi	-11.1223
▁tööjõumaksude	-11.1225
▁dialoogi	-11.1226
▁ühinemis	-11.1228
▁Viimane	-11.1228
▁teistsugused	-11.123
liikmete	-11.1233
▁jä	-11.1236
▁klientide	-11.1237
▁nähtus	-11.1238
▁voliniku	-11.1238
kontroll	-11.124
▁maakondades	-11.124
kohane	-11.1245
▁sõida	-11.1246
▁emotsionaalse	-11.1246
Riigi	-11.1249
▁kuulama	-11.1249
muse	-11.125
▁kunsti	-11.1251
▁ehituse	-11.1254
▁korja	-11.1256
▁kordama	-11.1258
stame	-11.1259
oleku	-11.126
▁aktiivne	-11.1261
▁nõuet	-11.1262
▁oleneb	-11.1262
▁liikmetest	-11.1262
▁partnerite	-11.1263
▁samasugust	-11.1263
▁tõstab	-11.1264
▁põhjusi	-11.1265
nii	-11.1265
▁jäta	-11.1269
Kadri	-11.1269
▁tahad	-11.1271
▁maksudest	-11.1273
▁tagatakse	-11.1275
▁range	-11.1275
▁dis	-11.1275
▁kandideerida	-11.1276
▁Liiduga	-11.1276
▁vaatavad	-11.1277
▁hakkan	-11.1279
▁eksperdi	-11.1284
▁tasandi	-11.1286
▁fond	-11.1286
▁kaalutlus	-11.1287
▁Lii	-11.1287
▁keha	-11.129
▁tõid	-11.129
▁ettekandjat	-11.1291
▁kehvema	-11.1294
vabadus	-11.1294
▁kohtumisel	-11.1297
▁Süüria	-11.1303
▁soove	-11.1303
▁11. 	-11.1306
▁Järelevalve	-11.1309
▁Infotund	-11.1309
▁Siinkohal	-11.1309
▁lahke	-11.1309
▁elatisabi	-11.1309
▁andsite	-11.131
▁valitsuste	-11.131
▁ühisosa	-11.1311
▁ajalehe	-11.1313
▁kutsehariduse	-11.1314
▁rahvahääletuse	-11.1314
▁muljet	-11.1318
▁vajame	-11.1318
Jaanus	-11.1319
ob	-11.1319
▁pakume	-11.1321
▁soodustada	-11.1321
▁liituda	-11.1326
▁hange	-11.1326
▁palunud	-11.1327
protsess	-11.1327
▁kõigist	-11.1328
▁ministrilt	-11.133
ca	-11.133
▁nädalas	-11.1331
Sa	-11.1332
▁kodakondsusest	-11.1333
▁Põlva	-11.1335
▁eemal	-11.1336
▁ajad	-11.1339
▁Midagi	-11.1342
õe	-11.1349
▁hindade	-11.135
▁pädevuse	-11.135
▁kohustusliku	-11.1352
firmade	-11.1355
▁kõrvalda	-11.1355
50	-11.1356
▁suudeta	-11.1358
▁kaheksanda	-11.1362
▁tähendada	-11.1363
IE	-11.1365
▁rahastuse	-11.1367
ppe	-11.1382
leppes	-11.1384
▁täitmata	-11.1385
▁kasvaks	-11.1386
imine	-11.1387
▁kontakt	-11.1389
vahendeid	-11.139
▁täiskogule	-11.1395
▁kasutatava	-11.1398
▁südametunnistus	-11.1398
Ko	-11.1398
▁Mere	-11.14
kindlustusameti	-11.14
▁hullem	-11.1406
On	-11.1406
▁kriteeriumid	-11.1406
▁põlvkonna	-11.1407
▁selguse	-11.1408
▁Ve	-11.1409
▁politseinike	-11.141
▁objekt	-11.1411
▁paralleelselt	-11.1412
▁varjatud	-11.1413
▁sotsiaalne	-11.1417
▁langetamine	-11.1417
nute	-11.1418
▁laiemat	-11.1419
▁arstid	-11.1421
▁taotleja	-11.1421
▁tagajärjed	-11.1422
▁lastest	-11.1422
voo	-11.1424
▁ettevõtjatel	-11.1426
▁loonud	-11.1428
▁seab	-11.1429
▁poliitik	-11.1429
▁jõutakse	-11.143
▁rõhutas	-11.1431
▁majutus	-11.1433
▁määramise	-11.1437
▁lastel	-11.1437
▁Vana	-11.1438
▁täiendavad	-11.1439
▁liikumist	-11.1441
▁parvlaeva	-11.1441
▁umbusaldus	-11.1444
▁raiu	-11.1445
▁Helmut	-11.1446
▁poolele	-11.1447
▁liitumise	-11.1448
▁1,3	-11.1452
aomavalitsuste	-11.1457
oot	-11.1457
▁Alates	-11.1458
▁alandamise	-11.1458
▁kinnisasja	-11.1458
▁valge	-11.1459
▁lõppemise	-11.1461
▁kodanikke	-11.1462
▁86	-11.1463
▁volikogude	-11.1466
▁käsu	-11.1467
▁viimati	-11.1468
sem	-11.1471
ndamist	-11.1472
▁põhiseaduses	-11.1475
▁mõtleb	-11.148
▁istungitel	-11.148
tingimuste	-11.1481
▁jumal	-11.1481
▁sündimus	-11.1484
▁peaspetsialist	-11.1486
tasude	-11.1487
▁tulin	-11.1493
arendus	-11.1493
▁sotside	-11.1496
▁moodus	-11.1498
▁pealinna	-11.1499
▁Lepingu	-11.1507
▁suutma	-11.1507
▁renoveeri	-11.1507
▁terviku	-11.1507
▁ründa	-11.1507
tagu	-11.1516
▁väidate	-11.1517
▁Lu	-11.1517
▁varasematel	-11.1519
▁probleemist	-11.152
laenu	-11.1521
▁konsensuse	-11.1522
▁Ettekandjale	-11.1523
▁esineb	-11.1523
▁planeerida	-11.1523
▁Jätkame	-11.153
▁arutatava	-11.1536
▁välispoliitilis	-11.1538
▁probleemiks	-11.1539
ühe	-11.1539
▁ettevõtet	-11.1544
▁peaksite	-11.1545
▁ennusta	-11.1547
▁hooldekodu	-11.1555
▁Haigla	-11.1557
▁Vaarmann	-11.1557
▁leidsime	-11.1557
▁tanki	-11.1557
▁murelikuks	-11.1558
▁tsiteerin	-11.1558
▁vastuvõetud	-11.1559
▁90%	-11.156
▁75%	-11.156
toetused	-11.1561
200	-11.1562
▁andmist	-11.1562
▁koguni	-11.1564
▁suhtuda	-11.1565
rand	-11.1574
▁pikad	-11.1575
tti	-11.1575
▁kirjutab	-11.1576
▁tuhande	-11.1582
▁Piirivalveamet	-11.1582
▁Kolleegid	-11.1585
▁kasutusel	-11.1585
uba	-11.1586
▁veeseaduse	-11.159
▁Arv	-11.159
▁suitseta	-11.1591
▁keerulise	-11.1591
▁pidid	-11.1591
▁Ro	-11.1592
▁tegelikku	-11.1593
▁suurepärase	-11.1595
▁ühineda	-11.1595
▁hindab	-11.1595
▁vastamata	-11.1598
▁lae	-11.1599
▁möödu	-11.1601
majade	-11.1605
▁suunal	-11.1605
▁läbipaistva	-11.1605
oktoobril	-11.1605
▁jättis	-11.1607
▁repliigi	-11.1607
▁spetsiifilise	-11.1607
▁haara	-11.1607
▁seina	-11.1607
▁Tavaliselt	-11.1607
▁lapsevanema	-11.1608
▁kuidagimoodi	-11.1612
mal	-11.1614
▁palgatõus	-11.1614
▁kaovad	-11.1614
▁märku	-11.162
▁suhtute	-11.1624
vaat	-11.1629
▁kolmest	-11.1633
▁põhjendada	-11.1634
▁saavutamiseks	-11.1634
▁konkreetsel	-11.1641
▁korrektse	-11.1643
▁vahetus	-11.1645
▁Siret	-11.1646
▁juhtumid	-11.165
▁vastanda	-11.1651
▁muudest	-11.1651
▁skeem	-11.1655
Hasartmängumaksu	-11.1657
▁Inimene	-11.1657
▁siinkõneleja	-11.1657
▁põhiküsimus	-11.1658
▁2021	-11.1659
täienduskoolitus	-11.1659
▁lobi	-11.166
▁kinnipidamis	-11.166
▁juhtkonna	-11.166
▁Baltic	-11.1662
▁omandada	-11.1662
▁püüavad	-11.1663
▁Süürias	-11.1664
▁toitu	-11.1666
▁valitakse	-11.1668
▁esitavad	-11.1668
▁ametlikult	-11.167
▁mõnigi	-11.1672
▁laulu	-11.1673
▁Peab	-11.1673
▁laeku	-11.1674
▁selgitusi	-11.168
▁mõneti	-11.1681
▁oskavad	-11.1686
▁vabas	-11.1687
▁hoonete	-11.1692
▁registreerimise	-11.1693
tehingu	-11.1693
▁vähemus	-11.1699
▁tarbimis	-11.1701
▁realiseeri	-11.1705
kasutuse	-11.1708
▁halvenda	-11.1708
▁Mälberg	-11.1708
▁volituste	-11.1708
mised	-11.1709
▁Koos	-11.171
▁viidanud	-11.171
oodetavasti	-11.1711
▁püüdsin	-11.1713
▁kasutaja	-11.1714
▁sead	-11.1719
▁efektiivselt	-11.1719
▁artikkel	-11.1721
▁jõustuma	-11.1721
▁raport	-11.1723
ohutuse	-11.1723
▁väljendada	-11.1723
▁tasandusfondi	-11.1728
▁parlamendile	-11.173
int	-11.1734
▁nimetamise	-11.1736
▁alustanud	-11.1739
▁kõrg	-11.1739
▁nõustamis	-11.1744
▁pideva	-11.1745
akse	-11.1745
▁pinnalt	-11.1747
▁võõr	-11.1752
▁saadikut	-11.1752
▁val	-11.1752
▁fraktsioonist	-11.1753
▁töötame	-11.1754
tamisel	-11.1758
▁puudujäägi	-11.1759
▁mikrofon	-11.176
▁andmekogu	-11.176
▁sõltuvalt	-11.176
▁tegevusloa	-11.1761
▁pakett	-11.1763
rve	-11.1763
eksami	-11.1764
▁kipub	-11.1764
▁elav	-11.1765
▁käitunud	-11.1768
all	-11.1769
▁motiveerida	-11.1769
ingu	-11.177
▁lõpetamist	-11.177
▁unustada	-11.1774
▁loeme	-11.1775
erakondade	-11.1776
tamisega	-11.178
▁konteksti	-11.1783
novembril	-11.1783
▁tundma	-11.1784
kordse	-11.1784
väli	-11.1785
▁asuva	-11.1785
▁tõstatas	-11.1789
▁kohatu	-11.1789
▁koormust	-11.1793
▁minuga	-11.1793
▁hoidmise	-11.1796
▁vaese	-11.1798
▁liik	-11.1799
▁varja	-11.1801
▁Aasa	-11.1808
▁Tervise	-11.181
▁arutamise	-11.181
stunud	-11.1811
▁vanad	-11.1811
▁parandama	-11.1812
▁selja	-11.1813
uh	-11.1813
▁juhtima	-11.1814
▁jõustumist	-11.1814
▁kokkulepped	-11.1814
▁Koostöö	-11.1815
pinda	-11.1815
info	-11.1816
kvoot	-11.1817
▁vastuvõtmine	-11.1817
▁keskel	-11.1818
▁väiksemate	-11.1818
▁otsustamise	-11.1822
euro	-11.1822
▁immigratsiooni	-11.1823
▁kokkulepitud	-11.1823
▁Ausalt	-11.1823
▁suhteid	-11.1825
▁õpivad	-11.1825
perioodil	-11.1826
▁nominaalse	-11.1828
juhid	-11.1832
▁enama	-11.1834
▁tegevusest	-11.1835
▁seisnud	-11.1836
sfääri	-11.1843
▁Anvelti	-11.1845
▁aruandes	-11.1846
nar	-11.1846
▁Soovi	-11.1848
▁Kolmanda	-11.1851
▁tegude	-11.1852
▁koonda	-11.1853
▁näitama	-11.1853
▁15. 	-11.1857
▁helista	-11.1858
▁halda	-11.1861
▁visa	-11.1861
sekretär	-11.1862
▁Jõhvi	-11.1862
▁talituse	-11.1862
▁16-	-11.1862
▁peeti	-11.1864
▁lubadus	-11.1865
▁Põhi	-11.1865
▁70%	-11.1866
▁Lapse	-11.1867
▁julgeolekut	-11.1868
▁9,	-11.1869
▁maksutulu	-11.1869
▁tabel	-11.187
▁vähendatakse	-11.187
▁seadusandlik	-11.1871
▁kehtestanud	-11.1872
▁puutunud	-11.1873
▁circa	-11.1876
▁kaaluma	-11.1876
▁alandada	-11.1877
Igor	-11.1877
konto	-11.1878
▁väärteo	-11.1881
▁peres	-11.1882
▁kuues	-11.1888
▁jurist	-11.189
▁asjasse	-11.189
▁kokkuleppeid	-11.1892
▁toetatakse	-11.1894
▁seeläbi	-11.1895
▁elust	-11.1896
▁loobuma	-11.1899
▁illegaalse	-11.1899
▁lapsetoetus	-11.19
▁juhtuma	-11.1904
▁vaidluste	-11.1911
ettepanekuga	-11.1911
▁ühiskondlik	-11.1913
▁poolteise	-11.1914
▁kolleegide	-11.1915
▁keskkonnamõju	-11.1916
▁linnades	-11.1916
▁120	-11.1916
▁sõiduki	-11.1917
▁maksukorralduse	-11.1918
ava	-11.192
▁kokkulepete	-11.1923
praktika	-11.1928
▁rakendub	-11.193
▁lubaduse	-11.1931
▁neljapäevast	-11.1931
▁parandab	-11.1932
▁lõpule	-11.1933
0%	-11.1933
▁protseduur	-11.1937
hinda	-11.1937
▁avalikkuses	-11.1939
▁valusa	-11.1939
▁kirjeldada	-11.1941
▁Hä	-11.1947
▁pikki	-11.1952
▁nõrk	-11.1962
ettevõtted	-11.1962
▁võlakoormus	-11.1962
▁paragrahv	-11.1963
investor	-11.1963
vahetus	-11.1965
▁finantseerimis	-11.1966
▁Riigikantselei	-11.1966
▁aktuaalne	-11.1966
▁Kross	-11.1966
▁taotlema	-11.1967
ret	-11.1968
▁2004.	-11.1968
▁kaugeltki	-11.1969
▁arusaamise	-11.1975
tööde	-11.1976
▁detailselt	-11.1977
▁kusagilt	-11.1979
▁osaluse	-11.1982
▁rahvasaadik	-11.1984
▁viivad	-11.1985
▁riigipiiri	-11.1985
▁võimaldavad	-11.1987
▁tabeli	-11.1988
tur	-11.1988
▁puht	-11.1991
▁mõõt	-11.1991
ange	-11.1991
▁ainu	-11.1993
▁minut	-11.1994
▁alkoholiaktsiis	-11.1995
▁akti	-11.1995
▁üksteist	-11.1995
▁valva	-11.1996
▁ametist	-11.1997
▁kujutan	-11.1998
▁küsimustest	-11.1998
▁arusaadava	-11.1999
liik	-11.1999
▁noorema	-11.2002
▁kujundamisel	-11.2002
menetlust	-11.2003
▁Vastu	-11.2005
▁Sõerdi	-11.2005
▁tasude	-11.2007
rr	-11.201
▁direktor	-11.2015
▁Alender	-11.2018
▁kaasettekande	-11.2018
▁ratsionaalse	-11.2018
▁eelkäija	-11.2018
▁läheneda	-11.2018
unapuu	-11.202
▁toetaja	-11.2023
▁lähima	-11.2025
▁laekuva	-11.2025
▁lahendamisel	-11.2025
▁eelmisest	-11.2026
▁garantiid	-11.2026
 3	-11.2026
▁vanade	-11.2027
▁valitsusest	-11.2028
▁Toobali	-11.203
▁lõigu	-11.2032
toetusi	-11.2032
▁asjaolud	-11.2033
▁tuttava	-11.2035
▁kehtestab	-11.2035
▁kohalt	-11.2036
▁mingist	-11.2037
▁takistus	-11.204
mai	-11.204
▁jõustus	-11.204
▁millistel	-11.2044
▁piirkonda	-11.2045
▁süüdistus	-11.2047
▁lühema	-11.2048
▁igaühel	-11.2049
▁pidu	-11.2052
▁Statistikaameti	-11.2053
tõrje	-11.2053
▁kindlust	-11.2053
▁vabasta	-11.2054
levi	-11.2056
▁menetlema	-11.2058
▁kahane	-11.2058
sugune	-11.2058
▁inimesega	-11.2059
▁numbrite	-11.2061
▁võitja	-11.2064
▁tooda	-11.2067
▁olulisemad	-11.2067
tuma	-11.207
▁alampalga	-11.2071
▁ideoloogia	-11.2071
▁liha	-11.2071
▁võlakirju	-11.2071
▁mineviku	-11.2071
▁Pevkuri	-11.2073
▁Afganistanis	-11.2073
▁teadlased	-11.2073
▁omandamise	-11.2074
▁hüvita	-11.2075
▁partneri	-11.2079
▁sõnavõtt	-11.2081
▁panustanud	-11.2082
▁vajalikku	-11.2083
▁kehtestamine	-11.2084
▁tutvustan	-11.2085
Vabandust	-11.2088
▁muudes	-11.209
▁pensione	-11.2093
▁kumma	-11.2093
▁patsient	-11.2097
▁aegu	-11.2097
▁valimisel	-11.2099
▁Vastava	-11.2099
▁avaldust	-11.2101
▁3000	-11.2101
▁tänaval	-11.2103
▁Tallinnasse	-11.2104
▁katteallika	-11.2106
▁valve	-11.2108
▁heal	-11.2109
▁laekumine	-11.2111
▁elamisluba	-11.2115
▁pil	-11.2116
▁ohtliku	-11.2118
bar	-11.2119
▁mõjusid	-11.212
▁asjades	-11.212
Ü	-11.2121
▁poliit	-11.2122
▁ajend	-11.2123
pärase	-11.2123
öödunud	-11.2123
▁kiiret	-11.2125
▁lugesite	-11.2126
raal	-11.2126
▁maksumäära	-11.2126
▁võ	-11.2127
▁loogikast	-11.2127
▁külalised	-11.2127
tasin	-11.2127
▁kriteeriumi	-11.2128
▁nõuavad	-11.213
▁paranenud	-11.2132
▁Amet	-11.2132
▁lahendatakse	-11.2138
▁esitamiseks	-11.2141
▁fa	-11.2141
Praegu	-11.2142
keti	-11.2143
▁reegel	-11.2149
▁trendi	-11.2149
▁initsiatiiv	-11.2151
eelse	-11.2152
▁mikrofoni	-11.2154
▁suurest	-11.2154
▁ajakirjanduse	-11.2154
erakond	-11.2154
▁sündis	-11.2157
▁sõnastuse	-11.2157
▁vastupidine	-11.2159
▁mõlemal	-11.2161
▁informeeri	-11.2162
▁keskkond	-11.2163
▁Kahe	-11.2165
▁järeldused	-11.217
▁tähtsad	-11.2172
▁Tol	-11.2172
▁abinõu	-11.2175
▁panete	-11.2176
▁maksimum	-11.2177
▁kahetsusväärne	-11.2177
▁kukkunud	-11.2177
▁leidsid	-11.2177
▁Varem	-11.2177
▁President	-11.2177
▁esitle	-11.2177
▁märksõna	-11.2177
▁rakendamiseks	-11.2179
▁põhimõttelist	-11.2185
▁maksustada	-11.2185
▁pidamise	-11.2186
▁järgneva	-11.2186
▁kokkuhoid	-11.2187
▁käsitletakse	-11.2187
▁or	-11.2188
▁puhkuse	-11.2192
▁konto	-11.2192
▁sätestada	-11.2193
augu	-11.2193
▁mõistus	-11.2193
▁masina	-11.2197
▁Arupärimise	-11.22
pul	-11.2202
keele	-11.2203
▁vahend	-11.2205
▁Paar	-11.2211
▁endaga	-11.2214
strateegiat	-11.2215
▁energeetika	-11.2217
▁kallima	-11.2218
▁alanud	-11.222
▁tagasisidet	-11.2221
isse	-11.2223
▁vähenema	-11.2224
▁makstava	-11.2227
võrk	-11.2227
▁Esita	-11.2227
▁lihtsama	-11.2228
▁ebaõiglus	-11.223
▁ettekujutus	-11.2231
riski	-11.2231
▁tõlgi	-11.2231
atud	-11.2231
▁ühelgi	-11.2231
▁juhtimine	-11.2231
▁moraalse	-11.2231
▁Jällegi	-11.2235
▁kiirem	-11.2236
▁kuritegevuse	-11.2238
tii	-11.224
▁võtmes	-11.224
▁absoluutse	-11.2241
▁tehnilised	-11.2242
▁lenda	-11.2246
▁järgmises	-11.2247
▁täidavad	-11.2247
▁kohtumine	-11.2249
▁katteks	-11.225
joon	-11.2254
▁nimetab	-11.2254
▁majanduslikku	-11.2254
matult	-11.226
programm	-11.2261
▁autonoomia	-11.2266
▁defineeri	-11.2269
▁tähelepanek	-11.2271
piirangu	-11.2272
▁seisundi	-11.2272
▁ähvarda	-11.2275
▁piire	-11.2276
▁jätkuks	-11.2279
▁kao	-11.228
▁kallale	-11.2282
▁menetleja	-11.2283
korda	-11.2284
▁SKAIS	-11.2284
▁läbipaistev	-11.2284
▁peaasjalikult	-11.2284
▁päevakorrast	-11.2286
üksus	-11.2288
▁Eelmine	-11.2289
▁kokkuhoiu	-11.2289
▁võimeka	-11.2289
▁Mitme	-11.229
keskused	-11.229
▁analüüsitud	-11.2291
▁sobiv	-11.2292
nimõiguste	-11.2296
▁leevenda	-11.2296
▁hambaravi	-11.2297
▁tagasiside	-11.2298
▁liigu	-11.2299
▁ohvri	-11.2305
▁tuld	-11.2306
olukorras	-11.2311
▁järk	-11.2311
tootmise	-11.2312
▁osalemine	-11.2314
▁mäletame	-11.232
▁määratle	-11.2323
jah	-11.2323
▁haridusministri	-11.2324
▁otsusta	-11.2328
▁päästekomando	-11.2331
▁plaanib	-11.2334
▁tervitatav	-11.2334
▁kär	-11.2334
▁tegutsemise	-11.2335
▁järgne	-11.2336
▁lammuta	-11.2338
▁juriidiliste	-11.2338
▁Arvan	-11.234
▁miljoneid	-11.234
väeteenistuse	-11.2341
▁Sõ	-11.2344
▁mõistlikud	-11.2346
▁jõuka	-11.2348
▁Euroopasse	-11.2352
▁sisene	-11.2355
▁suurusega	-11.2358
toodete	-11.2358
Tartu	-11.2359
▁eeldame	-11.2359
▁arutades	-11.2361
▁jäätmete	-11.2362
▁vastutama	-11.2363
▁põhiseadusvasta	-11.2363
▁loom	-11.2366
▁soodustuse	-11.2367
▁kasutamiseks	-11.2368
Teiseks	-11.237
ovi	-11.2371
riigis	-11.2375
teadus	-11.2375
▁kaasamine	-11.2378
vahelise	-11.238
kõ	-11.2381
▁kehtivate	-11.2381
▁liigi	-11.2381
▁250	-11.2382
kuju	-11.2391
▁Olukord	-11.2393
▁markeeri	-11.2393
▁seltskond	-11.2393
▁tollal	-11.2393
▁moment	-11.2393
▁eriarstiabi	-11.2393
▁kodulehel	-11.2393
▁valituks	-11.2393
▁vastuvõtu	-11.2394
▁katsu	-11.2394
▁lihtsustatud	-11.24
▁toetusrühma	-11.2402
▁vestlus	-11.2404
▁märgata	-11.2405
▁operatsioonil	-11.2407
▁nägemus	-11.2409
▁täpsustuse	-11.241
▁hääletab	-11.2411
▁kaitseministri	-11.2412
▁tänava	-11.2418
▁ammendava	-11.2421
▁Partsi	-11.2423
▁tänaste	-11.2423
 2	-11.2426
TA	-11.2429
▁pii	-11.2431
▁prioriteete	-11.2433
▁avaldamise	-11.2433
▁saamist	-11.2437
▁pärand	-11.2437
ühendus	-11.2437
▁Mõnes	-11.2438
dokument	-11.2438
▁paljudest	-11.2442
▁tööaja	-11.2443
▁kaitsevõime	-11.2444
▁ambitsioonika	-11.2445
▁suhkru	-11.2447
▁tõstetud	-11.2447
▁VII	-11.2447
▁Tänu	-11.2447
▁piirmäära	-11.2448
▁Padar	-11.2448
▁möönan	-11.2449
▁teistsugust	-11.2449
▁baasil	-11.2449
▁Venemaalt	-11.2453
▁tutvustama	-11.2455
▁senine	-11.2456
▁PRIA	-11.2457
novembri	-11.2458
▁õpilasi	-11.246
▁staatus	-11.246
uli	-11.246
▁ainukene	-11.2463
▁vajalike	-11.2464
kursus	-11.2465
▁saamine	-11.2465
▁liiklusseaduse	-11.2466
▁Andrei	-11.2466
▁küsivad	-11.2467
▁sõitma	-11.2469
▁mõttega	-11.247
organisatsioon	-11.2475
▁sotsiaalsed	-11.2478
tsükli	-11.2478
▁vedaja	-11.2479
▁valitsusliidu	-11.2479
▁Oudekki	-11.2487
▁fikseeri	-11.2487
▁graafiku	-11.2492
oloogia	-11.2501
▁Päevakord	-11.2502
▁säärane	-11.2502
▁esmatasandi	-11.2502
▁veerand	-11.2503
▁sõnavõttude	-11.2504
▁laena	-11.2506
▁trassi	-11.2507
mudeli	-11.2508
▁lähemale	-11.2509
▁vaimu	-11.2511
eurose	-11.2512
▁SA	-11.2513
▁võrdleme	-11.2514
▁registreerida	-11.2517
▁tõusis	-11.2519
▁maakondade	-11.2519
▁Lo	-11.2521
▁Viimasel	-11.2522
▁võistlus	-11.2522
▁õpib	-11.2523
▁kõrgemad	-11.2523
Juhataja	-11.2524
Lõpetuseks	-11.2524
Arno	-11.2524
Auväärt	-11.2524
▁planeeringu	-11.2525
▁valikut	-11.2526
▁kattu	-11.2528
tasid	-11.2529
mail	-11.253
▁ametnikke	-11.253
▁mõjuga	-11.2533
kohtunik	-11.2534
▁tuleksid	-11.2537
▁hinnatakse	-11.2537
üli	-11.2537
võimet	-11.2541
▁vabariigi	-11.2542
detsembri	-11.2545
▁Savisaare	-11.2546
▁Soo	-11.2546
▁lahkumise	-11.2547
▁tulenev	-11.2549
▁rahvasaadikute	-11.2553
▁põhiõiguste	-11.2555
▁Parlament	-11.2557
▁stabiilse	-11.2557
▁veterinaar	-11.2557
▁Kõiv	-11.2557
▁õieti	-11.2557
▁Linde	-11.2557
▁tarbeks	-11.2558
▁jagama	-11.2558
▁traditsioonilis	-11.2558
▁rikkus	-11.2558
▁iseseisvuse	-11.2561
▁rikutud	-11.2562
▁Afganistani	-11.2562
▁maksustamine	-11.2565
▁perspektiiv	-11.2568
must	-11.2569
▁arusaamist	-11.257
▁karistada	-11.257
▁märkuse	-11.2573
ulenevalt	-11.2573
▁kohtuotsus	-11.2574
▁kolmandate	-11.2575
▁arvestatav	-11.2578
Ra	-11.2582
▁käiku	-11.2582
▁tuhandete	-11.2585
▁valitsemis	-11.2587
mehhanism	-11.2587
▁õpet	-11.2589
▁ 	-11.2592
▁suurde	-11.2603
▁optimistlik	-11.2604
▁lubaduste	-11.2605
▁narko	-11.2609
▁laevad	-11.2612
▁Kinnisvara	-11.2613
▁dividende	-11.2613
▁kümneminutilist	-11.2613
▁tõlke	-11.2613
▁võrdlemisi	-11.2614
▁kättesaadavaks	-11.2614
vabaduse	-11.2615
▁liiguta	-11.2622
▁õpetamise	-11.2623
▁mured	-11.2624
▁kuuleme	-11.2625
▁eksisteerib	-11.2625
valimised	-11.2627
▁lõpetas	-11.2628
Viru	-11.2632
▁kontakti	-11.2633
▁tehingu	-11.2635
iimi	-11.2637
▁arvestab	-11.2639
ool	-11.2639
▁suhetes	-11.264
▁analüüside	-11.264
park	-11.2643
▁täieliku	-11.2643
▁reservid	-11.2644
päraselt	-11.2644
▁märki	-11.2648
Sotsiaalkomisjon	-11.265
▁rahvusvahelised	-11.2651
▁sisemise	-11.2653
▁paiguta	-11.2654
▁muutused	-11.2657
▁saadi	-11.2657
▁traditsiooni	-11.2658
▁jumala	-11.2659
▁liita	-11.2659
▁Muidu	-11.2661
▁põhjalikku	-11.2668
▁Väino	-11.2669
▁suitsu	-11.2669
▁õigusega	-11.2672
▁Praegusel	-11.2675
▁asuta	-11.2676
form	-11.2678
▁abiks	-11.2678
▁ühenda	-11.2679
▁lapsetoetust	-11.2681
▁Bre	-11.2682
▁väljamakse	-11.2683
▁operatsioonide	-11.2685
▁keskenduda	-11.2688
ülesanne	-11.2689
▁direktori	-11.2689
▁kadu	-11.269
▁kolmapäevast	-11.2691
▁miinuses	-11.2691
▁pankroti	-11.2691
▁Istung	-11.2693
▁probleemidest	-11.2694
▁käsitles	-11.2697
▁hindamine	-11.2699
▁raskem	-11.27
jaks	-11.2709
▁tõsiseid	-11.2713
▁küsisid	-11.2714
aktsioon	-11.2715
▁osalusega	-11.2715
▁Jo	-11.2716
▁täpsema	-11.2717
▁sissetulekud	-11.2717
▁tudeng	-11.2723
gruppide	-11.2723
▁hektari	-11.2723
▁tempo	-11.2724
sõbralik	-11.2724
▁Nõu	-11.2725
▁võltsi	-11.2725
▁tehnilisi	-11.2725
▁hukku	-11.2725
▁vastastikuse	-11.2725
▁läbivaatamise	-11.2725
▁nutika	-11.2725
▁OÜ	-11.2726
küla	-11.2727
Ju	-11.2728
▁visiooni	-11.2729
▁vastasid	-11.2729
▁analüüsima	-11.2729
▁kahepoolse	-11.273
lugu	-11.273
▁sügise	-11.273
▁naabrite	-11.2731
ndama	-11.2731
▁Pikhofi	-11.2732
▁konventsiooniga	-11.2735
▁võrdsus	-11.2735
▁päevakorral	-11.2736
▁sõnastatud	-11.2737
▁kaudselt	-11.2737
▁ühtlusta	-11.2738
▁ülesannet	-11.2743
▁kordades	-11.2744
▁kaamera	-11.2744
▁Nendel	-11.2744
kaaslaste	-11.2746
▁Krimmi	-11.2748
▁ruumis	-11.275
▁kasutamata	-11.2752
▁seaduslik	-11.2754
▁Otsuse	-11.2756
▁teisipäevast	-11.2756
▁ühiskondliku	-11.2757
▁põhjuseid	-11.2757
▁reforme	-11.2759
▁näpuga	-11.276
iguskomisjon	-11.2767
▁sotsiaalsete	-11.2769
▁tulubaas	-11.277
▁poliitilises	-11.277
▁istungile	-11.2773
▁pensionifondide	-11.2775
▁teades	-11.2775
nõuded	-11.2776
▁tugevama	-11.278
lastele	-11.278
tulek	-11.2782
▁elanikke	-11.2783
▁kahelda	-11.2783
▁11,	-11.2784
komitee	-11.2785
▁sissetulekuga	-11.2788
tajad	-11.2788
järgult	-11.2791
▁teadusministri	-11.2792
▁kümnenda	-11.2793
▁raskus	-11.2795
▁remondi	-11.2795
▁sellistel	-11.2796
▁summade	-11.2797
▁nimetati	-11.2797
▁pank	-11.28
▁detsember	-11.2802
▁Tiina	-11.2803
▁soodsama	-11.2807
▁rahasta	-11.2808
▁valmistada	-11.2809
▁mõjud	-11.2812
jat	-11.2813
▁suhtu	-11.2813
▁äärmus	-11.2814
▁riskide	-11.2815
▁kergem	-11.2818
▁lõhk	-11.2821
▁riikidel	-11.2823
▁ilmselge	-11.2824
▁protsessid	-11.2825
ivse	-11.2828
▁viisa	-11.2829
▁prognoosida	-11.2829
asutustes	-11.283
▁kutsunud	-11.2836
▁optimaalne	-11.2838
▁juhata	-11.284
▁haldamise	-11.284
▁kerkinud	-11.2841
▁väe	-11.2841
▁võidu	-11.2841
▁Ilma	-11.2842
▁algatamise	-11.2844
▁mahuka	-11.2844
▁12. 	-11.2846
▁hädaolukorra	-11.2846
▁hääled	-11.2846
▁rikas	-11.2847
▁toetu	-11.2849
▁pikkuse	-11.2849
▁lähemal	-11.285
▁börsi	-11.2853
▁vähese	-11.2854
▁arendamine	-11.2854
▁Laari	-11.2857
▁muresid	-11.2858
puudus	-11.2859
▁hoolda	-11.286
▁istuvad	-11.2861
haigla	-11.2861
septembril	-11.2863
▁kannatanu	-11.2867
▁Adamsi	-11.2869
algatus	-11.287
▁maini	-11.2871
rü	-11.2872
▁rünnaku	-11.2872
Komisjoni	-11.2872
▁Mi	-11.2874
▁ühendust	-11.288
▁14. 	-11.288
▁garanteeri	-11.288
pakk	-11.288
▁Imre	-11.2884
▁III	-11.2885
▁memorandumi	-11.2886
▁avaldusi	-11.2886
▁tulenevate	-11.2886
nõude	-11.2888
▁Nendest	-11.2889
▁spetsialist	-11.2891
▁ülal	-11.2892
asu	-11.2892
▁and	-11.2893
▁voorus	-11.2895
▁Jõgeva	-11.2895
▁minnes	-11.2895
▁säärase	-11.2895
▁Välja	-11.2896
▁magustatud	-11.2896
▁vältel	-11.2896
▁Teisisõnu	-11.2896
▁kõrgkooli	-11.2897
▁ülesandeks	-11.2897
▁lisavahendeid	-11.2898
▁üheksanda	-11.2898
▁laudadel	-11.2899
▁majandusaasta	-11.29
▁kaheks	-11.2901
▁Küsiti	-11.2905
▁meenutada	-11.2906
▁helistab	-11.2906
▁SE	-11.2906
ria	-11.2908
▁juurdepääsu	-11.2914
▁tasku	-11.2916
pra	-11.2916
▁mõtlevad	-11.2916
▁Liina	-11.2917
tarbija	-11.2918
▁olematu	-11.2919
▁teemadega	-11.2922
kasvataja	-11.2923
▁asjale	-11.2924
▁esimesest	-11.2924
▁õppelaenu	-11.2925
▁kehtivat	-11.2928
▁Esimesena	-11.2928
▁puudutanud	-11.293
partei	-11.293
▁kooskõlastus	-11.293
▁oktoober	-11.2931
▁soodus	-11.2931
kvalifitseeritud	-11.2931
▁väiksemaks	-11.2932
▁toome	-11.2934
▁kohtumenetluse	-11.2937
▁sellekohase	-11.2939
▁edenda	-11.2939
▁käitumis	-11.2942
▁käsitlus	-11.2942
▁bio	-11.2945
▁Pä	-11.2945
▁valijad	-11.2946
▁rahvuslik	-11.2949
▁maksukoormust	-11.2953
▁sümpaatne	-11.2953
▁aastakümneid	-11.2953
▁sünnijärgse	-11.2954
▁pikkus	-11.2955
▁teadvusta	-11.2956
▁Põhiseaduse	-11.2956
▁toimivad	-11.2956
andmed	-11.2956
pärast	-11.2961
▁täiendatakse	-11.2961
▁Talviku	-11.2967
▁materjalide	-11.2967
▁etapp	-11.2967
▁esindajaid	-11.297
▁nimetame	-11.2974
▁lisatakse	-11.2975
▁saabunud	-11.2975
▁kinnitavad	-11.2977
▁valib	-11.2977
▁tehtava	-11.2978
▁tasuvus	-11.2979
▁ühinenud	-11.298
▁protseduurilise	-11.2985
▁väljapoole	-11.2985
▁otsustest	-11.2987
▁teele	-11.2989
▁looda	-11.2991
▁väärika	-11.2994
▁eemale	-11.2998
▁avab	-11.3001
palk	-11.3004
▁rõõmusta	-11.3004
▁Mitmed	-11.3005
ce	-11.3008
▁Kõigi	-11.301
▁erimärgistatu	-11.3011
▁suletud	-11.3011
▁elektrienergia	-11.3011
▁miinimumpalga	-11.3012
▁näitajad	-11.3012
▁hii	-11.3014
▁inflatsiooni	-11.3014
▁rumal	-11.3015
▁kauge	-11.3016
liikide	-11.3019
▁tutvunud	-11.3021
▁ettevalmistamis	-11.3021
▁suurendatakse	-11.3022
▁omanikud	-11.3022
▁asendusliikme	-11.3025
▁erineb	-11.3025
▁Teiste	-11.3025
▁Kõikide	-11.3026
▁Vastuse	-11.3027
▁otsustatakse	-11.3029
▁kasvada	-11.303
kal	-11.3031
▁toetamiseks	-11.3032
▁külma	-11.3033
▁huvigruppide	-11.3036
▁juhtkond	-11.3037
põlve	-11.3039
▁joon	-11.304
▁lubati	-11.3046
▁vältimise	-11.3047
▁vähendamiseks	-11.3051
likuks	-11.3051
▁arvude	-11.3052
▁Heid	-11.3055
ip	-11.3057
▁õnnetu	-11.3058
▁nimetama	-11.306
▁Riigikogul	-11.3063
ohu	-11.3063
▁turgude	-11.3063
▁repliik	-11.3069
▁naabri	-11.3072
tasemel	-11.3073
▁vande	-11.3074
▁ulatus	-11.3078
▁võrdluse	-11.3078
▁Mali	-11.3079
▁salata	-11.308
andja	-11.308
kriisi	-11.3081
▁inimestelt	-11.3082
▁mobiil	-11.3082
▁mõningate	-11.3084
▁maksmist	-11.3086
▁merendus	-11.3086
▁praegusest	-11.3087
▁volitused	-11.3087
▁peaministrina	-11.3087
demokraatlik	-11.3088
▁arvestame	-11.3091
Lauli	-11.3092
▁päevaks	-11.3094
▁Ammase	-11.3094
▁kolle	-11.3096
kaitseminister	-11.3097
▁ohutu	-11.3098
▁usalduse	-11.3099
▁partnerid	-11.3099
▁karja	-11.3099
▁kõnepuldist	-11.3099
▁sotsid	-11.3101
▁tunnustan	-11.3103
▁2018. 	-11.3105
▁seotu	-11.3122
▁levita	-11.3127
▁tulles	-11.3127
▁Sepp	-11.3127
▁raiska	-11.3127
▁rahakoti	-11.3128
▁korraldamine	-11.3128
▁kohtlemine	-11.3128
▁migratsiooni	-11.3128
koormuse	-11.3129
▁ammendatud	-11.313
▁osutunud	-11.3131
▁hinnanguliselt	-11.3132
▁toru	-11.3132
▁selgem	-11.3134
tasite	-11.3134
▁maksukoormuse	-11.3134
võimsus	-11.3134
▁lülitada	-11.3135
▁meeldiv	-11.3135
▁langetatud	-11.3136
▁Sõna	-11.3137
▁proportsiooni	-11.3138
jale	-11.3143
 5	-11.3144
▁peadirektori	-11.3145
▁õnnestus	-11.3145
▁Saaremaal	-11.3145
▁stabiilsuse	-11.3146
▁tagasihoidliku	-11.3146
▁tehtavate	-11.3148
▁Kur	-11.3148
▁teostada	-11.3148
komisjonil	-11.3149
▁funktsioone	-11.315
▁uuel	-11.315
▁selgitus	-11.315
▁kande	-11.3151
▁haru	-11.3152
▁Nimetat	-11.3152
▁päästa	-11.3155
▁nimega	-11.3156
▁kohalikus	-11.3157
▁vaevalt	-11.3158
▁kinnitust	-11.3159
▁tunnis	-11.316
▁pensionärid	-11.316
▁antava	-11.3166
▁ohusta	-11.3166
▁mõningad	-11.3168
▁Selliste	-11.317
▁loomi	-11.3171
▁panust	-11.3178
▁arutamiseks	-11.318
▁nõusoleku	-11.3181
▁kõrvu	-11.3181
▁kaitseb	-11.3183
▁jõudude	-11.3183
uuringute	-11.3183
▁valdav	-11.3184
▁asetäitja	-11.3186
▁ERR	-11.3186
▁Ungari	-11.3186
▁lõpetuseks	-11.3186
▁Lätti	-11.3186
▁sanktsioone	-11.3186
▁Kuhu	-11.3187
▁harva	-11.3188
▁pikas	-11.3189
▁arusaamad	-11.319
▁Lang	-11.3191
▁lähemalt	-11.3192
▁arvele	-11.3195
▁lähed	-11.3196
▁saadeti	-11.3196
▁tõestada	-11.3197
▁arvutus	-11.3199
ras	-11.3199
▁sõnastada	-11.3199
vaheline	-11.3206
▁kaotavad	-11.3207
▁odavama	-11.3208
▁õiget	-11.3211
▁vastupidise	-11.3214
▁hüvitamise	-11.3216
▁hilja	-11.3216
ruumis	-11.3217
▁väiteid	-11.3219
▁Ühel	-11.3223
partner	-11.3225
▁pöörama	-11.3226
▁lisatasu	-11.3226
▁korraldaja	-11.3226
▁kontrollib	-11.3226
▁Vitsut	-11.3228
▁reaalset	-11.3229
▁alga	-11.323
▁toode	-11.3231
ringi	-11.3234
väe	-11.3235
▁suurusjärk	-11.3236
▁ühtset	-11.3237
▁liikmele	-11.3237
▁meenuta	-11.324
bo	-11.3241
▁taheta	-11.3243
▁järeldada	-11.3245
▁tõstnud	-11.3245
pakett	-11.3246
▁tavapärane	-11.3247
▁Nord	-11.3247
▁tänulik	-11.3249
▁plaanide	-11.3249
▁pelgalt	-11.325
▁väärtusi	-11.3251
▁ilmunud	-11.3251
▁vastutada	-11.3254
▁põhjendused	-11.3254
▁Ratasele	-11.3256
▁maksuamet	-11.3256
▁tühistada	-11.326
16	-11.3261
▁neljapäeval	-11.3262
▁arvutada	-11.3263
▁tulene	-11.3264
▁variante	-11.3269
▁õigusriik	-11.3273
▁väärtuse	-11.3274
▁igaühe	-11.3275
oodi	-11.3275
asja	-11.3275
▁sündmus	-11.3277
koda	-11.3277
▁väheneks	-11.3284
▁järelduse	-11.3285
▁teistesse	-11.3286
olukorda	-11.3289
▁auk	-11.3291
▁puudumise	-11.3294
▁reservi	-11.3295
▁täiskasvanute	-11.3301
▁avalikud	-11.3304
▁ammendumiseni	-11.3305
▁ebaõiglane	-11.3305
▁pakkumine	-11.3305
▁mitmesugused	-11.3305
▁abivajaja	-11.3305
mur	-11.3306
▁omandireformi	-11.3306
▁koolitoidu	-11.3306
▁laiemas	-11.3306
▁kehv	-11.3306
▁määras	-11.3307
▁arvust	-11.3307
▁teadmised	-11.3309
▁arvutused	-11.3312
▁tugevam	-11.3312
▁ba	-11.3313
▁14%	-11.3315
▁põhikirja	-11.3316
▁vaesus	-11.3317
▁Sihtasutuse	-11.3318
▁tundnud	-11.3318
▁rahalised	-11.332
kaalu	-11.3321
▁internetis	-11.3324
▁ilmus	-11.3324
▁sõnastuses	-11.3327
▁tehnilist	-11.333
▁ühendada	-11.3331
põhist	-11.3336
Mailis	-11.3336
▁teavet	-11.3339
▁hinnangute	-11.3339
▁Koda	-11.3341
60	-11.3341
▁tõlgendus	-11.3344
töötajad	-11.3345
Pa	-11.3346
▁hinnangud	-11.3353
ndate	-11.3357
hääle	-11.3361
▁Parlamentaarse	-11.3365
▁tõsteti	-11.3365
▁elatisraha	-11.3365
▁moraali	-11.3365
▁ettekirjutus	-11.3366
▁algse	-11.3369
▁riigihanke	-11.3371
▁ajalooline	-11.3373
▁Täiesti	-11.3374
▁Milleks	-11.3375
▁Kar	-11.3377
▁liitunud	-11.3379
▁ainsa	-11.3381
▁põllumajanduses	-11.3381
▁lahendamist	-11.3385
kaart	-11.3387
▁mineku	-11.3387
▁teenistuses	-11.3388
▁tunnustus	-11.3388
▁Aja	-11.3389
▁Proua	-11.3392
mma	-11.3396
▁maksmata	-11.3396
▁sõnastust	-11.3398
▁liitumis	-11.3404
meetmete	-11.3405
▁grupp	-11.3405
▁kohtutäituri	-11.341
▁novembris	-11.341
▁diskuteeri	-11.3416
▁vaatevinklist	-11.3425
▁hakatud	-11.3425
▁lähitulevikus	-11.3426
▁valdkonnaga	-11.3429
▁lepiti	-11.3429
▁Võimalik	-11.3429
▁raamatukogu	-11.343
sõit	-11.343
▁tõstatanud	-11.3432
▁kolleegidel	-11.3433
▁pidasin	-11.3434
detsembril	-11.3435
▁inimesena	-11.3435
▁liiki	-11.3436
▁väitega	-11.3436
▁olekski	-11.3437
▁Kelle	-11.3439
▁Milles	-11.3441
▁käitub	-11.3442
deklaratsioon	-11.3442
▁eaka	-11.3444
▁kaotamine	-11.3447
▁riigiettevõtete	-11.3448
▁hakkate	-11.3449
▁rollis	-11.345
poliitikaga	-11.3451
▁õppimise	-11.3451
loomade	-11.3454
tehnoloogia	-11.3457
kolle	-11.3459
▁maksumuse	-11.346
valitsusliitude	-11.3467
▁sammude	-11.347
▁adekvaatse	-11.3472
▁lõiget	-11.3475
▁organi	-11.3476
▁reformide	-11.3477
▁osutus	-11.3479
▁kõrged	-11.3479
laeva	-11.3483
▁Saksa	-11.3484
▁Uskuge	-11.3486
▁komando	-11.3486
▁arutleda	-11.3486
▁Purga	-11.3486
▁Tanel	-11.3486
gramm	-11.3487
▁suveräänsuse	-11.349
▁tööjõudu	-11.3491
▁ääres	-11.3494
analüüsi	-11.3494
25	-11.3497
tähe	-11.3498
▁meeldis	-11.3499
▁seltsi	-11.3499
▁terav	-11.3504
teede	-11.3508
tusest	-11.3509
▁andme	-11.3511
▁õppetoetuste	-11.3511
hüvitise	-11.3515
hku	-11.3519
▁Kr	-11.3519
jatel	-11.3519
▁sporti	-11.352
▁Tere	-11.3521
▁tagajärgi	-11.3521
▁raamat	-11.3522
võim	-11.3523
ametnike	-11.3525
▁idapiiri	-11.3525
▁Mõne	-11.353
▁puudutasid	-11.353
▁aluste	-11.3532
pensioni	-11.3532
▁kurja	-11.3532
▁eksporti	-11.3534
▁jagu	-11.3534
era	-11.3537
▁objektide	-11.3537
▁reguleerimise	-11.3539
▁räägiks	-11.354
▁võlakirjade	-11.3541
Atlandi	-11.3547
▁solidaarse	-11.3547
▁tsentraliseeri	-11.3547
▁katuseraha	-11.3547
▁Kohus	-11.3547
▁Lähtu	-11.3547
▁Kusjuures	-11.3547
son	-11.3547
▁intervjuu	-11.3548
▁kitsa	-11.3549
▁osaks	-11.3551
▁ringkonna	-11.3551
vatest	-11.3555
▁tõu	-11.3555
▁mainida	-11.3557
▁kehtestati	-11.3558
▁võõra	-11.3559
▁tõesta	-11.356
▁tähelepaneku	-11.3562
▁hoiame	-11.3562
▁registreerunud	-11.3563
▁omanda	-11.3563
▁16. 	-11.3563
▁sellistes	-11.3564
▁mineva	-11.3565
▁tehniliselt	-11.3568
▁kaalutlusõigus	-11.3569
▁uuest	-11.357
▁kasvava	-11.3571
▁usaldust	-11.3571
▁vabad	-11.3572
▁lahendamine	-11.3573
direktiivi	-11.3575
▁koormuse	-11.3581
põhimõte	-11.3581
▁loomiseks	-11.3581
▁üksikud	-11.3583
liigi	-11.3584
▁paralleeli	-11.3585
19	-11.3586
▁halvad	-11.3587
▁kevad	-11.3587
▁seegi	-11.3587
▁taskust	-11.3598
kuritegude	-11.3602
▁dubleeri	-11.3602
▁pakkuja	-11.3602
▁hilisema	-11.3603
▁formuleeri	-11.3606
ndeid	-11.3607
▁heita	-11.3608
▁tõstmist	-11.3608
▁saavutus	-11.3608
▁punase	-11.3609
▁viidi	-11.361
▁tugevasti	-11.361
▁ametkondade	-11.3611
▁hiljemalt	-11.3613
▁programmide	-11.3614
▁rõhutasin	-11.3614
▁täiendavate	-11.3615
▁maksustatud	-11.3616
▁lihtsal	-11.3617
▁pet	-11.3618
▁programmis	-11.3619
▁survet	-11.3619
▁valmistanud	-11.362
▁neis	-11.362
▁esindajatel	-11.362
▁tellida	-11.3625
võimalused	-11.3626
inants	-11.3626
▁tagasimakse	-11.3626
▁ajab	-11.3627
▁lisandväärtust	-11.363
▁kiirema	-11.3632
kohus	-11.3632
▁kümnete	-11.3634
▁tugevad	-11.3634
▁usk	-11.3636
▁hääletamis	-11.3637
▁regulatsioonid	-11.364
▁element	-11.3642
delt	-11.3643
und	-11.3643
Kuidas	-11.3644
▁kõrvalt	-11.3644
▁kõrgemat	-11.3644
antud	-11.3651
▁kohapealt	-11.3651
▁toetatud	-11.3654
▁moodi	-11.3656
▁peta	-11.3658
▁huvidest	-11.3659
▁neto	-11.366
▁liitrit	-11.3661
risti	-11.3661
No	-11.3662
▁maale	-11.3662
▁muutust	-11.3666
▁ulatuslik	-11.3667
▁Iraagi	-11.3668
▁Pariisi	-11.367
▁ühemõtteliselt	-11.367
▁õigusemõistmise	-11.367
▁hoitakse	-11.367
▁vedelkütuse	-11.367
haldur	-11.367
▁eelarvele	-11.3671
▁tootlikkus	-11.3671
▁suunis	-11.3672
▁asjatundja	-11.3674
▁vaikselt	-11.3674
▁Paul	-11.3674
▁ulatusliku	-11.3677
▁struktuurne	-11.3677
▁struktuur	-11.368
▁kaugusel	-11.368
▁Kuni	-11.3681
▁sihtrühma	-11.3683
▁õhus	-11.3683
▁vanaduspensioni	-11.3683
asju	-11.3684
▁veebi	-11.3685
▁ilusti	-11.3685
▁ametliku	-11.3686
▁lõpliku	-11.3686
▁Holsmer	-11.3686
▁Ene	-11.3686
kõik	-11.3688
▁arhiivi	-11.3689
▁ajutiselt	-11.369
▁nimed	-11.3691
vil	-11.3693
▁Eerik	-11.3696
▁ressurss	-11.3697
▁rahasumma	-11.3697
▁külade	-11.3697
▁Viis	-11.3699
kaaslased	-11.3703
isiku	-11.371
▁võrgustik	-11.3711
▁funktsiooni	-11.3712
küsimuste	-11.3714
▁Kreekale	-11.3716
▁aastad	-11.3719
▁Kellel	-11.3719
▁130	-11.3719
▁soovis	-11.3721
▁testi	-11.3723
teadlase	-11.3724
▁18-	-11.3724
▁katab	-11.3725
▁langetama	-11.3726
Ain	-11.3728
aati	-11.3729
▁Ühest	-11.3732
▁Trei	-11.3732
eldakse	-11.3733
▁elektriarve	-11.3734
▁asjakohase	-11.3736
▁tagamine	-11.3737
▁ehitatakse	-11.3739
▁töövõimetus	-11.3741
▁negatiivset	-11.3742
hooldus	-11.3742
▁vähenemist	-11.3744
▁seksuaal	-11.3745
▁külje	-11.3747
▁kolmapäeval	-11.3749
▁kurt	-11.3751
▁Velman	-11.3752
▁tegev	-11.3754
▁süüdistuse	-11.3755
▁olulisemaid	-11.3755
▁kolleegidele	-11.3757
▁näpu	-11.3757
▁kinnitamine	-11.3757
▁keskse	-11.3758
▁kaduma	-11.376
peal	-11.3763
▁aruteludes	-11.3763
võimeline	-11.3764
▁erakondadele	-11.3766
dokumendi	-11.3768
Eerik	-11.3768
jaanuari	-11.3769
▁Pomerantsi	-11.3769
Kalev	-11.3769
▁allikas	-11.3769
▁sissetulekut	-11.3774
▁milliseks	-11.3778
Järvel	-11.3782
▁teadlikud	-11.3782
▁autori	-11.3783
▁Neljas	-11.3785
▁uudiste	-11.3789
▁õiguslikult	-11.3792
uv	-11.3792
▁Rakvere	-11.3794
▁Tihti	-11.3794
▁kitsenda	-11.3794
▁kuritegu	-11.3794
▁Kert	-11.3795
▁toimiva	-11.3796
▁järgnevad	-11.3797
▁170	-11.3798
▁Küti	-11.3799
▁tasuda	-11.3802
▁võõrkeel	-11.3804
▁saaja	-11.3804
▁andmebaasi	-11.3805
▁puudutav	-11.3806
▁gümnaasiumis	-11.3807
▁jälginud	-11.3808
▁täiskasvanu	-11.3813
▁materjale	-11.3815
▁jaanuaris	-11.3817
▁temaatikat	-11.382
▁kriteeriumide	-11.3821
▁eksperte	-11.3822
▁surnud	-11.3822
▁registrisse	-11.3823
▁taotlust	-11.3825
jana	-11.3825
▁erinevatel	-11.3826
▁otsese	-11.3827
▁ilmu	-11.3834
▁meenu	-11.3839
▁hetkest	-11.3841
▁sissetulekute	-11.3842
nduses	-11.3847
▁Koalitsiooni	-11.3851
ens	-11.3851
▁küber	-11.3854
▁väliskaubandus	-11.3856
▁Rüütli	-11.3857
▁kukkus	-11.3857
▁ostetakse	-11.3857
▁korraldatakse	-11.3857
▁igapäevast	-11.3857
▁Klaas	-11.3858
▁kõrgkoolide	-11.3861
▁Ivari	-11.3863
eelnõu	-11.3865
▁kutsutakse	-11.3867
▁mõõta	-11.3867
▁toimetada	-11.3868
listest	-11.3868
rsi	-11.3869
▁toimusid	-11.387
▁muutmisega	-11.387
▁töövõtja	-11.3871
▁puude	-11.3871
▁aju	-11.3873
▁algselt	-11.3874
▁soovitud	-11.3878
▁paindliku	-11.3879
▁tri	-11.3879
▁teravalt	-11.388
▁saajate	-11.3882
▁taime	-11.3883
▁lepinguga	-11.3884
Täna	-11.3885
kohase	-11.3886
▁rääki	-11.3886
maade	-11.3888
▁kinnituse	-11.3889
▁jaanuar	-11.389
▁autoriteet	-11.389
▁täideta	-11.3893
võimalus	-11.3893
▁pinna	-11.3894
▁eriarvamus	-11.3894
▁läbinud	-11.3896
▁aluseid	-11.3896
▁sellisesse	-11.3896
▁odav	-11.3897
saali	-11.3897
▁termini	-11.3901
▁asjus	-11.3904
▁prognooside	-11.3904
sisese	-11.3907
▁muudatustest	-11.3908
▁aktsiise	-11.3908
▁Estonia	-11.3913
▁otsustusõigus	-11.3918
▁kaevanda	-11.3919
stest	-11.392
▁märganud	-11.392
▁formaat	-11.3921
▁pikaks	-11.3921
anske	-11.3921
▁180	-11.3921
▁tsiviilkohtu	-11.3921
politsei	-11.3921
▁siseturvalisuse	-11.3922
▁Lubage	-11.3922
▁tõsised	-11.3924
▁taotluste	-11.3924
▁tasand	-11.3925
▁üksmeelselt	-11.3928
▁keeruka	-11.3928
▁käed	-11.3928
tingimusi	-11.393
▁õpiku	-11.3931
▁haiglas	-11.3935
▁menetleb	-11.3935
▁erisus	-11.3936
▁esmase	-11.3937
kasv	-11.3937
▁näo	-11.3939
▁maksumuudatuste	-11.3943
ilma	-11.3945
▁hoolega	-11.3945
▁kalli	-11.3946
▁vanu	-11.395
▁vigade	-11.3952
partneri	-11.3953
▁vajaks	-11.3955
mõju	-11.3956
kaupa	-11.3957
▁arvestata	-11.3957
▁järgida	-11.3961
▁termin	-11.3964
tase	-11.3967
▁juhtiva	-11.3969
▁Konkreetse	-11.3971
▁kasum	-11.3973
▁jääbki	-11.3979
▁kvartalis	-11.398
▁17. 	-11.398
▁ebamõistlik	-11.3984
▁järjekorrad	-11.3984
▁Hiljuti	-11.3984
▁Tamkivi	-11.3984
▁propageeri	-11.3984
▁usaldusväärse	-11.3984
▁topeltmaksusta	-11.3984
▁jookide	-11.3984
▁Eestimaal	-11.3986
▁Juhin	-11.3986
▁nõustun	-11.399
▁ringis	-11.399
▁funktsioonid	-11.3991
▁faasis	-11.3992
▁kasutas	-11.3995
▁reisijate	-11.3996
▁ettevõtjatega	-11.3996
probleemide	-11.3996
▁juulist	-11.3996
▁märgatavalt	-11.3997
▁Siiski	-11.3998
▁eurolt	-11.3999
▁kaasuse	-11.4001
▁julgeolek	-11.4002
▁kogemust	-11.4004
▁autor	-11.4004
▁tõlgendada	-11.4004
õu	-11.4005
▁olulisema	-11.4006
▁taust	-11.4006
aru	-11.4006
▁paigalda	-11.4007
▁iseseisvalt	-11.4012
kuul	-11.4016
▁Palu	-11.4018
▁töötajatele	-11.402
Helmen	-11.4024
▁matusetoetuse	-11.4024
▁paneks	-11.4026
töötuskindlustus	-11.4028
▁saavutamise	-11.4029
▁laekumist	-11.403
▁arupärimises	-11.4032
▁võlg	-11.4034
▁liikmesriikides	-11.4035
▁Tulen	-11.4036
▁kitsas	-11.4038
muutus	-11.4039
astu	-11.404
datud	-11.4043
▁rõõmsa	-11.4046
▁sulgemise	-11.4046
▁ajutine	-11.4048
▁puhkudel	-11.4048
▁2006.	-11.4049
▁pidev	-11.4049
▁püsiva	-11.405
▁keerulisemaks	-11.4051
▁ettepanekutest	-11.4054
▁kuuluma	-11.4054
▁sadade	-11.4054
▁keelde	-11.4055
▁ühi	-11.4055
▁majanda	-11.4057
▁kirjandus	-11.4057
▁kombeks	-11.4058
▁küsisime	-11.4059
▁asutusi	-11.4062
▁stsenaariumi	-11.4063
▁häirib	-11.4064
iguskantsleri	-11.4064
baasi	-11.4065
▁sõltuvad	-11.4065
▁suruda	-11.4067
▁arvamusega	-11.4071
▁venekeelsete	-11.4071
▁versiooni	-11.4072
▁ületab	-11.4073
26	-11.4076
▁rahaliste	-11.4079
▁koefitsient	-11.408
▁kerkis	-11.4082
▁lapsevanem	-11.4089
▁seonduvad	-11.4095
ränne	-11.41
tunne	-11.4101
▁efektiivsem	-11.4103
spetsialist	-11.4105
▁amet	-11.4111
▁efektiivse	-11.4112
▁Valgevene	-11.4113
▁viska	-11.4113
▁käidud	-11.4113
▁elukutse	-11.4114
▁2030	-11.4116
▁tunnistan	-11.4117
▁Lätist	-11.4122
▁osapool	-11.4122
▁rakendamist	-11.4124
▁lärm	-11.4126
▁vasak	-11.4131
▁külg	-11.4132
▁vabastada	-11.4133
ajad	-11.4135
▁huvisid	-11.4136
▁munitsipaalkool	-11.4136
▁elanikkond	-11.4137
jaanuarist	-11.4139
▁raamatupidamis	-11.4139
▁valimislubadus	-11.4141
▁Anne	-11.4143
▁järeldus	-11.4143
▁riigikontrolöri	-11.4144
▁edendamise	-11.4146
▁suurendama	-11.4148
▁konsensust	-11.4156
▁töötava	-11.4159
▁kahele	-11.4161
▁võitluse	-11.4162
▁taotlusi	-11.4165
▁taotlemise	-11.4165
▁tunnetus	-11.4166
▁autot	-11.4172
▁võimude	-11.4172
▁kindlus	-11.4173
▁sõjalisel	-11.4174
▁pädev	-11.4175
▁palgata	-11.4175
▁keemia	-11.4177
▁rikkumine	-11.4178
▁tsitaat	-11.4178
▁leppima	-11.4178
▁suudetakse	-11.4178
▁põllumehi	-11.4178
▁Kanada	-11.4178
▁tootlus	-11.4179
▁Mark	-11.418
▁probleemidele	-11.418
▁visiiditasu	-11.4181
sjagu	-11.4184
▁muutumise	-11.4184
▁menetletud	-11.4187
▁määramisel	-11.4187
▁eeldused	-11.4188
tund	-11.4189
▁kultuuritöötaja	-11.4191
▁pööranud	-11.4193
▁territoriaalse	-11.4194
▁erakondi	-11.4195
▁areneb	-11.4195
▁hääletamine	-11.4197
▁4000	-11.4197
▁definitsiooni	-11.4203
õiguslikku	-11.4203
▁autod	-11.4204
▁motivatsioon	-11.4206
▁kaela	-11.4209
▁tegija	-11.4209
▁massi	-11.4211
listele	-11.4214
metsa	-11.4214
Mida	-11.4222
▁treenerite	-11.4224
õiguslik	-11.4224
▁vanuses	-11.4225
▁Arengu	-11.4227
sigaret	-11.4231
▁perele	-11.4231
▁register	-11.4235
teed	-11.4236
▁vahenditega	-11.4236
▁inimesest	-11.4236
▁psühholoogi	-11.4237
▁ülikoolid	-11.4239
▁Muuseas	-11.4243
▁nendesamade	-11.4243
▁sõnavõtusoove	-11.4243
▁individuaalse	-11.4249
▁kustuta	-11.4249
▁Ansipi	-11.425
▁hoidu	-11.4251
▁rahvuse	-11.4252
▁jäätmeseaduse	-11.4252
▁komisjonil	-11.4252
▁langetati	-11.4252
▁Tõnisson	-11.4254
nõue	-11.4254
▁süsteemiga	-11.4254
▁takistab	-11.4262
▁huviga	-11.4262
▁seadme	-11.4263
▁omaosalus	-11.4263
▁riigilõiv	-11.4264
alane	-11.4267
▁J	-11.4269
▁abivahendi	-11.4271
▁väited	-11.4273
▁teavitus	-11.4277
▁vo	-11.4278
▁vastutavad	-11.4279
▁teadlikkus	-11.428
Päevakorra	-11.4281
▁tehniliste	-11.4282
▁ettevalmista	-11.4283
▁meelel	-11.4284
▁Tiit	-11.4286
▁liberaal	-11.4286
Erki	-11.4286
▁kohtumistel	-11.4287
▁oh	-11.4291
▁naaber	-11.4291
▁halvene	-11.4294
▁panite	-11.4294
▁selgituse	-11.4296
▁meenutan	-11.4296
▁solidaarsuse	-11.4302
▁reegli	-11.4305
▁Päevakorra	-11.4306
▁esimesena	-11.4308
▁riigikeele	-11.4308
lepingut	-11.4309
▁oodanud	-11.4309
▁populaarse	-11.4309
▁samasooliste	-11.4309
▁üpris	-11.4309
▁mitmekesisus	-11.4309
▁aruandlus	-11.4309
▁kohaldamise	-11.431
▁liialt	-11.431
▁eestikeelne	-11.431
▁andsin	-11.4311
▁võidavad	-11.4311
▁meiega	-11.4311
▁nõua	-11.4312
▁otsas	-11.4313
tootja	-11.4313
▁Küprose	-11.4314
▁vajadusel	-11.4315
▁suurenemise	-11.4315
▁regulaarselt	-11.4317
▁kindluse	-11.4317
hoo	-11.4318
▁fookuses	-11.4319
▁infotunni	-11.4321
▁üritatakse	-11.4323
▁saadab	-11.4325
▁likvideerida	-11.4329
▁kuuluv	-11.433
▁elluviimise	-11.4334
▁trahv	-11.4335
▁nõutakse	-11.4335
▁vastutav	-11.4335
▁septembris	-11.4337
▁odavamaks	-11.4345
▁käsitlevad	-11.4346
▁koor	-11.4346
▁võtme	-11.4347
▁alustama	-11.4348
▁selgu	-11.4349
▁valitsemisalas	-11.435
iidi	-11.435
▁saatus	-11.435
▁vilja	-11.4351
▁koondamis	-11.4352
hääletuse	-11.4352
▁oskan	-11.4355
▁pühendu	-11.4362
▁finantseeri	-11.4364
▁lepe	-11.4371
▁Hollandi	-11.4371
▁eraldamise	-11.4372
▁Moskva	-11.4375
▁opereeri	-11.4375
▁aresti	-11.4375
▁jooksva	-11.4375
▁kaasettekandja	-11.4375
▁saatkonna	-11.4375
▁Lember	-11.4376
▁revisjoni	-11.4377
tuseks	-11.4377
▁sõlminud	-11.4385
▁teguri	-11.439
▁koostanud	-11.4391
▁prognoosid	-11.4391
▁Niimoodi	-11.4392
▁sihtasutuste	-11.4393
▁arvuga	-11.4395
▁avalikkus	-11.4398
likus	-11.4401
▁ekspertiisi	-11.4402
▁sattu	-11.4403
▁füüsiliselt	-11.4406
veebruaril	-11.4408
▁mugav	-11.4409
▁erakorralist	-11.4412
▁argumentide	-11.4414
▁vin	-11.4416
madalapalgaliste	-11.4416
▁seisa	-11.442
▁järjekordse	-11.4421
▁raamatupidamise	-11.4421
kokkuleppe	-11.4422
▁praegugi	-11.4422
Kolm	-11.4423
▁toota	-11.4424
elus	-11.4432
▁väljendus	-11.4433
▁pöörduma	-11.4434
▁13. 	-11.4434
▁käsitlema	-11.4436
inspektsioon	-11.4436
õpe	-11.4441
▁radikaalse	-11.4442
▁delegeeri	-11.4442
▁ignoreeri	-11.4442
▁etteheide	-11.4442
▁Iirimaa	-11.4442
▁rahvusvahelisi	-11.4442
▁akna	-11.4442
toote	-11.4442
▁liht	-11.4442
▁müüakse	-11.4442
▁lähedaste	-11.4443
▁julgusta	-11.4443
Kultuurikomisjon	-11.4443
▁kütus	-11.4444
▁vaieldamatult	-11.4445
vahetuse	-11.4446
▁riikidesse	-11.4446
▁lugedes	-11.4446
▁töötas	-11.4447
õpet	-11.4447
▁Ni	-11.4449
▁turvaline	-11.4449
▁naaberriigi	-11.4453
▁toimetulekut	-11.4454
▁realiseerida	-11.4454
▁ametikohtade	-11.4456
stati	-11.4456
sport	-11.4459
▁takistada	-11.4461
▁lahkuvad	-11.4462
▁ebavõrdsus	-11.4464
määruse	-11.4465
▁Küsimuste	-11.4466
▁kaalunud	-11.4468
▁vajadused	-11.4476
▁pensionäri	-11.4478
▁solidaarsus	-11.4481
▁targem	-11.4481
▁jätmise	-11.4481
▁pedagoogi	-11.4484
vajaduse	-11.4484
▁ressursid	-11.4484
tunnistus	-11.4485
▁liikmetelt	-11.4485
▁halvema	-11.4486
staabi	-11.4487
▁hoolekande	-11.4488
Sotsiaal	-11.4489
▁hüvitis	-11.4492
▁tootmine	-11.4492
▁hindamis	-11.4495
▁kõla	-11.4496
piirkonna	-11.4497
▁vaates	-11.4501
▁seisukohaga	-11.4503
▁ettevõtlusega	-11.4504
▁keerulised	-11.4507
▁HIV	-11.4509
▁spetsialiseeru	-11.4509
▁Austria	-11.4509
▁ajalukku	-11.4509
▁Ülle	-11.4509
▁noortel	-11.451
▁jäeti	-11.451
▁lauset	-11.451
▁2010	-11.451
▁Käi	-11.4511
▁nõudma	-11.4511
▁sõnavõtja	-11.4512
▁valminud	-11.4513
▁Huvitav	-11.4516
▁tehtavad	-11.4518
▁Üld	-11.4518
▁hoidnud	-11.4518
▁kiirustades	-11.4519
▁Riigikogusse	-11.4519
▁tekkisid	-11.452
▁järgneb	-11.452
▁tõsiasja	-11.4521
▁ministeeriumil	-11.4523
▁vähendamist	-11.4524
▁alustatud	-11.4524
▁kindlustada	-11.4526
uuringu	-11.4527
▁november	-11.4527
tatav	-11.4528
▁lasteaedade	-11.453
▁lahendamata	-11.4532
▁pehmelt	-11.4533
▁Veeteed	-11.4537
▁mingisuguste	-11.4537
▁hinnatõus	-11.4537
voolu	-11.4538
▁põllumees	-11.4538
▁Vilja	-11.4539
▁lähtuvad	-11.4544
▁teadete	-11.4547
▁seonduva	-11.4556
▁9. 	-11.4557
▁astmelise	-11.4559
▁lolli	-11.4559
▁käivitu	-11.4561
▁ülevõtmise	-11.4562
▁193	-11.4563
▁faktide	-11.4564
▁suvalise	-11.4566
▁kärpe	-11.4569
▁ekspert	-11.4569
aluste	-11.4569
▁regioonis	-11.4569
▁usaldusväärsus	-11.4571
▁eksida	-11.4573
▁tuhanded	-11.4574
Ettepaneku	-11.4574
▁2014–2020	-11.4576
▁aktuaalse	-11.4576
▁stimuleeri	-11.4576
▁elatustase	-11.4577
▁ravimeid	-11.4577
▁tahtis	-11.4577
▁Soosaar	-11.4577
▁umb	-11.4578
▁teehoiu	-11.4578
var	-11.4578
▁vaenu	-11.4578
▁ambitsiooni	-11.4579
▁tublisti	-11.4579
▁uurima	-11.458
▁kuritegusid	-11.4582
▁vanemapensioni	-11.4583
▁osapoole	-11.4586
▁vesi	-11.4586
▁ühinemist	-11.4587
▁kuulutada	-11.4589
▁koondada	-11.4589
13	-11.4594
▁kaasneva	-11.4594
valla	-11.4595
▁suurendamist	-11.4596
olukorra	-11.4598
vald	-11.4601
struktuuri	-11.4603
▁formaalse	-11.4607
▁vastupidist	-11.4609
▁stsenaarium	-11.461
▁lubatakse	-11.4612
▁kontseptsioon	-11.4615
,4%	-11.4615
▁gümnaasium	-11.4616
lisel	-11.4619
Veel	-11.4622
▁vajadusi	-11.4623
kandidaadi	-11.4624
▁kiit	-11.4624
▁soovid	-11.4626
▁toetava	-11.4628
▁vastuseisu	-11.4629
▁ootused	-11.4629
▁valijatele	-11.463
▁annetus	-11.4631
▁tühjaks	-11.4637
▁demokraatlikus	-11.4638
▁Valitsusel	-11.4641
▁erakooli	-11.4643
▁kõrgelt	-11.4644
▁tuul	-11.4644
▁Julge	-11.4644
▁viha	-11.4644
▁elutähtsa	-11.4644
▁Investeerimis	-11.4644
▁integratsiooni	-11.4644
▁läbivaatamist	-11.4644
▁väljaõpe	-11.4645
▁otsekohe	-11.4645
▁tööturuteenuste	-11.4645
▁kaudse	-11.4647
▁mindud	-11.4651
▁sundi	-11.4652
▁eesmärgist	-11.4655
▁siiras	-11.4657
▁riigieksami	-11.4658
▁hääletanud	-11.4659
▁konkreetsele	-11.466
▁kütteõli	-11.4661
▁teenitud	-11.4662
palju	-11.4663
▁lisas	-11.4666
▁kohtunikud	-11.4672
▁lahkuda	-11.4672
▁osapooli	-11.4673
▁poliitilisest	-11.4675
▁tihe	-11.4678
organite	-11.4681
olukord	-11.4689
tsus	-11.469
▁erandid	-11.4693
kvaliteet	-11.4693
sõnu	-11.4694
laua	-11.4695
kohe	-11.4698
▁toimingute	-11.4706
▁majandusse	-11.4707
▁tuleku	-11.4708
12	-11.4709
▁meedet	-11.471
Ühendkuningriigi	-11.4713
▁agressiooni	-11.4713
▁vaiki	-11.4713
▁loomingu	-11.4714
poliitiliste	-11.4714
▁vajaduspõhine	-11.4715
▁võtsin	-11.4715
▁väiksemaid	-11.4716
▁Lugupeetavad	-11.4716
▁hoogu	-11.4718
▁laske	-11.4718
▁väärtused	-11.4718
▁sarnased	-11.4718
▁eelistus	-11.4719
▁väikeses	-11.4719
▁informeeritud	-11.472
▁lubate	-11.4722
▁sügav	-11.4722
▁summast	-11.4723
▁detailse	-11.4723
projektide	-11.4724
▁89	-11.4724
▁sendi	-11.4724
▁lõpetades	-11.4725
▁tutvustasid	-11.4726
70	-11.4729
müü	-11.473
▁püüa	-11.4732
sõja	-11.4734
▁kolmandast	-11.4734
▁kõrgemal	-11.4736
▁suhtlemise	-11.4742
▁elluviimiseks	-11.4743
aktsiisi	-11.4745
▁mugavam	-11.4747
▁tegevväelase	-11.4747
ck	-11.4748
▁jälgima	-11.4749
▁saabub	-11.475
▁inimõigus	-11.475
▁kevade	-11.4751
ikku	-11.4753
▁palku	-11.4754
▁Lõpetuseks	-11.4755
kanal	-11.4755
▁Kaitseliit	-11.4756
▁20. 	-11.4757
▁juulil	-11.4757
▁kahtlusi	-11.4758
▁vastamist	-11.4758
▁kantsler	-11.476
▁täpsed	-11.4761
Tallinna	-11.4763
Loomulikult	-11.4763
▁kohtuotsuse	-11.4763
koosseisu	-11.4764
▁vaesema	-11.4764
▁käsk	-11.4764
ants	-11.4766
▁peretoetus	-11.4773
▁muretsema	-11.4774
▁meetod	-11.4776
▁ametiühingu	-11.4776
▁regulatsioone	-11.4777
▁õppus	-11.4782
▁põgene	-11.4782
▁klassikalise	-11.4782
▁mandri	-11.4782
▁silmakirjalik	-11.4782
▁pankrotti	-11.4784
▁ülejääk	-11.4784
▁projektid	-11.4785
▁rumalus	-11.4786
▁otsetoetuste	-11.4786
▁algust	-11.4786
▁Harjumaa	-11.4788
pension	-11.4791
▁vabatahtlikku	-11.4792
ettevõtjate	-11.4796
▁tõstmiseks	-11.4797
▁maininud	-11.4797
▁vaimus	-11.4798
▁töövõimega	-11.4799
▁toimuvat	-11.4799
omanikke	-11.48
▁selgitust	-11.48
▁minagi	-11.48
▁ootan	-11.4801
▁toimida	-11.4807
▁Sü	-11.4808
▁valmistas	-11.481
kaid	-11.4811
stan	-11.4812
uid	-11.4813
▁7%	-11.4813
▁ületada	-11.4814
▁usaldada	-11.4816
▁autosid	-11.4816
▁täpse	-11.4816
▁ühiskonnast	-11.4818
▁kindlustunnet	-11.4822
küsimusi	-11.4825
▁puudumine	-11.4825
▁tarbijale	-11.4826
▁tulete	-11.4827
mber	-11.4829
▁peadirektor	-11.4831
▁paremal	-11.4832
▁harju	-11.4834
▁poliitikast	-11.4834
▁õppekeel	-11.4835
▁aktiivsed	-11.4836
▁hääletage	-11.4837
▁rahastatud	-11.4838
▁Vähe	-11.4838
▁töörühm	-11.4838
▁seisne	-11.4838
▁sissejuhatuse	-11.4839
▁lisakulu	-11.4839
▁juhus	-11.484
pood	-11.4842
▁pidurda	-11.4842
▁alammäära	-11.4842
▁teemale	-11.4843
▁Ü	-11.4846
ole	-11.4846
▁organ	-11.4847
▁6%	-11.4849
uti	-11.4851
▁Instituudi	-11.4851
▁sarnast	-11.4851
▁tähelda	-11.4851
▁vms	-11.4851
stumise	-11.4852
▁kõikvõimalikk	-11.4852
▁tüli	-11.4853
kohut	-11.4853
▁jõustada	-11.4855
▁valdava	-11.4856
▁Mitu	-11.4856
▁ütlemata	-11.4859
▁Kõiki	-11.4861
▁esitatava	-11.4861
▁edendada	-11.4863
▁nut	-11.4864
▁arupärijad	-11.4866
▁Viljandis	-11.4866
▁viitate	-11.4868
har	-11.4869
▁julgelt	-11.4872
▁pettu	-11.4873
▁eriarsti	-11.4877
▁korteriühistute	-11.4881
▁võimule	-11.4883
▁peeta	-11.4885
▁positiivsed	-11.4888
▁osalemist	-11.4888
▁töötajat	-11.4889
▁kanti	-11.4892
▁Las	-11.4893
aastaseks	-11.4893
▁mainisid	-11.4895
▁luge	-11.4898
▁katma	-11.49
▁mainet	-11.49
▁tuttav	-11.4902
▁teadmiseks	-11.4903
▁kogumise	-11.4905
▁käimas	-11.4905
▁mõninga	-11.4907
▁kasutata	-11.4908
▁Hanso	-11.4912
▁etapi	-11.4914
▁kõrgemate	-11.4916
▁suvi	-11.492
▁keeld	-11.4921
▁vihja	-11.4921
▁säärast	-11.4921
häire	-11.4921
▁Rahvaerakond	-11.4922
▁kärbi	-11.4922
▁Raudtee	-11.4922
▁keskpanga	-11.4923
▁andsime	-11.4924
▁märtsis	-11.4925
▁väärtust	-11.4928
▁kukub	-11.493
▁väljastamise	-11.493
menetluses	-11.4931
▁198	-11.4931
▁Otsustati	-11.4934
sugust	-11.4935
▁metsanduse	-11.4937
▁saadiku	-11.4938
▁arvestatava	-11.494
▁ametkond	-11.494
▁Hästi	-11.4941
▁jääksid	-11.4944
▁hooldaja	-11.4946
▁loogilise	-11.4946
▁valgusta	-11.4947
▁Ülejäänu	-11.4947
▁kümmekond	-11.4947
▁halduskoormust	-11.4948
▁arvatakse	-11.4951
▁õiguses	-11.4952
▁pääseda	-11.4952
konverentsil	-11.4954
▁aktsia	-11.4957
▁üksiku	-11.4959
Eks	-11.4959
▁dividendide	-11.4961
▁piisavad	-11.4963
▁korraldamisel	-11.497
▁vastuvõetav	-11.4975
▁Läänemaa	-11.4977
▁sildista	-11.4977
▁üllata	-11.4978
▁seonduvat	-11.4978
▁kommentaar	-11.4979
aastalt	-11.4981
ingi	-11.4982
▁mõlemat	-11.4983
▁augusti	-11.4983
▁riku	-11.4985
▁tellija	-11.4989
▁remonti	-11.4991
▁Umbes	-11.4992
▁ruttu	-11.4992
▁lemmik	-11.4992
▁suhelnud	-11.4992
▁unistus	-11.4992
▁kõikvõimalike	-11.4992
▁Tekib	-11.4992
ami	-11.4993
▁pikendamise	-11.4993
▁raskema	-11.4995
▁mõistlikku	-11.4996
▁muudeta	-11.4996
laev	-11.4996
▁Ütle	-11.5001
▁üleandmine	-11.5001
▁efekti	-11.5001
linn	-11.5002
▁eas	-11.5002
▁soodustust	-11.5002
▁konkreetsemalt	-11.5002
▁kutseõppeasutus	-11.5003
▁seaduseelnõude	-11.5005
▁kuuga	-11.5005
▁asutamise	-11.5005
▁kogukondade	-11.5007
▁kavatseme	-11.501
▁sellistest	-11.5012
kahjude	-11.5012
▁kuri	-11.5016
▁Kohtume	-11.5017
▁detsembriks	-11.5021
skeemi	-11.5025
firmad	-11.5026
▁prioriteetse	-11.5026
▁kutsekooli	-11.5028
▁ajakirjanik	-11.5029
▁eksin	-11.5029
▁erandite	-11.5033
▁kõnealu	-11.5035
▁sigade	-11.5036
aali	-11.5038
▁tegutseva	-11.504
ministeeriumilt	-11.504
▁Konservatiiv	-11.5042
▁töötatakse	-11.5043
▁üldises	-11.5043
stamata	-11.5044
▁ametite	-11.5045
▁teistega	-11.5045
(	-11.5045
▁Liibanonis	-11.5045
▁tasa	-11.5046
tum	-11.505
▁survesta	-11.5051
▁Venemaale	-11.5053
▁teostamise	-11.5055
▁seitsmes	-11.5056
alast	-11.5057
usse	-11.5061
▁Kümne	-11.5062
nõudeid	-11.5063
▁Novikov	-11.5063
▁tehingute	-11.5063
▁segamini	-11.5063
▁välismaalase	-11.5063
▁vastase	-11.5066
mitte	-11.5069
▁veenda	-11.5069
▁0,8	-11.5071
paiga	-11.5072
▁arengule	-11.5073
▁säilitamise	-11.5073
▁kõrvaldada	-11.5076
▁põhjustatud	-11.5076
▁uudiseid	-11.5077
▁süüa	-11.5077
▁planeerinud	-11.5077
▁lapsel	-11.5078
▁langetab	-11.5079
▁detaile	-11.508
kem	-11.5081
▁olukorrale	-11.5081
▁tehtaks	-11.5081
▁panustavad	-11.5083
▁arusaadavalt	-11.5084
ktsioon	-11.5084
▁otsime	-11.5085
▁900	-11.5086
pedagoog	-11.5086
▁lennundus	-11.5086
▁kaitseväelase	-11.5086
▁püsib	-11.5087
▁Eleringi	-11.5088
▁töötus	-11.5092
▁kõnelema	-11.51
▁21. 	-11.5105
▁ootuse	-11.5105
▁koori	-11.5105
▁vaimse	-11.5106
▁omavahelise	-11.5107
▁aruteludel	-11.5108
▁lähema	-11.5109
▁olemus	-11.511
▁tagasihoidlik	-11.5111
▁toetamist	-11.5116
valimi	-11.5117
▁faktid	-11.5119
▁kavatsus	-11.512
rahva	-11.512
vo	-11.5121
▁hääletasid	-11.5121
▁ostab	-11.5123
▁detailide	-11.5125
▁rong	-11.5126
▁mõistetud	-11.5126
▁ulatu	-11.5128
käik	-11.513
▁kabineti	-11.5131
▁muudaks	-11.5131
kümmend	-11.5131
▁ettevõtetel	-11.5133
kaks	-11.5134
▁veebruaris	-11.5134
▁elementaarne	-11.5134
▁heakskiidu	-11.5134
▁külva	-11.5134
▁võtmine	-11.5135
mehi	-11.5137
▁Karel	-11.5137
▁märkisite	-11.5138
▁maksupoliitilis	-11.514
▁peamised	-11.514
▁soodsa	-11.5141
▁100 000	-11.5143
▁protsesse	-11.5144
▁esitasite	-11.5144
▁vere	-11.5145
▁pikemas	-11.5145
▁jõ	-11.5145
▁küpse	-11.5147
tootjad	-11.5147
andmeid	-11.5148
▁kirjutatakse	-11.5148
▁pensionifondi	-11.515
▁teisipäeval	-11.5152
▁põhjuse	-11.5153
▁parlamendil	-11.5153
▁Madise	-11.5153
korras	-11.5154
▁Seejuures	-11.5154
▁Julgeolekunõuko	-11.5155
▁kuritegevus	-11.5156
▁visioon	-11.5158
▁vajaduspõhist	-11.5158
▁maakonda	-11.5161
▁otsustame	-11.5163
usid	-11.5164
▁Mingi	-11.5165
ainete	-11.5167
▁sisulised	-11.5169
▁aktiivsus	-11.517
▁apteekide	-11.5173
▁nüanss	-11.5173
▁väljendas	-11.5174
▁arvanud	-11.5174
▁puhu	-11.5175
▁tunnete	-11.5176
meetmeid	-11.5178
▁laen	-11.5179
seaduste	-11.5179
▁huvihariduse	-11.518
▁vanematele	-11.5182
▁debatis	-11.5188
Need	-11.519
põhimõtte	-11.519
▁kompetentsus	-11.519
▁kinnita	-11.519
suund	-11.5192
▁maksimaalse	-11.5192
▁10. 	-11.5192
tuur	-11.5192
▁Ernitsa	-11.5195
▁tooteid	-11.5197
Järgmisena	-11.5197
▁Hannes	-11.5206
▁välisesindus	-11.5206
▁sahtli	-11.5206
▁turistide	-11.5206
teaduste	-11.5206
▁televisiooni	-11.5206
▁Sikkut	-11.5206
▁nupu	-11.5206
▁ostmise	-11.5207
▁referendumi	-11.5207
▁sunniraha	-11.5208
▁hektarit	-11.5208
▁tõendi	-11.5208
▁tervishoidu	-11.521
▁Põhiline	-11.521
▁erilise	-11.5211
keskuses	-11.5213
▁kehtestama	-11.5214
▁lapsetoetuste	-11.5215
▁vabastamise	-11.5215
▁haakub	-11.5215
haridust	-11.5216
▁kohtumise	-11.5217
▁töid	-11.5218
▁Niisuguse	-11.522
▁tagatise	-11.522
▁katke	-11.5221
▁toiminud	-11.5222
▁vähendatud	-11.5224
rvishoiuteenuse	-11.5224
▁uskuge	-11.5224
ssa	-11.523
▁Keskkonnaameti	-11.5231
▁kaotame	-11.5233
▁kaalutud	-11.5233
▁Par	-11.5234
▁mängida	-11.5236
▁oskuse	-11.5236
tagastus	-11.5237
▁paindlikkust	-11.5239
▁käesoleval	-11.5239
▁juuniks	-11.5242
▁suuremates	-11.5243
▁piiramise	-11.5244
▁väikseid	-11.5245
▁toetasid	-11.5246
▁asula	-11.525
▁lubage	-11.5251
▁20%-	-11.5253
▁väljendu	-11.5254
▁akadeemia	-11.5255
võimu	-11.5255
▁ebaseadusliku	-11.5256
päi	-11.5257
▁eluaseme	-11.5262
Miks	-11.5265
ütle	-11.5265
pinna	-11.5267
▁haridusliku	-11.5272
▁Ikka	-11.5272
▁äär	-11.5273
amise	-11.5275
proportsionaalne	-11.5278
▁Prantsuse	-11.5278
▁rikkunud	-11.5278
▁okei	-11.5279
▁trüki	-11.5279
▁vägisi	-11.5279
▁Andke	-11.5279
▁Kaitsevägi	-11.5279
▁töölt	-11.528
▁põhiseadusest	-11.5281
▁tegeles	-11.5282
▁normide	-11.5283
▁sõnumit	-11.5284
tavaks	-11.5286
▁reeglina	-11.5288
▁iseloomusta	-11.5289
▁paigutada	-11.5291
▁maksaks	-11.5291
siin	-11.5291
▁koolidele	-11.5296
pri	-11.5297
▁advokatuuri	-11.5297
▁loobunud	-11.5298
▁esmane	-11.5299
▁kriminaalasja	-11.5299
▁suurendame	-11.5299
▁tütar	-11.53
▁teadmata	-11.53
▁kutsub	-11.53
kaubandus	-11.5302
▁terrorismi	-11.5309
▁raskusi	-11.5313
kriis	-11.5313
▁Malis	-11.5315
▁Erakond	-11.5317
▁keeruliseks	-11.5321
▁Nimeta	-11.5322
▁valitseva	-11.5322
hoiu	-11.5324
▁põhineva	-11.5328
masina	-11.5328
võimekus	-11.5329
▁järve	-11.5333
edu	-11.5334
Seaduseelnõu	-11.5336
▁roo	-11.5338
▁tugevat	-11.5339
▁registris	-11.5339
püstitus	-11.534
▁seaduseelnõusid	-11.5341
usele	-11.5343
▁kuku	-11.5343
▁87	-11.5343
▁Jaa	-11.5344
▁integreeri	-11.5346
▁Tahaks	-11.5347
juhtumi	-11.5349
▁ürituse	-11.5349
▁õnnelik	-11.5351
▁lubadused	-11.5351
▁emotsionaalne	-11.5351
▁iseseisev	-11.5351
▁vedada	-11.5352
▁vähi	-11.5352
▁uurimus	-11.5352
▁tundlik	-11.5352
▁Kreekas	-11.5353
▁töökoormus	-11.5353
▁peatükk	-11.5354
▁Ette	-11.5355
▁tuuma	-11.5355
▁vältimatu	-11.5357
▁tasakaalustatud	-11.5358
▁koo	-11.5359
▁motiveeritud	-11.536
▁ülalpidamise	-11.5362
▁haritud	-11.5363
▁osapooltega	-11.5364
▁osutama	-11.5367
▁peakski	-11.5369
▁elanikuga	-11.5372
ära	-11.5373
▁pangandus	-11.5375
▁põllumehe	-11.5377
▁toimunu	-11.5379
▁emotsiooni	-11.5383
▁rahuliku	-11.5387
▁meilt	-11.5392
▁tundide	-11.5393
▁kujutab	-11.5393
▁kommerts	-11.5397
radi	-11.5397
▁elanikest	-11.5398
▁silmad	-11.5399
▁tekkiva	-11.54
▁põhimõtetest	-11.5401
▁kahtlusta	-11.5405
▁raamides	-11.5408
karistus	-11.5408
▁esimeste	-11.5409
eerima	-11.5409
▁norm	-11.541
▁lühenda	-11.541
Esiteks	-11.541
▁tekke	-11.5411
▁baasi	-11.5411
▁administratiiv	-11.5412
erakonnad	-11.5413
▁88	-11.542
positsioon	-11.5422
▁motiiv	-11.5423
▁sotsiaalseid	-11.5424
▁Horvaatia	-11.5425
▁Kübarsepa	-11.5425
▁kirjeldus	-11.5425
▁manipuleeri	-11.5425
▁järgmisi	-11.5425
sigarettide	-11.5425
▁rahakott	-11.5425
▁juhuslikult	-11.5426
▁Riina	-11.5427
▁esitajate	-11.5429
saamise	-11.543
▁ajanud	-11.5431
▁Brüsseli	-11.5431
▁panda	-11.5431
▁lähtutakse	-11.5434
▁pensionisüsteem	-11.5435
▁kavatsetakse	-11.5436
▁kaitsepolitsei	-11.5437
▁Langi	-11.5439
▁Asu	-11.544
▁õigusakti	-11.5441
▁hakkaksid	-11.5442
▁mudelit	-11.5444
▁lõpetame	-11.5445
▁edastada	-11.5447
▁tihedalt	-11.545
▁astub	-11.5452
▁finantseerimise	-11.5453
▁teiegi	-11.5455
▁juhtuks	-11.5457
inimesed	-11.5458
▁erasektoris	-11.546
J	-11.5461
▁jagan	-11.5462
▁jätkama	-11.5462
panek	-11.5464
valitsuse	-11.5465
▁asjaoma	-11.5465
▁majanduskriisi	-11.5466
▁ideede	-11.5467
▁korralikku	-11.5468
▁Kahju	-11.547
arvestus	-11.5471
rida	-11.5472
▁pingutus	-11.5472
▁viimases	-11.5474
kaubanduse	-11.5476
ism	-11.5477
▁Pere	-11.5481
▁18. 	-11.5481
▁täiskasvanud	-11.5482
▁politseiametnik	-11.5483
büroo	-11.5485
▁minimaalse	-11.5485
ülesande	-11.5485
▁loomisel	-11.5486
Kolmas	-11.5486
▁lahkuma	-11.5487
▁Enam	-11.5493
▁klient	-11.5494
▁aktsiisitõus	-11.5496
▁Hiljem	-11.5499
▁Pilvre	-11.5499
▁hätta	-11.5499
▁elementaarse	-11.5499
▁Sinu	-11.5499
▁sajaprotsendili	-11.5499
▁pindala	-11.5499
▁Näi	-11.55
▁Aastal	-11.55
▁Kohalike	-11.5503
joone	-11.5504
▁Luigase	-11.5506
▁kohtumisi	-11.5506
▁aktsiisid	-11.5507
▁jookseb	-11.5507
rina	-11.5507
▁lugemisega	-11.5508
▁reformiga	-11.551
aruanne	-11.551
▁tõeliselt	-11.551
▁Niisugune	-11.5511
▁erinevused	-11.5512
▁160	-11.5513
▁esitamine	-11.5515
▁kurjategija	-11.5519
▁mõjutus	-11.5521
dokumentide	-11.5527
▁eriline	-11.5527
▁väiksed	-11.5529
▁mingitel	-11.5529
keskkonda	-11.5531
▁nendelt	-11.5531
▁22. 	-11.5532
▁ennetamise	-11.5533
kraadi	-11.5534
▁edaspidigi	-11.5539
lanikkonnakaitse	-11.5542
▁laene	-11.5542
▁väljendit	-11.5545
▁hangete	-11.5546
▁ühendamise	-11.5547
▁tervet	-11.5547
kest	-11.555
▁käsitluse	-11.5551
▁loete	-11.5552
korraldust	-11.5555
▁Laar	-11.5555
ehitus	-11.5557
▁likvideerimise	-11.5557
septembri	-11.5561
▁tõusma	-11.5561
▁töösse	-11.5563
▁liikmesriik	-11.5564
▁haaku	-11.5564
▁lasteaed	-11.5566
adupärast	-11.5568
uju	-11.5569
▁reisija	-11.5571
▁võlgade	-11.5571
reisi	-11.5573
▁Piiri	-11.5573
▁Valimis	-11.5573
▁kohtulahend	-11.5574
▁lugupeetav	-11.5574
▁täpsusega	-11.5574
▁homo	-11.5574
▁käsutuses	-11.5574
▁kilo	-11.5574
▁kurssi	-11.5574
▁kaevandus	-11.5574
▁mõeldakse	-11.5575
▁nuppu	-11.5576
▁voor	-11.5578
▁käive	-11.5579
reservi	-11.558
▁pikkade	-11.5582
▁kokkuvõtte	-11.5582
▁kaetakse	-11.5584
▁esitades	-11.5584
▁pensionäre	-11.5585
residentide	-11.5587
▁metsas	-11.5587
inimese	-11.5588
▁teavitamise	-11.5589
▁eraisikute	-11.5589
▁koondu	-11.559
▁valiti	-11.5593
▁tugineb	-11.5593
▁elektrit	-11.5593
▁fakte	-11.5593
töötaja	-11.5594
▁olemasolevat	-11.5595
sigareti	-11.5595
▁lubade	-11.5596
rts	-11.5599
▁analüüsis	-11.5599
▁ootamatu	-11.5601
psu	-11.5603
▁Toona	-11.5604
▁Sadam	-11.5604
▁määrad	-11.5604
▁süüdistada	-11.5606
võ	-11.5607
▁maksmiseks	-11.5611
mul	-11.5611
▁võimalustest	-11.5612
▁sünnipäeva	-11.5614
▁esines	-11.5615
▁millegagi	-11.5616
▁vabakaubandus	-11.5618
▁maaomaniku	-11.5619
maht	-11.562
stumine	-11.5621
▁19. 	-11.5622
oste	-11.5622
▁lähete	-11.5623
▁1990	-11.5623
▁kiida	-11.5624
▁sisendi	-11.5625
▁usume	-11.5627
▁vastutustundetu	-11.5627
▁194	-11.5627
▁sissejuhatuses	-11.5627
▁rakendamisega	-11.5628
▁määrama	-11.5632
▁ehitamiseks	-11.5632
ametnikud	-11.5635
Tegelikult	-11.5636
▁sidus	-11.5636
▁küsitluse	-11.5637
▁Haukanõmme	-11.564
▁erasektor	-11.5641
▁Michali	-11.5645
võimaluste	-11.5646
liikme	-11.5646
▁teisigi	-11.5647
▁erakorraline	-11.5649
▁streigi	-11.5649
▁tegeldud	-11.5649
▁Stream	-11.5649
▁mõnu	-11.5649
▁Praeguseks	-11.5649
suhe	-11.5651
▁pidasite	-11.5651
▁lõikest	-11.5651
▁arusaamine	-11.5657
▁sinnapoole	-11.5657
▁tasud	-11.5659
▁vaheline	-11.5661
▁eelarvenõukogu	-11.5663
▁maju	-11.5663
▁formaalselt	-11.5665
▁esimeest	-11.5665
▁vastavate	-11.5666
▁kaotatakse	-11.5666
▁kolleege	-11.5668
▁arengufond	-11.5675
▁laieneb	-11.5675
▁sihtasutus	-11.5675
NR	-11.5678
mudel	-11.5681
▁laiendamise	-11.5681
▁suhtun	-11.5682
▁sisuliste	-11.5686
▁takistusi	-11.5687
õiguslike	-11.569
▁struktuurses	-11.569
▁Urbo	-11.5692
▁väliskomisjon	-11.5693
▁1,2	-11.5698
▁ühistransport	-11.5698
taotlus	-11.5698
▁südamest	-11.5702
▁kavandatava	-11.5703
▁erialade	-11.5705
▁seisukohtadega	-11.5706
▁kandidaati	-11.5709
▁õppetöö	-11.571
ambi	-11.571
▁Pra	-11.5711
▁tükki	-11.5711
Liina	-11.5712
ään	-11.5713
▁arvestamise	-11.5713
▁situatsioonis	-11.5713
▁halvem	-11.5717
▁Avalik	-11.5718
▁diplom	-11.572
▁tänaseni	-11.572
asutusi	-11.5721
▁Har	-11.5723
▁sätet	-11.5724
▁Akkermann	-11.5725
▁kiidetud	-11.5725
▁mõelge	-11.5725
▁istungisaalis	-11.5725
▁oodatakse	-11.5725
▁ülla	-11.5725
▁super	-11.5726
▁registrite	-11.5727
▁Talve	-11.5727
▁mõttekas	-11.5729
▁kuulsite	-11.5729
▁järje	-11.573
▁kolmandikku	-11.573
▁mullu	-11.5732
▁selgitage	-11.5732
▁etapis	-11.5735
▁suurenemine	-11.5735
▁ilmnenud	-11.5736
▁defitsiidi	-11.5737
▁õiguskorra	-11.5737
▁ennustada	-11.5739
▁küsimusena	-11.5739
▁ridade	-11.574
▁140	-11.574
▁tegutsenud	-11.5741
▁kasutuses	-11.5743
probleemi	-11.5743
▁arendustegevus	-11.5744
▁kla	-11.5746
▁ajaloost	-11.5746
▁kriteerium	-11.5747
▁majapidamis	-11.5748
▁tasumise	-11.5749
▁tööstuse	-11.575
▁avaldab	-11.5754
▁Põ	-11.5756
▁instrument	-11.5759
tamatu	-11.5764
▁loovad	-11.5764
▁küsitlus	-11.5764
▁taeva	-11.5764
töid	-11.5766
▁heli	-11.5766
▁targad	-11.5766
▁direktiiviga	-11.5768
▁peatada	-11.5771
▁tegelemine	-11.5771
▁tervishoius	-11.5774
▁toimiv	-11.5776
▁millistes	-11.5778
▁kujund	-11.5779
tavus	-11.5779
▁hindu	-11.5779
▁jõulise	-11.5784
listel	-11.5787
▁luure	-11.5788
▁kaotus	-11.5791
▁jahimeeste	-11.5791
▁vallavanema	-11.5792
35	-11.5792
▁sünnitus	-11.5795
▁kogemuste	-11.5796
tulundusühingu	-11.5796
▁turvalisust	-11.5796
vaata	-11.5799
Komisjonis	-11.5799
▁kätes	-11.5801
▁Viimsi	-11.5801
▁rahulolematu	-11.5801
▁väikesaarte	-11.5801
▁ülioluline	-11.5801
▁häma	-11.5801
▁vahva	-11.5801
▁kandnud	-11.5801
▁põhiseaduslik	-11.5802
▁talvel	-11.5802
▁Keskpanga	-11.5802
▁säiliks	-11.5803
▁hetkeks	-11.5804
▁oskuste	-11.5805
▁95	-11.5806
▁väidavad	-11.5807
kolme	-11.5814
▁ühtlustada	-11.5814
▁otsitakse	-11.5815
▁tunnustatud	-11.5816
▁prioriteediks	-11.5816
▁sekundit	-11.5817
OR	-11.5817
▁kompetents	-11.582
▁kulutatud	-11.5821
▁korrastada	-11.5824
▁meetri	-11.5824
▁katmiseks	-11.5825
▁erinevusi	-11.5826
puude	-11.5826
▁erinevates	-11.5827
▁esindavad	-11.5828
▁halvemaks	-11.5834
▁mõeldav	-11.5835
▁oludes	-11.584
▁Ru	-11.5843
▁spetsialisti	-11.5844
▁viidata	-11.5845
vahend	-11.5845
▁aruannet	-11.5847
▁keelu	-11.5851
▁demograafilise	-11.5852
▁esindajat	-11.5853
▁aineid	-11.5856
hin	-11.5856
▁kohtuda	-11.5865
▁määrust	-11.5865
▁optimeeri	-11.5866
poliitiliselt	-11.5866
▁samasugused	-11.5868
Selge	-11.587
▁Harju	-11.5872
▁isikutel	-11.5872
sada	-11.5874
▁arutelule	-11.5875
lastel	-11.5876
▁RKAS	-11.5878
▁Schengeni	-11.5878
▁olulisus	-11.5878
▁peegelda	-11.5878
▁pretsedent	-11.5878
▁planeerimise	-11.5878
▁nentis	-11.5878
▁2003.	-11.5878
▁Kõigil	-11.5879
▁tehnoloogilis	-11.5879
▁reaktsioon	-11.588
▁seonduv	-11.5881
▁kalandus	-11.5884
▁euroliidu	-11.5886
▁lõhesta	-11.5887
▁valmisolekut	-11.5888
▁ebaseaduslikult	-11.5893
▁oi	-11.5896
▁koolist	-11.5896
ktor	-11.5896
▁lubadust	-11.5902
▁kabinetis	-11.5903
▁muudel	-11.5903
▁Saan	-11.5904
▁Alustan	-11.5906
▁üritame	-11.5906
▁kasutati	-11.5907
▁Prantsusmaal	-11.5907
saaja	-11.5908
▁õigusest	-11.5911
▁kindlustunne	-11.5911
▁vallad	-11.5914
▁Madisoni	-11.5916
pudeli	-11.5916
rma	-11.5917
▁lõikele	-11.5918
▁sanktsiooni	-11.5921
reeglite	-11.5923
▁Nendele	-11.5928
▁normid	-11.5928
▁tänapäevase	-11.5928
▁pensionitõusu	-11.5937
▁kõrgel	-11.594
▁kohtud	-11.5941
▁leiaks	-11.5943
Rein	-11.5945
Teie	-11.5945
▁suurene	-11.5945
▁Hetkel	-11.5947
▁tabelis	-11.595
▁rist	-11.5951
täit	-11.5952
▁põlvkond	-11.5955
▁Jõu	-11.5955
siis	-11.5955
▁ingliskeelse	-11.5955
▁MKM	-11.5955
▁Põltsamaa	-11.5955
▁Skandinaavia	-11.5955
▁uhkus	-11.5956
▁Aktsiisi	-11.5957
▁kohtuvaidlus	-11.5957
▁rahvatervise	-11.5957
▁paralleel	-11.5957
▁tekkimise	-11.5957
▁Auto	-11.5957
▁majutusasutuste	-11.5957
▁kallid	-11.5958
tegemise	-11.5959
gümnaasiumi	-11.5959
rant	-11.5959
▁veenva	-11.596
▁edene	-11.5962
▁investeerima	-11.5963
▁1999.	-11.5963
▁Ott	-11.5965
üks	-11.5965
▁Lõppkokkuvõttes	-11.5966
seisundi	-11.5966
▁keskne	-11.5966
▁satub	-11.5968
▁toomise	-11.5968
pol	-11.5968
▁advokaadi	-11.5968
▁vähendanud	-11.5969
▁komisjonipoolse	-11.597
▁oktoobris	-11.5971
▁halduskohtu	-11.5972
▁sulgeda	-11.5973
▁pakutava	-11.5973
kasvatuse	-11.5974
▁funktsioon	-11.5974
▁salaja	-11.5975
▁Nei	-11.5975
▁suurele	-11.5976
4%	-11.5977
▁lõpetab	-11.598
▁Ühes	-11.5981
▁juristid	-11.5983
▁jõustu	-11.5986
ndatakse	-11.5986
▁Pri	-11.5988
dena	-11.5993
▁koosolek	-11.5994
▁teenindus	-11.5995
▁kvalifikatsioon	-11.5998
▁tendentsi	-11.6002
petaja	-11.6004
▁parimat	-11.6008
▁pagulasi	-11.601
▁Omavalitsuste	-11.601
▁Komisjonile	-11.6012
▁hamba	-11.6015
mer	-11.6019
▁korraldas	-11.6022
▁uuringut	-11.6023
faasis	-11.6023
▁otsimise	-11.6026
tuvad	-11.6027
surma	-11.6027
▁diplomaat	-11.6032
▁liigse	-11.6034
▁Rõhutan	-11.6034
▁adekvaatne	-11.6034
▁legaalse	-11.6034
▁tahtsid	-11.6034
▁doteeri	-11.6034
▁mõistma	-11.6034
koor	-11.6035
▁kesklinna	-11.6035
rikas	-11.6035
▁dokumendis	-11.6036
▁2009	-11.604
▁uuris	-11.6042
▁süda	-11.6042
▁küps	-11.6043
▁kaalumise	-11.6044
▁võtmata	-11.6044
▁karistatud	-11.6044
▁riigiettevõtte	-11.6045
▁mõjuanalüüsi	-11.6045
▁Kajar	-11.6048
▁õiglus	-11.6048
▁Ministeerium	-11.6048
▁ehitamine	-11.6048
▁taotlenud	-11.6048
▁ajama	-11.6049
▁tuleval	-11.6052
▁eraldatava	-11.6056
▁sunnib	-11.6057
mbri	-11.6057
▁kantsleri	-11.6059
▁nimetuse	-11.6059
▁uhked	-11.6059
▁puudutavate	-11.606
istliku	-11.606
▁ühistransporti	-11.6061
tevõtlusminister	-11.6061
▁peaministrit	-11.6062
▁proovime	-11.6062
▁vastamiseks	-11.6063
▁pilguga	-11.6065
üksuse	-11.6067
▁erikomisjon	-11.607
Hääl	-11.607
▁hinnast	-11.607
▁protseduurid	-11.607
▁ülejäägis	-11.607
▁seadusmuudatust	-11.607
▁kulutama	-11.6071
▁preemia	-11.6072
▁pisike	-11.6074
▁elas	-11.6074
stikuregistri	-11.6075
▁majade	-11.6075
▁tagamisel	-11.6075
kaaslase	-11.6079
▁piirides	-11.6082
▁Laaneots	-11.6083
▁reaalsed	-11.6083
▁elatis	-11.609
▁lõpust	-11.6093
kaarti	-11.6094
▁langes	-11.6095
▁liikmetega	-11.6097
▁jälitus	-11.6102
▁kuulunud	-11.6103
▁pereliikme	-11.6103
▁teave	-11.6105
▁paremas	-11.6108
▁ütled	-11.6109
▁lõpe	-11.6111
▁homse	-11.6112
▁immigrantide	-11.6112
▁keelekümblus	-11.6112
▁lükati	-11.6112
▁nõrga	-11.6112
▁üksjagu	-11.6112
▁Jents	-11.6112
▁kohelda	-11.6113
▁leppisime	-11.6113
▁Lukas	-11.6114
▁kuludest	-11.6114
▁subjektiivse	-11.6115
▁jätkusuutliku	-11.6116
▁karistust	-11.6118
▁peitub	-11.6118
▁järjekord	-11.6119
teaduse	-11.612
▁eesmärkidest	-11.612
▁ühiku	-11.6121
▁käiva	-11.6121
▁palusin	-11.6123
lisse	-11.6123
▁meenub	-11.6124
▁efektiivsemalt	-11.6124
õpetajate	-11.6124
▁Järvamaa	-11.6125
▁määruste	-11.6125
▁Milliste	-11.6126
▁sõjaline	-11.6127
▁ratifitseerinud	-11.6128
▁ühingu	-11.6128
▁esinemise	-11.6131
▁isikul	-11.6132
▁jälgivad	-11.6134
eerimist	-11.6138
▁Euroopast	-11.6138
▁juristi	-11.6139
▁iseloomuga	-11.614
▁rangema	-11.6146
▁tugevus	-11.615
▁kaasus	-11.6151
miku	-11.6153
▁Neile	-11.6155
▁eksam	-11.6155
▁osakond	-11.6155
planeering	-11.6156
▁võt	-11.6157
eelmise	-11.6163
▁tegelikkus	-11.6164
▁erakonnas	-11.6165
▁lapsest	-11.6168
▁tegevusele	-11.6168
▁kokkuvõte	-11.6168
organi	-11.6176
▁rahastust	-11.6176
▁nüansse	-11.6177
kodanik	-11.618
▁osutas	-11.6185
▁pühenda	-11.6186
▁loetle	-11.6187
▁heakskiitmise	-11.619
▁kvalifitseeru	-11.6192
▁ametivande	-11.6192
▁ühetaolise	-11.6192
▁Arengufondi	-11.6192
▁soodustusi	-11.6192
▁jt	-11.6193
▁Riia	-11.6193
▁ebaõnnestunud	-11.6196
▁Kü	-11.6197
▁Täpsusta	-11.6197
▁kelleltki	-11.6198
ajast	-11.62
▁kirjeldasin	-11.6201
küsimustes	-11.6201
▁osutatakse	-11.6202
▁üllatav	-11.6203
eesmärk	-11.6207
▁Je	-11.6207
▁kümnes	-11.6208
▁leviku	-11.6208
▁inimliku	-11.6208
demokraatia	-11.6209
▁pööratud	-11.621
▁ravimiseaduse	-11.621
laad	-11.6211
▁pakun	-11.6211
▁kannavad	-11.6212
▁seadustest	-11.6216
jutt	-11.622
▁rakendamisel	-11.622
võtja	-11.622
▁väljatöötamisel	-11.6222
▁siga	-11.6223
▁mängib	-11.6224
▁lepi	-11.6225
▁luges	-11.6229
▁kartus	-11.6232
▁Tuleta	-11.6233
▁tootjad	-11.6233
▁ülikool	-11.624
▁võetava	-11.6243
▁leidmise	-11.6244
▁kümnendi	-11.6245
▁kaitseväelased	-11.6248
keskkonnas	-11.6248
▁olemasolevaid	-11.625
põhisus	-11.625
▁meeskond	-11.6251
▁meetmetega	-11.6252
▁arenguid	-11.6254
▁liitri	-11.6254
rühm	-11.6256
▁sobilik	-11.6262
Ettekandjale	-11.6263
▁erine	-11.6267
▁võimete	-11.6267
▁Kaubandus	-11.6269
mehhanismid	-11.6269
probleeme	-11.6271
hisuhtevägivalla	-11.6272
▁akadeemilise	-11.6272
▁Siiamaani	-11.6272
▁Puudu	-11.6273
▁arvatavasti	-11.6273
▁maaelukomisjon	-11.6273
▁senist	-11.6274
▁staabiohvitseri	-11.6274
▁kantakse	-11.6274
▁valimisliidu	-11.6276
▁piiritle	-11.6276
▁tööõnnetus	-11.6276
▁Olgem	-11.6277
▁maksustatakse	-11.6278
▁järjekordne	-11.628
toime	-11.628
▁lõplikku	-11.6281
▁3,5	-11.6283
▁samast	-11.6289
lõik	-11.6296
24	-11.6302
ühingu	-11.6302
▁tasandile	-11.6303
▁lahkub	-11.6304
▁ametkonna	-11.6304
▁üksikuid	-11.6306
▁Metsa	-11.6307
▁laialt	-11.6308
▁huvitavad	-11.6309
partnerid	-11.6309
▁teade	-11.6309
11	-11.6309
▁peret	-11.6311
▁mitmest	-11.6313
▁maavalitsused	-11.6313
▁aprillis	-11.6317
▁küsitav	-11.6319
rahv	-11.6319
▁lao	-11.6323
▁vead	-11.6327
▁hotelli	-11.6328
▁hinnanud	-11.6335
küsimused	-11.6335
võtluskeskkonna	-11.6337
▁raamistik	-11.6339
▁direktiivide	-11.6339
reklaami	-11.634
▁prognoose	-11.634
▁hoiaku	-11.6342
▁punktiga	-11.6345
Heimar	-11.6345
▁õpetama	-11.6346
vaade	-11.6347
kütus	-11.6347
käigu	-11.6348
norm	-11.6349
▁enamikul	-11.635
▁Linnavolikogu	-11.6352
▁Rummo	-11.6352
▁eestkõneleja	-11.6352
▁esialgne	-11.6352
▁haamrilööki	-11.6352
▁optimaalse	-11.6352
▁üldjoontes	-11.6352
▁meeleolu	-11.6352
▁Vanema	-11.6353
▁Kumb	-11.6353
▁abiellu	-11.6354
▁katastroofi	-11.6354
▁rõhutasite	-11.6355
▁põhimõttelisi	-11.6356
▁päevade	-11.6358
▁kuude	-11.6358
▁toetudes	-11.6359
▁massiliselt	-11.636
▁Tulemus	-11.6361
▁lipp	-11.6364
▁kuupäev	-11.6368
▁metalli	-11.6368
poliitilise	-11.6369
▁vähesed	-11.6369
▁ennist	-11.6369
▁Lühidalt	-11.637
▁adekvaatselt	-11.6371
▁traditsioon	-11.6371
▁teavitada	-11.6376
▁taustaga	-11.6377
▁Pärnus	-11.638
▁tõhusa	-11.6382
▁lubamatu	-11.6383
▁taktika	-11.6383
ink	-11.6383
▁positsioonil	-11.6384
ES	-11.6384
▁läbirääkimis	-11.6385
ringkondade	-11.6386
▁lausega	-11.6386
palka	-11.6387
ndla	-11.6388
▁koridori	-11.6388
▁standardi	-11.6389
▁lahendame	-11.639
▁luban	-11.6391
▁sektorit	-11.6392
▁kirg	-11.6396
▁elanikkonnast	-11.6396
▁tegevusluba	-11.64
▁tähtajad	-11.64
salu	-11.64
koolis	-11.6404
▁kiiruse	-11.6404
▁normaalselt	-11.6405
▁esindajatele	-11.6405
▁lülita	-11.6405
▁andmisel	-11.6409
▁võrdsusta	-11.6409
▁valed	-11.6409
▁loogikat	-11.6409
▁turult	-11.6409
▁kutsus	-11.6411
▁häälega	-11.6412
▁korrastamise	-11.6412
▁Üldin	-11.6413
reeglid	-11.6414
ohutus	-11.6415
Järgmise	-11.6418
▁sotsiaalset	-11.6422
▁pinnal	-11.6422
▁küsijale	-11.6425
▁kapo	-11.6425
▁Toomast	-11.6426
Arto	-11.6427
▁mõtles	-11.6428
▁Maanteeamet	-11.6428
▁ülikoolis	-11.643
▁välismaale	-11.6433
▁põgenike	-11.6433
▁ETV	-11.6434
▁Innove	-11.6434
▁Kremli	-11.6434
▁Jaapani	-11.6434
▁sealhulgas	-11.6434
▁nihku	-11.6434
▁klaari	-11.6434
▁tulge	-11.6434
▁Luige	-11.6434
▁Abi	-11.6434
▁juuruta	-11.6435
▁Ne	-11.6436
▁igapäevane	-11.6436
raamatukogu	-11.6438
▁realistlik	-11.6438
▁hirmus	-11.6438
▁loosungi	-11.6439
▁toodetud	-11.6441
eluvararegistri	-11.6442
▁Niipalju	-11.6443
▁tunnustust	-11.6446
▁tellitud	-11.6447
▁põhjendusi	-11.6447
▁otsustega	-11.6448
▁asendatakse	-11.6448
▁teeksid	-11.645
▁õiguskaitse	-11.645
▁magusa	-11.6451
▁suurendanud	-11.6451
▁saadame	-11.6452
▁reformid	-11.6455
▁soost	-11.6456
posti	-11.6456
▁Looma	-11.6457
▁avame	-11.6457
▁efektiivsemaks	-11.6457
lehekülg	-11.6459
rake	-11.646
▁VI	-11.6461
samal	-11.6461
▁ajastu	-11.6462
▁ostja	-11.6462
▁kiirenda	-11.6473
ikuid	-11.6474
▁pidasid	-11.6476
▁õpilastele	-11.6476
▁lähtus	-11.6476
▁tooni	-11.6477
▁kontrollimise	-11.6478
▁vastandu	-11.6479
kultuur	-11.6487
▁põhilised	-11.649
enesestmõistetav	-11.649
▁jagame	-11.6491
▁isikust	-11.6492
▁tähtsaks	-11.6494
▁akt	-11.6494
▁presidenti	-11.65
▁lehekülje	-11.6504
kokku	-11.6505
▁hull	-11.6505
juhataja	-11.6509
▁Anneli	-11.6509
liige	-11.651
laps	-11.651
ker	-11.6512
▁tasakaalust	-11.6512
programmide	-11.6514
▁leppis	-11.6515
▁mälestus	-11.6516
▁populaarne	-11.6516
▁inimarengu	-11.6516
▁Jürgenstein	-11.6516
▁puudutada	-11.6516
▁Pikamäe	-11.6516
▁omista	-11.6517
▁Võime	-11.6517
▁juristide	-11.6517
▁inimlik	-11.6518
▁Lisa	-11.6519
▁täidetakse	-11.6519
▁naaberriikide	-11.652
▁Mikseri	-11.6522
riiki	-11.6523
▁ametiühingute	-11.6524
▁etteheiteid	-11.6526
▁järgima	-11.6528
▁diskuteerida	-11.6528
▁106	-11.653
▁vanemaid	-11.653
▁kehtestamist	-11.6531
▁0,2	-11.6532
▁terviklikku	-11.6533
tunnistuse	-11.6533
▁artiklit	-11.6533
▁alandamine	-11.6533
▁talve	-11.6535
▁jaotamise	-11.6535
valdkondade	-11.6537
▁ministreid	-11.6537
▁lisaküsimus	-11.6538
▁Mingit	-11.6539
ustavaks	-11.6541
▁kehvem	-11.6547
▁räägid	-11.655
▁99	-11.655
▁erisusi	-11.655
▁tunnistanud	-11.6552
▁valmistama	-11.6552
▁ministriks	-11.6553
▁kauni	-11.6553
▁kaheksas	-11.6559
normi	-11.656
kaal	-11.6561
▁leevendamise	-11.6565
▁maksupettuste	-11.6568
▁suurimaid	-11.6569
▁süsteemse	-11.6572
▁niisugusel	-11.6577
▁juhtiv	-11.6579
▁osutu	-11.6583
▁komponendi	-11.6585
▁jagab	-11.6585
▁Ühendriikides	-11.6589
süsteemide	-11.659
üdi	-11.6591
protsendi	-11.6593
paketi	-11.6593
investeeringuid	-11.6593
hoolduse	-11.6594
▁saadava	-11.6595
▁kodakondsuseta	-11.6596
▁Võrreld	-11.6598
▁Mõelge	-11.6598
▁elektrooniline	-11.6598
▁ratsionaalne	-11.6598
▁spekulatsioon	-11.6598
▁transiidi	-11.6598
▁vihje	-11.6598
▁hiline	-11.6598
▁tubakatoodete	-11.6599
▁piiriülese	-11.66
▁aseta	-11.66
▁saatmist	-11.6601
▁taguse	-11.6601
▁programmid	-11.6602
▁tervislik	-11.6603
▁eluga	-11.6605
kesed	-11.6606
▁reaalsuse	-11.6608
▁esimesi	-11.661
▁suhtub	-11.6612
▁täpsustama	-11.6612
▁mõlemale	-11.6613
▁õpetatakse	-11.6615
▁ootamatult	-11.6616
▁viita	-11.6616
▁perekondade	-11.6616
▁kajastatud	-11.6616
▁kiusa	-11.6617
▁astutud	-11.6617
▁kirjutati	-11.6617
▁efektiivsuse	-11.6617
▁kuulen	-11.6618
▁soodustab	-11.6618
periood	-11.6619
▁korrigeerida	-11.662
▁soetamise	-11.6621
▁maksti	-11.6622
▁meest	-11.6622
▁statistili	-11.6624
▁kvaliteetne	-11.6625
võlg	-11.6627
▁selgeid	-11.6629
▁ühendatud	-11.6631
▁üritab	-11.6634
juures	-11.6638
▁valgu	-11.664
▁tõdema	-11.664
▁mõistagi	-11.6642
vaidlus	-11.6644
▁saar	-11.6644
▁õppimis	-11.6645
▁pingutama	-11.6646
▁keeleoskuse	-11.6648
▁kohusta	-11.6649
▁omavalitsusjuht	-11.6651
▁hoidmine	-11.6651
▁hoopiski	-11.6658
▁5. 	-11.6658
▁Tuli	-11.666
▁lähtekoht	-11.6662
▁haridusele	-11.6665
▁Tartusse	-11.6665
▁partneritega	-11.6669
▁Sõtnik	-11.6671
▁piirangut	-11.6672
kesk	-11.6673
▁Natuke	-11.6674
▁tootmist	-11.6675
▁sekkumise	-11.6675
▁majanduslike	-11.6677
variant	-11.6677
▁põhimõttel	-11.6677
▁perearstid	-11.6677
▁jõuga	-11.6678
tarbe	-11.668
spekt	-11.668
▁pigista	-11.6682
ehhi	-11.6682
▁öösel	-11.6683
▁õpilast	-11.6684
▁varusta	-11.6686
▁pensioniea	-11.6686
iguskomisjoni	-11.6687
▁Pallingu	-11.6688
▁organisatsioone	-11.6691
raja	-11.6691
▁menetletakse	-11.6691
▁tervikliku	-11.6692
▁rikub	-11.6693
▁rahvakogu	-11.6694
▁arvamusele	-11.6695
▁demokraatiat	-11.6695
▁teated	-11.6696
suhte	-11.6697
▁valmisoleku	-11.6698
▁raudteed	-11.6701
▁väärivad	-11.6702
▁1%-	-11.6704
▁kummalise	-11.6705
▁viimaseid	-11.6706
▁ühendused	-11.6708
▁murest	-11.671
[...]
