<unk>	0
<s>	0
</s>	0
,	-2.75744
.	-3.24564
▁on	-3.63124
▁ja	-4.09074
▁et	-4.14067
▁ei	-4.4107
▁see	-4.62982
▁	-4.63786
!	-4.74046
s	-4.82571
▁"	-4.83029
▁ka	-4.89644
▁kui	-4.91453
▁ma	-4.91475
t	-5.04536
d	-5.07039
st	-5.1783
▁seda	-5.2361
▁me	-5.23819
le	-5.30355
▁siis	-5.33245
▁aga	-5.35645
▁selle	-5.36204
▁ole	-5.38228
-	-5.39202
l	-5.41661
ga	-5.42553
e	-5.43099
▁mis	-5.48846
i	-5.53606
▁või	-5.62822
▁kas	-5.64967
ks	-5.67261
▁palun	-5.69606
!"	-5.7145
▁eesti	-5.71788
▁väga	-5.73944
aitäh	-5.76432
▁eelnõu	-5.76859
▁nii	-5.86117
te	-5.8679
▁te	-5.88206
."	-5.89431
▁riigikogu	-5.95114
▁oma	-5.95845
?	-5.96719
id	-6.01639
▁oli	-6.08041
ma	-6.08649
▁kes	-6.20642
▁–	-6.21591
▁siin	-6.2206
▁meie	-6.22988
▁need	-6.24623
b	-6.25644
▁hea	-6.32056
da	-6.33644
▁mida	-6.35741
▁mitte	-6.37135
▁küsimus	-6.37493
lt	-6.40032
▁nagu	-6.44977
▁välja	-6.46564
▁võib	-6.48282
▁ta	-6.50167
▁üle	-6.51073
▁seaduse	-6.51465
a	-6.5176
▁olnud	-6.52154
?"	-6.53687
▁oleks	-6.542
me	-6.55184
▁üks	-6.55829
de	-6.5681
▁meil	-6.57342
▁ning	-6.5789
▁neid	-6.5826
▁minu	-6.59682
▁palju	-6.60891
▁nende	-6.61062
▁kuidas	-6.61119
▁praegu	-6.62149
▁sellest	-6.63968
▁vastu	-6.64762
▁tuleb	-6.64835
▁teie	-6.65655
▁veel	-6.65937
vad	-6.66166
▁kõik	-6.66356
▁kindlasti	-6.66646
▁kohta	-6.67141
▁muudatus	-6.67798
▁euroopa	-6.68688
nud	-6.69374
▁aasta	-6.69661
:	-6.70298
mine	-6.70612
▁juhataja	-6.72473
ta	-6.72595
▁teha	-6.73966
▁kus	-6.75808
▁juba	-6.76161
▁nad	-6.77782
ne	-6.78341
tud	-6.80057
▁eest	-6.80417
▁selles	-6.8223
▁riigi	-6.83448
gi	-6.8385
▁saa	-6.84505
▁rohkem	-6.84732
▁nüüd	-6.85581
▁minister	-6.86867
▁raha	-6.87313
n	-6.87494
sse	-6.88009
▁ju	-6.88546
▁ära	-6.90472
na	-6.909
▁näiteks	-6.92917
▁tegelikult	-6.93925
▁oleme	-6.93952
▁mille	-6.94153
u	-6.94802
ti	-6.95542
▁võimalik	-6.96513
▁lugupeetud	-6.96945
▁ette	-6.97037
mist	-6.98619
se	-6.98675
▁peaks	-7.01352
▁teine	-7.0155
▁ettekandja	-7.02559
▁arvan	-7.02861
▁saab	-7.033
▁aitäh	-7.03346
ki	-7.03707
▁küll	-7.04047
v	-7.04801
▁aru	-7.05296
takse	-7.06007
▁olla	-7.06172
▁olen	-7.0642
▁seal	-7.06756
▁austatud	-7.0739
▁aastal	-7.08546
▁juurde	-7.09673
▁kogu	-7.12108
▁valitsuse	-7.12641
▁vabariigi	-7.12698
▁sotsiaal	-7.15376
sid	-7.15444
▁sest	-7.15613
▁tagasi	-7.15736
▁olema	-7.16291
▁suur	-7.16298
▁ainult	-7.17214
▁ühe	-7.17645
▁miks	-7.18334
▁öelda	-7.18347
▁peab	-7.18498
▁vaja	-7.18579
▁härra	-7.20277
▁selline	-7.20331
▁vaid	-7.21258
mise	-7.22043
▁täna	-7.22743
▁mul	-7.2364
m	-7.24034
▁teile	-7.24878
▁võiks	-7.2589
▁valitsus	-7.25959
▁läbi	-7.26388
▁sellega	-7.26757
▁töö	-7.27047
k	-7.27759
▁sa	-7.27804
▁midagi	-7.28356
▁ega	-7.29101
▁võtta	-7.29243
▁mina	-7.29515
▁liidu	-7.29707
▁lugemine	-7.30427
▁puhul	-7.30493
▁küsimuse	-7.30672
ni	-7.31225
▁komisjoni	-7.31639
▁kõige	-7.32024
▁""	-7.32057
▁eestis	-7.32255
▁kokku	-7.32812
▁osa	-7.33032
▁kolleegid	-7.34011
olla	-7.34031
▁küsimusi	-7.34972
▁sellele	-7.35636
des	-7.36116
▁just	-7.36423
▁selleks	-7.36995
▁edasi	-7.38425
▁peale	-7.38654
▁ehk	-7.38817
▁inimesed	-7.40484
▁ikkagi	-7.41748
▁ettepanek	-7.43789
▁eurot	-7.4438
▁head	-7.44565
▁ise	-7.4682
▁riik	-7.47587
▁poolt	-7.48299
▁enne	-7.48677
▁muutmise	-7.48683
o	-7.49013
▁olemas	-7.50145
komisjoni	-7.51056
▁esimene	-7.52327
▁kolleeg	-7.53622
r	-7.54348
▁teema	-7.56144
ka	-7.56552
▁puudutab	-7.57317
▁fraktsiooni	-7.57588
▁enam	-7.57733
▁tõesti	-7.58115
▁pärast	-7.59268
▁ajal	-7.59455
▁lihtsalt	-7.5952
ed	-7.60069
▁eelarve	-7.60397
ku	-7.60479
▁saada	-7.61821
▁pole	-7.62983
▁esimees	-7.63159
▁õigus	-7.63175
▁e	-7.63222
▁kuna	-7.63449
va	-7.63639
is	-7.64584
▁loomulikult	-7.65471
ja	-7.65674
ke	-7.65704
▁kaks	-7.65868
▁tema	-7.67065
▁päris	-7.67332
▁saanud	-7.67814
▁majandus	-7.68009
▁üldse	-7.682
▁inimeste	-7.6918
▁iga	-7.69411
▁hästi	-7.70538
▁eri	-7.70663
▁asi	-7.70884
austatud	-7.70974
▁tänu	-7.71484
▁asja	-7.73549
▁juhul	-7.73866
""	-7.73994
▁a	-7.7431
▁seisukoht	-7.74392
▁olete	-7.74509
▁rahandus	-7.7551
▁saalis	-7.75672
▁n	-7.76565
ge	-7.76618
▁kord	-7.76712
▁miljonit	-7.77488
▁tehtud	-7.77744
▁seadus	-7.78735
▁ettepaneku	-7.79035
▁jooksul	-7.79782
▁keegi	-7.79852
▁teinud	-7.79902
▁teise	-7.80705
▁tegemist	-7.80973
ministeeriumi	-7.81205
line	-7.81278
▁istungi	-7.81475
tu	-7.82634
▁olid	-7.82861
▁aeg	-7.82963
▁arutelu	-7.83017
▁teada	-7.83023
▁oluline	-7.83281
▁tea	-7.83421
ide	-7.8364
▁anda	-7.8383
▁aastat	-7.84056
▁poole	-7.84489
▁kaasa	-7.84616
▁nimel	-7.84715
▁korda	-7.84971
▁seaduseelnõu	-7.85183
▁koos	-7.85467
▁seotud	-7.85531
▁eesistuja	-7.85683
est	-7.85868
ö	-7.85977
▁pea	-7.87219
▁siiski	-7.87647
mis	-7.88026
▁kolm	-7.88519
▁teatud	-7.88588
▁selge	-7.88831
▁minutit	-7.89081
▁probleem	-7.8941
ri	-7.89439
▁elu	-7.89593
▁jaoks	-7.90066
▁soovi	-7.90553
▁otsuse	-7.90589
es	-7.90678
▁isegi	-7.90888
▁meile	-7.91109
el	-7.9145
▁inimesi	-7.91466
▁mulle	-7.918
re	-7.92037
▁peaminister	-7.92059
▁hääletada	-7.92327
test	-7.9246
▁aja	-7.93327
la	-7.93347
▁juhtivkomisjoni	-7.93521
▁tuleks	-7.93535
▁keskkonna	-7.93704
▁täiesti	-7.9389
▁järgi	-7.94057
▁tähendab	-7.94417
▁sellist	-7.946
▁mingi	-7.95269
▁läheb	-7.95577
▁esitatud	-7.96242
▁samas	-7.96681
▁algatatud	-7.96686
▁mõttes	-7.96769
▁teiste	-7.9683
▁arvates	-7.97098
▁kuid	-7.98028
▁ikka	-7.98156
▁õige	-7.98158
▁komisjonis	-7.98226
▁võimalus	-7.98268
▁ongi	-7.98562
▁täpselt	-7.98925
ettepaneku	-7.9927
▁jah	-7.99299
▁haridus	-8.0041
▁aega	-8.00901
▁samuti	-8.01294
▁tõepoolest	-8.01552
▁jääb	-8.0167
seaduse	-8.01684
▁eesmärk	-8.02304
▁mõju	-8.03025
si	-8.03536
▁liiget	-8.03578
tele	-8.04135
▁tähelepanu	-8.04463
▁alla	-8.04642
ra	-8.0478
ü	-8.05164
▁alati	-8.05695
▁saavad	-8.05789
ud	-8.05803
▁kooli	-8.05892
▁kodu	-8.05926
us	-8.05978
▁peame	-8.06048
▁sellel	-8.06779
▁sama	-8.07041
▁päevakorrapunkt	-8.07155
▁sõna	-8.07183
miseks	-8.07607
▁liikmed	-8.07836
▁kultuuri	-8.07849
▁teil	-8.07895
▁inimene	-8.0892
▁vähemalt	-8.09002
▁nr	-8.09158
▁kuidagi	-8.09232
ega	-8.09236
▁esitanud	-8.09299
▁kaitse	-8.0944
▁maksu	-8.09571
▁pigem	-8.10173
▁natuke	-8.10239
▁komisjon	-8.10499
▁rääkida	-8.11128
hea	-8.11584
▁keskerakonna	-8.11601
sin	-8.11604
▁kuni	-8.11911
▁tänan	-8.12319
palun	-8.13173
▁kahe	-8.1325
▁sinna	-8.13557
▁otsus	-8.14628
▁valmis	-8.15314
▁erakonna	-8.15476
▁teeb	-8.15826
▁nimelt	-8.16286
5	-8.16792
sime	-8.16898
▁minna	-8.1701
▁laste	-8.17173
▁000	-8.17237
▁räägime	-8.17474
maks	-8.17549
▁saaks	-8.17645
▁kõnetooli	-8.17646
▁läbirääkimised	-8.17735
gu	-8.17749
▁k	-8.17782
▁vahel	-8.17967
in	-8.18008
▁sisse	-8.18061
▁tööd	-8.19971
▁fraktsioon	-8.20488
▁maa	-8.2114
tel	-8.21163
▁lisa	-8.21276
▁liikme	-8.21407
▁üsna	-8.21603
tes	-8.21858
▁sellise	-8.22006
ettepanek	-8.22197
▁siia	-8.22247
▁sel	-8.22384
▁vaadata	-8.22456
er	-8.22521
0	-8.22582
ele	-8.22694
▁all	-8.23328
▁uue	-8.23482
▁kõigepealt	-8.23511
▁olukord	-8.2362
▁peavad	-8.23646
▁igal	-8.2387
▁milline	-8.23934
▁muidugi	-8.23939
▁põhiseadus	-8.24048
▁pool	-8.24661
▁euro	-8.24927
▁eks	-8.25158
▁nõus	-8.25307
▁kohtu	-8.25465
▁toetust	-8.25513
▁ütlen	-8.25575
tada	-8.25805
lugupeetud	-8.25812
▁ees	-8.25847
▁tegema	-8.26054
▁seetõttu	-8.26066
▁küsimust	-8.26249
2	-8.26293
▁millest	-8.26678
▁abi	-8.26888
ettepanekute	-8.27692
ä	-8.27753
▁enda	-8.27875
▁tahan	-8.27969
li	-8.28112
▁korral	-8.28275
▁saame	-8.28392
▁saan	-8.28398
▁mitu	-8.28888
komisjon	-8.28902
▁nõukogu	-8.29197
▁kell	-8.29353
▁probleemi	-8.29573
▁keele	-8.29711
h	-8.29755
▁selgelt	-8.30415
suur	-8.30497
tega	-8.30514
▁ütlesin	-8.30882
1	-8.31019
▁huvi	-8.31139
▁neil	-8.31559
▁lõpetada	-8.31633
▁eriti	-8.3203
▁võetud	-8.32102
▁raske	-8.32608
▁alusel	-8.32667
lise	-8.32845
▁riigieelarve	-8.32971
tav	-8.33414
▁tõttu	-8.33744
▁piiri	-8.34013
▁omavalitsuste	-8.34142
tus	-8.34169
dega	-8.34253
▁ilmselt	-8.34255
▁tallinna	-8.34367
▁tuli	-8.3472
kas	-8.34797
▁suurem	-8.3508
▁panna	-8.35286
▁taga	-8.35378
▁kunagi	-8.35423
poliitika	-8.35568
▁põhjus	-8.35788
▁pean	-8.35952
▁küsin	-8.36213
▁muu	-8.36325
▁koalitsiooni	-8.36353
▁tulevikus	-8.36587
pa	-8.36837
▁sellepärast	-8.37038
nd	-8.3704
▁neile	-8.37558
▁kontrolli	-8.37583
▁teid	-8.37643
▁vähem	-8.37805
▁teeme	-8.38515
▁palga	-8.3871
▁muuta	-8.38857
4	-8.38991
ministeerium	-8.39185
dest	-8.39207
▁millega	-8.39347
lik	-8.39417
▁küsimusele	-8.39434
▁kohaselt	-8.39467
▁ütles	-8.39669
▁loodan	-8.39798
▁väike	-8.39843
▁liige	-8.39989
▁mõistlik	-8.40044
▁omavalitsuse	-8.40135
pi	-8.40187
▁öelnud	-8.40212
▁ilma	-8.40286
▁suure	-8.40338
▁pa	-8.40446
▁hääletusele	-8.4065
▁kasutada	-8.40895
▁ligi	-8.40937
▁hakkab	-8.41044
▁tule	-8.41135
▁järgmise	-8.41138
▁vaatame	-8.4117
▁teame	-8.41632
▁annab	-8.41771
▁jäänud	-8.41771
▁mingit	-8.42144
▁päeva	-8.42575
õ	-8.42685
▁varem	-8.42767
▁üles	-8.4279
▁esindaja	-8.4306
▁istungil	-8.43182
▁teadus	-8.43274
▁niimoodi	-8.43284
▁kelle	-8.4334
▁umbes	-8.43363
del	-8.43579
▁mõni	-8.4369
▁s	-8.43915
▁põhi	-8.44125
▁usun	-8.44365
▁rahva	-8.44727
▁kohaliku	-8.44802
▁ümber	-8.44932
6	-8.45251
▁20	-8.45439
▁kõiki	-8.45668
▁proua	-8.45675
▁selliseid	-8.45894
▁teiseks	-8.46041
▁arvu	-8.46141
8	-8.46418
▁meelest	-8.46422
▁summa	-8.46558
▁inimese	-8.46634
▁analüüsi	-8.46701
▁tee	-8.46785
▁1.	-8.46788
▁lisaks	-8.47187
▁kuigi	-8.47214
▁esitamise	-8.4744
▁mind	-8.47569
▁tulnud	-8.47589
ar	-8.47644
▁asju	-8.47718
–	-8.47904
▁arv	-8.48203
▁tasu	-8.48443
site	-8.48452
▁taha	-8.49399
3	-8.49431
▁esimese	-8.49448
▁tehakse	-8.49755
▁kinni	-8.49951
▁millised	-8.50025
▁kohe	-8.50193
sed	-8.50523
▁esitada	-8.50793
▁sisu	-8.51039
▁täielikult	-8.51132
7	-8.51133
▁jäi	-8.51215
ksid	-8.51286
▁mõne	-8.51291
eid	-8.51341
▁tervise	-8.51405
▁küsija	-8.51415
▁alkoholi	-8.51483
mi	-8.51822
▁välis	-8.52094
lu	-8.52353
p	-8.52575
maa	-8.52647
▁liiga	-8.52983
liku	-8.53038
▁ühte	-8.53075
▁vähe	-8.53151
▁liit	-8.53165
▁andres	-8.53177
▁hoopis	-8.53416
▁asjad	-8.53676
▁sai	-8.54009
selt	-8.54061
▁läbirääkimisi	-8.54118
▁eelkõige	-8.54356
▁toimub	-8.54634
▁nendest	-8.55184
▁eraldi	-8.55271
oo	-8.55415
▁kaudu	-8.5553
▁sisuliselt	-8.55535
▁finants	-8.55774
▁oska	-8.56064
▁muud	-8.56156
▁jne	-8.56372
▁uus	-8.56423
▁arvestada	-8.56467
eks	-8.56505
▁eelnõuga	-8.56639
▁sise	-8.56926
▁vaba	-8.57099
▁küsida	-8.5713
hi	-8.57342
▁täiskogu	-8.57457
▁reformierakonna	-8.57524
▁tundub	-8.57784
▁parlamendi	-8.5795
▁kahjuks	-8.57955
▁viia	-8.58227
vi	-8.58276
▁võtnud	-8.5832
▁kolme	-8.5884
▁tulla	-8.58896
▁tekib	-8.58974
▁tal	-8.59057
▁olukorda	-8.59285
▁liikmete	-8.5929
▁inimestele	-8.59297
▁eelmise	-8.59336
▁ütleb	-8.59445
▁ütlesite	-8.59998
▁järgmisel	-8.60263
misel	-8.60324
▁arupärimise	-8.60776
▁seoses	-8.60955
tänan	-8.61151
▁kuu	-8.61157
▁riikide	-8.61416
▁kümme	-8.61638
tuse	-8.62062
▁ko	-8.62376
il	-8.62385
▁seaduste	-8.62504
▁leidnud	-8.62561
use	-8.62568
▁riigikaitse	-8.62588
▁pidada	-8.62599
▁hakkama	-8.62639
▁politsei	-8.62674
▁viis	-8.62815
▁riigikogus	-8.62939
▁tuua	-8.63157
9	-8.63443
▁alles	-8.635
▁tõsta	-8.63529
▁silmas	-8.63682
▁panen	-8.64328
▁võimaluse	-8.64367
▁süsteemi	-8.64386
▁g	-8.64434
▁tegi	-8.64481
▁sealt	-8.64503
▁siit	-8.64756
sti	-8.65032
▁võime	-8.6513
▁jätta	-8.65179
▁tähtajaks	-8.65323
▁näha	-8.65759
▁näeme	-8.65843
▁ala	-8.65988
▁esiteks	-8.66172
▁kirjas	-8.66358
mata	-8.66552
▁juttu	-8.66679
dele	-8.66825
ve	-8.66886
▁läinud	-8.67148
ru	-8.67179
▁mõned	-8.67238
ettepanekut	-8.67352
▁kohalike	-8.67673
▁seadust	-8.6782
▁konkreetse	-8.67876
▁riigis	-8.68029
▁la	-8.68581
misega	-8.68705
▁käigus	-8.68715
▁paljud	-8.68862
▁15	-8.68886
▁kuhu	-8.69298
▁pensioni	-8.69334
▁hakata	-8.69434
tavad	-8.69595
▁vale	-8.69595
▁endale	-8.69741
▁kellel	-8.69816
▁lapse	-8.70184
iga	-8.70192
▁jõudnud	-8.70268
▁ennast	-8.70465
▁tohi	-8.70648
▁hetkel	-8.70686
▁suhtes	-8.70949
▁õppe	-8.71115
▁vene	-8.71229
▁va	-8.71351
ust	-8.7148
▁vii	-8.71588
▁venemaa	-8.71735
tatud	-8.71787
▁teemat	-8.71787
▁leida	-8.72084
komisjonis	-8.72138
▁teemal	-8.72138
▁viimase	-8.72164
vate	-8.72318
list	-8.72359
▁ida	-8.72478
▁meelde	-8.72497
▁ühtegi	-8.72589
▁kuulu	-8.72618
▁ra	-8.72698
▁kulu	-8.72953
▁ühel	-8.73166
▁kõnesoove	-8.73302
mu	-8.73454
▁paremini	-8.73482
▁lepingu	-8.73629
▁sellised	-8.73647
liste	-8.73756
▁vahe	-8.74018
▁miljoni	-8.74039
▁arvestamata	-8.74323
▁parem	-8.74416
▁teist	-8.74457
▁ettekandjale	-8.74507
▁juures	-8.74794
▁julgeoleku	-8.74876
▁avan	-8.75314
▁juhtivkomisjon	-8.75477
▁mõte	-8.75696
▁h	-8.75825
▁jüri	-8.7597
▁kahju	-8.75987
▁teised	-8.76015
▁omavalitsus	-8.76024
▁probleeme	-8.7603
▁pere	-8.76235
▁käib	-8.76259
▁kõne	-8.76294
▁tegevus	-8.76349
▁küsimused	-8.76367
▁lõpuks	-8.76374
▁natukene	-8.76441
▁helme	-8.76496
▁hulgas	-8.76555
▁süsteem	-8.76687
▁antud	-8.76746
▁vastata	-8.76812
▁kontroll	-8.76831
▁vana	-8.76964
▁põllumajandus	-8.77158
it	-8.77302
▁terve	-8.77316
▁maha	-8.77684
▁seni	-8.7781
▁osas	-8.77866
▁kirja	-8.77888
▁otsused	-8.78114
▁lisaaega	-8.78385
▁võivad	-8.78391
▁peaksid	-8.78413
▁kõigi	-8.78477
▁võimalust	-8.78516
▁luba	-8.78718
▁hakka	-8.78744
▁nendele	-8.78896
▁re	-8.79124
▁omavalitsused	-8.79443
▁inimest	-8.79494
▁puudub	-8.79662
sa	-8.79864
▁panga	-8.79869
▁oleksid	-8.79921
tab	-8.79945
▁1	-8.80075
▁pi	-8.80251
▁käest	-8.80431
ist	-8.80528
demokraatliku	-8.80642
▁ameti	-8.80732
head	-8.80776
nda	-8.80819
▁vastus	-8.80895
aja	-8.81295
▁avaliku	-8.81306
ju	-8.81376
▁esimehe	-8.81492
▁mitme	-8.81645
▁10	-8.81713
▁esindajad	-8.8183
an	-8.82314
▁maksta	-8.82393
malt	-8.82548
▁vabaerakonna	-8.8275
▁tänase	-8.82784
▁arengu	-8.82926
liselt	-8.83099
▁öeldud	-8.832
▁tulevad	-8.83296
▁koostöö	-8.83593
▁tegu	-8.83804
▁jälle	-8.83904
▁kolmas	-8.84345
▁alates	-8.84375
▁eba	-8.84429
▁kõigile	-8.8446
▁õpetajate	-8.84597
▁ettepanekut	-8.8463
▁kätte	-8.84744
▁mu	-8.84877
▁millele	-8.84887
▁edaspidi	-8.84956
▁kust	-8.85054
▁seaduses	-8.85282
▁sinu	-8.85304
▁toetada	-8.85318
▁samal	-8.85392
▁ettekande	-8.85432
▁piisavalt	-8.85477
jad	-8.8556
▁rahvusvahelise	-8.85625
▁näe	-8.85775
▁peaksime	-8.85779
on	-8.85887
▁mure	-8.85909
▁toetus	-8.8607
▁hääletas	-8.86085
▁tulu	-8.86219
al	-8.86275
▁vasta	-8.86296
▁tööle	-8.86673
▁samamoodi	-8.86932
▁toeta	-8.87048
▁võin	-8.87262
ite	-8.87349
▁võtame	-8.87576
▁lõppenud	-8.87606
jate	-8.87923
▁ministeeriumi	-8.88034
▁tõenäoliselt	-8.88242
ik	-8.88456
tava	-8.88888
lisi	-8.88916
di	-8.89077
tama	-8.89184
f	-8.89538
▁meel	-8.89663
▁linna	-8.90032
▁auto	-8.90246
▁korras	-8.9033
mad	-8.90458
▁peaministri	-8.90493
am	-8.90551
▁vajalik	-8.90571
▁tegevuse	-8.9058
ht	-8.90637
▁tulumaksu	-8.90642
▁kuus	-8.90699
▁lõpp	-8.90773
▁tartu	-8.9086
▁200	-8.90957
▁seega	-8.91042
to	-8.9143
tanud	-8.91546
▁töökorra	-8.91687
▁lähe	-8.91735
▁lugemise	-8.91745
▁põhimõtteliselt	-8.91924
▁sellisel	-8.92068
▁valimis	-8.92139
▁pealt	-8.92253
▁läheme	-8.92316
▁reformi	-8.92329
▁ministri	-8.92491
▁aktsiisi	-8.92526
töö	-8.92547
tamine	-8.9258
▁vist	-8.92796
▁võrreldes	-8.92918
▁tahame	-8.93294
▁ütleme	-8.93294
▁era	-8.93436
▁tehti	-8.93495
tamise	-8.93727
▁praeguse	-8.9377
misest	-8.93918
▁järgmine	-8.93921
▁ühiskonnas	-8.93998
▁saama	-8.94011
▁soome	-8.94069
lised	-8.94089
▁erapooletuid	-8.94259
▁praegune	-8.94377
▁2	-8.94414
▁ha	-8.94685
▁äkki	-8.94789
▁käi	-8.94824
▁küsimuses	-8.94831
▁kümne	-8.9484
▁määra	-8.95131
▁maksma	-8.95214
▁kiiresti	-8.95276
▁otsustas	-8.95473
▁12	-8.95601
▁lahendada	-8.95679
▁otsuseid	-8.95753
▁sellesse	-8.95776
nu	-8.95815
▁uuesti	-8.95848
▁taas	-8.95879
▁võimalusi	-8.96042
vat	-8.96053
ile	-8.96199
▁punkti	-8.96249
▁olukorras	-8.96622
▁päevakorra	-8.96757
▁teevad	-8.96867
▁too	-8.969
▁hiljem	-8.97009
ndus	-8.97021
▁hoida	-8.97126
▁paraku	-8.973
un	-8.97349
▁ettekandeks	-8.97404
▁mingil	-8.97676
▁metsa	-8.97851
▁esimesel	-8.98099
lepingu	-8.98191
ina	-8.98287
▁teate	-8.98331
▁meid	-8.98399
▁ava	-8.98436
▁sh	-8.98609
tsi	-8.9874
▁nõu	-8.98914
▁üldiselt	-8.99069
▁tagada	-8.99091
▁konkreetselt	-8.99196
▁mingeid	-8.99199
▁p	-8.99204
▁saali	-8.99261
▁oluliselt	-8.99329
▁läti	-8.99628
▁põhiseaduse	-8.99718
▁lugemisel	-8.99736
▁ühiskonna	-8.99738
▁justkui	-8.99738
g	-8.99916
▁neli	-9.00054
▁tava	-9.00157
▁rääkinud	-9.00299
▁tean	-9.00331
▁toimus	-9.00354
▁eelmisel	-9.00447
▁arengukava	-9.00517
▁pe	-9.00525
▁poliitika	-9.00773
▁nähtud	-9.00843
as	-9.00845
▁hinna	-9.00896
▁suurt	-9.009
▁aastatel	-9.00922
▁hinnangul	-9.0098
▁tulenevalt	-9.01107
▁haigekassa	-9.01178
▁arutada	-9.0119
▁millal	-9.0129
▁järelevalve	-9.01307
▁ettepanekuid	-9.01519
▁selliste	-9.01626
ksin	-9.01727
iku	-9.01749
▁erinevad	-9.01767
▁11	-9.0179
▁kaheksa	-9.01945
ia	-9.01964
du	-9.01965
▁kõrge	-9.01984
▁laenu	-9.02043
hääletustulemuse	-9.02131
vaid	-9.02148
▁tasemel	-9.02149
▁jutt	-9.02218
▁palka	-9.0233
▁suunas	-9.02444
▁valdkonna	-9.02448
▁kesk	-9.02528
▁ühes	-9.02598
▁tekkinud	-9.02643
rahandusminister	-9.02726
▁kohaloleku	-9.02876
▁aseesimees	-9.02984
at	-9.03088
▁neist	-9.033
▁haldus	-9.03347
raha	-9.03372
▁võtab	-9.03378
▁nime	-9.03502
▁vara	-9.03551
eeri	-9.03706
▁maailma	-9.03859
▁li	-9.03994
ba	-9.04073
▁toime	-9.04121
▁õigesti	-9.04129
▁andnud	-9.0417
▁võrra	-9.04244
minister	-9.04443
▁toodud	-9.04649
▁vastuse	-9.04724
ut	-9.04731
▁isiku	-9.04747
ap	-9.05005
taks	-9.05219
▁energia	-9.05223
▁eelnõus	-9.05285
▁määral	-9.05334
▁kohal	-9.05781
▁saaksid	-9.05783
▁b	-9.05792
▁olgu	-9.05882
▁kriisi	-9.05937
▁päevakorda	-9.06035
▁kaitseväe	-9.06052
▁arupärimine	-9.06283
▁nn	-9.06498
▁9	-9.06543
▁lahendus	-9.06573
loo	-9.06772
▁toimunud	-9.06901
▁alustame	-9.06967
▁juhatuse	-9.0698
▁kõike	-9.07138
▁kolmanda	-9.07452
▁võetakse	-9.07529
▁30	-9.07571
▁arutanud	-9.07607
▁vabandust	-9.07699
▁mõtte	-9.07744
▁muutunud	-9.07827
▁määrata	-9.07839
▁aastast	-9.07839
▁elektri	-9.0785
he	-9.07973
▁peaaegu	-9.08004
tatakse	-9.08221
▁korra	-9.08597
▁vähendada	-9.08681
▁otse	-9.08686
▁fraktsioonide	-9.08795
▁16	-9.08989
pp	-9.09136
▁soovivad	-9.09143
▁info	-9.09218
▁kreeka	-9.09269
▁talle	-9.09341
laste	-9.09383
riigi	-9.096
▁mihhail	-9.09611
▁muude	-9.09727
▁õiguse	-9.09744
▁arvestatud	-9.0976
▁lapsed	-9.09812
▁piir	-9.09868
▁suurema	-9.10018
▁lihtne	-9.10201
▁aivar	-9.10358
eri	-9.1039
▁arutas	-9.1066
▁suhteliselt	-9.10698
▁puuduta	-9.10752
▁riikides	-9.10848
kaitse	-9.11026
misi	-9.11115
▁mere	-9.11141
▁su	-9.11205
kui	-9.11231
▁toetuse	-9.11234
▁pidanud	-9.11352
▁justiits	-9.11386
rä	-9.11394
ha	-9.11468
▁näeb	-9.11537
um	-9.11652
▁üld	-9.1166
ste	-9.11718
▁koht	-9.11908
▁öeldes	-9.12035
▁alguses	-9.12152
▁saata	-9.12205
▁koosseisu	-9.12209
▁iseenesest	-9.12267
▁ve	-9.12354
▁nato	-9.12473
▁kasutamise	-9.12753
likult	-9.1289
ala	-9.12896
▁riigile	-9.13184
▁spordi	-9.13242
▁aastate	-9.13294
▁tahaks	-9.13347
▁abil	-9.13403
ub	-9.13405
▁jõu	-9.13417
▁mööda	-9.13549
▁äri	-9.13734
▁tegele	-9.13754
▁tõsiselt	-9.13849
▁organisatsiooni	-9.14014
ini	-9.14219
▁kohustus	-9.14329
▁keeles	-9.14378
▁herkel	-9.14448
▁kindel	-9.14495
▁olulise	-9.14515
suse	-9.14527
▁küsimustele	-9.14561
▁luua	-9.14702
mas	-9.14717
▁gümnaasiumi	-9.14787
▁suurendada	-9.14832
po	-9.14879
ad	-9.15006
▁100	-9.15052
▁hulk	-9.15176
▁poliitilise	-9.15262
lli	-9.15288
▁ri	-9.15385
ettepanekuid	-9.15404
▁mõtet	-9.15531
▁ülevaate	-9.15543
et	-9.15723
▁valdkonnas	-9.15743
▁isamaa	-9.15795
▁vastavalt	-9.15881
▁valla	-9.15925
▁algataja	-9.15975
▁ellu	-9.15976
lus	-9.15979
▁kõikide	-9.15983
▁protsessi	-9.16057
▁mõelda	-9.16227
▁keda	-9.16269
▁inimestel	-9.16358
▁kuskil	-9.16473
▁võiksid	-9.16534
▁suured	-9.16605
ksime	-9.16613
▁noorte	-9.16617
▁lahti	-9.16674
▁riiki	-9.16697
▁keeruline	-9.16822
▁volikogu	-9.16877
härra	-9.17235
▁korduvalt	-9.17292
▁lõpetan	-9.17298
▁lõpetatud	-9.17308
ise	-9.17411
▁sain	-9.17431
▁asemel	-9.17507
▁urmas	-9.17517
▁plaani	-9.17628
▁võimalikul	-9.17669
▁tarmo	-9.17807
▁vee	-9.1792
▁irl	-9.18009
▁nimetatud	-9.18016
▁koha	-9.18064
▁mõeldud	-9.1847
▁balti	-9.18471
▁vastab	-9.18536
▁nemad	-9.18605
▁tunne	-9.18652
▁jürgen	-9.18892
▁lähevad	-9.19038
▁punkt	-9.19369
▁50	-9.19448
▁kodakondsuse	-9.1945
ro	-9.19469
▁hind	-9.19511
▁põhjal	-9.19552
im	-9.19554
▁näinud	-9.19611
▁soov	-9.19667
▁saate	-9.19675
▁nelja	-9.19805
▁lükata	-9.19876
tust	-9.19943
▁otseselt	-9.19991
▁aastaid	-9.20058
▁tähtis	-9.20078
süsteemi	-9.2018
▁vastupidi	-9.20212
▁näitab	-9.20212
▁riigikohtu	-9.20242
▁arvamust	-9.20288
▁küsimuste	-9.20309
▁mõiste	-9.20319
▁f	-9.20443
▁omavahel	-9.20508
▁peal	-9.20681
ngu	-9.2069
▁ametikaaslased	-9.20892
▁kriminaal	-9.20962
▁näite	-9.21107
▁arvestades	-9.21136
▁eksi	-9.21156
▁ülikooli	-9.21356
"".	-9.21404
▁huvides	-9.21474
▁vi	-9.21526
▁mart	-9.21531
pu	-9.21561
▁pandud	-9.21575
▁kaota	-9.21644
▁järele	-9.21701
▁järjest	-9.21729
valt	-9.21831
▁tähenda	-9.21834
▁asjade	-9.21937
▁võtma	-9.22005
▁kommunikatsioon	-9.2219
▁läks	-9.22194
▁rahastamise	-9.22208
▁ülesanne	-9.22215
osa	-9.22383
▁teisel	-9.22452
▁ükskõik	-9.22486
▁viie	-9.22516
▁tamm	-9.22713
tult	-9.22736
val	-9.22897
▁üht	-9.22928
▁muutub	-9.23
▁lugeda	-9.23004
▁teksti	-9.23212
▁mõnes	-9.23234
▁menetlus	-9.23257
▁puutub	-9.23357
▁nendel	-9.23379
▁suuda	-9.23517
▁ernits	-9.23584
lased	-9.23588
▁osuta	-9.23629
▁õiguskantsler	-9.23656
▁tõsi	-9.23683
▁muudatused	-9.23765
likku	-9.24076
▁kontekstis	-9.24108
▁aastas	-9.24147
▁räägitud	-9.24179
▁vastust	-9.24258
▁res	-9.24284
ustulemusedpoolt	-9.24318
▁keelt	-9.24336
▁avada	-9.24372
▁jää	-9.24405
▁13	-9.24428
▁no	-9.24439
▁asu	-9.24512
▁arva	-9.24598
aadi	-9.24813
see	-9.24944
▁võimalused	-9.24954
▁juhatus	-9.2497
▁olukorra	-9.25015
▁käibemaksu	-9.25027
seid	-9.25068
▁käsitle	-9.25074
▁lapsi	-9.25289
▁moel	-9.25301
▁õiguskantsleri	-9.25417
or	-9.25489
▁nädala	-9.25516
▁arvamus	-9.25558
▁aastaks	-9.25657
▁loo	-9.25716
▁presidendi	-9.25849
▁hakkavad	-9.25909
▁väärtus	-9.25957
▁ettevõtte	-9.2597
kogu	-9.26038
desse	-9.26326
hu	-9.26336
▁opositsiooni	-9.26346
▁pu	-9.26638
elt	-9.26727
▁heaks	-9.26764
▁laiemalt	-9.26957
▁tervishoiu	-9.26998
▁vajadus	-9.27173
▁usu	-9.27193
▁ütlema	-9.27721
▁veelgi	-9.27729
▁pöördu	-9.27751
▁milleks	-9.27782
▁puudu	-9.27803
▁au	-9.28057
▁po	-9.282
▁päev	-9.28259
▁millise	-9.28263
▁pidi	-9.28271
▁tekkis	-9.28316
▁majanduse	-9.28356
▁programmi	-9.28448
▁riigid	-9.28461
▁teatavasti	-9.28537
▁in	-9.28608
▁seadusega	-9.28663
▁otsustada	-9.28687
▁sektori	-9.28695
▁korb	-9.28956
▁läbirääkimiste	-9.29015
ng	-9.2903
▁näide	-9.29145
▁otsi	-9.29278
▁juht	-9.29348
▁pikalt	-9.29501
▁muudatusi	-9.29576
.""	-9.29656
stamise	-9.29669
ministri	-9.29676
õiguse	-9.29702
ur	-9.29779
▁kooskõlas	-9.2998
eesti	-9.30095
▁jäävad	-9.30147
▁teisi	-9.30152
▁25	-9.30199
▁soovitakse	-9.30216
▁põhjust	-9.30415
▁räägi	-9.30437
atsiooni	-9.30552
and	-9.30618
▁19	-9.30698
▁erinevaid	-9.30711
▁omavalitsustele	-9.3072
▁probleemid	-9.3078
▁paar	-9.30889
▁seadusena	-9.30931
▁esimest	-9.31063
▁stalnuhhin	-9.31074
em	-9.31117
nt	-9.31169
▁alusta	-9.31176
▁st	-9.31302
aasta	-9.31343
▁euroopas	-9.31411
sus	-9.31472
▁erakondade	-9.31591
▁minema	-9.31594
▁riikliku	-9.31672
▁keel	-9.3196
▁palk	-9.31973
▁seesama	-9.32102
▁alus	-9.3215
häälet	-9.32361
▁14	-9.32361
▁ühest	-9.32372
▁samm	-9.32536
▁valitsuses	-9.32615
▁koostööd	-9.327
▁...	-9.32802
▁ettepanekud	-9.32866
▁protsess	-9.32905
no	-9.32926
▁president	-9.32983
▁turu	-9.33301
lane	-9.33404
▁praktika	-9.33415
▁konkreetne	-9.33426
▁eel	-9.33502
▁kadri	-9.3352
▁kujul	-9.33584
▁haldusreformi	-9.33597
▁kasvu	-9.33622
▁õpetaja	-9.33668
▁annan	-9.33699
en	-9.3374
▁projekti	-9.33794
▁kiire	-9.33818
iv	-9.33852
▁ausalt	-9.33936
▁2015.	-9.33939
▁plaanis	-9.34021
▁kaalu	-9.34023
▁tihti	-9.34048
▁mingisugust	-9.34124
▁liitu	-9.34152
▁prognoosi	-9.34308
ult	-9.34499
▁peeter	-9.34604
▁võimu	-9.34699
▁tohiks	-9.34759
▁sõltub	-9.34759
▁eestisse	-9.34856
▁maailmas	-9.34981
abi	-9.35011
▁ettevõtete	-9.35139
00	-9.35242
▁vahepeal	-9.35375
▁vajab	-9.35469
▁juhi	-9.35475
▁tasandil	-9.35591
▁ettevõtlus	-9.35609
▁informatsiooni	-9.35865
▁teenuste	-9.35928
▁nendes	-9.35982
tame	-9.35999
▁ela	-9.36022
▁täis	-9.36155
▁pika	-9.36163
▁sul	-9.36248
võt	-9.3628
likud	-9.36285
▁raames	-9.36292
▁lahku	-9.36363
▁jätku	-9.36463
▁makse	-9.36522
▁otsust	-9.36529
▁lõpeta	-9.36587
▁veidi	-9.36644
▁3	-9.3681
aal	-9.36846
▁antakse	-9.36886
▁uusi	-9.36934
▁tänane	-9.36954
▁tasuta	-9.37006
lda	-9.37033
▁andma	-9.3723
▁mitmeid	-9.37231
▁ravi	-9.37255
▁nendega	-9.3743
statud	-9.37458
▁suuna	-9.37504
▁põhjusel	-9.37541
▁seisukohta	-9.37546
▁aitab	-9.37646
▁kahtlemata	-9.3785
▁ulatuses	-9.37932
▁paremaks	-9.37976
▁küsi	-9.38073
▁pikk	-9.38137
▁kõigil	-9.38152
▁selgita	-9.38205
▁direktiivi	-9.38274
▁kulud	-9.38281
▁kuula	-9.38417
▁5	-9.38417
▁se	-9.38478
▁poliitiline	-9.3848
▁isiklikult	-9.38579
▁kõnepulti	-9.38737
▁idee	-9.38823
▁aidata	-9.38911
▁põhja	-9.39083
▁pakkuda	-9.39144
▁parandada	-9.39187
▁mitmed	-9.3919
▁näete	-9.3922
▁suures	-9.3927
▁16.	-9.39284
tamist	-9.39327
▁18	-9.39493
▁tööta	-9.39604
▁vähenda	-9.39606
▁ühele	-9.39624
▁jaak	-9.39634
▁tervikuna	-9.39736
▁seis	-9.39744
▁soovib	-9.39751
▁uut	-9.39859
▁kasvab	-9.40052
▁tõusu	-9.40111
▁vaatama	-9.40166
▁reformierakond	-9.40297
▁raudtee	-9.40298
▁tõus	-9.40305
▁milles	-9.40375
▁hariduse	-9.40383
endi	-9.40423
▁kõrval	-9.40477
▁tahab	-9.40522
▁lauri	-9.40552
os	-9.40572
▁eelnõusid	-9.40607
▁rääkima	-9.40637
koha	-9.40641
▁loogika	-9.40704
▁tulemus	-9.40749
▁kasuta	-9.40776
▁kokkuleppe	-9.40781
▁sven	-9.40793
▁ammas	-9.40793
▁suurenda	-9.41022
▁lõpphääletusele	-9.41144
▁17	-9.41191
▁menetlemise	-9.41196
▁muid	-9.41328
▁võeti	-9.41376
▁toimi	-9.41418
ameti	-9.41437
▁kalle	-9.41493
▁väikese	-9.41567
▁vajaduse	-9.41579
20	-9.41727
stada	-9.41821
▁teises	-9.41832
▁kõrgema	-9.41986
▁tegelema	-9.42109
▁erakond	-9.42118
▁publi	-9.42154
▁kaua	-9.42237
ko	-9.42497
▁töötajate	-9.42533
▁niisugune	-9.42553
▁rahvus	-9.42558
▁lausa	-9.42642
▁kohus	-9.42657
▁jälgi	-9.42715
▁müü	-9.42919
▁toon	-9.42987
▁liidus	-9.43069
▁tasakaalu	-9.43069
ooni	-9.4317
▁täita	-9.43198
▁käinud	-9.43346
bu	-9.43573
▁uute	-9.43599
▁viimasel	-9.43663
▁maksumaksja	-9.43802
its	-9.43811
▁konservatiivse	-9.4383
▁käsitlemise	-9.43833
▁40	-9.43995
▁ettevõtjate	-9.44034
▁räägin	-9.44193
vii	-9.44262
▁toomas	-9.4427
▁rolli	-9.44286
▁andis	-9.44286
▁ukraina	-9.44369
▁laeva	-9.44739
▁jääda	-9.44821
▁r	-9.44878
▁tuletan	-9.44934
▁teda	-9.45003
▁erapooletuks	-9.45142
menetluse	-9.4516
▁2016.	-9.4536
▁kehtiva	-9.45507
tis	-9.45514
maksu	-9.45709
ade	-9.4597
dus	-9.46074
▁sissetuleku	-9.46142
▁kuulnud	-9.46147
▁maksab	-9.46249
▁vaheaega	-9.46256
▁toetab	-9.46337
▁huvitav	-9.46503
▁mulje	-9.46563
▁sotsiaalmaksu	-9.46601
▁ühine	-9.4666
▁toob	-9.46727
▁to	-9.46739
tesse	-9.46774
▁lause	-9.46784
strateegia	-9.46795
ul	-9.4683
▁osta	-9.46914
▁arutatud	-9.47019
▁arvate	-9.47162
▁kütuse	-9.47249
▁teenuse	-9.47381
▁kõrvale	-9.47428
▁narva	-9.47434
ettepanekud	-9.4749
▁kohalikud	-9.47506
▁otsuste	-9.47522
▁kutse	-9.47587
misele	-9.47643
aga	-9.47704
▁rakendamise	-9.47716
▁tu	-9.4778
ab	-9.47837
▁elanike	-9.47849
seks	-9.47869
▁tallinnas	-9.47948
▁julge	-9.47974
▁laps	-9.4798
▁rääkis	-9.48025
▁kuud	-9.48052
rohkem	-9.48076
▁maja	-9.48163
päeva	-9.48201
tasu	-9.48272
▁lõpus	-9.48379
▁priit	-9.48431
▁menetle	-9.48513
▁kuulda	-9.48682
▁põhikooli	-9.48736
▁tunnista	-9.48753
▁mi	-9.48779
▁ringi	-9.48808
usi	-9.4889
▁põhjalikult	-9.48969
▁8	-9.48993
▁positiivne	-9.49105
▁isikute	-9.49148
süsteem	-9.49168
▁määran	-9.49256
määra	-9.49311
ude	-9.49378
lo	-9.49394
▁räägib	-9.49517
▁enamik	-9.49572
%	-9.4959
▁üldise	-9.49593
▁hinda	-9.49706
▁järel	-9.49716
luse	-9.49966
▁teemaga	-9.50068
▁tegelda	-9.50095
▁suu	-9.50112
▁ürita	-9.50195
▁regulatsiooni	-9.5022
mõ	-9.50231
▁2013.	-9.50332
▁mingisugune	-9.50469
▁väheneb	-9.50491
▁arvamuse	-9.50535
▁istungit	-9.5069
▁2014.	-9.50728
▁vastas	-9.50785
▁relva	-9.50796
▁mäletan	-9.50834
▁mõtlema	-9.50932
▁valitsusele	-9.51266
▁m	-9.51269
▁riigil	-9.51325
▁meeldi	-9.51392
▁paari	-9.51403
▁12.	-9.51441
toetuse	-9.51445
konna	-9.51454
▁martin	-9.5148
▁mujal	-9.51521
▁avalik	-9.51546
▁tead	-9.51614
▁tulema	-9.51693
▁regionaal	-9.51928
▁kohapeal	-9.51945
▁ettevõtja	-9.51986
jaid	-9.52013
jah	-9.5202
▁tähtaja	-9.52065
▁protokolli	-9.52106
mat	-9.52153
▁simson	-9.52186
▁taavi	-9.52224
▁räägitakse	-9.52237
▁esm	-9.52314
▁väide	-9.52477
set	-9.5251
▁teede	-9.52526
▁istung	-9.52551
▁täpsemalt	-9.52654
▁lahenda	-9.5279
▁paika	-9.52894
▁silma	-9.52962
▁milliseid	-9.53098
▁lõike	-9.53258
ngi	-9.53259
kse	-9.5326
▁ettekandjaks	-9.53426
▁novembri	-9.53564
▁sõja	-9.53716
like	-9.53763
ksite	-9.53822
alt	-9.53945
misse	-9.53995
▁roll	-9.54004
▁hakkame	-9.54027
▁hakatakse	-9.5403
▁väiksem	-9.5412
▁liikmetel	-9.54154
▁erinevate	-9.54219
▁konkurentsi	-9.54238
ho	-9.54264
▁andmed	-9.54292
▁nimekirja	-9.54303
▁lähtu	-9.5444
▁arvel	-9.54501
▁ministrile	-9.54533
▁teisele	-9.54581
▁kübarsepp	-9.54675
▁0	-9.54677
▁looma	-9.54692
andres	-9.54762
▁otsustab	-9.54852
▁kulude	-9.54864
▁tuleviku	-9.54933
▁seletuskirjas	-9.54955
▁koostöös	-9.54977
▁viimane	-9.55002
▁vastates	-9.5502
▁ministeerium	-9.55044
▁ettekandes	-9.55069
▁teeni	-9.55131
▁jä	-9.55262
justiitsminister	-9.55323
▁mingid	-9.55361
▁mõista	-9.55393
▁ühis	-9.55393
tan	-9.55514
▁soovin	-9.55666
▁järgmised	-9.55672
▁igati	-9.55688
▁andmeid	-9.55761
▁soo	-9.55831
▁lühidalt	-9.55924
▁paljude	-9.56003
asutuste	-9.56094
▁t	-9.56102
▁koolis	-9.56124
▁arupärimisele	-9.56349
▁püsi	-9.56497
▁konventsiooni	-9.56653
▁keskerakond	-9.56703
▁hinnata	-9.56883
▁õiguskomisjoni	-9.5699
▁otsa	-9.5711
▁vali	-9.57254
▁kirjuta	-9.57259
▁ütlevad	-9.57301
▁kohalik	-9.57458
▁koalitsioon	-9.57464
öö	-9.57584
▁täpsusta	-9.57654
▁tegeleb	-9.57976
▁parema	-9.58007
▁karistus	-9.58036
▁vanema	-9.58046
▁hääleta	-9.58078
▁missiooni	-9.58102
maid	-9.58158
▁tahavad	-9.58256
uuri	-9.58279
▁inim	-9.58441
▁viimastel	-9.58464
▁kehtib	-9.58475
▁öeldakse	-9.58565
▁endiselt	-9.58777
▁registri	-9.588
▁lo	-9.58887
▁soovita	-9.58944
▁teiselt	-9.59001
laul	-9.59188
▁hulka	-9.59205
▁julgen	-9.5923
▁seonduvalt	-9.59262
sel	-9.59277
▁eelarves	-9.59399
▁naiste	-9.5943
▁hinnangu	-9.59467
▁pannud	-9.59467
▁keskmine	-9.59483
pe	-9.59499
▁valitsust	-9.5958
▁vahendeid	-9.59586
▁kellele	-9.5961
▁anna	-9.59622
▁urve	-9.59634
▁avalda	-9.59743
▁pidevalt	-9.59802
▁teed	-9.59822
▁joo	-9.59866
▁päeval	-9.59878
▁töönädala	-9.59968
tas	-9.60049
▁isik	-9.60069
▁saavutada	-9.60114
▁hei	-9.6012
▁perekonna	-9.60235
ena	-9.60247
▁nimetada	-9.60254
▁ühelt	-9.6028
▁seisukoha	-9.60324
▁investeeringute	-9.60327
▁minul	-9.60332
▁mõtle	-9.60368
muudatus	-9.60373
▁rahvas	-9.60409
kuu	-9.60464
ir	-9.6049
▁puudutavad	-9.60561
▁ehitus	-9.60568
▁tegevust	-9.60581
▁lugu	-9.60595
▁parlament	-9.60647
▁õigust	-9.60648
▁rahvusvaheliste	-9.60653
saa	-9.60865
▁vastan	-9.60938
▁diskussiooni	-9.61062
▁küllalt	-9.61079
▁menetluse	-9.61175
▁kasvanud	-9.6125
▁maksa	-9.61274
juht	-9.61327
▁lubatud	-9.61335
▁algab	-9.6139
▁väiksema	-9.61424
▁laekunud	-9.61551
▁60	-9.61638
kku	-9.61681
▁proovi	-9.61798
▁kordan	-9.61958
▁vastutus	-9.61971
▁gaasi	-9.62006
tiiv	-9.62018
▁elavad	-9.62052
▁osale	-9.62056
▁jaanuaril	-9.62193
▁ossinovski	-9.62207
▁aluseks	-9.62298
rahanduskomisjon	-9.62334
▁oled	-9.62407
▁selgitada	-9.62431
▁tekita	-9.62505
▁võttis	-9.62517
▁reklaami	-9.62633
▁maaelu	-9.62644
▁auväärt	-9.62698
▁vaadates	-9.62827
seadus	-9.62902
ses	-9.63101
▁jõud	-9.6313
ktsioon	-9.63237
tegevuse	-9.63261
▁nädalal	-9.63299
▁1,	-9.63393
▁esile	-9.63442
▁haigla	-9.63443
▁juhtumi	-9.63451
▁vaheaeg	-9.63577
▁arutasime	-9.63578
▁tuleneb	-9.6363
▁mingisuguse	-9.63635
ati	-9.63663
▁pööra	-9.63708
▁lugemisele	-9.63834
▁korruptsiooni	-9.63855
▁fondi	-9.63875
▁küsis	-9.63904
▁tulen	-9.63969
▁11.	-9.63999
▁põlluaas	-9.64288
▁suutnud	-9.64289
▁tunduvalt	-9.64294
▁vaata	-9.64312
kooli	-9.64345
▁seletuskirja	-9.64393
▁4	-9.64453
▁näen	-9.64467
▁ameerika	-9.64492
▁juuni	-9.64567
▁ro	-9.64673
▁tõi	-9.64688
lasi	-9.64835
▁24	-9.64844
▁võta	-9.64969
▁toimetuleku	-9.65
▁demokraatia	-9.65053
▁otsustati	-9.65121
▁jahi	-9.65124
▁keskmise	-9.6525
▁statistika	-9.65297
▁ülejäänud	-9.6532
▁äärmiselt	-9.65344
▁tore	-9.65416
konkurentsivõime	-9.65478
▁soovime	-9.65532
▁sõerd	-9.65664
▁piira	-9.65703
▁sõlmi	-9.65727
▁kar	-9.65788
▁kon	-9.658
▁põlevkivi	-9.65884
▁mõlemad	-9.65885
▁hoo	-9.65886
▁kasu	-9.65945
▁tõsise	-9.65983
▁suuremad	-9.6609
▁astu	-9.66106
▁ajaloo	-9.66156
▁ti	-9.66219
▁teenust	-9.66301
teema	-9.66314
▁toonud	-9.6648
▁põhjendatud	-9.66495
▁tõe	-9.66597
▁leedu	-9.66611
kohaloleku	-9.66638
▁olevat	-9.66754
keskuse	-9.66758
▁kinnitada	-9.66838
▁lõuna	-9.6706
▁märksa	-9.67064
▁valiku	-9.67098
maja	-9.67218
▁arve	-9.67237
▁17.	-9.67263
▁siseminister	-9.6731
▁tuus	-9.67326
▁teiega	-9.67499
▁tööandja	-9.67514
▁kerge	-9.67562
poolse	-9.67622
▁anname	-9.67646
▁olulisem	-9.67659
▁pro	-9.67669
▁osaleda	-9.67685
▁ettevõtjad	-9.67687
uks	-9.67728
▁rääkisite	-9.67731
▁jällegi	-9.67738
▁tarbija	-9.67756
tri	-9.67783
▁vastuste	-9.67858
▁2,	-9.67877
▁prioriteet	-9.67934
▁valitsusel	-9.67968
▁jõuab	-9.68004
▁lahendusi	-9.68099
▁töötada	-9.68122
▁kella	-9.68175
▁tagatud	-9.68249
nüüd	-9.68273
▁plaan	-9.68285
küsimus	-9.68351
▁rahvaerakonna	-9.68374
▁parima	-9.68423
▁võimaldab	-9.68428
ori	-9.68442
▁kolmandaks	-9.68449
▁valeri	-9.68498
▁tähtaeg	-9.68554
▁mailis	-9.68646
▁vastuseid	-9.68653
▁parandus	-9.6867
▁arvata	-9.68701
su	-9.6874
▁rahu	-9.68775
▁istungjärgu	-9.68804
▁ometi	-9.69022
▁juhtub	-9.69171
▁arvesta	-9.69193
▁kruuse	-9.69243
▁krista	-9.69318
▁selgeks	-9.69347
ndu	-9.6938
▁jõuda	-9.6938
▁vassiljev	-9.69386
▁arutame	-9.69448
▁tekitab	-9.69455
▁võrrelda	-9.69464
▁2017.	-9.69568
▁jätnud	-9.69687
nduse	-9.69711
▁istu	-9.69765
▁aastaga	-9.69875
▁käesoleva	-9.69943
▁olegi	-9.69963
▁sammu	-9.7007
▁võttes	-9.70131
▁esitas	-9.7016
▁ehita	-9.70233
tavate	-9.70253
tü	-9.70271
▁adams	-9.70353
▁olles	-9.70356
▁valimiste	-9.704
▁taotle	-9.70412
▁kehtestada	-9.70493
▁last	-9.70518
▁lahenduse	-9.70521
▁ettevõtluse	-9.7054
▁menetlemisel	-9.70546
▁ütle	-9.70624
▁nõukogude	-9.70638
▁töötab	-9.70676
▁kutsu	-9.70757
▁jätka	-9.70774
▁osakonna	-9.70836
kat	-9.70847
▁osaliselt	-9.70902
▁skt	-9.7092
▁kohale	-9.70925
▁teisest	-9.70927
▁sulle	-9.70955
▁kirjutatud	-9.71156
▁vajavad	-9.7116
▁jätkata	-9.7117
▁arutelul	-9.71311
isa	-9.71328
▁rahul	-9.71412
▁sellises	-9.71414
▁tõsine	-9.71442
likke	-9.71478
▁üro	-9.7159
▁teistes	-9.71623
▁käia	-9.71653
õigus	-9.71696
▁ärge	-9.71735
▁vormis	-9.71829
▁esinda	-9.71858
▁viibi	-9.71924
▁uudis	-9.71938
▁loen	-9.71946
▁sea	-9.72048
▁lasteaia	-9.72152
▁positsiooni	-9.72168
▁klassi	-9.72177
▁35	-9.7219
▁loomise	-9.72221
▁15.	-9.72318
lase	-9.7234
▁eelmine	-9.72449
▁lähtudes	-9.72461
▁suuremat	-9.72514
▁mäleta	-9.7253
▁esine	-9.72546
▁kasutatakse	-9.72745
▁väite	-9.72761
▁käima	-9.72777
▁näiteid	-9.72913
▁oskus	-9.7293
elu	-9.73048
mm	-9.73084
pea	-9.73164
▁regulatsioon	-9.73175
▁maakonna	-9.73205
▁ükski	-9.7322
sust	-9.73258
▁ema	-9.73268
▁lihtsa	-9.73317
▁siiamaani	-9.73415
▁riski	-9.7343
demokraadid	-9.73462
▁kur	-9.73464
▁näi	-9.73471
▁kujuta	-9.73497
▁tegutse	-9.73498
▁kohas	-9.73529
▁hiljuti	-9.7353
▁pani	-9.7354
▁toidu	-9.73604
▁mo	-9.73613
▁arvesse	-9.73644
ruumi	-9.73645
▁üksnes	-9.73668
▁valimistel	-9.73696
▁jaanuari	-9.73701
▁ministeeriumide	-9.73769
▁käivad	-9.7381
▁vastuvõtmise	-9.73827
▁lõpu	-9.73831
▁milliste	-9.7386
▁rakendada	-9.73921
panen	-9.74075
▁töötavad	-9.74129
▁poolest	-9.74134
▁paneb	-9.74164
ana	-9.74166
▁13.	-9.74246
▁oleva	-9.74253
▁haukanõmm	-9.7434
▁seadusandja	-9.74358
kond	-9.74393
▁sünni	-9.74442
▁tänaseks	-9.74489
kuse	-9.74574
▁suuri	-9.74659
up	-9.74701
▁lõpuni	-9.74757
▁muret	-9.74785
hoolekande	-9.74806
kulude	-9.74833
▁said	-9.74894
▁ühtse	-9.74975
▁homme	-9.7504
▁oktoobri	-9.75065
▁meedia	-9.7508
riik	-9.75105
asi	-9.75136
▁tiidus	-9.75159
▁suunatud	-9.75202
▁las	-9.75255
▁maksude	-9.75335
▁kusagil	-9.75392
▁ammu	-9.75393
▁kuulub	-9.75462
tee	-9.75593
▁põhimõte	-9.75595
▁halb	-9.75706
▁ravimi	-9.75742
▁taotlus	-9.75752
nti	-9.75801
▁reaalse	-9.75812
▁maini	-9.75831
▁muutu	-9.75847
▁liikmesriikide	-9.75885
▁liiklus	-9.75921
▁korraldada	-9.76038
ima	-9.76042
virumaa	-9.76168
▁kedagi	-9.76175
▁teenuseid	-9.7623
▁arvatud	-9.76284
▁paranda	-9.76353
▁ho	-9.76449
▁toobal	-9.76473
▁tähtsa	-9.76478
▁saime	-9.76523
▁pension	-9.76604
▁rääkisin	-9.76617
▁investeerimis	-9.76657
▁rõhutan	-9.76665
▁hääletamise	-9.7668
▁vähenenud	-9.76795
▁arupärijate	-9.76811
hinna	-9.76817
▁perede	-9.76828
▁protseduuriline	-9.76836
5%	-9.76873
▁läheks	-9.76903
▁ku	-9.76924
▁langeta	-9.77117
▁eelda	-9.77119
▁perioodi	-9.77217
▁riigikontrolli	-9.77258
▁tol	-9.77263
▁täpsustada	-9.77264
▁oskate	-9.77283
▁noored	-9.77289
▁asjaolu	-9.77314
▁kohustusi	-9.77357
▁ühise	-9.77399
▁mainisite	-9.77436
▁rahvastiku	-9.77451
▁töötukassa	-9.77648
▁rakendus	-9.77672
▁sobi	-9.77734
▁võimalda	-9.77746
▁põ	-9.77914
▁korralda	-9.77926
▁töötaja	-9.7797
▁olulised	-9.77971
▁ütlesid	-9.77996
▁positiivse	-9.78012
vus	-9.78077
▁jõua	-9.7813
▁töötu	-9.78137
▁kalev	-9.7815
▁must	-9.78184
▁andmete	-9.78226
▁avalduse	-9.78259
▁tekkida	-9.78372
▁kodaniku	-9.78379
▁21	-9.78478
▁valesti	-9.78553
▁500	-9.78567
tati	-9.78572
teenuse	-9.7861
▁vääri	-9.78613
▁vastama	-9.78711
▁pisut	-9.78736
▁riigieelarvest	-9.78761
▁esitab	-9.78788
▁reinsalu	-9.78857
▁makstakse	-9.79044
▁tundi	-9.79071
▁kehtestatud	-9.79074
konto	-9.79101
▁vastuolu	-9.79131
▁paragrahvi	-9.7916
▁aruande	-9.79174
▁varasema	-9.79282
▁tulemusena	-9.79291
▁lastele	-9.79339
▁reaalselt	-9.79403
▁edu	-9.79411
▁kirjelda	-9.79423
▁saavuta	-9.79457
▁võiksime	-9.79473
▁eriala	-9.79477
▁ajaks	-9.79521
▁mitmel	-9.79551
▁arupärimisi	-9.79589
▁usalda	-9.79594
▁tavaliselt	-9.79679
▁üldine	-9.79721
▁kodus	-9.79844
▁elus	-9.79873
▁andmise	-9.7994
▁6	-9.79952
hüvitis	-9.80026
▁arutama	-9.80041
▁meede	-9.80052
▁valik	-9.80089
▁mõlema	-9.80147
▁lõpphääletuse	-9.80235
▁veebruari	-9.80246
▁laiema	-9.80247
▁madison	-9.80266
▁ühistranspordi	-9.80328
▁mängi	-9.80332
▁käis	-9.80333
▁nõunik	-9.80396
▁eesmärgi	-9.80431
▁koolide	-9.80486
▁lugemist	-9.80498
▁vaadake	-9.80519
▁hääle	-9.80624
sete	-9.80664
kirja	-9.80725
▁menetlusse	-9.80734
▁kellegi	-9.8075
▁viisil	-9.80823
▁tutvusta	-9.80849
▁selgus	-9.80908
▁vanemate	-9.80919
▁raamatu	-9.8099
▁mingisuguseid	-9.80991
▁meelt	-9.81049
▁küljest	-9.81059
ants	-9.81137
▁novembril	-9.81158
▁käes	-9.81203
▁sellesama	-9.81227
▁leidis	-9.81318
▁sulgen	-9.81328
▁loe	-9.81377
väga	-9.81478
▁kauba	-9.81611
▁arusaadav	-9.81659
aeg	-9.8166
▁peate	-9.8169
▁veendunud	-9.81693
▁pluss	-9.81696
▁võrdse	-9.81775
▁olin	-9.81804
▁väljaspool	-9.81819
▁uued	-9.81843
▁nimeta	-9.81894
▁nõue	-9.81931
▁mõnda	-9.81944
▁aita	-9.81991
▁näitaja	-9.82054
▁hanno	-9.82069
▁sega	-9.8209
nik	-9.82128
▁kasvata	-9.8225
▁esma	-9.82487
ministeeriumis	-9.82566
▁hulga	-9.82617
▁muutus	-9.8267
▁fakt	-9.82692
▁arutati	-9.8273
▁valimisi	-9.82804
▁valimise	-9.8287
turu	-9.82928
▁marko	-9.82968
▁rail	-9.83027
▁täiendava	-9.83049
▁loodud	-9.83092
▁õpi	-9.83106
▁erinevus	-9.83184
▁konsensusega	-9.83197
▁teistmoodi	-9.83216
▁kõikidele	-9.83218
▁teen	-9.83221
vastase	-9.83313
ak	-9.83326
kava	-9.83328
usega	-9.83349
▁arusaam	-9.8337
▁rakenda	-9.8339
▁investeeri	-9.83428
▁ratas	-9.83448
▁avatud	-9.83462
▁saadud	-9.83465
▁sadama	-9.83496
▁pannakse	-9.83498
▁erinev	-9.83509
▁kaitsta	-9.83515
▁loodus	-9.83543
▁pruugi	-9.83587
▁riigikogule	-9.83641
▁nõuab	-9.83683
▁ühiskond	-9.83683
▁tänavu	-9.83694
las	-9.83712
▁pank	-9.83715
▁kuulata	-9.8374
▁väita	-9.83759
▁28	-9.83775
▁korraldamise	-9.83823
teks	-9.83881
virumaal	-9.83957
rite	-9.83961
▁ruumi	-9.83993
▁analüüs	-9.84034
▁ootus	-9.84051
▁inimesele	-9.84065
sama	-9.84191
▁22	-9.84242
▁loobu	-9.84259
▁aprilli	-9.84273
▁puudutas	-9.84276
▁avalikus	-9.84297
▁seas	-9.84365
▁mõjutab	-9.84466
▁probleemide	-9.84485
tulu	-9.84488
▁kiiremini	-9.8449
▁kehtima	-9.84517
▁soomes	-9.84519
▁piisav	-9.84537
▁sätestatud	-9.84552
▁199	-9.84608
▁omavalitsusi	-9.8464
▁jevgeni	-9.84673
▁põhjaliku	-9.84722
▁reguleeri	-9.84795
▁vallas	-9.8491
▁kinnisvara	-9.84999
▁juhtudel	-9.85177
▁vastava	-9.85183
▁ütlete	-9.85199
▁jõudu	-9.85216
▁eeldus	-9.85233
▁avaldus	-9.85309
▁telli	-9.85338
▁arusaama	-9.85368
▁müügi	-9.8547
▁kaas	-9.8549
▁inimesel	-9.85494
kus	-9.85533
▁täpsustav	-9.85603
▁räägite	-9.8562
▁paljudes	-9.85652
▁vajadust	-9.8572
vähem	-9.85724
▁saaksime	-9.85757
▁arvestanud	-9.85792
▁partner	-9.85804
▁suunata	-9.8583
▁kavatse	-9.85838
äi	-9.85923
▁pikka	-9.85934
▁suudame	-9.86044
▁kahte	-9.86057
▁kohustuste	-9.86122
▁õpeta	-9.86135
▁2012.	-9.86152
▁10.	-9.86176
▁muidu	-9.86229
eeritud	-9.86236
amet	-9.86248
▁sina	-9.8634
▁transpordi	-9.86346
▁riike	-9.86403
▁südame	-9.86602
▁mil	-9.8662
▁muudatuse	-9.86668
▁valida	-9.86669
inspektsiooni	-9.86709
▁töös	-9.86736
▁kuluta	-9.86801
▁reform	-9.86818
▁reps	-9.86829
maal	-9.86834
▁meist	-9.86854
▁14.	-9.86858
sektori	-9.86873
vas	-9.86898
▁liikmeid	-9.86934
▁käe	-9.86934
▁kulusid	-9.86981
▁lätis	-9.8701
▁panusta	-9.87066
▁viktor	-9.87139
op	-9.87163
registri	-9.87178
▁üheksa	-9.8718
▁ent	-9.87312
▁so	-9.87405
nenud	-9.87424
▁kaubandus	-9.87515
vali	-9.87557
ndada	-9.87561
▁ettevõte	-9.87635
▁puudega	-9.87639
▁debatt	-9.87737
▁45	-9.87808
▁küsisin	-9.87838
vu	-9.87858
ing	-9.87936
▁loodame	-9.8794
▁suuruse	-9.88125
▁meetmeid	-9.88131
▁debati	-9.88284
▁nestor	-9.88295
▁seisukohti	-9.88363
▁teel	-9.884
demokraatide	-9.88416
▁suureneb	-9.88493
▁arust	-9.88601
▁seadusi	-9.88631
▁indrek	-9.88686
ski	-9.88687
▁päri	-9.88723
▁majanduskasvu	-9.88775
tra	-9.8878
nõu	-9.88844
▁huvide	-9.88845
▁kokkulepe	-9.88868
▁planeeri	-9.88917
ani	-9.88935
▁niivõrd	-9.88955
▁siinkohal	-9.88956
▁inimestega	-9.88985
▁18.	-9.88992
▁konkreetset	-9.89026
▁noor	-9.89031
▁muutma	-9.89033
peeter	-9.89067
ate	-9.89081
atsioon	-9.89093
▁häid	-9.89184
▁jääks	-9.89222
▁sekku	-9.89329
kust	-9.89331
▁rootsi	-9.89407
▁keskuse	-9.89475
▁erinevalt	-9.89491
▁iganes	-9.89503
▁piima	-9.89537
▁10%	-9.89553
▁pakutud	-9.89604
sest	-9.89613
menetlus	-9.89627
▁vastused	-9.89628
▁vaat	-9.89653
▁meetmed	-9.89703
▁suhtu	-9.89724
▁32	-9.89825
"	-9.89826
▁suurene	-9.89834
eni	-9.89837
▁suurte	-9.89849
▁tuleva	-9.89853
▁käsitleb	-9.89856
▁jõustu	-9.89917
▁tugeva	-9.8996
liit	-9.8999
▁võinud	-9.90062
▁arenda	-9.9007
▁kõlas	-9.90084
▁näidata	-9.90098
▁kvaliteedi	-9.90141
▁seleta	-9.90178
▁esita	-9.9019
▁absoluutselt	-9.90225
▁tõele	-9.90287
▁õhu	-9.90363
▁viga	-9.90404
▁toetuste	-9.90422
▁takista	-9.90641
▁paku	-9.90773
▁kõ	-9.9078
▁edasta	-9.90785
▁septembri	-9.90802
▁lihtsam	-9.90852
juhi	-9.90911
▁mail	-9.90923
▁seitsme	-9.90978
▁negatiivse	-9.90993
▁as	-9.91114
▁kusjuures	-9.9113
▁kindlustus	-9.91299
või	-9.91329
aastase	-9.91342
naer	-9.91342
▁7	-9.9142
▁ettekanne	-9.91424
▁marika	-9.91435
▁määruse	-9.91524
▁kogemus	-9.91556
▁2018.	-9.9161
▁põhjendus	-9.91628
▁lange	-9.91633
▁sõ	-9.91645
▁lu	-9.9169
▁kutsun	-9.91692
komisjonilt	-9.91731
▁investeeringuid	-9.91794
▁tehta	-9.91893
▁avalikkuse	-9.91914
▁samme	-9.92049
▁interneti	-9.92056
▁üleval	-9.92064
▁27	-9.92074
ali	-9.92076
▁isa	-9.9209
▁tulumaksuvaba	-9.92107
▁miinimum	-9.92116
▁sotsiaalse	-9.92131
▁küsima	-9.92173
▁oktoobril	-9.92206
tamiseks	-9.92209
▁2.	-9.92219
▁meditsiini	-9.92238
▁uuringu	-9.92253
▁elab	-9.92294
▁püüd	-9.92302
programmi	-9.92327
▁leia	-9.9236
valdkonna	-9.92455
▁kohalikele	-9.92457
▁ametnike	-9.92471
▁muudatuste	-9.92497
koht	-9.92522
sõna	-9.92528
▁hoone	-9.92598
▁ekre	-9.92654
rg	-9.92704
▁eiki	-9.92725
▁23	-9.92745
selle	-9.92762
▁huvitava	-9.92786
▁kul	-9.92794
▁alg	-9.92816
ev	-9.92883
eelnõu	-9.92892
idele	-9.9292
▁sõnum	-9.9298
▁valija	-9.92993
▁hakanud	-9.93073
▁isiklik	-9.93079
▁muuda	-9.93091
▁kehtesta	-9.93144
▁külliki	-9.93163
▁esindab	-9.93171
▁annaks	-9.93188
▁elada	-9.93246
▁kaupa	-9.93247
tuks	-9.93301
▁tahate	-9.93428
▁vähendamise	-9.93441
▁lääne	-9.93464
▁õigustatud	-9.93519
norm	-9.93547
väär	-9.93548
taja	-9.93586
▁kursis	-9.93637
▁märtsi	-9.93674
▁mitmes	-9.93698
▁eralda	-9.93742
▁õpilaste	-9.93769
▁usaldus	-9.93918
▁esindajana	-9.9395
▁põhiseadusega	-9.93958
▁eelarvet	-9.94067
▁käitu	-9.94088
▁raja	-9.94121
▁tahetakse	-9.94125
▁dokumendi	-9.94131
vee	-9.94145
uma	-9.94199
päev	-9.94204
▁arvestama	-9.94379
▁perearsti	-9.94402
▁20%	-9.94429
▁asenda	-9.94435
▁kodanike	-9.94438
küsimused	-9.94446
fondi	-9.94474
ika	-9.94475
▁kinnita	-9.94505
▁3.	-9.94519
▁lahendust	-9.94522
▁küsimusega	-9.94552
unud	-9.94601
oli	-9.94636
▁laua	-9.94654
▁leiab	-9.9468
▁baas	-9.9468
hal	-9.94686
mo	-9.9471
▁surve	-9.94716
▁toetanud	-9.94721
▁tubaka	-9.94768
▁loodetavasti	-9.94769
▁süüdi	-9.9477
▁konsensuslikult	-9.94801
▁ratifitseeri	-9.94995
▁lennu	-9.95073
▁vaatan	-9.95079
idest	-9.95192
▁hetke	-9.95294
▁tahaksin	-9.95319
▁põhjenda	-9.95332
▁tõuseb	-9.9543
▁tegime	-9.95447
▁5.	-9.9546
▁valdkond	-9.95462
▁ülesandeid	-9.95531
▁9.	-9.95539
last	-9.95555
▁ehitada	-9.95569
▁pane	-9.95631
▁süü	-9.95641
aks	-9.95747
anne	-9.95778
▁täitmise	-9.95812
▁eestikeelse	-9.9586
▁strateegia	-9.95901
▁rida	-9.95909
▁34	-9.95935
▁võrdlus	-9.96061
▁selgub	-9.96061
▁51	-9.96066
▁kasutamine	-9.96147
▁ainu	-9.96154
▁igor	-9.96186
kon	-9.96192
▁käsi	-9.96205
viisi	-9.96226
▁rein	-9.96312
▁mahu	-9.96451
▁rõivas	-9.96473
▁tunnistama	-9.96509
▁kujunda	-9.96525
▁hä	-9.96531
▁suund	-9.96541
eerida	-9.9658
▁kuue	-9.96594
▁minuti	-9.96609
▁sugugi	-9.96684
▁mahus	-9.96685
▁pärnu	-9.96723
▁möödunud	-9.96822
▁koonda	-9.96866
▁kõnes	-9.96921
▁lähi	-9.96965
▁laienda	-9.97053
▁tegelik	-9.97078
▁ajast	-9.97121
ei	-9.97124
▁siht	-9.97141
ent	-9.97147
▁ametnikud	-9.97218
▁vastuolijaid	-9.97223
▁jaanus	-9.97364
▁struktuuri	-9.97386
▁summad	-9.97391
▁mai	-9.97423
▁fa	-9.97442
▁ost	-9.97445
▁muutmine	-9.97519
▁palu	-9.97525
▁vastuolus	-9.97534
▁tööjõu	-9.97599
▁vahet	-9.97605
▁nõustu	-9.97642
▁3,	-9.9765
pidi	-9.9769
▁vaatamata	-9.97752
▁eesmärki	-9.9778
▁parlamendis	-9.97805
▁sageli	-9.97809
▁otsustanud	-9.97851
spetsialist	-9.97903
▁sõltumatu	-9.9797
isi	-9.9799
▁teab	-9.98038
▁partei	-9.98075
▁kontrollida	-9.98118
▁vajalikud	-9.9815
▁aktiivse	-9.98236
▁mingite	-9.98317
▁kuuluvad	-9.98401
▁kavas	-9.98402
▁ohu	-9.98413
▁oht	-9.9843
▁avalikku	-9.9852
▁eeskätt	-9.98546
▁jäetud	-9.98547
▁investeeringu	-9.98652
▁pääste	-9.98658
mees	-9.98677
▁olemasoleva	-9.98755
nna	-9.98909
▁alustada	-9.98933
▁võ	-9.98939
▁kevadel	-9.99019
▁riigilõivu	-9.99093
▁hinnang	-9.9912
▁nõuded	-9.9915
▁annavad	-9.99181
pär	-9.99195
euroopa	-9.99199
▁küsite	-9.99219
▁meelega	-9.99254
▁tõ	-9.99279
▁järelikult	-9.99289
kohustus	-9.99307
reid	-9.99323
▁saar	-9.99395
▁seitse	-9.99439
idega	-9.99448
▁tark	-9.9948
▁si	-9.99524
riigikogu	-9.99543
teenuste	-9.99566
▁teavita	-9.99606
▁asutus	-9.99649
▁sults	-9.99659
läheme	-9.99671
▁tõstmise	-9.99756
▁osakaal	-9.99764
tusi	-9.99788
toetuste	-9.99916
▁tugev	-10.0008
▁33	-10.0009
▁aus	-10.0017
▁praegusel	-10.0033
▁kellelegi	-10.0035
▁firma	-10.0041
▁toona	-10.0044
▁koosseisus	-10.0047
▁katteallika	-10.0064
▁välisminister	-10.0069
▁lepitud	-10.0073
▁maal	-10.0079
▁lisaraha	-10.0082
▁töökohti	-10.0083
▁millist	-10.0085
▁väljenda	-10.0085
▁kapitali	-10.0087
ettevõtja	-10.0088
▁siiani	-10.0089
▁ülevaade	-10.0097
▁eelnõude	-10.01
teenistuse	-10.0107
punkti	-10.0109
▁mees	-10.0111
▁miljardit	-10.0115
je	-10.0118
vahe	-10.0119
▁tööl	-10.012
akti	-10.0124
kke	-10.0133
▁planeeritud	-10.0137
▁põhjustel	-10.0139
▁küsiti	-10.0143
▁palgad	-10.0146
toetust	-10.0149
▁õiguste	-10.0152
▁programm	-10.0155
▁korralduse	-10.0156
▁millel	-10.0158
▁leping	-10.0158
▁kanda	-10.0159
vara	-10.0169
ministrile	-10.0169
kulud	-10.0171
▁rääkides	-10.0172
▁kütt	-10.0173
▁kasulik	-10.0178
▁kindlaks	-10.0188
▁niisuguse	-10.019
▁küsimustes	-10.0192
▁ohtu	-10.0199
neb	-10.0204
▁erandi	-10.0208
▁tegelevad	-10.0217
▁lähtuvalt	-10.0218
▁kohtuniku	-10.0219
▁olev	-10.0221
▁enn	-10.0222
▁muudetakse	-10.0223
mul	-10.0226
▁jõuame	-10.0227
▁sõit	-10.0228
▁seisukohal	-10.0238
▁hooldus	-10.0239
kulu	-10.024
majanduse	-10.025
▁anti	-10.0254
▁peamine	-10.026
▁komisjonide	-10.0261
▁lipu	-10.0265
▁tingimused	-10.027
üle	-10.0275
▁võimaliku	-10.0276
üli	-10.0277
▁sü	-10.0283
ver	-10.0289
▁hääletuse	-10.029
rm	-10.029
▁kirjutada	-10.0291
▁variant	-10.0295
▁debatti	-10.0295
kohtu	-10.0299
▁talvik	-10.0308
▁tipp	-10.0311
▁protsent	-10.0314
▁juhin	-10.0322
▁lugemiseks	-10.0323
▁kolleegi	-10.0332
▁randpere	-10.034
▁teemasid	-10.0341
▁eas	-10.0343
▁rahast	-10.0348
eerimise	-10.035
▁detsembril	-10.0352
▁tõde	-10.0377
▁artikli	-10.0384
▁liikuda	-10.0387
tule	-10.039
tere	-10.039
stamine	-10.0402
▁tegemise	-10.0403
▁põhiline	-10.0407
▁tegemata	-10.0411
▁valdkonda	-10.042
liidu	-10.0421
▁karista	-10.0421
▁kannata	-10.0426
▁infot	-10.044
▁ar	-10.0443
▁rahulda	-10.0445
▁vahendite	-10.0445
▁seejärel	-10.0446
▁trahvi	-10.0447
▁niiviisi	-10.0449
▁26	-10.0454
▁jätkub	-10.0456
ndamise	-10.0458
▁juhtunud	-10.0463
▁meetmete	-10.0464
▁21.	-10.0466
▁väikse	-10.0476
j	-10.0479
▁veebruaril	-10.0484
▁üldist	-10.0488
▁2011.	-10.0494
▁normaalne	-10.0497
▁tihtipeale	-10.0497
▁seisukohad	-10.0512
▁õigeks	-10.0516
piiri	-10.0517
▁kindla	-10.0523
▁19.	-10.0531
▁konkreetsed	-10.0535
kool	-10.0556
▁juhtu	-10.0557
▁kaitseminister	-10.0557
▁mõnel	-10.0566
▁protsenti	-10.0567
▁kohustuse	-10.0568
▁saalist	-10.0572
▁300	-10.0576
▁huvitab	-10.0576
▁süüdista	-10.059
ain	-10.0593
▁ilmselgelt	-10.0597
▁taotluse	-10.0608
▁aas	-10.0612
▁kodakondsus	-10.062
▁puudus	-10.0629
▁poliitilist	-10.0644
▁pagulas	-10.0645
▁otsusta	-10.0652
▁mõistliku	-10.0653
▁oodata	-10.0655
▁euroni	-10.0665
▁dokument	-10.0669
▁omakorda	-10.0669
▁ülemineku	-10.067
▁ol	-10.0675
keskkonna	-10.0682
tarmo	-10.0688
▁lapsetoetus	-10.069
▁kehtiv	-10.0693
▁7.	-10.0697
▁pevkur	-10.0698
▁praeguses	-10.0698
▁jutu	-10.0702
▁kasv	-10.0703
▁laual	-10.0704
uses	-10.0711
▁80	-10.0712
▁ametis	-10.0714
▁detsembri	-10.0725
▁alternatiiv	-10.0727
▁v	-10.0729
▁tasakaalus	-10.0734
▁määrus	-10.0735
▁mõnevõrra	-10.0736
▁heaolu	-10.0736
▁aspekti	-10.0738
▁tundu	-10.0741
▁kahel	-10.0748
▁ii	-10.0749
▁maksmise	-10.0749
▁koolides	-10.0749
▁keskendu	-10.0751
▁stenogrammi	-10.0756
▁kaaluda	-10.0757
▁vajalikuks	-10.0763
▁märt	-10.0769
▁kandidaat	-10.077
▁lahendamise	-10.0773
▁erasektori	-10.0774
▁eelarvest	-10.0775
▁riigikontroll	-10.0785
▁artur	-10.0787
▁protsendi	-10.0787
▁38	-10.0788
asutuse	-10.0789
▁määr	-10.0797
▁struktuurse	-10.0802
▁septembril	-10.0807
nii	-10.0812
ime	-10.0812
ran	-10.0819
▁it	-10.0821
▁juunil	-10.0824
▁esindajate	-10.0826
minu	-10.0827
kohalolijaks	-10.0834
▁hanke	-10.0834
kki	-10.0834
▁ettevõtted	-10.0836
▁omal	-10.0838
▁vastutuse	-10.0849
▁vaidlus	-10.0852
▁kõnele	-10.0857
▁täitma	-10.0858
▁teistele	-10.0863
▁keerulise	-10.0863
▁hakkaks	-10.0865
▁kindlusta	-10.0867
▁jurist	-10.0868
▁märtsil	-10.0869
▁sisulise	-10.0878
▁jagada	-10.0881
▁määratud	-10.0885
▁takso	-10.0885
▁arene	-10.0887
▁muide	-10.089
▁seisukohalt	-10.0896
▁huvitatud	-10.0897
▁vaadanud	-10.0899
▁vahele	-10.09
tades	-10.0901
palga	-10.0902
▁teisiti	-10.0904
▁argument	-10.091
▁loetelu	-10.0916
▁tähele	-10.0916
▁pääse	-10.0916
▁lisada	-10.0917
▁ministrid	-10.092
mäe	-10.092
▁asjast	-10.0921
▁mõtlen	-10.0921
▁hirmu	-10.0922
▁liikmetele	-10.0924
▁70	-10.0927
▁võitle	-10.0927
▁õppida	-10.093
sk	-10.0933
▁valitud	-10.0934
keskus	-10.0945
▁esitaja	-10.0951
▁enese	-10.0966
▁niisama	-10.0969
▁arendus	-10.098
han	-10.0988
▁puldist	-10.0989
▁turul	-10.0996
▁igas	-10.0996
▁kuul	-10.1017
seisu	-10.1023
▁operatsiooni	-10.1023
▁kajasta	-10.1023
▁sõltu	-10.1024
probleem	-10.1026
▁eksami	-10.1027
▁normaalse	-10.1032
▁samba	-10.1032
juhtide	-10.1037
ig	-10.1041
▁õigusi	-10.1042
▁toote	-10.1043
▁kaup	-10.1044
määr	-10.1045
▁1%	-10.1046
▁pikhof	-10.1048
▁miinimumi	-10.1051
▁laiem	-10.1054
▁täiendavalt	-10.1054
▁lah	-10.106
▁töötanud	-10.1063
▁esimesele	-10.1064
▁4.	-10.1071
▁moodusta	-10.1076
▁ressursi	-10.1081
▁and	-10.1083
▁vormi	-10.1087
▁kool	-10.109
▁aprillil	-10.109
▁pikema	-10.1094
▁põhimõtte	-10.1095
▁kogukonna	-10.1096
▁kri	-10.1097
▁mõelnud	-10.1098
▁viljandi	-10.1098
lust	-10.1103
▁tugi	-10.1107
▁teadmise	-10.111
tsa	-10.1116
ib	-10.1127
▁maksuvaba	-10.1131
per	-10.1132
▁konkreetsete	-10.1135
▁sild	-10.1135
▁ütleksin	-10.1136
▁kuskilt	-10.1146
▁tekitada	-10.1146
▁paneme	-10.1149
▁turva	-10.1152
▁tasub	-10.1163
jatele	-10.1166
▁inimestest	-10.1167
▁neljanda	-10.1169
▁elektroonilise	-10.1176
▁andrus	-10.1183
▁mainisin	-10.1189
▁tutvustas	-10.1192
poliitikat	-10.1196
rid	-10.1196
▁tuu	-10.1201
▁aastani	-10.1203
▁vähene	-10.1205
▁teemad	-10.121
▁tööstus	-10.1212
▁tegeleda	-10.1213
▁kellega	-10.1221
▁söö	-10.1222
▁soovite	-10.1226
▁lugupeetav	-10.1226
▁tunni	-10.1227
▁piirivalve	-10.1229
▁sääst	-10.1232
õpetaja	-10.1233
▁ennekõike	-10.1233
▁lugesin	-10.1235
▁viienda	-10.1239
▁püüame	-10.124
▁valmi	-10.1248
▁ametisse	-10.1249
▁jaanuarist	-10.125
taseme	-10.1251
krista	-10.1256
▁peatu	-10.1258
▁tekivad	-10.1261
▁36	-10.1266
▁välismaal	-10.1269
▁perspektiivis	-10.1274
kindlus	-10.1275
ots	-10.1279
▁vältida	-10.1285
rdi	-10.1285
▁sedasama	-10.1288
nõukogu	-10.1299
▁koolitus	-10.1303
▁juhtida	-10.1303
▁seadustiku	-10.1306
▁2015	-10.1309
▁lõpphääletus	-10.1311
nä	-10.1314
▁kurb	-10.1315
▁tahtnud	-10.1319
▁6.	-10.1322
▁vanemad	-10.1326
▁vald	-10.1327
kk	-10.1329
▁toetama	-10.1334
▁päevakorras	-10.1334
▁48	-10.1336
▁normi	-10.1337
poolne	-10.1342
fi	-10.1347
väärtus	-10.1348
▁unusta	-10.1353
▁endise	-10.1355
▁kaugele	-10.1357
▁eesmärkide	-10.1362
▁asuta	-10.1363
▁4,	-10.1365
▁katkestada	-10.1365
▁kava	-10.137
▁pomerants	-10.137
▁lühike	-10.1372
▁mõjuta	-10.1375
▁korteri	-10.1383
▁arvud	-10.1383
▁sester	-10.1389
▁tööandjate	-10.1393
aalne	-10.1394
oh	-10.1397
seadust	-10.1399
6%	-10.1403
▁väliskomisjoni	-10.1405
▁tegemine	-10.1405
haridus	-10.1412
▁püüan	-10.1412
▁omavalitsustes	-10.1412
kord	-10.1416
▁vahendid	-10.142
▁tahtsin	-10.1422
▁riigigümnaasium	-10.1427
▁pilt	-10.143
▁jätkuvalt	-10.1442
▁henn	-10.1448
▁ülesannete	-10.145
▁piiratud	-10.1458
▁37	-10.1458
▁investeeringud	-10.1462
▁arendada	-10.1462
▁seadusest	-10.1464
▁20.	-10.1465
▁kuhugi	-10.1468
▁kellelgi	-10.1468
▁tööpäeva	-10.1474
▁põldaru	-10.1474
▁öelge	-10.1474
▁loogiline	-10.1474
▁asutuse	-10.1479
▁töövõime	-10.1487
fe	-10.1488
▁seepärast	-10.149
▁tunnistada	-10.1493
võ	-10.15
akt	-10.1506
▁panus	-10.1509
▁tere	-10.151
umine	-10.1513
▁lugenud	-10.1518
▁registreeri	-10.1519
▁käsitlemine	-10.1521
▁suudab	-10.1522
▁menetluses	-10.1522
▁tsiviil	-10.1526
organisatsioonid	-10.1527
▁teosta	-10.1528
▁linnade	-10.1528
ine	-10.153
kor	-10.1531
▁abielu	-10.1531
▁võite	-10.1534
▁katse	-10.1534
uga	-10.1535
▁kommenteerida	-10.1543
▁mälu	-10.1544
▁venekeelse	-10.1545
▁tunnusta	-10.1547
▁tekitanud	-10.1549
▁tänapäeva	-10.1549
▁teenus	-10.1551
▁para	-10.1555
▁65	-10.1556
▁sügisel	-10.1559
▁jõustumise	-10.1562
kordse	-10.1568
▁kuriteo	-10.158
▁ministrite	-10.1585
▁päevast	-10.1591
sugu	-10.1596
▁meetme	-10.1596
▁kutsutud	-10.1597
▁samasuguse	-10.1599
▁kaitseliidu	-10.16
▁55	-10.1605
▁üli	-10.1605
▁missuguse	-10.1605
▁helmen	-10.1609
▁endi	-10.161
▁lastega	-10.1612
▁olulisi	-10.1614
▁asutuste	-10.162
▁ühiskonda	-10.163
▁aktsepteeri	-10.1632
▁arto	-10.1634
▁tund	-10.1646
▁fakti	-10.1647
▁temaatika	-10.1648
▁lai	-10.1648
▁varsti	-10.165
reformi	-10.1651
▁monika	-10.1652
▁lõige	-10.1654
▁kompenseeri	-10.1654
▁..."	-10.1656
rit	-10.166
▁tekiks	-10.1663
▁jätkame	-10.1664
▁piirivalveameti	-10.167
rü	-10.1671
▁nä	-10.1672
▁2016	-10.1672
▁kandidaadi	-10.1675
ida	-10.1677
▁saamise	-10.1678
kahju	-10.1678
▁riigireformi	-10.1678
kirju	-10.1679
▁piirkonnas	-10.1683
▁liikmena	-10.1685
▁kirjutanud	-10.169
▁tugine	-10.1691
▁seonduva	-10.1702
▁peetud	-10.1703
▁räägiti	-10.1708
▁puu	-10.171
▁ootame	-10.1714
ld	-10.1727
▁märgi	-10.1729
▁raivo	-10.173
▁seadusesse	-10.1733
▁põhjused	-10.1735
▁liigume	-10.1739
▁kanna	-10.1745
sele	-10.1747
mp	-10.1749
teist	-10.1751
▁andmetel	-10.1751
▁reeglid	-10.1759
rt	-10.1764
▁paberi	-10.1766
liigume	-10.1768
▁asume	-10.1774
▁üksik	-10.1783
▁rahvast	-10.1783
pidaja	-10.1784
▁i	-10.1784
▁lepi	-10.179
järgmine	-10.1791
rus	-10.1799
▁töökohtade	-10.1803
aegse	-10.1804
vajadus	-10.1805
▁selliselt	-10.1806
▁side	-10.181
▁ekspordi	-10.181
▁nõnda	-10.1811
▁ühendus	-10.1812
▁tarbi	-10.1812
jä	-10.1816
umist	-10.1817
▁eestile	-10.1826
▁tulevikku	-10.1831
▁ülem	-10.1835
▁korraga	-10.1835
▁kehti	-10.1838
▁soovitan	-10.184
allika	-10.1847
▁teistpidi	-10.1849
▁aine	-10.185
▁lähenemine	-10.1856
hariduse	-10.1859
▁kvaliteet	-10.1867
▁tahes	-10.1868
▁eestimaa	-10.187
ava	-10.1871
▁vä	-10.1872
▁esindus	-10.1874
▁kõrgem	-10.1877
▁palve	-10.1883
▁kokk	-10.1885
▁31	-10.1887
▁toimib	-10.1887
▁linn	-10.1895
▁29	-10.1895
▁poliitiliste	-10.1896
▁kohustused	-10.1898
▁juhtus	-10.1903
▁rõhu	-10.191
▁paha	-10.1912
▁infosüsteemi	-10.1912
▁piirkonna	-10.1914
äri	-10.192
▁rääkisime	-10.1921
▁allkirja	-10.1921
▁juhtimise	-10.1924
▁registreeritud	-10.1931
▁fraktsioonilt	-10.1933
enda	-10.1934
▁lubada	-10.1936
▁eelkõneleja	-10.1937
▁hoolimata	-10.1939
▁lõ	-10.1939
▁algatajate	-10.1941
▁erikomisjoni	-10.1942
una	-10.1943
▁häda	-10.1945
▁eelarvesse	-10.1947
▁langetada	-10.1948
▁täitmisel	-10.1968
korra	-10.1974
▁pidama	-10.1974
▁vabadus	-10.1986
▁kristen	-10.1986
▁vastuses	-10.1988
hk	-10.1991
aitüma	-10.1992
▁turismi	-10.1993
▁senise	-10.1998
▁muudab	-10.2003
▁rea	-10.2004
moodi	-10.2004
pidamise	-10.2009
▁mandaadi	-10.2011
▁juhtis	-10.2014
vast	-10.2015
▁astme	-10.2016
▁liik	-10.2018
▁stabiilsus	-10.2024
▁teistsugune	-10.2029
▁sügava	-10.2034
▁omaniku	-10.2035
firma	-10.2035
tavat	-10.2035
▁eestist	-10.2048
▁asjaga	-10.2048
▁eelista	-10.2052
▁mismoodi	-10.2052
▁erineva	-10.2057
▁teabe	-10.2061
tööd	-10.2061
stiku	-10.2063
▁püsti	-10.2069
▁arengufondi	-10.207
▁konsensuslik	-10.207
teadus	-10.2071
iks	-10.2074
aktsiis	-10.2076
▁puldis	-10.2076
▁õigusabi	-10.2077
▁kõva	-10.2087
▁tasemele	-10.2091
▁territooriumil	-10.2093
▁näitavad	-10.2097
▁margus	-10.2103
▁kir	-10.2106
▁tekst	-10.2111
▁alt	-10.2111
▁teavad	-10.2112
▁taotleda	-10.2113
umise	-10.2114
▁ilusa	-10.2116
▁olulist	-10.2118
?""	-10.2121
rühma	-10.2123
▁diskussioon	-10.2125
▁võtan	-10.2126
uri	-10.2127
▁tulude	-10.2128
▁hü	-10.213
▁arutelude	-10.2138
▁taastuvenergia	-10.214
▁kommenteeri	-10.2147
▁seisukohast	-10.2152
▁tuvasta	-10.216
▁lõpetatakse	-10.216
▁kõvasti	-10.2161
▁17.15.	-10.2161
▁ülesande	-10.2164
stab	-10.2174
jää	-10.2174
▁mainitud	-10.2176
▁riigikontrolör	-10.2177
▁meeldib	-10.2178
tor	-10.2181
var	-10.2182
▁toetavad	-10.2186
▁ühiselt	-10.2189
▁taseme	-10.219
uda	-10.2191
leppe	-10.2192
▁kaugel	-10.22
▁küla	-10.2201
▁oluliseks	-10.2202
▁valdo	-10.2204
▁kõikides	-10.2206
luba	-10.2208
uste	-10.2208
▁saare	-10.2209
▁looduskaitse	-10.2212
ute	-10.2214
▁vangla	-10.2215
▁sala	-10.2216
õppe	-10.2221
▁algusest	-10.2223
tuste	-10.2224
▁öeldi	-10.2233
▁juhtumeid	-10.2235
▁kulutusi	-10.2235
▁konkreetseid	-10.2235
▁õpetajad	-10.2238
▁seisu	-10.2241
sen	-10.2248
kümne	-10.2249
▁konflikti	-10.225
▁sajandi	-10.2252
▁lähiajal	-10.2253
▁viib	-10.2258
▁seadusmuudatus	-10.2262
▁sõltumata	-10.2273
rje	-10.2275
▁infotunnis	-10.2275
▁erakonnad	-10.2277
▁kavanda	-10.2278
▁kalli	-10.228
▁kasutatud	-10.228
▁koostatud	-10.2289
▁luigas	-10.229
▁toetusi	-10.2296
▁teadusminister	-10.2297
▁tõlge	-10.2298
▁end	-10.23
tur	-10.2303
▁muretse	-10.2304
▁soovitus	-10.231
▁tehnilise	-10.2311
▁praktikas	-10.2312
▁palo	-10.2314
▁ühenda	-10.2315
▁maht	-10.2315
▁isikliku	-10.2315
▁keelatud	-10.232
põhise	-10.2322
leping	-10.2322
▁igasuguse	-10.2325
▁loa	-10.2327
▁alguse	-10.233
▁võimatu	-10.2333
▁pöörduda	-10.2336
▁keeldu	-10.2336
▁paljudel	-10.2338
võrgu	-10.2344
▁valijate	-10.2355
▁küsinud	-10.2358
ühendus	-10.2361
tsu	-10.2361
iste	-10.2362
▁juriidilise	-10.2365
▁leppida	-10.2366
▁kodanik	-10.2369
▁teenistuse	-10.2372
▁protseduuri	-10.2382
▁eestit	-10.2384
▁ettepanekuga	-10.239
▁vahest	-10.2393
▁parlamentaarse	-10.24
▁seisab	-10.24
▁41	-10.2402
▁õnneks	-10.2402
▁maine	-10.2409
▁kujune	-10.2411
▁neljas	-10.2411
▁ülesanded	-10.2429
▁sündi	-10.243
▁juhan	-10.2435
töötajate	-10.2436
▁tõite	-10.2438
▁ainuke	-10.244
▁organisatsioon	-10.2441
▁ütleks	-10.2441
▁üha	-10.2442
▁väikeste	-10.2445
▁võtavad	-10.2448
▁tõenda	-10.2449
▁madala	-10.2457
▁kor	-10.2462
▁tahe	-10.2463
▁tegeleme	-10.2466
veo	-10.2466
▁registreeru	-10.2468
▁vabasta	-10.2475
▁seadusele	-10.2477
▁äsja	-10.248
▁õigusloome	-10.2481
▁andme	-10.2483
▁seos	-10.2488
▁reisi	-10.2489
plaani	-10.2493
▁igaüks	-10.2502
▁õppekava	-10.2503
arve	-10.251
▁toetamise	-10.2511
tuna	-10.2513
▁rahastamine	-10.2513
▁seisukohtade	-10.2513
▁värske	-10.2519
▁reageeri	-10.2519
▁automaatselt	-10.2522
▁lähedal	-10.2534
▁reguleeritud	-10.2536
▁pr	-10.2541
▁maamaksu	-10.2545
valdkonnas	-10.2548
▁erisus	-10.2555
▁lõi	-10.2555
vaba	-10.2555
▁valdkondades	-10.2556
▁asendus	-10.2557
▁käivita	-10.2558
▁arsti	-10.2559
riikide	-10.2559
▁49	-10.2559
▁toetas	-10.2562
▁millises	-10.2565
▁kaasatud	-10.2565
stama	-10.2573
▁kauem	-10.2579
▁projekt	-10.2586
▁vastutab	-10.2596
▁sõnu	-10.2597
▁korteriühistu	-10.2597
▁mõtteid	-10.2599
usest	-10.2603
▁kõlanud	-10.2603
▁omavalitsuses	-10.2608
▁olevate	-10.2612
▁kandideeri	-10.2615
▁peetakse	-10.2617
▁isikud	-10.2618
▁sektoris	-10.2618
▁tegid	-10.2624
▁miinus	-10.2626
▁arendamise	-10.2628
▁esitati	-10.263
▁lõppkokkuvõttes	-10.2636
▁teeks	-10.264
▁põllumajanduse	-10.264
▁säte	-10.2641
▁vanuse	-10.2642
rikka	-10.2644
▁aruta	-10.2647
▁kultuur	-10.2652
▁püüdnud	-10.2653
▁tagatis	-10.2655
▁kasutusele	-10.2655
▁kütuseaktsiisi	-10.2655
▁nimi	-10.2656
▁aktiivselt	-10.2658
pool	-10.2662
▁välispoliitika	-10.2666
▁aadu	-10.2666
▁perioodil	-10.2667
▁elanikkonna	-10.2671
▁suurus	-10.2671
▁keela	-10.2672
ettevõtte	-10.2674
▁halva	-10.2674
3.	-10.2675
▁kannab	-10.2677
arv	-10.2681
▁eelnõust	-10.269
▁jätkan	-10.2692
iministeeriumi	-10.2693
▁loomulik	-10.2694
▁deklareeri	-10.2695
▁ühtlasi	-10.2696
▁algatus	-10.2701
▁reaalne	-10.2702
▁täida	-10.2702
rd	-10.2707
▁paljusid	-10.2709
janduskomisjoni	-10.272
▁8.	-10.272
▁nõuete	-10.2724
kapitali	-10.2728
▁vastanud	-10.2731
▁tulemusi	-10.2733
▁võeta	-10.2736
poole	-10.2736
▁õigused	-10.2736
▁selleni	-10.2737
ides	-10.2738
keel	-10.2741
auto	-10.2744
▁de	-10.2744
▁22.	-10.2745
▁toimuva	-10.2751
▁kuivõrd	-10.2754
▁laiene	-10.2754
▁5%	-10.2756
▁poolda	-10.2758
▁viimaste	-10.2763
▁kohane	-10.2765
7%	-10.2765
▁räägivad	-10.2768
▁vastamise	-10.2774
▁anne	-10.2775
▁di	-10.2775
▁mõnikord	-10.2776
▁rahvasaadikut	-10.2784
▁linnas	-10.2784
▁krooni	-10.2793
▁küsimusest	-10.28
kontrolli	-10.28
▁informatsioon	-10.2805
▁teo	-10.2817
▁tahte	-10.2819
▁käsitletud	-10.2824
▁löö	-10.2825
summa	-10.2828
▁vaielda	-10.2833
▁viitasite	-10.2834
▁märkus	-10.2841
▁keskmiselt	-10.2845
▁sõjalise	-10.2847
▁heljo	-10.2852
▁sõlmitud	-10.2854
▁pankade	-10.2855
▁noori	-10.2872
▁kenasti	-10.2874
▁maad	-10.2875
▁juhtuda	-10.2877
▁joon	-10.2877
▁inimõiguste	-10.2877
teine	-10.2878
▁reguleerida	-10.2881
keskkond	-10.2887
▁tubli	-10.2891
▁ühendriikide	-10.2893
ndatud	-10.2897
▁tolliameti	-10.2897
▁üksi	-10.2898
▁niisugust	-10.2901
▁kaotada	-10.2905
▁keskus	-10.2924
▁toetused	-10.2925
▁karilaid	-10.2933
▁välista	-10.2934
▁toimuma	-10.2936
ood	-10.2946
▁leppinud	-10.2953
▁pandi	-10.2954
korraldus	-10.2958
▁pildi	-10.2958
▁kasutama	-10.2961
▁kohtute	-10.2961
▁võlgu	-10.2961
▁sada	-10.2963
▁põhimõtete	-10.2965
▁ah	-10.2971
▁poola	-10.2972
▁dividendi	-10.2974
▁kasva	-10.2975
▁üheks	-10.299
▁muutmist	-10.2994
▁võtme	-10.2994
▁2009.	-10.2996
▁jääma	-10.2997
▁hakkas	-10.3003
▁riikidega	-10.3004
▁õiguskomisjon	-10.3007
tund	-10.3007
▁liikmesriigi	-10.3013
▁muutuvad	-10.3016
▁rände	-10.3019
ratifitseerimise	-10.3019
▁rääkimata	-10.3024
tused	-10.3025
▁õnnestu	-10.3029
▁erand	-10.3034
toetus	-10.3038
▁lükka	-10.3041
▁hääletama	-10.3043
▁toimu	-10.3048
▁arendustegevuse	-10.3051
▁omavalitsustel	-10.3053
▁tehes	-10.3056
▁regiooni	-10.3056
majanduskomisjon	-10.3057
ps	-10.3057
▁seeder	-10.306
▁kala	-10.306
▁naa	-10.3066
aega	-10.307
▁teenused	-10.3074
▁vabariik	-10.308
▁täiendavat	-10.3081
rb	-10.3082
▁küsisite	-10.3084
▁piisava	-10.3084
▁muul	-10.3085
iidi	-10.3086
▁avasta	-10.3086
▁tagama	-10.3087
▁paindlik	-10.3092
sotsiaalkomisjon	-10.3095
▁vabariigis	-10.3104
▁riigieelarves	-10.3104
▁pensionäride	-10.3108
▁eeldab	-10.3108
ohutus	-10.3109
▁ehitatud	-10.3116
▁takistus	-10.3116
▁luuakse	-10.3119
ole	-10.3121
▁näol	-10.3121
▁sõnastus	-10.3121
▁muuseumi	-10.3122
▁liini	-10.3123
▁osutu	-10.3125
▁sisulist	-10.3127
go	-10.3128
▁õppi	-10.3131
▁karmi	-10.3139
▁ainus	-10.3142
▁kohtusse	-10.3144
▁kohustust	-10.3145
▁sündinud	-10.315
▁kasutavad	-10.3151
tegevus	-10.3152
▁laeku	-10.3155
gen	-10.3156
▁rahaga	-10.3156
▁iva	-10.3156
▁hommikust	-10.3158
▁lauale	-10.3162
mit	-10.3163
▁pakub	-10.3165
▁vanem	-10.3167
▁2%	-10.3168
▁hindamise	-10.3177
▁menetleda	-10.3177
▁puuetega	-10.3178
▁omandi	-10.3194
▁44	-10.3195
▁vastutust	-10.3197
▁pikaajalise	-10.3199
aplaus	-10.3199
▁ime	-10.32
urve	-10.3201
▁teaduse	-10.3201
▁küsib	-10.3205
lugupeetav	-10.3206
▁külas	-10.3213
▁uurimis	-10.3217
▁jaota	-10.322
▁analüüsida	-10.3229
▁jään	-10.3232
▁suhtle	-10.3236
ata	-10.3237
▁tegev	-10.3241
▁füüsilise	-10.3252
▁2019.	-10.3252
▁kü	-10.3254
▁null	-10.3256
▁pädevus	-10.326
▁tõhusa	-10.3266
▁päevakord	-10.327
▁komisjonile	-10.327
▁tehnoloogia	-10.3273
▁400	-10.3273
▁liikmeks	-10.3275
kordne	-10.3275
▁auditi	-10.328
▁ettenähtu	-10.3282
▁üldjuhul	-10.3282
▁inara	-10.3282
▁appi	-10.3282
▁tõenäosusega	-10.3283
▁tausta	-10.3285
ikud	-10.3291
▁likvideeri	-10.3292
▁75	-10.3297
▁seekord	-10.3305
▁palkade	-10.3308
▁mõjutada	-10.3309
▁poliitikud	-10.331
▁seisuga	-10.3312
pääs	-10.3315
▁esitama	-10.3316
▁järelevalvet	-10.3319
▁valimised	-10.3322
▁seatud	-10.3323
▁siim	-10.3325
▁ettepanekute	-10.3326
▁mü	-10.3328
▁prokuratuuri	-10.3328
▁vaate	-10.3344
▁sarnase	-10.3344
▁riiklik	-10.3347
osakonna	-10.3351
▁raporti	-10.3359
korralduse	-10.3362
▁töötasu	-10.3362
▁jäta	-10.3363
▁dokumentide	-10.3364
▁iseseisva	-10.3366
▁vabatahtliku	-10.3367
▁sõnavõtu	-10.3368
▁viiakse	-10.3371
gem	-10.3373
külliki	-10.3374
▁eeskuju	-10.3375
▁kiriku	-10.3379
▁eesmaa	-10.3386
kolm	-10.3386
▁teadma	-10.3389
▁kuulsime	-10.339
ministeeriumil	-10.3393
om	-10.3395
grupi	-10.3395
koormus	-10.3396
▁jõudis	-10.3397
▁poliitikat	-10.34
pet	-10.3402
▁valda	-10.3408
▁erki	-10.3408
▁oleksime	-10.341
▁koolid	-10.3411
▁soodusta	-10.3414
▁arvamusi	-10.3417
arsti	-10.3423
▁asub	-10.3424
▁olemasolu	-10.3429
▁ollakse	-10.3431
▁riigieelarvesse	-10.3432
▁50%	-10.3435
▁kättesaadav	-10.3445
▁ilus	-10.3448
▁arvab	-10.3448
võtmine	-10.3452
▁5000	-10.3457
▁kasutanud	-10.3465
▁kehtivad	-10.347
▁prantsusmaa	-10.3471
▁rahapesu	-10.3471
▁kallo	-10.3472
▁1000	-10.3473
▁põle	-10.3475
▁nimetasite	-10.3476
▁endast	-10.3477
märgi	-10.3479
▁musta	-10.3484
▁valitse	-10.3485
▁haigus	-10.3486
▁tulemuse	-10.349
▁reserv	-10.3491
▁tsahkna	-10.3492
▁eemal	-10.3494
▁saaremaa	-10.3495
▁maksavad	-10.3498
▁selgitas	-10.3499
▁kooseluseaduse	-10.35
▁lasta	-10.35
▁pärit	-10.3503
haigla	-10.3503
▁avata	-10.3507
▁öö	-10.3508
koalitsiooni	-10.351
▁püütakse	-10.3514
piirkonda	-10.3515
▁aluse	-10.3518
▁39	-10.3524
▁jutuks	-10.3533
▁maantee	-10.3534
▁tühja	-10.3535
▁valguses	-10.3537
kasu	-10.3537
▁pead	-10.3538
▁läbirääkimistel	-10.3538
▁meeste	-10.354
▁võtaks	-10.354
▁rongi	-10.3543
ikku	-10.3552
protsessi	-10.3553
ravi	-10.3553
▁laia	-10.3554
▁efendijev	-10.3557
▁inglise	-10.3557
▁enamasti	-10.3557
▁rahvusvaheline	-10.3557
▁elaniku	-10.3558
võime	-10.3574
ajal	-10.3574
jaa	-10.3587
▁lõppu	-10.3593
▁tulid	-10.3593
▁tähendus	-10.3597
▁püha	-10.36
▁vahelise	-10.3601
▁eesmärgid	-10.3601
▁töölepingu	-10.3613
mahu	-10.3613
▁suru	-10.3614
▁elama	-10.3627
▁arvestus	-10.3631
▁ulatu	-10.3636
▁tähtsusega	-10.3644
▁42	-10.3647
deks	-10.3654
▁häiri	-10.3664
▁rmk	-10.3664
▁siinsamas	-10.3665
▁kinnitatud	-10.3669
▁kompromiss	-10.3685
▁risk	-10.3686
▁rõhutada	-10.3689
kindlustuse	-10.3693
▁sõnumi	-10.3697
▁ilmne	-10.3698
▁46	-10.3699
▁minule	-10.37
▁algatas	-10.3701
▁pakendi	-10.3706
▁hoiaku	-10.3706
▁43	-10.3711
▁kohalda	-10.3712
▁5,	-10.3716
▁panustada	-10.3718
▁47	-10.3722
▁tõin	-10.373
▁usa	-10.3731
▁madalama	-10.3734
▁direktiiv	-10.3736
erakonna	-10.3737
▁käsitleda	-10.374
▁sunnitud	-10.3741
asu	-10.3744
▁põhjalik	-10.3744
▁tagab	-10.3747
▁hoia	-10.3748
▁osapool	-10.3751
▁abikaasa	-10.3751
▁nõuda	-10.3757
▁rahastus	-10.3757
õr	-10.376
▁otsida	-10.376
liiklus	-10.3761
iti	-10.3762
▁vastavad	-10.3762
▁vea	-10.3764
▁tiheda	-10.3764
▁kuskile	-10.3767
▁viies	-10.3767
▁90	-10.3771
▁alust	-10.3771
▁hommikul	-10.3773
▁võimekus	-10.3773
ajalt	-10.3779
▁suurendab	-10.3781
▁kõnealuse	-10.3783
▁puh	-10.3784
▁esmaspäeval	-10.3785
▁reeglite	-10.3787
põhine	-10.3788
2.	-10.3791
▁hääletust	-10.3793
▁mistõttu	-10.3795
▁mtü	-10.3797
▁lahendatud	-10.3799
▁kampaania	-10.3801
▁tolle	-10.3802
▁oleksin	-10.3804
▁talu	-10.3808
▁ametikoha	-10.3821
▁eesistumise	-10.3839
▁peaministrile	-10.3843
▁52	-10.3846
▁muudetud	-10.3858
▁teemade	-10.386
koor	-10.3861
▁tarvis	-10.3861
▁aktsiis	-10.3869
▁lapsevanema	-10.387
▁saksamaa	-10.3871
▁2018	-10.3873
▁puhas	-10.3874
▁tuleme	-10.3876
▁astuda	-10.3876
▁järgmiste	-10.3878
▁juhatusele	-10.388
▁sõita	-10.3883
▁eelis	-10.3883
▁sammud	-10.3883
▁täidetud	-10.3888
▁lühikese	-10.3894
▁tulubaasi	-10.3897
▁printsiip	-10.3901
▁mitmesuguseid	-10.3906
▁sil	-10.3908
▁ettevalmistus	-10.3909
▁teete	-10.3913
▁sunni	-10.3914
▁kolmandat	-10.3922
▁näidanud	-10.3928
▁toimingu	-10.3931
▁mandaati	-10.3937
▁laanet	-10.3939
▁teisipäeva	-10.3945
▁korraldus	-10.395
▁kritiseeri	-10.395
▁pidades	-10.395
▁kumb	-10.3951
▁bussi	-10.3952
▁juhtimis	-10.3953
▁autori	-10.3957
▁majandust	-10.3958
▁lase	-10.396
üritus	-10.3967
▁prognoos	-10.3969
▁detail	-10.397
▁paralleel	-10.397
▁teadlik	-10.3972
▁leiame	-10.3973
tunni	-10.3974
kuus	-10.3975
▁majanduslik	-10.3975
vahetus	-10.3978
▁kahjusta	-10.3985
▁kadu	-10.3991
tusega	-10.3992
▁tase	-10.3995
vatele	-10.3996
▁senti	-10.3997
▁halvasti	-10.3997
▁institutsiooni	-10.3999
▁võim	-10.4
sektoris	-10.4005
▁tõesta	-10.4008
▁maris	-10.4009
▁kujunenud	-10.4009
vahendite	-10.4009
▁suvel	-10.4011
▁suhtumine	-10.4015
▁diskrimineeri	-10.4017
▁viimased	-10.4017
tead	-10.4023
▁arupärimist	-10.4024
▁investeerida	-10.4026
▁pikenda	-10.4027
▁täitmiseks	-10.4029
▁kutsuda	-10.403
▁panema	-10.4032
▁suudavad	-10.4036
ressurss	-10.4039
▁erakorralise	-10.404
▁süvene	-10.404
▁eelmises	-10.4042
▁osalenud	-10.4045
▁kahtluse	-10.4047
▁kohalikke	-10.4053
▁tulemused	-10.4053
▁nõude	-10.4059
▁suurima	-10.4066
▁kodanikud	-10.407
▁hirm	-10.4072
ama	-10.408
▁arusaamatu	-10.4083
▁pakkunud	-10.4085
oni	-10.4086
▁nõudeid	-10.4088
▁lastekaitse	-10.4095
▁teistest	-10.4097
▁paber	-10.4099
▁laiali	-10.4111
1.	-10.4117
▁näita	-10.4118
kaart	-10.4124
▁aitavad	-10.4131
▁asjadest	-10.4132
▁toom	-10.4132
▁riigikokku	-10.4135
▁kollektiiv	-10.4141
▁paremat	-10.4142
▁ametnik	-10.4142
eta	-10.4148
▁liigu	-10.4148
▁23.	-10.415
▁sisuka	-10.4151
▁tabeli	-10.4152
▁tõstmine	-10.4153
▁palling	-10.4153
▁per	-10.4156
kaubandus	-10.4156
▁sätesta	-10.4156
▁regionaalse	-10.4157
▁järeldus	-10.4157
▁osalesid	-10.4162
omanike	-10.4168
▁tänada	-10.417
kuritegu	-10.4175
õpe	-10.4175
▁riisalu	-10.4176
▁pinge	-10.4176
valdor	-10.4177
▁eeldan	-10.4181
▁koju	-10.4184
punkt	-10.4186
▁mikser	-10.4187
▁kõrghariduse	-10.4188
▁lähtuda	-10.4195
põ	-10.4198
▁samasugune	-10.4198
▁viidud	-10.4199
▁vakra	-10.42
▁ühiskonnale	-10.42
▁pealkirja	-10.42
▁kaob	-10.4201
▁intressi	-10.4201
▁juhtum	-10.4201
▁kahtlus	-10.4207
käik	-10.4208
▁teatava	-10.421
▁aruanne	-10.4212
▁kasvavad	-10.4214
▁toimuvad	-10.4216
▁poliitikute	-10.4218
▁kiisler	-10.4221
▁millegipärast	-10.4221
▁vabaerakond	-10.4222
ristusseadustiku	-10.4225
▁langeb	-10.4231
▁eesmärke	-10.4237
ment	-10.4238
▁maakond	-10.4238
soo	-10.4242
▁kliima	-10.4244
kultuurikomisjon	-10.4249
▁2020	-10.4252
▁maksud	-10.4255
▁viitas	-10.4257
▁teki	-10.4258
▁levi	-10.426
▁ühi	-10.4266
▁tagajärg	-10.4267
▁pihta	-10.4267
▁tüüpi	-10.4267
▁otsusega	-10.4273
▁selgitus	-10.4278
gr	-10.4279
arvu	-10.4279
▁tahet	-10.4284
▁suuresti	-10.4288
▁ühtlusta	-10.4291
ivse	-10.4293
▁allik	-10.4294
▁maksustamise	-10.4295
ettevalmistamist	-10.4297
poliitik	-10.4299
pro	-10.43
▁omavalitsusele	-10.4301
▁raskus	-10.4308
▁ideed	-10.431
▁liigub	-10.431
▁võla	-10.4311
▁hüvita	-10.4312
▁augusti	-10.4313
▁vajaliku	-10.4317
▁ettevõtjatele	-10.4317
▁seadused	-10.4317
▁sisuline	-10.4318
▁val	-10.4318
martin	-10.432
▁eduka	-10.4334
▁häälte	-10.4337
▁pinguta	-10.4337
▁laadi	-10.4338
▁tsiteeri	-10.434
▁posti	-10.4344
▁tegevused	-10.4348
▁tegemisel	-10.4348
▁kestab	-10.435
▁kär	-10.4355
inspektsioon	-10.4357
pla	-10.4358
▁peamiselt	-10.436
▁kõikidel	-10.4361
▁üllatus	-10.4361
▁sihtasutuse	-10.4362
▁savisaar	-10.4366
▁konsensus	-10.437
▁2013	-10.4371
▁oligi	-10.4373
koja	-10.4376
▁kriitilise	-10.4383
▁perekond	-10.4388
▁tutvustada	-10.4394
▁isikut	-10.4394
vaks	-10.4394
▁hari	-10.4399
▁algata	-10.4405
▁aitaks	-10.4406
▁õiglase	-10.4406
▁riigihalduse	-10.4406
▁nalja	-10.4406
ettevõtete	-10.4408
seaduses	-10.4412
liikme	-10.4413
▁lähene	-10.4423
▁suurusjärgus	-10.4428
▁erivajadustega	-10.443
▁lähtub	-10.443
▁sund	-10.4433
õl	-10.4437
▁oota	-10.4438
kultuuri	-10.4438
pan	-10.4442
▁süüdistus	-10.4445
▁siseministri	-10.4447
▁ajakirjanik	-10.4453
▁realiseeri	-10.4453
▁range	-10.4454
hvusringhäälingu	-10.4457
▁mõtleme	-10.4463
stamist	-10.4463
ari	-10.4463
▁reaalsus	-10.4469
▁koli	-10.4483
jõud	-10.4484
▁hääletus	-10.4485
▁hu	-10.4488
▁väidan	-10.4488
▁parim	-10.4489
▁25.	-10.4491
▁2010.	-10.4495
lahendus	-10.4498
▁juhtide	-10.4501
▁kindlalt	-10.4502
▁võimaluste	-10.4504
rahva	-10.4504
▁lä	-10.4505
▁täiendav	-10.4508
meie	-10.4509
▁üheselt	-10.4509
piir	-10.4519
vaata	-10.4521
▁esialgu	-10.4524
▁positsioon	-10.4525
▁õigemini	-10.4528
▁or	-10.4528
▁riigiabi	-10.4533
▁mängu	-10.4537
▁seadusmuudatuse	-10.4544
▁pöörata	-10.456
▁initsiatiivi	-10.4561
▁sõnad	-10.4561
reform	-10.4562
▁üksuse	-10.4563
▁arupärimiste	-10.4564
oma	-10.4564
▁tulebki	-10.4565
võrku	-10.4565
▁teenistus	-10.4567
▁signaal	-10.4567
▁osapoolte	-10.4568
ili	-10.4569
▁toetan	-10.457
alade	-10.4572
▁määratle	-10.4572
▁jälgida	-10.4573
▁lähte	-10.4578
▁eelneva	-10.4581
▁lootus	-10.4581
▁poleks	-10.4583
eelse	-10.4587
▁loob	-10.4591
9%	-10.4598
▁sihi	-10.4598
▁tohutu	-10.4603
▁kasutades	-10.4614
▁eesmärgil	-10.4615
tõus	-10.4616
▁är	-10.4631
tavaid	-10.4631
▁sõidu	-10.4632
▁saamiseks	-10.4637
▁igasugune	-10.4642
▁missugune	-10.4642
▁ressursse	-10.4643
▁kulutused	-10.4644
▁teemadel	-10.4648
▁kohalikel	-10.4649
▁digi	-10.4655
▁kasuks	-10.4661
▁suuremate	-10.467
▁arstide	-10.467
▁turule	-10.4671
▁maksumus	-10.4673
▁rahalise	-10.4675
▁ukse	-10.4676
▁tähtsam	-10.4687
teenust	-10.4688
juhataja	-10.469
▁tingitud	-10.469
▁praeguseks	-10.4694
seis	-10.4695
▁kinnitanud	-10.4699
▁kooselu	-10.4703
▁mudeli	-10.471
▁vägivalla	-10.4714
▁lõplik	-10.4718
▁laiendada	-10.4719
▁teilt	-10.472
▁väiksemad	-10.4721
▁lõpeb	-10.4725
▁hinnangut	-10.4731
▁esimeses	-10.4731
▁pikendada	-10.4733
märk	-10.4738
▁piinlik	-10.4739
muse	-10.4742
▁motiveeri	-10.4745
▁vaatasin	-10.4745
▁vähendab	-10.4747
▁noore	-10.4747
astme	-10.4748
▁naised	-10.4751
▁lihtsusta	-10.4751
▁kohtus	-10.4752
▁koalitsioonis	-10.4752
▁alustan	-10.4757
▁borodi	-10.4763
▁pehme	-10.4763
▁pikemalt	-10.4763
▁ministeeriumis	-10.4765
▁64	-10.4768
eerik	-10.477
▁personali	-10.4778
▁algatada	-10.4781
▁suhete	-10.4785
▁mingis	-10.4792
▁kõrgharidus	-10.4798
võtmise	-10.4799
▁riku	-10.4802
▁vooru	-10.4802
▁ohtlik	-10.4805
▁esitasid	-10.4806
▁mitmesuguste	-10.4811
▁suureks	-10.4811
likkuse	-10.4814
▁igasuguseid	-10.4818
▁iseenda	-10.4819
▁majanduskasv	-10.4819
▁ni	-10.4821
▁puhtalt	-10.4823
▁voli	-10.4828
kütus	-10.4828
otsus	-10.4829
▁kohti	-10.4829
raal	-10.483
järgne	-10.4831
aru	-10.4832
▁spetsialistid	-10.4834
▁tagantjärele	-10.4835
▁sibul	-10.4836
▁ekspertide	-10.4836
▁jaotus	-10.4836
▁liikuma	-10.4836
▁seada	-10.4839
kohas	-10.4842
▁rahulikult	-10.4844
▁võimalikud	-10.4848
ministeeriumiga	-10.4856
hti	-10.4859
▁rainer	-10.486
proua	-10.4861
▁2017	-10.4862
▁maksukoormus	-10.4863
▁laine	-10.4864
▁2014	-10.4864
▁eelnõusse	-10.4865
▁puudutava	-10.4867
▁järgmistel	-10.4867
▁kaasata	-10.4871
▁põhiliselt	-10.4871
▁ken	-10.4871
▁praeguste	-10.4873
▁avalikkusele	-10.4875
▁tõmmata	-10.4878
▁omaette	-10.4878
▁ba	-10.4879
▁tootja	-10.488
järve	-10.4883
▁hooldekodu	-10.4884
▁enamiku	-10.4889
▁kange	-10.4891
▁parane	-10.4893
▁jõustub	-10.4894
▁nädal	-10.4898
üksi	-10.4899
▁õiguslik	-10.4902
▁föderatsiooni	-10.4902
valdkonda	-10.4906
▁üksteise	-10.4909
▁tuge	-10.4909
ühingu	-10.4911
▁põhimõtteline	-10.4915
otsuse	-10.4919
▁vaidle	-10.492
▁narvas	-10.4925
töötaja	-10.4927
▁tõmba	-10.4928
▁teistel	-10.493
▁väär	-10.4937
▁vaesus	-10.4943
komisjonile	-10.4945
▁koosseis	-10.4948
▁müüa	-10.4951
mart	-10.4956
▁ühenduse	-10.496
▁põllumeeste	-10.4961
▁kasutamist	-10.4963
▁valge	-10.4964
asja	-10.4964
▁mures	-10.4966
▁mehed	-10.4971
▁53	-10.4971
perioodi	-10.4975
▁valu	-10.4975
▁anvelt	-10.4979
grupp	-10.498
▁koosoleku	-10.498
▁korrigeeri	-10.4983
▁uhke	-10.4983
▁eestil	-10.4983
▁tingimustes	-10.4984
aastane	-10.4988
▁austa	-10.499
▁tootmise	-10.4991
▁2000	-10.4992
▁teistsuguse	-10.4996
▁meenuta	-10.4996
kultuuriminister	-10.4996
▁piirangud	-10.4998
vabadus	-10.5
▁ring	-10.5003
▁pentus	-10.5007
▁rakendu	-10.5008
▁seaduseelnõuga	-10.5009
▁kvaliteetse	-10.5011
▁suve	-10.5015
▁tagant	-10.5016
koormuse	-10.5025
▁lubanud	-10.5026
▁täit	-10.5027
▁stalnuhhini	-10.5028
üksus	-10.503
▁vastasin	-10.503
▁tuleneva	-10.5031
▁allu	-10.5035
liseks	-10.5036
▁ajada	-10.504
asutus	-10.5044
hinda	-10.5049
▁maade	-10.5053
pärast	-10.5053
▁2020.	-10.5055
▁tunda	-10.5058
▁tehingu	-10.5067
▁ravikindlustuse	-10.5068
▁lahendused	-10.5069
▁õppima	-10.507
▁töötama	-10.5072
▁võlg	-10.5074
▁kallas	-10.5084
▁äriühingu	-10.5085
aivar	-10.5086
▁õhtu	-10.5089
lang	-10.509
▁ettevõtteid	-10.5094
▁meedias	-10.5096
▁kohtla	-10.5097
▁erakonda	-10.5104
▁määrati	-10.5105
▁täienda	-10.5105
▁tuiksoo	-10.5107
▁kriitika	-10.511
▁hindate	-10.5113
▁sind	-10.512
hääle	-10.512
▁piisa	-10.5122
▁jäätme	-10.5122
▁madis	-10.5125
▁moodustamine	-10.5126
▁nõuetele	-10.5128
▁poliitikas	-10.513
idel	-10.5132
▁avalikult	-10.5132
▁juhtinud	-10.5132
▁okupatsiooni	-10.5133
▁mõistlikum	-10.5135
▁algus	-10.5137
▁nõustuda	-10.5138
▁tegemiseks	-10.5138
▁pidas	-10.5138
▁jäid	-10.514
▁tegutseda	-10.5145
▁piirangu	-10.5149
▁esineja	-10.5151
▁järgmist	-10.5156
▁deklaratsiooni	-10.5157
▁neeme	-10.5157
▁informeeri	-10.5157
▁tasku	-10.5157
▁katkesta	-10.5157
▁huve	-10.5159
▁kuupäeva	-10.516
▁eksperdid	-10.5174
▁pilti	-10.5178
▁leian	-10.5178
▁number	-10.5181
▁tartus	-10.5185
hvi	-10.5189
▁tarbimise	-10.5189
▁tõnis	-10.5198
▁demokraatliku	-10.5203
ministeeriumile	-10.5204
▁arengut	-10.5206
▁täiendavaid	-10.5206
▁sularaha	-10.5208
▁maavalitsus	-10.5212
▁edasise	-10.5216
▁heid	-10.5216
▁puutu	-10.5217
▁palgatõusu	-10.5217
▁kasutab	-10.5219
▁eraldatud	-10.5228
▁huvid	-10.5228
meeste	-10.5234
▁väikesed	-10.5237
▁paratamatult	-10.5242
▁suhe	-10.525
▁luge	-10.5258
▁õiglane	-10.5258
▁pri	-10.5261
▁andke	-10.5265
▁oe	-10.5267
mina	-10.527
▁niipalju	-10.5271
▁tõusnud	-10.5271
▁arutamise	-10.5272
keskuste	-10.5277
puu	-10.528
▁edenda	-10.5284
▁tendents	-10.5284
▁aseesimehe	-10.5284
▁järsku	-10.529
▁surma	-10.529
▁sead	-10.529
▁senisest	-10.529
▁omanik	-10.5291
▁ratase	-10.5294
tro	-10.5295
▁kolmandale	-10.5295
võimalus	-10.5297
▁ideaal	-10.5298
▁näevad	-10.5301
liini	-10.5304
▁kantselei	-10.5309
▁spiiker	-10.5309
spekt	-10.5311
▁tegevuskava	-10.5313
▁endal	-10.5314
▁kahane	-10.5316
▁valmistu	-10.5324
▁odavama	-10.5325
▁piirkondades	-10.5326
▁ettepanekul	-10.5328
▁tulemusel	-10.5331
▁aina	-10.5336
▁kinnitas	-10.5338
▁lugema	-10.534
▁suuremaid	-10.5341
▁alanda	-10.5345
▁lapsele	-10.535
▁tookord	-10.5357
kad	-10.5358
▁viinud	-10.5359
▁segadus	-10.5359
▁statistikat	-10.536
▁solidaarsus	-10.5361
▁jaanson	-10.5361
▁lenk	-10.5361
▁infotund	-10.5363
▁võrdselt	-10.537
▁nägi	-10.5377
▁ettevõtjaid	-10.5378
▁otsusena	-10.538
asutused	-10.538
▁korraldatud	-10.5385
puhku	-10.5385
▁situatsiooni	-10.5385
▁lõhk	-10.5388
▁hooli	-10.5391
▁elavate	-10.5395
▁54	-10.5397
▁kaalutlus	-10.5399
▁30.	-10.5403
▁ootab	-10.5407
teenistus	-10.5408
▁uuringute	-10.5412
▁valga	-10.5412
▁üüri	-10.5413
▁koormus	-10.5415
▁osalevad	-10.5419
▁lisandu	-10.5425
▁ilmu	-10.5428
dettepaneku	-10.543
▁ministrina	-10.5431
▁kaitstud	-10.5438
▁kä	-10.5441
▁kaasne	-10.5442
▁tuuakse	-10.5444
liige	-10.5445
ministrina	-10.5446
laeva	-10.545
▁väljendu	-10.5455
▁kohtunike	-10.546
▁kevad	-10.5462
▁jätkusuutlik	-10.5463
▁põlva	-10.5464
▁siiralt	-10.5464
▁koorma	-10.5467
▁haiglate	-10.5479
▁talve	-10.5479
▁pagulaste	-10.5482
▁sätestab	-10.5486
▁taristu	-10.5489
▁deniss	-10.549
▁korrektne	-10.549
õhk	-10.5491
▁võsa	-10.5493
▁kallis	-10.5494
▁nõukogus	-10.5495
▁sõnaga	-10.5495
▁hinnad	-10.5497
suhte	-10.5498
konda	-10.5498
▁saagi	-10.5504
kesk	-10.5504
mini	-10.5511
▁liikmel	-10.5513
nuks	-10.5519
▁maavalitsuste	-10.5519
▁piirata	-10.552
▁riikidest	-10.5522
pensioni	-10.5529
▁koostamise	-10.5532
4%	-10.5537
▁reservi	-10.5538
▁olemus	-10.5547
▁kaasas	-10.5558
▁säilita	-10.5559
▁rahandusministr	-10.5562
▁otsustus	-10.5562
▁toetame	-10.5566
▁kooskõlla	-10.5568
▁seejuures	-10.5568
▁vaade	-10.5574
väe	-10.5575
▁sündmus	-10.5575
▁küsitud	-10.5577
▁võimelised	-10.5577
▁minnakse	-10.5577
▁ülikoolide	-10.5581
▁kümneid	-10.5587
▁78	-10.5594
deelnõu	-10.5596
▁passi	-10.5599
▁nüüdseks	-10.5601
▁7,	-10.5604
▁euroala	-10.5606
▁haldusalas	-10.5609
▁turg	-10.5609
▁haige	-10.5616
▁otsima	-10.5617
▁rääkisid	-10.5618
kuju	-10.562
▁signaali	-10.5625
▁parlamenti	-10.5628
turul	-10.5629
ministeeriumist	-10.563
▁teeninda	-10.563
▁26.	-10.5641
▁tutvu	-10.5643
▁loomine	-10.5645
▁juhuks	-10.5647
▁esitan	-10.5648
▁soe	-10.5649
▁arvutus	-10.5653
▁olime	-10.5655
▁kõigest	-10.5655
▁toodi	-10.5655
▁57	-10.5658
▁kadunud	-10.5662
▁kavandatud	-10.5663
▁poliitiku	-10.567
▁kiir	-10.5671
▁konkursi	-10.5673
▁paiguta	-10.5673
▁täp	-10.568
vedaja	-10.5681
▁küsimustega	-10.5681
▁välju	-10.5685
▁osalus	-10.5685
▁miljardi	-10.5692
▁vaatab	-10.5697
▁kasumi	-10.5698
mihhail	-10.571
▁vaeva	-10.571
isu	-10.5725
▁muuseas	-10.5727
▁kasutus	-10.5727
▁elluviimise	-10.5727
▁needsamad	-10.5727
▁leidma	-10.5727
▁kuritegude	-10.5728
▁otstarbekas	-10.5729
▁erakoolide	-10.5733
▁kohati	-10.574
▁kivi	-10.575
ametnik	-10.575
▁metoodika	-10.5753
▁leitakse	-10.5754
▁sõnavõtt	-10.5754
eli	-10.5756
▁eurost	-10.5765
▁hetk	-10.5767
▁finantseeri	-10.577
▁endine	-10.5771
▁otstarbe	-10.5772
loa	-10.5773
▁kinnitan	-10.5774
▁erivajadusega	-10.578
▁tooni	-10.5782
materjali	-10.5784
▁järgmisena	-10.5787
▁taba	-10.5788
▁valitsemisala	-10.579
kene	-10.5791
võimekus	-10.5792
▁tervik	-10.5793
▁raam	-10.5796
tti	-10.5796
▁õigusliku	-10.5798
püü	-10.58
▁aset	-10.58
▁asjadega	-10.5806
▁aegade	-10.5807
▁ajalugu	-10.5807
▁kuule	-10.581
▁suurendamise	-10.5813
▁avaldanud	-10.5813
aluse	-10.5815
urmas	-10.5816
▁vastuvõtmist	-10.5817
▁õigel	-10.5819
▁31.	-10.582
▁vilja	-10.582
vedu	-10.5822
▁tänapäeval	-10.5826
▁seisus	-10.5829
▁sattu	-10.5832
rosimannus	-10.5834
▁suitseta	-10.5834
▁kiirabi	-10.5835
▁vär	-10.5835
umi	-10.5835
▁majandusliku	-10.5839
▁jõuaks	-10.5839
▁tugevda	-10.5848
▁kauge	-10.5849
▁üksmeel	-10.5849
▁paremad	-10.585
suu	-10.585
▁arutusel	-10.5855
▁noortele	-10.5858
▁6,	-10.586
▁suurel	-10.586
▁kehtestamise	-10.5862
▁mainis	-10.5865
▁väärika	-10.5865
▁riigikohus	-10.5866
olev	-10.5867
▁saja	-10.5876
mehed	-10.588
▁ühinemis	-10.5885
▁kaljuvee	-10.5888
▁väljakutse	-10.5888
▁kütust	-10.5888
▁nõusoleku	-10.5892
▁kommentaari	-10.5893
▁seisa	-10.5895
▁valikuid	-10.5896
majandus	-10.5898
1%	-10.5903
▁loota	-10.5907
kohtade	-10.5907
▁poe	-10.5909
must	-10.5912
%.	-10.5914
▁sõjaväe	-10.5915
▁kajastu	-10.5916
▁tööminister	-10.5921
▁vaheaja	-10.5921
▁muutmiseks	-10.5922
▁eelmisele	-10.5927
▁fraktsioonidel	-10.5932
▁koole	-10.5937
organisatsiooni	-10.5938
rühm	-10.594
▁põhjamaade	-10.5942
▁väljatöötamise	-10.5942
▁notari	-10.5942
▁2008.	-10.5942
▁harju	-10.5947
rea	-10.5948
▁objekti	-10.5948
kra	-10.5957
▁jõ	-10.5959
mehhanismi	-10.5962
▁kohtades	-10.5965
▁täpsustan	-10.5967
kese	-10.5967
▁audit	-10.5971
▁eespool	-10.5973
täht	-10.5975
piirkonna	-10.5983
▁territooriumi	-10.5985
▁maaelukomisjoni	-10.5985
direktor	-10.5986
▁tuhande	-10.5991
▁esindatud	-10.5996
▁vasak	-10.5998
▁tootmis	-10.5998
▁taani	-10.6003
▁tuginedes	-10.6006
▁tahaksime	-10.6007
3%	-10.6008
▁taastada	-10.601
▁õnnestunud	-10.6013
▁kirjalikult	-10.6015
kasutus	-10.6016
▁arvavad	-10.6018
▁kiri	-10.602
kuid	-10.6022
▁nüanss	-10.6024
▁niikuinii	-10.6024
▁kompromissi	-10.6025
▁viitasin	-10.6027
▁kantud	-10.6027
▁poolteist	-10.6028
▁1990	-10.603
▁56	-10.603
▁areng	-10.603
▁politseinik	-10.603
▁selged	-10.6031
panga	-10.6032
ria	-10.6036
projekti	-10.6037
▁28.	-10.6038
henn	-10.6041
▁esitatakse	-10.6042
▁säilitada	-10.6042
▁riigieelarvet	-10.6043
äh	-10.6045
▁eestlaste	-10.6048
▁tulenevad	-10.6049
▁leitud	-10.6051
▁amet	-10.6051
▁kütte	-10.6052
▁mõis	-10.6053
eelarve	-10.6054
▁loome	-10.6054
▁täielik	-10.6055
▁esi	-10.6065
▁menetlusliku	-10.6069
▁võimekust	-10.607
▁katta	-10.6075
▁varu	-10.6078
▁kahtle	-10.6079
▁mudel	-10.6084
▁kuuenda	-10.6085
nõude	-10.6086
▁kumma	-10.6092
hooldus	-10.6093
▁tegeliku	-10.6093
▁elanud	-10.6094
▁keskmisest	-10.6096
▁vaher	-10.6098
võimu	-10.6102
▁päriselt	-10.6103
▁erakordselt	-10.6107
▁pakkumise	-10.6107
▁osapooled	-10.6113
▁võtmise	-10.6116
▁29.	-10.612
▁tänasel	-10.6122
▁ts	-10.6126
▁nimetatakse	-10.6131
▁intervjuu	-10.6134
▁möön	-10.6134
▁luik	-10.6137
alkoholiaktsiisi	-10.6142
liik	-10.6143
poolt	-10.6151
▁tohib	-10.6152
▁paljudele	-10.6156
▁soorita	-10.6163
▁jätab	-10.6164
▁bio	-10.6165
▁raiu	-10.6166
▁76	-10.6168
▁ravimite	-10.617
▁termin	-10.6172
▁lahendamiseks	-10.6174
▁esindajatega	-10.6175
▁vähese	-10.6177
▁korralikult	-10.618
mehe	-10.6181
▁võtate	-10.6181
▁millisel	-10.619
▁kaitset	-10.6192
▁vaese	-10.6196
▁nähakse	-10.6196
▁seletada	-10.6198
▁paistab	-10.6203
▁võrgu	-10.6203
▁kättesaadavus	-10.6206
istu	-10.6207
▁arst	-10.6208
kodu	-10.621
▁kitsa	-10.6213
▁ehitamise	-10.6215
▁emotsioon	-10.6218
▁viidatud	-10.6218
õõ	-10.6219
▁2012	-10.6222
▁koosolekul	-10.6224
mised	-10.6231
vaat	-10.6238
▁eelnevalt	-10.6238
▁vabatahtlikult	-10.6241
keele	-10.6243
▁turvalisus	-10.6249
▁tööpuudus	-10.6249
▁heimar	-10.6251
▁valdavalt	-10.6255
▁osutamise	-10.6256
▁piirdu	-10.6257
kaitseväe	-10.6263
▁rahvale	-10.6265
▁ostu	-10.627
▁teadaolevalt	-10.6274
▁garanteeri	-10.6274
▁osaluse	-10.6275
eerimine	-10.6281
▁institutsioonid	-10.6282
fond	-10.6285
▁panuse	-10.6287
▁võimalikke	-10.629
▁aegadel	-10.6291
▁tutvuda	-10.6293
lises	-10.6293
▁andmine	-10.6294
▁lae	-10.6294
▁toode	-10.6298
▁erapooletu	-10.6299
▁kiida	-10.6303
▁soojus	-10.6303
▁ausad	-10.6303
andja	-10.6306
▁tegelikkuses	-10.6306
▁järgmiseks	-10.6309
▁kuulates	-10.6312
▁jõudma	-10.6313
▁teinekord	-10.6317
▁kodakondsust	-10.6318
▁ministeeriumid	-10.6324
▁korraks	-10.6324
▁usku	-10.6324
ndeid	-10.6327
▁68	-10.6328
▁vastuseks	-10.6329
▁sis	-10.633
▁lembit	-10.633
▁uurida	-10.6331
▁kompetentsi	-10.6331
kohti	-10.6333
seda	-10.6335
▁hel	-10.6341
▁suurendamine	-10.6345
tunde	-10.6351
▁tõsist	-10.6356
▁konkureeri	-10.6359
▁saamata	-10.636
▁arutlusel	-10.6363
▁viima	-10.6365
valitsus	-10.6365
▁opositsioon	-10.6369
▁tegevusi	-10.6376
▁ettevalmista	-10.6378
▁toreda	-10.6381
▁põhimõtet	-10.6381
▁sissetulek	-10.6384
▁puudujääk	-10.6387
▁delegatsiooni	-10.6387
▁vangi	-10.6389
▁rõõmu	-10.6391
tavalt	-10.6395
mur	-10.6398
korras	-10.6401
▁poliitilised	-10.6408
▁apteegi	-10.641
▁täpsema	-10.641
▁tingimuste	-10.6414
▁täidab	-10.6415
▁olukorrast	-10.6415
▁72	-10.642
▁pakkus	-10.6421
▁kogemuse	-10.6421
▁ministrit	-10.6422
▁vastusest	-10.6427
▁arutluse	-10.6428
▁kohustuslik	-10.6429
▁vähendamine	-10.6431
pere	-10.6433
laenu	-10.644
50	-10.6442
marti	-10.6443
▁ohvri	-10.6444
▁ääretult	-10.6444
▁tähtaega	-10.6444
▁ettekannet	-10.6444
▁tükk	-10.6445
▁eldar	-10.6447
▁vabatahtlik	-10.6448
ah	-10.6449
▁kasutan	-10.6452
turgu	-10.6454
rvishoiuteenuste	-10.6461
▁pöördunud	-10.6464
▁punktis	-10.6465
▁tasakaal	-10.6467
▁aaviksoo	-10.6473
▁võtsid	-10.6473
▁kena	-10.6474
pidamine	-10.6476
▁kõrvalda	-10.6478
▁riiklike	-10.6479
koalitsioon	-10.6482
▁laevade	-10.6483
▁kolmapäeva	-10.6486
▁eakate	-10.6492
▁opositsioonis	-10.6492
!""	-10.6499
▁kokkuleppele	-10.6502
▁lõpetanud	-10.6503
▁lahuta	-10.6504
▁tulud	-10.6505
poliitilise	-10.6511
▁sattunud	-10.6515
▁hange	-10.6515
võrk	-10.6516
▁võimul	-10.6518
▁rahastamist	-10.6519
▁tingimusi	-10.6522
▁bürokraatia	-10.6522
sotsiaalminister	-10.6528
▁tegelikku	-10.6529
▁heakskiit	-10.653
▁randjärv	-10.653
▁objektiivse	-10.6531
▁hullem	-10.6531
▁tugispetsialist	-10.6531
▁praktikat	-10.6535
▁institutsioon	-10.6545
toetused	-10.6547
▁tegutsevad	-10.6548
suguse	-10.6549
▁kellest	-10.6551
▁sobiva	-10.6553
▁kaugemale	-10.6555
▁erakooli	-10.6558
▁märkimisväärne	-10.6559
▁hakati	-10.6559
▁narko	-10.6559
põlve	-10.656
▁seisneb	-10.6561
ühenduse	-10.6567
siin	-10.6569
organ	-10.6581
▁valimiskomisjon	-10.6581
▁fraktsioonid	-10.6584
▁17.15	-10.6584
tamisega	-10.6588
▁kliendi	-10.6588
▁norra	-10.6588
▁täpsustus	-10.6588
▁häälet	-10.659
▁potentsiaalse	-10.6592
▁kla	-10.6597
vahetuse	-10.6599
vool	-10.6599
▁sõnastuse	-10.6599
▁karda	-10.6599
▁täpne	-10.66
▁nädalat	-10.6602
▁for	-10.6603
▁lubadus	-10.6603
▁sõlmida	-10.6607
tarbija	-10.6608
▁ühinemise	-10.6615
▁tuule	-10.6615
▁armasta	-10.6618
õigust	-10.6621
oko	-10.6622
jõu	-10.6624
▁mahtu	-10.6626
▁makstud	-10.6631
viis	-10.6636
▁täiendada	-10.6639
eelne	-10.6639
▁reegleid	-10.664
hääl	-10.6644
tulumaksuseaduse	-10.6646
▁paragrahv	-10.6646
▁küsitlus	-10.6648
▁märgata	-10.6649
lehe	-10.6655
▁pettu	-10.6655
▁garantii	-10.6655
▁tallinn	-10.6656
▁67	-10.6658
▁top	-10.6665
▁rootsis	-10.6666
valimiste	-10.6668
käigu	-10.6668
▁teenida	-10.6672
külg	-10.6675
▁defineeri	-10.6676
▁ennusta	-10.6677
▁targa	-10.6678
▁liisa	-10.6679
▁100%	-10.6683
▁professor	-10.6686
ekspert	-10.6689
▁eeldada	-10.669
poliitikas	-10.6691
▁saadakse	-10.6694
kaudu	-10.6697
jaak	-10.6698
▁arenenud	-10.6698
ismi	-10.6701
▁leiavad	-10.6703
▁lootust	-10.6705
▁sektor	-10.6705
▁võimalikku	-10.6705
▁võtke	-10.6705
▁kohtuotsus	-10.6706
▁taristuminister	-10.6706
▁majas	-10.6708
▁allkirjasta	-10.6708
▁väärtuse	-10.6713
▁62	-10.6718
▁arvuti	-10.6719
▁täie	-10.672
▁põhimõtted	-10.6727
▁rikkumise	-10.6728
nnu	-10.6732
▁150	-10.6733
reet	-10.6734
▁suurbritannia	-10.6734
▁probleemiga	-10.6737
▁kilomeetrit	-10.6738
▁vaesuse	-10.6739
▁sä	-10.674
▁rahvusvahelist	-10.6741
▁loll	-10.6742
▁nurga	-10.6745
▁loobuda	-10.6746
▁halba	-10.6748
▁eluaasta	-10.6749
kulusid	-10.6751
▁võimeline	-10.6756
▁laekub	-10.6762
▁koolilõuna	-10.6764
partneri	-10.6764
2%	-10.6765
▁vahend	-10.6766
▁keskkonnatasude	-10.6766
missioonil	-10.6767
mon	-10.6775
▁püüab	-10.6779
▁vajaduspõhise	-10.6783
▁piirang	-10.6786
▁tooma	-10.6786
info	-10.6787
▁näitas	-10.6787
▁skeemi	-10.6787
▁väljaõppe	-10.6789
▁küsime	-10.6789
valeri	-10.6791
▁palume	-10.6793
▁mingisugused	-10.6793
▁patsiendi	-10.6793
▁hinge	-10.6794
▁märkimisväärse	-10.6794
▁ester	-10.6794
▁linnapea	-10.6797
▁paindlikkus	-10.6797
▁tugevama	-10.6802
▁tööturu	-10.6803
▁väärt	-10.6804
▁lähen	-10.6804
▁58	-10.6806
aste	-10.6814
õhu	-10.6818
▁tingimustel	-10.6823
▁valitsuskabinet	-10.6823
▁muutnud	-10.6824
▁spetsialistide	-10.6826
▁kra	-10.6827
▁lähemal	-10.6831
▁missioonil	-10.6835
▁kavatseb	-10.6837
▁uuringud	-10.6841
▁töötajad	-10.6841
▁tööga	-10.6844
▁avaldada	-10.6846
kriteerium	-10.6847
▁arutatakse	-10.685
▁eelmiste	-10.685
▁maksusüsteemi	-10.6852
▁kruusimäe	-10.6853
▁umbusaldus	-10.6853
▁tuntud	-10.6853
▁seletuskirjast	-10.6856
▁kol	-10.6857
▁professionaalse	-10.6858
▁aafrika	-10.6865
▁objekt	-10.6868
toodangu	-10.687
▁pöördumise	-10.6871
▁osalemise	-10.6872
auk	-10.6873
▁sõnade	-10.6873
jüri	-10.6876
▁osakaalu	-10.6883
▁leppe	-10.6888
▁eraldada	-10.689
▁töökoha	-10.6894
▁tulumaks	-10.6896
ndust	-10.6901
▁pakutakse	-10.6902
▁vastav	-10.6904
vabariigi	-10.6908
▁selget	-10.6909
▁24.	-10.691
▁järje	-10.6912
▁itaalia	-10.6913
▁seletuskiri	-10.6913
▁vaimu	-10.6913
▁hävita	-10.6913
▁kompensatsiooni	-10.6913
▁ajakirjandus	-10.6916
▁maksuameti	-10.6919
aator	-10.6924
otsi	-10.6928
▁ootavad	-10.6929
▁temaga	-10.693
▁seisma	-10.6931
▁poliitiliselt	-10.6932
▁riske	-10.6934
▁partnerite	-10.6936
▁täiendamise	-10.6936
▁palgalõhe	-10.6943
▁elektriaktsiisi	-10.6943
▁leiti	-10.6944
▁algul	-10.6945
▁tõniste	-10.6954
▁tänases	-10.6957
▁järjekord	-10.696
▁majandamise	-10.6966
▁märk	-10.6968
▁suveräänsus	-10.6973
▁polnud	-10.6973
▁pra	-10.6974
▁kuulsin	-10.6978
▁kättesaadavuse	-10.6978
▁ajaga	-10.6979
▁lood	-10.6981
▁helir	-10.6984
▁staatuse	-10.6988
▁käsitleva	-10.6988
▁meri	-10.699
tööstuse	-10.6995
▁jõutud	-10.6996
nagu	-10.7
▁otsustama	-10.7002
▁piiranguid	-10.7003
▁infrastruktuuri	-10.7008
▁prokuratuur	-10.7016
▁täitnud	-10.7018
▁vajalikku	-10.702
▁kiita	-10.7023
▁61	-10.7023
▁vassiljevi	-10.7024
▁turvalisuse	-10.703
pärane	-10.7032
▁häbi	-10.7034
teenuseid	-10.7041
▁vaadatakse	-10.7044
▁kinnitamise	-10.7045
▁muutuma	-10.7046
▁omad	-10.7048
▁mäletate	-10.7048
▁printsiibi	-10.7048
▁ajaloolise	-10.7055
▁maakonnas	-10.7056
investeeringute	-10.7059
▁algatuse	-10.7059
oomi	-10.7062
▁assamblee	-10.7064
▁argumendid	-10.7064
▁grupp	-10.7065
paiga	-10.7066
▁kiit	-10.7066
▁suurenenud	-10.7066
ärme	-10.7068
▁estonian	-10.7069
▁positiivset	-10.708
▁jõuliselt	-10.7081
▁merendus	-10.7086
8%	-10.7088
▁meetodi	-10.7094
▁vähemasti	-10.7094
▁soovinud	-10.7095
▁avalike	-10.7095
▁jõuavad	-10.7096
▁asjaolude	-10.7098
▁hoiu	-10.7098
▁esimehena	-10.71
▁riigisisese	-10.7101
▁perspektiivi	-10.7101
▁pensionile	-10.7107
kande	-10.7107
▁kõnealu	-10.7107
▁kiirema	-10.711
▁tarbimine	-10.7115
▁efektiivse	-10.7117
▁pikem	-10.7118
▁riigist	-10.7118
▁tehnilist	-10.7125
▁teadmiste	-10.7126
▁jooksva	-10.713
▁saladus	-10.714
▁piires	-10.7142
▁veo	-10.7144
▁arutelusid	-10.7145
▁kümneminutili	-10.7156
▁esimesena	-10.7156
▁õlle	-10.7156
▁suurepärane	-10.7158
▁ülimalt	-10.7158
▁peast	-10.716
▁nimetamine	-10.7161
▁71	-10.7163
▁täiendus	-10.7169
▁kehtestatakse	-10.7174
tunnistus	-10.7176
▁esitamist	-10.7177
▁olga	-10.7178
▁arvestatakse	-10.7179
▁jätkusuutlikkus	-10.7183
salvestis	-10.7186
▁kokkuvõttes	-10.7188
▁kriteeriumid	-10.7194
huvi	-10.7195
▁venemaal	-10.7197
▁meenu	-10.7197
▁trend	-10.7202
▁ressursside	-10.721
▁ametlik	-10.7212
kuna	-10.7213
▁pädeva	-10.7214
▁parts	-10.7215
▁eilse	-10.7216
ndab	-10.7217
▁liid	-10.7222
▁ain	-10.7228
▁79	-10.7229
▁ühed	-10.723
har	-10.7234
▁arusaamatuks	-10.7235
▁kahtlust	-10.7238
▁tarbijate	-10.7239
monika	-10.7245
▁kindlad	-10.7247
▁tekitas	-10.7247
▁rehabilit	-10.7248
▁veendumus	-10.7248
▁liikumine	-10.7249
▁tühista	-10.7255
▁määramise	-10.726
▁vorm	-10.7268
tute	-10.7271
kompetents	-10.7275
▁madal	-10.7277
▁kulutada	-10.7278
▁kujuneb	-10.7279
▁muusika	-10.728
staa	-10.7281
▁numbri	-10.7281
▁töökohad	-10.7282
▁meeles	-10.7283
▁töötavate	-10.7292
vastus	-10.7296
võistlus	-10.73
▁maksupoliitika	-10.7302
▁langetamise	-10.7308
▁77	-10.7309
▁lutsepp	-10.731
▁nutt	-10.7312
▁emakeele	-10.7313
ekaitseakadeemia	-10.7315
▁tamme	-10.7317
▁kotka	-10.7322
▁summasid	-10.7325
▁kohalikul	-10.7326
▁vaatate	-10.7334
▁haldusreform	-10.7339
järelevalve	-10.7339
kaardi	-10.7339
▁ase	-10.7339
▁peagi	-10.734
▁viisa	-10.7341
▁kaskpeit	-10.7342
▁rahvaesindajad	-10.7342
▁sarapuu	-10.7342
järgmise	-10.7342
▁lubaduse	-10.7345
▁mets	-10.7346
▁päästjate	-10.7347
hind	-10.7348
▁nimetus	-10.7354
▁tingimus	-10.7357
▁arutelud	-10.736
▁protseduur	-10.7361
▁ansip	-10.7362
▁esimesed	-10.7364
▁kogemusi	-10.7367
operatsioon	-10.7368
välja	-10.7371
▁hektari	-10.7373
▁muus	-10.7373
▁sissejuhatuse	-10.7373
▁tehke	-10.7374
▁missioon	-10.7378
▁korbi	-10.7383
▁tugevalt	-10.7384
▁märki	-10.739
▁lahkunud	-10.739
▁lubas	-10.739
▁lahendama	-10.7391
▁tööturul	-10.7391
▁variandi	-10.7394
▁uuringuid	-10.7398
vahendeid	-10.7402
▁63	-10.7403
▁vägivald	-10.7404
▁konkurss	-10.7405
▁juhid	-10.7405
lapse	-10.7408
▁laasi	-10.7409
▁odavam	-10.7409
▁olukorraga	-10.7411
▁raamatupidamis	-10.7412
▁tundus	-10.7412
▁tõuse	-10.7412
▁sõiduki	-10.7418
▁maavanema	-10.742
▁vaesuses	-10.742
▁grupi	-10.7423
▁detailide	-10.7424
▁tunnevad	-10.7434
▁keskmist	-10.7435
▁ministril	-10.7436
▁keit	-10.7436
▁pulti	-10.7437
▁lubab	-10.7444
seisundi	-10.7444
▁salaja	-10.7444
▁maksumaksjate	-10.7446
kriisi	-10.7446
▁pensionide	-10.7447
▁suhted	-10.745
▁uurimiskomisjon	-10.745
▁omavalitsust	-10.7454
▁sõbrad	-10.7457
▁lõpetuseks	-10.746
▁kaia	-10.7462
▁paigas	-10.7463
▁keerulisem	-10.7464
▁vaidlusta	-10.7465
▁üleüldse	-10.7468
▁vanemahüvitise	-10.7468
▁vähemaks	-10.7468
▁ajakirjanduses	-10.7469
▁langus	-10.7472
▁paluda	-10.7474
▁omavalitsusel	-10.7477
koda	-10.748
▁koostamisel	-10.7483
aastaste	-10.7486
▁kriis	-10.7487
▁600	-10.749
▁liikmesriik	-10.7493
rik	-10.7493
▁kohtutäituri	-10.7499
▁maruste	-10.75
▁teoreetiliselt	-10.7502
kõne	-10.7505
▁üliõpilas	-10.7505
▁kohustusliku	-10.7507
▁mõtted	-10.751
▁õli	-10.7511
▁kõigis	-10.7513
meelsus	-10.7517
▁uuring	-10.7518
teenus	-10.7519
▁kerki	-10.7519
▁loomade	-10.7521
pension	-10.7522
▁vahetu	-10.7524
▁lahus	-10.7524
▁euroga	-10.7526
▁emotsionaalse	-10.7531
olümpia	-10.7531
▁pealinna	-10.7535
▁ratifitseerimis	-10.7536
▁sätte	-10.7541
kiri	-10.7544
▁simsoni	-10.7544
▁kõlab	-10.7547
partner	-10.7549
▁plaanid	-10.7551
▁haridussüsteemi	-10.7551
▁lükatud	-10.7563
▁varju	-10.7563
▁kivimägi	-10.7563
▁elamisluba	-10.7563
▁igaks	-10.7565
▁tulemas	-10.7566
▁27.	-10.7567
▁piiride	-10.757
▁karistuse	-10.757
▁suudaks	-10.757
▁taju	-10.7573
riski	-10.7577
▁innovatsiooni	-10.7581
korda	-10.759
vabaduse	-10.7593
▁kutseharidus	-10.7595
▁valdade	-10.7596
▁mehi	-10.76
hoidu	-10.76
▁ausa	-10.76
▁oluliste	-10.7601
▁hääletamisele	-10.7605
väli	-10.7609
▁andsid	-10.761
ron	-10.7615
▁niisuguseid	-10.7615
tulemus	-10.7618
▁täiskasvanu	-10.7618
▁tervist	-10.7618
õiguslik	-10.7619
▁vabalt	-10.762
▁menetlusest	-10.7625
▁hallemaa	-10.7627
▁lähiaastatel	-10.7627
▁kirjutas	-10.7632
▁kummaline	-10.7632
▁riigikeel	-10.7634
▁ühistu	-10.764
▁muudatusega	-10.7641
▁muutuda	-10.7644
▁kuuluva	-10.7647
▁tegevuste	-10.765
▁majandusele	-10.765
▁nendesse	-10.7651
▁kogukond	-10.7652
▁väljendanud	-10.7654
säili	-10.7657
▁ehkki	-10.7659
▁esialgse	-10.766
▁pakkuma	-10.766
▁igapäevase	-10.766
▁demokraatlik	-10.7661
▁seista	-10.7667
▁66	-10.7667
õigusliku	-10.7671
▁vigu	-10.7673
▁leevenda	-10.7674
▁kaetud	-10.7677
▁liiguvad	-10.7678
▁käsitlus	-10.7678
▁kanali	-10.7681
0%	-10.7686
▁büroo	-10.7687
▁käitumine	-10.7687
▁kriitikat	-10.7687
▁anta	-10.769
▁tingimata	-10.7692
▁valdkondade	-10.7692
▁arstiabi	-10.7693
▁moodustab	-10.7698
▁kitsas	-10.7698
tähe	-10.7701
▁piirikaubandus	-10.7705
▁hõlma	-10.7705
▁liikumise	-10.7708
piirangu	-10.7711
▁apteek	-10.7714
▁uues	-10.7714
▁juuli	-10.7716
▁puuduvad	-10.7717
selge	-10.7718
▁toimimise	-10.7719
▁piirangute	-10.7721
▁riive	-10.7725
▁püüda	-10.7727
linna	-10.7727
▁võitlus	-10.7729
▁majanduslikult	-10.7738
liin	-10.774
▁sõltuvus	-10.774
▁õhtul	-10.7742
▁akti	-10.7743
▁selliseks	-10.7747
▁sõnasta	-10.7751
kindlustus	-10.7752
▁riigimetsa	-10.7757
▁seitsmenda	-10.7761
▁kvaliteeti	-10.7762
▁aspekt	-10.7763
käivitu	-10.7763
kalle	-10.7764
hoone	-10.7769
▁kohad	-10.777
▁reguleerib	-10.7773
jon	-10.7773
▁praktiliselt	-10.7773
▁jätkab	-10.778
▁lapsetoetuse	-10.7781
muuseum	-10.7782
▁kabineti	-10.7783
meelse	-10.7784
▁põllumehed	-10.7786
▁riskid	-10.7789
▁maailmavaate	-10.779
▁käituda	-10.7798
▁uskuge	-10.7803
▁eksisteeri	-10.7805
▁tolli	-10.781
▁tegutseb	-10.7811
justiitsministri	-10.7812
▁piirikaubanduse	-10.7813
▁mehe	-10.7817
▁rakendamine	-10.7821
utus	-10.7821
▁naabri	-10.7823
▁asjakohane	-10.7825
andmise	-10.7831
▁pooleli	-10.7833
▁kohtunik	-10.7839
▁kehtinud	-10.7845
▁imelik	-10.785
parlamendiliikme	-10.7852
▁milling	-10.7856
▁enamus	-10.7857
▁ootama	-10.7858
▁jookse	-10.786
▁keera	-10.7861
stumise	-10.7866
▁mugav	-10.7867
▁menetlemine	-10.7867
▁märka	-10.7872
▁autode	-10.7875
▁õigusaktide	-10.7878
puude	-10.7878
kasvataja	-10.7879
▁asunud	-10.7881
▁pinna	-10.7886
▁hinnaga	-10.7887
▁türgi	-10.7888
▁kiirusta	-10.789
tajate	-10.7898
▁mehhanism	-10.7908
▁märgitud	-10.7909
▁pangad	-10.7915
▁sõnavõtus	-10.7918
▁saavutatud	-10.7918
▁strateegilise	-10.7921
▁vaadatud	-10.7921
▁numbrid	-10.7922
▁pressi	-10.7923
toetusi	-10.7935
▁pädevuses	-10.7936
▁kasvatada	-10.7939
▁kulub	-10.7941
tingimuste	-10.7942
▁kinnitab	-10.7946
▁õigem	-10.7949
▁hääli	-10.7953
▁hiina	-10.7955
õnnetus	-10.7958
▁leedus	-10.796
fa	-10.7961
▁punktide	-10.7967
▁infotehnoloogia	-10.7968
▁tunnustus	-10.7969
siseministeerium	-10.7973
soodustus	-10.7973
▁hullu	-10.7975
▁korralik	-10.7978
▁riiva	-10.7988
▁neljandaks	-10.7989
▁kohtlemise	-10.799
▁kotkas	-10.799
▁liikmesriigid	-10.7991
lisse	-10.7992
▁töötajaid	-10.7993
▁järgneva	-10.7996
▁isikuid	-10.7997
soovi	-10.7998
kompleks	-10.7999
▁eesmärgiks	-10.8015
hasartmängumaksu	-10.8015
▁tempo	-10.8017
▁renoveeri	-10.8021
tajad	-10.8023
koostöö	-10.8025
kõigepealt	-10.8025
▁krediidi	-10.8026
▁riiklikult	-10.8028
▁rahvasaadikud	-10.8034
▁vaidlusi	-10.8034
▁pevkuri	-10.8034
▁praktilise	-10.8038
sõidu	-10.8039
▁tühi	-10.8041
▁tavapärase	-10.8044
▁õiguskomisjonis	-10.8049
alase	-10.805
▁intensiiv	-10.8055
▁mikko	-10.8055
▁optimistlik	-10.8055
▁ilusasti	-10.8059
deklaratsiooni	-10.806
nar	-10.8061
kom	-10.8064
▁võru	-10.8064
▁kõrva	-10.8067
▁menetlust	-10.8069
pood	-10.8075
▁aktsiisitõusu	-10.8082
▁äär	-10.8084
süsteemis	-10.8086
ringi	-10.8087
▁alaealiste	-10.8089
▁muinsuskaitse	-10.8089
▁efsf	-10.8089
▁järjekorras	-10.8089
▁täitsa	-10.8091
▁millegi	-10.8091
toiming	-10.8091
▁niisugused	-10.8092
büroo	-10.8094
kanali	-10.8095
▁ressurssi	-10.8097
▁käitumise	-10.8097
▁massi	-10.8102
▁põhimõttelise	-10.8105
masina	-10.8108
▁algas	-10.8113
▁seadustes	-10.8115
▁algatab	-10.8116
▁vahetult	-10.8117
▁koordineeri	-10.8122
▁ühesõnaga	-10.8123
▁küsitakse	-10.8124
▁lubage	-10.8129
▁lepingute	-10.8136
▁teatri	-10.8138
aluste	-10.8139
▁töörühma	-10.814
▁mõistetav	-10.8145
▁väl	-10.815
▁arvad	-10.8153
▁südametunnistus	-10.8157
▁õnnetus	-10.8157
poliitiline	-10.8162
▁rahaline	-10.8162
▁rannar	-10.8162
▁sellisest	-10.8163
▁elava	-10.8165
▁hinnanguid	-10.8172
▁juhtumite	-10.8173
▁tahaksid	-10.8175
ndamine	-10.8177
▁maailm	-10.8179
turg	-10.8182
järgu	-10.8184
▁kersna	-10.819
▁halvene	-10.819
▁nagunii	-10.8192
▁looduse	-10.8193
▁omavalitsustega	-10.8194
▁tunde	-10.8196
▁näited	-10.8196
▁lapsega	-10.8197
▁tunneta	-10.8203
▁välisministri	-10.8203
▁kuku	-10.8206
▁kinnistu	-10.8207
▁andes	-10.8209
vormi	-10.821
▁ametniku	-10.8214
▁arno	-10.8218
▁tallinnast	-10.8222
▁tulene	-10.8224
▁diskuteeri	-10.8225
▁sarnane	-10.8225
▁veterinaar	-10.8225
▁imf	-10.8225
tootja	-10.8225
▁lähtuma	-10.8226
▁keelusta	-10.8228
euro	-10.823
▁par	-10.8236
▁25%	-10.8236
▁looda	-10.8236
▁liitlaste	-10.8241
▁asuda	-10.8242
▁tulemust	-10.8243
▁summat	-10.8247
▁mispärast	-10.8247
üks	-10.825
▁tähendaks	-10.8254
▁tonni	-10.8259
▁enamikus	-10.826
▁juur	-10.8261
▁keerulis	-10.8262
▁moodustada	-10.8263
▁osalise	-10.8263
töid	-10.8267
▁valinud	-10.8267
▁osutada	-10.8277
▁73	-10.828
▁soolise	-10.8281
▁saadiku	-10.8291
▁hispaania	-10.8293
▁kõnepuldis	-10.8293
▁küber	-10.8293
▁üksikisiku	-10.8293
▁üleskutse	-10.8293
▁2007.	-10.8294
viru	-10.8295
▁kolmel	-10.8295
▁ühtemoodi	-10.8297
▁paljuski	-10.8299
▁tagamise	-10.8301
eestis	-10.8301
▁vähenemise	-10.8302
▁astunud	-10.8302
▁teadmine	-10.8307
▁väidet	-10.831
▁kuues	-10.8313
▁mikrofoni	-10.832
▁adekvaatse	-10.8328
▁asespiiker	-10.8328
▁motivatsiooni	-10.8328
▁ütelda	-10.8328
▁aidanud	-10.8328
▁majanda	-10.8331
▁hüvitist	-10.8332
▁teadlikult	-10.8333
▁õpetajaid	-10.8337
▁jo	-10.8338
▁toomi	-10.8343
▁kodanikuühiskon	-10.8346
▁põllu	-10.8352
lisest	-10.8358
▁mujalt	-10.8359
▁kodukorra	-10.836
▁tööhõive	-10.8362
▁töötamise	-10.8362
kaalu	-10.8364
▁huvigruppide	-10.8364
▁tagamiseks	-10.8366
▁kohustatud	-10.8369
▁koosneb	-10.8371
▁võõra	-10.8372
▁võimekuse	-10.8376
▁kahest	-10.8379
▁numbrit	-10.8384
▁väikest	-10.8386
▁nõua	-10.8386
▁katsu	-10.8387
küsimuste	-10.8387
küsimuse	-10.8387
▁piisab	-10.8389
▁väärtuste	-10.8393
missiooni	-10.8395
sigaret	-10.8397
töötamiskavatsus	-10.8397
▁kantsler	-10.8397
▁targem	-10.8397
▁täpsustuse	-10.8397
▁varianti	-10.84
▁kalvi	-10.84
▁tegeldakse	-10.84
faasis	-10.8401
▁tekitatud	-10.8402
▁partsi	-10.8403
▁selguse	-10.8403
▁sotsiaaltöötaja	-10.8403
▁avaldas	-10.8404
▁konkurents	-10.8405
kursus	-10.8407
▁imesta	-10.8414
▁planeerimis	-10.8415
▁väiksemate	-10.8415
▁tegija	-10.8416
▁lõhe	-10.8419
vahelise	-10.8422
▁herkeli	-10.8423
▁õigusriigi	-10.8425
▁ülevaadet	-10.8426
▁tegelenud	-10.843
▁sätted	-10.843
▁statistili	-10.8432
▁nimekiri	-10.8433
▁suurust	-10.8433
politsei	-10.8437
▁bürokraatiat	-10.8438
▁sadu	-10.8443
▁juhitud	-10.8447
▁kehva	-10.8448
▁häält	-10.8453
▁ühtne	-10.8454
▁suurim	-10.8454
▁kvoodi	-10.8456
▁tasandi	-10.8459
▁halvema	-10.846
▁sisust	-10.8461
asjade	-10.8463
▁tähista	-10.8467
▁pähe	-10.8467
▁seire	-10.8467
▁asuva	-10.847
tarbe	-10.847
▁rahalist	-10.8471
praktika	-10.8475
▁lõikes	-10.8476
▁alkohol	-10.8485
▁kaaluka	-10.8486
▁asuvad	-10.8488
▁nõ	-10.8491
▁suuremaks	-10.8492
potentsiaal	-10.8497
▁võrdsed	-10.8502
▁tõstetakse	-10.8502
▁kaitseväelaste	-10.8505
▁74	-10.8507
▁analüüse	-10.8516
julgeolek	-10.8517
▁osutaja	-10.8518
▁põhimõtteid	-10.8519
▁analoog	-10.852
▁võrdle	-10.8522
▁süsteemis	-10.8523
▁välistada	-10.8525
▁tulevik	-10.8525
▁seisukohale	-10.8528
kandja	-10.8531
sõdur	-10.8535
▁märkis	-10.8536
▁seksuaal	-10.8537
▁tegelnud	-10.8537
▁solva	-10.8537
▁keha	-10.8538
▁lasteaiaõpetaja	-10.8538
▁korrakaitse	-10.8543
▁rõõm	-10.8543
▁tihe	-10.8545
▁pakett	-10.8545
kandidaat	-10.8546
▁mõtlesin	-10.8548
▁koolituse	-10.8554
▁asjaomase	-10.8555
▁saadi	-10.8555
▁valitsusliikme	-10.8556
vahend	-10.8556
▁seost	-10.8559
▁vähenemine	-10.8562
▁organi	-10.8567
▁muutuks	-10.8571
▁vastuvõtmiseks	-10.8572
▁gruusia	-10.8572
▁rohelise	-10.8572
▁kättesaadavad	-10.8574
resident	-10.858
▁staatus	-10.8581
▁raport	-10.8583
▁lepingut	-10.8583
▁otsustatud	-10.8584
▁mõnele	-10.8587
põhiselt	-10.8597
▁kokkulepet	-10.8599
▁pered	-10.8606
▁aitama	-10.8606
▁marrandi	-10.8608
▁retoorika	-10.8608
▁nägema	-10.8608
▁parandamiseks	-10.8608
▁tudeng	-10.8608
▁töövõimereformi	-10.8609
▁tootlikkus	-10.8609
▁sissemakse	-10.861
▁kaitsma	-10.861
▁kasvama	-10.8612
▁kehtetuks	-10.8615
▁rühma	-10.8616
hoo	-10.8617
▁rõhutanud	-10.862
ette	-10.862
▁kardan	-10.862
▁reede	-10.8621
▁põhimõttest	-10.8623
▁juhib	-10.8624
gümnaasium	-10.8628
▁argumente	-10.8629
sada	-10.8631
▁valdkondi	-10.8633
kesi	-10.8635
▁elame	-10.8636
▁moodustavad	-10.8636
▁asutused	-10.8636
täna	-10.864
▁igasuguste	-10.8643
▁negatiivne	-10.8643
▁finantseerimis	-10.8649
▁seo	-10.865
▁sugu	-10.8652
▁esitasime	-10.8652
▁otsustamise	-10.8662
▁mõõt	-10.8664
▁venemaaga	-10.8665
▁edukalt	-10.867
▁kasvatamise	-10.867
▁viimast	-10.867
▁analüüsinud	-10.8672
▁komp	-10.8673
▁sisaldu	-10.8674
▁hääletamist	-10.8677
▁rahastamis	-10.8678
▁jms	-10.8679
▁üheskoos	-10.8679
▁väidetavalt	-10.868
▁vestlus	-10.868
▁hoidmise	-10.8682
▁maaeluminister	-10.8683
▁otsustasime	-10.8688
ndla	-10.869
▁korter	-10.8693
▁puhta	-10.8698
▁kohalikku	-10.8705
▁madalam	-10.8711
▁pidu	-10.8714
▁asekantsler	-10.8715
▁mobiil	-10.8715
sektor	-10.8715
võtmist	-10.8717
ühe	-10.8721
▁lõppes	-10.8725
▁30%	-10.8727
kodanik	-10.8728
▁juhtimisel	-10.8733
juhtumi	-10.8736
▁kohtunud	-10.8743
▁väe	-10.8743
▁laias	-10.8748
▁tõkestamise	-10.8751
▁börsi	-10.8751
▁läbipaistva	-10.8751
▁59	-10.8756
▁60%	-10.8757
▁sooja	-10.8758
▁täpset	-10.8762
▁detailse	-10.8762
nõuete	-10.8766
joone	-10.8766
▁tegite	-10.8767
▁riigilt	-10.8768
▁tehnika	-10.877
▁visa	-10.8772
▁olemasolevate	-10.8773
▁mandaat	-10.8773
▁haru	-10.8777
▁metsoja	-10.8787
▁õiglus	-10.8787
▁hoolitse	-10.8787
▁nõrk	-10.8789
olen	-10.8792
▁hoolda	-10.8793
▁hindama	-10.8794
▁maksimaalselt	-10.8796
▁kuulasin	-10.88
▁energiat	-10.8805
▁tulusid	-10.8811
▁peretoetuste	-10.8813
▁laekuva	-10.8813
▁tavalise	-10.8814
▁arusaadava	-10.8814
▁lõpetamise	-10.8821
▁taotleja	-10.8823
▁kombel	-10.8823
▁saavutanud	-10.8824
klubi	-10.8824
▁välismaalaste	-10.8824
▁seltsi	-10.8824
▁puidu	-10.8824
▁saadetud	-10.8824
▁repsi	-10.8825
▁40%	-10.8832
▁kahjulik	-10.8833
alustame	-10.8836
sõja	-10.8837
▁hääletustulemus	-10.8844
▁3%	-10.885
▁jätame	-10.8851
▁ebaseadusliku	-10.8854
▁töökohta	-10.8854
▁panustama	-10.8856
graafik	-10.8858
▁vähemus	-10.8858
▁muudatustega	-10.8859
▁etapi	-10.8859
▁kindlustunne	-10.886
▁konkurentsiamet	-10.8861
▁kulutuste	-10.8864
▁väitis	-10.8864
transport	-10.8866
firmade	-10.8867
▁materjali	-10.8867
▁kollektiivse	-10.8876
▁arvamused	-10.8881
▁piirilepingu	-10.8885
▁ostma	-10.8896
▁vladimir	-10.8896
▁haaku	-10.8896
▁keskpanga	-10.8898
▁sellisele	-10.8899
▁põllumeestele	-10.8899
▁tunnen	-10.8899
materjal	-10.8902
▁valitsussektori	-10.8904
▁fikseeritud	-10.8907
eksami	-10.8913
lastele	-10.8914
▁käitumist	-10.8914
prokurör	-10.8916
▁eestlased	-10.8918
▁standardi	-10.8918
▁tehtava	-10.8923
▁koguda	-10.8926
▁tsiteerin	-10.8928
raamatu	-10.893
ühing	-10.8931
▁kersti	-10.8933
▁võtsime	-10.8933
▁nähtus	-10.8933
▁tunnustada	-10.8935
▁piltlikult	-10.8935
▁raie	-10.8937
▁allapoole	-10.8939
▁kestnud	-10.8941
▁laul	-10.8943
▁tulevase	-10.8947
kohta	-10.8949
▁nimetas	-10.895
▁lisan	-10.8954
▁turvalise	-10.8954
ettevõte	-10.8958
▁põhjuseks	-10.8959
▁valmistatud	-10.896
▁tõu	-10.8962
▁mõõde	-10.897
▁olukordi	-10.897
▁liial	-10.8974
▁saatnud	-10.8974
▁lihtsama	-10.8979
▁väitnud	-10.898
▁esimeseks	-10.8982
▁korja	-10.8986
▁rait	-10.8986
▁sisaldab	-10.8987
ring	-10.8987
valdkond	-10.8991
virumaale	-10.8992
▁tasuks	-10.8996
▁parvlaeva	-10.9003
▁osaleb	-10.9004
▁naisi	-10.9005
▁arvame	-10.9006
▁võrdne	-10.9006
▁hilja	-10.9006
▁paikne	-10.9007
▁120	-10.9009
▁tundma	-10.9012
vo	-10.9017
▁tagajärjel	-10.9018
▁digitaalse	-10.9019
omanik	-10.9023
▁näidet	-10.9027
koolide	-10.9027
▁äärmus	-10.9032
▁tootjate	-10.9032
▁varja	-10.9032
▁jagune	-10.9035
▁jumal	-10.9036
▁palus	-10.9042
▁läbipaistvus	-10.9043
▁velman	-10.9044
▁ühistransport	-10.9044
▁teenib	-10.9045
▁telefoni	-10.9045
müü	-10.9048
lisus	-10.905
▁maksutulu	-10.9052
järgse	-10.9056
▁kasutaja	-10.9057
▁kolmandiku	-10.9063
rahu	-10.9063
▁kategooria	-10.9063
võrgustik	-10.9064
▁määrab	-10.9069
▁fikseeri	-10.907
▁määratakse	-10.9073
programm	-10.9074
▁toimuda	-10.9076
▁õnnestub	-10.9078
▁traditsiooni	-10.908
▁absurd	-10.9081
▁lahingu	-10.9081
▁küps	-10.9083
▁laekumise	-10.9089
▁700	-10.91
▁saksamaal	-10.9103
▁elanikud	-10.9115
▁abipolitseinik	-10.9118
▁siduda	-10.9118
augu	-10.9119
▁fiskaal	-10.9121
iministeerium	-10.9122
▁nimetasin	-10.913
▁eksperdi	-10.913
▁lubadusi	-10.9131
▁täitmist	-10.9132
▁tõusevad	-10.9133
esimene	-10.9135
▁82	-10.9136
▁investeering	-10.9137
▁tutvustan	-10.9137
▁kil	-10.9138
oloogia	-10.9139
▁ukrainas	-10.914
▁korraliku	-10.9144
▁tolliamet	-10.9147
▁tegin	-10.9151
saare	-10.9152
▁aktsia	-10.9155
▁realiseeru	-10.9155
▁suudetud	-10.9155
ränne	-10.9155
▁risti	-10.9156
▁vältimise	-10.9156
▁joogi	-10.9158
▁värvi	-10.9158
▁komponent	-10.9161
▁nägu	-10.9161
▁ainete	-10.9161
▁mõttetu	-10.9164
▁isikutele	-10.9165
▁sekkuda	-10.9167
▁ülal	-10.9171
▁maksnud	-10.9175
▁propaganda	-10.9175
▁kommenteerite	-10.9175
▁konflikt	-10.9176
▁õpilase	-10.9183
▁märkuse	-10.9185
▁liht	-10.9188
▁tuhandeid	-10.9189
▁konstruktiivse	-10.9193
▁vande	-10.9193
▁loogilise	-10.9195
ptsioon	-10.92
▁direktori	-10.9202
▁ansipi	-10.9206
▁püüa	-10.9208
▁seletus	-10.921
▁kuulanud	-10.9213
▁patsientide	-10.9216
arendus	-10.9216
kasvatus	-10.9218
▁hädas	-10.9219
▁õpilased	-10.9221
▁teatas	-10.9222
▁kustuta	-10.9229
autonoomia	-10.9231
▁väljastpoolt	-10.9231
▁india	-10.9231
▁eurotsooni	-10.9231
ühistu	-10.9232
rong	-10.924
▁juhtumit	-10.9241
▁viimati	-10.9245
▁tõstatatud	-10.9247
▁tegutsema	-10.925
▁leevendada	-10.9251
▁asemele	-10.9252
▁mujale	-10.9256
organite	-10.9257
▁tooda	-10.9267
▁kompenseerida	-10.9268
oudekki	-10.9269
▁diislikütuse	-10.9269
▁ebavõrdsus	-10.9269
▁ähvarda	-10.9269
▁riigihangete	-10.9269
▁marianne	-10.9269
▁keskkonda	-10.9271
▁mõistan	-10.9272
▁oleksite	-10.9278
▁ohutu	-10.9284
▁tulevaste	-10.9284
▁vaevalt	-10.9293
▁vabaduse	-10.9293
▁määranud	-10.9296
▁proportsionaals	-10.9297
teenused	-10.9299
▁800	-10.93
▁üllata	-10.93
▁taastu	-10.93
▁mahuka	-10.9301
▁täpsustatakse	-10.9302
▁lüüa	-10.9307
▁keemia	-10.9307
▁hoidma	-10.9307
▁lehe	-10.9308
▁tõsiasi	-10.931
▁kaunis	-10.9312
▁selgust	-10.9312
▁reservide	-10.9313
▁konsensuslikud	-10.9315
▁sesteri	-10.9317
▁1,5	-10.932
iminister	-10.9324
raivo	-10.9325
▁käega	-10.9325
▁paremaid	-10.9326
▁pikendamine	-10.9327
▁vabatahtlikku	-10.933
▁kehtivas	-10.9332
▁läksid	-10.9333
tootjate	-10.9337
▁topeltkodakonds	-10.9345
▁häälteenamust	-10.9345
▁varasemate	-10.9351
kvalifikatsiooni	-10.9357
▁sisulisi	-10.936
laev	-10.9361
▁võlakoormus	-10.9362
▁miinuses	-10.9365
▁kuri	-10.9371
▁osanud	-10.9379
▁taustal	-10.938
▁külge	-10.9384
▁tugiteenuste	-10.9384
▁linnavalitsus	-10.9387
▁elering	-10.939
▁tervis	-10.9393
▁kaheksanda	-10.9393
▁projektide	-10.9394
▁arutasite	-10.9397
▁millestki	-10.9399
perioodil	-10.9399
▁pikemat	-10.9401
kokkuvõtte	-10.9401
käit	-10.9403
▁hõlmab	-10.9406
▁niisuguste	-10.9406
▁kandidaatide	-10.9407
▁suhtumist	-10.9409
▁sõnadega	-10.9412
▁tavaline	-10.9412
▁otsast	-10.9415
▁do	-10.9416
▁ebavõrdse	-10.9422
▁tõhusta	-10.9427
▁sundi	-10.9429
▁tullakse	-10.9431
ruum	-10.9431
▁õnn	-10.9431
▁tulemuste	-10.9435
▁kirju	-10.9436
▁kirjaliku	-10.9437
▁eaka	-10.9439
toomas	-10.9441
▁levinud	-10.9442
inimese	-10.9443
▁kontrollima	-10.9444
ettevalmistamise	-10.9444
avaldus	-10.9453
▁tuletada	-10.9455
park	-10.9455
▁õhku	-10.946
▁saksa	-10.9461
▁menetlemist	-10.9461
ndate	-10.9463
▁hinnatõusu	-10.9468
▁kaitseväelase	-10.9475
▁põhiseadusliku	-10.9477
▁ühekordse	-10.9478
▁kaldu	-10.9479
struktuur	-10.948
▁kõlama	-10.9482
ütle	-10.9486
▁matemaatika	-10.9486
▁101	-10.9487
▁tööandjad	-10.949
▁valitsemis	-10.9491
▁ükskord	-10.9492
register	-10.9499
▁nägemus	-10.9499
▁väitsite	-10.9501
õige	-10.9503
tegevust	-10.9503
▁kandma	-10.9505
nnis	-10.951
▁vabatahtlike	-10.9512
▁oskad	-10.9513
▁võitluse	-10.9516
▁mõjude	-10.952
mõju	-10.9522
▁loodi	-10.9524
▁vähenevad	-10.9528
▁vastaja	-10.9535
vaheline	-10.9535
▁seadusloome	-10.9538
▁ringkonna	-10.9539
▁psühholoogi	-10.9539
vastane	-10.954
gruppide	-10.954
▁esitame	-10.954
▁surnu	-10.9544
kaaslase	-10.9546
▁soodsa	-10.9547
▁sõnul	-10.9549
▁rahastada	-10.9549
▁suhtumise	-10.9551
▁seadnud	-10.9557
▁aspektist	-10.9559
▁ettepanekutega	-10.956
▁vastasite	-10.9561
15	-10.9562
järg	-10.9573
▁terava	-10.9576
▁lasteaed	-10.9576
▁demograafilis	-10.9577
▁operatiiv	-10.9577
▁edendamise	-10.9584
▁lõpetati	-10.9586
▁näed	-10.9589
▁väljamakse	-10.9589
▁viisaka	-10.9593
▁omanike	-10.9594
▁riigiasutuste	-10.9596
iili	-10.9597
ülesanne	-10.9598
▁haridusminister	-10.96
▁suulise	-10.96
lepingute	-10.9601
▁ülesannetes	-10.9606
istungi	-10.9606
▁naabrite	-10.9616
▁kriitiline	-10.9616
▁prügi	-10.9616
▁elamisloa	-10.9616
sõit	-10.962
▁rendi	-10.962
▁pensionid	-10.9624
▁proportsiooni	-10.9632
▁harjunud	-10.9634
▁esmaspäeva	-10.9635
▁õnne	-10.9635
kindlasti	-10.9638
▁lahenduste	-10.9638
▁nägime	-10.9638
▁vo	-10.9639
▁isikule	-10.9641
▁kasutatava	-10.9641
olukorras	-10.9641
▁töövõimetus	-10.9644
▁käsk	-10.9644
▁ootamatu	-10.9648
▁mehhanismi	-10.965
▁tublid	-10.9655
▁pankroti	-10.9656
▁holsmer	-10.9656
kaamera	-10.9656
▁näo	-10.9662
uju	-10.9667
▁investori	-10.9668
▁järjekordselt	-10.9668
olukorda	-10.9675
üksuse	-10.9679
▁kõla	-10.968
▁kohast	-10.9684
▁suunda	-10.9691
▁taastamise	-10.9694
▁mõelge	-10.9695
▁ehitis	-10.9695
▁poliitilisi	-10.9695
▁protesti	-10.9696
▁liikunud	-10.9696
raamistik	-10.9696
▁fi	-10.9697
▁lasteaedade	-10.9697
▁olge	-10.9698
▁segadust	-10.9707
▁kokkuhoid	-10.971
ametnike	-10.9712
märt	-10.9718
▁jõulu	-10.972
▁algatajad	-10.972
tunnet	-10.9724
▁selgituse	-10.973
▁reageerida	-10.9731
▁pikaajaline	-10.9735
▁vahendusel	-10.9735
▁võidelda	-10.9736
▁meetri	-10.9737
▁otseses	-10.9738
▁pais	-10.9741
▁juhend	-10.9741
▁kujundada	-10.9744
▁poliit	-10.9745
▁elavda	-10.9749
▁teadnud	-10.9751
ov	-10.9753
▁2019	-10.9753
▁valmisoleku	-10.9754
▁klaas	-10.9755
▁peaksin	-10.9755
▁kogemused	-10.9758
▁tervita	-10.9758
kli	-10.9761
▁tarbimist	-10.9763
märkimisväärselt	-10.9774
▁sooäär	-10.9775
▁suurusjärk	-10.9775
▁raadio	-10.9775
▁läbiviimise	-10.9776
▁kuuluda	-10.9783
▁vajadusest	-10.9791
▁miljon	-10.9791
▁otsest	-10.9792
▁tõlgendus	-10.9796
▁universaalse	-10.9797
▁ok	-10.9797
kogemus	-10.9798
priit	-10.9798
▁15%	-10.9801
▁peredele	-10.9803
▁moodustamise	-10.9807
▁tõstatas	-10.9813
▁brüsselis	-10.9815
▁keeruka	-10.9815
▁airi	-10.9815
▁topelt	-10.9816
▁tõr	-10.9819
▁andeks	-10.9819
▁kasutata	-10.9827
▁mõningaid	-10.983
▁nägin	-10.9831
päeval	-10.9831
▁positiivselt	-10.9831
▁lisatud	-10.9831
▁hääletame	-10.9833
▁tehniline	-10.9835
kolleeg	-10.984
▁kodanikele	-10.9842
▁õpet	-10.9845
▁kallimaks	-10.9846
▁oodatud	-10.9855
▁niisiis	-10.9855
▁tekkima	-10.9855
▁olemuselt	-10.9857
▁lisakulu	-10.9858
▁elamis	-10.9864
▁üldosa	-10.987
▁määrusega	-10.9872
partnerite	-10.9873
aafrika	-10.9879
▁vahetada	-10.988
▁vahenditest	-10.9881
▁mõistes	-10.9883
▁kasutame	-10.9887
▁veni	-10.9889
▁liberaal	-10.989
▁erilist	-10.989
▁valitsusliikmed	-10.9892
▁85	-10.9893
▁arvestuse	-10.9893
▁aju	-10.9894
põgenik	-10.9896
▁viide	-10.9897
▁staa	-10.9904
▁eelmist	-10.9907
pärase	-10.9909
eeskirja	-10.9912
▁laen	-10.9914
▁eesmärgiga	-10.9918
tehingu	-10.992
▁edukas	-10.9927
▁sisene	-10.9932
▁langenud	-10.9933
▁toimiva	-10.9933
baasi	-10.9934
▁kõneleja	-10.9935
▁eriarvamus	-10.9936
▁hädavajalik	-10.9936
▁kõrvu	-10.9936
▁dubleeri	-10.9936
▁efekt	-10.9936
▁omaosalus	-10.9937
teenistuja	-10.9937
ostu	-10.9938
▁veb	-10.9939
▁aasia	-10.9939
▁69	-10.9943
▁jõudsime	-10.9947
▁osales	-10.9949
▁õpetada	-10.995
▁lahendi	-10.9952
ndamist	-10.9953
▁dokumendid	-10.9953
▁algatanud	-10.9957
sõbralik	-10.996
▁loone	-10.996
▁taset	-10.9961
küla	-10.9962
lähedase	-10.9962
▁mitmete	-10.9967
ettevõtted	-10.9967
valimiskampaania	-10.9968
▁viite	-10.997
▁kutsekooli	-10.9971
müügi	-10.9973
▁laastus	-10.9976
▁minimaalse	-10.9976
▁nafta	-10.9976
▁teehoiu	-10.9976
▁konventsioon	-10.9977
plaan	-10.9978
▁sisalda	-10.998
▁filmi	-10.9981
▁teadmisi	-10.9981
▁kolmandal	-10.9982
▁lipp	-10.9985
▁fookus	-10.9986
▁lühenda	-10.9989
▁oskab	-10.999
kasutuse	-10.999
▁puht	-10.9993
▁laena	-10.9993
for	-10.9994
▁isiklikku	-10.9995
▁võimaldada	-10.9995
▁elatis	-10.9996
▁pangandus	-10.9997
▁valitsusse	-11
▁dokumente	-11.0001
▁toimima	-11.0003
▁teadlaste	-11.0003
▁nord	-11.0004
▁kilomeetri	-11.0004
▁termini	-11.0009
▁kaasnevad	-11.0009
▁käituma	-11.0012
▁väärteo	-11.0017
▁juriidiline	-11.0017
▁usaldusväärsus	-11.0017
kiirus	-11.0018
joo	-11.0019
▁üksinda	-11.0021
▁nais	-11.0021
▁haldusala	-11.0022
▁olevaid	-11.0023
▁aktsiisimäära	-11.0023
võimalusi	-11.0023
▁alustel	-11.0024
tulek	-11.0029
▁valva	-11.0031
▁mõlemal	-11.0032
▁juhus	-11.0032
▁perearstide	-11.0041
viktor	-11.0045
▁ühiskondlik	-11.0047
▁sõjalis	-11.0048
▁põhiseaduslikku	-11.0052
▁kattu	-11.0053
▁ajakirjanduse	-11.0053
kondade	-11.0057
▁iraagi	-11.0058
▁suhkru	-11.0058
▁bensiini	-11.0058
▁oktoober	-11.0058
▁keeleoskus	-11.006
▁ettevaatlik	-11.0061
▁kaugemas	-11.0063
õpet	-11.0065
▁konverentsi	-11.0066
▁käsu	-11.0068
▁korrale	-11.0068
▁aktsiiside	-11.0069
▁rõivasele	-11.0069
▁saatis	-11.0075
▁korrata	-11.0079
▁menetleme	-11.0082
jürgen	-11.0085
▁liigi	-11.0089
nõunik	-11.009
▁saadikut	-11.0092
▁annate	-11.0092
▁tunneb	-11.0094
▁panevad	-11.0095
▁juriidiliselt	-11.0096
▁teisisõnu	-11.0099
▁hümni	-11.0099
▁maksimum	-11.0099
▁vajuta	-11.01
▁vastutustundlik	-11.0103
▁püsiva	-11.0103
▁leheküljel	-11.0108
▁hüvitise	-11.0108
▁hoiak	-11.0114
▁reaal	-11.012
▁kooseluseadus	-11.0121
▁sobib	-11.0123
arengu	-11.0125
▁mängus	-11.0126
▁kaasneb	-11.0131
▁paketi	-11.0132
▁käisin	-11.0132
▁õpiku	-11.0135
vene	-11.0137
▁14-	-11.0138
▁kunsti	-11.014
▁globaalse	-11.014
▁hiiumaa	-11.014
▁praktiline	-11.014
▁suhtlus	-11.014
▁maapiirkondades	-11.0141
▁kiirlaenu	-11.0141
karja	-11.0143
▁perearst	-11.0144
▁inter	-11.0144
▁80%	-11.0146
▁linnaosa	-11.0149
▁sõda	-11.0153
▁kolmandik	-11.0156
▁käibe	-11.0158
rahandusministri	-11.0162
▁periood	-11.0163
▁esineda	-11.0163
▁senine	-11.0164
▁rahvuslik	-11.0165
▁remo	-11.0168
▁tohutult	-11.017
▁saarte	-11.0172
▁sätteid	-11.0173
▁kaotanud	-11.0173
▁jagatakse	-11.0179
▁äriühingute	-11.0179
▁pakuvad	-11.0179
▁alustas	-11.0182
▁tollal	-11.0182
▁luu	-11.0182
▁täies	-11.0183
▁spetsialiste	-11.0183
▁mõjub	-11.0185
▁kolmandate	-11.0191
▁kommentaar	-11.0191
▁toovad	-11.0196
▁väida	-11.0198
▁linnu	-11.0206
▁harjumaa	-11.0206
▁nõustamis	-11.0206
▁reserve	-11.0214
▁prioriteetide	-11.0221
▁kriteeriumi	-11.0222
koosolek	-11.0223
▁dmitrijev	-11.0224
▁kontseptsiooni	-11.0224
▁väärtpaberi	-11.0224
▁tuhat	-11.0224
▁raidma	-11.0224
▁volitatud	-11.0226
▁sulgemis	-11.0229
▁summade	-11.0235
▁kaitsmise	-11.0235
volinik	-11.0235
▁erinevat	-11.0236
▁arvamusel	-11.0237
▁huvita	-11.024
▁otsustavad	-11.0243
kohustuse	-11.0248
▁kasvas	-11.0248
▁õppinud	-11.0249
▁garantiid	-11.025
▁liikumis	-11.0251
▁ettevõtetele	-11.0251
investor	-11.0252
▁jõuka	-11.0256
ndama	-11.0257
▁ohusta	-11.0261
▁eetika	-11.0262
▁tõenäosus	-11.0262
▁sellisena	-11.0264
▁häbene	-11.0265
▁pakosta	-11.0265
▁hakkasid	-11.0266
▁vajaduspõhist	-11.0266
▁kohtusüsteemi	-11.0266
▁potentsiaali	-11.0267
▁ideid	-11.0275
▁rõõmusta	-11.0286
▁esitasin	-11.0286
tingimused	-11.0289
▁valmisolek	-11.0289
▁ajutise	-11.0291
▁alused	-11.0291
10	-11.0296
▁elektrituru	-11.03
tootmine	-11.0305
▁jutust	-11.0306
▁üleminekutoetus	-11.0307
▁tõlki	-11.0308
▁põhjalikumalt	-11.0312
▁kavatsete	-11.0315
▁kättesaadavust	-11.0323
iimi	-11.0325
▁tegutseva	-11.0327
energia	-11.0337
▁kaardi	-11.0338
▁vaidlused	-11.0338
▁detsembris	-11.034
aastased	-11.0342
▁neis	-11.0344
▁edastanud	-11.0346
▁kirjutama	-11.0348
▁vigade	-11.0348
▁õigusselgus	-11.035
▁jäetakse	-11.035
▁vitsut	-11.035
▁töötatud	-11.035
▁tempos	-11.0356
▁analoogse	-11.0357
▁koolivõrgu	-11.0357
▁olgem	-11.0358
▁võiksite	-11.037
▁käibemaks	-11.037
▁koostada	-11.037
▁je	-11.0371
▁sure	-11.0375
▁rakendatakse	-11.0378
▁käsitlenud	-11.038
▁lennuki	-11.0381
tähelepanelikult	-11.0381
▁fond	-11.0387
▁otsene	-11.0387
kaitseminister	-11.0389
▁sanktsioonide	-11.0389
▁arutab	-11.039
▁kaasettekande	-11.0392
▁ametikoht	-11.0392
▁tõnisson	-11.0392
▁instituudi	-11.0398
▁silla	-11.0403
▁väljend	-11.0406
▁viime	-11.0411
▁viina	-11.0417
▁vajalikke	-11.0419
▁moodustatud	-11.0422
▁valima	-11.0422
▁küsingi	-11.0424
▁laekus	-11.0424
sekretär	-11.0435
▁põgusalt	-11.0435
▁tarvita	-11.0435
▁vastuvõetav	-11.0435
▁lastevanemate	-11.0435
▁keskvalitsuse	-11.0436
▁sidus	-11.0443
▁valikud	-11.0446
sead	-11.0448
▁sisejulgeoleku	-11.0451
▁sport	-11.0452
▁lähtume	-11.0456
▁toetamine	-11.0456
vorm	-11.0457
▁väärib	-11.046
▁muudeti	-11.0461
ifi	-11.0466
rände	-11.0468
mäng	-11.047
▁vir	-11.047
haru	-11.047
▁alkoholiaktsiis	-11.0471
staabi	-11.0473
▁üleminek	-11.0474
▁terrori	-11.0477
tulundusühingu	-11.0477
▁pileti	-11.0479
▁avaldatud	-11.0482
▁põhineb	-11.0484
▁kannatanu	-11.0484
▁euroraha	-11.0491
▁sätestatakse	-11.0494
▁valikute	-11.0494
▁lähenemist	-11.0495
tõrje	-11.0496
▁kiiruse	-11.0496
▁kahelda	-11.05
spordi	-11.0513
▁tähtsus	-11.0514
▁mõneti	-11.0516
▁lähenemise	-11.0517
▁siir	-11.052
▁ebaõnnestu	-11.052
▁kuritarvita	-11.052
▁teretulnud	-11.052
▁asjatundja	-11.052
▁teisalt	-11.052
▁sündimus	-11.0521
nähtav	-11.0527
▁kiirelt	-11.053
▁peretoetus	-11.0531
▁jagamise	-11.0536
▁tunnus	-11.0542
▁situatsioon	-11.0543
▁erakonnakaaslas	-11.0547
▁ravikindlustus	-11.0548
▁sõlmimise	-11.0551
▁nõrgema	-11.0555
▁sügavalt	-11.0561
▁iseloomusta	-11.0563
▁eraisiku	-11.0563
▁jääme	-11.0565
▁keeleõppe	-11.0569
▁rajada	-11.0574
▁prioriteedid	-11.0575
▁rahvuse	-11.0575
▁mõistlikuks	-11.0577
▁kergem	-11.0578
▁komisjonides	-11.058
▁punkte	-11.0583
▁tõhus	-11.0591
reklaam	-11.0592
▁võõr	-11.0593
▁annetus	-11.0595
▁kaotab	-11.0596
▁absoluut	-11.0602
▁4%	-11.0602
▁karjääri	-11.0607
▁kobareelnõu	-11.0607
▁üksuste	-11.0613
eelmise	-11.0616
▁asendada	-11.0618
▁kõrg	-11.0624
▁paista	-11.0625
liitu	-11.0627
▁otsese	-11.0628
▁ülalpidamis	-11.0632
▁eraldatakse	-11.0633
▁sp	-11.0635
▁vastustest	-11.0637
▁muutusi	-11.0638
▁seadusandliku	-11.0639
▁keelata	-11.0639
▁kaasamise	-11.0643
▁palgata	-11.0643
▁kaitseliit	-11.0644
▁hoiab	-11.0645
▁ajend	-11.0649
▁selgunud	-11.065
▁küpros	-11.065
▁pilgu	-11.065
▁pakkuja	-11.065
▁olenemata	-11.0651
▁odava	-11.0651
raamat	-11.0652
▁päästeameti	-11.0653
▁hakkan	-11.0654
gress	-11.0655
▁väit	-11.066
▁protokoll	-11.0662
▁nulli	-11.0662
avalduse	-11.0671
▁järeldusi	-11.0681
▁varasematel	-11.0683
▁toimuks	-11.0686
▁hukka	-11.0691
▁hääl	-11.0693
nõuded	-11.0694
▁süvenda	-11.0694
▁pealkiri	-11.0695
▁maanteeameti	-11.0704
▁täitu	-11.0704
▁täitevvõimu	-11.0707
▁teenivad	-11.0709
▁toodete	-11.0718
▁mõjutavad	-11.0719
valla	-11.0728
kohtunik	-11.0731
▁munitsipaal	-11.0734
▁plaane	-11.0736
▁konservatiivne	-11.0738
press	-11.0739
▁langetas	-11.0739
▁motiiv	-11.074
suhete	-11.0741
eesmärk	-11.0744
▁töövõtja	-11.0744
vanema	-11.0745
▁2011	-11.0746
▁kolle	-11.0748
▁lõplikult	-11.0753
▁sõidab	-11.0756
▁ühinenud	-11.0756
aktsiooni	-11.0764
▁selja	-11.0764
▁ligipääs	-11.0773
marika	-11.0774
▁peresid	-11.0775
▁lepinguid	-11.0775
▁rahaliselt	-11.0777
algatus	-11.078
▁kiusa	-11.0782
▁ütlus	-11.0782
▁nõudlus	-11.0784
▁üheksanda	-11.0787
häire	-11.0791
▁vanu	-11.0802
▁suhte	-11.0802
▁vastatud	-11.0803
▁maksmine	-11.0804
▁tööjõumaksude	-11.0807
▁lõpe	-11.0809
▁heli	-11.0809
▁paberil	-11.0821
▁põhiküsimus	-11.0822
▁tegur	-11.0823
▁vahetus	-11.0824
▁jumala	-11.0825
mängu	-11.0825
▁advokaadi	-11.0826
▁ilmtingimata	-11.0826
▁tütar	-11.0826
▁tulles	-11.0826
▁ajendatud	-11.0826
aegne	-11.0827
▁tööturule	-11.0829
▁enamuse	-11.0829
▁kaitsepolitsei	-11.083
▁järeldusele	-11.0832
▁tõdeda	-11.0832
▁abivahendite	-11.0833
▁rõõmsa	-11.0835
▁sanktsioonid	-11.0837
uli	-11.0838
andmete	-11.0838
▁teades	-11.0838
▁kaupade	-11.0838
▁korrektselt	-11.0841
▁tarbimis	-11.0842
▁meeldiv	-11.0843
▁rumala	-11.0854
▁pingutus	-11.0871
▁järk	-11.0871
▁kallal	-11.0872
▁rahutagamis	-11.0872
▁probleemidega	-11.0873
▁maksusoodustus	-11.0875
▁tähtsust	-11.0875
▁reklaam	-11.0875
▁tähenduses	-11.0876
▁maksuvabastus	-11.088
▁etapp	-11.0887
▁ppa	-11.0891
territoriaalse	-11.0891
▁kipu	-11.0896
▁ülemäära	-11.09
▁ülevõtmise	-11.0901
▁loom	-11.0901
▁paraneb	-11.0906
▁kohtumisel	-11.0909
▁rakendatud	-11.0909
▁vett	-11.091
▁teadupärast	-11.0915
▁eluaseme	-11.0915
▁loosung	-11.0915
▁samasugust	-11.0915
▁uurinud	-11.0916
▁televisiooni	-11.0916
▁kärpe	-11.0917
▁võimalikuks	-11.0923
▁81	-11.0924
▁projekte	-11.0924
struktuuri	-11.0925
▁sporti	-11.0925
▁tunnistan	-11.0925
200	-11.0927
▁venita	-11.0928
▁lähtunud	-11.0928
positsiooni	-11.093
rin	-11.093
toote	-11.093
▁viitab	-11.0932
▁tunnis	-11.0945
▁ehitama	-11.0958
▁83	-11.0959
töötuskindlustus	-11.0959
▁konsulteeri	-11.096
▁läänemere	-11.096
▁ülejäägi	-11.096
▁kogenud	-11.096
▁isikuandmete	-11.0961
▁üksikute	-11.0965
▁kordagi	-11.0965
▁suhtelise	-11.0965
▁erandeid	-11.0967
▁naise	-11.0968
▁nõukogusse	-11.0969
▁majandustegevus	-11.0969
▁puhke	-11.0969
▁oleneb	-11.097
▁kuuluvate	-11.0974
▁mõistlikult	-11.0975
▁päästja	-11.0976
▁tulin	-11.0979
▁paindlikumaks	-11.0982
▁vaidluse	-11.0983
▁märkida	-11.0986
▁tervislik	-11.0987
▁meelel	-11.099
17	-11.0992
▁autor	-11.0997
tavus	-11.1
▁randver	-11.1005
▁peep	-11.1005
▁mark	-11.1005
▁naine	-11.1005
▁uno	-11.1006
▁kavatsus	-11.1008
▁organiseeri	-11.1008
▁nimetanud	-11.1014
▁jagatud	-11.1014
▁250	-11.1016
▁palub	-11.1018
täpse	-11.102
hali	-11.1025
liikmed	-11.1031
▁pädevust	-11.1031
kokku	-11.1036
▁laulu	-11.1037
▁lisandub	-11.1039
saaja	-11.1046
▁suurenevad	-11.1048
▁elanikku	-11.105
▁holland	-11.105
▁meeskonna	-11.1053
▁kasumit	-11.1057
▁kandis	-11.1058
▁liitumis	-11.1061
saar	-11.1064
▁loomist	-11.1064
▁elamu	-11.1071
▁turgu	-11.1075
▁selgemaks	-11.1077
▁väliskomisjon	-11.1079
▁eeskujuks	-11.1079
▁juhitava	-11.1084
▁istub	-11.1084
▁saaksite	-11.1086
▁koondamis	-11.1092
▁laurson	-11.1096
▁lehekülge	-11.1096
stunud	-11.1097
▁riiklikku	-11.1098
▁kutsehariduse	-11.11
▁lihtsamaks	-11.1106
▁pedagoogi	-11.1107
▁igaühel	-11.1108
▁välisriigi	-11.1111
▁lahja	-11.1112
▁süda	-11.1114
▁käisid	-11.112
▁nool	-11.112
▁kolmapäeval	-11.112
omanikud	-11.1124
▁väärtusta	-11.1125
▁tugevdada	-11.1126
▁õigusakti	-11.1127
▁kandi	-11.1133
▁järjepidevus	-11.1136
▁haapsalu	-11.1141
▁püütud	-11.1141
▁naaberriikide	-11.1142
▁elatisabi	-11.1142
▁loetle	-11.1143
▁suhelda	-11.1143
▁uuendus	-11.1153
▁kümnenda	-11.1159
▁kiitnud	-11.116
▁jõuti	-11.1167
▁asjaolusid	-11.1172
19	-11.1177
▁asukoha	-11.1178
prognoos	-11.1186
tsükli	-11.1187
▁alaealise	-11.1187
▁ivanova	-11.1187
▁kommerts	-11.1187
▁repliigi	-11.1187
▁seeläbi	-11.1187
▁sekundi	-11.1187
artur	-11.1188
▁keskpank	-11.1188
▁kohtume	-11.119
▁taotlemise	-11.119
▁võimaldaks	-11.119
▁paralleelselt	-11.1191
▁uurimise	-11.1192
joon	-11.1203
kood	-11.1205
▁kred	-11.1209
▁sihtasutus	-11.121
▁keskuste	-11.1211
▁toel	-11.1212
▁kujutada	-11.1212
▁soove	-11.1215
üür	-11.122
▁soosi	-11.1222
tevalmistamisel	-11.1227
▁valitseb	-11.1228
▁kallim	-11.1229
▁detsember	-11.1233
▁sedavõrd	-11.1233
▁hotelli	-11.1233
▁leidsime	-11.1233
▁moment	-11.1235
▁tõrju	-11.1235
▁piirivalveamet	-11.1237
▁ajalehe	-11.1239
▁suudaksime	-11.1241
▁suunis	-11.1244
valitsuse	-11.125
▁ehituse	-11.1252
▁maakondades	-11.1254
▁laenude	-11.1261
▁ainukene	-11.1261
komitee	-11.1262
▁ennetus	-11.1268
▁selgitama	-11.1273
▁rõivase	-11.1274
▁veeseaduse	-11.1275
põhimõte	-11.1276
olukord	-11.1279
koefitsient	-11.128
▁siinkõneleja	-11.128
komponendi	-11.128
▁rahvahääletuse	-11.1281
▁positiivseid	-11.1282
▁liberaalse	-11.1286
▁parandamise	-11.1286
numbri	-11.1292
▁tekitavad	-11.1294
▁aspekte	-11.1296
▁sõida	-11.1298
▁õnneliku	-11.1302
meil	-11.1307
▁uskuda	-11.1309
▁sotside	-11.1318
▁arstid	-11.132
▁kirjeldatud	-11.1322
▁jõustunud	-11.1323
▁numbreid	-11.1326
marginaal	-11.1326
▁84	-11.1328
▁silmis	-11.1329
▁suunatakse	-11.1332
▁istungitel	-11.1342
▁suurepäraselt	-11.1344
▁eripära	-11.135
varu	-11.1352
▁tiit	-11.1352
▁arutatava	-11.1353
▁plaanitud	-11.1358
▁toetate	-11.1363
▁internet	-11.1368
▁õe	-11.1371
lõik	-11.1372
▁murelikuks	-11.1373
▁maksusüsteem	-11.1373
▁võidakse	-11.1373
▁sätete	-11.1376
küsimusi	-11.1376
poliitilist	-11.138
▁välispoliitilis	-11.138
▁liha	-11.1385
doktor	-11.1387
▁juriidilis	-11.1393
▁dialoogi	-11.1395
▁üleandmise	-11.1396
▁kolleegidega	-11.1403
▁loetakse	-11.1405
▁tänaste	-11.1406
▁tõstame	-11.1406
▁dokumenti	-11.1407
▁kaug	-11.1409
▁teoks	-11.141
▁materjalid	-11.1411
▁peeta	-11.1413
▁raamides	-11.1414
▁tähtsama	-11.1416
taotlus	-11.1418
▁ambitsioon	-11.1419
▁voliniku	-11.142
▁majutus	-11.1422
▁teadlased	-11.1425
▁kurva	-11.1433
▁sõidavad	-11.1433
tööstus	-11.1437
▁maksame	-11.1439
analüüs	-11.144
▁meenutan	-11.1447
▁akadeemia	-11.1451
vahendid	-11.1454
▁sammas	-11.1463
tervis	-11.1465
näitaja	-11.1467
▁päritolu	-11.1467
▁maksutõusu	-11.1467
▁saadetakse	-11.1468
▁muudame	-11.1469
keskkonda	-11.1469
vastast	-11.1472
▁kiitis	-11.1475
▁hindamis	-11.1479
30	-11.1482
▁tasand	-11.1484
▁mõistuse	-11.1486
▁palgafondi	-11.1488
▁väidab	-11.1489
▁laaneti	-11.1491
▁audiitor	-11.1493
▁elukoha	-11.1495
▁sünnib	-11.1497
▁klientide	-11.1512
andmeid	-11.1513
▁hamba	-11.1514
▁arendamiseks	-11.1514
▁efektiivne	-11.1514
▁vastuollu	-11.1514
▁peitu	-11.1517
▁reaktsioon	-11.1517
▁klient	-11.1517
▁tõstma	-11.1518
▁tõendi	-11.1518
▁leidmise	-11.1519
▁nimistu	-11.1519
▁piirkondade	-11.1536
▁panustab	-11.1539
fondide	-11.1539
ään	-11.1545
▁päevadel	-11.1547
▁osalema	-11.155
▁ettevalmistuse	-11.1554
▁tuvastada	-11.156
palk	-11.1562
▁kinnisasja	-11.1563
▁pakume	-11.1564
muutus	-11.1566
▁maksustamis	-11.1567
▁maksukorralduse	-11.1569
▁mikrofon	-11.1572
▁meelis	-11.1574
▁maksuamet	-11.1575
▁ametlikult	-11.158
▁tagajärjed	-11.1583
▁seisavad	-11.1585
▁loeb	-11.1588
▁täide	-11.159
▁noorema	-11.159
▁rahvasaadiku	-11.159
▁paratamatu	-11.1593
▁jaanuar	-11.1594
▁kehvema	-11.1598
▁nestori	-11.1606
ovi	-11.1609
▁aktiivne	-11.161
▁oviir	-11.161
tasandi	-11.161
▁välistatud	-11.1612
▁leiate	-11.1612
▁sõltuvalt	-11.1613
klassi	-11.1613
▁sünnitus	-11.1613
▁võidab	-11.162
▁politseinike	-11.162
▁liig	-11.1621
▁elektroonilis	-11.163
kuritegevus	-11.1632
▁vabanda	-11.1632
▁täitmine	-11.1634
▁suurendamiseks	-11.1642
▁jõustumist	-11.1644
▁palutud	-11.1646
▁ülikool	-11.1648
▁peipsi	-11.1658
▁formuleeri	-11.1658
▁rahastatakse	-11.1659
▁ühisosa	-11.1663
▁andsite	-11.1664
▁rõhutas	-11.1667
tasude	-11.1668
▁põnev	-11.1668
▁hüve	-11.167
▁soovitusi	-11.1672
▁kontakt	-11.1676
eerimist	-11.1678
▁kaasneva	-11.1685
voog	-11.1689
▁nominaalse	-11.1691
stsenaarium	-11.1696
▁repinski	-11.1706
▁trassi	-11.1706
▁mihkelson	-11.1706
▁koondu	-11.1706
▁tagatakse	-11.1708
täienduskoolitus	-11.1708
▁püüdsin	-11.1717
▁sündmuste	-11.1723
▁projekteeri	-11.1729
relv	-11.173
▁teistsugused	-11.1732
▁vari	-11.1732
▁alternatiivi	-11.1734
ainete	-11.1734
▁korraldab	-11.1736
▁reguleerima	-11.1738
▁varustus	-11.1742
▁möödu	-11.1742
▁töökoormus	-11.1743
▁mõtlete	-11.1746
▁üliõpilaste	-11.1747
▁dmitri	-11.1755
aktuaalse	-11.1755
▁artikkel	-11.1755
▁põlvkonna	-11.1755
▁tasandusfondi	-11.1755
▁hinnatud	-11.1755
▁kuuluv	-11.1757
▁lahendab	-11.1757
▁andmekogu	-11.1757
▁külalised	-11.1762
▁hinnanguliselt	-11.1762
▁loeme	-11.1762
▁rakendama	-11.1763
▁toit	-11.1769
▁varjatud	-11.1769
▁lahke	-11.177
▁ministrilt	-11.1772
▁ohtliku	-11.1772
maailma	-11.1773
▁kurjategija	-11.1783
▁ostmise	-11.1792
▁juulil	-11.1794
▁täitmata	-11.1794
▁kandideerida	-11.1799
▁naaber	-11.1802
▁vastuvõetud	-11.1803
▁linde	-11.1804
▁vaatavad	-11.1814
▁kompenseerimise	-11.1815
▁jõulise	-11.1819
▁korraldama	-11.182
võrdõiguslikkuse	-11.1824
▁kaotamise	-11.1838
▁kogemuste	-11.184
▁helmut	-11.1845
▁soodustada	-11.1847
▁ilm	-11.1849
▁vähendama	-11.185
▁moodus	-11.1851
▁suudeta	-11.1852
▁spetsiifilise	-11.1852
▁debateeri	-11.1853
mootor	-11.1853
▁pädevuse	-11.1853
▁ülemkogu	-11.1855
▁aadressi	-11.1855
mbri	-11.1857
▁eriarsti	-11.1862
▁nähtava	-11.1863
▁astuma	-11.1868
▁suvi	-11.187
▁jõutakse	-11.187
▁liituda	-11.1871
kauplus	-11.1872
▁peaksite	-11.1876
▁liiklusseaduse	-11.1878
▁tähendada	-11.1881
▁valdav	-11.1882
▁prioriteedi	-11.1888
▁lisaküsimus	-11.1891
▁süüria	-11.1899
kindlustusameti	-11.1899
▁rahastuse	-11.19
kümmend	-11.1901
▁ettekujutus	-11.1902
▁ühineda	-11.1902
▁haara	-11.1903
jaanus	-11.1904
▁1,3	-11.1905
▁keskkonnamõju	-11.1906
▁kuidagimoodi	-11.191
▁seina	-11.191
▁lobi	-11.191
kadri	-11.1912
▁erasta	-11.1913
protsess	-11.1914
▁peaspetsialist	-11.1915
▁198	-11.1916
▁olulisemad	-11.1919
▁kasutusel	-11.1921
▁mõnigi	-11.1921
▁julgus	-11.1924
▁terviku	-11.1929
tööde	-11.1935
▁väidate	-11.1935
▁selgitusi	-11.1936
pakk	-11.1936
▁valgusta	-11.1937
▁suurepärase	-11.1937
▁palgatõus	-11.1938
▁helista	-11.1938
▁loonud	-11.1939
▁soodus	-11.1941
▁seadme	-11.1945
ehitus	-11.195
▁bürokraatlik	-11.1951
maaomavalitsuste	-11.1951
▁jälitus	-11.1951
▁pidurda	-11.1951
▁ametkonna	-11.1953
haldur	-11.1953
▁ründa	-11.1954
praegu	-11.1954
inimeste	-11.1954
▁tegevusloa	-11.1954
▁langetamine	-11.1955
▁kaovad	-11.1955
kontroll	-11.1956
käe	-11.1959
▁rajamise	-11.196
▁maavara	-11.1961
▁lõppemise	-11.1961
▁mäletame	-11.1964
▁kodanikke	-11.1964
▁fie	-11.1965
▁liikumist	-11.1971
reostus	-11.1976
▁juulist	-11.1989
▁seab	-11.1991
▁kaevandamis	-11.1992
▁kontrollkohal	-11.1998
▁kirjutab	-11.1999
▁kaugeltki	-11.2001
▁suutma	-11.2002
▁tanki	-11.2003
dokumendi	-11.2004
▁90%	-11.2006
projekt	-11.2008
▁küsitav	-11.2009
▁kuulama	-11.2013
▁kasvaks	-11.2015
kohane	-11.2015
▁jalg	-11.2016
▁planeerida	-11.2016
▁fondide	-11.2018
▁vastamata	-11.202
tuur	-11.2024
▁ühelgi	-11.203
▁86	-11.2031
▁toome	-11.2032
▁töötame	-11.2032
▁esineb	-11.2035
▁absoluutse	-11.2038
▁terviklikku	-11.204
vaate	-11.2041
▁eraõiguslik	-11.2045
▁mõtleb	-11.2046
▁immigratsiooni	-11.2051
▁päästekomando	-11.2051
▁vaarmann	-11.2051
▁möönan	-11.2054
▁süürias	-11.2054
▁juhtkonna	-11.2056
▁75%	-11.2056
▁kohelda	-11.2065
▁kilo	-11.2065
▁suhtuda	-11.2066
▁füüsilis	-11.2073
▁valitsusliidu	-11.2074
▁vähenes	-11.2075
▁efektiivsem	-11.2083
▁korrektse	-11.2084
▁riigipiiri	-11.2086
▁tagasiside	-11.2096
▁toitu	-11.2098
valmidus	-11.2098
▁hindade	-11.2099
▁kokkulepitud	-11.2101
▁peaasjalikult	-11.2101
▁puudujäägi	-11.2101
▁jättis	-11.2101
▁võltsi	-11.2101
▁siret	-11.2101
▁konsensuse	-11.2102
▁pideva	-11.2103
▁kuritegevuse	-11.2105
ülesande	-11.2105
lehtede	-11.2106
erakondade	-11.2107
▁märku	-11.2111
▁volikogude	-11.2112
piirkond	-11.2116
▁toru	-11.2118
▁püüavad	-11.2118
▁õigusruumi	-11.2123
▁hoonete	-11.2124
▁põhiseaduslik	-11.2125
▁rahvasaadik	-11.2131
▁seaduslik	-11.2134
▁raud	-11.2139
▁kinnipidamis	-11.2139
▁saavutamiseks	-11.214
▁lähima	-11.2143
▁valitakse	-11.2145
▁järgnevad	-11.2145
▁integreeri	-11.2152
▁2021	-11.2152
▁hanso	-11.2152
▁tabel	-11.2156
tootmise	-11.216
▁sotsid	-11.2161
planeering	-11.2162
▁hindab	-11.2163
päi	-11.2164
▁põhjendada	-11.2164
▁patsient	-11.2172
▁võrdleme	-11.2172
▁prokuröri	-11.2175
▁pakutava	-11.2178
▁efektiivselt	-11.218
▁alandamise	-11.2187
▁kujundamisel	-11.2198
▁omandada	-11.2201
▁esitavad	-11.2202
häälteenamus	-11.2202
agentuur	-11.2202
▁halvenda	-11.2203
▁laaneots	-11.2203
▁mälberg	-11.2203
seadustiku	-11.2203
▁viidanud	-11.2203
▁küün	-11.2203
▁pärand	-11.2203
▁volituste	-11.2203
▁aasa	-11.2203
▁sõnavõttude	-11.2205
▁suhtute	-11.2207
▁detsembriks	-11.221
▁võitja	-11.2212
▁seadusandlik	-11.2218
▁kipub	-11.2224
▁pinnalt	-11.2229
▁suhteid	-11.2232
▁kiirenda	-11.2235
▁arvestamise	-11.2238
▁planeerimise	-11.2239
▁üksteist	-11.2244
mehhanism	-11.2245
▁kaugemal	-11.2245
gustatud	-11.2247
instrument	-11.2254
▁humanitaar	-11.2254
▁kahetsusväärne	-11.2254
▁reegel	-11.2254
▁mineviku	-11.2254
▁kross	-11.2254
▁peeti	-11.2254
▁migratsiooni	-11.2254
▁talituse	-11.2254
▁unustada	-11.2255
▁vähendatakse	-11.2255
▁puhkuse	-11.2256
järvel	-11.2256
▁planeeringu	-11.2259
▁juhtima	-11.226
saali	-11.2261
pargi	-11.2261
▁väljendada	-11.2262
▁vaidluste	-11.2265
▁koormust	-11.2271
▁konteksti	-11.228
analüüsi	-11.2283
▁vastuvõtmine	-11.2285
▁minek	-11.229
▁motiveerida	-11.2291
▁käitunud	-11.2298
▁alustanud	-11.2299
▁kaeva	-11.23
▁sobiv	-11.2302
portfell	-11.2305
▁vaieldamatult	-11.2305
▁õpivad	-11.2305
▁lühiajalis	-11.2305
▁2004.	-11.2306
▁põhjendamatu	-11.2307
▁valve	-11.2309
▁halda	-11.2309
▁elav	-11.231
põhimõtte	-11.2311
meetmete	-11.2311
▁lõpetamist	-11.2313
▁põhjalikku	-11.2325
▁valusa	-11.2326
▁kriminaalasja	-11.234
▁illegaalse	-11.234
▁toetatakse	-11.2344
▁kaitsevõime	-11.2345
tunne	-11.2353
diplomaat	-11.2356
▁alampalga	-11.2356
▁ebaõiglus	-11.2356
▁pahatahtlik	-11.2356
▁prantsuse	-11.2356
▁moraalse	-11.2356
▁ääremaa	-11.2356
▁teavitus	-11.2357
▁jõhvi	-11.2357
▁postimehe	-11.2357
▁statistikaameti	-11.236
▁70%	-11.2362
▁hädaolukorra	-11.2363
▁õieti	-11.2364
▁täpsustava	-11.2364
▁anvelti	-11.2364
protseduur	-11.2365
▁sellekohase	-11.2367
▁näitama	-11.2372
▁poolteise	-11.2374
▁piirkondlik	-11.238
▁puutunud	-11.2382
▁seisnud	-11.2382
igor	-11.2386
▁juhtuma	-11.2387
▁läheneda	-11.2396
▁rakendub	-11.2397
▁lühema	-11.2398
▁alandada	-11.2399
▁kehtestanud	-11.2402
▁kujutan	-11.2404
pöörd	-11.2405
▁kokkuleppeid	-11.2407
▁aktuaalne	-11.2408
▁defitsiit	-11.2408
▁eelkäija	-11.2408
▁kingitus	-11.2408
▁pühenda	-11.2408
▁pisike	-11.2409
▁esitle	-11.2409
▁kooskõlastus	-11.2412
▁piirmäära	-11.2415
▁meelita	-11.2419
▁osalemine	-11.242
▁lugedes	-11.2421
kõ	-11.2422
▁loobuma	-11.2426
▁lihtsustatud	-11.2432
▁193	-11.2435
▁arusaadavalt	-11.2436
▁detailselt	-11.2437
▁kohatu	-11.2441
▁parandab	-11.2441
▁trendi	-11.2442
kriis	-11.2449
▁registreerimise	-11.2449
▁neljapäevast	-11.245
▁energeetika	-11.2451
▁võrgutasu	-11.2454
▁ratsionaalse	-11.246
▁riigikantselei	-11.246
▁spekuleeri	-11.246
▁spetsiaal	-11.246
▁säärane	-11.246
▁veerand	-11.246
▁märksõna	-11.2461
▁okei	-11.2461
▁jõustuma	-11.2467
koosseisu	-11.2468
▁tuttava	-11.2469
▁hirmuta	-11.2472
▁järeldused	-11.2472
ktor	-11.2474
▁arusaamise	-11.2475
▁lõigu	-11.2478
▁maksumäära	-11.2478
▁võrumaa	-11.248
▁initsiatiiv	-11.2483
▁kirjeldada	-11.2484
turism	-11.2494
▁vastupidine	-11.2496
▁omandamise	-11.2499
kivi	-11.2501
▁3000	-11.2501
palka	-11.2502
▁kokkulepete	-11.2508
▁alender	-11.2513
▁õunapuu	-11.2513
▁etteheite	-11.2513
▁eriarstiabi	-11.2514
▁võimaldavad	-11.2516
vabandust	-11.2522
▁oi	-11.2522
▁eeldame	-11.2523
▁parandama	-11.2524
▁kaudselt	-11.2527
hääletuse	-11.2528
▁kohtumenetluse	-11.2529
▁noh	-11.253
▁numbrite	-11.2533
▁kaaluma	-11.2543
▁afganistanis	-11.2552
sisese	-11.2557
▁sügav	-11.2558
aani	-11.2559
▁arutades	-11.2559
▁lahendatakse	-11.2561
▁kokkuhoiu	-11.2565
▁ideoloogia	-11.2565
▁tõlgi	-11.2565
▁võlakirju	-11.2566
▁õlu	-11.2568
▁kindlust	-11.2574
▁hääletamine	-11.2581
▁homo	-11.2582
▁keskel	-11.2583
▁kehtestab	-11.2584
▁põhiseadusvasta	-11.2584
▁nõuavad	-11.2585
▁abinõu	-11.2586
▁algselt	-11.2588
soon	-11.2591
▁tasude	-11.2593
▁tööaja	-11.2594
▁tõm	-11.2594
eurose	-11.2595
asju	-11.2598
▁juriidiliste	-11.2601
▁baasil	-11.2603
▁põhjuseid	-11.2604
▁taotlema	-11.261
▁kehtestamine	-11.2611
▁panete	-11.2618
▁teistsugust	-11.2618
▁leidsid	-11.2618
▁panustanud	-11.2618
▁põhimõttelist	-11.262
▁lugesite	-11.2622
▁kiirem	-11.2623
▁mõistus	-11.2623
▁turuosa	-11.2625
▁käsitletakse	-11.2629
▁vastanda	-11.2631
▁laekumine	-11.2631
▁tagasisidet	-11.2633
▁meeskond	-11.2638
▁paranenud	-11.2647
objekti	-11.2647
▁kahtlusta	-11.2651
▁muutused	-11.2656
▁iseseisvus	-11.2657
▁sätestada	-11.2662
teadlikkus	-11.2663
▁majanduslikku	-11.2665
mudeli	-11.2668
▁riigiasutus	-11.2671
▁pikaajalist	-11.2671
▁kukkunud	-11.2672
▁realistlik	-11.2672
▁lenda	-11.2673
▁kaitsevägi	-11.2673
▁katteks	-11.2674
▁miljoneid	-11.2674
pidamist	-11.2683
▁maksustada	-11.2692
▁küti	-11.2698
▁vastasel	-11.2703
▁hinnatakse	-11.2705
▁täidavad	-11.2706
raja	-11.2712
▁menetleja	-11.2717
▁neto	-11.272
▁hambaravi	-11.2721
▁liigse	-11.2723
▁kallale	-11.2724
▁läbipaistev	-11.2725
▁stabiilse	-11.2725
▁säärase	-11.2725
▁skais	-11.2725
▁suitsu	-11.2725
▁juhtimine	-11.2725
▁punase	-11.2726
▁vastuvõtu	-11.2726
▁valituks	-11.2728
▁graafiku	-11.2728
▁toetusrühma	-11.2729
▁kehtivate	-11.2732
▁sini	-11.2739
kuula	-11.2756
▁soodustuse	-11.2761
▁siduv	-11.2763
▁võrdsusta	-11.277
▁krediidiasutus	-11.2771
▁markeeri	-11.2775
▁maaelukomisjon	-11.2777
preemia	-11.2779
▁lammuta	-11.2779
▁minnes	-11.2779
▁tõlke	-11.2779
koridori	-11.2779
▁esmatasandi	-11.2779
▁jäätmete	-11.2781
▁õpilasi	-11.2781
▁arvestatav	-11.2783
täit	-11.2786
puudus	-11.279
skeemi	-11.2792
liigi	-11.2793
▁soovituse	-11.2795
▁liitumise	-11.2802
▁vähenema	-11.2803
▁mõningate	-11.2803
▁kontakti	-11.2812
▁neljapäeval	-11.2814
▁maakondade	-11.2814
▁täieliku	-11.2816
▁ilmselge	-11.2816
▁nimetab	-11.282
sfääri	-11.2833
▁põhiõiguste	-11.2833
▁seltskond	-11.2833
▁järgneb	-11.2833
▁omandireformi	-11.2834
▁ambitsioonika	-11.2834
▁nutika	-11.2834
▁pühendu	-11.284
▁ametnikke	-11.2844
läbirääkimiste	-11.2845
paketi	-11.2845
valimised	-11.2846
▁menetlema	-11.2847
▁haridusministri	-11.2847
▁iseseisvuse	-11.2847
▁kahepoolse	-11.2848
päevakorra	-11.2848
▁tervitatav	-11.2855
▁pensionärid	-11.2855
▁standard	-11.2856
▁ainsa	-11.2856
päraselt	-11.2857
▁kuuleme	-11.2863
▁nimetamise	-11.2868
▁pria	-11.2871
▁ühiskondliku	-11.2879
▁rahvasaadikute	-11.2883
teiseks	-11.2883
▁mõningad	-11.2885
▁sõnavõtusoove	-11.2887
▁agressioon	-11.2887
▁leebe	-11.2887
▁proviisor	-11.2887
▁andrei	-11.2887
õppus	-11.2887
▁registreerida	-11.2888
▁sünnijärgse	-11.2888
▁hääletab	-11.2888
▁kodulehel	-11.2888
pensionisüsteemi	-11.2891
▁halvem	-11.2897
▁sadam	-11.2898
▁nimetame	-11.2902
▁kel	-11.2912
▁kaitseministri	-11.2915
▁eksisteerib	-11.2919
▁majandusaasta	-11.292
▁tõusis	-11.2921
▁varusta	-11.2922
ehituse	-11.2922
▁savisaare	-11.2926
organisatsioon	-11.2927
▁nimetati	-11.2934
▁tegude	-11.2941
▁linnavolikogu	-11.2942
▁tõstetud	-11.2942
▁juhata	-11.2942
▁rünnaku	-11.2943
▁hukku	-11.2943
▁visiooni	-11.2944
▁sõitma	-11.2946
▁õppejõud	-11.2946
▁rikkus	-11.2946
▁karistada	-11.2949
▁sügise	-11.2951
▁maksustamine	-11.2953
▁padar	-11.2953
toodete	-11.2955
pinda	-11.2955
nelja	-11.2957
▁võimeka	-11.2964
oleku	-11.2966
▁kõrgkooli	-11.2977
▁hoiame	-11.2978
▁miinimumpalk	-11.2979
▁ootan	-11.2981
▁bre	-11.2981
▁memorandumi	-11.2991
▁toetaja	-11.2996
▁peatüki	-11.2997
▁sõtnik	-11.2997
▁sõiduauto	-11.2997
▁toetu	-11.2998
kraadi	-11.3
▁võrdsus	-11.3005
▁kee	-11.3007
tähtaeg	-11.3007
auväärt	-11.301
lõpetuseks	-11.301
▁afganistani	-11.3011
▁pensionifondide	-11.3013
▁hindamine	-11.3016
▁perspektiiv	-11.3019
▁lähemale	-11.3019
arno	-11.3025
▁küsivad	-11.3027
dokument	-11.303
pra	-11.3039
▁õnnetu	-11.3045
▁tervikliku	-11.305
▁tulenev	-11.3051
▁dividende	-11.3052
▁vastastikuse	-11.3052
▁riigikassa	-11.3052
▁käiku	-11.3052
▁tarbeks	-11.3052
▁seakasvatus	-11.3053
▁võrdlemisi	-11.3054
▁tagajärgede	-11.3056
▁raamatukogu	-11.3056
▁kõiv	-11.3057
▁arusaamist	-11.3064
▁ammendava	-11.3064
▁arvestame	-11.3067
▁tulubaas	-11.3076
▁rikutud	-11.3077
andmed	-11.3078
▁jagama	-11.3079
▁õpib	-11.308
▁lõpliku	-11.3081
▁vanade	-11.3083
▁kallima	-11.3084
▁valmistas	-11.3096
▁tähelepanek	-11.3099
▁makstava	-11.3101
oskus	-11.3105
▁tehnilisi	-11.3107
▁optimeeri	-11.3107
▁oü	-11.3109
▁kättesaadavaks	-11.3109
▁mõistagi	-11.3114
▁taime	-11.3114
▁tutvustama	-11.3121
täpsus	-11.3121
▁sotsiaalsete	-11.3126
▁täiendatakse	-11.3127
▁inflatsiooni	-11.3128
▁põhjendused	-11.3129
▁nõustun	-11.3132
▁lubaduste	-11.3133
▁rumal	-11.3133
▁lepiti	-11.3138
▁näpuga	-11.3148
▁tagasihoidliku	-11.3149
▁sõnastatud	-11.3149
isik	-11.3161
▁ametliku	-11.3162
▁november	-11.3163
▁sümpaatne	-11.3163
▁väino	-11.3163
▁struktuurne	-11.3163
▁erimärgistatu	-11.3163
▁krimmi	-11.3164
▁tavapärane	-11.3166
▁lisavahendeid	-11.3168
▁traditsioonilis	-11.3173
▁tasuvus	-11.3176
▁kuulge	-11.3178
argument	-11.3178
stabiilsus	-11.3178
▁tuhandete	-11.318
▁130	-11.3182
▁hilis	-11.3186
lõivu	-11.3189
kaaslaste	-11.3195
▁rikas	-11.3199
▁vastavuse	-11.3204
▁arvestab	-11.3206
▁kaevanda	-11.3218
▁elanikke	-11.3219
▁remondi	-11.3219
▁aastakümneid	-11.322
▁läbivaatamise	-11.322
▁mandri	-11.322
▁suurendatakse	-11.322
▁elektrienergia	-11.3221
▁elatisraha	-11.3221
▁miinimumpalga	-11.3221
▁lahene	-11.3222
▁tagasimakse	-11.3224
▁keskenduda	-11.3225
▁harva	-11.3225
jutt	-11.3229
organi	-11.3233
võtja	-11.3233
partei	-11.3249
keelse	-11.3253
▁kasutamata	-11.3265
deklaratsioon	-11.3267
▁tehniliselt	-11.327
▁viidata	-11.3273
laad	-11.3276
▁optimaalne	-11.3276
▁mitmesugused	-11.3276
▁repliik	-11.3276
▁juurdepääsu	-11.3276
▁laudadel	-11.3276
▁hallata	-11.3276
▁trei	-11.3276
▁hilisema	-11.3277
▁suletud	-11.3277
olukorra	-11.328
▁laari	-11.328
▁tiina	-11.3283
▁kompleksse	-11.3286
▁asendusliikme	-11.3287
sotsiaal	-11.329
tartu	-11.3294
▁kutsunud	-11.3295
▁riskide	-11.3298
järgult	-11.3306
▁0,2	-11.331
▁stiil	-11.3311
▁juhtkond	-11.3323
▁igatahes	-11.3333
▁pelgalt	-11.3333
▁pälvi	-11.3333
▁tõmbekeskus	-11.3333
▁ebamugav	-11.3333
▁imre	-11.3333
▁teadvusta	-11.3333
▁vesi	-11.3333
▁170	-11.3334
▁õppelaenu	-11.3336
▁ruu	-11.3338
▁err	-11.3339
▁haldamise	-11.334
▁valmistada	-11.3342
▁täiskasvanute	-11.3349
▁arvutused	-11.335
▁kummalis	-11.3355
▁kerkinud	-11.3355
▁tunnustan	-11.3367
▁turist	-11.3368
rohke	-11.3373
▁täpsem	-11.3382
▁lisatasu	-11.3382
▁arendamine	-11.3384
telefon	-11.3387
▁ebameeldiv	-11.339
▁personaal	-11.339
▁sissejuhatava	-11.339
▁veeteede	-11.339
▁jõgeva	-11.339
rünnak	-11.339
▁koolitoidu	-11.3392
haaval	-11.3393
▁vältel	-11.3395
▁algatamise	-11.3395
▁pikkuse	-11.3398
▁istuvad	-11.3399
psu	-11.3401
▁turgude	-11.3406
mark	-11.341
▁küsisime	-11.3412
▁helistab	-11.3413
▁tutvunud	-11.3417
▁tulenevate	-11.3419
▁külma	-11.3424
▁materjalide	-11.3426
▁lahkumise	-11.3427
kohus	-11.3428
▁meenutada	-11.3436
▁väljapoole	-11.3437
▁õigusriik	-11.3441
▁arupärijad	-11.3447
▁vedelkütuse	-11.3447
▁integratsiooni	-11.3447
▁riigihanke	-11.3447
▁sanktsioone	-11.3448
▁algse	-11.3451
▁tauni	-11.3452
▁käitumis	-11.3453
▁maksukoormuse	-11.3456
▁tähelepaneku	-11.3456
arne	-11.3457
▁roos	-11.346
▁mõtlevad	-11.3463
▁erineb	-11.3465
▁ajalooline	-11.3469
kuidas	-11.3471
▁lühi	-11.3472
▁saabunud	-11.3485
seadmete	-11.3487
▁võõranda	-11.3487
liikide	-11.3493
▁teadusministri	-11.3494
tegemise	-11.3496
▁protseduurilise	-11.3501
▁abivajaja	-11.3505
▁maaülikooli	-11.3505
▁ungari	-11.3505
▁topeltmaksusta	-11.3505
▁teavet	-11.3506
▁toompea	-11.3507
▁kasvada	-11.3507
▁talviku	-11.3509
▁idapiiri	-11.3511
▁õppetoetuste	-11.3512
▁sepp	-11.3514
▁jäätmeseaduse	-11.3518
▁seotu	-11.3519
▁arvatakse	-11.3522
▁tugevam	-11.3522
▁päästa	-11.3524
esindaja	-11.3526
▁kinnitavad	-11.3526
uudi	-11.3527
relva	-11.3528
võimalused	-11.3537
▁tegutsemise	-11.3537
▁järjekorda	-11.3544
lehekülje	-11.3551
▁soodsama	-11.3551
▁õpetamise	-11.3552
▁pikkus	-11.3558
saamise	-11.3558
demokraatlik	-11.3559
▁otsustatakse	-11.3562
▁asetäitja	-11.3563
▁leppima	-11.3563
▁raiska	-11.3564
▁kohtlemine	-11.3564
▁volitused	-11.3564
▁missugust	-11.3566
▁valimistulemus	-11.3566
▁hiljemalt	-11.3572
▁koka	-11.3574
akadeemia	-11.3575
valitsusliitude	-11.3579
▁kirjandus	-11.3584
reserv	-11.3584
▁maksmist	-11.3586
▁peadirektori	-11.3587
indeksi	-11.3592
▁selgitage	-11.3594
▁viidi	-11.36
▁salata	-11.3601
▁operatsioonide	-11.3602
▁kinnitust	-11.3603
▁sisemise	-11.3608
kvalifitseeritud	-11.3614
▁üksikud	-11.3615
▁ääres	-11.3617
lõivuseaduse	-11.3618
▁arengufond	-11.3621
▁arhiivi	-11.3622
▁funktsioone	-11.3622
▁lülitada	-11.3622
▁pretsedendi	-11.3622
▁moraali	-11.3622
▁rahakoti	-11.3622
▁langetatud	-11.3622
▁lätti	-11.3623
▁korraldamine	-11.3623
▁väliskaubandus	-11.3627
▁ammendatud	-11.363
▁põhikirja	-11.3632
▁stsenaariumi	-11.3634
▁kaasettekandja	-11.3635
haigus	-11.3643
▁ulatusliku	-11.3644
▁osutunud	-11.3657
▁tõestada	-11.3673
palju	-11.3674
▁advokaat	-11.3681
▁lähitulevikus	-11.3681
▁siseturvalisuse	-11.3681
▁tõsteti	-11.3681
▁valimislubadus	-11.3681
▁piiriületus	-11.3681
▁ettekirjutus	-11.3681
▁saadeti	-11.3682
▁jahimeeste	-11.3682
▁teostada	-11.3684
▁sotsiaalmeedia	-11.3685
▁vähi	-11.3687
▁pidasin	-11.3688
▁täideta	-11.3692
uuringute	-11.3695
kaaslane	-11.3697
▁tehtavate	-11.3702
pakett	-11.3705
loomade	-11.3705
▁ilmunud	-11.3709
põhist	-11.3717
▁terav	-11.3723
▁lepe	-11.3723
▁arvutada	-11.3729
▁sõnastada	-11.3736
▁regulaar	-11.3738
▁lahendamist	-11.3739
▁komando	-11.374
▁pakkumine	-11.374
▁järeldada	-11.374
▁tõstnud	-11.374
▁andmebaasi	-11.374
▁eetilis	-11.374
▁sulling	-11.3741
tung	-11.3745
▁avaldamise	-11.3747
▁usk	-11.3755
direktiivi	-11.3762
▁ametiühingute	-11.3764
▁kehv	-11.3767
▁kaalutlusõigus	-11.377
▁tühistada	-11.3775
stamata	-11.3777
▁ametiühingu	-11.3779
omandi	-11.3788
▁igaühe	-11.3791
▁kurja	-11.3794
▁antava	-11.3794
▁katke	-11.3798
▁ammendumiseni	-11.3799
▁demagoog	-11.3799
▁ebaõiglane	-11.3799
▁järjekorrad	-11.3799
foorum	-11.3799
▁erametsa	-11.3799
▁tsentraliseeri	-11.3799
▁katuseraha	-11.3799
▁hoitakse	-11.3799
▁taheta	-11.3802
▁tööjõudu	-11.3805
▁omavalitsusjuhi	-11.3806
sport	-11.3806
▁loomi	-11.3807
minekut	-11.3809
▁võlakirjade	-11.3813
▁14%	-11.3815
võimsus	-11.3823
mailis	-11.3823
juhtimise	-11.3824
▁ühendada	-11.3826
▁riigiettevõtete	-11.3827
võimeline	-11.3837
▁tundnud	-11.3842
▁matusetoetuse	-11.3855
erakond	-11.3855
▁stipendiumi	-11.3858
▁solidaarse	-11.3859
▁õigusemõistmise	-11.3859
▁lõimumis	-11.386
▁asjakohase	-11.3861
▁106	-11.3879
▁kõrgkoolide	-11.3882
▁võõrkeel	-11.3882
▁advokatuuri	-11.3887
varustus	-11.3889
▁külade	-11.3891
▁tuntav	-11.3894
▁jõudude	-11.39
▁infotunni	-11.3909
põhisus	-11.3918
▁ümbriku	-11.3919
▁hõiva	-11.3919
▁patrull	-11.3919
▁skandaal	-11.3919
▁vaatevinklist	-11.3919
▁arutleda	-11.3919
▁hakatud	-11.3919
▁terrorismi	-11.392
▁lugupeetavad	-11.3924
▁munitsipaalkool	-11.3924
▁tanel	-11.3927
▁vanaduspensioni	-11.3934
▁näpu	-11.3939
▁läbirääkimis	-11.394
berg	-11.3941
▁tõstatanud	-11.3941
vooru	-11.3943
▁maksupoliitilis	-11.3944
▁õiguslikult	-11.3947
pilet	-11.3952
▁eksporti	-11.3958
▁hinnangute	-11.3964
▁kutsutakse	-11.3966
▁ulatuslik	-11.3972
argumendi	-11.3979
▁atraktiivse	-11.398
atlandi	-11.398
▁tsitaat	-11.398
▁purga	-11.398
▁saavutus	-11.3981
▁ametkondade	-11.3981
▁sihtrühma	-11.3982
▁peamised	-11.399
▁vaikselt	-11.3993
▁serv	-11.3998
ringkondade	-11.4003
mõistmis	-11.4003
▁maksustatud	-11.4004
tehnoloogia	-11.4005
▁kultuuritöötaja	-11.4009
▁180	-11.4015
▁liitrit	-11.4016
▁kinnituse	-11.4018
▁registreerunud	-11.4019
▁ühtlase	-11.4024
▁toiduaine	-11.4037
probleemide	-11.404
tüüp	-11.4041
▁nüansi	-11.4041
▁praktilist	-11.4041
▁ajutine	-11.4041
▁erakorralist	-11.4041
▁element	-11.4041
▁tsiviilkohtu	-11.4043
▁tähtpäev	-11.4044
▁objektide	-11.4044
▁hüvitamise	-11.4046
sisaldus	-11.4049
▁reeglina	-11.405
▁odav	-11.4055
▁194	-11.406
visiit	-11.4061
kõik	-11.4065
▁mineva	-11.407
▁rahasumma	-11.4073
▁veebi	-11.4073
▁kehtestati	-11.4083
▁lisandväärtust	-11.4102
▁tõstmist	-11.4103
▁maksumuudatuste	-11.4103
▁puudumise	-11.4105
▁rõhutasin	-11.4106
▁kindluse	-11.411
▁tugevasti	-11.4112
▁elektriarve	-11.4115
▁sammude	-11.4117
▁ajutiselt	-11.4127
vahelist	-11.4128
apteek	-11.413
jaotus	-11.4134
▁reisijate	-11.4138
▁valmistanud	-11.4138
▁rääki	-11.4144
▁nimetama	-11.4146
▁pidev	-11.4148
▁kvartalis	-11.4164
▁ühemõtteliselt	-11.4164
▁pariisi	-11.4164
▁rüütli	-11.4164
▁elanikkond	-11.4164
▁ostetakse	-11.4164
▁eestikeelne	-11.4164
▁materjale	-11.4165
▁kaugusel	-11.4165
▁pange	-11.4166
▁kohtumistel	-11.4166
▁üksmeelselt	-11.4169
▁versiooni	-11.4169
▁trahv	-11.4176
istlik	-11.4177
aadu	-11.4178
▁kasvava	-11.4179
kalev	-11.418
▁vangistus	-11.4186
▁ilusti	-11.4193
▁paul	-11.4196
▁vähenemist	-11.4199
▁ehitatakse	-11.4212
▁liiguta	-11.4214
▁sihtasutuste	-11.4215
äärse	-11.4223
▁levita	-11.4225
▁kitsenda	-11.4226
brigaad	-11.4226
▁koolitoit	-11.4226
▁autoriteet	-11.4226
▁igapäevast	-11.4227
▁eksperte	-11.4227
▁super	-11.423
▁külje	-11.4231
▁kukkus	-11.4233
▁olulisemaid	-11.4234
▁vastupidise	-11.424
▁teadlikud	-11.4241
▁õppimise	-11.4244
▁riigieksami	-11.4245
võlg	-11.4249
kaupa	-11.4256
harju	-11.4258
teadlase	-11.426
kohe	-11.4262
▁programmide	-11.4269
▁korraldatakse	-11.4271
▁rakvere	-11.4289
▁baseeru	-11.4289
▁mitmekesisus	-11.4289
▁võtsin	-11.4289
▁jookide	-11.429
▁kert	-11.4291
▁treenerite	-11.4292
▁allikas	-11.4295
▁tungi	-11.4297
▁ülla	-11.4297
majja	-11.4298
▁formaalselt	-11.4306
▁juhtiva	-11.4312
▁otsustusõigus	-11.4313
▁kümmekond	-11.4313
▁laske	-11.4316
hetkel	-11.4318
▁administratiiv	-11.4321
haldus	-11.4327
▁lapsevanem	-11.4328
▁900	-11.4329
pedagoog	-11.4335
▁estonia	-11.4341
▁ohjelda	-11.4352
▁ruutmeetri	-11.4352
leevendus	-11.4352
▁akna	-11.4352
▁formaat	-11.4352
▁tõlgendada	-11.4353
▁tootlus	-11.4355
▁lärm	-11.4355
▁ivari	-11.4363
korraldaja	-11.4365
▁pahe	-11.4376
▁mõõta	-11.4378
▁teravalt	-11.438
▁toimetada	-11.438
tehnika	-11.4381
▁arvude	-11.4385
▁metsanduse	-11.4388
▁prognooside	-11.4405
▁vanemapensioni	-11.4407
▁litsents	-11.4415
▁visiiditasu	-11.4415
▁märganud	-11.4415
▁propageeri	-11.4415
▁usaldusväärse	-11.4415
▁nendesamade	-11.4415
▁valgevene	-11.4415
▁hoolega	-11.4416
▁viska	-11.4417
▁vajaduspõhine	-11.4418
▁taandu	-11.4421
▁professionaal	-11.4426
▁keerulisemaks	-11.4427
▁2009	-11.4431
iteedi	-11.4436
kobar	-11.4445
▁definitsiooni	-11.4448
tariif	-11.4456
▁sadade	-11.4462
▁fookuses	-11.4464
suund	-11.4468
▁apteekide	-11.4471
▁plaanide	-11.4472
madalapalgaliste	-11.4476
▁ebamõistlik	-11.4478
▁danske	-11.4479
▁tamkivi	-11.4479
▁paigalda	-11.4479
▁kutseõppeasutus	-11.4479
▁filosoofilis	-11.4479
▁maagaasi	-11.4479
▁individuaalse	-11.4479
▁2006.	-11.448
▁andsin	-11.449
helmen	-11.451
▁laekumist	-11.451
▁riigilõiv	-11.4516
▁langetati	-11.4531
▁hinnatõus	-11.4533
▁abivahendi	-11.4536
▁kombeks	-11.4543
▁üldjoontes	-11.4543
▁elukutse	-11.4543
▁rikkumine	-11.4543
▁samasooliste	-11.4543
▁puhkudel	-11.4543
▁aresti	-11.4543
mägi	-11.4544
▁tööturuteenuste	-11.4544
▁suudetakse	-11.4544
▁suvalise	-11.4545
▁regulaarselt	-11.4545
▁konkreetsemalt	-11.4567
▁eeldused	-11.4569
▁kaudse	-11.4571
▁pädev	-11.4573
loomulikult	-11.4575
▁tunnetus	-11.4583
õpetuse	-11.4592
▁valdava	-11.4603
konstruktsioon	-11.4607
▁ekspertiisi	-11.4607
▁konsolideeri	-11.4607
▁populaarse	-11.4607
▁üpris	-11.4607
▁indekseeri	-11.4607
▁aruandlus	-11.4608
▁kaela	-11.4608
▁tulge	-11.4608
▁loomingu	-11.4608
▁2030	-11.461
▁võidavad	-11.4615
▁kiirustades	-11.462
▁kanada	-11.462
aruande	-11.464
▁perekonnaseadus	-11.4641
situatsioon	-11.4641
vilja	-11.4643
▁põllumees	-11.4659
kallid	-11.4667
▁revisjoni	-11.4672
▁oodanud	-11.4672
▁aktiivsus	-11.4672
▁põllumehi	-11.4672
▁saatkonna	-11.4673
▁tõkesta	-11.4673
▁naaberriigi	-11.4674
▁saatkond	-11.4675
sjagu	-11.4677
▁matusetoetus	-11.4683
▁mõninga	-11.4687
tõe	-11.4701
tellimus	-11.4703
▁reegli	-11.4703
kokkuleppe	-11.4706
jätmine	-11.4707
▁4000	-11.4711
▁valgus	-11.4719
▁kalandus	-11.4724
▁vägisi	-11.4738
▁etteheide	-11.4738
▁klassikalise	-11.4738
määruse	-11.4749
vastutus	-11.4774
▁argumentide	-11.4781
omanikke	-11.4781
▁astmelise	-11.4787
uuringu	-11.4788
hange	-11.479
territoorium	-11.4799
▁elutähtsa	-11.4803
▁kuritegusid	-11.4804
▁esmase	-11.4804
tingimusi	-11.4805
▁müüakse	-11.4806
▁sunniraha	-11.4807
laadse	-11.4808
▁turvaline	-11.4819
▁pärnumaa	-11.4832
samuti	-11.4839
▁lahendamata	-11.4841
▁asjaoma	-11.4845
konverents	-11.4853
panemise	-11.4858
▁umb	-11.4869
▁lember	-11.487
▁opereeri	-11.487
▁strateegilist	-11.487
▁moskva	-11.487
▁austria	-11.487
▁ajalukku	-11.487
▁lähedaste	-11.487
▁jäeti	-11.487
▁tarbijakaitse	-11.4873
▁ametikohtade	-11.4875
▁teadete	-11.4876
▁siiras	-11.4879
▁huvihariduse	-11.4879
▁andsime	-11.488
▁tõsiasja	-11.4881
▁viha	-11.4882
rahv	-11.4889
▁eelarvenõukogu	-11.4889
▁lennundus	-11.4902
meetmeid	-11.4906
▁esialgne	-11.4936
▁ignoreeri	-11.4936
▁radikaalse	-11.4936
▁delegeeri	-11.4936
▁iirimaa	-11.4936
▁ülle	-11.4936
vöönd	-11.4936
▁hoidnud	-11.4936
▁ravimeid	-11.4936
▁nuti	-11.4937
▁kaubalaeva	-11.4938
▁sõnavõtja	-11.494
▁jätmise	-11.4941
▁otsetoetuste	-11.4941
▁89	-11.4942
▁tublisti	-11.4943
▁läänemaa	-11.4951
▁ürituse	-11.4952
▁muutumise	-11.496
▁kuritegelik	-11.4972
▁formaalse	-11.4974
▁järjekordse	-11.4978
▁reguleerimise	-11.4979
▁vaenu	-11.4979
▁saavutamise	-11.5002
▁õie	-11.5003
▁sihtotstarbelis	-11.5003
▁spetsialiseeru	-11.5003
▁unistus	-11.5003
▁elatustase	-11.5003
▁tahtis	-11.5004
▁vaiki	-11.5004
▁sigade	-11.5005
▁sildista	-11.501
▁uurima	-11.5012
▁nõudma	-11.5012
▁ebaseaduslik	-11.5015
▁hiv	-11.5019
▁langi	-11.502
▁2010	-11.5021
tarkvara	-11.5022
▁sünnipäeva	-11.503
▁veebruar	-11.5035
reguleeri	-11.5042
▁99	-11.5058
▁peen	-11.5063
▁2014–2020	-11.5071
▁administreeri	-11.5071
▁elementaarne	-11.5071
▁kütteõli	-11.5071
▁stimuleeri	-11.5071
▁otsekohe	-11.5072
▁tüli	-11.5077
▁luure	-11.5078
▁politseiametnik	-11.5094
▁süva	-11.5094
▁sendi	-11.5096
investeering	-11.511
kandidaadi	-11.511
▁argumenteeri	-11.5126
terminal	-11.5131
▁arvestatava	-11.5134
▁soosaar	-11.5135
konverentsil	-11.5136
hommiku	-11.5138
▁erakorraline	-11.5139
▁kõikvõimalike	-11.5139
▁pankrotti	-11.5139
▁sarnast	-11.5139
▁maapõue	-11.5139
▁arvatavasti	-11.5139
▁lemmik	-11.5139
▁läbivaatamist	-11.5139
▁vihja	-11.5139
▁töörühm	-11.5147
▁kuulutan	-11.5158
suutlikkus	-11.5159
▁kukk	-11.5168
▁maaomaniku	-11.5173
▁mugavam	-11.5176
▁faktide	-11.5179
▁rääkige	-11.5179
saladus	-11.518
taolis	-11.5181
kannet	-11.5181
enesestmõistetav	-11.5185
▁alammäära	-11.5195
▁põhineva	-11.5198
▁väljaõpe	-11.5198
▁hooldaja	-11.5201
▁inimõigus	-11.5204
ühendkuningriigi	-11.5207
▁kõikvõimalikk	-11.5207
▁narkootikum	-11.5207
▁säärast	-11.5207
▁tegevväelase	-11.5207
▁kuvand	-11.5207
▁peatükk	-11.5207
▁üleandmine	-11.5208
▁silmakirjalik	-11.5208
laitmatu	-11.5208
▁remonti	-11.5208
▁kohaldamise	-11.5209
▁põgenike	-11.521
▁hääletage	-11.521
kommunikatsiooni	-11.5211
▁ülejääk	-11.5212
▁mõjuanalüüsi	-11.5212
▁märkisite	-11.5215
▁majanduskriisi	-11.5218
▁hoogu	-11.5225
▁loodava	-11.5228
▁tundlik	-11.5243
kvaliteet	-11.5249
põllumajandus	-11.5249
▁peadirektor	-11.5258
mõiste	-11.527
▁rumalus	-11.527
▁põgene	-11.5277
▁vaimse	-11.5277
▁viitate	-11.5277
▁välismaalase	-11.5278
▁tervishoidu	-11.5284
▁suurenemise	-11.5285
kohut	-11.5288
▁tellija	-11.5308
▁survesta	-11.5312
rahastus	-11.5321
▁eelistus	-11.5321
lähedane	-11.5328
▁pensionifondi	-11.5336
▁visioon	-11.5342
▁pilootprojekt	-11.5346
▁portugal	-11.5346
▁assotsi	-11.5346
▁streik	-11.5346
▁laiapõhjalis	-11.5346
▁vms	-11.5346
▁sellessamas	-11.5346
▁kärbi	-11.5347
farmid	-11.5355
▁jõustada	-11.5355
▁ühtepidi	-11.5355
▁kohutav	-11.5356
▁uudiseid	-11.5359
▁esitatava	-11.5361
▁esitasite	-11.5366
▁turistide	-11.5374
▁julgusta	-11.5385
pädevus	-11.5389
rvishoiuteenuse	-11.5389
▁ametkond	-11.5392
▁soodustust	-11.5399
▁maksimaalse	-11.5399
▁tuttav	-11.5412
▁ruttu	-11.5416
▁uurimus	-11.5417
▁inimarengu	-11.5417
▁rahvaerakond	-11.5418
▁jätkusuutliku	-11.5426
▁kogukondade	-11.5433
▁eraldamise	-11.5435
▁kavandatava	-11.5439
▁paindlikuma	-11.5455
kolle	-11.5459
▁neljapäeva	-11.5463
▁sealhulgas	-11.5486
▁ebapiisav	-11.5486
▁liibanonis	-11.5486
▁suhelnud	-11.5486
baas	-11.5486
▁külmuta	-11.5487
▁külva	-11.5487
▁referendumi	-11.5487
▁segamini	-11.5488
▁töötava	-11.5489
sisulise	-11.5492
▁kompetentsus	-11.5492
▁vabakaubandus	-11.5492
▁87	-11.5494
▁veenda	-11.5507
▁erasektor	-11.5513
välise	-11.5521
▁õnnelik	-11.5528
▁kvalifikatsioon	-11.5535
laine	-11.5554
koefitsiendi	-11.5557
▁heakskiidu	-11.5557
▁iseseisev	-11.5557
▁novikov	-11.5557
▁iisrael	-11.5557
▁maailmavaade	-11.5557
▁tõsilugu	-11.5557
▁trüki	-11.5557
▁nupu	-11.5557
▁majutusasutuste	-11.5558
risoodustusmaksu	-11.5559
▁välisesindus	-11.5559
▁juhuslikult	-11.5559
▁rapla	-11.5562
ehhi	-11.5562
▁sisendi	-11.5563
▁voor	-11.5563
▁otsustaja	-11.5564
▁põllumehe	-11.5566
▁sinnapoole	-11.5568
▁0,8	-11.5586
järjekord	-11.5602
seaduseelnõu	-11.5606
transpordi	-11.5615
▁keskliit	-11.5619
▁rahuliku	-11.5625
efektiivsus	-11.5625
▁bruto	-11.5628
proportsionaalne	-11.5628
▁ebaõiglas	-11.5628
▁eelnimetatud	-11.5628
▁sahtli	-11.5629
▁võlgade	-11.5632
▁tahtlik	-11.5636
▁mõeldakse	-11.5638
▁suhtlemise	-11.5643
▁halduskohtu	-11.5656
▁taeva	-11.5656
▁karel	-11.5667
juhatus	-11.5676
nurga	-11.5677
püstitus	-11.5686
▁hannes	-11.57
barbi	-11.5701
sigarettide	-11.5701
▁sikkut	-11.5701
▁oludes	-11.5701
▁toimunu	-11.5715
▁sisaldava	-11.5733
kolmas	-11.5754
pinna	-11.576
▁ajaloolist	-11.5769
▁arhitekt	-11.5773
▁emotsionaalne	-11.5773
▁vältimatu	-11.5773
▁rikkunud	-11.5773
▁rahakott	-11.5773
▁vedada	-11.5773
▁vallavanema	-11.5775
▁kesklinna	-11.5776
▁oodatakse	-11.5777
▁külalis	-11.5777
▁üldharidus	-11.5784
▁pikendamise	-11.5791
▁tagasihoidlik	-11.5792
▁kaevandus	-11.5801
▁toetava	-11.5808
karistus	-11.5821
laua	-11.5827
▁elementaarse	-11.5846
▁inglismaa	-11.5846
▁kirjeldus	-11.5846
▁manipuleeri	-11.5846
▁optimism	-11.5846
▁rahulolematu	-11.5846
▁sealjuures	-11.5846
▁tehnikaülikooli	-11.5846
▁sajaprotsendili	-11.5846
▁kurssi	-11.5846
▁tekkiva	-11.5853
▁tõeliselt	-11.5856
▁reisija	-11.5857
▁aprill	-11.5857
▁tasakaalustatud	-11.5861
tarkus	-11.5867
▁pääst	-11.5873
kaabli	-11.5877
linn	-11.5888
esiteks	-11.59
▁korralikku	-11.5904
majandusliku	-11.591
konservatiiv	-11.5919
▁akadeemilise	-11.5919
▁hiljaaegu	-11.5919
▁horvaatia	-11.5919
▁kokkukutsuja	-11.5919
▁kübarsepa	-11.5919
▁skandinaavia	-11.5919
▁kohtulahend	-11.5919
▁pensionäre	-11.5919
▁järgmisi	-11.5919
▁vastutustundetu	-11.5919
▁väikesaarte	-11.592
▁pindala	-11.592
▁hätta	-11.592
▁homse	-11.592
▁kokkuvõte	-11.592
▁arusaamine	-11.5922
▁veenva	-11.593
▁euroliidu	-11.5932
▁rassi	-11.595
▁universaal	-11.5952
▁väljendit	-11.5967
arutelu	-11.5971
arvestus	-11.5974
▁sanktsiooni	-11.598
▁kujund	-11.598
▁keelekümblus	-11.5993
▁pilvre	-11.5993
▁soomlased	-11.5993
▁arendustegevus	-11.5995
▁kaotus	-11.6005
▁asukoht	-11.6009
skindlustusmakse	-11.6009
dokumentide	-11.602
apita	-11.6026
▁proportsioon	-11.6038
▁vabastamise	-11.6049
▁säilitamise	-11.6062
▁ennist	-11.6065
pank	-11.6066
▁nuppu	-11.6068
▁streigi	-11.6068
▁käsutuses	-11.6068
▁täpsusega	-11.6068
residendi	-11.6068
▁stream	-11.6069
▁kümnendi	-11.6072
▁pensioniea	-11.6074
▁kuulsite	-11.6078
tegelikult	-11.6081
▁aktsiisitõus	-11.6088
sõiduk	-11.6102
residentide	-11.614
▁leppisime	-11.6143
▁tegeldud	-11.6143
▁jõuluvana	-11.6143
▁subjekt	-11.6143
▁rahvatervise	-11.6143
▁tehnoloogilis	-11.6143
inimlik	-11.6144
▁palja	-11.6145
▁pidasite	-11.6148
▁keskliidu	-11.6149
▁toetudes	-11.6152
pidamis	-11.6157
▁lõhesta	-11.6175
finants	-11.6198
▁pereliikme	-11.6205
konkurent	-11.6218
▁akkermann	-11.6219
▁defitsiidi	-11.6219
▁pretsedent	-11.6219
▁ülioluline	-11.6219
▁kiidetud	-11.6219
▁leidsin	-11.6219
▁viimsi	-11.6219
▁kaugkütte	-11.6219
▁kohtuvaidlus	-11.6219
▁istungisaalis	-11.6219
▁ott	-11.6221
▁vahva	-11.6221
ahvusraamatukogu	-11.6221
▁kandnud	-11.6222
▁kaalutle	-11.6222
eerunud	-11.6224
▁tegevusluba	-11.6225
▁kolmandikku	-11.6228
mann	-11.6233
▁kasutuses	-11.626
▁käesolev	-11.6273
▁teostamise	-11.6283
toime	-11.6284
kampaania	-11.6292
▁arenguseire	-11.6295
▁peegelda	-11.6295
▁pöördmaksustami	-11.6295
▁ingliskeelse	-11.6295
▁petitsioon	-11.6295
▁rekonstrueeri	-11.6295
▁subjektiivse	-11.6295
▁uhkus	-11.6295
▁idapartnerlus	-11.6295
▁mkm	-11.6295
▁sulgeda	-11.6295
▁nentis	-11.6296
▁kelleltki	-11.6297
moon	-11.6298
▁säiliks	-11.6301
▁lubamatu	-11.6301
▁seonduv	-11.6302
▁magusa	-11.6312
▁hääletamissedel	-11.6318
▁inimliku	-11.634
▁ammenda	-11.6344
▁kätes	-11.6355
demokraatia	-11.6356
suhe	-11.6357
hengeni	-11.6372
▁adekvaatne	-11.6372
▁elektrooniline	-11.6372
▁immigrantide	-11.6372
▁legaalse	-11.6372
▁logopeed	-11.6372
▁olulisus	-11.6372
vanus	-11.6374
▁kirglik	-11.6376
▁kobarseadus	-11.6376
buss	-11.6377
tevõtlusminister	-11.6384
kahetsusväärselt	-11.6392
kauba	-11.6398
pudeli	-11.6409
reeglite	-11.6412
löögi	-11.6414
ettekandjale	-11.6414
gümnaasiumiastme	-11.6416
▁käsita	-11.6434
▁uuris	-11.6438
▁põlvkond	-11.6449
▁kosovo	-11.645
▁põltsamaa	-11.645
▁igapäevane	-11.645
▁nõrga	-11.645
▁jättes	-11.645
▁tahtsid	-11.645
▁mõistma	-11.6452
▁tekkimise	-11.6452
▁1999.	-11.6455
▁efektiivsemalt	-11.6455
▁tunti	-11.6455
▁põhimõttelisi	-11.6456
▁tõtt	-11.6462
▁edene	-11.6463
▁lähtekoht	-11.6504
▁öko	-11.6505
pildi	-11.6511
tegemist	-11.6511
ahela	-11.6526
▁järvamaa	-11.6528
▁lükati	-11.6528
edbank	-11.6528
▁maksupettuste	-11.6528
▁väljaehitamis	-11.6528
▁üksjagu	-11.6528
▁maksustatakse	-11.6528
▁metalli	-11.6529
▁doteeri	-11.653
▁kajar	-11.6533
▁traditsioon	-11.6535
alkoholireklaami	-11.6536
maris	-11.6556
▁tugevus	-11.6562
jaamade	-11.6588
tallinna	-11.6589
▁valimisringkond	-11.66
panek	-11.6601
kultuur	-11.6607
▁kvalifitseeru	-11.6607
▁monopol	-11.6607
▁ametivande	-11.6607
▁staabiohvitseri	-11.6607
▁valimisringkonn	-11.6607
▁represseeri	-11.6607
▁lehma	-11.6607
▁jents	-11.6607
▁ühetaolise	-11.6607
▁soodustusi	-11.6608
▁katastroofi	-11.6609
▁massiliselt	-11.661
▁avaldu	-11.6633
tööjõu	-11.6662
▁digitaal	-11.6662
▁vaikse	-11.6669
intress	-11.6679
▁meeleolu	-11.6686
▁optimaalse	-11.6686
▁taktika	-11.6686
▁voodi	-11.6686
▁abiellu	-11.6686
▁luige	-11.6686
▁kohtumiseni	-11.6686
▁pbk	-11.6686
▁rõhutasite	-11.6689
▁efektiivsuse	-11.6689
▁jt	-11.6689
▁perekondade	-11.6693
▁maitse	-11.6705
▁likvideerimise	-11.6725
▁varasta	-11.6727
▁vastandu	-11.6743
▁resolutsioon	-11.6766
▁mikro	-11.6766
▁neidsamu	-11.6766
▁piiriülese	-11.6766
▁lõpptulemus	-11.6769
▁töövõimetoetuse	-11.677
▁kantakse	-11.6774
▁riigimehelik	-11.6775
▁piiritle	-11.6775
▁sõbraliku	-11.6778
▁ülejäänu	-11.6784
▁nominaal	-11.6791
▁eraldatava	-11.6807
▁kasumlik	-11.6831
▁puutuva	-11.6836
versioon	-11.6841
▁haamrilööki	-11.6847
▁innove	-11.6847
▁kremli	-11.6847
▁mälestus	-11.6847
▁mõõduka	-11.6847
▁populaarne	-11.6847
▁ratsionaalne	-11.6847
▁rummo	-11.6847
▁eestkõneleja	-11.6847
▁jälitustoimingu	-11.6847
▁alustuseks	-11.6847
▁transiidi	-11.6847
▁püügi	-11.6847
▁korruta	-11.6847
▁klaari	-11.6848
▁võrgustiku	-11.6851
▁struktuurifondi	-11.6855
reeglid	-11.6899
ärk	-11.6903
lehekülg	-11.6907
heimar	-11.6913
regulatsioon	-11.6913
▁maanteeamet	-11.6915
▁õpilast	-11.6919
jandusprognoosi	-11.6925
▁psühho	-11.6927
▁kõikvõimaliku	-11.6928
▁ministreid	-11.6928
▁piirivalvur	-11.6928
▁nihku	-11.6928
▁jaapani	-11.6928
▁omista	-11.6928
eluvararegistri	-11.6928
▁tubakatoodete	-11.6929
▁kindlustusandja	-11.693
▁kogumispensioni	-11.693
▁juuruta	-11.6931
▁öösel	-11.6931
▁asjaomaste	-11.6933
▁ennetustöö	-11.6947
▁kehvem	-11.6953
sumin	-11.6971
▁hull	-11.6973
▁meeletu	-11.7
▁drastilis	-11.701
▁jalgpalli	-11.701
▁rahvusooperi	-11.701
▁sellegipoolest	-11.701
▁uimasti	-11.701
▁spekulatsioon	-11.701
▁vihje	-11.701
▁teerulli	-11.701
▁sõpru	-11.701
▁jürgenstein	-11.701
▁sealiha	-11.701
▁uude	-11.7011
▁hiline	-11.7011
kompanii	-11.7012
▁raamistiku	-11.7013
▁pikamäe	-11.7014
▁torma	-11.7021
surma	-11.703
ustavaks	-11.7044
▁kätt	-11.705
▁hoiatus	-11.705
▁laenukoormus	-11.7081
astri	-11.7085
▁intellektuaal	-11.7093
▁diisli	-11.7093
▁praami	-11.7093
▁riigisisest	-11.7093
▁saatmist	-11.71
▁parlamentaar	-11.711
variant	-11.7162
katastroof	-11.7173
▁mäletatavasti	-11.7176
▁teekasutustasu	-11.7176
▁island	-11.7176
▁täitemenetluse	-11.7176
▁versus	-11.7176
▁valuuta	-11.7176
▁süüteo	-11.7176
▁ametiisiku	-11.7176
▁pistmist	-11.7177
▁pidasime	-11.7178
▁jõukohane	-11.7178
▁pigista	-11.7181
▁ebapr	-11.7193
▁soetamise	-11.7202
gram	-11.7225
▁leht	-11.7226
▁kartus	-11.7247
protsendi	-11.7248
komponent	-11.7248
investeeringuid	-11.7248
▁tarbijakrediidi	-11.726
▁elekter	-11.726
▁kummitempli	-11.726
▁strateegiline	-11.726
▁tihumeetri	-11.726
▁salvesta	-11.726
▁sellestsamast	-11.7261
▁emakeel	-11.7267
▁lahend	-11.7309
väljund	-11.7312
film	-11.7315
majanduslik	-11.7316
▁ajaleht	-11.7321
instituudi	-11.7333
helir	-11.7333
trend	-11.7337
▁sihtgrupp	-11.7342
distsipliin	-11.7345
▁identiteedi	-11.7345
▁platvormi	-11.7345
▁stabiilne	-11.7345
▁sümbol	-11.7345
▁traagilis	-11.7345
▁pakkumist	-11.7345
▁edgar	-11.7345
▁armastus	-11.7345
▁võtsite	-11.7345
▁lennujaama	-11.7348
▁puutumatu	-11.7351
▁formaal	-11.736
▁öeldu	-11.7368
▁kaardista	-11.7378
▁külm	-11.7388
võlaõigusseaduse	-11.7403
konsensuslikult	-11.7419
▁proteste	-11.7423
meditsiin	-11.7429
▁konstruktiivne	-11.743
▁rajaleidja	-11.743
▁tippkohtumise	-11.743
▁maksuhalduri	-11.743
▁kindlustusselts	-11.7432
▁võetava	-11.7437
mööda	-11.7507
▁ajavahemik	-11.7516
▁hansson	-11.7516
▁populaarsus	-11.7516
▁teenusepakkuja	-11.7516
▁rakkerühm	-11.7517
▁analüütiku	-11.7517
▁ajendas	-11.752
▁reageerimis	-11.7523
▁nõudmise	-11.7532
ehitusseadustiku	-11.7547
eldar	-11.7595
▁kinnipeetava	-11.7603
▁konsultatsiooni	-11.7603
▁psühhiaatri	-11.7603
▁väärtushinnangu	-11.7603
▁rikkuda	-11.7603
▁ilves	-11.7603
▁suundumus	-11.7604
▁võrdu	-11.7604
▁leibkond	-11.7604
▁ostetud	-11.7604
▁piirkondi	-11.7604
▁pärsi	-11.7604
▁käepärast	-11.7605
▁hiili	-11.7607
▁enim	-11.7607
▁korista	-11.7614
seadustikku	-11.7628
▁eksport	-11.7635
▁inflatsioon	-11.7659
status	-11.7666
meresõiduohutuse	-11.7691
portaali	-11.7691
▁rõhuasetus	-11.7691
▁tankla	-11.7691
▁umbusalda	-11.7691
▁kindlustunde	-11.7691
▁kangro	-11.7691
▁tahtmist	-11.7691
▁säilib	-11.7692
▁uskumatu	-11.7693
▁komme	-11.7697
▁lühem	-11.7708
periood	-11.7727
▁infotehnoloogi	-11.7747
▁üldhariduskooli	-11.7751
▁normitehnilis	-11.7757
vahelehüüe	-11.778
▁eesotsas	-11.778
▁esinaine	-11.778
▁identiteet	-11.778
▁innovaatilis	-11.778
▁seltskonna	-11.778
▁kärpida	-11.778
▁sõprade	-11.778
▁rohelist	-11.778
▁eeldatavast	-11.778
▁pahameel	-11.7781
▁hüppeliselt	-11.7781
erakonnakaaslane	-11.7787
▁hasartmängu	-11.7796
▁valitseva	-11.7809
▁araabia	-11.7869
▁arengusuundade	-11.7869
▁johannes	-11.7869
▁kiireloomulis	-11.7869
▁rikkumisi	-11.7869
▁indikatsioon	-11.7869
▁luksemburg	-11.7869
▁filosoofia	-11.7869
▁mõistnud	-11.7869
▁noorsootöö	-11.7869
maastikul	-11.792
▁võlakirja	-11.794
hisuhtevägivalla	-11.7946
valdo	-11.7946
▁maksimaalne	-11.7959
▁spetsiifiline	-11.7959
▁tüdruku	-11.7959
▁energiajookide	-11.7959
▁kalluta	-11.796
▁paarkümmend	-11.7961
▁äriseadustiku	-11.7961
▁sedeli	-11.7961
▁video	-11.7962
▁paslik	-11.7963
▁järjepidev	-11.7969
▁otstarbekam	-11.7976
▁kõikjal	-11.8012
▁saabuva	-11.8014
treener	-11.8031
▁tööjõukulu	-11.8036
kolmanda	-11.8045
▁agressiivse	-11.805
▁ümberkorraldami	-11.805
▁hämmastav	-11.805
▁kuressaare	-11.805
▁ranitsatoetus	-11.805
▁tsitaadi	-11.805
▁täidesaatva	-11.805
▁ooteala	-11.805
▁tööjõumakse	-11.805
▁rakendusaktide	-11.805
▁dollari	-11.805
▁leidmine	-11.805
▁hoitud	-11.805
▁lõppemist	-11.8051
▁geograafilise	-11.8051
tööstuskoda	-11.8051
esindus	-11.806
rvishoiusüsteemi	-11.811
tarbimise	-11.8133
▁miljard	-11.8135
▁naeruväärista	-11.8142
sammult	-11.8142
▁eestvedamisel	-11.8142
▁vaadati	-11.8142
▁volmer	-11.8142
▁ühendriigid	-11.8142
▁lillo	-11.8142
▁osatähtsus	-11.8142
▁vahemere	-11.8142
▁auväärse	-11.8142
▁jalaväe	-11.8142
▁emiteeri	-11.8142
▁efektiivsust	-11.8142
▁üksikvanema	-11.8142
▁ebamõistlikult	-11.8143
väärteomenetluse	-11.8144
▁ahista	-11.8152
oportsionaalselt	-11.8185
▁põlis	-11.8211
▁kärbe	-11.8222
eetris	-11.8226
standardi	-11.823
▁individuaal	-11.8234
▁materiaalse	-11.8234
▁doktorandi	-11.8234
▁konfiskeeri	-11.8234
▁korrektiiv	-11.8234
▁stabiliseerimis	-11.8234
▁tõenäoline	-11.8234
▁magistri	-11.8234
▁käitlemise	-11.8234
▁targemaks	-11.8236
▁luksus	-11.8236
▁hajuta	-11.8237
▁lõppema	-11.8238
▁kaitsja	-11.8244
▁jätk	-11.8247
▁treeneri	-11.8249
▁armee	-11.8251
▁sõbra	-11.8258
lävend	-11.8261
elektrijaama	-11.8282
▁maavanem	-11.8288
▁rahusta	-11.8292
kindlustusamet	-11.8293
▁korruptsioon	-11.8296
▁ohvitser	-11.8297
▁trans	-11.8327
▁moldova	-11.8328
▁mõeldes	-11.8328
▁pressiteate	-11.8328
▁senimaani	-11.8328
▁rektori	-11.8328
▁loovuta	-11.8328
▁tööjõupuudus	-11.8328
▁alkoholitarbimi	-11.8331
esimese	-11.8334
▁lootusetu	-11.8352
▁poiss	-11.8369
vägi	-11.8372
positsioon	-11.8374
▁teovõime	-11.8412
kuriteo	-11.842
▁helsingi	-11.8422
▁minimaalne	-11.8422
▁moraalne	-11.8422
▁suveräänse	-11.8422
▁etteteatamise	-11.8422
▁tänuväärne	-11.8422
▁jagamismajandus	-11.8422
▁briti	-11.8423
▁aastakümnete	-11.8423
▁suurune	-11.8424
▁ööpäev	-11.8428
kliiniku	-11.844
▁nõuande	-11.8451
▁harjumus	-11.8454
▁märg	-11.8467
▁varasem	-11.848
▁märgista	-11.8503
▁tervishoid	-11.8508
kokkulepe	-11.8516
▁elluviimine	-11.8517
▁islami	-11.8517
▁valimisliitude	-11.8517
▁viipekeel	-11.8517
▁siitsamast	-11.8517
▁maripuu	-11.8517
▁konjunktuuri	-11.8517
▁vihakõne	-11.8518
▁enesemääramis	-11.8518
▁buumi	-11.8518
▁uurimine	-11.8518
▁põlvkondade	-11.8518
▁meeleavaldus	-11.8518
▁tahtmise	-11.8519
▁juua	-11.8521
▁mõistmise	-11.8524
▁leita	-11.8533
▁protseduurilis	-11.8538
▁rahastamismudel	-11.8545
produkt	-11.8597
▁piimatootja	-11.8598
▁nõusolek	-11.8603
poliitilisi	-11.8606
▁geograaf	-11.8612
põhjus	-11.8613
▁lairiba	-11.8613
▁taasiseseisvumi	-11.8613
▁diferentseeri	-11.8613
▁domineeri	-11.8613
▁broneeri	-11.8613
▁tubakaaktsiisi	-11.8613
▁huvigrupid	-11.8613
▁rahvaalgatuse	-11.8613
▁lasknud	-11.8613
▁järjepidevalt	-11.8614
▁aktsiakapitali	-11.8614
▁start	-11.8615
▁teatajas	-11.8618
▁suurusjärgu	-11.8621
objekt	-11.8676
arendustegevusse	-11.8693
võtluskeskkonna	-11.8708
▁eeltoodu	-11.871
▁rakenduskõrg	-11.871
riigivalitsemise	-11.871
▁ideoloogilise	-11.871
▁nentida	-11.871
▁populistlik	-11.871
▁roheline	-11.871
▁halvusta	-11.8711
▁maksumuudatused	-11.8711
▁sõber	-11.8711
▁vanemaealis	-11.8711
▁kiirkorras	-11.8711
▁säilimise	-11.8714
▁reeglistik	-11.8715
▁natura	-11.8716
auditi	-11.8779
▁korrelatsioon	-11.8809
▁niikaua	-11.8809
▁operaator	-11.8809
▁legaliseeri	-11.8809
▁kõhklus	-11.8809
▁toitlustus	-11.8809
▁põhialused	-11.8809
▁sinnamaani	-11.8809
▁viidates	-11.8809
põhja	-11.8811
riigivaraseaduse	-11.8815
▁analoogilis	-11.884
▁minge	-11.8883
▁leinatamm	-11.8908
▁tervikpilti	-11.8908
▁vaadatuna	-11.8908
▁varjupaigataotl	-11.8908
▁setomaa	-11.8908
▁kõlba	-11.8908
▁aktsiaseltsi	-11.8908
▁volikokku	-11.8908
kõlblik	-11.891
ressursi	-11.891
tõepoolest	-11.8911
algab	-11.8915
▁vahemik	-11.8922
▁eeldataval	-11.8928
▁ligipääsetav	-11.8938
nõupidamisel	-11.8957
▁hüppe	-11.9006
▁kooskõla	-11.9007
▁europarlamendi	-11.9008
▁intelligen	-11.9008
▁politiseeri	-11.9008
▁tõstis	-11.9008
▁diagnoosi	-11.9009
▁parajast	-11.9009
number	-11.9011
heljo	-11.9011
teabe	-11.9015
▁korduva	-11.9048
olulise	-11.9076
kompensatsioon	-11.9106
migratsioon	-11.9107
▁alltöövõtja	-11.9109
▁praktilisi	-11.9109
horisont	-11.9109
pealtnägija	-11.9109
▁kontserdi	-11.9109
▁kultuuripärandi	-11.9109
▁stiimul	-11.9109
▁treeni	-11.9109
▁murra	-11.9109
▁unista	-11.9109
veitsi	-11.9109
▁alampalk	-11.9109
▁privaat	-11.911
▁nõudnud	-11.911
tsirkus	-11.911
õpilaste	-11.9113
ääletamistulemus	-11.9116
ohvitseri	-11.9142
akonnakeskustes	-11.9148
nädal	-11.9186
aare	-11.9203
▁belgia	-11.9211
▁küüdi	-11.9211
▁minevikku	-11.9211
▁objektiivne	-11.9211
▁retsepti	-11.9211
▁tagasilükkamise	-11.9211
▁teoreetiline	-11.9211
▁kriminaliseeri	-11.9211
▁kitsaskohad	-11.9211
▁vastavusse	-11.9211
▁maksuerisus	-11.9211
▁tahtsime	-11.9211
▁jätsite	-11.9211
▁nihuta	-11.9211
▁alko	-11.9211
▁kliinikumi	-11.9213
sääst	-11.9217
ameerika	-11.9217
klass	-11.924
lgeolekunõukogu	-11.9247
vaenulik	-11.9248
rvishoiutöötaja	-11.926
▁filosoofiline	-11.9314
▁logistika	-11.9314
▁lõviosa	-11.9314
▁vallavolikogu	-11.9314
instrumendi	-11.9314
▁import	-11.9314
▁rehkenda	-11.9314
▁riiuli	-11.9314
▁päikese	-11.9314
▁raskeveoki	-11.9314
▁diplomaatilis	-11.9314
▁skp	-11.9314
▁vargus	-11.9314
▁õla	-11.9317
garantii	-11.9321
loogika	-11.9322
▁naudi	-11.9348
▁tõdemus	-11.9353
▁taanda	-11.9361
toidu	-11.9362
▁nähta	-11.9387
aadress	-11.9412
▁impordi	-11.9418
▁läbimõeldu	-11.9418
▁olümpiakomitee	-11.9418
▁subjektiivne	-11.9418
▁trump	-11.9418
▁eesistumine	-11.9418
plokk	-11.9422
tööstuskoja	-11.9422
▁määratlus	-11.9424
konsensusega	-11.9426
▁sügis	-11.9426
▁kabinet	-11.9427
ühiskonna	-11.9475
diplom	-11.9523
▁abstraktse	-11.9523
▁reglement	-11.9523
▁spetsiifilist	-11.9523
▁kalendriaasta	-11.9523
▁kontserni	-11.9523
▁liibüa	-11.9523
▁igavesti	-11.9523
▁küüniline	-11.9523
▁sihuke	-11.9523
▁allikatest	-11.9523
▁reitingu	-11.9524
▁töötlemise	-11.9524
▁üleriigilise	-11.9527
▁monitoori	-11.953
eetika	-11.956
▁arutlus	-11.9573
▁koosnev	-11.9604
▁hajaasustus	-11.9629
▁rumeenia	-11.9629
▁konsulaar	-11.9629
▁koondaruande	-11.9629
▁ümbrus	-11.9629
▁maksuerand	-11.963
▁doktorant	-11.963
löök	-11.9647
väljaande	-11.9652
▁iseennast	-11.9737
▁keskeltläbi	-11.9737
▁lõhna	-11.9737
▁vähimatki	-11.9737
▁hankimise	-11.9737
▁lastevanemad	-11.9737
▁suutelised	-11.9737
▁kongressi	-11.9737
▁ergma	-11.9737
▁kunstiakadeemia	-11.9737
▁lossi	-11.9737
▁kiirgus	-11.9737
▁luuletus	-11.974
harrastus	-11.9789
▁veebilehe	-11.9799
▁stenogramm	-11.9822
protsentuaalselt	-11.9846
▁bioloogilis	-11.9846
▁legitiimne	-11.9846
▁silmitsi	-11.9846
▁solidaarne	-11.9846
▁ümmargus	-11.9846
eksemplar	-11.9846
▁orienteeri	-11.9846
▁takerdu	-11.9846
▁dotatsiooni	-11.9846
▁2022	-11.9846
▁lugupidav	-11.9846
▁pannes	-11.9846
▁põhiõigusi	-11.9846
▁nädalavahetusel	-11.9846
▁terviktekst	-11.9846
▁revolutsiooni	-11.9846
meedia	-11.9854
▁vaatleja	-11.9855
bürokraatia	-11.9858
ukraina	-11.9859
temaatika	-11.9895
▁definitsioon	-11.9898
▁tõenäolis	-11.9955
▁austraalia	-11.9956
▁olümpiavõitja	-11.9956
▁pürgi	-11.9956
▁veterani	-11.9956
▁2023	-11.9956
▁armsa	-11.9956
▁pensionilisa	-11.9956
▁pgs	-11.9956
▁hoidumise	-11.9956
sanktsioon	-11.9958
skaala	-11.9958
tehnoloog	-11.9964
▁selleteemalis	-11.9983
▁tööjõumaksud	-12.0004
▁kahetsusväärse	-12.0039
jõupingutus	-12.0067
▁füüsiline	-12.0067
▁pedofiil	-12.0067
▁motivaator	-12.0067
▁närvi	-12.0067
▁moonuta	-12.0067
▁kabrits	-12.0067
▁delfi	-12.0067
▁grammi	-12.0067
▁laupäeva	-12.0067
▁poisid	-12.0067
▁tänuväärse	-12.0068
▁koputa	-12.007
▁plats	-12.0073
kaheksa	-12.0082
küll	-12.0083
omavalitsusüksus	-12.0095
professionaalne	-12.0138
konkurentsieelis	-12.0175
▁digitaliseer	-12.0179
▁ladõnskaja	-12.0179
▁geneetili	-12.0179
▁lojaalsus	-12.0179
▁lõpmatu	-12.0179
▁hankida	-12.0179
▁kindral	-12.0179
▁lapsehoiu	-12.0179
▁lükanud	-12.0179
▁okupeeritud	-12.0179
▁teenuseosutaja	-12.0179
▁ohver	-12.0179
▁leiuta	-12.0179
▁piraat	-12.0179
▁ardo	-12.0179
▁riigisaladuse	-12.018
▁ülejärgmisel	-12.018
▁pikemaajali	-12.0183
▁viltu	-12.0186
▁kalkulatsiooni	-12.0189
▁kalapüügi	-12.0194
jäätmete	-12.0196
massiiv	-12.0219
▁kiirreageerimis	-12.0243
▁energ	-12.0291
filosoof	-12.0293
subsidiaarsus	-12.0293
▁demograafiline	-12.0293
▁hüpoteetilis	-12.0293
▁prefektuuri	-12.0293
▁usaldusväärne	-12.0293
▁vestelnud	-12.0293
▁õõnesta	-12.0293
▁rahulolu	-12.0293
helmut	-12.031
▁uurija	-12.0316
lanikkonnakaitse	-12.0316
kettide	-12.0336
▁pettumus	-12.0381
▁tehno	-12.0397
▁täiuslik	-12.0408
▁kohtujuristi	-12.0408
▁leibkonna	-12.0408
▁paradigma	-12.0408
▁praktiseeri	-12.0408
▁unikaalne	-12.0408
▁viivitamatult	-12.0408
