<unk>	0
<s>	0
</s>	0
,	-2.6908
.	-3.17954
▁on	-3.56329
▁ja	-4.0307
▁et	-4.07319
▁ei	-4.34724
▁see	-4.57202
!	-4.67212
▁"	-4.76195
▁kui	-4.84849
▁	-4.84921
▁ma	-4.87006
▁ka	-4.88043
▁seda	-5.17112
▁me	-5.17733
▁siis	-5.26443
▁aga	-5.28789
▁selle	-5.30304
s	-5.31225
▁ole	-5.32967
-	-5.34508
st	-5.40533
▁mis	-5.42564
d	-5.42782
t	-5.48358
le	-5.50546
▁või	-5.57829
▁kas	-5.58016
ga	-5.59015
▁palun	-5.63223
!"	-5.64619
▁eesti	-5.65996
▁väga	-5.67758
aitäh	-5.69785
▁eelnõu	-5.72106
l	-5.77214
▁nii	-5.80316
."	-5.82607
▁te	-5.85089
▁riigikogu	-5.89563
?	-5.89884
▁oma	-5.92579
ks	-5.95459
▁oli	-6.0257
i	-6.09257
e	-6.09575
▁–	-6.14723
▁siin	-6.15223
▁kes	-6.15734
▁meie	-6.16659
▁need	-6.17796
▁hea	-6.28666
▁mida	-6.28949
▁mitte	-6.31825
▁küsimus	-6.31863
te	-6.37796
▁nagu	-6.38143
id	-6.38641
▁võib	-6.41184
▁olnud	-6.4581
▁välja	-6.46042
▁seaduse	-6.46621
?"	-6.46856
▁oleks	-6.48
▁ning	-6.51057
▁üks	-6.5136
▁meil	-6.51386
▁neid	-6.51425
▁ta	-6.516
▁üle	-6.53846
▁kuidas	-6.54278
▁palju	-6.54638
▁minu	-6.54887
▁nende	-6.55584
▁sellest	-6.56501
▁tuleb	-6.5801
▁praegu	-6.58511
▁veel	-6.59159
▁teie	-6.59703
▁kindlasti	-6.59811
▁kõik	-6.59964
▁kohta	-6.60307
:	-6.63467
▁euroopa	-6.63788
▁muudatus	-6.64049
▁juhataja	-6.65631
lt	-6.66998
▁teha	-6.67159
ma	-6.67678
▁vastu	-6.67973
▁aasta	-6.6842
▁kus	-6.69046
▁juba	-6.69323
▁nad	-6.70946
▁selles	-6.74708
▁eest	-6.76499
▁nüüd	-6.78976
▁rohkem	-6.79254
▁minister	-6.80018
▁ju	-6.82446
▁raha	-6.85181
▁näiteks	-6.86072
▁ära	-6.86366
▁tegelikult	-6.87089
▁riigi	-6.87636
▁oleme	-6.88326
▁mille	-6.89245
▁lugupeetud	-6.90062
▁ette	-6.92691
▁võimalik	-6.93338
▁teine	-6.95574
▁peaks	-6.95618
▁aitäh	-6.95861
▁saa	-6.96766
▁arvan	-6.96867
▁küll	-6.97538
▁ettekandja	-6.98421
▁saab	-6.9903
▁olla	-6.99204
▁olen	-6.99722
▁austatud	-7.00457
▁aastal	-7.0157
▁seal	-7.02725
a	-7.03709
▁aru	-7.03757
▁juurde	-7.03981
▁vabariigi	-7.06169
▁sest	-7.08724
sse	-7.09653
▁valitsuse	-7.10057
▁ainult	-7.10378
na	-7.10394
▁olema	-7.10719
▁öelda	-7.11527
▁miks	-7.11892
da	-7.12058
▁tagasi	-7.12099
▁härra	-7.13419
▁selline	-7.13492
▁peab	-7.13678
▁sotsiaal	-7.14023
▁suur	-7.14314
▁vaid	-7.14489
b	-7.15174
ta	-7.17086
▁vaja	-7.17417
▁teile	-7.17934
▁kogu	-7.18597
▁mul	-7.18697
▁võiks	-7.19066
▁sellega	-7.19433
de	-7.20487
▁ühe	-7.20506
▁midagi	-7.21424
▁ega	-7.21998
▁võtta	-7.22411
▁lugemine	-7.23591
▁valitsus	-7.23619
▁puhul	-7.23664
▁eestis	-7.24094
▁mina	-7.24567
▁täna	-7.25074
▁""	-7.25102
▁läbi	-7.2514
▁kõige	-7.25324
▁küsimuse	-7.2566
▁küsimusi	-7.27691
olla	-7.27694
▁sellele	-7.28459
▁just	-7.29391
▁selleks	-7.29496
▁liidu	-7.29683
▁kokku	-7.29961
gi	-7.30406
▁ehk	-7.32013
▁kolleegid	-7.32294
▁komisjoni	-7.33029
me	-7.33285
▁peale	-7.33373
▁inimesed	-7.33572
▁sa	-7.34626
▁ikkagi	-7.34894
mine	-7.34911
▁edasi	-7.36528
▁ettepanek	-7.37005
▁eurot	-7.37411
vad	-7.37996
▁osa	-7.39015
▁head	-7.39144
▁riik	-7.41192
▁poolt	-7.41756
▁muutmise	-7.43923
▁olemas	-7.43959
ki	-7.45055
▁esimene	-7.45489
▁enne	-7.45545
ne	-7.46281
▁ise	-7.46871
komisjoni	-7.47719
se	-7.492
▁kolleeg	-7.49928
▁puudutab	-7.50453
nud	-7.51135
▁tõesti	-7.51282
▁pärast	-7.52403
▁lihtsalt	-7.52685
v	-7.53031
▁ajal	-7.53419
▁enam	-7.54942
▁töö	-7.56401
▁kuna	-7.56637
▁fraktsiooni	-7.57144
▁kaks	-7.57466
▁esimees	-7.58263
▁loomulikult	-7.58637
mist	-7.58673
ni	-7.58972
tud	-7.59144
▁pole	-7.59269
▁tema	-7.60715
▁päris	-7.61064
▁teema	-7.61144
▁üldse	-7.61353
▁saanud	-7.62064
ti	-7.62793
▁rahandus	-7.63062
▁saada	-7.63304
▁hästi	-7.63703
▁asi	-7.63934
▁inimeste	-7.64099
austatud	-7.64327
des	-7.65311
▁eelarve	-7.66383
▁olete	-7.66419
sid	-7.66451
▁juhul	-7.67039
u	-7.67494
▁seisukoht	-7.67773
""	-7.67854
▁tänu	-7.68258
▁e	-7.68433
m	-7.69232
▁saalis	-7.69307
▁iga	-7.69463
▁miljonit	-7.70341
▁tehtud	-7.70916
▁jooksul	-7.72954
▁keegi	-7.73023
▁teinud	-7.73068
▁tegemist	-7.74136
▁kord	-7.74411
▁olid	-7.74885
▁majandus	-7.75223
▁teise	-7.75514
▁ettepaneku	-7.75755
▁oluline	-7.7646
▁teada	-7.7674
ministeeriumi	-7.76888
▁anda	-7.76975
▁aastat	-7.77696
n	-7.77797
▁nimel	-7.78036
▁istungi	-7.78656
▁seotud	-7.78691
▁eesistuja	-7.78851
▁siiski	-7.80436
▁n	-7.81411
▁teatud	-7.81692
▁seadus	-7.82032
▁minutit	-7.82209
▁aeg	-7.82847
▁õigus	-7.83093
▁jaoks	-7.83229
▁meile	-7.83399
▁kolm	-7.83472
▁probleem	-7.83649
▁isegi	-7.83988
▁inimesi	-7.84641
▁mulle	-7.84777
▁korda	-7.85068
▁peaminister	-7.85233
▁hääletada	-7.85464
▁juhtivkomisjoni	-7.86645
▁täiesti	-7.87055
▁kuid	-7.87088
▁asja	-7.88122
▁otsuse	-7.88292
▁läheb	-7.88693
▁ongi	-7.88702
▁seaduseelnõu	-7.88714
ö	-7.8893
▁tähendab	-7.89137
▁esitatud	-7.89396
▁sellist	-7.8978
▁algatatud	-7.89848
▁tuleks	-7.899
▁kaasa	-7.89911
▁arutelu	-7.90032
▁arvates	-7.90192
▁komisjonis	-7.90687
▁ikka	-7.91364
▁samas	-7.91372
▁poole	-7.91407
▁mõttes	-7.91546
▁selge	-7.91925
▁täpselt	-7.92096
▁jah	-7.92137
▁järgi	-7.92725
mise	-7.93185
takse	-7.93189
▁aega	-7.94043
▁mingi	-7.94075
▁eri	-7.94092
▁võimalus	-7.94186
▁samuti	-7.94457
▁tõepoolest	-7.94716
▁tea	-7.95152
▁eesmärk	-7.96049
▁liiget	-7.96586
ettepaneku	-7.97605
▁teiste	-7.97966
▁jääb	-7.98166
▁sellel	-7.98247
▁saavad	-7.987
▁alla	-7.98786
▁alati	-7.98821
▁peame	-7.99108
▁koos	-7.99981
▁tähelepanu	-8.00469
▁keskkonna	-8.00764
▁liikmed	-8.00801
▁teil	-8.01437
▁pea	-8.01634
▁inimene	-8.02102
▁vähemalt	-8.02167
▁esitanud	-8.02448
▁pigem	-8.03341
▁natuke	-8.03468
▁kuidagi	-8.0372
▁rääkida	-8.04293
▁komisjon	-8.0477
▁keskerakonna	-8.04781
▁kultuuri	-8.04824
▁nr	-8.05047
hea	-8.05328
▁tänan	-8.05393
▁õige	-8.05986
palun	-8.06526
▁kuni	-8.06587
▁sinna	-8.07755
▁sõna	-8.08473
▁teeb	-8.08911
▁nimelt	-8.09104
▁minna	-8.10183
▁räägime	-8.1061
▁kõnetooli	-8.10814
▁läbirääkimised	-8.10899
▁saaks	-8.11515
▁elu	-8.11624
▁vahel	-8.12721
▁000	-8.13512
▁otsus	-8.13606
▁tööd	-8.13735
▁fraktsioon	-8.14205
k	-8.14384
▁siia	-8.1543
▁vaadata	-8.15631
ettepanek	-8.1566
▁erakonna	-8.16198
▁soovi	-8.16486
▁kõigepealt	-8.16665
▁peavad	-8.16701
▁olukord	-8.16983
▁muidugi	-8.17096
▁milline	-8.17105
▁üsna	-8.17415
▁igal	-8.17705
▁valmis	-8.17821
▁haridus	-8.17837
▁a	-8.18443
▁küsimust	-8.18568
▁ütlen	-8.1873
▁mõju	-8.19085
lugupeetud	-8.19164
▁toetust	-8.19213
▁seetõttu	-8.19242
▁tegema	-8.19264
▁millest	-8.19311
ed	-8.19934
▁sellise	-8.19948
▁nõus	-8.19971
ettepanekute	-8.20628
▁saame	-8.21187
komisjon	-8.21401
▁saan	-8.21467
▁sama	-8.22441
▁ees	-8.22503
▁liikme	-8.22561
▁sel	-8.22851
▁kell	-8.22932
▁nõukogu	-8.23179
▁tahan	-8.23206
▁sisse	-8.23336
▁korral	-8.23955
▁ütlesin	-8.24039
▁selgelt	-8.24194
▁pool	-8.24568
▁lõpetada	-8.24746
▁kodu	-8.24814
▁eriti	-8.25084
▁võetud	-8.25279
▁kaitse	-8.25504
▁põhiseadus	-8.25555
▁alusel	-8.25784
mis	-8.2602
ide	-8.26161
suur	-8.26729
▁tõttu	-8.2691
is	-8.27114
▁ilmselt	-8.27429
▁panna	-8.28457
▁kunagi	-8.28509
▁all	-8.28692
▁suurem	-8.2887
▁pean	-8.28994
▁küsin	-8.29407
▁tulevikus	-8.29704
▁omavalitsuste	-8.29787
▁teid	-8.2984
ja	-8.30143
▁sellepärast	-8.30178
▁eks	-8.30427
▁neile	-8.30486
▁koalitsiooni	-8.30531
▁kahe	-8.30687
ega	-8.31057
▁teeme	-8.31616
▁muuta	-8.31966
▁neil	-8.32177
▁küsimusele	-8.32207
ku	-8.32274
▁tallinna	-8.32284
▁tuli	-8.32307
▁kohaselt	-8.32627
ministeerium	-8.32915
▁loodan	-8.32958
▁liige	-8.33273
tele	-8.33349
▁öelnud	-8.3338
▁mitu	-8.334
▁enda	-8.33421
▁ütles	-8.33488
ka	-8.33537
▁hääletusele	-8.33792
est	-8.33913
▁kasutada	-8.34002
▁hakkab	-8.34124
▁vähem	-8.34228
▁vaatame	-8.3432
▁aja	-8.34514
▁teame	-8.34638
▁maksu	-8.34713
line	-8.34717
▁annab	-8.34904
▁jäänud	-8.34914
▁mingit	-8.36002
▁millega	-8.36289
▁laste	-8.3642
▁niimoodi	-8.3643
▁euro	-8.36467
▁umbes	-8.3653
va	-8.36689
▁mõni	-8.369
▁ilma	-8.37177
▁usun	-8.37503
▁kelle	-8.37641
▁riigieelarve	-8.379
▁istungil	-8.38219
▁kõiki	-8.38337
▁ligi	-8.38531
▁raske	-8.38801
▁proua	-8.3882
▁meelest	-8.38864
▁selliseid	-8.38955
▁kuigi	-8.38995
▁teiseks	-8.39023
▁varem	-8.39132
test	-8.39138
▁päevakorrapunkt	-8.39199
▁üles	-8.39491
▁omavalitsuse	-8.39889
▁1.	-8.39958
▁lisaks	-8.40085
o	-8.40147
▁keele	-8.40533
▁tulnud	-8.40757
▁kooli	-8.41472
▁mõistlik	-8.41556
seaduse	-8.42098
▁uue	-8.42111
▁20	-8.42271
r	-8.42425
el	-8.42544
es	-8.427
▁tehakse	-8.42888
▁millised	-8.43063
▁s	-8.4336
▁arv	-8.43364
▁kohaliku	-8.43783
▁esitada	-8.43921
ge	-8.44244
▁täielikult	-8.44296
▁probleemi	-8.44412
▁ümber	-8.44614
▁kohe	-8.44797
▁suure	-8.44909
▁väike	-8.45065
▁liiga	-8.46124
▁ühte	-8.46152
▁asju	-8.4626
▁andres	-8.46307
▁abi	-8.46549
ke	-8.46714
▁lisa	-8.46738
▁esitamise	-8.46794
▁asjad	-8.4713
▁läbirääkimisi	-8.47273
▁nendest	-8.47368
▁eelkõige	-8.47531
▁toimub	-8.47778
▁teadus	-8.47812
in	-8.48181
▁eelnõuga	-8.48533
▁kaudu	-8.48675
▁sisuliselt	-8.4868
▁esindaja	-8.48692
▁küsija	-8.48798
▁jäi	-8.4889
▁esimese	-8.49019
▁mind	-8.49098
▁muu	-8.4911
▁jne	-8.4954
▁eraldi	-8.49552
▁alkoholi	-8.49571
▁arvestada	-8.49591
▁mõne	-8.5021
▁küsida	-8.50234
▁uus	-8.50458
▁reformierakonna	-8.50702
▁tee	-8.50771
▁tundub	-8.50919
▁kahjuks	-8.51055
▁viia	-8.5129
▁võtnud	-8.51488
▁järgmise	-8.51934
▁tulla	-8.5207
▁inimestele	-8.52078
▁riigikogus	-8.521
▁tekib	-8.52122
▁hoopis	-8.52197
▁ütleb	-8.52569
▁kontrolli	-8.52583
▁kinni	-8.52967
▁ütlesite	-8.53155
▁sai	-8.53251
▁taga	-8.53354
▁maa	-8.53428
▁summa	-8.53435
▁tal	-8.53894
▁seoses	-8.54134
▁taha	-8.54214
▁kümme	-8.5482
▁muud	-8.55343
▁hakkama	-8.557
▁leidnud	-8.55729
tes	-8.55743
▁pidada	-8.55767
▁politsei	-8.55959
▁tuua	-8.56302
▁sealt	-8.56467
2	-8.56507
▁olukorda	-8.56689
▁silmas	-8.5669
▁riigikaitse	-8.5739
▁panen	-8.57414
▁alles	-8.57428
▁siit	-8.57936
▁vähe	-8.58067
▁jätta	-8.58347
▁järgmisel	-8.58366
▁tähtajaks	-8.58422
▁täiskogu	-8.58423
▁tegi	-8.58474
▁huvi	-8.58607
▁inimese	-8.58718
poliitika	-8.58778
▁näha	-8.58932
▁näeme	-8.58947
▁põhjus	-8.59222
▁kirjas	-8.59258
▁esiteks	-8.5933
▁sisu	-8.59517
▁juttu	-8.59821
▁mõned	-8.60084
▁läinud	-8.60317
ettepanekut	-8.6049
4	-8.60944
▁paljud	-8.61172
tänan	-8.61568
▁arupärimise	-8.61674
▁võime	-8.61911
▁käigus	-8.61954
▁viis	-8.62063
▁kuhu	-8.62503
▁riigis	-8.62577
▁hakata	-8.62608
us	-8.62655
▁endale	-8.62658
▁k	-8.62735
▁piiri	-8.62934
▁jõudnud	-8.63399
▁eelmise	-8.6349
▁ennast	-8.63634
▁hetkel	-8.63702
▁tule	-8.63725
komisjonis	-8.63935
▁palga	-8.64064
▁suhtes	-8.64069
▁teemat	-8.64079
maks	-8.64159
▁seadust	-8.64166
▁võimaluse	-8.64366
▁rahva	-8.64425
▁leida	-8.65251
▁parlamendi	-8.65433
▁ühtegi	-8.65709
▁teemal	-8.66224
▁ühel	-8.66282
▁sellised	-8.66451
▁kõnesoove	-8.6647
▁paremini	-8.66645
▁meelde	-8.66745
▁kellel	-8.66775
▁ettekandjale	-8.67072
▁tohi	-8.67086
▁liikmete	-8.67252
▁ida	-8.67338
▁seaduste	-8.67457
▁arvestamata	-8.67473
tega	-8.67824
▁teist	-8.67955
▁küsimused	-8.68353
▁probleeme	-8.68731
▁juhtivkomisjon	-8.68757
▁arvu	-8.69003
▁jüri	-8.69111
▁lõpuks	-8.69439
▁osas	-8.69484
▁käib	-8.69605
▁helme	-8.69699
▁antud	-8.69972
▁võivad	-8.6998
▁kohalike	-8.70071
▁vastata	-8.70169
sin	-8.70375
▁finants	-8.7066
▁otsused	-8.70727
▁avan	-8.70947
▁nendele	-8.71034
▁peaksid	-8.71099
▁lisaaega	-8.71553
▁oleksid	-8.72116
▁kolme	-8.72174
▁teised	-8.72221
▁omavalitsused	-8.72258
▁liit	-8.72322
▁võimalust	-8.72717
▁puudub	-8.72739
▁põllumajandus	-8.72864
▁inimest	-8.72978
▁vastus	-8.7299
▁natukene	-8.73301
▁käest	-8.73383
▁maha	-8.73383
head	-8.73738
sime	-8.73762
▁juures	-8.73849
demokraatliku	-8.73985
▁mõte	-8.74009
▁vene	-8.74204
▁tervise	-8.74303
▁esindajad	-8.74633
ele	-8.7479
▁kuu	-8.74911
la	-8.75084
▁g	-8.75171
▁parem	-8.75481
▁seaduses	-8.75517
▁oska	-8.75751
tel	-8.75782
▁riikide	-8.75805
▁vabaerakonna	-8.75916
▁venemaa	-8.76128
▁tulevad	-8.76226
▁tõsta	-8.76234
miseks	-8.76238
▁kahju	-8.76345
▁öeldud	-8.76357
ra	-8.76421
3	-8.76513
▁kust	-8.76781
▁süsteemi	-8.76888
▁jälle	-8.77111
▁päeva	-8.77233
▁millele	-8.77294
▁kõigile	-8.77367
▁kolmas	-8.77481
▁alates	-8.77519
▁hulgas	-8.77786
8	-8.77846
▁1	-8.78041
▁ettepanekut	-8.78067
▁toetada	-8.78362
▁miljoni	-8.7844
▁samal	-8.78543
▁piisavalt	-8.78619
▁tööle	-8.78699
▁seega	-8.78715
dega	-8.78775
▁võin	-8.78809
▁peaksime	-8.78932
▁sise	-8.79233
1	-8.79322
▁näe	-8.79468
si	-8.79834
▁maksta	-8.79935
▁samamoodi	-8.80096
5	-8.80518
▁kontroll	-8.80569
▁kõigi	-8.80626
▁võtame	-8.80701
▁lõppenud	-8.80774
▁süsteem	-8.80862
▁10	-8.80943
▁tõenäoliselt	-8.8141
▁terve	-8.81482
–	-8.81521
▁kätte	-8.8162
dest	-8.8216
h	-8.82217
▁koostöö	-8.82773
▁panga	-8.83242
▁tasu	-8.83647
▁omavalitsus	-8.84195
▁pensioni	-8.84555
▁meel	-8.84571
▁edaspidi	-8.84792
▁kohtu	-8.84851
▁töökorra	-8.84869
lise	-8.85048
▁põhimõtteliselt	-8.85078
▁hääletas	-8.85274
▁läheme	-8.85324
▁sellisel	-8.85383
▁vist	-8.85661
▁saama	-8.86055
▁võrreldes	-8.86087
▁tegu	-8.86184
▁tahame	-8.8633
▁küsimuses	-8.86369
▁välis	-8.8637
▁kirja	-8.86402
▁ütleme	-8.86418
▁tehti	-8.86636
▁lapse	-8.86759
▁15	-8.86765
▁tulu	-8.86898
▁praegune	-8.86957
▁järgmine	-8.87036
tu	-8.87089
7	-8.87174
▁erapooletuid	-8.87414
▁sellesse	-8.87823
▁äkki	-8.87957
▁õpetajate	-8.87964
▁meid	-8.88382
▁viimase	-8.88384
▁kiiresti	-8.88435
▁mu	-8.8862
▁pealt	-8.88626
▁otsuseid	-8.88696
▁võimalusi	-8.88726
▁lahendada	-8.8877
ri	-8.88846
▁uuesti	-8.88999
▁kuus	-8.89077
▁2	-8.89177
▁sinu	-8.89283
▁vale	-8.89304
▁olukorras	-8.89651
▁teevad	-8.89904
▁analüüsi	-8.90115
▁hiljem	-8.90182
▁hoida	-8.90293
6	-8.90434
▁ettekandeks	-8.90441
▁paraku	-8.90459
▁eelnõus	-8.90709
▁ettekande	-8.90808
▁mingil	-8.91077
▁ühiskonnas	-8.91086
re	-8.91175
▁seni	-8.91204
▁esimesel	-8.91238
9	-8.91298
▁vahe	-8.91457
▁konkreetse	-8.91866
▁tagada	-8.92037
lik	-8.92116
▁tänase	-8.92189
▁üldiselt	-8.92192
▁konkreetselt	-8.9231
▁mingeid	-8.92363
▁lugemise	-8.92377
▁oluliselt	-8.92483
▁sh	-8.92486
▁justkui	-8.92905
▁lepingu	-8.92916
▁lugemisel	-8.92948
ksid	-8.92985
minister	-8.93077
▁avaliku	-8.93132
▁tean	-8.93152
▁neli	-8.93281
▁rääkinud	-8.93461
▁ühes	-8.93529
▁vajalik	-8.93578
▁eelmisel	-8.93621
▁aastatel	-8.93827
▁hinnangul	-8.93999
▁nähtud	-8.94012
▁suurt	-8.94149
▁arutada	-8.94201
▁ettepanekuid	-8.9425
▁tulenevalt	-8.94258
▁järelevalve	-8.94623
▁tartu	-8.94688
▁vaba	-8.94807
▁suunas	-8.94809
▁erinevad	-8.94851
▁otsustas	-8.94906
▁hakka	-8.95341
▁jutt	-8.95351
▁tasemel	-8.95528
kas	-8.95588
site	-8.95683
▁tekkinud	-8.95811
▁ministeeriumi	-8.95915
▁kohaloleku	-8.95944
▁esimehe	-8.96248
▁neist	-8.96424
▁võtab	-8.96472
iga	-8.96602
▁soome	-8.96903
▁õigesti	-8.97264
▁maksma	-8.97299
▁andnud	-8.97302
▁tulumaksu	-8.97336
▁võrra	-8.97425
▁aktsiisi	-8.97683
▁korras	-8.97708
▁toodud	-8.97841
rahandusminister	-8.97959
▁kõike	-8.97983
▁määral	-8.98186
▁saaksid	-8.98673
▁justiits	-8.98954
▁läti	-8.99057
▁päevakorda	-8.99184
▁aastast	-8.9929
▁millal	-8.99384
▁arupärimine	-8.99459
▁nn	-8.99474
▁saali	-8.99538
▁tegevus	-8.99988
▁alustame	-9.00004
▁juhatuse	-9.0001
▁toimunud	-9.00027
▁julgeoleku	-9.00336
▁30	-9.00348
hääletustulemuse	-9.00444
▁lõpp	-9.00519
▁arutanud	-9.00672
▁võetakse	-9.00708
▁lahendus	-9.00745
▁määrata	-9.008
▁vabandust	-9.00844
list	-9.00904
▁palka	-9.00941
▁muutunud	-9.00953
▁peaaegu	-9.01172
▁kõne	-9.01245
▁haigekassa	-9.01488
tus	-9.0158
▁teate	-9.01661
▁vähendada	-9.0173
▁soovivad	-9.02037
▁toimus	-9.02121
▁talle	-9.02324
▁laenu	-9.02474
▁lapsed	-9.02539
▁mihhail	-9.02737
▁arvestatud	-9.02879
il	-9.02885
▁lihtne	-9.03357
▁aseesimees	-9.03452
▁aivar	-9.03483
▁arutas	-9.03639
▁ühiskonna	-9.03698
▁suhteliselt	-9.03851
▁iseenesest	-9.03891
ud	-9.04146
▁fraktsioonide	-9.04357
▁ministri	-9.04358
▁pidanud	-9.0452
▁näeb	-9.04557
▁toetus	-9.04644
dele	-9.04705
▁12	-9.04843
▁riigile	-9.04847
▁olgu	-9.05031
▁öeldes	-9.05203
▁linna	-9.05224
▁koosseisu	-9.05353
eid	-9.05425
▁kulu	-9.0548
▁alguses	-9.05539
▁nato	-9.05641
ü	-9.05792
▁korra	-9.0582
▁poliitika	-9.06004
▁kaheksa	-9.06129
▁abil	-9.06174
▁vastuse	-9.06396
▁mitme	-9.06614
▁mure	-9.0682
▁riikides	-9.07027
▁saata	-9.07275
▁organisatsiooni	-9.07304
▁küsimustele	-9.07444
▁vara	-9.07595
▁kindel	-9.077
▁herkel	-9.07802
▁luua	-9.0786
▁suurendada	-9.07878
▁tahaks	-9.08282
tav	-9.08326
▁hulk	-9.08415
▁100	-9.08484
ettepanekuid	-9.08489
▁maailma	-9.0863
▁keeles	-9.08768
▁kohal	-9.08782
▁energia	-9.08828
▁võiksid	-9.08921
▁isamaa	-9.08977
eks	-9.08984
▁vastavalt	-9.09
▁suured	-9.09062
▁tõsiselt	-9.09116
▁praeguse	-9.09221
▁päevakorra	-9.09358
▁keda	-9.09468
▁põhi	-9.09931
▁keeruline	-9.0999
▁kuskil	-9.10083
▁riiki	-9.10085
▁h	-9.10105
▁kohustus	-9.10206
▁sain	-9.10392
▁lõpetatud	-9.10394
sed	-9.10428
▁lõpetan	-9.1045
▁korduvalt	-9.10457
härra	-9.10588
▁ellu	-9.10618
▁urmas	-9.10641
▁asemel	-9.10888
▁tarmo	-9.109
▁nimetatud	-9.11146
▁irl	-9.11175
▁mõtet	-9.11334
▁vastab	-9.11522
▁mõeldud	-9.11662
▁nemad	-9.11773
ist	-9.1199
▁põhiseaduse	-9.12
▁jürgen	-9.12031
▁lähevad	-9.12096
▁aastaid	-9.12182
▁võimalikul	-9.1226
▁põhjal	-9.125
▁valdkonnas	-9.1258
▁näinud	-9.1272
kui	-9.12909
päevakorrapunkti	-9.12971
▁otseselt	-9.13131
▁tähtis	-9.13246
▁näitab	-9.13337
▁koht	-9.13456
use	-9.13459
nd	-9.13887
▁ametikaaslased	-9.14061
ust	-9.14174
▁arvestades	-9.14293
▁aastas	-9.14354
▁soov	-9.14367
▁punkti	-9.14383
▁reformi	-9.14594
▁arengukava	-9.14627
▁inimestel	-9.14646
taks	-9.14702
▁mart	-9.14776
▁pandud	-9.14779
del	-9.14824
▁ülevaate	-9.1503
▁balti	-9.15155
▁50	-9.15156
pi	-9.15244
▁peal	-9.15385
▁teisel	-9.1549
ar	-9.15622
▁ükskõik	-9.15655
ap	-9.15831
"".	-9.16001
▁tamm	-9.16031
▁muutub	-9.1609
▁saate	-9.16116
▁lugeda	-9.1613
▁vastust	-9.1615
▁keelt	-9.16267
▁küsimuste	-9.16392
▁info	-9.16483
▁puutub	-9.16493
▁muudatused	-9.16511
▁opositsiooni	-9.16717
▁järjest	-9.16731
▁õiguskantsler	-9.17057
▁isiku	-9.17069
▁lähe	-9.17265
▁punkt	-9.17271
▁räägitud	-9.17275
▁kontekstis	-9.1734
▁nendel	-9.1734
▁avada	-9.17351
▁lahti	-9.17383
ustulemusedpoolt	-9.17407
▁aastaks	-9.17513
▁võimalused	-9.17603
▁heaks	-9.18108
▁vana	-9.18116
▁arvamust	-9.18193
▁lapsi	-9.1833
▁õiguskantsleri	-9.18348
▁juhatus	-9.18366
▁moel	-9.18452
▁taas	-9.18719
▁kommunikatsioon	-9.1875
misega	-9.18768
▁hakkavad	-9.1895
▁järele	-9.19108
▁kõikide	-9.19134
mata	-9.19275
mad	-9.1957
▁riigid	-9.19716
pa	-9.19791
tada	-9.20008
▁laiemalt	-9.20063
see	-9.20233
jad	-9.20242
▁käibemaksu	-9.20261
▁kümne	-9.20284
▁veelgi	-9.20354
▁muudatusi	-9.20429
er	-9.20487
▁seadusega	-9.20539
gu	-9.20559
▁rahvusvahelise	-9.20702
▁mõelda	-9.21285
▁kolmanda	-9.21304
▁otse	-9.21347
▁lükata	-9.21403
▁aastate	-9.21412
▁res	-9.21442
▁mõnes	-9.21528
▁teatavasti	-9.217
▁otsustada	-9.2174
▁tõsi	-9.21751
▁huvides	-9.21795
▁läbirääkimiste	-9.21954
▁peaministri	-9.21985
▁euroopas	-9.22171
▁hinna	-9.22196
▁korb	-9.22221
▁riigikohtu	-9.22333
▁pere	-9.22452
▁kreeka	-9.22461
▁pikalt	-9.22576
▁omavahel	-9.22706
▁kriminaal	-9.23089
▁soovitakse	-9.23135
▁jäävad	-9.23261
▁metsa	-9.23324
▁omavalitsustele	-9.23503
eesti	-9.23514
▁hind	-9.23527
▁seadusena	-9.23753
▁erinevaid	-9.23835
▁ühest	-9.23846
lisi	-9.23983
▁noorte	-9.23987
.""	-9.2407
▁5	-9.2409
ä	-9.24124
▁õppe	-9.24375
▁võtma	-9.2438
ru	-9.24407
▁stalnuhhin	-9.24437
▁valitsuses	-9.24536
▁pa	-9.24599
▁nendes	-9.24609
▁viie	-9.24662
▁vastupidi	-9.24772
▁minema	-9.24777
▁ettepanekud	-9.24786
▁gümnaasiumi	-9.24791
▁tava	-9.24808
▁seesama	-9.24825
▁probleemid	-9.24977
▁algataja	-9.25289
▁elektri	-9.25451
▁koostööd	-9.25506
▁milleks	-9.25584
▁valdkonna	-9.25775
li	-9.25826
▁16	-9.25991
▁samm	-9.26067
▁plaanis	-9.26258
▁kaitseväe	-9.26345
▁konkreetne	-9.26595
▁25	-9.26728
▁annan	-9.26798
▁kujul	-9.26837
p	-9.2686
▁eestisse	-9.26925
▁ernits	-9.27072
▁ausalt	-9.27107
▁2015.	-9.27141
▁läks	-9.27534
▁vajab	-9.27611
▁peeter	-9.27665
▁presidendi	-9.27669
▁põhjust	-9.27678
▁tohiks	-9.2774
▁sõltub	-9.2786
▁maailmas	-9.27903
▁näide	-9.28035
▁päev	-9.28214
▁teenuste	-9.28586
▁no	-9.28812
▁informatsiooni	-9.28946
▁tänane	-9.28988
▁äri	-9.2916
▁ülesanne	-9.29364
▁tegevuse	-9.29372
▁nendega	-9.29404
▁raames	-9.29464
▁kadri	-9.29465
▁rahastamise	-9.29583
▁asjade	-9.29673
▁nelja	-9.29689
▁uusi	-9.29725
▁tasuta	-9.29814
0	-9.29849
▁antakse	-9.30055
vate	-9.30091
▁mitmeid	-9.30186
an	-9.30457
▁otsust	-9.30461
▁suurema	-9.30598
▁volikogu	-9.30628
▁aitab	-9.30733
▁põhjusel	-9.30739
maa	-9.30754
▁paremaks	-9.31004
▁ütlema	-9.31018
▁kahtlemata	-9.31033
ile	-9.31135
▁ühele	-9.31154
▁ulatuses	-9.31173
tuse	-9.31175
it	-9.31274
▁mööda	-9.31305
▁toime	-9.31308
▁selliste	-9.31329
▁kõigil	-9.31344
▁...	-9.31486
▁16.	-9.31489
▁st	-9.31572
▁poliitiline	-9.31573
▁seisukohta	-9.31613
▁isiklikult	-9.31716
▁kulud	-9.31745
▁toeta	-9.31799
▁praktika	-9.31805
▁mitmed	-9.31811
▁kriisi	-9.31895
▁kõnepulti	-9.31905
ksime	-9.32163
▁näete	-9.32188
▁jaak	-9.32219
tamine	-9.32249
▁parandada	-9.32253
▁näite	-9.32288
▁pakkuda	-9.32313
▁soovib	-9.32317
töö	-9.32359
▁eelnõusid	-9.32407
▁suuda	-9.32423
▁ameti	-9.32432
▁ra	-9.32459
▁toetuse	-9.3248
▁arengu	-9.32572
▁tervikuna	-9.32901
▁arvamus	-9.33106
▁kasvab	-9.33155
▁tekkis	-9.3321
▁vaatama	-9.33229
▁3	-9.3326
▁tahab	-9.33386
▁uut	-9.33698
▁teises	-9.33732
▁kasutamise	-9.33734
▁rääkima	-9.33834
▁riikliku	-9.33887
▁teisi	-9.33907
▁sven	-9.34019
▁lõpphääletusele	-9.34242
▁re	-9.34252
▁valla	-9.3438
▁paar	-9.344
▁tihti	-9.34543
▁võeti	-9.34544
▁teda	-9.34668
▁haldusreformi	-9.34731
▁tervishoiu	-9.34899
▁tegelema	-9.35003
▁valimis	-9.35011
tavad	-9.35037
ad	-9.35088
▁toon	-9.35205
▁publi	-9.35306
▁kaua	-9.3539
▁suures	-9.354
▁andma	-9.35427
▁kuulu	-9.35434
▁milles	-9.35715
▁niisugune	-9.35742
▁esimest	-9.35814
▁lausa	-9.35843
▁sul	-9.35862
▁kasvu	-9.35876
▁makse	-9.35979
õ	-9.36212
▁aidata	-9.36312
▁täita	-9.36331
▁käinud	-9.36347
▁liidus	-9.36451
▁majanduse	-9.36546
▁käsitlemise	-9.36558
▁koha	-9.3661
▁lauri	-9.36638
▁viimasel	-9.36779
▁tasandil	-9.36827
▁president	-9.36856
▁palk	-9.36883
▁konservatiivse	-9.36998
▁vahepeal	-9.37051
▁menetlus	-9.37114
liste	-9.37123
▁konkurentsi	-9.37166
▁räägin	-9.37229
▁andis	-9.37431
▁kodakondsuse	-9.37469
▁ukraina	-9.37554
▁määra	-9.37646
▁erakondade	-9.37665
mi	-9.37792
▁vee	-9.37951
▁tuletan	-9.37966
vat	-9.38196
häälet	-9.3821
▁idee	-9.38236
▁erapooletuks	-9.38283
▁40	-9.38556
▁2016.	-9.38614
▁olulise	-9.38715
▁ala	-9.38864
▁13	-9.39012
ite	-9.39022
▁kalle	-9.39033
▁õpetaja	-9.39181
▁toetab	-9.39246
▁kuulnud	-9.39269
▁maksab	-9.39308
▁vaheaega	-9.39388
liku	-9.39454
▁ettevõtete	-9.39754
▁sotsiaalmaksu	-9.3976
▁spordi	-9.39786
ettepanekud	-9.39846
▁mingisugust	-9.3985
▁toob	-9.39913
▁arutatud	-9.40035
misel	-9.40037
▁kohalikud	-9.40048
▁üht	-9.40186
▁huvitav	-9.40219
▁õiguse	-9.40249
▁teenuse	-9.40349
▁arvate	-9.40408
▁poliitilise	-9.40408
▁narva	-9.40719
liselt	-9.41021
▁muid	-9.41035
▁rääkis	-9.41239
rohkem	-9.4135
raha	-9.41483
rä	-9.41733
▁menetlemise	-9.41856
▁jääda	-9.42075
▁põhjalikult	-9.42076
▁määran	-9.42235
▁riigil	-9.42263
▁positiivne	-9.42274
hi	-9.42311
▁14	-9.4244
▁teemaga	-9.42463
▁räägib	-9.4252
▁tunne	-9.42535
▁oled	-9.42599
▁veidi	-9.42643
▁täis	-9.42845
▁valitsusele	-9.42911
nu	-9.43079
▁tegelda	-9.4327
▁reformierakond	-9.43276
▁luba	-9.4346
▁17	-9.43487
▁tähenda	-9.43489
▁2013.	-9.43553
▁väheneb	-9.43573
▁mingisugune	-9.4364
▁olukorra	-9.4366
▁laps	-9.43745
▁priit	-9.43818
▁12.	-9.43904
▁mäletan	-9.4393
▁2014.	-9.43944
vi	-9.43992
▁nime	-9.44011
▁tulema	-9.44192
▁protsess	-9.44206
▁tallinnas	-9.4438
▁teksti	-9.44384
malt	-9.44453
▁usu	-9.44502
▁martin	-9.44561
▁istungit	-9.44692
on	-9.44959
▁mujal	-9.45134
▁ettevõtte	-9.45275
▁räägitakse	-9.4533
▁ettekandjaks	-9.45441
▁taavi	-9.45455
ik	-9.45481
▁simson	-9.45518
ksin	-9.45586
▁esm	-9.45614
▁täpsemalt	-9.4578
▁protsessi	-9.45785
jah	-9.45928
▁milliseid	-9.46123
▁toomas	-9.46339
▁uute	-9.4639
▁mõtlema	-9.46657
▁millise	-9.46809
▁teisele	-9.46877
▁hakkame	-9.47014
▁kuulda	-9.47027
▁kiire	-9.47095
▁ministrile	-9.47154
▁andmed	-9.47182
▁hakatakse	-9.47183
▁piir	-9.47337
▁nädala	-9.47389
▁mingid	-9.47467
▁enamik	-9.47672
▁kõrvale	-9.47701
▁väiksem	-9.47728
▁kübarsepp	-9.47844
▁otsustab	-9.47885
▁roll	-9.47977
▁järgmised	-9.48019
▁koostöös	-9.48051
▁seletuskirjas	-9.4807
andres	-9.48114
▁viimane	-9.48188
▁vastates	-9.48191
▁ministeerium	-9.48246
▁soovin	-9.48314
▁au	-9.4846
▁igati	-9.48542
▁andmeid	-9.48739
▁projekti	-9.48742
süsteemi	-9.48747
▁töötajate	-9.48878
▁lühidalt	-9.49111
aga	-9.49122
▁kõrge	-9.4914
▁arupärimisele	-9.49191
▁üld	-9.49192
▁jää	-9.49328
justiitsminister	-9.49384
▁ammas	-9.49437
▁4	-9.49446
▁väikese	-9.49705
tsi	-9.49788
▁tuleviku	-9.49869
▁vajadus	-9.49938
▁eelarves	-9.50081
▁hinnata	-9.50122
▁õigust	-9.50137
▁ütlevad	-9.50397
▁sees	-9.50422
▁kütuse	-9.5047
▁õiguskomisjoni	-9.50523
▁tegeleb	-9.50905
▁koalitsioon	-9.50923
▁hariduse	-9.5094
▁18	-9.51079
▁järel	-9.51153
▁programmi	-9.51185
▁tahavad	-9.51206
▁mere	-9.51287
▁kõrval	-9.51312
▁põhja	-9.51393
▁kuud	-9.51422
misest	-9.51456
▁kohalik	-9.51524
jate	-9.51526
▁lõpus	-9.51549
▁kehtib	-9.5156
▁teiselt	-9.51583
▁tulemus	-9.51648
▁öeldakse	-9.51665
▁viimastel	-9.51729
▁teed	-9.51812
▁minul	-9.51822
▁ravi	-9.51837
aja	-9.51838
▁11	-9.51881
▁endiselt	-9.51904
▁kellele	-9.51919
▁koolis	-9.52029
▁rolli	-9.52096
▁hulka	-9.52285
▁ühelt	-9.52303
▁seonduvalt	-9.52354
▁keskmine	-9.52494
▁vahendeid	-9.52615
▁pannud	-9.52635
▁urve	-9.52699
lised	-9.52718
▁era	-9.52858
▁pidevalt	-9.52961
▁valitsust	-9.53036
▁muude	-9.53089
▁töönädala	-9.53136
▁isikute	-9.53154
▁saavutada	-9.53171
mas	-9.53171
▁tegevust	-9.53176
▁paika	-9.53218
▁investeeringute	-9.53231
▁nimetada	-9.53271
▁päeval	-9.5329
▁kooskõlas	-9.53292
vaid	-9.53308
▁ülikooli	-9.53369
▁puudutavad	-9.53397
▁julgen	-9.53715
▁rahvusvaheliste	-9.53755
▁menetluse	-9.53831
▁istung	-9.53847
▁diskussiooni	-9.53855
▁küllalt	-9.54192
▁juht	-9.5426
▁11.	-9.54297
▁lubatud	-9.54305
▁kasvanud	-9.54369
▁pikk	-9.54421
▁paljude	-9.54498
▁algab	-9.54548
▁laekunud	-9.54666
▁kordan	-9.54674
▁elavad	-9.55036
g	-9.55051
▁jaanuaril	-9.55088
▁alus	-9.55284
▁pidi	-9.55326
▁ettekandes	-9.55341
▁aluseks	-9.55354
▁selgitada	-9.55408
▁võttis	-9.55685
▁erakond	-9.5578
▁auväärt	-9.55831
▁puuduta	-9.55845
▁vaadates	-9.55995
▁liikmetel	-9.56013
▁avalik	-9.56061
▁plaani	-9.56096
▁nädalal	-9.56253
▁lugemisele	-9.56344
▁maksumaksja	-9.56462
at	-9.56496
▁esile	-9.56528
▁anna	-9.566
▁ringi	-9.56629
▁tuleneb	-9.56742
▁arutasime	-9.56757
di	-9.56827
▁vaheaeg	-9.56846
▁tõusu	-9.5692
▁korruptsiooni	-9.56959
▁fondi	-9.57003
▁mingisuguse	-9.57068
▁vasta	-9.57306
▁turu	-9.57414
▁suutnud	-9.57456
▁tunduvalt	-9.57458
▁näen	-9.57469
ve	-9.57525
likult	-9.57618
▁tõus	-9.5782
▁keskmise	-9.57827
tust	-9.57844
▁la	-9.57863
▁seletuskirja	-9.57995
▁tulen	-9.58002
▁auto	-9.5805
▁soovime	-9.58148
▁otsustati	-9.58222
▁võimu	-9.5824
ste	-9.58362
▁ülejäänud	-9.58473
▁äärmiselt	-9.5852
▁tore	-9.58647
▁mõlemad	-9.58705
▁suuremad	-9.58726
▁ko	-9.58846
▁keskerakond	-9.58957
▁teiega	-9.59163
laste	-9.59327
▁räägi	-9.59392
▁teede	-9.5942
▁toonud	-9.59428
▁b	-9.5958
▁põhjendatud	-9.59605
tatud	-9.59677
▁mulje	-9.59707
▁kinnitada	-9.59837
▁leedu	-9.59857
▁olevat	-9.59864
▁vastan	-9.59932
▁tuus	-9.59982
kohaloleku	-9.59988
▁olegi	-9.60132
▁17.	-9.60195
▁märksa	-9.60228
▁siseminister	-9.60473
▁arvel	-9.60602
▁ettevõtjad	-9.60604
▁osaleda	-9.60719
▁anname	-9.60727
▁jällegi	-9.60814
▁rääkisite	-9.6089
▁töötada	-9.60894
▁kesk	-9.60897
▁lahendusi	-9.61019
▁jõuab	-9.61045
▁raudtee	-9.6107
▁tagatud	-9.61136
▁aastaga	-9.61211
▁isik	-9.61216
▁rahvas	-9.6126
▁60	-9.61333
menetluse	-9.61357
▁kohus	-9.61419
▁kolmandaks	-9.61423
▁võimaldab	-9.61471
▁valimiste	-9.61495
▁vastuseid	-9.6151
▁valeri	-9.61521
▁rahvaerakonna	-9.61535
▁liitu	-9.61606
nüüd	-9.61626
▁arvata	-9.61651
▁p	-9.61747
▁mailis	-9.61751
▁selgeks	-9.61838
▁plaan	-9.61943
▁istungjärgu	-9.61971
desse	-9.62135
▁jõuda	-9.6221
▁juhtub	-9.62227
tava	-9.62335
▁krista	-9.62366
▁kruuse	-9.62411
▁tekitab	-9.62443
▁arutame	-9.62499
▁teenust	-9.62535
▁julge	-9.6258
▁vassiljev	-9.62712
▁soovita	-9.62827
▁lahenduse	-9.62843
selt	-9.62849
▁jätnud	-9.62854
▁valitsusel	-9.62854
▁2017.	-9.62863
▁esitas	-9.62879
▁teisest	-9.62936
▁haldus	-9.62969
maid	-9.62998
▁lugu	-9.63073
▁parlament	-9.63102
▁6	-9.63163
▁arva	-9.6329
▁võttes	-9.63299
▁kohale	-9.63318
▁mi	-9.63381
▁vajavad	-9.63456
▁kehtiva	-9.635
▁töötab	-9.63508
▁olles	-9.63522
▁põhikooli	-9.63523
▁kehtestada	-9.63548
▁lõuna	-9.63572
▁15.	-9.63594
▁200	-9.63598
▁kasu	-9.63607
▁osakonna	-9.63672
▁menetlemisel	-9.63842
▁jõu	-9.6387
▁sulle	-9.63947
▁osaliselt	-9.63967
▁loogika	-9.64109
▁skt	-9.64127
▁kirjutatud	-9.64218
oo	-9.64384
▁silma	-9.64393
riigi	-9.64505
▁tõsine	-9.64515
▁osta	-9.64536
rahanduskomisjon	-9.64643
▁üro	-9.64758
▁statistika	-9.64856
▁reklaami	-9.65008
▁jätkata	-9.65011
▁last	-9.65149
▁arutelul	-9.65243
▁direktiivi	-9.65457
▁eelmine	-9.65549
▁lähtudes	-9.65567
▁tasakaalu	-9.65608
▁ükski	-9.65646
▁teistes	-9.65717
▁kokkuleppe	-9.65768
▁maja	-9.65785
▁ministeeriumide	-9.658
▁kasutatakse	-9.65818
▁regulatsiooni	-9.65827
▁kohas	-9.65864
▁näiteid	-9.65906
tamist	-9.65994
▁poolest	-9.66046
▁suuri	-9.66085
▁kulude	-9.6616
▁said	-9.6619
▁suuremat	-9.66261
▁13.	-9.66337
likku	-9.66426
▁mõtte	-9.66564
▁siiamaani	-9.66583
demokraadid	-9.66615
▁ettevõtja	-9.66706
▁sellises	-9.66723
▁otsa	-9.66756
sti	-9.66771
▁arvesse	-9.66774
▁käivad	-9.66807
▁üksnes	-9.6682
▁ossinovski	-9.6687
▁rakendada	-9.6695
▁töötavad	-9.67005
▁paneb	-9.6721
▁maaelu	-9.67246
▁tänaseks	-9.67284
▁lause	-9.67324
panen	-9.67424
▁valimistel	-9.67501
▁seadusandja	-9.67516
tab	-9.67577
▁sektori	-9.67589
ut	-9.6767
▁lõpuni	-9.67873
▁ameerika	-9.68061
▁kuulub	-9.68199
▁homme	-9.68208
▁suunatud	-9.68239
pp	-9.68359
õiguse	-9.68382
▁kella	-9.68495
▁ha	-9.68523
f	-9.68622
▁ammu	-9.68637
▁kutse	-9.68825
▁paari	-9.68868
▁loo	-9.68938
muudatus	-9.69008
▁24	-9.69034
▁korraldada	-9.69056
▁keel	-9.69104
▁teenuseid	-9.69149
▁kedagi	-9.6927
▁arvatud	-9.69325
▁saime	-9.69397
virumaa	-9.69433
▁kohapeal	-9.69445
▁seis	-9.69514
▁oleva	-9.69596
▁nõu	-9.69707
▁konventsiooni	-9.69732
▁rääkisin	-9.69773
▁maksa	-9.69828
▁rõhutan	-9.6985
▁muret	-9.69872
▁vähenenud	-9.69889
▁oskate	-9.69932
▁protseduuriline	-9.69989
▁arupärijate	-9.70012
▁põlluaas	-9.70081
▁loen	-9.70103
tama	-9.70214
▁täpsustada	-9.70246
▁riigikontrolli	-9.70255
▁kohustusi	-9.70258
▁noored	-9.70298
tamise	-9.70471
elt	-9.7054
▁olulised	-9.70573
▁mainisite	-9.70583
seadus	-9.70625
▁küsis	-9.7071
ana	-9.7076
▁7	-9.70795
▁ütlesid	-9.70809
▁töötukassa	-9.70817
▁eksi	-9.70931
▁nõukogude	-9.70975
▁eel	-9.71045
▁põhimõte	-9.71049
▁riigieelarvest	-9.71051
ha	-9.71059
▁kalev	-9.71141
▁ettevõtlus	-9.71278
▁ehitus	-9.71348
▁lastele	-9.71417
▁vastama	-9.71433
▁ajaks	-9.71481
▁tekkida	-9.7154
tult	-9.71555
misse	-9.71643
▁valesti	-9.71678
▁vajaduse	-9.71688
▁esitab	-9.71804
▁pisut	-9.71903
▁riigikogule	-9.71915
▁rahul	-9.71931
ju	-9.72017
▁ärge	-9.72019
▁reinsalu	-9.72026
▁demokraatia	-9.72045
▁kehtestatud	-9.72165
▁makstakse	-9.72165
▁vastas	-9.72188
▁ühine	-9.72283
▁olin	-9.72293
ini	-9.72429
▁reaalselt	-9.72432
▁tulemusena	-9.72435
▁tähtaeg	-9.72435
▁riski	-9.72473
▁võiksime	-9.72518
▁arutama	-9.72612
▁too	-9.7263
▁valik	-9.72673
▁juhi	-9.72703
▁arupärimisi	-9.72757
▁tavaliselt	-9.72814
▁üldine	-9.72883
▁lõpphääletuse	-9.73158
▁meelt	-9.73251
▁muudatuse	-9.73403
▁ühistranspordi	-9.73495
▁vastutus	-9.73506
▁uued	-9.73622
▁lugemist	-9.73628
▁regionaal	-9.73678
ministeeriumis	-9.73734
▁kellegi	-9.73756
▁menetlusse	-9.73818
▁olulisem	-9.73932
▁puudu	-9.73975
osa	-9.73985
▁sellesama	-9.74012
▁novembril	-9.7403
▁käes	-9.74035
▁mingisuguseid	-9.74068
nt	-9.74087
▁elus	-9.74101
▁ettevõtjate	-9.74128
▁hiljuti	-9.74131
▁500	-9.74167
▁viisil	-9.74195
▁küljest	-9.74203
▁protokolli	-9.74341
▁leidis	-9.74487
▁sulgen	-9.7449
▁vastuolu	-9.74496
▁otsuste	-9.74511
▁mõiste	-9.74581
▁selgus	-9.74618
▁käis	-9.7477
väga	-9.7483
▁veendunud	-9.74862
▁sammu	-9.74915
▁väljaspool	-9.74988
▁valimisi	-9.75207
▁eba	-9.75308
▁hanno	-9.75328
▁tööandja	-9.7537
du	-9.75419
▁seas	-9.75507
▁arusaadav	-9.75596
▁mitmel	-9.75657
▁arutati	-9.75809
▁rahvastiku	-9.75861
▁investeerimis	-9.75891
▁kõikidele	-9.75944
▁ema	-9.76142
▁rail	-9.76146
▁marko	-9.76187
▁peate	-9.76205
▁loodud	-9.76251
▁ühise	-9.7626
▁konsensusega	-9.76319
▁inimesele	-9.76375
▁teistmoodi	-9.76379
▁avatud	-9.76416
▁must	-9.76416
▁tõi	-9.76585
▁saadud	-9.76635
▁pannakse	-9.76639
▁pruugi	-9.76759
▁nõuab	-9.76777
▁väita	-9.76892
al	-9.76894
jaid	-9.76989
▁kuulata	-9.7708
▁erinev	-9.77247
▁riike	-9.77289
▁omavalitsusi	-9.77316
virumaal	-9.7735
▁mõjutab	-9.77462
▁vallas	-9.77508
as	-9.77535
▁kehtima	-9.77569
▁kiiremini	-9.77655
▁sätestatud	-9.77709
▁käia	-9.77735
▁jevgeni	-9.77829
laul	-9.77975
▁inimesel	-9.78095
▁kinnisvara	-9.78167
▁ütlete	-9.78182
▁prognoosi	-9.78218
▁võinud	-9.78282
▁juhtudel	-9.78328
▁suunata	-9.78348
▁pi	-9.78386
▁perede	-9.78405
▁elanike	-9.78455
▁piisav	-9.78466
▁räägite	-9.78499
▁kohustuste	-9.78605
▁täpsustav	-9.7864
▁ratas	-9.78742
▁põlevkivi	-9.78775
▁eiki	-9.78794
▁halb	-9.78806
▁arvestanud	-9.78851
▁saaksime	-9.78857
▁laeva	-9.78984
▁ometi	-9.79009
▁suudame	-9.79049
vähem	-9.79077
▁töös	-9.79163
▁tegele	-9.79176
▁10.	-9.79198
▁kahte	-9.79212
▁14.	-9.79233
▁jätku	-9.79257
likke	-9.79272
▁arust	-9.79307
▁2012.	-9.79342
▁muidu	-9.79353
lane	-9.79363
▁sina	-9.79395
▁väärtus	-9.79398
▁transpordi	-9.7945
▁kodus	-9.79483
▁liikmeid	-9.79633
▁valida	-9.79639
▁võta	-9.79732
inspektsiooni	-9.79763
po	-9.79869
▁kulusid	-9.79884
▁ent	-9.79901
▁ühis	-9.80078
▁seisukohti	-9.80136
▁reps	-9.80154
▁eile	-9.80206
▁seadusi	-9.80284
▁läheks	-9.80473
▁ühiskond	-9.8065
▁tähtaja	-9.80758
ei	-9.80769
▁puudega	-9.80876
küsimus	-9.80901
▁t	-9.80941
▁küsisin	-9.80952
▁va	-9.81028
▁loodame	-9.81064
▁meetmeid	-9.81156
▁tiidus	-9.81213
▁18.	-9.81259
▁seisukoha	-9.81275
▁soomes	-9.81344
00	-9.81442
▁inimestega	-9.81442
ministri	-9.81446
▁suureneb	-9.81473
demokraatide	-9.81525
▁nestor	-9.81678
▁sõerd	-9.81691
▁kaitsta	-9.81728
▁analüüs	-9.81769
▁konkreetset	-9.81868
▁indrek	-9.81885
▁vastused	-9.81914
▁avalduse	-9.81929
▁perioodi	-9.81952
▁toimetuleku	-9.82009
▁niivõrd	-9.82123
▁siinkohal	-9.82123
▁häid	-9.82166
nda	-9.82313
▁teen	-9.82331
peeter	-9.82419
▁rootsi	-9.82565
ksite	-9.82589
▁missiooni	-9.82593
▁iganes	-9.82665
▁erinevalt	-9.82667
▁hinda	-9.82673
▁vaadake	-9.82678
▁pakutud	-9.82683
▁käsitleb	-9.82694
▁kokkulepe	-9.82701
▁10%	-9.82703
▁lõike	-9.82708
▁meetmed	-9.8275
▁mail	-9.82868
"	-9.8287
ia	-9.83042
▁tõele	-9.83109
tame	-9.83137
▁r	-9.83268
▁hinnangu	-9.83312
▁absoluutselt	-9.83401
strateegia	-9.83437
▁vastuste	-9.83461
ng	-9.83515
▁9.	-9.83572
▁käima	-9.83943
eri	-9.83966
komisjonilt	-9.84004
▁mil	-9.84039
▁mõnda	-9.84097
▁gaasi	-9.84132
mat	-9.84157
▁kutsun	-9.84183
▁meedia	-9.84247
▁kusjuures	-9.84298
▁üleval	-9.84308
▁haukanõmm	-9.84392
▁perekonna	-9.84455
▁meist	-9.84462
▁marika	-9.84543
▁eelarvet	-9.84554
ala	-9.8463
▁jõudu	-9.84648
▁väide	-9.84733
▁käesoleva	-9.84783
▁2018.	-9.84807
▁samme	-9.84833
▁investeeringuid	-9.84835
▁naiste	-9.84999
▁kohalikele	-9.85031
▁elab	-9.85186
▁müügi	-9.85205
▁novembri	-9.85298
toetuse	-9.85312
▁teel	-9.85327
▁oktoobril	-9.85341
▁adams	-9.85436
ult	-9.85539
▁paljudes	-9.85575
ndus	-9.85604
▁2.	-9.85668
▁ekre	-9.85822
tegevuse	-9.85835
▁sünni	-9.85987
▁tahate	-9.86027
▁esindab	-9.86149
▁elada	-9.86163
▁külliki	-9.86204
tesse	-9.86241
▁hakanud	-9.86242
eeri	-9.86268
eelnõu	-9.86318
▁arusaam	-9.86331
▁lääne	-9.86335
▁vajadust	-9.86335
▁lätis	-9.86344
▁sõja	-9.86346
▁küsimusega	-9.86373
▁kaupa	-9.86462
▁õigustatud	-9.86577
▁nimekirja	-9.86722
▁põhiseadusega	-9.86729
▁parema	-9.86851
▁kursis	-9.86876
▁esindajana	-9.86989
im	-9.87041
%	-9.8714
▁tahetakse	-9.87249
▁28	-9.87263
▁arvestama	-9.87383
ina	-9.87421
▁lahendust	-9.87608
▁toetanud	-9.87613
sus	-9.87641
▁leiab	-9.87718
▁3.	-9.87759
▁loodetavasti	-9.87938
▁konsensuslikult	-9.87948
▁vaatan	-9.88122
▁looma	-9.88157
▁tegime	-9.88319
▁tahaksin	-9.88445
ise	-9.88457
▁tõuseb	-9.88529
▁ehitada	-9.88539
▁35	-9.88546
lased	-9.88547
▁ülesandeid	-9.88598
küsimused	-9.88791
▁loodus	-9.88845
▁kasutamine	-9.8913
▁selgub	-9.89246
▁tunnistama	-9.89296
▁ühtse	-9.893
▁rakendamise	-9.89302
▁igor	-9.89303
▁mahus	-9.89334
ul	-9.89417
▁arvamuse	-9.89446
▁toetuste	-9.89456
suse	-9.8951
lepingu	-9.8955
▁rein	-9.89563
ba	-9.89663
▁maakonna	-9.8971
▁liikmesriikide	-9.8982
▁sugugi	-9.89829
▁rõivas	-9.89933
▁möödunud	-9.8997
▁pika	-9.89971
▁vastuolus	-9.90066
▁5.	-9.90118
val	-9.90128
▁teab	-9.90196
▁mitmes	-9.90355
▁viga	-9.90367
▁vastuolijaid	-9.90391
▁ametnikud	-9.90452
▁vii	-9.90463
▁jaanus	-9.90484
▁32	-9.90522
misi	-9.90645
▁käi	-9.90676
▁muutmine	-9.90685
▁kontrollida	-9.90719
▁vaatamata	-9.90828
▁madison	-9.90831
▁aita	-9.90862
▁otsustanud	-9.90868
▁kuue	-9.90882
▁laua	-9.90917
▁kavas	-9.90952
▁sageli	-9.90977
▁summad	-9.91028
▁toidu	-9.91061
▁vajalikud	-9.91065
▁eesmärki	-9.91101
▁kuuluvad	-9.91107
teenuse	-9.91206
▁parlamendis	-9.91402
▁8	-9.91431
▁olev	-9.9144
ade	-9.91675
valt	-9.91705
▁jäetud	-9.91714
▁eeskätt	-9.91716
▁ettekanne	-9.91736
▁alustada	-9.91761
▁muudatuste	-9.91887
▁ettevõtluse	-9.91946
or	-9.91954
päeva	-9.91957
▁küsite	-9.9196
▁ava	-9.92007
▁nõuded	-9.92069
▁annavad	-9.92247
▁kevadel	-9.92279
▁tänavu	-9.92359
▁meelega	-9.92391
▁järelikult	-9.92457
teema	-9.9249
▁eelnõude	-9.92491
▁se	-9.92499
▁millel	-9.92555
▁seitse	-9.92607
▁51	-9.92719
lo	-9.9273
▁noor	-9.92761
▁andmete	-9.92825
▁arve	-9.92831
riigikogu	-9.92878
▁lihtsam	-9.92907
▁27	-9.92983
läheme	-9.93024
▁ütle	-9.93025
▁näidata	-9.93053
▁tugev	-9.93073
▁osakaal	-9.93078
▁meede	-9.93083
▁vahet	-9.93127
▁kanda	-9.93147
▁palgad	-9.93153
▁viktor	-9.93187
▁hinnang	-9.93229
▁saar	-9.93247
▁sadama	-9.93263
▁koosseisus	-9.93419
▁kellelegi	-9.9346
▁jõua	-9.93466
maksu	-9.93567
▁regulatsioon	-9.93629
lus	-9.9366
▁puudutas	-9.9372
▁lepitud	-9.9382
▁välisminister	-9.93848
▁korralduse	-9.93911
▁siiani	-9.9396
▁töökohti	-9.94011
teenuste	-9.94036
sa	-9.94128
▁koolide	-9.94167
▁miljardit	-9.94194
▁ülevaade	-9.94337
likud	-9.94361
▁vormis	-9.94365
▁kauba	-9.94381
▁paragrahvi	-9.94402
▁osale	-9.94404
▁planeeritud	-9.94438
▁põhjustel	-9.94457
▁küsiti	-9.94467
▁mäleta	-9.94587
▁19.	-9.94618
▁rahu	-9.94669
▁valdkond	-9.94802
▁23	-9.94868
mu	-9.9487
▁rääkides	-9.94903
tere	-9.94914
▁toobal	-9.9493
tatakse	-9.94968
▁karistus	-9.95111
▁21	-9.95122
kogu	-9.95139
▁tegelevad	-9.95145
▁peamine	-9.95156
▁õiguste	-9.952
▁muudetakse	-9.95234
▁kõlas	-9.95278
▁jõuame	-9.95285
▁leping	-9.95294
▁lähtuvalt	-9.95347
▁erinevate	-9.95572
▁praegusel	-9.95621
▁seisukohal	-9.95672
no	-9.95744
▁tingimused	-9.95779
▁anti	-9.95812
▁kirjutada	-9.95846
▁mees	-9.95858
▁strateegia	-9.95963
▁saalist	-9.9602
▁lugemiseks	-9.96058
▁teemasid	-9.96129
seid	-9.96138
▁mõista	-9.96148
▁tööl	-9.96225
ir	-9.96312
▁talvik	-9.96323
▁majanduskasvu	-9.96383
lu	-9.96418
▁omal	-9.96496
▁randpere	-9.96568
et	-9.9659
▁detsembril	-9.96595
▁eas	-9.96673
▁tegemise	-9.96871
▁21.	-9.96954
▁liikuda	-9.97036
tasu	-9.97044
▁põhiline	-9.97091
▁millist	-9.9711
▁valdkonda	-9.97277
▁kasv	-9.97297
▁konkreetsed	-9.97338
▁valiku	-9.97356
▁õigeks	-9.97364
õigus	-9.97376
▁meditsiini	-9.97399
ht	-9.97415
▁jätkub	-9.9744
▁pikka	-9.97465
▁niiviisi	-9.97486
▁keskuse	-9.97493
▁seejärel	-9.97596
▁eestit	-9.97636
▁määruse	-9.97653
▁kohustuse	-9.97655
▁kapitali	-9.97671
bu	-9.97682
▁vastuvõtmise	-9.9769
▁veebruaril	-9.977
▁juhtunud	-9.97728
▁seisukohad	-9.97811
süsteem	-9.97856
▁infot	-9.97866
▁huvide	-9.97986
▁võite	-9.98022
▁it	-9.98107
▁tarbija	-9.98124
▁normaalne	-9.98134
▁tihtipeale	-9.98135
▁2011.	-9.98201
▁parandus	-9.98229
▁hääletamise	-9.98231
▁võimaliku	-9.98264
▁45	-9.98283
▁9	-9.98308
▁kindlustus	-9.9836
▁eelarvest	-9.98487
▁kaitseminister	-9.98623
▁huvitab	-9.98822
▁eestist	-9.98921
▁kvaliteedi	-9.98971
▁mõnel	-9.9902
▁ilmselgelt	-9.99123
▁nõunik	-9.99155
▁22	-9.99161
▁küsima	-9.99164
▁avalikus	-9.99254
▁kütt	-9.99302
valdkonna	-9.99359
abi	-9.99451
▁kava	-9.99459
▁aas	-9.99481
▁19	-9.99485
selle	-9.99509
▁euroni	-9.99663
▁oodata	-9.99722
▁küsimustes	-9.99738
▁omakorda	-9.998
▁muutma	-9.99812
▁poliitilist	-9.99913
▁vahele	-9.99973
▁igas	-9.99991
tis	-10
▁dokument	-10.0001
▁lisaraha	-10.0012
▁suurte	-10.0014
tan	-10.0017
▁jääks	-10.0021
tarmo	-10.0023
▁kodakondsus	-10.0035
▁laual	-10.0039
▁asjast	-10.004
▁kaaluda	-10.0044
to	-10.0046
▁heaolu	-10.0053
▁mõnevõrra	-10.0053
▁teistele	-10.0055
▁detsembri	-10.0064
nduse	-10.0072
▁ettevõtted	-10.0072
▁vajalikuks	-10.0074
▁septembril	-10.0085
▁mingite	-10.009
▁täitmise	-10.009
▁tulumaksuvaba	-10.0091
▁artur	-10.0097
▁tundi	-10.0098
▁töötaja	-10.0099
▁juunil	-10.0099
▁üheksa	-10.0108
koha	-10.0111
▁pevkur	-10.0113
▁õigusi	-10.0119
▁tol	-10.012
▁riigikontroll	-10.0122
▁liikmetele	-10.0126
▁määr	-10.013
lli	-10.0136
▁tegemata	-10.0149
vastase	-10.015
▁ministrid	-10.0151
▁kodanike	-10.0152
▁märtsil	-10.0154
▁muide	-10.0155
▁lisada	-10.0155
▁isa	-10.0163
▁täitma	-10.0166
▁määratud	-10.0176
▁seisukohalt	-10.0177
aal	-10.0177
▁jagada	-10.0179
▁7.	-10.0179
▁300	-10.018
▁debatt	-10.0186
kulud	-10.0187
▁seadusest	-10.0189
▁sõnum	-10.0201
▁huvitatud	-10.0204
▁teisiti	-10.0209
konkurentsivõime	-10.0215
▁vaadanud	-10.0216
kulude	-10.0218
▁mõtlen	-10.022
▁süüdi	-10.0222
▁ruumi	-10.0229
▁in	-10.0229
▁õppida	-10.0234
▁valitud	-10.0236
▁tähele	-10.0243
▁eestile	-10.0245
▁kõnes	-10.0246
▁kahel	-10.0247
▁esimesele	-10.0256
▁niisama	-10.0258
ameti	-10.0259
▁suund	-10.0269
▁piima	-10.0273
ur	-10.0276
▁haigla	-10.0282
▁puldist	-10.0285
vii	-10.0291
▁vanema	-10.0293
▁miinimumi	-10.0297
▁eesmärgi	-10.0311
▁26	-10.0321
▁inimestest	-10.0331
▁maal	-10.0335
lda	-10.0338
▁töötanud	-10.0342
▁as	-10.0347
▁relva	-10.0356
▁su	-10.0358
▁täiendavalt	-10.036
▁aprillil	-10.0367
▁kool	-10.0378
▁piirivalve	-10.0382
▁soovite	-10.0392
▁kuskilt	-10.0403
▁tasub	-10.0408
▁mõelnud	-10.0415
▁laiem	-10.0422
▁tekitada	-10.0437
▁annaks	-10.0447
▁nõue	-10.0451
▁ütleksin	-10.0451
▁eestikeelse	-10.0453
▁minuti	-10.0453
▁paneme	-10.0454
▁aastani	-10.046
▁positsiooni	-10.0468
▁teemad	-10.0487
▁tegeleda	-10.0493
▁neljanda	-10.0499
▁mainisin	-10.0501
▁struktuuri	-10.0505
▁andrus	-10.0509
▁4.	-10.0514
▁maksude	-10.0515
20	-10.0516
▁tööjõu	-10.0516
misele	-10.0517
▁mai	-10.0525
▁kaubandus	-10.0528
▁lugupeetav	-10.0528
▁muutu	-10.0529
ko	-10.0531
▁lipu	-10.0532
▁tunni	-10.0532
▁koolides	-10.0533
▁pääste	-10.0533
▁jaanuarist	-10.0536
▁ametisse	-10.0539
▁ennekõike	-10.055
▁sedasama	-10.055
▁lugesin	-10.0551
▁püüame	-10.0552
ratifitseerimise	-10.0555
▁prioriteet	-10.056
▁vi	-10.0565
▁õpilaste	-10.0568
▁toetama	-10.057
▁tekivad	-10.0572
he	-10.0572
▁kurb	-10.0581
▁leia	-10.0582
▁80	-10.0583
▁perspektiivis	-10.0591
krista	-10.0591
▁uuringu	-10.0591
pu	-10.0592
organisatsioonid	-10.0593
▁vanemad	-10.0595
▁omavalitsustes	-10.0599
▁vältida	-10.0602
▁seadustiku	-10.0618
▁juhtida	-10.0621
▁kaugele	-10.0631
▁võimalda	-10.0633
▁tahtnud	-10.0636
toetust	-10.0642
▁tere	-10.0643
▁praeguses	-10.0646
▁arvud	-10.0659
▁oht	-10.0665
▁katkestada	-10.0673
▁sester	-10.0699
▁pilt	-10.0707
▁miinimum	-10.0716
▁püüan	-10.0723
▁jõustumise	-10.0724
▁väliskomisjoni	-10.0726
▁vahendid	-10.0728
▁tegemine	-10.073
▁klassi	-10.0735
▁tahtsin	-10.0739
▁henn	-10.0754
▁protsenti	-10.0756
▁investeeringud	-10.0758
▁jätkuvalt	-10.0758
▁piiratud	-10.0759
▁arendada	-10.076
▁juuni	-10.0767
▁kellelgi	-10.0767
▁kuhugi	-10.0767
▁seepärast	-10.0772
▁päevast	-10.0775
▁kaalu	-10.0775
▁tunnistada	-10.0778
▁tööpäeva	-10.078
aadi	-10.0787
▁loogiline	-10.0791
▁põldaru	-10.0791
▁öelge	-10.0791
▁ajast	-10.0792
▁eelnõust	-10.0794
▁katse	-10.0797
tavate	-10.08
▁6.	-10.0804
▁suudab	-10.0807
▁dokumendi	-10.0808
▁lastega	-10.0812
▁käsitlemine	-10.0812
▁partei	-10.0819
▁20.	-10.082
▁menetluses	-10.0821
maja	-10.0825
▁lugenud	-10.0827
like	-10.0837
▁tekitanud	-10.0847
▁kommenteerida	-10.0848
▁mälu	-10.0861
stamine	-10.087
▁sügisel	-10.0871
▁enn	-10.0874
▁oktoobri	-10.088
▁kutsutud	-10.0899
▁helmen	-10.09
ministrile	-10.0911
▁kaitseliidu	-10.0915
▁ela	-10.0921
▁juhtumi	-10.0924
▁vastava	-10.0928
▁olulisi	-10.0931
▁ühiskonda	-10.0939
▁33	-10.094
▁seadusesse	-10.095
▁38	-10.0956
▁monika	-10.0958
▁jätkame	-10.0959
▁20%	-10.0963
▁arto	-10.0967
▁varsti	-10.0967
▁tekiks	-10.0967
tanud	-10.097
▁piirivalveameti	-10.0973
en	-10.0974
▁investeeringu	-10.0977
▁liikmena	-10.0984
▁kirjutanud	-10.0988
▁piirkonnas	-10.099
loo	-10.1001
▁riigireformi	-10.1002
▁liiklus	-10.1002
▁selliselt	-10.1004
▁räägiti	-10.101
▁põhjaliku	-10.101
▁peetud	-10.102
▁pärnu	-10.1023
▁ootame	-10.1023
▁komisjonide	-10.1023
▁liigume	-10.1028
▁..."	-10.1031
konna	-10.1037
▁raivo	-10.1039
▁põhjused	-10.1043
▁sults	-10.1044
▁linn	-10.1055
▁juhtus	-10.1063
stada	-10.1064
▁reeglid	-10.1066
▁aus	-10.1069
▁asume	-10.1077
ena	-10.1083
▁2015	-10.1091
janduskomisjoni	-10.11
liigume	-10.1103
▁töökohtade	-10.1105
▁pluss	-10.1112
▁abielu	-10.1121
järgmine	-10.1123
▁korraga	-10.1127
ro	-10.113
▁70	-10.1132
▁34	-10.1134
ngu	-10.114
▁tulevikku	-10.1147
▁tahes	-10.1149
▁teistpidi	-10.1164
euroopa	-10.1167
▁lähenemine	-10.1167
▁toimib	-10.1168
▁tööta	-10.1169
▁poliitiliste	-10.1171
▁algatajate	-10.1174
▁korraldamise	-10.1181
▁vormi	-10.1183
▁mahu	-10.1183
▁fraktsioonilt	-10.1184
▁kohustused	-10.1185
▁2016	-10.1187
am	-10.1189
▁lubada	-10.1197
▁vastuses	-10.12
▁asjaga	-10.1201
▁edu	-10.1201
▁kokk	-10.1209
▁debatti	-10.1214
▁alt	-10.1215
▁tõe	-10.1216
▁eelarvesse	-10.1216
poliitikat	-10.122
▁rääkisime	-10.1237
▁registreeritud	-10.1238
▁langetada	-10.1239
▁ettevõte	-10.1244
▁juhin	-10.1251
▁pank	-10.1253
▁eelkõneleja	-10.1254
▁hoolimata	-10.1255
▁kõrgem	-10.1259
▁soovitan	-10.1266
▁ohtu	-10.127
▁reform	-10.127
▁pidama	-10.1291
▁muudab	-10.1299
▁kristen	-10.1301
aitüma	-10.1309
toetuste	-10.1311
▁tubaka	-10.1317
▁hääletuse	-10.1319
▁tasemele	-10.1322
▁vaata	-10.1324
▁kodaniku	-10.1326
▁konkreetsete	-10.133
luse	-10.1332
riik	-10.1332
▁asjaolu	-10.1333
▁ametis	-10.1334
▁vastutuse	-10.1334
▁mandaadi	-10.1338
▁seadusele	-10.134
▁erikomisjoni	-10.1345
▁teistsugune	-10.1346
▁mismoodi	-10.135
▁surve	-10.1351
▁teavad	-10.1354
▁kõva	-10.1356
its	-10.1358
▁protsent	-10.1365
pe	-10.1371
▁täitmisel	-10.1372
▁arengufondi	-10.1378
▁lahenda	-10.138
▁õigusabi	-10.1387
▁toona	-10.1393
▁päevakorras	-10.1405
▁saare	-10.1405
▁taotleda	-10.1405
▁näitavad	-10.1406
▁hei	-10.1414
▁vaat	-10.1415
▁puldis	-10.1416
▁side	-10.142
▁isiklik	-10.142
▁viib	-10.1422
▁seisukohast	-10.1426
▁võtan	-10.1427
▁tead	-10.143
▁margus	-10.1431
▁tekst	-10.1433
▁erakonnad	-10.1437
mul	-10.1447
▁võrrelda	-10.1452
▁jaanuari	-10.1453
vara	-10.1455
▁algusest	-10.1457
▁taastuvenergia	-10.1457
?""	-10.1458
▁lõpetatakse	-10.1459
▁meeldib	-10.1464
▁toetavad	-10.1464
ab	-10.1465
▁taotluse	-10.1468
▁valimise	-10.1469
▁maht	-10.1471
▁kogemus	-10.1473
▁oluliseks	-10.1474
▁ametnike	-10.1476
▁kõvasti	-10.1476
▁mainitud	-10.1477
▁olulist	-10.1478
statud	-10.1481
▁toetusi	-10.1493
▁õpetajad	-10.1494
▁ühiselt	-10.1495
▁17.15.	-10.1496
▁konkreetseid	-10.1496
▁kusagil	-10.1506
▁valdo	-10.1513
▁jahi	-10.1513
minu	-10.1534
▁kindlaks	-10.1534
▁suuna	-10.1545
▁pane	-10.1548
registri	-10.1549
▁öeldi	-10.155
▁37	-10.1553
elu	-10.1558
▁juhtumeid	-10.1562
▁kulutusi	-10.1564
▁lähiajal	-10.1571
▁kasutatud	-10.1574
kus	-10.1587
▁sõltumata	-10.1589
▁küla	-10.159
▁infotunnis	-10.1591
▁alguse	-10.1593
▁koostatud	-10.1594
▁tegelik	-10.1599
▁probleemide	-10.1602
▁vahest	-10.161
▁pöörduda	-10.1611
▁teadusminister	-10.1614
▁paljudel	-10.1618
mõ	-10.1623
▁palo	-10.1627
▁pu	-10.1629
▁keelatud	-10.163
▁ettepanekuga	-10.1635
▁võimatu	-10.1635
▁küsinud	-10.1637
▁neljas	-10.1641
▁andmetel	-10.1643
▁turul	-10.1643
▁fakt	-10.1644
▁igasuguse	-10.1659
▁kasulik	-10.1674
▁leppida	-10.1683
▁muutus	-10.17
▁küsimusest	-10.17
▁vabariigis	-10.1702
▁seisab	-10.1704
stamise	-10.171
▁ülesanded	-10.1712
▁parlamentaarse	-10.1713
▁õnneks	-10.1715
sust	-10.1716
uks	-10.1725
up	-10.1726
▁tõite	-10.1727
▁maksuvaba	-10.1728
▁niisuguse	-10.1742
▁jutu	-10.1742
▁36	-10.1744
▁31	-10.1746
nii	-10.1747
▁tegeleme	-10.1749
▁võtavad	-10.1749
▁juhan	-10.1749
▁interneti	-10.1751
▁tõde	-10.1758
▁üha	-10.1759
▁soo	-10.1764
▁veebruari	-10.1767
▁vanemate	-10.1768
hoolekande	-10.1773
▁hanke	-10.1777
▁ekspordi	-10.1778
▁8.	-10.178
atsiooni	-10.178
▁millises	-10.1785
▁ve	-10.1787
▁kogukonna	-10.1789
▁rahast	-10.1793
▁jõud	-10.1794
▁end	-10.1796
▁kala	-10.1796
▁äsja	-10.1797
▁õigusloome	-10.1797
▁kaasatud	-10.1808
▁istu	-10.1817
▁arsti	-10.1819
▁igaüks	-10.1819
▁selleni	-10.1821
▁kohtute	-10.1829
▁rahastamine	-10.183
▁48	-10.1834
hal	-10.1836
▁automaatselt	-10.1838
▁reguleeritud	-10.1839
▁tegid	-10.184
▁isikud	-10.1841
▁stenogrammi	-10.1847
▁elektroonilise	-10.1858
iministeeriumi	-10.1862
▁olevate	-10.1863
▁mõtteid	-10.1864
▁vastutab	-10.1877
▁teenus	-10.1877
▁riigigümnaasium	-10.1881
▁avalikkuse	-10.1884
▁jätkan	-10.1892
▁kauem	-10.1894
▁paljusid	-10.1898
▁õigused	-10.1903
▁programm	-10.1908
valdkonnas	-10.191
▁võrdse	-10.1913
▁täiendava	-10.1914
▁kõlanud	-10.1915
programmi	-10.1917
sel	-10.1918
▁maad	-10.1918
▁erinevus	-10.1921
▁vald	-10.1928
▁hulga	-10.1929
▁peetakse	-10.1933
▁esitati	-10.1935
▁49	-10.1942
▁tuleva	-10.1943
▁lõppkokkuvõttes	-10.1955
▁püüdnud	-10.1955
▁aktiivselt	-10.1962
▁22.	-10.1966
▁sõnu	-10.1969
▁nimi	-10.1972
▁aadu	-10.1972
▁valdkondades	-10.1972
▁perioodil	-10.1973
▁kannab	-10.1975
▁ajaloo	-10.1979
▁to	-10.1987
▁linnas	-10.1992
▁ainu	-10.1995
▁kütuseaktsiisi	-10.1998
▁vastanud	-10.2004
▁ühtlasi	-10.2012
▁reaalne	-10.2014
▁tulemusi	-10.2016
▁tööandjate	-10.2021
▁tsiviil	-10.2039
▁rakendus	-10.2041
▁viimaste	-10.2041
▁las	-10.2046
▁sada	-10.2048
▁endise	-10.206
▁räägivad	-10.2062
▁samba	-10.2067
▁omavalitsuses	-10.2069
▁kuivõrd	-10.2071
▁55	-10.2074
▁seitsme	-10.2081
kaitse	-10.2086
▁mõnikord	-10.2092
▁29	-10.2093
▁toetused	-10.2095
▁üheks	-10.2099
▁inim	-10.2104
fondi	-10.2107
▁praktikas	-10.2112
▁käsitletud	-10.2113
▁asutuse	-10.2115
▁hakkaks	-10.2115
▁sild	-10.2121
▁nõnda	-10.213
▁krooni	-10.2132
tati	-10.2137
▁informatsioon	-10.2141
▁3,	-10.2148
▁viitasite	-10.2151
▁41	-10.2152
▁sõlmitud	-10.2153
kindlustuse	-10.2154
▁keskmiselt	-10.2154
▁noori	-10.2155
ime	-10.2156
ub	-10.2159
▁ülesannete	-10.216
▁firma	-10.2161
▁heljo	-10.2165
▁rahvasaadikut	-10.217
▁reguleerida	-10.2175
▁juhtuda	-10.2176
▁kaotada	-10.2177
▁perearsti	-10.218
▁inimõiguste	-10.218
▁hääletama	-10.2182
▁tagama	-10.2185
öö	-10.2186
▁tolliameti	-10.2189
▁kenasti	-10.219
▁loomise	-10.2192
▁riigieelarves	-10.2193
▁rahaga	-10.2198
▁suurus	-10.221
▁kehtiv	-10.2212
▁asutuste	-10.2219
▁toimuma	-10.2231
▁kasutama	-10.2233
▁lõpphääletus	-10.2237
▁riikidega	-10.2241
▁vähendamise	-10.2253
▁niisugust	-10.2255
iku	-10.2255
▁debati	-10.2256
▁kellega	-10.2256
teks	-10.2257
▁jääma	-10.227
▁leppinud	-10.227
▁võlgu	-10.2272
kond	-10.2279
▁sõltumatu	-10.2281
poolne	-10.2288
lasi	-10.2289
▁lai	-10.2292
▁2009.	-10.2295
▁keskus	-10.2299
▁projekt	-10.2302
võt	-10.2303
▁rida	-10.2303
▁tasakaalus	-10.2306
▁komisjonile	-10.2318
seks	-10.2323
▁muutmist	-10.2323
▁õiguskomisjon	-10.2323
▁muutuvad	-10.2325
▁teenused	-10.2326
▁rääkimata	-10.233
▁suuruse	-10.2336
▁sektoris	-10.2337
▁ministrite	-10.234
▁üldise	-10.2347
▁arendustegevuse	-10.2351
▁arvesta	-10.2354
hu	-10.2355
▁loetelu	-10.236
▁tehes	-10.2372
vaba	-10.2377
aasta	-10.2387
um	-10.2389
▁vaidlus	-10.2395
▁ainus	-10.2395
▁küsisite	-10.2395
▁eeldab	-10.2398
▁seleta	-10.2406
▁teaduse	-10.2407
▁kohtusse	-10.241
▁kohustust	-10.2414
▁ehitatud	-10.2415
▁näol	-10.2423
▁luuakse	-10.2434
▁lauale	-10.2436
▁territooriumil	-10.2439
▁kasutavad	-10.2439
▁meeldi	-10.2445
▁protsendi	-10.2447
ho	-10.2451
▁sündinud	-10.2457
▁menetleda	-10.2458
▁pakub	-10.2459
▁analüüsida	-10.2469
teine	-10.2472
▁hommikust	-10.2474
▁koolid	-10.2476
▁kerge	-10.2479
▁küsib	-10.2484
▁märt	-10.2485
▁puuetega	-10.2495
and	-10.2502
▁liikmeks	-10.2503
▁usalda	-10.251
▁pead	-10.2511
▁palkade	-10.2512
ses	-10.2513
▁minule	-10.2516
aplaus	-10.2516
▁jään	-10.2518
kava	-10.252
▁vahendite	-10.2529
▁seekord	-10.253
▁1,	-10.2532
lugupeetav	-10.2541
▁vastutust	-10.2551
tas	-10.2555
▁juhtimise	-10.2556
▁rahvus	-10.2557
▁valimised	-10.2561
▁2019.	-10.2562
▁poliitikat	-10.2565
▁järelevalvet	-10.2569
▁konflikti	-10.2575
uma	-10.2575
▁1%	-10.2577
▁lihtsa	-10.2578
kohalolijaks	-10.2583
▁tehnoloogia	-10.2584
▁teabe	-10.2586
▁päevakord	-10.2591
▁mõjutada	-10.2592
▁ettenähtu	-10.2599
▁appi	-10.2599
▁üldjuhul	-10.2599
▁tõenäosusega	-10.26
▁kõikides	-10.2602
tule	-10.2605
▁seisuga	-10.2605
▁eriala	-10.2606
▁poliitikud	-10.2607
▁inara	-10.2613
▁sisulise	-10.2613
▁pro	-10.2615
asi	-10.2619
▁selgitas	-10.2621
▁kujuta	-10.2621
▁seatud	-10.2624
▁prokuratuuri	-10.2627
▁seadused	-10.2633
▁iva	-10.2634
mo	-10.2644
▁eeldus	-10.2647
▁palve	-10.2648
▁hakkas	-10.2651
▁siim	-10.2659
▁joo	-10.2666
▁ütleks	-10.2668
▁dokumentide	-10.2669
▁arvamusi	-10.2676
▁endast	-10.2677
seadust	-10.2683
▁viiakse	-10.2684
▁erasektori	-10.2685
▁töötasu	-10.2688
▁algatas	-10.2688
▁pärit	-10.2689
▁tutvustas	-10.269
▁asub	-10.269
▁eesmaa	-10.2691
▁oleksime	-10.2699
▁eeskuju	-10.27
▁kuulsime	-10.2705
▁kehtivad	-10.2705
▁jõudis	-10.2706
külliki	-10.2709
▁turismi	-10.271
▁arvab	-10.272
▁riigieelarvesse	-10.2722
▁vanem	-10.2728
▁enese	-10.273
▁variant	-10.273
▁ollakse	-10.2731
▁400	-10.2732
▁registri	-10.2733
▁44	-10.2734
▁olemasolu	-10.2746
▁50%	-10.275
▁kasutanud	-10.2752
▁tulid	-10.2754
▁erki	-10.2755
▁esindus	-10.276
sest	-10.2762
▁lühike	-10.2769
▁5000	-10.277
▁musta	-10.2776
▁avata	-10.2788
▁kallo	-10.2788
▁missuguse	-10.2789
▁nimetasite	-10.2789
▁rahapesu	-10.279
▁eestil	-10.2795
▁1000	-10.2798
▁maksavad	-10.2799
▁kooseluseaduse	-10.28
▁muuda	-10.2807
▁tsahkna	-10.2809
▁li	-10.2824
koalitsiooni	-10.2825
▁jutuks	-10.2826
▁sobi	-10.2829
▁toote	-10.2831
▁püütakse	-10.2831
▁põhjenda	-10.2834
▁eestimaa	-10.2851
▁valguses	-10.2857
kust	-10.2858
▁toetas	-10.2859
▁vahelise	-10.2859
▁eesmärgid	-10.2864
▁piirkonna	-10.2867
▁väiksema	-10.2868
▁rahvusvaheline	-10.2874
▁inglise	-10.2874
▁enamasti	-10.2874
ski	-10.2888
▁lasta	-10.2891
▁elama	-10.2893
▁65	-10.2893
▁majandust	-10.2903
▁läbirääkimistel	-10.2906
urve	-10.2908
▁pääse	-10.2909
▁ilus	-10.2909
▁püha	-10.2921
▁39	-10.293
idega	-10.2936
▁siht	-10.2942
kooli	-10.2948
ima	-10.2958
▁seos	-10.2959
▁viies	-10.2961
▁tagab	-10.2962
▁kinnitatud	-10.2965
▁tähtsusega	-10.2967
majanduskomisjon	-10.2969
▁töölepingu	-10.297
▁omavalitsustel	-10.2979
▁pandi	-10.2981
▁rmk	-10.2981
▁vastavad	-10.2983
kirja	-10.2985
▁siinsamas	-10.2988
▁järgmiste	-10.299
▁kasutusele	-10.2992
▁konsensuslik	-10.2993
▁positiivse	-10.2996
▁rõhutada	-10.3004
em	-10.3005
▁käsitleda	-10.3008
määra	-10.3009
▁panustada	-10.3009
▁kuskile	-10.3012
mm	-10.3017
▁nõude	-10.3017
▁nõuda	-10.3018
▁oleksin	-10.3018
▁tõin	-10.3019
▁diskussioon	-10.3024
▁otsida	-10.3032
▁riiklik	-10.3037
▁isikliku	-10.3041
▁usa	-10.3046
▁sunnitud	-10.305
▁häda	-10.3051
▁suurendab	-10.3054
▁kõrgema	-10.3057
asutuste	-10.3058
▁rea	-10.3062
▁saksamaa	-10.3063
▁peaministrile	-10.3066
kuu	-10.3067
▁kõnealuse	-10.3072
▁reeglite	-10.3079
▁kaugel	-10.3084
▁esmaspäeval	-10.3085
▁hääletust	-10.3088
▁hommikul	-10.309
▁lahendatud	-10.3096
▁kampaania	-10.3106
ajalt	-10.3108
▁võimekus	-10.3109
▁mistõttu	-10.3112
▁mtü	-10.3112
usi	-10.3113
▁46	-10.3113
▁teete	-10.3129
▁tuleme	-10.3137
▁välista	-10.3141
▁muudetud	-10.3145
▁tu	-10.3152
▁juhatusele	-10.3157
▁astuda	-10.3163
▁eesistumise	-10.3164
▁lühikese	-10.3169
sektori	-10.317
▁saamise	-10.3171
▁tarvis	-10.3178
▁teistest	-10.3181
▁viimased	-10.3184
▁sõita	-10.3184
▁puhas	-10.3184
▁tase	-10.3185
▁kohane	-10.319
▁hooldus	-10.3194
▁asu	-10.3194
▁47	-10.3198
▁täidetud	-10.3201
idest	-10.3203
▁tulubaasi	-10.3203
▁arusaamatu	-10.322
▁mitmesuguseid	-10.3222
▁senise	-10.3231
▁tänada	-10.3239
▁näidanud	-10.3245
▁i	-10.3245
alt	-10.3246
▁taseme	-10.3254
▁sügava	-10.3256
▁pidades	-10.3267
▁laanet	-10.3271
▁ainuke	-10.3273
▁leiame	-10.3275
▁registreeru	-10.3276
▁üli	-10.3276
▁43	-10.3277
▁panema	-10.3288
▁kolmandat	-10.329
▁42	-10.3295
endi	-10.3296
▁pension	-10.3301
teist	-10.3305
▁loa	-10.3306
▁aruande	-10.3311
▁halvasti	-10.3312
▁suhtumine	-10.3314
▁investeerida	-10.3315
▁kutsuda	-10.3317
▁kodanikud	-10.3321
▁senti	-10.3321
▁eesmärke	-10.3323
▁direktiiv	-10.3323
▁täitmiseks	-10.3325
▁suudavad	-10.3328
▁kujunenud	-10.3328
▁kuriteo	-10.333
▁paha	-10.3331
▁sammud	-10.3335
▁kindla	-10.334
▁osalenud	-10.3342
▁maris	-10.3343
▁tulemused	-10.3345
▁suvel	-10.3348
▁looduskaitse	-10.335
▁arusaama	-10.335
▁õppekava	-10.3354
▁kohalikke	-10.3363
▁asjadest	-10.3378
▁oligi	-10.338
▁lõppu	-10.3386
▁ro	-10.3393
▁ravimi	-10.3393
▁esinda	-10.3395
▁lahendamise	-10.3396
▁pakkunud	-10.3402
▁kandidaadi	-10.3407
▁nõudeid	-10.3422
▁poliitikute	-10.3422
▁aitavad	-10.3434
▁23.	-10.3438
ooni	-10.3444
▁riigikokku	-10.3451
rd	-10.3451
▁lähedal	-10.3454
▁ühiskonnale	-10.346
▁osalesid	-10.3464
▁kodanik	-10.3469
▁tõstmine	-10.347
▁otsusega	-10.3473
▁lähtuda	-10.3475
ent	-10.3475
▁toimuvad	-10.3475
▁arupärimist	-10.3486
▁maksud	-10.3487
▁sisuka	-10.3487
▁maksustamise	-10.3488
iv	-10.349
▁tugi	-10.349
▁tegevused	-10.3491
▁riisalu	-10.3492
valdor	-10.3493
▁koju	-10.3494
▁toom	-10.35
▁omavalitsusele	-10.3503
idele	-10.3505
▁kasvavad	-10.3514
▁vakra	-10.3516
▁samasugune	-10.3516
▁v	-10.3518
▁langeb	-10.3519
▁käsi	-10.352
▁muul	-10.3526
▁viidud	-10.3526
▁tehta	-10.3526
ristusseadustiku	-10.3527
▁lahku	-10.3528
▁näita	-10.3532
▁millegipärast	-10.3538
▁vabaerakond	-10.3539
▁juriidilise	-10.3543
▁kaob	-10.3543
▁90	-10.355
▁meetmete	-10.3558
▁5,	-10.3559
▁tänapäeva	-10.3567
▁ettevõtjatele	-10.3583
▁pihta	-10.3584
▁52	-10.3586
▁suuresti	-10.359
▁saavuta	-10.359
▁põhjendus	-10.3597
▁kestab	-10.3604
▁keela	-10.3609
▁liigub	-10.361
tulu	-10.3611
▁eeldan	-10.3614
▁infosüsteemi	-10.3616
▁eelista	-10.3618
▁üldist	-10.3618
▁tugeva	-10.3628
▁viienda	-10.363
▁sisuline	-10.3631
eeritud	-10.3635
▁isikut	-10.3638
▁sihtasutuse	-10.3645
▁kõikidel	-10.3646
mp	-10.3648
▁vajaliku	-10.3649
martin	-10.365
▁teeni	-10.366
▁seadusmuudatuse	-10.3661
▁peamiselt	-10.3677
▁laadi	-10.3677
▁erineva	-10.3679
▁tutvustada	-10.3682
▁tulude	-10.3689
inspektsioon	-10.3694
▁omad	-10.3694
▁kohtus	-10.3696
töötajate	-10.3704
▁lähtub	-10.3705
▁tegemisel	-10.371
▁pe	-10.3712
lase	-10.3719
▁savisaar	-10.3719
▁üksi	-10.372
▁kirjelda	-10.3722
▁riigihalduse	-10.3723
▁hoone	-10.3724
▁meeste	-10.3728
▁juhtide	-10.3729
▁2018	-10.3731
kat	-10.3731
▁sõnad	-10.374
▁poleks	-10.374
▁kolleegi	-10.3743
▁suurusjärgus	-10.3747
▁erivajadustega	-10.3747
▁tulebki	-10.3748
▁mõtleme	-10.3753
▁välispoliitika	-10.3753
▁raamatu	-10.3761
▁alust	-10.3761
▁laiema	-10.3769
os	-10.3782
▁tubli	-10.3785
▁üheselt	-10.3789
▁eksami	-10.3793
▁aine	-10.3794
▁esitama	-10.3794
▁väidan	-10.3796
▁samasuguse	-10.3798
▁teilt	-10.3801
▁kindlalt	-10.3807
▁teki	-10.3808
▁laiali	-10.3819
▁2010.	-10.3822
▁mõtle	-10.3822
▁riigiabi	-10.3832
leping	-10.3834
meie	-10.3835
▁institutsiooni	-10.3836
▁vaielda	-10.384
▁esialgu	-10.384
▁25.	-10.3841
▁õigemini	-10.3843
▁jälgida	-10.3848
▁paremat	-10.385
▁toetan	-10.3851
▁poola	-10.3851
▁mängu	-10.3854
▁lennu	-10.3864
▁saamiseks	-10.3867
▁täiendav	-10.3886
ak	-10.3888
▁turule	-10.3889
▁eelmises	-10.389
▁kvaliteet	-10.3891
▁linnade	-10.3891
sõna	-10.3892
▁pikhof	-10.3892
▁hääletus	-10.3895
▁otsi	-10.3898
▁parim	-10.3902
▁tõstmise	-10.3903
▁aprilli	-10.3904
▁kohalikel	-10.3912
▁eelnõusse	-10.3912
▁kasutades	-10.3916
▁kasuks	-10.3921
▁tohutu	-10.3923
▁pomerants	-10.3928
▁praeguseks	-10.3928
▁sihi	-10.3935
▁eesmärgil	-10.3935
enda	-10.3937
▁väiksemad	-10.3939
▁pöörata	-10.3941
▁arstide	-10.3943
▁maksmise	-10.3947
uuri	-10.3949
usega	-10.3954
keskus	-10.3957
▁teemadel	-10.3959
▁aspekti	-10.3959
▁igasugune	-10.3961
▁missugune	-10.3968
▁ressursse	-10.3968
▁milliste	-10.397
▁mõlema	-10.3975
▁tipp	-10.3975
▁kulutused	-10.3976
▁pankade	-10.3978
▁soovitus	-10.3987
▁kinnitanud	-10.3989
▁2013	-10.4006
▁tingitud	-10.4008
▁tähtsam	-10.401
▁suureks	-10.4012
▁hinnangut	-10.4014
▁vähendab	-10.4014
▁loob	-10.4014
▁laiendada	-10.4014
▁allkirja	-10.4014
▁mo	-10.4019
▁vastamise	-10.4024
▁alustan	-10.4025
komisjonile	-10.4025
sotsiaalkomisjon	-10.4026
▁kohti	-10.4028
▁lõpeb	-10.4034
▁pikendada	-10.4036
ettevõtete	-10.4046
ministeeriumiga	-10.4049
▁naised	-10.4056
▁vaatasin	-10.4058
▁tundu	-10.4059
▁pikemalt	-10.4066
▁võimalikud	-10.4066
▁ettepanekute	-10.4071
▁borodi	-10.4079
▁algatada	-10.4085
▁täiendavat	-10.4086
▁ürita	-10.4093
▁m	-10.4093
ndatud	-10.4094
▁huvitava	-10.4095
▁esitasid	-10.4095
▁personali	-10.4099
▁karmi	-10.4099
su	-10.4111
▁ohu	-10.4112
▁seada	-10.4115
▁väikeste	-10.4125
▁igasuguseid	-10.4126
▁õpi	-10.413
hvusringhäälingu	-10.4131
▁2020	-10.4134
▁kaasata	-10.4134
teenust	-10.4134
▁puhtalt	-10.4135
▁sea	-10.4136
aastane	-10.4137
vas	-10.4137
▁mitmesuguste	-10.4143
▁majanduskasv	-10.4143
▁pani	-10.4144
rt	-10.4149
▁rahvast	-10.415
▁2017	-10.4151
▁tagantjärele	-10.4152
▁liikuma	-10.4152
saa	-10.4153
▁avalikkusele	-10.4155
▁rahulikult	-10.4158
▁loomulik	-10.4159
▁tahe	-10.4161
▁ekspertide	-10.4163
▁laine	-10.4163
▁proovi	-10.4163
▁näitaja	-10.4168
▁edasise	-10.4169
▁mingis	-10.4172
▁hääle	-10.4173
▁seaduseelnõuga	-10.4177
▁jõustub	-10.4179
reid	-10.4179
▁rainer	-10.4183
▁põhiliselt	-10.4183
▁5%	-10.4184
▁omaette	-10.4189
▁ajada	-10.4196
proua	-10.4196
ida	-10.4207
▁föderatsiooni	-10.4216
▁narvas	-10.422
keskuse	-10.4221
▁teeks	-10.4226
▁põhimõtteline	-10.4228
▁nädal	-10.4231
▁müüa	-10.4233
▁mehed	-10.4235
tiiv	-10.4238
▁jäid	-10.4241
▁spetsialistid	-10.4245
aeg	-10.4245
▁uudis	-10.4247
▁tööstus	-10.4248
▁avalikku	-10.4249
eerimise	-10.4251
▁argument	-10.4251
▁kasutamist	-10.4256
▁suve	-10.4259
tunni	-10.427
▁põllumeeste	-10.427
deks	-10.4281
▁stalnuhhini	-10.4281
▁töötama	-10.4283
▁normaalse	-10.4286
▁tingimustes	-10.4288
▁koosseis	-10.4289
▁lubanud	-10.429
▁piirangud	-10.4291
▁liini	-10.4299
mart	-10.4299
asutuse	-10.4302
▁kättesaadav	-10.4302
▁olime	-10.4303
▁praeguste	-10.4308
▁juhtum	-10.431
▁tarbimise	-10.4311
▁anvelt	-10.4315
▁pentus	-10.4326
▁2,	-10.4328
▁kaota	-10.4329
▁vastasin	-10.4332
▁kohtuniku	-10.4335
▁kaasas	-10.4341
▁selgita	-10.4346
▁lahendused	-10.4346
▁ministeeriumis	-10.4354
▁turva	-10.4354
▁tunda	-10.4356
▁õppima	-10.4357
aivar	-10.4357
▁ravikindlustuse	-10.4362
▁tähtsa	-10.4363
▁lõige	-10.4369
esse	-10.4369
▁kirjuta	-10.4371
▁2020.	-10.4371
▁meetme	-10.4372
ettevalmistamist	-10.4376
▁2000	-10.4377
▁järgmistel	-10.4377
▁hindate	-10.4381
▁operatsiooni	-10.4381
▁andmise	-10.4384
▁ettevõtteid	-10.4387
▁esineja	-10.4387
▁määrati	-10.4388
▁para	-10.4391
▁astu	-10.4391
▁huvid	-10.4393
▁kohtla	-10.4404
▁pildi	-10.4406
▁avalikult	-10.441
▁toetamise	-10.4416
▁sajandi	-10.4416
▁nõuetele	-10.4418
▁tuiksoo	-10.4424
▁sind	-10.4427
▁moodustamine	-10.4427
▁tegutseda	-10.4429
▁jälgi	-10.443
▁nõustuda	-10.443
▁tark	-10.4434
▁tegemiseks	-10.444
▁esimeses	-10.4445
▁seisukohtade	-10.4445
▁äriühingu	-10.4447
▁kallis	-10.4448
▁okupatsiooni	-10.4449
▁juhtinud	-10.445
▁2%	-10.4454
▁erakonda	-10.446
ain	-10.446
▁ettepanekul	-10.446
▁väikesed	-10.4469
pea	-10.4472
▁mõistliku	-10.4472
▁huve	-10.4474
▁kriitika	-10.4477
▁leian	-10.4481
▁kasutab	-10.4483
▁eksperdid	-10.4484
▁neeme	-10.4487
kultuurikomisjon	-10.4487
▁pilti	-10.4487
▁valija	-10.4489
▁53	-10.4491
▁number	-10.4494
ministeeriumil	-10.4497
▁täiendavaid	-10.4497
▁kon	-10.45
▁seadusmuudatus	-10.4502
▁tulemuse	-10.4502
▁omandi	-10.4504
▁järgmist	-10.4511
▁lastekaitse	-10.4513
▁valijate	-10.4516
▁palgatõusu	-10.4518
üksi	-10.452
▁sularaha	-10.4524
▁kolmandale	-10.4526
▁2014	-10.4526
▁töötu	-10.4527
▁eraldatud	-10.4527
▁auditi	-10.4532
▁tõnis	-10.4539
▁pagulaste	-10.4546
▁paratamatult	-10.4554
▁luigas	-10.4555
ndu	-10.4556
▁lapsele	-10.4557
▁endal	-10.456
▁loe	-10.4561
aastase	-10.4562
▁nõukogus	-10.4562
▁tõusnud	-10.4563
5%	-10.4563
▁takso	-10.4572
▁viibi	-10.4574
▁õiglane	-10.4575
▁andke	-10.4576
▁oe	-10.4577
▁senisest	-10.4578
las	-10.458
▁haiglate	-10.4582
▁näevad	-10.4582
▁sega	-10.4584
▁niipalju	-10.4588
▁riikidest	-10.4591
▁hindamise	-10.4594
alkoholiaktsiisi	-10.4595
vus	-10.4598
▁aseesimehe	-10.4601
▁järsku	-10.4605
▁viinud	-10.461
▁suuremaid	-10.461
▁lugema	-10.4614
▁saagi	-10.4615
▁vali	-10.4624
▁uuringute	-10.4626
▁kantselei	-10.4626
▁spiiker	-10.4626
▁tegevuskava	-10.4628
▁tookord	-10.4628
▁kange	-10.463
liidu	-10.4632
▁tuge	-10.4633
▁aina	-10.4636
▁statistikat	-10.464
▁bussi	-10.4654
▁koostamise	-10.4654
▁kõigest	-10.4655
▁vabariik	-10.4658
▁otsusena	-10.4662
▁ettevõtjaid	-10.4664
▁võrdselt	-10.4669
▁lenk	-10.4677
▁muuseumi	-10.4677
▁korraldatud	-10.4681
▁arengut	-10.4692
▁tulemusel	-10.4692
▁hinnad	-10.4695
▁sõnaga	-10.4695
▁kohtunike	-10.4706
▁eesmärkide	-10.4707
▁ootab	-10.4708
▁ministrina	-10.471
▁tahte	-10.4712
▁osalevad	-10.4714
tuks	-10.4716
arve	-10.4716
▁75	-10.4725
▁maavalitsuste	-10.4728
▁märtsi	-10.473
▁null	-10.4737
▁teistel	-10.474
ee	-10.4742
▁reisi	-10.4745
▁nõuete	-10.4746
▁omanik	-10.4747
▁kaitstud	-10.4755
▁tuuakse	-10.4756
▁ku	-10.4765
je	-10.4768
tegevus	-10.4768
▁üksik	-10.4777
vahendite	-10.4779
palga	-10.478
▁siiralt	-10.4781
kultuuriminister	-10.4782
ib	-10.4787
▁kuul	-10.4787
▁sätestab	-10.4787
toetus	-10.4788
ude	-10.4791
▁suurendamise	-10.4798
eerida	-10.4799
▁signaali	-10.4803
▁piirkondades	-10.4804
▁4,	-10.4805
▁organisatsioon	-10.4806
▁võsa	-10.4807
▁puudus	-10.4808
▁deniss	-10.4811
▁korrektne	-10.4812
▁panus	-10.4813
▁otsima	-10.4819
▁lasteaia	-10.4819
▁30.	-10.4826
▁liikmesriigi	-10.4826
▁toetame	-10.4827
▁vägivalla	-10.4833
▁pensionäride	-10.4835
▁kehtestamise	-10.4841
▁kümneid	-10.4842
set	-10.4844
▁karilaid	-10.4848
▁endi	-10.4848
▁allik	-10.4849
tee	-10.485
▁piirata	-10.4853
▁küsitud	-10.4863
naer	-10.487
▁tartus	-10.4872
ärme	-10.488
▁kooskõlla	-10.4885
▁seejuures	-10.4885
▁turg	-10.4887
▁minnakse	-10.4888
deelnõu	-10.49
▁nüüdseks	-10.49
▁küsimustega	-10.4901
▁kasumi	-10.4903
liit	-10.4908
▁asutus	-10.491
▁rääkisid	-10.4911
▁võimelised	-10.4912
▁õigel	-10.4916
▁mängi	-10.492
▁jätkusuutlik	-10.4923
▁loomine	-10.4928
▁euroala	-10.4928
▁tüüpi	-10.4935
▁fa	-10.4936
▁säte	-10.4937
▁esitan	-10.4946
▁seisus	-10.4959
▁26.	-10.496
▁juhtu	-10.4963
▁juhuks	-10.4964
▁toodi	-10.4966
▁kadunud	-10.4967
▁kavandatud	-10.4971
▁vaatab	-10.4975
▁fakti	-10.4977
▁aegade	-10.4978
rite	-10.4983
nä	-10.4989
▁ühendriikide	-10.4989
▁konkursi	-10.4996
▁piisa	-10.4998
▁selged	-10.5002
▁seeder	-10.5003
▁78	-10.5003
▁erakoolide	-10.5007
tuna	-10.5011
▁sõltu	-10.5015
▁miljardi	-10.5023
▁süüdista	-10.5026
koht	-10.5027
▁saad	-10.5031
▁kohati	-10.5032
▁muutmiseks	-10.5033
▁eelmisele	-10.5038
▁vaeva	-10.5042
▁needsamad	-10.5043
▁muuseas	-10.5043
▁leidma	-10.5044
▁otstarbekas	-10.5044
mihhail	-10.5045
▁tõsise	-10.5047
▁asjadega	-10.5049
▁madala	-10.505
▁keskendu	-10.5052
▁maantee	-10.5056
▁küsi	-10.5058
▁leitakse	-10.507
▁kinnitan	-10.5074
▁liikmel	-10.5076
▁endine	-10.5076
▁paremad	-10.5077
▁arendus	-10.5077
▁kahtluse	-10.508
▁riigilõivu	-10.5081
▁54	-10.5081
▁naa	-10.5082
▁efendijev	-10.5084
▁astme	-10.5084
▁surma	-10.5086
▁aktiivse	-10.5096
▁erivajadusega	-10.5098
põhine	-10.51
▁riigieelarvet	-10.51
▁avaldanud	-10.5102
▁riigikontrolör	-10.5103
▁järgmisena	-10.5105
▁tänapäeval	-10.5111
▁31.	-10.5112
▁kandidaat	-10.5117
pool	-10.5118
▁kuritegude	-10.5118
jaa	-10.5119
▁noortele	-10.512
urmas	-10.5123
▁ajalugu	-10.5124
▁vastuvõtmist	-10.5128
▁puu	-10.5132
▁mõistlikum	-10.5135
▁ideed	-10.514
▁suurenda	-10.5141
ministrina	-10.5145
▁so	-10.5153
korralduse	-10.516
nenud	-10.516
▁maade	-10.5162
▁täpsustan	-10.5166
▁teenistuse	-10.5174
▁57	-10.5177
▁struktuurse	-10.5177
▁valda	-10.518
▁valikuid	-10.518
▁riigikohus	-10.5181
nik	-10.5185
▁menetlusliku	-10.5185
▁deklaratsiooni	-10.5193
▁loota	-10.5195
▁kaljuvee	-10.5204
▁viima	-10.5208
▁õpeta	-10.5208
summa	-10.5217
▁kiriku	-10.5222
▁võla	-10.5222
▁vaheaja	-10.5225
▁tööminister	-10.523
▁kohtades	-10.5236
▁stabiilsus	-10.5238
kulu	-10.524
▁täida	-10.524
9%	-10.5244
ministeeriumile	-10.5245
▁kasuta	-10.5256
▁tutvu	-10.5265
▁koole	-10.5275
pla	-10.5275
▁sotsiaalse	-10.5277
▁eespool	-10.5289
▁esindatud	-10.5292
▁esitaja	-10.5301
▁arvavad	-10.5302
▁tõlge	-10.5304
▁kaitset	-10.5305
▁suurel	-10.531
▁kütte	-10.5311
▁28.	-10.5312
mehhanismi	-10.5313
▁hetk	-10.5313
▁sisulist	-10.5315
▁tuginedes	-10.5317
▁taastada	-10.5317
▁õnnestunud	-10.5318
▁risk	-10.5321
▁tahaksime	-10.5322
ika	-10.5322
▁erakorralise	-10.5322
▁tulenevad	-10.5324
op	-10.5325
▁eestlaste	-10.5325
▁kirjalikult	-10.5326
▁ravimite	-10.5328
▁ülemineku	-10.5334
▁õhtu	-10.5336
▁sund	-10.5337
panga	-10.5338
gem	-10.534
▁niikuinii	-10.5341
▁kantud	-10.5342
▁puutu	-10.5342
last	-10.5343
▁esitatakse	-10.5343
▁viitasin	-10.5343
▁poolteist	-10.5344
▁meedias	-10.5345
kontrolli	-10.5345
▁säilitada	-10.5346
▁piinlik	-10.535
▁kuula	-10.5353
▁maaelukomisjoni	-10.5354
▁põ	-10.5357
▁pädevus	-10.5358
▁viljandi	-10.5359
▁võtmise	-10.5364
▁tänasel	-10.5366
▁paljudele	-10.5366
▁leitud	-10.5368
▁mõjuta	-10.537
oni	-10.5373
henn	-10.5374
▁elanud	-10.5377
▁katta	-10.5377
▁keskmisest	-10.5377
▁2008.	-10.5379
ministeeriumist	-10.5379
juht	-10.5383
▁võimekust	-10.5384
▁varu	-10.5385
põhise	-10.5389
▁areng	-10.5389
▁tohib	-10.5391
▁fraktsioonid	-10.5394
▁päriselt	-10.5409
▁madalama	-10.5409
▁rahvale	-10.5415
▁29.	-10.5417
▁pakkumise	-10.5423
▁erakordselt	-10.5426
keskkonna	-10.5427
▁nimetatakse	-10.5428
▁põhimõtte	-10.543
▁esindajatega	-10.5441
▁osapooled	-10.5442
ides	-10.5446
▁luik	-10.5452
▁panuse	-10.5453
▁toimi	-10.5453
▁64	-10.5455
▁jätab	-10.5456
tulumaksuseaduse	-10.5456
▁lahendamiseks	-10.5457
▁võtate	-10.5459
▁kompromiss	-10.5462
▁eelda	-10.5462
▁ülesande	-10.547
▁müü	-10.5479
▁põllumajanduse	-10.5487
▁sõjalise	-10.5488
▁põhjalik	-10.5488
▁korralikult	-10.549
▁seletada	-10.549
▁riigist	-10.5495
▁hääletustulemus	-10.5499
▁päri	-10.55
▁võimalikke	-10.55
päev	-10.5502
▁mikser	-10.5504
▁poliitikas	-10.5504
▁järgmiseks	-10.5507
▁nähakse	-10.5508
▁ministeeriumid	-10.5509
▁paistab	-10.5512
▁raporti	-10.5514
organisatsiooni	-10.5521
▁olukorrast	-10.5522
atsioon	-10.5527
▁vanuse	-10.5529
▁mandaati	-10.5531
▁viidatud	-10.5536
sk	-10.5547
▁eelnevalt	-10.5547
▁vabatahtlikult	-10.5548
▁millisel	-10.5549
▁koosolekul	-10.5556
▁tegevusi	-10.5556
▁jõudma	-10.556
▁heimar	-10.5562
▁vastuseks	-10.5563
▁digi	-10.5567
▁valdavalt	-10.5569
▁posti	-10.5569
▁uurimis	-10.557
▁vangla	-10.5571
eni	-10.558
▁võrdlus	-10.5584
▁vabatahtliku	-10.5585
▁kättesaadavus	-10.5587
▁teadaolevalt	-10.5592
▁aegadel	-10.5593
▁korraks	-10.5594
▁tutvuda	-10.5599
▁kodakondsust	-10.56
▁alternatiiv	-10.5601
▁ausad	-10.5602
▁vastusest	-10.5607
▁kütust	-10.5608
▁külas	-10.5608
▁laienda	-10.5611
▁saamata	-10.5612
▁andmine	-10.5612
▁tausta	-10.5612
▁poliitilised	-10.5614
taja	-10.5617
▁tööga	-10.5618
amet	-10.5618
▁pealkirja	-10.5619
▁kuulates	-10.5621
▁56	-10.5621
▁regionaalse	-10.5622
▁värske	-10.5623
tsu	-10.5623
▁ühinemise	-10.5626
▁muudatust	-10.5627
▁suurendamine	-10.5627
▁teinekord	-10.5628
▁tegelikkuses	-10.5629
▁erapooletu	-10.5633
▁76	-10.5633
marti	-10.5646
▁rahulda	-10.5646
▁uurida	-10.5647
kaitseväe	-10.565
▁lembit	-10.5657
kord	-10.5659
▁ministrit	-10.5659
▁põle	-10.5664
▁pööra	-10.5666
▁aset	-10.5675
▁laevade	-10.5677
▁kompetentsi	-10.5682
ruumi	-10.5683
▁eakate	-10.5688
▁püsti	-10.5691
▁rõõmu	-10.57
▁opositsioon	-10.5708
▁vähendamine	-10.571
▁6,	-10.5711
▁delegatsiooni	-10.5711
▁täidab	-10.5712
▁korteriühistu	-10.5715
▁kasutan	-10.5716
▁apteegi	-10.5722
stab	-10.5723
hinna	-10.5725
▁seisu	-10.5732
rvishoiuteenuste	-10.5733
▁kellest	-10.5734
▁riiklike	-10.5736
▁pöördunud	-10.5737
▁häälet	-10.5737
▁de	-10.5738
▁juhtis	-10.5742
▁abikaasa	-10.5744
▁hoo	-10.5753
▁kokkuleppele	-10.5755
▁eldar	-10.5758
▁arvestus	-10.5759
▁ääretult	-10.5761
▁68	-10.5761
▁talu	-10.5768
▁ühed	-10.5769
▁kena	-10.577
▁lõpetanud	-10.5771
▁praktikat	-10.5775
kad	-10.5779
▁võimalikku	-10.578
▁aaviksoo	-10.579
▁võtsid	-10.579
▁selget	-10.5791
▁tulud	-10.5807
▁tasakaal	-10.5808
▁rahastamist	-10.5809
▁tingimusi	-10.5811
▁tegutsevad	-10.5813
▁lähi	-10.5818
▁sattunud	-10.5821
aks	-10.5821
▁f	-10.5822
jatele	-10.5827
▁bürokraatia	-10.5842
koalitsioon	-10.5844
▁praegust	-10.5844
▁sissetulek	-10.5847
menetlus	-10.5861
▁halva	-10.5862
▁kaugemale	-10.5867
▁kooselu	-10.5869
▁võtaks	-10.587
▁17.15	-10.5873
▁hakati	-10.5876
▁märkimisväärne	-10.5876
▁seisneb	-10.588
▁sõlmida	-10.5882
▁ho	-10.5883
hääl	-10.5885
tor	-10.5888
▁probleemiga	-10.5896
▁maine	-10.5905
▁täpne	-10.5906
▁põhimõtet	-10.5908
▁näitas	-10.5908
▁tekitas	-10.5911
!""	-10.5914
▁trahvi	-10.5916
▁lõpeta	-10.5917
un	-10.592
▁pöördumise	-10.5927
▁parima	-10.593
▁tootmise	-10.5933
▁makstud	-10.5938
turu	-10.5939
▁täiendada	-10.5941
▁arvuti	-10.5943
▁teenida	-10.5945
seda	-10.5946
▁lootust	-10.5946
▁reegleid	-10.5952
▁suu	-10.5955
▁majas	-10.5956
▁tugispetsialist	-10.5964
▁loobu	-10.5971
▁eeldada	-10.5972
▁eelneva	-10.5979
▁tallinn	-10.598
▁tekita	-10.598
▁põhimõtted	-10.598
▁rootsis	-10.5985
▁ajaga	-10.5986
▁üllatus	-10.5988
hk	-10.599
▁prantsusmaa	-10.5992
▁tõmmata	-10.5993
jaak	-10.5996
▁arenenud	-10.5996
▁saadakse	-10.5997
▁kommenteeri	-10.6001
▁leiavad	-10.6003
▁protseduuri	-10.6006
▁sektor	-10.6008
j	-10.6008
tööd	-10.601
▁liisa	-10.6011
▁paberi	-10.6021
▁võtke	-10.6022
▁taristuminister	-10.6023
▁loobuda	-10.603
kaudu	-10.6032
▁kilomeetrit	-10.6036
▁maamaksu	-10.6036
▁kiisler	-10.6037
eta	-10.6043
▁tunnusta	-10.6045
▁meri	-10.6046
▁võimeline	-10.605
▁laekub	-10.6055
▁mingisugused	-10.6055
▁rikkumise	-10.6056
▁kü	-10.6058
▁küsime	-10.606
▁aitaks	-10.6062
▁ressursi	-10.6063
▁kultuur	-10.6063
▁lähen	-10.6064
▁tööturu	-10.6065
▁noore	-10.6066
▁seletuskirjast	-10.6067
ine	-10.6068
▁viitas	-10.607
▁kavatse	-10.6073
▁67	-10.6079
▁2012	-10.608
▁palume	-10.6084
▁püüab	-10.6084
▁tehnilise	-10.6089
▁temaga	-10.609
▁ratifitseeri	-10.6093
▁alg	-10.6094
▁sõidu	-10.6097
▁uuringud	-10.6097
▁keskkonnatasude	-10.6099
▁vajaduspõhise	-10.6107
▁punktis	-10.6111
▁professionaalse	-10.6111
▁rahvusvahelist	-10.6113
ld	-10.6113
▁linnapea	-10.6116
valimiste	-10.6116
▁füüsilise	-10.6117
▁avaldada	-10.6118
▁kavatseb	-10.6118
▁töötajad	-10.6121
valeri	-10.6124
▁kutsu	-10.6126
▁arutatakse	-10.613
▁ester	-10.6132
▁hinge	-10.6137
ani	-10.6139
▁artikli	-10.6139
▁muutnud	-10.614
▁piirang	-10.6146
▁maksusüsteemi	-10.6152
mina	-10.6153
protsessi	-10.6153
mees	-10.6154
▁24.	-10.6154
▁spetsialistide	-10.6157
▁peast	-10.6159
▁lu	-10.6163
▁kinnitamise	-10.6167
▁osakaalu	-10.6168
▁aafrika	-10.6168
▁kruusimäe	-10.617
▁langetamise	-10.6171
▁eraldada	-10.6174
ati	-10.6176
mahu	-10.6177
▁omaniku	-10.6179
▁tuntud	-10.6185
▁seisma	-10.6189
▁hoia	-10.6194
▁täiendamise	-10.6197
▁välismaal	-10.6198
▁tahet	-10.62
▁õiguslik	-10.62
▁pakutakse	-10.6203
jüri	-10.6211
▁staatuse	-10.6212
▁otsustama	-10.6212
▁maksuameti	-10.6212
▁väär	-10.6218
▁reageeri	-10.6222
▁töökoha	-10.6225
▁tulumaks	-10.6229
▁itaalia	-10.623
▁seletuskiri	-10.623
▁ootavad	-10.6234
▁venekeelse	-10.6235
▁kättesaadavuse	-10.6242
vabariigi	-10.6243
▁majandamise	-10.6243
▁turvalisuse	-10.6244
tri	-10.6244
▁paranda	-10.6246
nagu	-10.6246
▁kommentaari	-10.6248
▁72	-10.625
▁tõniste	-10.6254
▁rahastus	-10.6255
▁poliitiliselt	-10.6256
▁kur	-10.6257
▁olite	-10.6258
▁palgalõhe	-10.626
▁leiti	-10.626
▁algul	-10.626
▁tagant	-10.6264
▁kompensatsiooni	-10.6264
▁soovinud	-10.6266
kuse	-10.6267
▁riske	-10.6268
▁jõutud	-10.6273
▁temaatika	-10.6274
▁elektriaktsiisi	-10.6275
▁elanikkonna	-10.6276
▁helir	-10.629
▁pensionile	-10.629
▁polnud	-10.6291
▁kuulsin	-10.6292
▁lähene	-10.6292
▁vassiljevi	-10.6298
▁piiranguid	-10.6302
▁kaas	-10.6304
▁määrus	-10.6305
▁muutuma	-10.6308
▁võim	-10.6314
▁tegevuste	-10.6316
▁kinnitas	-10.6317
▁näi	-10.6319
▁mäletate	-10.6322
▁täitnud	-10.6323
▁kiita	-10.6325
▁eelnõud	-10.6326
▁infrastruktuuri	-10.633
▁arendamise	-10.633
▁juhtimis	-10.6343
nõukogu	-10.6345
▁58	-10.6345
▁ajakirjandus	-10.6347
▁vaadatakse	-10.6353
▁prokuratuur	-10.6355
▁suurenenud	-10.6355
uga	-10.6355
▁199	-10.636
▁ring	-10.6362
▁hirmu	-10.637
▁võimaluste	-10.6372
▁kivi	-10.6378
▁assamblee	-10.6381
▁estonian	-10.6383
▁jõuliselt	-10.6388
▁jõuavad	-10.6393
▁argumendid	-10.6394
investeeringute	-10.6394
▁esimehena	-10.6394
õppe	-10.6395
▁käe	-10.6397
▁arutelusid	-10.6398
▁elaniku	-10.6399
▁skeemi	-10.6401
▁koalitsioonis	-10.6406
▁vähemasti	-10.6411
▁haldusalas	-10.6417
▁nimeta	-10.6417
▁suurima	-10.6421
▁sõnumi	-10.6423
▁perspektiivi	-10.6425
▁tarbimine	-10.6428
ran	-10.6428
kultuuri	-10.6436
▁kajasta	-10.6438
▁kompromissi	-10.6439
%.	-10.644
▁kõrghariduse	-10.6444
▁saladus	-10.6446
▁olga	-10.6449
▁nimetamine	-10.645
▁esimesena	-10.6451
stamist	-10.6453
ate	-10.6456
▁septembri	-10.6458
dus	-10.6459
▁märkimisväärse	-10.6463
▁kä	-10.6468
▁ken	-10.6473
▁ülimalt	-10.6473
▁suurepärane	-10.6474
▁kehtestatakse	-10.6476
▁esitamist	-10.6476
▁esimesed	-10.6477
▁arvestatakse	-10.6478
majanduse	-10.6484
▁pikem	-10.6486
▁avasta	-10.649
▁pikema	-10.6496
▁märgi	-10.6499
▁kindlad	-10.65
firma	-10.65
▁erand	-10.6502
▁teadmiste	-10.6505
▁arutelud	-10.6506
▁trend	-10.6517
▁töövõime	-10.652
▁poolda	-10.6524
▁tamme	-10.6524
▁fraktsioonidel	-10.6524
▁ressursside	-10.6526
▁koolitus	-10.6528
▁aktsepteeri	-10.6531
▁saja	-10.6531
▁0	-10.6533
▁madal	-10.6538
▁arusaamatuks	-10.6539
▁kaia	-10.6541
▁mures	-10.6543
▁kulutada	-10.6543
unud	-10.6543
▁siseministri	-10.6545
▁tundus	-10.655
▁taristu	-10.6552
▁peagi	-10.6565
▁töötavate	-10.6565
▁kujuneb	-10.6568
▁pikaajalise	-10.6571
likkuse	-10.6574
▁liikumine	-10.6575
pär	-10.6577
▁olemasoleva	-10.6579
monika	-10.658
▁sunni	-10.6581
▁töökohad	-10.6582
üle	-10.6584
▁kokkuvõttes	-10.6584
▁pensionide	-10.6589
▁päästjate	-10.6591
▁võimul	-10.6592
▁vaatate	-10.6593
▁ain	-10.6597
▁maakonnas	-10.6597
▁kuupäeva	-10.6598
▁muusika	-10.6602
▁omavalitsust	-10.6603
▁kõnele	-10.6607
▁summasid	-10.661
▁nädalat	-10.6611
▁mõtted	-10.6619
▁tooma	-10.6625
▁juhid	-10.6626
▁parts	-10.6626
umist	-10.6627
▁lutsepp	-10.6627
▁nutt	-10.6628
▁korbi	-10.6629
▁audit	-10.6631
▁62	-10.6632
▁tühja	-10.6633
▁lahendama	-10.6633
▁haige	-10.6633
▁kogemusi	-10.6634
▁avalda	-10.6634
▁võimalike	-10.6638
reformi	-10.6638
▁maksumaksjate	-10.6641
▁loome	-10.6645
▁toimimise	-10.6652
▁lubab	-10.6653
▁grupi	-10.6654
▁usaldus	-10.6654
dettepaneku	-10.6656
▁territooriumi	-10.6656
▁õnnestu	-10.6658
▁igaks	-10.6658
▁sarapuu	-10.6658
seaduses	-10.6659
▁79	-10.6659
▁olukorraga	-10.666
▁maksupoliitika	-10.6662
▁lahkunud	-10.6666
keel	-10.6669
tavat	-10.667
▁missioonil	-10.6672
▁rahvaesindajad	-10.6672
sete	-10.6672
järelevalve	-10.6674
kaardi	-10.6675
▁korraldus	-10.6675
▁tugevalt	-10.6677
▁iseseisva	-10.6677
▁omavalitsusel	-10.6678
▁võrgu	-10.6678
statakse	-10.6679
▁euroga	-10.6684
▁vähene	-10.6685
▁palling	-10.6686
▁iseenda	-10.6688
▁uuringuid	-10.669
▁tehke	-10.669
▁ettekannet	-10.6692
ngi	-10.6693
▁plaanid	-10.6698
▁koolilõuna	-10.6698
▁haldusreform	-10.67
▁ülikoolide	-10.6702
välja	-10.6706
stama	-10.671
▁tunnevad	-10.6712
▁loomade	-10.6713
▁omalt	-10.6718
eli	-10.6718
▁ministril	-10.6719
▁keeldu	-10.6721
▁õhu	-10.6722
▁laasi	-10.6722
oli	-10.673
▁rände	-10.6733
▁koosoleku	-10.6739
kolm	-10.6743
teenistuse	-10.6744
▁arupärimiste	-10.675
▁pulti	-10.6755
▁paluda	-10.6757
▁paigas	-10.6764
▁lõpetuseks	-10.6766
▁suhted	-10.6769
▁vähemaks	-10.677
▁laiene	-10.6771
▁sõbrad	-10.6772
astme	-10.6774
▁keit	-10.6775
▁ansip	-10.6775
▁tööturul	-10.6777
võime	-10.6781
nõu	-10.6782
▁üleüldse	-10.6784
▁teadlik	-10.6787
6%	-10.679
▁odavam	-10.6794
▁autode	-10.6802
▁simsoni	-10.6805
▁baas	-10.6805
▁77	-10.6809
▁nendesse	-10.6811
▁kohalikul	-10.6812
▁vanemahüvitise	-10.6813
▁maruste	-10.6816
väärtus	-10.6819
▁ausa	-10.6819
▁valdkondade	-10.6821
▁teoreetiliselt	-10.6824
▁taju	-10.6824
▁ühistu	-10.6826
ing	-10.6831
▁hääletamist	-10.6831
▁tulemas	-10.6835
▁koostamisel	-10.6838
▁oluliste	-10.6843
▁raja	-10.6849
▁arutelude	-10.685
▁menetlusest	-10.6851
▁kõlab	-10.6852
▁toimu	-10.6856
▁vabalt	-10.6857
▁uuring	-10.6864
▁paku	-10.6866
▁majanduslik	-10.6867
▁rongi	-10.687
▁majandusele	-10.6871
▁27.	-10.6872
▁hääletamisele	-10.6875
▁lootus	-10.6877
▁kriis	-10.6878
▁lükatud	-10.688
▁kivimägi	-10.688
▁käsitle	-10.6881
▁sätte	-10.6884
▁positsioon	-10.6889
▁ehkki	-10.6889
▁eurost	-10.689
tti	-10.6892
▁innovatsiooni	-10.6895
▁positiivset	-10.6896
▁muudatusega	-10.6898
▁nõustu	-10.69
▁tervist	-10.6901
▁niisuguseid	-10.6909
▁andsid	-10.6914
ole	-10.6917
▁täienda	-10.6918
▁arutlusel	-10.6921
taseme	-10.6922
▁63	-10.6926
▁muutuda	-10.6927
▁nägi	-10.6927
▁väärt	-10.6931
▁liikumise	-10.6933
▁selliseks	-10.6935
▁üüri	-10.6936
▁tänases	-10.6941
▁hallemaa	-10.6944
▁büroo	-10.6944
▁kriitikat	-10.6945
▁kummaline	-10.6945
▁haridussüsteemi	-10.6946
▁lähiaastatel	-10.6949
▁väljendanud	-10.6949
▁ootus	-10.6951
▁muus	-10.6956
▁seista	-10.6958
▁vaesuse	-10.6959
▁kutseharidus	-10.6965
stiku	-10.6968
▁kujunda	-10.697
▁sõnastus	-10.697
▁kiirabi	-10.6971
▁esialgse	-10.6976
▁pakkuma	-10.6976
▁igapäevase	-10.6978
▁vigu	-10.6978
▁initsiatiivi	-10.6979
▁liiguvad	-10.698
▁kaetud	-10.698
▁moodustab	-10.6982
▁sibul	-10.6983
▁opositsioonis	-10.6987
▁õigusliku	-10.6989
▁käitumine	-10.6991
▁lepingute	-10.6994
▁kohad	-10.6995
kulusid	-10.6999
▁sis	-10.6999
▁puuduvad	-10.7
▁suru	-10.7009
▁tingimata	-10.7009
▁arstiabi	-10.701
4%	-10.701
▁püüda	-10.7016
▁avaldus	-10.7018
▁uues	-10.7018
▁sõ	-10.7022
▁juhtumite	-10.7024
▁riskid	-10.7026
▁üksuse	-10.7029
▁majanduslikult	-10.7032
▁hõlma	-10.7033
▁kliima	-10.7035
▁hetke	-10.7035
▁kvaliteeti	-10.7039
▁piirikaubanduse	-10.7041
▁riive	-10.7042
kohtu	-10.7047
▁jätkab	-10.7048
▁reguleerib	-10.7049
soo	-10.7051
▁sõltuvus	-10.7053
▁pangad	-10.7056
▁takista	-10.7056
▁kallas	-10.7064
▁61	-10.7067
▁missioon	-10.7073
1.	-10.7074
▁seitsmenda	-10.7075
▁riigimetsa	-10.7078
▁vägagi	-10.7078
▁tegutseb	-10.7081
▁käituda	-10.7081
▁praktiliselt	-10.7083
fi	-10.7084
otsus	-10.7089
▁põllumehed	-10.7094
kalle	-10.7095
▁õhtul	-10.7098
▁kehtesta	-10.7099
▁eelis	-10.71
kuna	-10.71
▁tunde	-10.7103
▁hinnaga	-10.7107
▁rakendamine	-10.7111
▁uskuge	-10.7116
▁elava	-10.712
▁teemade	-10.7121
▁150	-10.7122
▁väljakutse	-10.7125
tamiseks	-10.7128
▁kohustuslik	-10.7132
▁parlamenti	-10.7133
▁laia	-10.7134
▁planeeri	-10.7135
▁objekti	-10.7135
▁pooleli	-10.7137
▁kulub	-10.7137
▁töötamise	-10.7138
piiri	-10.7138
üks	-10.7138
▁märkus	-10.7141
poole	-10.7142
▁asjakohane	-10.7142
▁kehtinud	-10.7144
▁kotka	-10.7144
▁menetlemine	-10.7145
▁tutvusta	-10.7146
▁asunud	-10.7148
▁ametnik	-10.7158
▁tolle	-10.7164
▁käitumise	-10.7171
▁varasema	-10.7172
▁vilja	-10.7176
▁po	-10.7177
▁lood	-10.7182
▁märka	-10.7183
▁taotlus	-10.7186
▁õigusaktide	-10.7187
▁õigem	-10.7188
▁enamus	-10.7194
▁mets	-10.7195
▁saaremaa	-10.7198
▁rõhu	-10.7198
▁mehhanism	-10.7205
▁türgi	-10.7205
▁märgitud	-10.721
▁saavutatud	-10.7212
▁kasvatada	-10.7213
▁millegi	-10.7214
▁kinnitab	-10.7214
▁sellisest	-10.7218
▁arutluse	-10.7221
▁hullu	-10.7222
▁numbrid	-10.7223
maal	-10.7227
▁koormus	-10.7229
mäe	-10.7229
▁ohtlik	-10.7231
sotsiaalminister	-10.7238
▁vaadatud	-10.7238
▁suuremate	-10.724
▁strateegilise	-10.7242
ikud	-10.7247
▁telli	-10.7247
▁leedus	-10.7252
▁isikuid	-10.7253
võrku	-10.7256
▁hääli	-10.7257
▁prognoos	-10.7259
▁liikmesriigid	-10.726
▁õiguskomisjonis	-10.7261
▁meeles	-10.7261
▁täielik	-10.7267
▁täpsusta	-10.7269
▁summat	-10.7271
ood	-10.7271
▁hiina	-10.7272
go	-10.7272
▁66	-10.7274
▁pädevuses	-10.7276
▁kvaliteetse	-10.7276
▁mudel	-10.7279
▁arvad	-10.7281
▁infotehnoloogia	-10.7281
▁tallinnast	-10.7282
▁mehe	-10.7282
▁kasva	-10.7283
▁keerulisem	-10.7286
tades	-10.7286
▁kõrgharidus	-10.7287
▁lubas	-10.7287
▁neljandaks	-10.7289
▁eesmärgiks	-10.7289
▁panusta	-10.7295
▁töötajaid	-10.7297
kohustus	-10.7301
▁kohtlemise	-10.7306
▁reguleeri	-10.7306
▁vaidlusi	-10.7308
▁riiklikult	-10.7309
▁71	-10.7312
▁esindajate	-10.7316
▁signaal	-10.7325
hasartmängumaksu	-10.7325
▁rahvasaadikud	-10.7327
siseministeerium	-10.7329
▁valge	-10.7334
▁sõit	-10.7341
poolse	-10.7343
▁võeta	-10.7343
▁niisugused	-10.7347
▁ootama	-10.7351
▁kahtlust	-10.7353
▁par	-10.7359
▁vähenda	-10.7359
kõigepealt	-10.7361
▁mikko	-10.7372
▁ilusasti	-10.7373
▁ratifitseerimis	-10.7376
▁näited	-10.7382
▁rahaline	-10.7386
▁valga	-10.7386
▁lapsega	-10.7386
ver	-10.7387
▁väikse	-10.7388
juhataja	-10.7394
▁kasvatamise	-10.74
sektoris	-10.7403
▁õli	-10.7403
juhi	-10.7404
▁efsf	-10.7406
▁muinsuskaitse	-10.7406
pidamine	-10.7406
▁alaealiste	-10.7406
▁täitsa	-10.7406
▁vahetu	-10.7407
▁omavalitsustega	-10.7407
▁küsitakse	-10.741
▁reaalsus	-10.7411
▁võru	-10.7411
▁lõpetamise	-10.7411
▁algatab	-10.7412
▁lubage	-10.7419
▁kagu	-10.742
veo	-10.742
▁ühenduse	-10.7423
anne	-10.7423
▁vahetult	-10.7423
▁vähenemise	-10.7425
▁elavate	-10.7425
kke	-10.7431
▁ah	-10.7433
▁mehi	-10.7439
▁koordineeri	-10.7439
▁ühesõnaga	-10.7439
▁tahaksid	-10.744
▁väljenda	-10.744
ekaitseakadeemia	-10.744
▁metoodika	-10.7442
▁dividendi	-10.7442
▁pöördu	-10.7443
▁osapoolte	-10.7444
▁hinnanguid	-10.7448
▁sätesta	-10.745
▁kolmel	-10.7452
rid	-10.7455
▁ressurssi	-10.7457
▁lähtuma	-10.7458
▁koolituse	-10.7467
▁kahest	-10.7469
▁saal	-10.7469
▁ilusa	-10.7471
▁enamikus	-10.7481
ali	-10.7484
▁asuda	-10.7486
▁tähendaks	-10.7489
▁töörühma	-10.7489
▁tuleneva	-10.7493
▁käitu	-10.7497
huvi	-10.75
▁maailm	-10.7504
▁nagunii	-10.7504
▁järjekorras	-10.7506
▁kersna	-10.7507
▁tulemust	-10.7512
viisi	-10.7513
▁osutada	-10.7514
▁andes	-10.7515
▁piira	-10.7517
▁ime	-10.7518
▁arno	-10.7522
▁ametniku	-10.7523
uste	-10.7531
▁mispärast	-10.7535
▁imf	-10.7541
▁sarnane	-10.7541
▁soolise	-10.7545
▁moodustada	-10.7547
▁valinud	-10.7548
▁25%	-10.7549
▁põhimõtete	-10.7552
▁teosta	-10.7558
makse	-10.7559
hariduse	-10.7563
▁amet	-10.7563
▁seadustes	-10.7566
▁välisministri	-10.7566
▁tingimuste	-10.757
▁rannar	-10.7577
▁lä	-10.7578
riikide	-10.758
▁kuues	-10.7584
▁astunud	-10.7585
▁mahtu	-10.7586
▁teadmine	-10.7588
kasu	-10.7588
▁tonni	-10.7589
▁mujalt	-10.7589
▁kõigis	-10.7594
▁anne	-10.7595
▁kõrva	-10.7595
▁paljuski	-10.7598
eestis	-10.7601
▁õpetajaid	-10.7609
▁intressi	-10.7609
▁hispaania	-10.761
▁üleskutse	-10.761
▁ühtemoodi	-10.7612
▁üksikisiku	-10.7612
▁korralik	-10.7613
▁võimekuse	-10.7618
3.	-10.7618
▁varianti	-10.7622
▁kaaluka	-10.7626
▁väikest	-10.7629
▁lõhe	-10.763
▁herkeli	-10.7639
▁tagamiseks	-10.7643
▁aidanud	-10.7644
▁asespiiker	-10.7644
▁ütelda	-10.7644
▁kodanikuühiskon	-10.7646
▁teadlikult	-10.7649
▁muretse	-10.7659
▁poolel	-10.7668
▁jaanson	-10.7669
hoone	-10.7672
▁mainis	-10.7672
▁kehti	-10.7676
▁sü	-10.7676
▁pered	-10.7676
▁lepingut	-10.7678
▁tööhõive	-10.768
▁koosneb	-10.7682
▁kohustatud	-10.7683
iti	-10.7686
▁tekitatud	-10.7686
▁piisab	-10.7689
▁tingimustel	-10.769
▁numbrit	-10.769
▁tegelenud	-10.7693
▁suurust	-10.7694
▁algas	-10.7696
▁riigilt	-10.7696
vee	-10.7702
▁motivatsiooni	-10.7702
▁ülevaadet	-10.7702
▁suuremaks	-10.7707
▁miinus	-10.7712
töötamiskavatsus	-10.7714
▁vea	-10.7714
▁tegeldakse	-10.7715
▁sõnade	-10.7716
ots	-10.7718
▁asuvad	-10.7718
▁võrdsed	-10.7722
▁kalvi	-10.7723
▁jätka	-10.7725
kon	-10.7727
▁heade	-10.7727
▁juhitud	-10.7728
▁suurim	-10.773
▁seisukohale	-10.773
▁bürokraatiat	-10.773
▁sadu	-10.7732
▁sätted	-10.7732
▁mõnele	-10.7732
▁ühtne	-10.7736
▁nurga	-10.7738
▁asenda	-10.7741
▁muutuks	-10.7742
▁väljaõppe	-10.7744
▁leppe	-10.7745
▁üksteise	-10.7749
▁nimekiri	-10.7749
▁lo	-10.7752
puhku	-10.7755
▁unusta	-10.7757
küsimuse	-10.7764
▁2007.	-10.7764
▁hari	-10.7764
▁kasutus	-10.7764
▁kvoodi	-10.7769
▁analüüse	-10.7771
▁pinge	-10.7777
▁liidust	-10.7779
ori	-10.7783
▁pähe	-10.7784
▁koguda	-10.7792
▁teistsuguse	-10.7794
kümne	-10.7795
▁sissetuleku	-10.7795
▁seire	-10.7797
▁suhtle	-10.7799
▁ajas	-10.7801
▁välistada	-10.7803
▁põhimõtteid	-10.7805
▁võ	-10.7807
▁tänast	-10.7808
uses	-10.7811
▁konkurents	-10.7813
▁veterinaar	-10.7819
▁tõstetakse	-10.7819
▁asutused	-10.783
pidi	-10.7837
▁asjaomase	-10.7837
▁vastuvõtmiseks	-10.7841
▁infotund	-10.7843
▁korrigeeri	-10.7846
ig	-10.7848
majandus	-10.785
uda	-10.7852
▁tegelnud	-10.7854
▁kaitseväelaste	-10.7856
▁mõtlesin	-10.7857
▁hooli	-10.7858
▁tulevik	-10.7859
tavaid	-10.7859
▁vähenemine	-10.7861
▁lähtu	-10.7861
▁otsustatud	-10.7867
määr	-10.7873
▁aktsiis	-10.7875
▁põhimõttest	-10.7876
▁juhib	-10.7876
▁tähista	-10.7879
▁aitama	-10.788
▁hoiu	-10.7881
kandidaat	-10.7882
▁olemasolevate	-10.7885
▁argumente	-10.7885
▁rõõm	-10.7885
▁mudeli	-10.7885
▁venemaaga	-10.7888
▁kasvama	-10.7888
▁gruusia	-10.7889
▁analüüsinud	-10.7889
▁lasteaiaõpetaja	-10.7892
▁sisust	-10.7898
▁rohelise	-10.7898
iks	-10.79
▁kättesaadavad	-10.7901
▁harju	-10.7901
▁elame	-10.7902
▁lõplik	-10.7902
▁sellisele	-10.7902
▁valdkondi	-10.7906
▁pooled	-10.7906
märgi	-10.7908
▁parandamiseks	-10.7912
korraldus	-10.7919
tub	-10.7923
▁marrandi	-10.7925
▁nägema	-10.7925
▁kaitsma	-10.7926
▁kardan	-10.7928
▁kohtunud	-10.7928
▁rõhutanud	-10.7929
▁retoorika	-10.7929
▁moodustavad	-10.7929
▁kehtetuks	-10.793
lõivuseaduse	-10.7933
▁seaduseks	-10.7934
▁kokkulepet	-10.7935
▁73	-10.7935
▁kuuenda	-10.7938
▁hindama	-10.7939
▁olevad	-10.794
isi	-10.7944
9.	-10.7945
▁sobiva	-10.7946
▁töövõimereformi	-10.7951
▁kollektiivse	-10.7958
▁negatiivne	-10.796
▁laias	-10.7961
▁alusta	-10.7963
▁esitasime	-10.7963
▁edukalt	-10.7968
▁osalemise	-10.7971
▁tegite	-10.7972
▁potentsiaalse	-10.7978
▁süsteemis	-10.798
▁vabadus	-10.798
õpetaja	-10.7981
▁tegeliku	-10.7991
▁üheskoos	-10.7996
▁tõkestamise	-10.7997
▁väidetavalt	-10.7999
▁maaeluminister	-10.8
▁tund	-10.8
▁otsustasime	-10.8002
tuste	-10.8002
▁tavalise	-10.8003
▁viimast	-10.8006
▁soe	-10.8006
▁kohalikku	-10.8008
▁ri	-10.8009
rosimannus	-10.8009
▁jms	-10.8009
▁teenistus	-10.8013
▁igasuguste	-10.8013
aator	-10.8014
loa	-10.8015
▁lõppes	-10.8016
▁öö	-10.8028
olen	-10.8029
▁vaesuses	-10.8029
▁ostma	-10.8029
▁häält	-10.803
▁asekantsler	-10.8032
▁30%	-10.8041
tead	-10.8041
▁taani	-10.8044
▁arvamused	-10.8044
▁olukordi	-10.8053
▁korrakaitse	-10.8054
▁sooja	-10.8055
▁juhtimisel	-10.8063
▁madalam	-10.8064
põhiselt	-10.8064
▁kar	-10.8064
isa	-10.8065
luba	-10.8069
▁60%	-10.8072
▁asjas	-10.8073
vatele	-10.808
▁tulevase	-10.8083
▁raam	-10.8085
▁rahvusvahelisel	-10.8086
▁aspekt	-10.8087
poliitikas	-10.8089
▁vorm	-10.8091
umise	-10.8093
võrgu	-10.8094
▁muudatustega	-10.8094
▁peretoetuste	-10.8095
▁uhke	-10.8097
▁institutsioonid	-10.8097
▁repsi	-10.8097
▁panustama	-10.8098
▁tasuks	-10.8099
▁tulusid	-10.81
▁mõttetu	-10.8104
▁metsoja	-10.8104
▁kogukond	-10.8104
▁kuulasin	-10.8106
▁vääri	-10.811
▁3%	-10.811
▁maksimaalselt	-10.8111
▁saavutanud	-10.8112
▁tegutse	-10.8119
▁kiri	-10.812
▁74	-10.8123
ndada	-10.8123
tööstuse	-10.8131
moodi	-10.8133
▁planeerimis	-10.8134
▁saadetud	-10.814
▁sündi	-10.814
▁välismaalaste	-10.814
▁puidu	-10.814
▁teemaks	-10.8142
soovi	-10.8143
▁jätame	-10.8145
▁40%	-10.8147
▁pidas	-10.8156
▁niigi	-10.8157
▁kombel	-10.8164
▁tunnen	-10.8166
▁toomi	-10.8166
▁konkurentsiamet	-10.8171
alustame	-10.8171
▁tsiteerin	-10.8176
▁59	-10.8176
▁väitis	-10.8177
▁otsustus	-10.8179
vale	-10.818
▁esimeseks	-10.8185
kvalifikatsiooni	-10.819
liiklus	-10.819
raamatu	-10.8194
▁vastav	-10.8195
▁häälte	-10.8198
▁töökohta	-10.8201
▁põllumeestele	-10.8201
▁haridust	-10.8207
rea	-10.8209
▁paber	-10.8212
▁varasemate	-10.8212
▁keskpanga	-10.8214
▁digitaalse	-10.8215
▁nalja	-10.8216
▁fikseeritud	-10.8216
virumaale	-10.8217
▁or	-10.8219
▁materjali	-10.822
▁vladimir	-10.8221
nti	-10.8223
▁tunnustada	-10.8224
▁mitut	-10.8228
▁eestlased	-10.8229
▁valitsussektori	-10.8231
▁teadma	-10.8232
▁korteri	-10.8234
▁käitumist	-10.824
▁ni	-10.8243
▁võtsime	-10.825
▁piltlikult	-10.8251
▁kestnud	-10.8252
▁täpset	-10.8252
ata	-10.8252
▁allapoole	-10.8253
ravi	-10.8255
▁avaldas	-10.8257
väär	-10.8259
▁valmistatud	-10.8259
▁kulutuste	-10.826
võ	-10.8263
▁komisjonid	-10.8269
▁seaduseelnõus	-10.8269
▁osaleb	-10.8269
▁arvame	-10.8271
vormi	-10.8271
▁juuli	-10.8273
▁põhjuseks	-10.8274
ndamise	-10.8274
sele	-10.8275
gr	-10.8275
▁piirilepingu	-10.8279
▁kersti	-10.8279
▁põhiseadust	-10.828
▁taotle	-10.828
▁määrab	-10.8283
▁valimiskomisjon	-10.8284
▁laekumise	-10.8284
▁institutsioon	-10.8287
iministeerium	-10.8287
▁saatnud	-10.8287
siin	-10.8288
▁väitnud	-10.8288
▁likvideeri	-10.829
▁rait	-10.8291
poolt	-10.8293
▁sisaldab	-10.8293
▁negatiivse	-10.8293
▁perekond	-10.8293
▁naisi	-10.8297
▁tuvasta	-10.8298
▁teenib	-10.8299
▁tõsist	-10.8303
▁ainete	-10.8307
ek	-10.8308
▁tugine	-10.8319
▁võrdne	-10.8323
▁tähendus	-10.8324
▁sõlmi	-10.8327
▁piirid	-10.8328
▁rühma	-10.8329
▁tagajärjel	-10.8331
▁paikne	-10.8335
▁jumal	-10.8336
tra	-10.8338
▁tagajärg	-10.8339
viis	-10.8339
▁määratakse	-10.834
▁kasvata	-10.8341
▁ühendus	-10.8345
▁kuule	-10.8345
▁toreda	-10.8347
▁arutusel	-10.8352
üs	-10.8357
▁proportsionaals	-10.8358
rahu	-10.8359
▁tegin	-10.8362
teenus	-10.8362
▁si	-10.8364
▁õnnestub	-10.8369
▁toimuda	-10.837
▁kolmandiku	-10.8371
vaks	-10.8373
▁kategooria	-10.8376
▁jõuaks	-10.8376
▁elanikud	-10.8376
▁tulemuste	-10.8385
▁heas	-10.8399
▁sõnavõtus	-10.8402
▁lõpu	-10.841
▁piirdu	-10.8411
leppe	-10.8413
▁lubadusi	-10.8414
▁professor	-10.8415
▁osanud	-10.8418
valdkond	-10.842
▁isikutele	-10.8425
▁oota	-10.8428
▁söö	-10.843
▁siduda	-10.8435
▁tõusevad	-10.8438
▁nimetasin	-10.8439
▁täitmist	-10.844
▁sekkuda	-10.8441
▁regiooni	-10.8443
▁ukrainas	-10.8444
▁mõistetav	-10.8444
▁tähtaega	-10.8445
▁asemele	-10.8447
tate	-10.8451
▁investeering	-10.8454
▁kommenteerite	-10.8456
▁alkohol	-10.8456
▁juhtumit	-10.8462
▁top	-10.8462
▁mõjude	-10.8462
▁enamiku	-10.8463
rje	-10.8468
esimene	-10.8469
▁komponent	-10.847
▁armasta	-10.8471
▁suudetud	-10.8472
▁õlle	-10.8472
▁nägu	-10.8473
▁maksnud	-10.8478
▁kuulanud	-10.848
▁tuhandeid	-10.8485
▁mujale	-10.8486
▁oleksite	-10.8488
▁propaganda	-10.8488
▁tegutsema	-10.8492
vastane	-10.8493
▁põhjamaade	-10.8506
punkti	-10.8507
▁õpilased	-10.8512
▁oskad	-10.8522
▁patsientide	-10.8522
▁jaan	-10.8527
▁risti	-10.8528
▁algatuse	-10.8533
▁süü	-10.8535
▁edasta	-10.8535
aste	-10.8537
▁määranud	-10.8538
ev	-10.854
▁82	-10.854
▁suulise	-10.8541
▁kuuluva	-10.8546
▁konkurss	-10.8547
▁kollektiiv	-10.8547
▁india	-10.8548
▁väljastpoolt	-10.8548
▁eurotsooni	-10.8548
▁seo	-10.8549
rühma	-10.8553
▁sesteri	-10.8553
▁leevendada	-10.8553
▁tõstatatud	-10.8553
▁kompenseerida	-10.8553
▁pagulas	-10.8554
▁viimati	-10.8555
▁keskkonda	-10.8555
▁projektide	-10.8556
▁mõistan	-10.8558
▁korralda	-10.8558
▁käega	-10.8559
▁lehe	-10.8566
▁pikemat	-10.8571
▁reservide	-10.8572
lust	-10.8576
▁randjärv	-10.8578
iste	-10.8583
▁selgust	-10.8584
▁kinnistu	-10.8585
▁diislikütuse	-10.8585
iminister	-10.8587
▁tendents	-10.8587
▁madis	-10.8589
▁täpsustatakse	-10.8589
▁tutvustan	-10.859
▁läksid	-10.8595
▁paremaid	-10.8595
▁täiendus	-10.8596
▁tulevaste	-10.8597
▁marianne	-10.86
▁suhtumise	-10.8601
aegse	-10.8603
▁vaevalt	-10.8604
▁riigihangete	-10.8605
▁esi	-10.8608
▁pehme	-10.8611
kodu	-10.8612
▁menetlust	-10.8621
▁keemia	-10.8623
▁hoidma	-10.8624
▁tõsiasi	-10.8625
▁pikendamine	-10.8629
rahandusministri	-10.8629
märkimisväärselt	-10.8635
▁samad	-10.8635
vahe	-10.8637
kk	-10.8638
missioonil	-10.8639
▁saksamaal	-10.8641
▁konsensuslikud	-10.8641
▁riigiga	-10.8642
▁reserv	-10.8648
▁piisava	-10.8648
mehed	-10.8648
7%	-10.8654
▁palgast	-10.8655
▁niisuguste	-10.8658
▁pensionid	-10.8658
raivo	-10.866
▁kaup	-10.8661
▁topeltkodakonds	-10.8662
▁häälteenamust	-10.8662
▁piires	-10.8664
õigusliku	-10.8665
▁sisulisi	-10.8671
▁omanike	-10.8671
▁millestki	-10.8671
▁suurbritannia	-10.8673
▁käsitleva	-10.8678
▁vabatahtlike	-10.8678
▁kirju	-10.868
▁otsast	-10.8682
▁lase	-10.8682
▁taustal	-10.8683
mehe	-10.8691
▁sõnadega	-10.8694
▁ajakirjanduses	-10.87
▁tugiteenuste	-10.8701
▁suhtumist	-10.8703
▁kaheksanda	-10.8703
▁mitmete	-10.8707
▁põhiseadusliku	-10.8708
▁hõlmab	-10.8709
▁arutasite	-10.8711
▁tavaline	-10.8712
ruum	-10.8712
▁8,	-10.8713
▁lahenduste	-10.8715
▁külge	-10.8715
▁moodustamise	-10.8716
▁tööandjad	-10.8717
▁mandaat	-10.8728
▁miski	-10.8734
▁soojus	-10.8736
▁kandidaatide	-10.8738
▁sõnavõtu	-10.8738
▁ebavõrdse	-10.8738
▁näed	-10.8739
▁tullakse	-10.8741
▁vastaja	-10.8743
▁levinud	-10.8743
▁häiri	-10.8745
▁menetlemist	-10.8747
▁tuletada	-10.8748
strateegias	-10.8749
▁osales	-10.8751
▁situatsiooni	-10.8752
▁hinnatõusu	-10.8754
▁diskrimineeri	-10.8755
asutused	-10.8761
▁kirjaliku	-10.8773
▁protsessis	-10.8774
toomas	-10.8776
▁saksa	-10.8777
▁menetle	-10.8779
▁vabaduse	-10.8779
▁õhku	-10.878
▁aluse	-10.8782
▁ühekordse	-10.8782
▁kaldu	-10.8784
▁kõlama	-10.8784
▁lõikes	-10.8785
▁konkreetses	-10.8787
▁kra	-10.8792
▁katkesta	-10.8793
▁partner	-10.8795
▁ehita	-10.8796
▁ükskord	-10.8797
▁valu	-10.8798
▁eelarvega	-10.8803
▁mõistes	-10.8805
kirju	-10.8806
▁matemaatika	-10.8811
▁loodi	-10.8812
▁passi	-10.8812
▁aspektist	-10.8814
▁maksumus	-10.8815
▁väitsite	-10.8816
▁600	-10.8816
▁kandma	-10.8818
▁liiduga	-10.8821
▁esitame	-10.8822
▁vähenevad	-10.8823
▁kohast	-10.8824
▁ettepanekutega	-10.8824
▁101	-10.8826
▁algata	-10.8831
ajal	-10.8833
osakonna	-10.8837
▁sõnul	-10.8838
▁pakendi	-10.884
▁rahastada	-10.8843
▁terava	-10.8845
▁kirjutas	-10.8852
▁seadusloome	-10.8855
▁isikule	-10.8855
▁seadnud	-10.8858
▁ülesannetes	-10.886
▁tublid	-10.886
▁lõpetati	-10.8861
▁keskmist	-10.8861
▁vastasite	-10.8862
fe	-10.8869
▁tunnista	-10.8876
▁sotsiaaltöötaja	-10.8879
jä	-10.8881
▁algatajad	-10.8882
▁fraktsioonis	-10.8885
▁tehnika	-10.8885
teenuseid	-10.8894
otsuse	-10.89
▁taastamise	-10.8902
▁täie	-10.8902
▁ehitamise	-10.8904
nõuete	-10.8904
▁suitseta	-10.8905
▁reaalse	-10.8907
▁segadust	-10.8908
▁haridusminister	-10.8914
▁konsensus	-10.8918
▁seost	-10.892
▁tingimus	-10.8924
▁ukse	-10.8925
▁teavita	-10.8925
▁osuta	-10.8926
▁osalus	-10.8927
järve	-10.8927
▁paragrahv	-10.8928
linna	-10.8928
▁tugevda	-10.893
▁arvestuse	-10.8931
▁normi	-10.8932
▁elamisloa	-10.8933
kohtade	-10.8935
▁kriitiline	-10.8938
▁harjunud	-10.8939
▁nägime	-10.8941
▁kaskpeit	-10.8945
▁usku	-10.8947
▁rendi	-10.8949
▁mehhanismi	-10.895
▁tervis	-10.8955
usest	-10.8956
▁riigieelarvele	-10.8959
▁algus	-10.8961
▁arengukavas	-10.8961
▁ostu	-10.8961
▁majanduses	-10.8962
▁südame	-10.8965
▁jaotus	-10.8967
▁riigiasutuste	-10.8968
▁õnne	-10.8969
▁kuuluda	-10.897
▁vajadusest	-10.8971
kindlasti	-10.8973
▁tööpuudus	-10.8974
▁kindlusta	-10.8975
▁patsiendi	-10.8976
▁järjekordselt	-10.898
▁otseses	-10.8981
▁arst	-10.8985
▁korrale	-10.8987
▁hävita	-10.8988
tavalt	-10.8992
ment	-10.8995
▁suunda	-10.8996
jää	-10.8998
▁universaalse	-10.9
▁poliitilisi	-10.9004
▁kliendi	-10.9008
▁olge	-10.9009
2%	-10.901
▁liikunud	-10.9012
▁jõulu	-10.9017
ava	-10.9019
▁peaksin	-10.9019
▁kogemused	-10.902
▁kujundada	-10.9022
▁reageerida	-10.9022
▁teadnud	-10.9024
fond	-10.9024
▁varju	-10.9025
▁juhend	-10.9027
▁lisatud	-10.9029
lapse	-10.903
▁uuele	-10.9032
kuus	-10.9034
▁tarbimist	-10.9035
▁halba	-10.9039
▁valitse	-10.9049
▁pikaajaline	-10.9052
▁vahendusel	-10.9052
märt	-10.9053
▁piiril	-10.9057
uri	-10.9062
▁peredele	-10.9065
▁palus	-10.9075
▁üksmeel	-10.9075
ants	-10.9076
▁kasvas	-10.9077
▁viide	-10.9078
▁tühista	-10.9079
▁val	-10.9079
▁raadio	-10.9091
▁sooäär	-10.9093
▁venemaal	-10.9096
▁näidet	-10.9096
aega	-10.9104
▁edukas	-10.9104
▁15%	-10.9107
▁hääletame	-10.9109
meeste	-10.9112
▁positiivselt	-10.9115
▁õiged	-10.9115
▁kritiseeri	-10.9118
▁ilmne	-10.9121
▁kodanikele	-10.9122
▁protesti	-10.9125
3%	-10.9132
▁andeks	-10.9132
priit	-10.9134
▁nägin	-10.9136
▁miljon	-10.914
▁vahenditest	-10.914
▁mõningaid	-10.9142
▁kasutame	-10.9143
▁valitsusse	-10.9145
▁kallimaks	-10.9146
▁kogemuse	-10.9147
▁käivita	-10.9147
▁tehniline	-10.9148
▁veb	-10.9148
▁määrusega	-10.915
▁neilt	-10.9154
▁rahvusvahelises	-10.9157
▁lepingud	-10.9158
▁oskab	-10.9158
▁printsiip	-10.9158
kindlustus	-10.9159
▁praegused	-10.9164
▁7,	-10.9165
▁kehtivas	-10.9167
▁võidelda	-10.9171
▁oodatud	-10.9172
▁prügi	-10.9172
▁tekkima	-10.9172
▁olemuselt	-10.9172
▁fookus	-10.9172
▁üldosa	-10.9173
▁erilist	-10.9174
▁käibe	-10.9176
▁valitsusliikmed	-10.9178
▁olevaid	-10.9178
tusega	-10.9179
▁vahetada	-10.918
▁eesmärgiga	-10.918
auto	-10.918
▁kolmandal	-10.9182
õigust	-10.9183
▁niisiis	-10.9183
▁airi	-10.9187
▁dokumendid	-10.9191
▁kõneleja	-10.9193
▁aktsiiside	-10.9198
▁riigisisese	-10.9205
▁karistuse	-10.9212
▁voli	-10.9212
aafrika	-10.9214
▁sõlmimise	-10.9215
▁pressi	-10.9216
▁langenud	-10.9216
▁taset	-10.922
materjali	-10.922
lepingus	-10.9221
▁suhe	-10.9224
▁õpetada	-10.9224
▁punktide	-10.9227
mini	-10.9229
▁nord	-10.9229
▁toimima	-10.923
▁loone	-10.9231
ilt	-10.924
▁lahendi	-10.9243
süsteemis	-10.9247
▁mõjub	-10.9249
rus	-10.925
▁analüüsid	-10.925
▁talve	-10.9252
▁hädavajalik	-10.9252
valimiskampaania	-10.9253
ettevõte	-10.9255
▁jõudsime	-10.9256
▁algatanud	-10.9258
▁vabatahtlik	-10.9259
▁soodusta	-10.926
▁perearstide	-10.9261
▁erandi	-10.9262
▁kaasamise	-10.9263
▁suuremas	-10.9266
alase	-10.927
▁võimaldada	-10.9271
▁käituma	-10.9273
▁kirjutama	-10.9275
▁aasia	-10.9279
▁objektiivse	-10.928
rg	-10.9282
▁märkis	-10.9283
▁kaasnevad	-10.9285
▁laastus	-10.9293
▁nafta	-10.9293
▁teadmisi	-10.9294
▁100%	-10.9294
▁filmi	-10.9296
▁laekus	-10.9296
▁demokraatliku	-10.9297
küla	-10.9297
▁isiklikku	-10.9301
▁konventsioon	-10.9307
▁jätkusuutlikkus	-10.9308
▁taba	-10.9308
▁dokumente	-10.9309
▁veni	-10.9317
kese	-10.9319
kse	-10.9321
▁teadlaste	-10.9323
tused	-10.9326
▁kilomeetri	-10.9328
▁peatu	-10.9329
▁tunneb	-10.9329
valdkonda	-10.9329
▁juriidiline	-10.9334
▁samaks	-10.9334
▁üksinda	-10.9335
neb	-10.9339
▁menetleme	-10.9341
▁langetas	-10.9349
▁sisuga	-10.9351
om	-10.9351
▁lõ	-10.9351
poliitiline	-10.9356
▁kaasne	-10.9357
1%	-10.9357
▁saatis	-10.9358
▁annate	-10.9359
umine	-10.9361
▁avalike	-10.9362
▁korrata	-10.9365
▁analoogse	-10.9367
▁anta	-10.937
rikka	-10.9371
▁möödas	-10.9373
▁rõivasele	-10.9375
▁oktoober	-10.9375
mit	-10.9375
tasime	-10.9376
viktor	-10.9379
▁panevad	-10.9388
▁säilita	-10.9389
ettevalmistamise	-10.9389
▁sobib	-10.939
▁1,5	-10.9391
▁punktid	-10.9391
ps	-10.9392
▁di	-10.9393
▁arenda	-10.9396
▁juriidiliselt	-10.9398
äri	-10.9399
▁tunneta	-10.9401
der	-10.9404
▁seltsi	-10.9406
▁eurole	-10.9408
▁paketi	-10.9413
▁teatas	-10.9414
▁teisisõnu	-10.9416
▁mängus	-10.9418
▁senine	-10.9418
▁väljas	-10.9419
jürgen	-10.942
sektor	-10.9423
▁14-	-10.9423
▁toimuva	-10.9424
▁esineda	-10.9424
▁kaasneb	-10.9424
▁kaotanud	-10.9425
▁eelmist	-10.9425
▁meetodi	-10.9426
▁käisin	-10.9428
▁norra	-10.9429
▁lah	-10.943
▁hümni	-10.9433
▁69	-10.9433
▁toovad	-10.9436
▁periood	-10.9438
▁tarbi	-10.9439
▁riikidele	-10.9439
▁huvita	-10.944
▁täies	-10.9444
▁sõda	-10.9452
▁tootmis	-10.9453
▁äriühingute	-10.9455
▁palunud	-10.9456
▁suhtlus	-10.9457
▁globaalse	-10.9457
▁praktiline	-10.9457
▁nimetas	-10.946
▁80%	-10.9461
▁linnaosa	-10.9461
▁väljatöötamise	-10.9463
▁hoiak	-10.9464
aa	-10.9464
▁pakuvad	-10.9465
▁jagatakse	-10.9471
▁prioriteetide	-10.9471
tajate	-10.9472
aalne	-10.9472
▁kooseluseadus	-10.9473
▁kaitseks	-10.9474
▁sätteid	-10.9479
▁tohutult	-10.948
▁kolmandik	-10.9484
una	-10.9484
▁aktsiisitõusu	-10.9488
▁eelmiste	-10.9489
▁maavanema	-10.949
▁remo	-10.9491
▁otstarbe	-10.9495
▁kaardi	-10.9496
▁reserve	-10.9501
▁ettevõtetele	-10.9501
▁teemast	-10.9501
▁tollal	-10.9506
▁jagamise	-10.9507
▁suhete	-10.9515
▁spetsialiste	-10.9515
reform	-10.9516
▁alused	-10.9516
▁tegevuses	-10.9518
▁vooru	-10.9522
▁ratase	-10.9522
pääs	-10.9524
▁hakkasid	-10.9526
▁tagatis	-10.9527
▁eksisteeri	-10.9529
▁tsiteeri	-10.953
▁otsustavad	-10.9533
▁püüd	-10.9534
▁koli	-10.9536
laeva	-10.9536
▁volitatud	-10.9541
▁õppinud	-10.9544
▁sellisena	-10.9544
▁kaitsmise	-10.9544
▁tuhat	-10.9547
▁raidma	-10.9548
▁valima	-10.9554
ol	-10.9557
ring	-10.9558
▁hääleta	-10.9559
ettevõtte	-10.9562
▁üleminekutoetus	-10.9562
▁kavatsete	-10.9564
põ	-10.9567
▁milling	-10.9568
▁tempos	-10.9572
▁töötatud	-10.9572
▁aruanne	-10.9576
▁piirangu	-10.9577
▁tõenäosus	-10.958
▁hüvitise	-10.958
projekti	-10.9581
▁pakosta	-10.9582
partnerite	-10.9583
▁austa	-10.9583
▁arutelust	-10.9586
▁ideid	-10.9586
tunde	-10.9586
▁hääl	-10.9589
▁kiirusta	-10.9589
▁garantii	-10.959
▁esitasin	-10.9592
oko	-10.9592
▁tõ	-10.9593
▁kunsti	-10.9596
▁esine	-10.9596
▁kotkas	-10.9597
▁viime	-10.9602
▁elektrituru	-10.9603
▁kättesaadavust	-10.9603
▁alustel	-10.9607
▁võiksite	-10.9611
vedu	-10.9615
juhtide	-10.9618
▁valikud	-10.9621
▁arutab	-10.9621
▁numbri	-10.9625
▁põhjalikumalt	-10.9626
aluse	-10.9629
▁vaidlused	-10.963
▁valikute	-10.963
▁ametlik	-10.9631
▁edastanud	-10.9631
▁käsitlenud	-10.9631
▁potentsiaali	-10.9633
▁kohtusüsteemi	-10.9635
▁kul	-10.9636
▁tolli	-10.9637
▁rahastamis	-10.9637
▁valmisolek	-10.964
kohustuse	-10.9644
▁koostada	-10.9644
▁vangi	-10.9645
▁sanktsioonide	-10.9647
▁detsembris	-10.9648
▁püsi	-10.9648
▁pakkus	-10.9649
rit	-10.965
akt	-10.9656
▁otsene	-10.9657
▁poe	-10.966
▁viina	-10.966
▁fond	-10.9662
▁muutusi	-10.9663
grupi	-10.9666
▁liial	-10.9666
▁jäetakse	-10.9667
▁rakendatakse	-10.967
▁olgem	-10.9671
oomi	-10.9677
▁küsingi	-10.9679
▁kaugemas	-10.968
▁lennuki	-10.968
▁kandideeri	-10.9681
▁tekstis	-10.9683
▁kontseptsiooni	-10.9688
ndab	-10.9688
liini	-10.9688
▁jutust	-10.9694
▁käibemaks	-10.9696
▁ajutise	-10.9698
▁lahingu	-10.9698
▁kahes	-10.9698
▁toetamine	-10.97
▁hulgast	-10.9705
▁instituudi	-10.9705
▁vajalikke	-10.9708
▁alustas	-10.9708
▁kaasettekande	-10.9709
▁sisejulgeoleku	-10.971
▁700	-10.9712
▁moodustatud	-10.9713
▁valdade	-10.9714
▁mahe	-10.9714
▁eelnõule	-10.9714
▁piirangute	-10.9714
▁tervik	-10.9715
aastased	-10.9715
▁karista	-10.9716
▁lähtume	-10.9716
▁väärib	-10.9718
▁valitsusliikme	-10.9719
tingimused	-10.9724
▁nimekirjas	-10.9726
▁koolivõrgu	-10.9727
▁muudeti	-10.973
▁endas	-10.9731
▁lapsetoetuse	-10.9734
▁solva	-10.9735
▁erinevat	-10.9735
▁valdkonnad	-10.9738
▁oskus	-10.9739
▁osalise	-10.9744
▁palgaga	-10.975
▁tarvita	-10.9751
▁lastevanemate	-10.9751
▁põgusalt	-10.9751
idel	-10.9752
▁avaldatud	-10.9758
15	-10.9764
▁tarbijate	-10.9764
▁kahtlus	-10.9765
▁täitu	-10.9766
▁mõneti	-10.9767
märk	-10.9774
▁punkte	-10.9786
▁konkureeri	-10.9786
▁kanali	-10.979
▁tolliamet	-10.9795
▁piirikaubandus	-10.9798
▁põhineb	-10.9799
▁sätestatakse	-10.9799
▁terrori	-10.98
▁lähenemist	-10.9801
▁segadus	-10.9802
▁märk	-10.9803
▁tööst	-10.9807
lang	-10.9808
▁kaotab	-10.9808
▁printsiibi	-10.9809
▁üleminek	-10.9809
pidaja	-10.9809
▁kiirelt	-10.981
▁õpilase	-10.9811
võtmise	-10.9813
lises	-10.9813
▁paista	-10.9816
▁väljend	-10.9817
▁vä	-10.9817
▁jääme	-10.9823
▁linnu	-10.9823
▁nulli	-10.9824
▁keskvalitsuse	-10.9825
▁põllu	-10.9827
kor	-10.983
▁veo	-10.9837
▁teretulnud	-10.9837
▁teisalt	-10.9837
▁800	-10.984
arsti	-10.9842
▁mõistlikuks	-10.9843
▁teatri	-10.9844
▁rajada	-10.9848
▁prioriteedid	-10.985
▁toodete	-10.9852
▁hirm	-10.9855
ismi	-10.986
▁võitle	-10.986
▁koorma	-10.9861
▁sügavalt	-10.9862
2.	-10.9864
▁4%	-10.9866
▁nõrgema	-10.987
aid	-10.9874
▁teeninda	-10.9882
▁keeleõppe	-10.9883
▁tähtsust	-10.9884
▁hakkan	-10.9886
▁vastustest	-10.9886
▁vabas	-10.9886
kom	-10.9887
▁asendada	-10.989
▁seadustega	-10.989
▁toimuks	-10.9896
▁maapiirkondades	-10.9898
kra	-10.9898
▁riigina	-10.9903
perioodi	-10.991
▁kohtunik	-10.9912
▁kri	-10.9913
▁seadusandliku	-10.9914
▁rakendu	-10.9919
▁euroraha	-10.992
▁kobareelnõu	-10.9923
▁eraldatakse	-10.9926
ast	-10.9929
▁tühi	-10.9929
▁kogutud	-10.993
▁mõistet	-10.9932
saare	-10.9934
▁hoiab	-10.9935
▁maksukoormus	-10.9938
▁miljonist	-10.9939
▁järeldusi	-10.9939
▁rakenda	-10.9945
▁laevad	-10.9947
▁põhiseaduslikku	-10.9949
▁1990.	-10.9949
▁keelata	-10.995
▁kumb	-10.9952
6.	-10.9952
▁õnnetus	-10.9954
▁hüvitist	-10.996
▁situatsioon	-10.9961
korra	-10.9961
▁hukka	-10.9964
▁olenemata	-10.9967
▁plaane	-10.9967
▁kõnet	-10.9968
▁konverentsi	-10.9969
▁selgunud	-10.9971
tusi	-10.9973
▁staa	-10.9974
võimalusi	-10.9975
▁suudaks	-10.9977
▁teenivad	-10.9978
▁pikenda	-10.9982
▁mõjutavad	-10.9991
▁ajaloolise	-10.9993
▁eilse	-10.9997
▁kriitilise	-10.9998
▁valmistu	-11.0004
▁lepinguid	-11.0005
▁asendus	-11.0006
▁maanteeameti	-11.0008
▁majandusliku	-11.0009
▁süvenda	-11.0011
▁pealkiri	-11.0012
▁lasteaias	-11.0018
▁vaher	-11.0019
▁täitevvõimu	-11.0022
▁85	-11.0024
▁osutaja	-11.0026
▁peabki	-11.0026
▁päästeameti	-11.0026
▁esma	-11.0027
turg	-11.0029
▁ühinenud	-11.003
▁rahaliselt	-11.0031
▁enamuse	-11.0031
▁võitlus	-11.0033
▁vastatud	-11.0033
▁ehitama	-11.0037
▁leheküljel	-11.0044
meelse	-11.0045
▁alternatiivi	-11.0046
kki	-11.0046
ov	-11.0049
▁2011	-11.0051
▁konstruktiivse	-11.0051
▁peresid	-11.0054
▁konservatiivne	-11.0054
▁seegi	-11.006
▁vaidlusta	-11.006
ndust	-11.006
av	-11.0062
▁sõidab	-11.0062
▁lõplikult	-11.0065
▁teatava	-11.0066
tähelepanelikult	-11.0069
täht	-11.0069
▁lõi	-11.007
▁pri	-11.0071
▁komisjonides	-11.0074
▁varasematel	-11.0074
▁vastutustundlik	-11.0075
ule	-11.008
▁pileti	-11.0083
▁möön	-11.0083
▁2019	-11.0085
▁praktilise	-11.0086
▁reklaam	-11.0087
▁tõenda	-11.0088
▁tulin	-11.0088
▁tervisele	-11.0091
deklaratsiooni	-11.0092
▁ba	-11.0093
▁kaupade	-11.0094
▁äärmus	-11.0094
▁probleemidega	-11.0097
▁ütlus	-11.0099
▁üheksanda	-11.01
▁teades	-11.0101
▁tööturule	-11.0102
▁vaidluse	-11.0104
▁tööjõumaksude	-11.0106
▁maksmine	-11.0107
marika	-11.0109
▁maailmavaate	-11.011
kõne	-11.0112
▁nõudlus	-11.0113
▁tõdeda	-11.0117
▁sõjaväe	-11.0123
▁abivahendite	-11.0127
liikmed	-11.0129
▁jumala	-11.0135
▁kandis	-11.0136
▁naise	-11.0137
▁kahtle	-11.0139
tü	-11.0139
▁ar	-11.0141
▁ilmtingimata	-11.0143
▁tulles	-11.0143
▁ajendatud	-11.0143
▁nä	-11.0148
▁protokoll	-11.0149
▁rumala	-11.0149
▁selgitama	-11.015
vahendeid	-11.015
▁uurimise	-11.0151
▁korrektselt	-11.0154
▁kordagi	-11.0168
ari	-11.017
▁tähenduses	-11.017
▁sisalda	-11.0171
vool	-11.0172
▁järeldusele	-11.0175
▁munitsipaal	-11.0178
▁rahalise	-11.018
▁tunnus	-11.018
▁parandamise	-11.0185
▁sanktsioonid	-11.0187
▁rahutagamis	-11.0189
▁väärtuste	-11.019
varu	-11.0191
vast	-11.0191
▁ppa	-11.0192
▁rakendatud	-11.0192
▁paraneb	-11.0194
▁lähtunud	-11.0194
▁perearst	-11.0196
▁võimalikuks	-11.0197
▁kuuluvate	-11.0199
tute	-11.0201
▁võrdle	-11.0203
▁ettevalmistus	-11.0204
▁probleemile	-11.0205
▁oleneb	-11.0206
▁ühist	-11.0209
▁kallal	-11.021
▁pädevust	-11.021
▁registreeri	-11.0211
▁krediidi	-11.0211
▁variandi	-11.0212
▁üksuste	-11.0213
▁projekte	-11.0214
▁põhjusi	-11.0216
▁kol	-11.0221
▁allkirjasta	-11.0222
▁arvamusel	-11.0228
▁notari	-11.0228
▁kaotamise	-11.0229
▁kontrollima	-11.0232
▁teadupärast	-11.0232
▁uurinud	-11.0232
▁lüüa	-11.0233
▁juur	-11.0234
▁viitab	-11.0238
ama	-11.024
▁laul	-11.0241
▁nõukogusse	-11.0243
▁osutamise	-11.0243
keskuste	-11.0245
punkt	-11.0245
▁valitsemisala	-11.0246
▁kõikidest	-11.0248
▁alanda	-11.0248
olev	-11.0258
▁seitsmes	-11.026
▁ehituse	-11.026
hind	-11.0261
▁mõistlikult	-11.0262
▁samasugust	-11.0262
positsiooni	-11.0265
rik	-11.0273
▁vaade	-11.0275
▁mõnest	-11.0276
▁kogenud	-11.0277
▁konsulteeri	-11.0277
▁läänemere	-11.0277
▁järgmisest	-11.0278
▁isikuandmete	-11.0278
▁puhke	-11.0278
▁erandeid	-11.0279
aegne	-11.0281
▁palub	-11.0283
▁märkida	-11.0283
▁nimetanud	-11.0286
▁paindlikumaks	-11.0287
lin	-11.0288
kapitali	-11.0292
▁mõlemal	-11.0293
▁olemegi	-11.0295
▁jagatud	-11.0297
▁päevas	-11.0303
▁tõhus	-11.0309
▁kohtume	-11.031
▁täpsustava	-11.0319
▁randver	-11.0322
▁naine	-11.0322
ndamine	-11.0325
▁suurenevad	-11.0325
▁lisandub	-11.0327
▁tegevusega	-11.0328
▁laulu	-11.0328
▁loomist	-11.0332
▁piiride	-11.0333
▁võimaldaks	-11.0334
▁joogi	-11.0335
▁algatajale	-11.0335
kene	-11.0339
▁istub	-11.034
▁peep	-11.034
justiitsministri	-11.0342
võrdõiguslikkuse	-11.0343
▁algatus	-11.0343
▁kasumit	-11.0343
▁odava	-11.0349
meil	-11.035
▁käisid	-11.0353
▁83	-11.0355
▁uno	-11.0358
▁selgemaks	-11.0363
▁topelt	-11.0365
▁kutsehariduse	-11.0366
▁elanikku	-11.0368
▁saaksite	-11.0369
▁teadmise	-11.0375
▁sekku	-11.0375
▁väidet	-11.0375
▁eeskujuks	-11.0377
▁soove	-11.0379
▁kolmapäeval	-11.0379
spordi	-11.038
▁asus	-11.038
var	-11.0385
▁vastustes	-11.0388
▁meeskonna	-11.039
oma	-11.0392
▁lihtsamaks	-11.0395
▁suust	-11.0395
▁riiklikku	-11.0397
järgse	-11.0398
mises	-11.0401
▁laenude	-11.0403
▁gr	-11.0404
▁kohalikes	-11.0405
▁üksikute	-11.041
▁väliskomisjon	-11.0412
▁laurson	-11.0412
▁lehekülge	-11.0413
▁telefoni	-11.0413
▁lahja	-11.0421
▁tugevdada	-11.0422
10	-11.0422
liseks	-11.0428
▁jõuti	-11.0432
▁turgu	-11.0435
ühenduse	-11.0436
▁katsu	-11.044
▁nool	-11.0444
▁tavapärase	-11.0446
▁uuendus	-11.0452
▁haapsalu	-11.0458
▁püütud	-11.0458
▁elatisabi	-11.0458
▁suhelda	-11.0459
▁ajad	-11.0461
▁kiitnud	-11.0462
▁tunnistan	-11.0462
▁soosi	-11.0468
tevalmistamisel	-11.0469
▁asjaolusid	-11.047
8%	-11.0475
▁asukoha	-11.0475
▁kujutada	-11.0476
▁välisriigi	-11.048
▁kümnenda	-11.0486
▁tükk	-11.0499
▁riiva	-11.0504
▁ivanova	-11.0504
7.	-11.0504
▁arene	-11.0504
▁alaealise	-11.0504
▁toetate	-11.0506
▁kär	-11.0507
▁paralleelselt	-11.0508
▁kred	-11.0509
▁rõivase	-11.0511
▁olulisel	-11.0511
▁valitseb	-11.0512
▁pet	-11.0512
▁repliigi	-11.0514
▁seeläbi	-11.0518
artur	-11.0519
▁esita	-11.0521
▁hü	-11.0529
▁polegi	-11.0532
▁väite	-11.0533
eerimine	-11.0535
▁positiivseid	-11.054
▁kompenseerimise	-11.0546
▁turvalisus	-11.0548
kesi	-11.0548
▁81	-11.0549
▁detsember	-11.055
▁sedavõrd	-11.055
▁leidsime	-11.055
▁ajalehe	-11.0552
lepingute	-11.0555
▁suudaksime	-11.0556
ip	-11.0556
▁akti	-11.0556
pidamise	-11.056
▁eripära	-11.056
▁ettekandest	-11.0561
▁ainukene	-11.0562
▁liberaalse	-11.0566
▁kallim	-11.0568
lgi	-11.0572
▁tekitavad	-11.0573
▁levi	-11.0573
ostu	-11.0578
▁aspekte	-11.0578
▁veeseaduse	-11.058
▁mõõde	-11.0582
▁kodukorra	-11.0583
▁õpe	-11.0587
▁hoolitse	-11.0588
▁nimetus	-11.059
▁sotside	-11.059
▁uurimiskomisjon	-11.0591
▁ravikindlustus	-11.0592
▁täit	-11.0592
▁aastasse	-11.0594
▁kõnealu	-11.0595
▁siinkõneleja	-11.0596
▁häbi	-11.0596
▁looduse	-11.0597
▁sündmuste	-11.0599
▁jõustunud	-11.06
▁suunatakse	-11.0606
▁uskuda	-11.0606
▁kirjeldatud	-11.0606
avalduse	-11.0606
▁õiges	-11.0607
ah	-11.0608
▁põhiseaduses	-11.0609
▁sätete	-11.061
▁toel	-11.061
▁arstid	-11.0614
▁tõstame	-11.0614
▁hirmuta	-11.0615
▁keera	-11.0616
▁hädas	-11.0616
▁plaanitud	-11.0619
asjade	-11.0622
aastaste	-11.0622
▁sugu	-11.0622
▁sõida	-11.0631
▁ühinemis	-11.0633
▁ajaloos	-11.0633
▁ettevõtjatel	-11.0634
▁kohtumisel	-11.0635
või	-11.0637
▁brüsselis	-11.064
▁sinuga	-11.0642
▁õpetajatele	-11.0643
▁nõ	-11.0643
▁sihtasutus	-11.0643
▁kaja	-11.0645
▁lahus	-11.0646
▁kordi	-11.0649
▁ants	-11.065
▁pinguta	-11.0652
kordne	-11.0654
▁politseinike	-11.0655
▁suurepäraselt	-11.0657
▁numbreid	-11.0658
▁toetuseks	-11.066
ili	-11.066
▁tooks	-11.0663
▁demokraatlik	-11.0664
utus	-11.0666
▁liitlaste	-11.0673
▁teoks	-11.0673
▁probleemiks	-11.0676
▁soorita	-11.0677
teenused	-11.0677
▁silmis	-11.0677
▁reaal	-11.0679
▁taastu	-11.0681
▁istungitel	-11.0682
▁välju	-11.0683
ute	-11.0685
▁aastateks	-11.0687
▁dokumenti	-11.0687
▁selguse	-11.0687
▁arutatava	-11.069
▁murelikuks	-11.069
hti	-11.0692
▁elamu	-11.0693
▁mõistuse	-11.0696
▁loetakse	-11.0696
▁üleandmise	-11.0698
õr	-11.0698
▁võidakse	-11.0699
▁dialoogi	-11.07
▁akadeemia	-11.0702
▁puhta	-11.0707
▁maksusüsteem	-11.0708
▁kolleegidega	-11.0708
▁haigus	-11.0714
▁maksame	-11.0715
▁motiveeri	-11.0716
▁meenutan	-11.0719
▁puht	-11.072
▁üliõpilaste	-11.0723
▁pädeva	-11.0723
tegevust	-11.0724
▁värvi	-11.0728
asutus	-11.0729
▁osalema	-11.073
▁umbusaldus	-11.0734
▁muust	-11.0734
▁hooldekodu	-11.0736
▁hoolekande	-11.074
▁rakendama	-11.0743
▁sõidavad	-11.0743
▁elanikele	-11.0743
▁rahvahääletuse	-11.0746
▁muudame	-11.0751
▁imelik	-11.0751
▁maakondades	-11.0753
vahendid	-11.0761
▁majutus	-11.0762
▁teadlased	-11.0762
▁sünnib	-11.0763
▁piirkondade	-11.0766
▁keha	-11.0767
▁materjalid	-11.077
▁sissemakse	-11.0771
▁veendumus	-11.0776
▁arendamiseks	-11.0778
▁voliniku	-11.078
▁laaneti	-11.0783
▁saadetakse	-11.0784
avaldus	-11.0784
▁kiitis	-11.0786
▁väidab	-11.0788
▁päritolu	-11.079
▁alal	-11.0795
▁panustab	-11.0796
▁paberil	-11.0796
lisus	-11.0797
▁igaühel	-11.0798
▁saite	-11.0798
▁puudutava	-11.08
▁jäätme	-11.0803
puu	-11.0806
▁klientide	-11.0808
▁al	-11.081
▁ettevõtlust	-11.0813
▁komisjonil	-11.0819
▁pealinna	-11.0828
▁hange	-11.0831
▁efektiivne	-11.0831
▁vastuollu	-11.0831
▁tõstma	-11.0832
▁põhimõttelise	-11.0832
▁nimistu	-11.0834
▁eksperdi	-11.0835
▁pakume	-11.0841
▁tuvastada	-11.0841
▁maksudest	-11.0844
▁sammas	-11.0845
▁84	-11.0845
▁loeb	-11.0846
▁vähendama	-11.0846
▁nestori	-11.0846
erakonna	-11.0848
▁kõigist	-11.0849
▁arvas	-11.085
telt	-11.0851
▁raport	-11.0852
▁palgafondi	-11.0852
▁sõnavõtt	-11.0855
▁süvene	-11.0858
lisest	-11.0861
koolide	-11.0868
▁rahalist	-11.0868
▁elukoha	-11.0869
▁grupp	-11.0869
▁pra	-11.087
▁vastaks	-11.0871
▁sõnasta	-11.0874
▁leiate	-11.0878
▁meelis	-11.0879
▁kinnisasja	-11.088
▁haldusala	-11.088
vaate	-11.0881
▁maksukorralduse	-11.0883
▁seisavad	-11.0884
▁250	-11.0887
▁120	-11.0888
▁ametlikult	-11.0892
▁tagajärjed	-11.0893
▁ettekandjat	-11.0893
▁välistatud	-11.0896
▁tänaste	-11.0897
▁kehvema	-11.0904
▁kaalutlus	-11.0905
▁vajame	-11.0914
▁kehva	-11.0914
▁üksus	-11.0915
▁tootjate	-11.0916
▁päevadel	-11.0917
▁pädevuse	-11.0919
▁ennusta	-11.0922
▁tagamise	-11.0924
▁korraldama	-11.0925
▁soovitusi	-11.0925
▁tagatakse	-11.0926
▁aktiivne	-11.0927
▁oviir	-11.0927
▁sõltuvalt	-11.0927
▁võidab	-11.0929
▁suurendamiseks	-11.0929
▁meenuta	-11.093
▁palutud	-11.0931
▁volikogus	-11.0931
▁karjääri	-11.0932
▁täitmine	-11.0933
▁käsu	-11.0934
▁lae	-11.0936
▁kõrg	-11.0937
▁aruta	-11.0939
▁vähenes	-11.094
▁konkreetsel	-11.0941
▁esimehele	-11.0941
▁õiglase	-11.0942
▁range	-11.0942
kohad	-11.0943
sõidu	-11.0943
▁parvlaeva	-11.0944
▁vaidle	-11.0951
▁tahad	-11.0952
▁hindade	-11.0957
▁lastel	-11.0957
▁viisi	-11.0957
▁jäta	-11.0958
▁mõtlete	-11.096
▁kõrvalda	-11.0961
▁emotsionaalse	-11.0962
▁moodusta	-11.0964
▁tõid	-11.0965
▁poliitik	-11.0965
▁partnerite	-11.0967
▁karda	-11.0969
▁nõuet	-11.0969
5.	-11.097
▁tasandi	-11.0973
▁2005.	-11.0973
▁peipsi	-11.0975
▁andsite	-11.0976
▁ühisosa	-11.0977
▁parlamendile	-11.0977
üür	-11.0979
▁aruandes	-11.0981
▁kriteeriumid	-11.0984
▁korraldab	-11.0984
▁kuulama	-11.0986
▁teistsugused	-11.0986
isu	-11.0987
vali	-11.099
äi	-11.0991
▁rahastatakse	-11.0994
▁lahendab	-11.0995
▁astuma	-11.0998
▁ülikoolis	-11.0998
▁kanna	-11.1
▁korja	-11.1001
▁väiksemate	-11.1007
▁hinnatud	-11.1007
▁lapsevanema	-11.1012
▁ti	-11.1013
tasandi	-11.1014
klassi	-11.1018
▁kahjusta	-11.1021
▁hullem	-11.1023
▁mihkelson	-11.1023
▁rahastuse	-11.1023
▁põlva	-11.1024
eelarve	-11.1029
▁püüdsin	-11.1029
▁repinski	-11.1032
kaitseminister	-11.1034
▁loeme	-11.1035
▁mingist	-11.1038
▁täiskogule	-11.1038
▁liikmetest	-11.1038
▁väärteo	-11.1042
fondide	-11.1042
▁täiendavad	-11.1045
▁raie	-11.1049
▁süüria	-11.1049
▁ministrilt	-11.105
▁valitsuskabinet	-11.1052
▁piirivalveamet	-11.1054
▁tõstab	-11.1055
▁väärtusta	-11.1057
▁jaanuar	-11.1059
tööstus	-11.1061
▁mikrofon	-11.1063
▁laiemat	-11.1065
▁toit	-11.1066
▁möödu	-11.1066
▁targem	-11.107
▁põlvkonna	-11.1072
▁andmekogu	-11.1072
▁hoonete	-11.1072
▁külalised	-11.1074
▁hinnanguliselt	-11.1074
▁lahke	-11.1075
▁varjatud	-11.1076
▁muljet	-11.1078
▁nädalas	-11.1078
▁nähtus	-11.1079
partner	-11.108
▁asuta	-11.108
▁kandideerida	-11.1081
▁artikkel	-11.1082
▁koor	-11.1082
▁sotsiaalne	-11.1082
▁avalikkuses	-11.1083
akti	-11.1085
▁vaatavad	-11.1088
kuid	-11.1088
▁eemal	-11.1088
ikku	-11.1089
▁tasandusfondi	-11.1089
▁kodakondsusest	-11.1089
▁dmitri	-11.1093
▁täitmata	-11.1095
▁korraliku	-11.1098
andmete	-11.1105
▁taotleja	-11.1106
▁raiu	-11.1109
▁liituda	-11.1109
▁juulil	-11.111
kasutus	-11.1111
▁maksuamet	-11.1112
▁vanad	-11.1112
▁lapsetoetus	-11.1113
▁tähendada	-11.1114
otsi	-11.1114
▁linde	-11.1121
▁vastuvõetud	-11.1123
▁ajakirjanduse	-11.1125
▁soodustada	-11.113
▁kasutatava	-11.1135
▁jõutakse	-11.1136
▁tuhande	-11.114
▁peaksite	-11.114
▁volikogude	-11.1147
arvu	-11.1148
▁kordama	-11.1151
▁ühineda	-11.1152
▁ametist	-11.1153
▁kasvaks	-11.1154
▁helmut	-11.1154
▁terviku	-11.1157
▁emakeele	-11.1164
▁jo	-11.1164
▁fondide	-11.1167
▁suudeta	-11.1169
▁spetsiifilise	-11.1169
▁ülemkogu	-11.117
▁mõnigi	-11.1176
▁konsensuse	-11.1176
vajadus	-11.118
▁poolele	-11.1181
▁liiklusseaduse	-11.1185
▁koguni	-11.1187
teenistus	-11.1188
▁liikumist	-11.1189
▁selgitusi	-11.1189
▁objekt	-11.119
▁kolleegide	-11.1191
▁loonud	-11.1191
▁valdav	-11.1194
▁toome	-11.1198
▁lastest	-11.12
▁määramise	-11.12
kindlustusameti	-11.1205
▁kolmest	-11.1209
▁1,3	-11.121
iili	-11.121
▁märku	-11.1214
töötajad	-11.1215
▁ettekujutus	-11.1219
▁pikad	-11.1219
▁haara	-11.1219
▁energiat	-11.1219
▁rõhutas	-11.1219
▁seina	-11.122
▁keskkonnamõju	-11.1221
▁kannata	-11.1222
▁kuidagimoodi	-11.1223
▁langetamine	-11.1225
nar	-11.1225
▁väidate	-11.1228
protsess	-11.1229
▁kirjutab	-11.1234
▁seab	-11.1236
▁alandamise	-11.1237
▁mäletame	-11.1239
jaanus	-11.1239
▁fie	-11.124
kadri	-11.1242
▁istungile	-11.1243
ettevõtja	-11.1246
▁peaspetsialist	-11.1247
▁otsest	-11.1247
▁olulisemad	-11.1249
▁kasutusel	-11.1253
▁töötame	-11.1255
poliitikast	-11.1256
▁suurepärase	-11.1257
▁kokkulepped	-11.1258
▁helista	-11.126
maaomavalitsuste	-11.1268
▁ründa	-11.1269
▁sellistel	-11.1269
▁tegevusloa	-11.127
▁lõppemise	-11.1271
▁kodanikke	-11.1273
▁juhtumid	-11.1274
▁kaovad	-11.1275
▁lükka	-11.1276
▁esineb	-11.1277
▁absoluutse	-11.1279
▁juulist	-11.1279
▁planeerida	-11.128
▁86	-11.1281
▁palgatõus	-11.1282
▁mõtleb	-11.1284
▁9,	-11.1286
piir	-11.1286
▁muudest	-11.1287
inimeste	-11.1289
praegu	-11.1289
▁kallid	-11.1295
▁vett	-11.1299
▁hu	-11.1299
▁mõõt	-11.1299
▁tootja	-11.13
▁sääst	-11.1301
▁eelmisest	-11.1302
kohane	-11.1302
▁tabeli	-11.1302
17	-11.1304
▁vastamata	-11.1305
▁ühelgi	-11.1306
▁koda	-11.1313
▁valitsuste	-11.1313
▁kontrollkohal	-11.1316
▁löö	-11.1316
tena	-11.1316
▁suutma	-11.1318
▁tanki	-11.1318
▁90%	-11.132
▁kaugeltki	-11.1321
kontroll	-11.1324
▁suhtuda	-11.1324
▁kajastu	-11.1328
teid	-11.1331
vorm	-11.1334
ada	-11.1334
▁protseduur	-11.135
sen	-11.1352
▁elust	-11.1355
kiri	-11.1355
▁skeem	-11.1361
▁lähima	-11.1361
seis	-11.1364
▁läbipaistva	-11.1366
▁vaarmann	-11.1368
▁möönan	-11.1369
▁juhtkonna	-11.137
▁konflikt	-11.1371
▁75%	-11.1371
▁õigusriigi	-11.1374
▁ettevõtet	-11.1378
koor	-11.1378
▁suunal	-11.1379
▁immigratsiooni	-11.1379
▁pidid	-11.138
▁riigipiiri	-11.1384
▁erakonnakaaslas	-11.1385
arendus	-11.139
kohta	-11.1391
▁nimetamise	-11.1392
▁valitsusliidu	-11.1397
▁renoveeri	-11.1398
▁hindab	-11.1399
▁nõustamis	-11.1402
▁alkoholiaktsiis	-11.1404
▁korrektse	-11.1405
▁milliseks	-11.1405
▁pideva	-11.1406
▁toitu	-11.1406
▁fraktsioonist	-11.1406
▁tasude	-11.1408
▁peres	-11.1408
kohti	-11.141
▁järgnevad	-11.1412
▁vahetus	-11.1414
▁seletus	-11.1415
▁katteallika	-11.1416
▁jättis	-11.1418
▁peaasjalikult	-11.1418
▁puudujäägi	-11.1418
▁püüavad	-11.1423
suhete	-11.1423
atud	-11.1423
▁valitakse	-11.1425
▁kusagilt	-11.1428
▁muudes	-11.1429
▁kokkulepitud	-11.1429
▁tagasiside	-11.1431
▁suhtute	-11.1432
▁kasutaja	-11.1432
▁lubadus	-11.1433
▁organ	-11.1433
▁oskavad	-11.1434
saali	-11.1434
▁andmist	-11.1435
▁põhjendada	-11.1437
plaan	-11.1438
▁eetika	-11.1441
erakondade	-11.1442
▁saavutamiseks	-11.1442
▁rahvasaadik	-11.1446
▁kokkuhoid	-11.1453
▁siret	-11.1453
▁võitja	-11.1455
▁põhjalikku	-11.1459
▁omandada	-11.1461
kate	-11.1462
▁2021	-11.147
jõud	-11.147
isse	-11.147
▁per	-11.1472
▁valitsused	-11.1473
▁aasa	-11.1473
▁jurist	-11.1474
▁registreerimise	-11.1474
▁võrdleme	-11.1476
▁esitavad	-11.1476
vabadus	-11.1478
▁efektiivselt	-11.1479
▁vaidluste	-11.148
▁jõustuma	-11.1482
▁sõiduki	-11.1483
pärane	-11.1486
rm	-11.1494
▁kohatu	-11.1495
tsa	-11.1495
▁detsembriks	-11.1499
▁tõmba	-11.1499
perioodil	-11.15
▁arutamise	-11.15
▁hoidmise	-11.1509
▁liitumise	-11.1511
stunud	-11.1514
▁tundma	-11.1517
▁realiseeri	-11.1519
▁ülikool	-11.1519
▁volituste	-11.152
▁ost	-11.152
▁viidanud	-11.1521
▁kipub	-11.1524
▁millistel	-11.1524
▁pakett	-11.1524
▁saadikut	-11.1526
▁vähendatakse	-11.1526
▁traditsiooni	-11.1526
▁koja	-11.1528
▁direktor	-11.1528
▁unustada	-11.1531
▁välispoliitilis	-11.1531
▁alustanud	-11.1531
▁väljendada	-11.1531
▁kokkulepete	-11.1536
▁maksutulu	-11.1536
▁sotsid	-11.1537
▁pikki	-11.1538
▁süürias	-11.1543
▁koormust	-11.1545
pan	-11.155
▁küsimustest	-11.155
mehhanism	-11.1551
▁üksteist	-11.1553
vastus	-11.1555
▁pinnalt	-11.1556
▁kuritegevuse	-11.1557
▁tähtsad	-11.1557
seadustiku	-11.1559
▁numbrite	-11.1563
täna	-11.1566
▁varja	-11.1567
▁poliit	-11.1569
▁kahetsusväärne	-11.157
▁peeti	-11.157
▁migratsiooni	-11.1571
▁talituse	-11.1571
▁sobiv	-11.1573
▁liha	-11.1573
▁suhteid	-11.1574
▁haru	-11.1575
▁õnn	-11.1577
▁vastuvõtmine	-11.1577
▁käitunud	-11.1579
▁lõpetamist	-11.1579
▁motiveerida	-11.1579
▁parandama	-11.1579
▁seadusandlik	-11.1582
▁õpivad	-11.1583
suguse	-11.1585
▁asuva	-11.1586
▁arupärimises	-11.1586
▁jätkuks	-11.1586
▁lõpule	-11.1588
▁elav	-11.1588
▁illegaalse	-11.159
▁konteksti	-11.159
▁reegel	-11.1592
▁toetatakse	-11.1593
▁julgeolekut	-11.1593
tehingu	-11.1593
▁linnades	-11.1598
▁asjaolude	-11.1599
euro	-11.16
gustatud	-11.1608
▁juhtima	-11.1608
▁juhtuma	-11.1614
▁järgmises	-11.1617
▁tegelikku	-11.1617
küsimusi	-11.1617
pakk	-11.1618
▁kiiret	-11.1622
▁tegev	-11.1623
▁vaieldamatult	-11.1624
▁näitama	-11.1625
▁jõustumist	-11.1625
▁tegevusest	-11.1626
▁visa	-11.1628
▁paindlik	-11.1629
▁puhkuse	-11.1631
▁lubaduse	-11.1633
▁lihtsama	-11.1634
▁võlakoormus	-11.1635
haridus	-11.1638
▁anvelti	-11.1642
▁asjasse	-11.1645
▁seisnud	-11.1645
▁valve	-11.1647
▁kokkuleppeid	-11.1647
vel	-11.1651
▁sport	-11.1654
▁loobuma	-11.1657
leppes	-11.1658
ndama	-11.1658
kommunikatsiooni	-11.1658
▁kujutan	-11.1659
▁kohalt	-11.1663
▁mine	-11.1668
keti	-11.1669
▁arusaadava	-11.1673
▁prantsuse	-11.1673
▁jõhvi	-11.1673
▁alampalga	-11.1673
▁moraalse	-11.1674
▁õieti	-11.1674
▁finantseerimis	-11.1676
▁16-	-11.1676
▁nõrk	-11.1677
▁70%	-11.1677
▁sellekohase	-11.1677
▁hädaolukorra	-11.1681
▁keskkond	-11.1681
tut	-11.1682
▁kehtestanud	-11.1682
▁selja	-11.1682
▁rakendub	-11.1682
▁toetaja	-11.1683
▁puutunud	-11.1684
▁alandada	-11.1684
▁läheneda	-11.1687
▁parandab	-11.1687
▁sil	-11.1688
▁kaaluma	-11.1688
▁keskel	-11.1689
▁lühema	-11.1694
▁osalemine	-11.1696
▁poolteise	-11.1698
igor	-11.17
▁statistikaameti	-11.1706
▁taotlema	-11.1712
▁vir	-11.1714
ette	-11.1716
▁elamisluba	-11.1716
▁hääled	-11.1716
kasutuse	-11.1717
rb	-11.1723
▁võõr	-11.1724
▁deklareeri	-11.1725
▁menetleja	-11.1725
▁aktuaalne	-11.1725
▁eelkäija	-11.1725
▁esitle	-11.1725
vene	-11.1725
▁tapa	-11.1726
▁lugedes	-11.1728
▁trendi	-11.1728
▁lihtsustatud	-11.173
mised	-11.1735
▁detailselt	-11.1735
used	-11.1736
▁kaasamine	-11.1736
▁arusaadavalt	-11.1739
▁partneri	-11.1741
▁kirjeldada	-11.1743
▁neljapäevast	-11.1743
▁järk	-11.1744
▁kriteeriumi	-11.1744
▁takistus	-11.1751
▁mati	-11.1752
▁sala	-11.1753
ost	-11.1754
▁osaluse	-11.1757
▁valva	-11.1757
▁mark	-11.1758
▁valusa	-11.1758
▁energeetika	-11.176
nna	-11.1761
▁sõnavõttude	-11.1762
▁vastupidine	-11.1764
ettepanekuga	-11.1768
kahju	-11.177
▁initsiatiiv	-11.1771
▁kehtivate	-11.1773
▁riigikantselei	-11.1777
▁säärane	-11.1777
▁veerand	-11.1777
▁märksõna	-11.1777
▁okei	-11.1778
▁pidu	-11.1778
▁suurest	-11.1781
▁2004.	-11.1783
▁vajalikku	-11.1784
▁valitsusest	-11.1785
▁arusaamise	-11.1786
oot	-11.1788
▁lõigu	-11.1789
▁sõerdi	-11.1789
▁eeldame	-11.1789
must	-11.1792
ettevõtted	-11.1792
▁võimaldavad	-11.1796
▁viivad	-11.1799
▁lange	-11.18
▁kao	-11.1802
▁garantiid	-11.1803
▁oi	-11.1806
▁asjades	-11.1806
▁langus	-11.1807
▁laekuva	-11.1808
▁järgneva	-11.1809
▁sündis	-11.181
sada	-11.1811
▁toobali	-11.1815
umi	-11.1815
▁informeeri	-11.1816
▁kahane	-11.1817
▁mõjusid	-11.1818
▁järeldused	-11.1818
▁piirmäära	-11.1821
▁rahvasaadikute	-11.1823
▁süüdistus	-11.1823
eerik	-11.1824
▁alender	-11.1829
▁õunapuu	-11.1829
▁eriarstiabi	-11.183
▁jõustus	-11.183
alade	-11.1836
ema	-11.1838
▁hääletamine	-11.1839
▁lahendatakse	-11.184
▁kaudselt	-11.184
▁kehtestab	-11.1842
▁abinõu	-11.1842
teadus	-11.1842
ndamist	-11.1844
seisu	-11.1845
▁valimisel	-11.1846
▁vanade	-11.1849
▁arutades	-11.1849
▁tallinnasse	-11.1849
firmade	-11.1851
▁piirkonda	-11.1852
▁pevkuri	-11.1853
▁inimesega	-11.1854
vabandust	-11.1857
▁kujundamisel	-11.1858
▁kindlust	-11.186
▁vedaja	-11.1861
▁noh	-11.1864
▁tii	-11.1867
▁hel	-11.1868
▁defineeri	-11.1869
▁menetlema	-11.1871
▁traditsioonilis	-11.1872
▁omandamise	-11.1875
▁juriidiliste	-11.1875
▁kompenseeri	-11.1875
▁panete	-11.1876
▁hambaravi	-11.1877
▁tiit	-11.1879
▁südametunnistus	-11.188
sekretär	-11.1882
▁ideoloogia	-11.1882
▁tõlgi	-11.1882
▁võlakirju	-11.1882
ktsioon	-11.1884
meid	-11.1885
▁afganistanis	-11.1886
▁nõuavad	-11.1888
▁käsitletakse	-11.1888
▁avaldust	-11.1889
▁panustanud	-11.1891
▁kehtestamine	-11.1892
▁tarbimis	-11.1893
nute	-11.1894
▁tegude	-11.1895
stanud	-11.1895
▁algselt	-11.1895
▁riigikogul	-11.1897
▁masina	-11.1898
▁tööaja	-11.1902
▁vestlus	-11.1904
▁abiks	-11.1904
▁esitamiseks	-11.1905
▁tehnilised	-11.1907
▁koonda	-11.1909
▁põhjuseid	-11.1911
▁3000	-11.1912
riski	-11.1913
▁autonoomia	-11.1913
▁laekumine	-11.1915
▁pidamise	-11.192
▁heal	-11.1923
▁sõnastuse	-11.1923
▁tagasisidet	-11.1925
▁rakendamiseks	-11.1925
▁merendus	-11.1929
▁piire	-11.1931
jon	-11.1933
▁analüüside	-11.1933
▁leidsid	-11.1935
▁kiirem	-11.1935
▁loogikast	-11.1935
▁lugesite	-11.1936
▁ühiskondlik	-11.1938
▁mõistlikud	-11.194
▁hä	-11.194
▁paranenud	-11.1941
▁poliitiku	-11.1941
▁11,	-11.1945
▁ettevaatlik	-11.1945
pärast	-11.1946
▁sätestada	-11.1948
▁kohtumine	-11.1949
▁jäätmete	-11.1953
▁majanduslikku	-11.1959
pere	-11.1961
▁hinnatakse	-11.1962
▁kohtumenetluse	-11.1964
▁asjaolud	-11.1965
▁tervitatav	-11.1966
▁teistsugust	-11.1967
▁alanud	-11.1968
▁lahendamisel	-11.1973
▁muutused	-11.1973
▁lenda	-11.1977
▁ähvarda	-11.198
▁mikrofoni	-11.1982
▁ühiskondliku	-11.1982
▁maksumäära	-11.1986
▁rahvusvahelised	-11.1987
▁kolmandate	-11.1988
turul	-11.1988
▁kukkunud	-11.1988
▁kaitsevägi	-11.199
▁miljoneid	-11.199
▁päevakorrast	-11.1992
▁edendamise	-11.1994
▁langeta	-11.1994
püü	-11.1995
▁maksustada	-11.1995
▁küti	-11.1998
▁katteks	-11.1999
▁täidavad	-11.2
▁endaga	-11.2001
▁tegutsemise	-11.2001
▁organi	-11.2002
laenu	-11.2007
▁kohtuotsus	-11.2008
▁liigu	-11.201
võimet	-11.2011
▁kallale	-11.2015
▁kahjulik	-11.2015
▁minagi	-11.2017
▁maakondade	-11.2018
▁kiir	-11.2019
▁vaimu	-11.202
▁ase	-11.202
sem	-11.2024
▁määratle	-11.2029
▁karja	-11.2029
▁gümnaasiumis	-11.2032
tingimuste	-11.2033
▁kontakti	-11.2035
▁täieliku	-11.2035
▁operatsioonil	-11.2037
▁analüüsitud	-11.2038
▁läbipaistev	-11.2042
▁stabiilse	-11.2042
▁skais	-11.2042
▁säärase	-11.2042
▁punase	-11.2042
▁vastuvõtu	-11.2042
▁valituks	-11.2042
tänane	-11.2045
▁vähenema	-11.2045
▁juhtimine	-11.2046
▁vastasel	-11.2048
▁maini	-11.2049
▁võtmes	-11.2053
▁tänava	-11.2054
▁nimetab	-11.2057
▁heid	-11.2063
▁kaitseliit	-11.2065
▁seisundi	-11.2066
▁trassi	-11.2068
praktika	-11.2069
▁tänaval	-11.207
▁euroopasse	-11.2073
▁mõningate	-11.2075
▁reservid	-11.2076
▁graafiku	-11.208
▁väe	-11.2081
▁plaanib	-11.2083
nuks	-11.2086
▁sotsiaalsed	-11.2087
strateegiat	-11.2091
tootmise	-11.2091
▁ennetus	-11.2092
▁vaate	-11.2093
▁iseseisvuse	-11.2094
▁minnes	-11.2095
▁lammuta	-11.2095
▁tõlke	-11.2095
▁esmatasandi	-11.2096
▁laena	-11.2098
▁liigi	-11.2101
▁märkuse	-11.2102
▁õpilasi	-11.2103
▁toetusrühma	-11.2104
▁konventsiooniga	-11.2104
▁vastutama	-11.2107
▁hääletab	-11.2107
▁jõuka	-11.2109
▁neljapäeval	-11.2109
▁ammendava	-11.211
▁pensione	-11.211
pensioni	-11.2116
▁maaelukomisjon	-11.2118
▁direktori	-11.2121
▁pankroti	-11.2122
keelse	-11.2127
vabaduse	-11.2127
olukorras	-11.2129
atu	-11.213
▁arvestatav	-11.2134
▁fikseeri	-11.2137
▁ilmselge	-11.2137
▁nutika	-11.2137
programm	-11.2138
▁makstava	-11.2143
▁mõelge	-11.2145
▁moment	-11.215
▁omandireformi	-11.215
▁märgata	-11.2151
▁vajuta	-11.2152
▁konto	-11.2153
▁kahepoolse	-11.2154
▁selgitus	-11.2154
▁järgneb	-11.2154
▁võistlus	-11.2156
▁kaheksas	-11.2156
▁sõitma	-11.2157
▁vahend	-11.2157
▁registreerida	-11.2159
▁kasutamiseks	-11.2159
▁avaldamise	-11.2159
▁kuuleme	-11.2159
▁savisaare	-11.216
▁kokkuhoiu	-11.216
▁pria	-11.2161
▁nimetame	-11.2162
▁meeldiv	-11.2163
▁suurusega	-11.2165
liik	-11.2166
▁ok	-11.2166
▁sotsiaalsete	-11.2171
▁loom	-11.2172
▁ametnikke	-11.2174
turgu	-11.2177
▁põhiõiguste	-11.2179
▁tutvustama	-11.2181
▁tuhandete	-11.2184
▁poliitilises	-11.2185
▁mõningad	-11.2185
▁vajalike	-11.2187
sfääri	-11.2187
▁teo	-11.2188
▁lihtsusta	-11.2189
▁valijad	-11.2191
▁lahkumise	-11.2192
▁saamine	-11.2198
▁paljudest	-11.2201
selge	-11.2203
▁sõnavõtusoove	-11.2204
kursus	-11.2204
▁kodulehel	-11.2204
kool	-11.2208
▁käsitles	-11.2209
▁saamist	-11.221
▁kõrgemad	-11.2211
▁kavanda	-11.2212
toetused	-11.2213
▁ainsa	-11.2213
▁nimetati	-11.2213
▁eksisteerib	-11.2214
▁karistada	-11.2215
▁esimesest	-11.2215
▁sügise	-11.2216
▁tõusis	-11.2218
▁sadam	-11.222
▁lõpliku	-11.222
▁prioriteete	-11.222
▁partsi	-11.2223
▁seltskond	-11.2225
▁nägemus	-11.2225
▁saadi	-11.2225
▁märki	-11.2226
teiseks	-11.2226
▁pikas	-11.2227
mida	-11.2229
▁kannatanu	-11.2232
▁kaitsevõime	-11.2233
▁leevenda	-11.2233
▁saarte	-11.2237
vaat	-11.2238
▁minuga	-11.224
▁majandusaasta	-11.224
▁uuel	-11.2243
▁andrei	-11.2244
▁venemaalt	-11.2247
▁visiooni	-11.2251
▁kohalda	-11.2252
▁õpetamise	-11.2254
▁juhata	-11.2258
▁linnavolikogu	-11.2258
▁tõstetud	-11.2258
▁hukku	-11.2259
▁rikkus	-11.2259
▁riikidel	-11.226
sead	-11.2262
vahelise	-11.2265
▁bre	-11.2266
▁maksustamine	-11.2266
viru	-11.2266
▁ts	-11.2267
▁baasil	-11.2268
▁ootan	-11.227
▁mõttega	-11.227
▁hoiame	-11.227
▁küsivad	-11.2271
▁õpet	-11.2272
▁kuritarvita	-11.2272
▁kaitsepolitsei	-11.2273
▁puudujääk	-11.2274
▁lähemale	-11.2281
▁kõrgkooli	-11.2281
kli	-11.2283
▁meelel	-11.2284
▁hindamine	-11.2284
rin	-11.2286
▁rünnaku	-11.2287
▁lubati	-11.2287
juhid	-11.2291
lõivu	-11.2291
▁oudekki	-11.2293
▁vähese	-11.2295
▁sarnase	-11.2295
▁parane	-11.2295
▁liiguta	-11.2295
▁memorandumi	-11.2302
▁liikumis	-11.2304
▁jagama	-11.2304
▁tihe	-11.2304
▁viisa	-11.2305
▁riskide	-11.2306
▁pensionifondide	-11.2308
▁kiirlaenu	-11.2308
▁mõjuga	-11.2308
▁narko	-11.231
▁ametliku	-11.2312
▁tuleksid	-11.2314
▁afganistani	-11.2316
▁staatus	-11.2317
sama	-11.232
toodete	-11.2321
▁lõpetas	-11.2324
rdi	-11.2326
▁summade	-11.2326
▁peaministrina	-11.2326
▁teele	-11.2328
▁partnerid	-11.2328
▁võidu	-11.233
▁õpib	-11.2331
▁arvestame	-11.2331
▁sellistes	-11.2332
▁käiku	-11.2333
hooldus	-11.2333
▁lapsetoetust	-11.2335
▁vaesus	-11.2335
konda	-11.2337
▁põllumajanduses	-11.2338
▁pensionärid	-11.2339
organisatsioon	-11.2341
▁üritus	-11.2342
▁läbiviimise	-11.2343
lõpetuseks	-11.2346
auväärt	-11.2346
valimised	-11.2347
▁õigusega	-11.2347
arno	-11.2349
▁lubaduste	-11.2351
ühe	-11.2357
▁probleemist	-11.2357
▁tulenev	-11.2358
▁valikut	-11.236
▁lähemal	-11.2361
missiooni	-11.2363
dokument	-11.2365
▁liht	-11.2366
▁vastastikuse	-11.2369
▁tarbeks	-11.2369
▁võrdlemisi	-11.2369
▁raamatukogu	-11.237
▁dividende	-11.2371
▁rikutud	-11.2373
▁perspektiiv	-11.2378
▁kordades	-11.2381
järvel	-11.2381
▁arusaamist	-11.2381
▁laiemas	-11.2383
▁tehingu	-11.2384
▁ne	-11.2384
▁kaamera	-11.2385
kaaslaste	-11.2386
imise	-11.2386
muse	-11.2386
▁haridusministri	-11.2389
▁mõistagi	-11.2393
tamisel	-11.2395
▁küsisid	-11.2402
päevakorra	-11.2402
▁tra	-11.2408
pra	-11.2409
▁hektari	-11.2412
▁tulubaas	-11.2419
▁ruumis	-11.242
▁tehnilisi	-11.2424
▁oü	-11.2424
▁inflatsiooni	-11.2427
▁naabrite	-11.2428
▁lepiti	-11.2428
▁eduka	-11.2428
▁raskem	-11.2429
▁täiendatakse	-11.243
▁põhjendused	-11.2431
▁kättesaadavaks	-11.2435
▁miinuses	-11.2435
▁neis	-11.2437
▁sõnastatud	-11.2439
▁sissetulekud	-11.244
▁arvestab	-11.2446
▁kümneminutilist	-11.2447
▁algatamise	-11.2449
▁toetu	-11.2452
vahetus	-11.2454
▁näpuga	-11.2454
nnu	-11.2458
▁protseduurilise	-11.2459
▁rumal	-11.2461
▁protsessid	-11.2461
ris	-11.2461
▁ühenda	-11.2461
▁suhetes	-11.2462
▁tõsiseid	-11.2464
▁paiguta	-11.2467
▁prognoosida	-11.2467
▁maakond	-11.2468
▁vastasid	-11.2472
▁tähelepanek	-11.2473
mudeli	-11.2474
▁tugevama	-11.2475
▁kohalikus	-11.2478
▁päevakorral	-11.2479
▁november	-11.248
▁sümpaatne	-11.248
▁väino	-11.248
▁erimärgistatu	-11.248
▁krimmi	-11.248
▁tavapärane	-11.2481
▁praegusest	-11.2481
▁suurde	-11.2482
▁lisavahendeid	-11.2483
▁tempo	-11.2483
▁analüüsima	-11.2483
▁suhte	-11.2484
▁tasuvus	-11.2484
▁õnnetu	-11.2484
▁kuulge	-11.2485
▁struktuurne	-11.2485
▁suurendatakse	-11.2489
▁mõjud	-11.2493
▁reforme	-11.2493
▁keskenduda	-11.2497
▁võrdsus	-11.2501
▁probleemidest	-11.2501
▁kolmapäevast	-11.2502
ühendus	-11.2507
iimi	-11.2514
▁algse	-11.2518
kaaslased	-11.252
▁ülesannet	-11.2523
▁osalusega	-11.2524
▁rikas	-11.2525
▁pikhofi	-11.2527
▁täiskasvanute	-11.253
▁kauge	-11.2531
▁usalduse	-11.2534
▁liita	-11.2535
▁aastakümneid	-11.2536
▁läbivaatamise	-11.2536
▁mandri	-11.2536
▁elatisraha	-11.2537
▁elektrienergia	-11.2537
▁lisatakse	-11.2537
▁kergem	-11.2537
▁elanikke	-11.2537
▁miinimumpalga	-11.2537
täienduskoolitus	-11.2537
▁harva	-11.2538
häire	-11.2538
▁haldamise	-11.2539
sotsiaal	-11.2543
▁ametikoha	-11.2548
▁remondi	-11.2549
▁ühendust	-11.2549
▁juhtkond	-11.2551
▁tagasimakse	-11.2551
▁hoolda	-11.2551
▁kutsunud	-11.2551
menetlust	-11.2552
▁operatsioonide	-11.2552
▁teisipäevast	-11.2556
▁investeeri	-11.2556
▁kaheks	-11.2557
jat	-11.2559
▁kasutamata	-11.256
▁kadu	-11.256
▁tehniliselt	-11.2561
▁olematu	-11.2564
▁tõu	-11.2569
▁sotsiaalkaitse	-11.2572
partei	-11.2574
▁kahelda	-11.2577
▁jaanuaris	-11.2577
nõuded	-11.2578
▁rõõmusta	-11.258
▁maksukoormuse	-11.258
▁kaunis	-11.258
▁pikkuse	-11.2581
▁hinnangute	-11.2582
▁lähemalt	-11.2585
▁augusti	-11.2588
▁ülal	-11.2589
äh	-11.2592
▁optimaalne	-11.2593
▁mitmesugused	-11.2593
▁repliik	-11.2593
▁trei	-11.2593
▁suletud	-11.2593
▁liik	-11.2596
▁sissetulekuga	-11.2597
▁mured	-11.2597
eurose	-11.2597
▁kehtivat	-11.2599
▁kohtutäituri	-11.2599
järgult	-11.2602
▁tiina	-11.2602
▁juurdepääsu	-11.2603
▁dmitrijev	-11.2607
▁muresid	-11.261
▁tunnustan	-11.261
▁valmistada	-11.2615
▁huvigruppide	-11.2619
▁novembris	-11.2626
▁sisemise	-11.2627
tartu	-11.2628
ker	-11.2631
▁ilusat	-11.2632
▁adamsi	-11.2636
▁soodsama	-11.2637
▁hilisema	-11.2637
▁igaühe	-11.2637
▁võõra	-11.2638
▁stabiilsuse	-11.264
ndeid	-11.2644
▁bensiini	-11.2646
▁materjalide	-11.2646
▁maksukoormust	-11.2648
▁käesoleval	-11.2648
▁keerulise	-11.2649
eelse	-11.265
▁igatahes	-11.265
▁kolle	-11.265
▁err	-11.2651
▁kerkinud	-11.2652
▁teadvusta	-11.2652
▁rahalised	-11.2653
▁suurusjärk	-11.2653
▁pelgalt	-11.2653
▁haiglas	-11.2654
▁levita	-11.2654
tootjate	-11.2655
doktor	-11.2658
▁arendamine	-11.2658
tamisega	-11.2662
▁laari	-11.2662
▁omanikud	-11.2664
▁väiksemaks	-11.2666
▁arvutused	-11.2668
▁jagu	-11.2671
▁inimestelt	-11.2676
▁naabri	-11.2677
vastu	-11.2677
▁õppelaenu	-11.268
▁istuvad	-11.268
▁asjale	-11.2683
▁hiiumaa	-11.2685
▁väärika	-11.2685
▁tulenevate	-11.2687
korda	-11.2688
▁tõrju	-11.2689
fa	-11.269
▁avaldusi	-11.269
▁imre	-11.269
▁arusaamad	-11.2691
▁garanteeri	-11.2694
▁spetsialist	-11.2694
▁majandustegevus	-11.2694
▁mahuka	-11.2698
need	-11.2698
▁voorus	-11.27
▁lisan	-11.2703
▁ülesandeks	-11.2703
▁nimetama	-11.2706
▁veeteede	-11.2707
▁iii	-11.2707
▁koolitoidu	-11.2708
▁vältel	-11.2708
▁bio	-11.271
▁palu	-11.2711
▁küsisime	-11.2712
▁ühingu	-11.2712
▁nõustun	-11.2713
lastele	-11.2713
▁külma	-11.2714
▁tähelepaneku	-11.2714
▁jõgeva	-11.2715
ea	-11.2715
▁helistab	-11.2716
▁meenutada	-11.2717
▁liina	-11.2717
▁tutvunud	-11.2718
▁tugevam	-11.272
▁mõtlevad	-11.2721
▁lisatasu	-11.2723
▁keskuste	-11.2724
▁olekski	-11.2724
▁teemadega	-11.2727
▁väljapoole	-11.2734
kondade	-11.2736
▁puudutanud	-11.2738
kvalifitseeritud	-11.274
käik	-11.2744
▁tehtava	-11.2746
▁mobiil	-11.2751
▁esindajaid	-11.2755
▁etapp	-11.2759
▁toimivad	-11.276
▁kõrvu	-11.276
▁ülemäära	-11.2764
▁integratsiooni	-11.2764
▁vedelkütuse	-11.2764
▁sanktsioone	-11.2764
▁riigihanke	-11.2771
▁ajalooline	-11.2771
▁kolleegidel	-11.2771
▁erineb	-11.2775
▁edenda	-11.2775
▁arupärijad	-11.2775
vu	-11.2777
▁lähed	-11.278
▁kasvada	-11.2781
▁valib	-11.2781
▁saabunud	-11.2782
▁käsitlus	-11.2782
▁kinnitavad	-11.2783
aru	-11.2783
▁arvatakse	-11.2784
▁otsustest	-11.2784
tur	-11.2785
▁aegu	-11.2793
▁eemale	-11.2793
▁avab	-11.2794
▁käitumis	-11.2796
▁seotu	-11.2796
▁talviku	-11.2797
▁tõstatas	-11.2797
har	-11.2799
kuidas	-11.2803
küsimuste	-11.2808
võimsus	-11.2808
▁minut	-11.2811
▁näitajad	-11.2812
▁naer	-11.2813
kandja	-11.2815
▁roos	-11.2821
▁kuluta	-11.2821
▁ungari	-11.2822
▁topeltmaksusta	-11.2822
▁sepp	-11.2824
▁õppetoetuste	-11.2825
lit	-11.2825
▁jäätmeseaduse	-11.2828
õõ	-11.2829
▁jaota	-11.2829
hääle	-11.283
▁toetamiseks	-11.2835
lauli	-11.2837
▁otsustatakse	-11.2837
▁töötus	-11.284
▁vähendamiseks	-11.2841
nõude	-11.2842
▁vande	-11.2842
▁ammase	-11.2848
▁kande	-11.2849
andmed	-11.2849
▁tagasihoidliku	-11.285
▁õigusriik	-11.285
▁päevaks	-11.2851
▁õiget	-11.2852
▁päästa	-11.2853
▁õhus	-11.2853
▁teavet	-11.2853
ria	-11.2853
imine	-11.2855
▁idapiiri	-11.2858
▁maaülikooli	-11.2858
▁selgem	-11.286
▁vältimise	-11.2861
müügi	-11.2863
▁170	-11.2865
▁aastad	-11.2867
ase	-11.287
toodangu	-11.2871
▁avalikud	-11.288
▁asetäitja	-11.288
▁leppima	-11.288
▁kohtlemine	-11.288
demokraatlik	-11.2883
▁loomi	-11.2883
▁pikkus	-11.2883
▁hiljemalt	-11.2884
eb	-11.2884
▁peadirektori	-11.2885
▁selgitage	-11.2885
▁toru	-11.2885
tööde	-11.2886
▁langetatud	-11.2886
▁viidi	-11.2886
▁ohutu	-11.2887
valitsusliitude	-11.2887
▁maksmist	-11.2889
▁salata	-11.2889
▁kontrollib	-11.2889
▁korraldamine	-11.289
▁pöördus	-11.2891
▁ühtset	-11.2893
▁ulatusliku	-11.2895
▁uuest	-11.2896
▁volitused	-11.2896
liikide	-11.2898
▁vastupidise	-11.2899
▁nõusoleku	-11.2899
▁sporti	-11.2901
▁tehtavate	-11.2901
▁ülikoolid	-11.2906
▁reservi	-11.2907
▁tri	-11.2907
▁eralda	-11.2908
▁kõnepuldist	-11.2909
valitsus	-11.2909
▁järelduse	-11.2912
▁reaalset	-11.2912
tarbija	-11.2915
▁kaitseministri	-11.2919
▁diskuteeri	-11.2931
▁gümnaasium	-11.2932
▁rahakoti	-11.2939
▁lätti	-11.2939
▁moraali	-11.2939
▁plaanide	-11.2941
▁ammendatud	-11.2941
▁õnnestus	-11.2941
▁variante	-11.2941
▁põhikirja	-11.2942
▁osutunud	-11.2942
▁oh	-11.2944
▁lülitada	-11.2945
▁kaasettekandja	-11.2946
▁üksikud	-11.2947
konto	-11.2947
▁liitumis	-11.2948
▁tõestada	-11.2948
▁nimega	-11.2949
▁internetis	-11.2951
▁teostada	-11.2953
▁arvele	-11.2953
▁kaotavad	-11.2954
▁rahvaste	-11.2954
▁funktsioone	-11.2955
▁väärtuse	-11.2957
▁arengufond	-11.2958
▁liikmele	-11.2963
▁teistesse	-11.2966
▁reguleerima	-11.2967
▁panust	-11.2968
▁osutus	-11.297
▁liitunud	-11.2971
▁kurja	-11.2971
ruumis	-11.2971
▁odavama	-11.2973
▁tehnilist	-11.2974
plaani	-11.2974
▁avame	-11.2978
▁pöörama	-11.298
▁väärtusi	-11.2981
▁lähenemise	-11.2982
▁kaitseb	-11.2983
▁arutamiseks	-11.2986
soodustus	-11.2986
pakett	-11.2988
▁põhiküsimus	-11.2993
▁hüvitamise	-11.2995
▁tõsteti	-11.2997
▁saadeti	-11.2998
▁lähitulevikus	-11.2998
▁pidasin	-11.3001
▁ilmunud	-11.3001
investor	-11.3003
▁inimesena	-11.3003
palju	-11.3007
▁teadusministri	-11.3007
uuringute	-11.3008
rahva	-11.3009
▁jõudude	-11.3009
▁hääletamis	-11.3009
▁tänulik	-11.301
▁vähi	-11.3011
▁arvutada	-11.3011
▁hinnangud	-11.3013
▁lahendamist	-11.3014
▁sõnastada	-11.3017
▁ilmus	-11.3018
▁väiteid	-11.302
päeval	-11.3023
▁kaug	-11.3024
▁otsusta	-11.3026
lehe	-11.3026
▁väheneks	-11.3027
▁intervjuu	-11.3028
pro	-11.3029
▁hilja	-11.3031
▁väliskaubandus	-11.3032
▁kir	-11.3033
põhist	-11.3035
▁määras	-11.3039
▁antava	-11.3039
usse	-11.304
▁vastutada	-11.3042
▁jahimeeste	-11.3043
▁auk	-11.3048
▁kümnete	-11.3048
▁siseturvalisuse	-11.3049
▁mõistus	-11.3053
▁taheta	-11.3055
▁vitsut	-11.3056
kku	-11.3056
▁pakkumine	-11.3057
▁tõstnud	-11.3057
▁järeldada	-11.3057
▁räägiks	-11.3057
▁optimistlik	-11.306
▁erinevatel	-11.306
▁tulene	-11.3061
▁arvust	-11.3062
▁kinnitust	-11.3063
▁ratasele	-11.3063
▁tõlgendus	-11.3067
▁kehv	-11.3069
▁terav	-11.3069
▁tühistada	-11.3069
▁saaremaal	-11.3074
▁ühendada	-11.3077
▁arhiivi	-11.3077
asu	-11.3078
▁puudumise	-11.3081
suu	-11.3084
▁ametiühingute	-11.3091
▁matusetoetuse	-11.3091
▁usk	-11.3093
võimeline	-11.3093
▁alga	-11.3098
loomade	-11.3098
▁neto	-11.3106
▁võlakirjade	-11.3107
palk	-11.311
▁mõlemat	-11.3112
▁täiendavate	-11.3112
▁teadmised	-11.3114
▁seaduslik	-11.3115
▁ammendumiseni	-11.3116
▁ebaõiglane	-11.3116
▁katuseraha	-11.3116
▁hoitakse	-11.3116
▁tööjõudu	-11.312
▁aluste	-11.3121
kaart	-11.3124
▁tundnud	-11.3125
▁reformide	-11.3126
▁14%	-11.3127
▁tunnis	-11.3128
erakond	-11.3132
▁liiki	-11.3132
▁maksmata	-11.3138
▁järjekorrad	-11.314
▁riigiettevõtete	-11.3142
vaheline	-11.3142
▁sõnastuses	-11.3145
▁tähe	-11.3145
▁kõrged	-11.3146
keskused	-11.315
mailis	-11.3158
▁külade	-11.3169
▁hakkate	-11.3173
▁solidaarse	-11.3176
▁õigusemõistmise	-11.3176
▁koormuse	-11.3176
▁uudiste	-11.318
▁asjatundja	-11.3183
▁suveräänsuse	-11.3185
▁106	-11.3186
stame	-11.3191
tuma	-11.3192
sega	-11.3195
▁usaldust	-11.3195
ametnike	-11.3195
▁osaks	-11.3197
▁advokatuuri	-11.3198
▁teenistuses	-11.3204
pärase	-11.3204
▁joon	-11.3206
▁autori	-11.3207
deklaratsioon	-11.3208
▁eelarvele	-11.321
ok	-11.3211
▁sellisesse	-11.3213
meetmete	-11.3214
▁do	-11.3214
▁kõrgkoolide	-11.3214
võim	-11.3214
▁reguleerimise	-11.3215
▁paralleeli	-11.3215
liikmete	-11.3216
ndate	-11.3217
▁adekvaatse	-11.3223
▁õiguslikult	-11.3224
jõu	-11.3225
▁väitega	-11.3226
▁rollis	-11.3227
▁valdkonnaga	-11.3229
▁töövõimetus	-11.3231
▁võimude	-11.3232
▁soovitud	-11.3234
grupp	-11.3234
▁vaatevinklist	-11.3236
▁arutleda	-11.3236
▁hakatud	-11.3236
▁maksumuse	-11.3238
▁sõnastust	-11.3238
ifi	-11.3239
▁tanel	-11.3239
kraadi	-11.3239
▁lugupeetavad	-11.324
▁avalikkus	-11.3241
▁tõstatanud	-11.3242
▁vanaduspensioni	-11.3242
▁kutsutakse	-11.3243
▁järeldus	-11.3245
▁õppimise	-11.3246
▁kasvava	-11.3247
▁infotunni	-11.3248
▁lõpetame	-11.3249
▁id	-11.3249
▁käitub	-11.3251
▁kaotamine	-11.3253
▁meeldis	-11.3253
direktiivi	-11.3255
kordse	-11.3255
▁munitsipaalkool	-11.3256
▁programmide	-11.3259
▁ülem	-11.3259
amist	-11.3261
▁and	-11.3261
▁seksuaal	-11.3263
▁kohapealt	-11.3264
▁ressurss	-11.3265
▁võõrkeel	-11.3269
▁tõesta	-11.327
keskkond	-11.3274
näitaja	-11.3276
▁peta	-11.3279
info	-11.3282
▁130	-11.3286
▁mali	-11.3289
▁kõrvalt	-11.329
▁prognooside	-11.329
▁eksporti	-11.3292
atlandi	-11.3297
▁suitsu	-11.3297
▁tsitaat	-11.3297
▁saavutus	-11.3297
▁ametkondade	-11.3298
▁läbirääkimis	-11.3299
▁kokkuvõtte	-11.3299
▁kolleegidele	-11.33
▁peamised	-11.3301
▁vaikselt	-11.3302
▁sure	-11.3302
▁ääres	-11.3304
▁maksustatud	-11.3305
▁vabasta	-11.3305
▁mainida	-11.3306
▁julgeolek	-11.331
▁registreerunud	-11.3312
▁purga	-11.3312
komisjonil	-11.3313
▁raamat	-11.3316
▁täiskasvanu	-11.3321
▁heita	-11.3322
▁püsiva	-11.3324
▁halvad	-11.3328
▁ajab	-11.3328
rü	-11.3329
▁tagajärgi	-11.3334
▁puudutasid	-11.3334
▁regulatsioonid	-11.3334
tehnoloogia	-11.334
▁objektide	-11.3343
▁lahuta	-11.3345
▁õpiku	-11.335
▁toimusid	-11.3357
▁ajutine	-11.3358
▁tsiviilkohtu	-11.3359
▁eestimaal	-11.3359
▁kevad	-11.336
▁suunis	-11.336
▁allu	-11.3361
allika	-11.3362
▁muutust	-11.3363
▁puude	-11.3365
▁nimed	-11.3365
▁reeglina	-11.3365
▁kehtestati	-11.3367
▁andme	-11.337
▁otsese	-11.3372
▁tellida	-11.3372
▁sihtrühma	-11.3373
▁lihtsal	-11.3374
▁registrisse	-11.3375
▁lahendamine	-11.3379
▁sissetulekute	-11.338
▁rahasumma	-11.3382
▁korraldaja	-11.3383
▁loomiseks	-11.3383
▁kla	-11.3385
▁element	-11.3387
▁klaas	-11.339
kõik	-11.3393
▁lisandu	-11.3394
▁praegugi	-11.3394
olukorda	-11.3395
▁toetatud	-11.3396
▁taskust	-11.34
tatava	-11.3401
gruppide	-11.3402
põhimõtte	-11.3402
põhimõte	-11.3403
▁odav	-11.3405
vatest	-11.3408
võimalused	-11.341
▁huvidest	-11.3412
▁septembris	-11.3412
▁kuritegu	-11.3415
,5	-11.3416
ens	-11.3417
▁tõstmist	-11.3419
▁tugevasti	-11.3421
▁pakkuja	-11.3422
▁täpsustus	-11.3422
▁rõhutasin	-11.3422
erki	-11.3423
▁tugevad	-11.3429
▁moodi	-11.3429
▁valmistanud	-11.3429
▁reisijate	-11.343
▁elektriarve	-11.3431
▁sp	-11.3431
▁maale	-11.3432
▁kiirema	-11.3432
▁kuulame	-11.3433
kohas	-11.3434
ühistu	-11.3434
▁toimiva	-11.3434
▁lõiget	-11.3435
▁180	-11.3435
▁omanda	-11.3437
▁vigade	-11.3438
▁ajutiselt	-11.3438
▁raamatupidamise	-11.3441
▁lisandväärtust	-11.3442
▁mullu	-11.3443
▁testi	-11.3451
▁soovis	-11.3451
▁struktuur	-11.3452
▁kurva	-11.3453
▁kõrgemat	-11.3454
▁korteriühistute	-11.3458
▁maksusoodustus	-11.3459
▁survet	-11.346
▁kalli	-11.3463
▁an	-11.3464
▁erakondadele	-11.3465
▁18-	-11.3465
▁riigikontrolöri	-11.3467
▁kinnituse	-11.3467
piirkonna	-11.3468
▁valdava	-11.3469
▁keskse	-11.347
▁võrgustik	-11.3473
▁vesi	-11.3473
▁esmase	-11.3478
▁kohustusliku	-11.3479
▁iraagi	-11.3479
▁keskpank	-11.3481
▁pariisi	-11.3481
▁rüütli	-11.3481
▁ostetakse	-11.3481
▁ühemõtteliselt	-11.3481
▁pidev	-11.3481
▁pange	-11.3481
▁hüve	-11.3482
▁ehitatakse	-11.3487
40	-11.3487
▁üksmeelselt	-11.3487
▁paul	-11.349
▁vähenemist	-11.3491
isik	-11.3492
▁kaugusel	-11.3494
▁liitrit	-11.3495
▁ilusti	-11.3495
▁eestikeelne	-11.3495
▁materjale	-11.3496
tasid	-11.3497
▁elanikkond	-11.3498
▁töövõtja	-11.3499
▁sihtasutuste	-11.3499
▁erisus	-11.35
▁maksumuudatuste	-11.3501
▁langetama	-11.3503
▁holsmer	-11.3504
▁termini	-11.3504
▁valitsemis	-11.3506
▁venekeelsete	-11.3506
▁surnud	-11.3507
▁kriteeriumide	-11.3508
▁kreekale	-11.3509
▁rahaliste	-11.3509
▁funktsiooni	-11.351
▁pettu	-11.351
▁termin	-11.3512
▁kaduma	-11.3515
▁eerik	-11.3515
raal	-11.3518
▁autor	-11.3518
▁sissetulekut	-11.3519
▁tõhusta	-11.3519
▁katab	-11.3519
▁rääki	-11.3523
parlamendiliikme	-11.3524
▁lepinguga	-11.3526
▁taust	-11.3527
▁tagamine	-11.3528
staa	-11.3529
▁kohtumistel	-11.3531
▁individuaalse	-11.3531
▁mineva	-11.3532
▁taotluste	-11.3533
kalev	-11.3534
ringi	-11.3535
▁küber	-11.3539
▁kuri	-11.354
▁kitsenda	-11.3543
▁igapäevast	-11.3543
▁autoriteet	-11.3544
▁saaja	-11.3547
▁võlg	-11.3547
▁pinna	-11.3548
▁korraldatakse	-11.3549
ovi	-11.3549
andmist	-11.355
▁ettevõtjatega	-11.3553
▁aju	-11.3554
▁oskan	-11.3555
▁kukkus	-11.3555
▁olulisemaid	-11.3559
▁külje	-11.3561
▁elas	-11.3562
▁pomerantsi	-11.3563
▁kinnitamine	-11.3564
▁puudutav	-11.3564
▁eksperte	-11.3564
▁kerkis	-11.3565
▁kõ	-11.3566
▁teadlikud	-11.3566
kaja	-11.3568
▁pr	-11.3568
▁koefitsient	-11.357
▁velman	-11.3571
▁hetkest	-11.3572
▁käed	-11.3575
▁muutmisega	-11.3579
▁asjus	-11.3582
▁treenerite	-11.3586
▁täideta	-11.3587
▁kindluse	-11.3587
▁tasuda	-11.3588
▁jääbki	-11.3589
▁lobi	-11.3591
▁negatiivset	-11.3594
▁novembriks	-11.3597
▁keelusta	-11.3599
▁allikas	-11.3603
▁demokraatlikus	-11.3604
▁vanu	-11.3604
▁rakvere	-11.3606
▁võtsin	-11.3606
▁temaatikat	-11.3606
▁jookide	-11.3606
▁kert	-11.3608
▁autod	-11.3615
▁otsustusõigus	-11.3616
▁formaalselt	-11.3618
▁jälginud	-11.3619
▁aktsiisimäära	-11.362
▁keeruka	-11.362
▁suhtu	-11.3623
▁muudatustest	-11.3623
▁kümmekond	-11.3624
▁kitsa	-11.3627
▁lisas	-11.3635
▁rahvuse	-11.3638
asju	-11.3638
▁aktsiise	-11.3645
päraselt	-11.3646
▁taotlust	-11.3647
▁nähtav	-11.3647
▁taotlusi	-11.3648
▁lapsevanem	-11.365
▁liberaal	-11.3651
antud	-11.3652
▁register	-11.3654
▁pikaks	-11.3655
▁kohtunikud	-11.3655
▁tõsised	-11.3655
▁realiseeru	-11.3655
▁näo	-11.3655
hetkel	-11.3657
haldus	-11.3657
▁sulgemise	-11.3658
▁põhiseadusvasta	-11.3658
▁pes	-11.3662
▁estonia	-11.3664
poliitikaga	-11.3665
era	-11.3666
bo	-11.3668
▁formaat	-11.3669
▁akna	-11.3669
▁tõlgendada	-11.3669
▁tootlus	-11.3669
tro	-11.3669
▁tõuse	-11.3669
▁ivari	-11.3673
▁toimetada	-11.3676
▁lärm	-11.3677
▁mõõta	-11.368
õl	-11.368
kuritegude	-11.3682
▁läbinud	-11.3682
▁tsentraliseeri	-11.3687
▁teravalt	-11.369
▁funktsioonid	-11.3693
▁saajate	-11.3693
▁raud	-11.3695
▁juuniks	-11.3699
▁seadme	-11.3701
▁omaosalus	-11.3701
▁motivatsioon	-11.3702
▁liikmesriikides	-11.3704
▁aluseid	-11.3704
▁ruutmeetri	-11.3707
▁konsensust	-11.3709
alane	-11.3714
▁raamatupidamis	-11.3716
▁kümnes	-11.3716
riigis	-11.3719
▁väl	-11.372
▁ringkonna	-11.3722
hel	-11.3725
▁asutusi	-11.3726
tulek	-11.3727
▁järgida	-11.3728
▁märganud	-11.3732
▁propageeri	-11.3732
▁nendesamade	-11.3732
▁usaldusväärse	-11.3732
▁valgevene	-11.3732
▁viska	-11.3732
▁vajaduspõhine	-11.3733
▁keerulisemaks	-11.3734
▁visiiditasu	-11.3735
▁kvartalis	-11.3736
▁eurolt	-11.3737
▁vanemapensioni	-11.374
▁märgatavalt	-11.3743
▁menetleb	-11.3744
▁prognoosid	-11.375
0%	-11.3753
▁programmis	-11.3754
▁hoolega	-11.3755
▁sadade	-11.3757
▁saavutamise	-11.3758
tegu	-11.3763
kokku	-11.3763
▁definitsiooni	-11.3765
▁ringis	-11.3766
▁venita	-11.3767
▁ol	-11.3772
▁kaasuse	-11.3777
pet	-11.3779
liigi	-11.378
▁külg	-11.3781
▁võitluse	-11.3783
partneri	-11.3784
▁apteekide	-11.3786
▁jooksva	-11.3787
▁laske	-11.379
▁efektiivsem	-11.3792
▁väited	-11.3793
▁faasis	-11.3794
▁ebamõistlik	-11.3795
▁teehoiu	-11.3795
▁danske	-11.3795
▁tamkivi	-11.3795
▁töötajatele	-11.3796
▁andsin	-11.3797
▁paigalda	-11.38
▁vastutavad	-11.38
▁riigikeele	-11.38
▁langetati	-11.3801
▁stsenaariumi	-11.3802
▁üritatakse	-11.3805
▁tunnetus	-11.3805
analüüsi	-11.3807
▁laeku	-11.3807
▁häirib	-11.3808
▁turvalise	-11.381
▁sõltuvad	-11.381
▁nõutakse	-11.3815
▁laekumist	-11.3815
▁arvestata	-11.3817
▁tähtsama	-11.3818
madalapalgaliste	-11.3818
▁tehniliste	-11.3821
▁iseseisvalt	-11.3822
▁vajadusel	-11.3823
▁versiooni	-11.3829
▁fi	-11.3836
▁teadmiseks	-11.3837
▁suurendama	-11.3837
▁kumma	-11.3839
tasude	-11.3841
listest	-11.3841
politsei	-11.3842
▁vin	-11.3842
▁kogemust	-11.3842
puudus	-11.3843
helmen	-11.3845
▁kahele	-11.3851
▁arvamusega	-11.3852
▁ettepanekutest	-11.3853
▁probleemidele	-11.3854
▁kuuluma	-11.3857
▁võtme	-11.3857
▁keelde	-11.3857
▁taotlemise	-11.3857
▁kaudse	-11.3859
▁üldjoontes	-11.386
▁samasooliste	-11.386
▁puhkudel	-11.386
▁suudetakse	-11.386
▁territoriaalse	-11.386
▁tooni	-11.386
▁kohtuotsuse	-11.386
▁aresti	-11.386
▁tööturuteenuste	-11.3861
▁elukutse	-11.3861
▁arvanud	-11.3862
▁regulaarselt	-11.3867
väli	-11.3867
▁viiendaks	-11.3867
▁töötava	-11.3867
▁rõõmsa	-11.3868
▁kombeks	-11.3868
▁eeldused	-11.3868
▁vastutav	-11.3868
▁konkreetsemalt	-11.3869
▁tegija	-11.3869
io	-11.3875
▁suruda	-11.3875
uudi	-11.3875
▁rikkumine	-11.3877
▁ületab	-11.3877
50	-11.3879
▁palgata	-11.3881
▁vähemus	-11.3881
▁kaevanda	-11.3882
▁halvema	-11.3883
▁lasteaedade	-11.3883
▁kaela	-11.3883
▁ministeeriumil	-11.3884
▁vabad	-11.3888
▁ühi	-11.3888
for	-11.3888
all	-11.389
▁kutseõppeasutus	-11.3892
▁kitsas	-11.3893
▁lätist	-11.3894
▁hinnatõus	-11.3899
▁seonduvad	-11.3902
▁paneks	-11.3913
▁tuhanded	-11.3917
▁ajend	-11.3917
▁abivahendi	-11.392
▁muutumise	-11.3921
lõ	-11.3921
▁efektiivse	-11.3922
▁viimases	-11.3922
hääletuse	-11.3924
▁populaarse	-11.3924
▁üpris	-11.3924
▁tulge	-11.3924
▁võidavad	-11.3926
▁2030	-11.3926
▁kanada	-11.3929
sigaret	-11.393
veel	-11.393
▁kiirustades	-11.3931
▁rakendamist	-11.3931
▁areneb	-11.3935
▁huvisid	-11.3937
▁süsteemiga	-11.3937
▁vabastada	-11.3939
▁takistab	-11.3939
▁käidud	-11.394
▁koondamis	-11.3942
▁norm	-11.3947
▁2006.	-11.3952
▁huviga	-11.3955
▁tabel	-11.3956
▁kantsler	-11.3957
▁perele	-11.3958
▁tasku	-11.396
▁pädev	-11.3961
▁riigilõiv	-11.3965
▁täpsed	-11.3967
▁juhitava	-11.3969
▁autot	-11.3974
situatsioon	-11.3976
▁rajamise	-11.3976
ami	-11.3981
▁solidaarsuse	-11.3982
▁kindlus	-11.3983
▁ettevalmistuse	-11.3984
▁ulatuslik	-11.3984
▁fookuses	-11.3988
▁hindamis	-11.3988
puude	-11.3988
▁oodanud	-11.3989
▁saatkonna	-11.3989
▁põllumehi	-11.3989
sjagu	-11.399
▁revisjoni	-11.399
▁ekspert	-11.3992
▁kustuta	-11.3992
▁astmelise	-11.3995
loomulikult	-11.3996
▁saadab	-11.3997
▁menetletud	-11.3997
▁naaber	-11.3997
probleemide	-11.3998
▁erakondi	-11.3999
▁naaberriigi	-11.4
▁seisa	-11.4001
▁pööranud	-11.4001
▁augustil	-11.4003
kuju	-11.4004
▁millistes	-11.4004
▁kütus	-11.401
▁eraldamise	-11.4015
▁inimesest	-11.4016
tase	-11.4018
tund	-11.402
▁ressursid	-11.402
▁määramisel	-11.4022
jatel	-11.4022
▁põllumees	-11.4022
▁maiks	-11.4023
▁aa	-11.4023
▁otsas	-11.4024
▁metsanduse	-11.4025
arv	-11.403
▁ansipi	-11.4031
ministriga	-11.4037
▁193	-11.4038
▁selgu	-11.404
▁halvene	-11.4041
▁noortel	-11.4042
▁vahenditega	-11.4043
kokkuleppe	-11.4044
tõrje	-11.4047
kasv	-11.405
niile	-11.4051
▁sõjalisel	-11.4051
▁kalandus	-11.4052
▁etteheide	-11.4054
▁vägisi	-11.4054
▁klassikalise	-11.4054
▁vanuses	-11.406
▁julgusta	-11.4062
▁erakooli	-11.4064
▁sattu	-11.4067
▁käimas	-11.407
▁noorema	-11.4072
▁tõnisson	-11.4073
gen	-11.4073
tung	-11.4074
▁saatus	-11.4077
▁bo	-11.4079
▁kuuluv	-11.4081
▁füüsiliselt	-11.4083
▁je	-11.4085
▁mõninga	-11.4085
usele	-11.4085
▁juhtiva	-11.4087
▁reegli	-11.409
samas	-11.4091
▁kolmandast	-11.4094
▁käsitlema	-11.4095
▁solidaarsus	-11.4095
andja	-11.4096
saar	-11.4096
▁kõla	-11.4097
olukord	-11.4099
▁panite	-11.41
▁teemale	-11.41
▁sügav	-11.4101
▁ettevõtlusega	-11.4101
▁parlamendil	-11.4103
▁pühendu	-11.4104
▁vo	-11.4111
jana	-11.4111
▁suvi	-11.4112
avad	-11.4112
▁nõua	-11.4113
▁ekspertiisi	-11.4117
hinda	-11.4119
▁kasum	-11.4121
▁müüakse	-11.4121
▁sunniraha	-11.4122
▁suurenemise	-11.4123
▁küprose	-11.4123
▁silla	-11.4125
▁kuritegusid	-11.4125
▁rahvusvahelisi	-11.4126
▁turvaline	-11.4126
▁mingisuguste	-11.4133
tingimusi	-11.4133
▁alustatud	-11.4134
▁likvideerida	-11.4134
▁rehabilit	-11.4136
▁elluviimise	-11.4136
▁dividendide	-11.4137
▁lahendamata	-11.414
uuringu	-11.4141
▁käsitlevad	-11.4142
▁esmalt	-11.4142
▁riigikogusse	-11.4143
▁lepe	-11.4147
õiguslik	-11.4152
▁odavamaks	-11.4152
▁vastuseisu	-11.4154
▁väikeses	-11.4155
asja	-11.4156
▁süüa	-11.416
▁arvuga	-11.416
▁järjekordse	-11.4161
▁toota	-11.4161
▁erandid	-11.4161
▁alustama	-11.4164
▁sä	-11.417
▁vaates	-11.417
listele	-11.4171
▁väljendus	-11.4172
samuti	-11.4174
▁argumentide	-11.4178
▁kärpe	-11.4178
▁vaenu	-11.4179
▁mugav	-11.4184
▁kuku	-11.4185
▁lember	-11.4186
▁ajalukku	-11.4186
▁moskva	-11.4186
▁opereeri	-11.4186
▁austria	-11.4186
▁jäeti	-11.4186
▁lähedaste	-11.4187
▁andsime	-11.4188
▁viha	-11.4189
▁töötas	-11.419
▁tekkisid	-11.4192
▁esmane	-11.4195
▁sõlminud	-11.4196
▁eelarvenõukogu	-11.4197
▁sundi	-11.4198
▁siiras	-11.4198
▁vabatahtlikku	-11.4199
▁koostanud	-11.4199
▁komisjonipoolse	-11.42
vajaduse	-11.4201
▁kiit	-11.4202
jaks	-11.4209
▁pehmelt	-11.4209
▁tõsiasja	-11.421
▁faktide	-11.4211
▁4000	-11.4211
▁lubatakse	-11.4212
miks	-11.4212
▁kutsekooli	-11.4212
▁lolli	-11.4213
▁pensionäri	-11.4215
▁formaalse	-11.4215
▁vaesema	-11.4216
tootja	-11.4216
▁teiegi	-11.4216
▁märtsis	-11.4217
▁asjaoma	-11.4221
▁teadete	-11.4222
▁kahtlusi	-11.4223
▁kõrgemate	-11.4225
▁kohaldamise	-11.423
▁kel	-11.423
usid	-11.423
▁tootmine	-11.423
keele	-11.4233
▁eksida	-11.4238
▁lang	-11.4238
▁projektid	-11.4238
▁ülevõtmise	-11.4239
▁täpse	-11.4239
võrk	-11.4239
olukorra	-11.4241
▁väiksemaid	-11.4242
▁riikidesse	-11.4244
▁kõrgelt	-11.4244
▁vajadused	-11.4245
▁ühend	-11.4245
▁pikemas	-11.4247
▁89	-11.4249
▁esialgne	-11.4253
▁ignoreeri	-11.4253
▁ülle	-11.4253
▁hoidnud	-11.4253
▁iirimaa	-11.4253
▁jätmise	-11.4253
▁valitsemisalas	-11.4254
▁liikmetelt	-11.4254
üli	-11.4254
▁tehtavad	-11.4254
▁ravimeid	-11.4255
▁tublisti	-11.4255
▁sõnavõtja	-11.4256
▁toimetulekut	-11.4257
▁otsetoetuste	-11.4257
▁lennundus	-11.4257
▁nominaalse	-11.4261
▁realiseerida	-11.4263
▁registrite	-11.4264
▁kevade	-11.4264
▁takistada	-11.427
▁ametikohtade	-11.427
▁valgus	-11.4271
▁lahkuvad	-11.4271
▁vajadusi	-11.4272
▁kukk	-11.4274
▁kaalunud	-11.4274
▁mindud	-11.4276
▁püüa	-11.4277
▁jaanuariks	-11.4279
▁regulatsioone	-11.4284
▁oktoobriks	-11.4284
30	-11.4285
▁huvihariduse	-11.4287
▁kor	-11.4289
poliitiliste	-11.4289
itud	-11.4291
▁soovid	-11.4293
▁osapoole	-11.4295
kindlus	-11.4298
▁ootused	-11.43
▁kontseptsioon	-11.4302
▁keerulised	-11.4305
▁radikaalse	-11.4306
▁seisukohaga	-11.4306
▁poliitilisest	-11.4307
▁konkreetsele	-11.4309
▁2010	-11.431
▁õppi	-11.4311
aastalt	-11.4314
▁spetsialiseeru	-11.432
▁tahtis	-11.432
▁vaiki	-11.432
▁unistus	-11.4321
organ	-11.4322
▁nõudma	-11.4322
▁uurima	-11.4322
▁õiguslikku	-11.4323
▁valminud	-11.4324
▁hiv	-11.4324
▁kuulutada	-11.4328
▁lapsel	-11.4329
▁vähendamist	-11.4333
ism	-11.4334
▁kindlustada	-11.4335
▁toetava	-11.4337
▁proovime	-11.4338
▁sünnipäeva	-11.4339
ministrilt	-11.434
▁mäe	-11.4344
▁sigade	-11.4349
▁eesmärgist	-11.4349
▁kaasneva	-11.435
▁lähtuvad	-11.4351
▁lauset	-11.4352
▁tarbijale	-11.4358
▁kil	-11.4358
▁sellistest	-11.4361
▁aktiivsed	-11.4362
▁veebruaris	-11.4362
per	-11.4364
▁agressiooni	-11.4367
▁valijatele	-11.4368
▁regioonis	-11.4371
▁suuremates	-11.4371
▁toimingute	-11.4373
lepingut	-11.4377
▁terrorismi	-11.4377
▁teisipäeval	-11.4378
▁ühinemist	-11.438
kohe	-11.438
▁seonduva	-11.4383
▁stimuleeri	-11.4388
▁2014–2020	-11.4388
▁elementaarne	-11.4388
▁kütteõli	-11.4388
▁vajaks	-11.4388
▁otsekohe	-11.4389
▁luure	-11.4389
▁tüli	-11.4389
▁tulete	-11.4391
▁süva	-11.4393
▁vastupidist	-11.4394
▁sendi	-11.4396
▁7%	-11.4397
▁koondada	-11.4398
omanikke	-11.44
▁algust	-11.44
▁suurendamist	-11.4403
▁osapooli	-11.4403
kuul	-11.4407
▁läänemaa	-11.441
▁lahkuda	-11.4411
▁eriarsti	-11.4412
kaupa	-11.4414
▁kõrgemal	-11.4415
▁otsustamise	-11.4415
▁aktuaalse	-11.4419
lgeolekunõukogu	-11.442
▁hooldaja	-11.4421
▁kattu	-11.4423
▁ebaseadusliku	-11.4424
▁mainisid	-11.4428
nõue	-11.4428
▁jätkusuutliku	-11.4431
▁hääletage	-11.4432
mur	-11.4432
▁lao	-11.4434
▁hüvita	-11.4435
▁stsenaarium	-11.4436
õpet	-11.444
▁sarnased	-11.4441
▁tühjaks	-11.4444
▁soosaar	-11.4444
dokumendi	-11.4444
kandidaadi	-11.4445
▁harjumaa	-11.445
▁faktid	-11.445
▁lapsetoetuste	-11.445
▁tellija	-11.4451
▁langi	-11.4451
▁järve	-11.4452
▁vastanda	-11.4452
ettevõtjate	-11.4453
▁tutvustasid	-11.4453
▁väärtused	-11.4454
▁positiivsed	-11.4455
▁arvatavasti	-11.4456
▁erakorraline	-11.4456
▁kõikvõimalike	-11.4456
▁läbivaatamist	-11.4456
▁vihja	-11.4456
▁enama	-11.4456
tarbe	-11.4457
▁pankrotti	-11.4457
▁üldises	-11.4458
tusest	-11.4462
▁lähtutakse	-11.4462
toote	-11.4462
▁töörühm	-11.4463
▁luban	-11.4465
▁hääletanud	-11.4466
▁lõpetades	-11.4466
▁julgelt	-11.4467
▁väljaõpe	-11.4469
▁kavatseme	-11.4471
▁teenitud	-11.4471
ohu	-11.4472
▁meiega	-11.4472
▁nendelt	-11.4473
▁poliitikast	-11.4473
▁jagan	-11.448
▁veebruar	-11.4481
▁usume	-11.4486
▁autosid	-11.4486
▁saabub	-11.4487
▁arvestatava	-11.4487
▁eelistus	-11.4487
▁vajaduspõhist	-11.4489
▁summast	-11.4489
tunne	-11.4489
▁laen	-11.449
▁vastamist	-11.449
▁ajakirjanik	-11.4491
▁võimule	-11.4493
▁esitajate	-11.4493
▁palku	-11.4493
tunnistus	-11.45
▁käsk	-11.4501
▁kasutas	-11.4501
▁apteek	-11.4501
▁suhtlemise	-11.4503
▁rääkige	-11.4503
võimalus	-11.4505
▁ühiskonnast	-11.4506
▁meedet	-11.4506
▁haridusliku	-11.4509
▁lubate	-11.4511
rvishoiuteenuse	-11.4511
▁lemmik	-11.4512
tasin	-11.4512
▁üksiku	-11.4512
▁detailse	-11.4515
saladus	-11.4515
▁vaimus	-11.4516
▁soodus	-11.4516
▁keeld	-11.452
▁saadiku	-11.452
▁muretsema	-11.4522
▁kvoot	-11.4522
▁kõikvõimalikk	-11.4524
▁säärast	-11.4524
▁remonti	-11.4525
▁tagatise	-11.4525
▁ütlemata	-11.4525
▁peatükk	-11.4526
▁alammäära	-11.4526
▁ületada	-11.4526
▁hoogu	-11.4527
▁märkisite	-11.4527
protseduuri	-11.4529
▁informeeritud	-11.4531
▁üleandmine	-11.4533
▁kanti	-11.4535
spetsialist	-11.4538
▁usaldada	-11.4551
▁elluviimiseks	-11.4551
▁enamikul	-11.4551
baasi	-11.4553
▁kinnita	-11.4557
▁tegevväelase	-11.4557
▁aktsia	-11.4558
likus	-11.4559
▁koka	-11.4562
▁selgitust	-11.4562
▁keelu	-11.4566
▁majanduskriisi	-11.4567
asid	-11.4568
▁aktsiisid	-11.4569
▁rahastatud	-11.4569
▁paremal	-11.457
▁jälgima	-11.4571
▁6%	-11.4573
▁majandusse	-11.4578
▁seaduseelnõude	-11.4578
sisese	-11.4582
kvaliteet	-11.4585
▁tõendi	-11.4585
▁kavandatava	-11.4586
▁analüüsis	-11.4587
▁peadirektor	-11.4589
võtmist	-11.459
▁põgene	-11.4593
▁välismaalase	-11.4594
▁õiguses	-11.4595
▁tervishoidu	-11.4597
▁tõstmiseks	-11.4599
▁maininud	-11.4601
töötuskindlustus	-11.4602
▁kirjutatakse	-11.4604
▁töövõimega	-11.4606
▁rumalus	-11.4607
▁jääksid	-11.4608
▁viitate	-11.4608
▁televisiooni	-11.4611
projektide	-11.4612
▁otsime	-11.4612
▁sisulised	-11.4612
joon	-11.4612
▁toimida	-11.4613
▁seisne	-11.4618
▁ülla	-11.4618
▁näpu	-11.4626
▁puudumine	-11.4628
▁kindlustunnet	-11.463
▁töötatakse	-11.4631
▁meetod	-11.4633
organite	-11.4635
13	-11.4636
▁sildista	-11.4637
▁täiskasvanud	-11.4643
▁aruteludes	-11.4647
▁kavatsus	-11.4648
ütle	-11.4652
▁pidurda	-11.4655
▁halvenda	-11.4655
käe	-11.4655
▁prioriteetse	-11.4661
▁vms	-11.4663
▁kärbi	-11.4663
kõ	-11.4663
▁jõustada	-11.4666
▁ühtepidi	-11.4667
▁erasektoris	-11.4667
▁loogilise	-11.4668
▁198	-11.4669
aastaseks	-11.4669
▁esitasite	-11.467
▁peretoetus	-11.4671
▁visioon	-11.4672
▁edendada	-11.4672
▁katma	-11.4673
▁detaile	-11.4673
▁uudiseid	-11.4675
▁sellessamas	-11.4676
▁aruteludel	-11.4676
▁pensionifondi	-11.4677
▁tegeles	-11.468
▁instituut	-11.468
▁teadmata	-11.4681
▁valgusta	-11.4682
laev	-11.4682
▁pikendamise	-11.4685
▁süüdistada	-11.4685
▁vaimse	-11.4685
▁kinnipidamis	-11.4686
▁muudeta	-11.4686
▁maavalitsus	-11.4688
▁halduskoormust	-11.4688
uv	-11.469
▁üheksas	-11.4692
numbri	-11.4692
▁kabineti	-11.4692
▁ametkond	-11.4692
▁mainet	-11.4693
▁piisavad	-11.4693
▁peeta	-11.4694
▁osalemist	-11.4696
▁metsas	-11.4698
▁töötajat	-11.4698
▁erandite	-11.4699
▁küsitluse	-11.4701
▁hanso	-11.4703
▁etapi	-11.4704
▁massi	-11.4706
▁kõnelema	-11.4706
▁soodsa	-11.4709
ministeeriumilt	-11.4712
▁korraldamisel	-11.4714
▁esimeste	-11.4714
▁eluaseme	-11.4715
▁kuritegevus	-11.4715
▁finantseeri	-11.4717
▁annetus	-11.4717
▁turistide	-11.4719
▁sündimus	-11.4719
▁maksimaalse	-11.472
▁ohtliku	-11.4725
▁valmistas	-11.4727
▁tehingute	-11.4729
▁ruttu	-11.4733
▁inimarengu	-11.4733
▁uurimus	-11.4733
▁rahvaerakond	-11.4735
▁lõhk	-11.4736
▁kogumise	-11.4737
konverentsil	-11.4739
▁kukub	-11.4741
▁selgitan	-11.4743
▁haritud	-11.4743
▁erinevused	-11.4743
▁efekti	-11.4744
▁venemaale	-11.4745
▁160	-11.4747
▁väljastamise	-11.4748
rake	-11.4749
päi	-11.4751
▁alustab	-11.4752
▁üllata	-11.4752
▁kasutata	-11.4754
▁teostamise	-11.4756
kriisi	-11.4757
▁tuttav	-11.4757
▁pääseda	-11.4759
▁tegutseva	-11.476
▁sissejuhatuses	-11.476
▁viljandis	-11.4762
▁mõistlikku	-11.4766
▁akt	-11.4771
▁eksin	-11.4771
▁for	-11.4772
delt	-11.4773
▁rahvasaadiku	-11.478
▁ettevõtetel	-11.4785
õpe	-11.4785
▁väärtust	-11.4787
▁ürituse	-11.479
ametnikud	-11.4792
▁vastuvõetav	-11.4792
▁samasugused	-11.4792
kesk	-11.4793
▁teistega	-11.4793
▁vere	-11.4797
▁riku	-11.4798
▁tänaseni	-11.4798
▁seonduvat	-11.48
lanikkonnakaitse	-11.4801
kahjude	-11.4801
▁sealhulgas	-11.4803
▁suhelnud	-11.4803
▁külva	-11.4803
▁segamini	-11.4803
▁referendumi	-11.4804
▁kuuga	-11.4805
▁0,8	-11.4807
▁87	-11.4809
▁nüanss	-11.481
▁tütar	-11.4813
▁homo	-11.4813
▁langetab	-11.4814
kohtunik	-11.4815
▁lepi	-11.4815
▁kõrvaldada	-11.4815
▁veenda	-11.4815
▁asutamise	-11.4816
▁eleringi	-11.482
200	-11.4822
▁kaalutud	-11.4823
▁direktiiviga	-11.4826
▁veebruariks	-11.4828
täpsus	-11.4832
▁olukorrale	-11.4832
▁põhiseadusest	-11.4836
▁kogukondade	-11.4837
▁hääletasid	-11.4837
▁kultuuritöötaja	-11.4845
ool	-11.4846
▁vabakaubandus	-11.4848
▁kommerts	-11.4848
organi	-11.485
hali	-11.4852
▁ostab	-11.4853
▁liibanonis	-11.4855
▁küpse	-11.4858
▁tuuma	-11.4859
raja	-11.4861
mõju	-11.4862
▁põhjuse	-11.4863
▁tekke	-11.4866
▁arengule	-11.4866
keskuses	-11.4866
▁ootuse	-11.4867
kohus	-11.4867
▁madise	-11.4874
▁heakskiidu	-11.4874
▁iseseisev	-11.4874
▁novikov	-11.4874
▁trüki	-11.4874
korraldust	-11.4874
▁juhuslikult	-11.4875
▁tõsilugu	-11.4875
▁majutusasutuste	-11.4875
▁töid	-11.4876
mar	-11.4879
▁eelarveaasta	-11.4879
▁sinnapoole	-11.4881
▁kogus	-11.4881
▁arutelule	-11.4883
▁tehtaks	-11.4883
▁survesta	-11.4885
▁planeerinud	-11.4885
▁püsib	-11.4887
▁põhjustatud	-11.4888
▁panustavad	-11.4889
▁säilitamise	-11.4893
▁keskliit	-11.4894
▁otsustame	-11.4897
▁maakonda	-11.4899
▁pangandus	-11.4899
▁keskkonnaameti	-11.49
▁põllumehe	-11.4902
▁protsesse	-11.4902
▁mõistetud	-11.4904
▁kaitseväelase	-11.4905
▁meilt	-11.4906
▁mõjutus	-11.4907
▁linnavalitsuse	-11.4909
▁vanematele	-11.4909
▁ometigi	-11.4911
▁kommentaar	-11.4913
▁kehtestama	-11.4914
▁tervishoius	-11.4914
▁vastase	-11.4916
▁töölt	-11.4916
▁omavahelise	-11.4917
▁toetamist	-11.4918
▁põhilised	-11.492
▁ostmise	-11.4922
nõudeid	-11.4923
▁ühistransport	-11.4923
seaduste	-11.4927
▁kontakt	-11.4928
▁registris	-11.4929
▁võtmine	-11.493
▁ernitsa	-11.4933
seaduseelnõu	-11.4941
▁kriminaalasja	-11.4942
proportsionaalne	-11.4945
▁sahtli	-11.4945
▁eelnimetatud	-11.4946
▁mõeldakse	-11.4948
▁tähtsus	-11.4949
▁erasektor	-11.4949
▁hüvitis	-11.4952
▁halduskohtu	-11.4953
▁karel	-11.4953
▁taeva	-11.4955
▁koolidele	-11.4955
▁valmistume	-11.4956
▁otsitakse	-11.4956
▁ajaloost	-11.4958
▁kuulan	-11.4959
▁toiminud	-11.4959
koda	-11.496
laine	-11.4961
▁suurendame	-11.4962
▁kaotame	-11.4965
▁ambitsiooni	-11.4965
▁mängida	-11.4967
▁piiramise	-11.4967
▁sead	-11.4969
▁juristid	-11.497
▁suurele	-11.4971
kaks	-11.4973
kolle	-11.4976
▁tunnete	-11.4977
▁väikseid	-11.4982
▁140	-11.4982
▁peakski	-11.4988
▁valitsuselt	-11.499
▁juristi	-11.499
▁20%-	-11.4995
▁perearstid	-11.4996
meetmeid	-11.4997
▁veebi	-11.5
oloogia	-11.5003
▁vabastamise	-11.5003
▁arvutus	-11.5004
▁tooteid	-11.5004
▁oskuse	-11.5006
▁esines	-11.5006
▁debatis	-11.5007
▁kanal	-11.5009
▁pensionisüsteem	-11.5012
▁hannes	-11.5017
sigarettide	-11.5017
▁sikkut	-11.5017
järgmisena	-11.5019
▁mingitel	-11.5023
oti	-11.5023
▁keskne	-11.5024
▁haakub	-11.5025
▁eriline	-11.5029
▁pikkade	-11.503
▁vähendatud	-11.5034
▁sünnitus	-11.5034
▁jõe	-11.5035
▁talvel	-11.5036
▁normide	-11.5036
▁muudaks	-11.5037
▁raskusi	-11.5037
eelmise	-11.5038
▁motiiv	-11.5039
kuula	-11.5041
▁ametite	-11.5041
▁tööstuse	-11.5042
▁hektarit	-11.5042
▁toetasid	-11.5045
▁paratamatu	-11.5045
▁brüsseli	-11.5046
▁katke	-11.5046
▁rahuliku	-11.5047
▁toimunu	-11.5048
▁paindlikkust	-11.5049
▁mälberg	-11.5054
saamise	-11.5054
▁asula	-11.5054
▁targad	-11.5054
teed	-11.5059
▁tundide	-11.5063
▁lühenda	-11.5066
▁finantseerimise	-11.5067
▁baasi	-11.5075
▁sisene	-11.5078
▁voor	-11.5081
▁seaduseelnõusid	-11.5081
▁lubadused	-11.5083
▁tervet	-11.5084
▁teenindus	-11.5086
kolmas	-11.5086
▁arhitekt	-11.509
▁emotsionaalne	-11.509
▁rikkunud	-11.509
▁vedada	-11.509
▁oodatakse	-11.5091
▁kesklinna	-11.5091
▁kuulutan	-11.5092
▁võlgade	-11.5093
▁motiveeritud	-11.5097
▁väljendu	-11.5098
▁paigutada	-11.51
▁kaotatakse	-11.5101
▁eraisikute	-11.5101
▁valiti	-11.5103
▁loobunud	-11.5104
vahetuse	-11.5105
▁reisija	-11.5108
▁kutsub	-11.5108
▁kaevandus	-11.511
andmeid	-11.5112
▁ülalpidamise	-11.5112
▁maksaks	-11.5113
eksami	-11.5114
▁kujutab	-11.5117
▁iseloomusta	-11.5118
▁kolleege	-11.5119
▁kreekas	-11.5122
▁keeruliseks	-11.5123
ministril	-11.5123
▁koolist	-11.5128
▁elak	-11.5129
▁900	-11.5129
▁olemus	-11.513
▁teavitamise	-11.5132
▁õnnelik	-11.5135
kest	-11.5136
▁osal	-11.5137
▁hangete	-11.514
tsükli	-11.514
▁tugevat	-11.5141
ehitus	-11.5144
▁panka	-11.5148
▁elektrit	-11.515
▁maksimum	-11.5152
▁sõnumit	-11.5152
▁88	-11.5153
▁õigusakti	-11.5153
▁tuleval	-11.5153
▁ühtlusta	-11.5153
▁osutama	-11.5157
▁vallavanema	-11.5161
▁lahkuma	-11.5162
▁rahulolematu	-11.5163
▁elementaarse	-11.5163
▁manipuleeri	-11.5163
▁sealjuures	-11.5163
▁raamides	-11.5163
▁kurssi	-11.5163
▁sajaprotsendili	-11.5163
▁liikmesriik	-11.5163
▁näitena	-11.5164
omanike	-11.5165
▁vältimatu	-11.5166
▁klient	-11.5166
▁tasakaalustatud	-11.5168
poliitiliselt	-11.5169
▁suurenemine	-11.5169
▁tooda	-11.5169
▁kohtumisi	-11.517
teie	-11.517
▁kohtud	-11.5171
▁kavatsetakse	-11.5172
▁osapooltega	-11.5173
▁tihedalt	-11.5173
▁tõeliselt	-11.5173
▁advokaadi	-11.5173
rida	-11.5177
▁99	-11.5178
▁kurjategija	-11.5178
▁elanikuga	-11.5179
▁sisuliste	-11.518
▁tehnikaülikooli	-11.5182
▁pakun	-11.5183
▁väiksed	-11.5184
sal	-11.5187
▁lubade	-11.5187
▁tasud	-11.5188
▁ennist	-11.519
▁laene	-11.5196
▁reformiga	-11.5198
▁elanikest	-11.5199
▁vastavate	-11.52
▁tekkiva	-11.5204
▁põhimõtetest	-11.5207
▁korralikku	-11.5208
▁pääst	-11.5209
▁esimeest	-11.5211
tajad	-11.5214
▁jätkama	-11.5215
suund	-11.5216
▁tagasihoidlik	-11.5216
▁ajanud	-11.5218
▁malis	-11.5222
▁minimaalse	-11.5223
erakonnad	-11.5225
▁turvalisust	-11.5228
probleemi	-11.523
vanema	-11.5232
esiteks	-11.5233
▁akadeemilise	-11.5236
▁hiljaaegu	-11.5236
▁horvaatia	-11.5236
▁järgmisi	-11.5236
▁kohtulahend	-11.5236
▁kokkukutsuja	-11.5236
▁kübarsepa	-11.5236
▁skandinaavia	-11.5236
▁väikesaarte	-11.5236
▁hätta	-11.5236
▁homse	-11.5236
▁kokkuvõte	-11.5236
▁pun	-11.5239
▁panda	-11.5242
▁euroliidu	-11.5243
▁pindala	-11.5243
▁riina	-11.5244
▁hakkaksid	-11.5244
▁arusaamine	-11.5245
▁pensionäre	-11.5245
▁meetri	-11.5246
▁käsitluse	-11.5247
▁sotsiaalseid	-11.5248
▁kilo	-11.5248
▁võimeka	-11.5248
tootjad	-11.5249
▁tunnustatud	-11.525
▁juhtuks	-11.5251
▁ravimiseaduse	-11.5252
▁edastada	-11.5252
▁laieneb	-11.5254
▁töösse	-11.5257
▁arvude	-11.5258
▁edaspidigi	-11.526
▁astub	-11.526
▁sisendi	-11.5266
▁ideede	-11.5268
▁maju	-11.5272
ministrit	-11.5273
▁mudelit	-11.5275
▁maavalitsused	-11.5276
▁tuul	-11.5278
rina	-11.5278
▁likvideerimise	-11.528
▁õppetöö	-11.5282
▁väljendit	-11.5283
▁hindu	-11.5284
▁pingutus	-11.5288
▁üllatav	-11.5289
▁ulatu	-11.5291
▁määrad	-11.5291
▁sidus	-11.5292
▁vastutustundetu	-11.5292
agentuuri	-11.5293
▁lugemisega	-11.5294
▁luigase	-11.5296
arvestus	-11.5299
▁küsitlus	-11.5302
▁haaku	-11.5303
▁oktoobris	-11.5304
▁tootjad	-11.5306
arutelu	-11.5306
häälteenamus	-11.531
▁keelekümblus	-11.531
▁pilvre	-11.531
▁soomlased	-11.531
▁pedagoogi	-11.5311
▁olemasolevat	-11.5311
müü	-11.5312
▁jookseb	-11.5317
▁esitades	-11.5318
▁mõttekas	-11.5319
▁toimiv	-11.5321
▁aprill	-11.5322
▁esitamine	-11.5322
▁fakte	-11.5323
kriis	-11.5323
▁võimalustest	-11.5323
▁loomisel	-11.5324
▁tugineb	-11.5326
paiga	-11.5327
▁karta	-11.5327
ajad	-11.533
juhtumi	-11.5332
▁tõusma	-11.5334
▁sätet	-11.5335
▁ootamatu	-11.5337
▁kujund	-11.5338
▁lähete	-11.5338
igu	-11.534
▁1990	-11.5342
joone	-11.5343
▁erialade	-11.5346
▁teata	-11.5346
▁sanktsiooni	-11.5347
▁aprillis	-11.5348
▁audiitor	-11.5349
▁ühendamise	-11.535
samal	-11.5352
▁ennetamise	-11.5353
▁ettevalmistamis	-11.5355
▁rakendamisega	-11.5355
▁loete	-11.5356
dokumentide	-11.5356
mängu	-11.5358
▁oskuste	-11.5359
▁ehitamiseks	-11.5362
▁koondu	-11.5363
▁kriteerium	-11.5368
▁sedagi	-11.537
▁administratiiv	-11.5375
▁tänapäevase	-11.5376
▁laar	-11.5377
▁lapsevanemad	-11.5378
▁märts	-11.538
üritus	-11.5381
residendi	-11.5385
▁streigi	-11.5385
▁täpsusega	-11.5385
▁käsutuses	-11.5385
täit	-11.5387
▁nuppu	-11.5388
▁kuulsite	-11.5389
▁1,2	-11.5391
▁õiguskaitse	-11.5391
▁kaetakse	-11.5391
▁palusin	-11.5391
▁vanasti	-11.5393
▁juristide	-11.5393
▁rahvakogu	-11.5394
▁maksmiseks	-11.5394
▁tasumise	-11.5397
▁prioriteediks	-11.5398
residentide	-11.5398
▁millegagi	-11.5398
firmad	-11.5399
▁päästekomando	-11.5404
▁käive	-11.5409
▁haukanõmme	-11.5409
▁patsient	-11.5413
võlaõigusseaduse	-11.5415
▁lõikest	-11.5415
▁kantsleri	-11.5422
▁maksupoliitilis	-11.5427
▁looda	-11.5428
▁puh	-11.5431
tulundusühingu	-11.5431
▁kiida	-11.5433
▁parimat	-11.5435
mudel	-11.5435
▁seisukohtadega	-11.5435
▁silmad	-11.5435
▁südamest	-11.544
▁kompetents	-11.5442
institutsioonide	-11.5442
▁esmaspäeva	-11.5443
asutusi	-11.5444
▁teisigi	-11.5446
▁mõjuanalüüsi	-11.5449
▁tabelis	-11.5449
▁vaheline	-11.545
▁liigse	-11.5452
▁põhimõttelist	-11.5452
▁küsimusena	-11.5452
▁võrk	-11.5453
sigareti	-11.5454
▁loetle	-11.5456
▁kross	-11.5459
▁rong	-11.5459
▁tegeldud	-11.546
▁leppisime	-11.546
▁rahvatervise	-11.5462
▁mü	-11.5462
▁pidasite	-11.5462
▁keskliidu	-11.5462
▁toetudes	-11.5467
▁ühtlustada	-11.5468
teenistujate	-11.5469
▁ilmnenud	-11.5471
▁jõuluvana	-11.5471
berg	-11.5471
liina	-11.5471
▁ennustada	-11.5473
▁sõjaline	-11.5473
▁kapo	-11.5477
▁vastamiseks	-11.5477
▁avaldab	-11.5478
▁tähtajad	-11.5479
masina	-11.5479
mehi	-11.5481
▁kultuurkapitali	-11.5485
▁euroopast	-11.5487
▁õiglus	-11.5488
▁diskrimineerimi	-11.5489
▁tõtt	-11.5491
▁takistusi	-11.5492
võimaluste	-11.5493
liitu	-11.5495
▁tegelemine	-11.5496
▁laiendamise	-11.5497
tevõtlusminister	-11.5498
norm	-11.55
pedagoog	-11.5506
▁urbo	-11.5507
▁aktsiisitõus	-11.5507
▁struktuurses	-11.5508
▁kandidaati	-11.5509
saaja	-11.5511
▁ridade	-11.5513
▁arvestamise	-11.5514
▁spetsialisti	-11.5515
menetluses	-11.5516
tage	-11.5517
▁kohalolijaks	-11.5518
tegelikult	-11.5519
▁tänasest	-11.552
maht	-11.5521
▁presidenti	-11.5521
lisse	-11.5522
▁hetkeks	-11.5523
▁planeerimise	-11.5523
▁lipp	-11.553
▁sooviti	-11.553
▁situatsioonis	-11.5535
▁akkermann	-11.5536
▁defitsiidi	-11.5536
▁kiidetud	-11.5536
▁pretsedent	-11.5536
▁viimsi	-11.5536
▁leidsin	-11.5536
▁istungisaalis	-11.5536
▁ülioluline	-11.5536
▁vahva	-11.5536
▁ott	-11.5536
▁kandnud	-11.5536
▁super	-11.5536
▁kabinetis	-11.5536
ahvusraamatukogu	-11.5536
▁kohtuvaidlus	-11.5537
▁valmisolekut	-11.5539
▁juunis	-11.554
▁kolmandikku	-11.554
▁markeeri	-11.5541
▁kaotus	-11.5543
▁paralleel	-11.5544
aluste	-11.5545
▁kõiv	-11.5545
▁etapis	-11.5545
▁tegutsenud	-11.5547
▁vallad	-11.5549
▁kulutatud	-11.5551
▁ebaseaduslikult	-11.5551
vo	-11.5552
▁nimetan	-11.5552
▁kasutuses	-11.5552
▁halvem	-11.5552
taotlus	-11.5553
▁üritame	-11.5556
▁õiguskorra	-11.5557
▁järje	-11.5558
▁post	-11.5558
▁sajandil	-11.5559
▁lühi	-11.5559
õiguslike	-11.5564
▁ühendatud	-11.5566
ob	-11.5566
▁halvemaks	-11.5567
astu	-11.5567
▁jõulise	-11.5568
▁preemia	-11.5568
▁küsige	-11.5571
▁peatada	-11.5571
▁kogemuste	-11.5571
▁instrument	-11.5574
▁demograafilise	-11.5578
▁erinevates	-11.558
ron	-11.5584
▁kaalumise	-11.5585
töid	-11.5587
▁nais	-11.5587
▁tükki	-11.5588
▁dokumendis	-11.5588
▁isikutel	-11.559
▁loovad	-11.559
tasemel	-11.559
▁hotelli	-11.5594
▁nimetuse	-11.5595
▁oludes	-11.5596
▁teave	-11.5597
▁isikul	-11.5602
kahetsusväärselt	-11.5603
kolme	-11.5606
▁pakutava	-11.5611
pension	-11.5611
▁ingliskeelse	-11.5612
▁subjektiivse	-11.5612
▁mkm	-11.5612
▁uhkus	-11.5612
▁sulgeda	-11.5612
▁nentis	-11.5613
▁arenguseire	-11.5613
põgenik	-11.5613
▁säiliks	-11.5613
▁lubamatu	-11.5613
toime	-11.5614
▁meenub	-11.5617
▁väidavad	-11.5617
panek	-11.5618
▁järjekordne	-11.5618
▁kelleltki	-11.5618
▁vähesed	-11.5619
▁esindajat	-11.5621
▁erinevusi	-11.5625
▁korrastada	-11.5631
▁eksam	-11.5631
▁aineid	-11.5631
▁peaministrit	-11.5633
▁esindavad	-11.5633
▁katmiseks	-11.5634
▁sekundit	-11.5635
▁lõpust	-11.5637
nr	-11.5638
rein	-11.5639
▁aruannet	-11.564
moon	-11.5641
▁esinemise	-11.5647
▁kätes	-11.5648
▁kindlustunne	-11.5648
▁95	-11.5648
alast	-11.565
▁lubadust	-11.5651
▁koosolek	-11.5651
▁käesolev	-11.5652
▁reaktsioon	-11.5655
▁hamba	-11.5655
▁mõeldav	-11.5659
▁viidata	-11.5659
▁pensionitõusu	-11.5661
▁kohtutäiturite	-11.5661
▁kümnendi	-11.5662
▁kaitseväelased	-11.5664
tavus	-11.5664
▁karistust	-11.5665
▁kohtuda	-11.5667
▁määrust	-11.5669
uju	-11.5673
▁põhiseaduslik	-11.5673
▁häma	-11.5678
▁optimeeri	-11.5679
foorumi	-11.5684
▁formuleeri	-11.5688
hengeni	-11.5689
▁adekvaatne	-11.5689
▁elektrooniline	-11.5689
▁immigrantide	-11.5689
▁legaalse	-11.5689
▁lõikele	-11.569
▁seonduv	-11.569
▁madisoni	-11.5691
▁nüansse	-11.5692
▁õigusest	-11.5694
▁reaalsuse	-11.5695
demokraatia	-11.5695
▁lõplikku	-11.5697
▁rkas	-11.5697
▁kõrgel	-11.5697
▁nähtava	-11.5698
▁süda	-11.5698
▁järjekord	-11.57
▁vähendanud	-11.5702
▁ratifitseerinud	-11.5702
▁majade	-11.5703
järg	-11.5704
▁muuseum	-11.5704
▁kasutati	-11.5706
reisi	-11.5706
▁arendustegevus	-11.5707
▁pärand	-11.5708
▁teated	-11.5708
▁ühistransporti	-11.5713
▁lähtekoht	-11.5715
▁standardi	-11.5716
▁ehitamine	-11.5717
▁dubleeri	-11.5717
▁lõhesta	-11.5721
inimese	-11.5724
aani	-11.5731
inimesed	-11.5731
▁väljamakse	-11.5734
▁pagulasi	-11.5734
kaaslase	-11.5735
son	-11.5737
▁punktiga	-11.5738
▁suurene	-11.574
▁planeeringu	-11.5742
reeglite	-11.5744
▁katus	-11.5747
▁investeerima	-11.5749
buss	-11.5749
▁tegevusluba	-11.575
▁elatis	-11.575
▁kahtlusta	-11.5751
vahend	-11.5752
▁jälitus	-11.5756
ettekandjale	-11.5756
▁eraldatava	-11.5761
▁normid	-11.5762
▁tendentsi	-11.5763
▁langes	-11.5763
▁põhjendusi	-11.5763
tegemise	-11.5765
büroo	-11.5766
▁põltsamaa	-11.5767
▁igapäevane	-11.5767
▁jättes	-11.5767
▁nõrga	-11.5767
▁prantsusmaal	-11.5767
▁tahtsid	-11.5767
▁mõistma	-11.5767
▁tekkimise	-11.5767
▁tunti	-11.5767
▁hinnast	-11.5768
▁1999.	-11.5769
seisundi	-11.5769
▁põhimõttelisi	-11.577
töötaja	-11.577
▁operatsioon	-11.5771
▁suurtes	-11.5772
han	-11.5772
▁edene	-11.5773
keskkonda	-11.5776
▁karistatud	-11.5776
▁reaalsed	-11.5777
▁efektiivsemalt	-11.5777
▁taotlenud	-11.5778
▁põlvkond	-11.578
▁mõlemale	-11.5781
▁pisike	-11.5783
salu	-11.5785
▁pereliikme	-11.5785
▁satub	-11.5786
▁lõpetab	-11.5787
▁näib	-11.5787
▁maksutõusu	-11.5792
▁niisugusel	-11.5793
▁reformid	-11.5799
▁rangema	-11.58
▁paremas	-11.58
▁funktsioon	-11.5801
▁kulla	-11.5801
▁seadustest	-11.5803
▁viru	-11.5805
normi	-11.5805
▁kuludest	-11.5807
sport	-11.5808
valla	-11.5808
▁olemasolevaid	-11.581
▁ühiku	-11.581
▁kvalifikatsioon	-11.5816
▁aastapäeva	-11.5817
▁leiaks	-11.5819
▁toomise	-11.5821
kultuur	-11.5822
▁protseduurid	-11.5823
▁määruste	-11.5825
ühendkuningriigi	-11.5826
▁erikomisjon	-11.5826
▁kulutama	-11.5834
oh	-11.5834
▁võetava	-11.5835
▁otsimise	-11.5836
▁ütled	-11.5837
▁vaese	-11.5838
joo	-11.5842
kümmend	-11.5842
▁riigiettevõtte	-11.5842
▁kummalise	-11.5843
▁lükati	-11.5845
▁üksjagu	-11.5845
toetusi	-11.5845
faasis	-11.5845
▁doteeri	-11.5846
▁võtmata	-11.5846
▁eesmärkidest	-11.5846
▁maksustatakse	-11.5851
mer	-11.5852
▁jätan	-11.5852
▁küsitav	-11.5853
▁oleku	-11.5853
▁klassis	-11.5855
▁uuringut	-11.5856
▁järvamaa	-11.5857
▁kajar	-11.5857
▁uhked	-11.5861
▁puudutavate	-11.5863
▁sunnib	-11.5864
▁osakond	-11.5866
▁liikmetega	-11.5868
▁vead	-11.5868
▁ajastu	-11.587
▁pilguga	-11.5875
▁2003.	-11.5876
▁ülejäägis	-11.5879
▁sünnijärgse	-11.5879
▁ratsionaalse	-11.5884
istungi	-11.5884
▁küps	-11.5884
▁ajama	-11.5885
▁võrdsusta	-11.5885
▁ii	-11.5886
▁põhikoolis	-11.5888
▁laaneots	-11.5889
stamata	-11.5889
bur	-11.5891
▁jagame	-11.5891
▁meeskond	-11.5894
▁oletame	-11.5896
▁kuulunud	-11.5896
kasvataja	-11.5897
▁prognoose	-11.5897
▁valitseva	-11.5899
▁rahastust	-11.5906
rvishoiusüsteemi	-11.5906
▁proviisori	-11.5912
▁lõpe	-11.5913
▁heli	-11.5913
▁ebaõiglus	-11.5915
▁lapsest	-11.5916
▁kodakondsuseta	-11.5916
maade	-11.5917
▁dis	-11.592
▁metalli	-11.592
▁kik	-11.5921
▁optimistliku	-11.5921
stavad	-11.5921
▁ametivande	-11.5924
▁jents	-11.5924
▁ühetaolise	-11.5924
▁soodustusi	-11.5924
tallinna	-11.5924
▁katastroofi	-11.5925
▁staabiohvitseri	-11.5926
astmes	-11.5927
▁lukas	-11.5928
▁tööõnnetus	-11.5928
▁peitub	-11.5929
▁massiliselt	-11.593
▁kirjeldasin	-11.5931
ür	-11.5932
likuks	-11.5933
▁ostja	-11.5933
▁kohelda	-11.5934
hüvitise	-11.5937
▁pööratud	-11.5938
▁senist	-11.5938
korras	-11.594
▁2009	-11.5941
▁võiksin	-11.5941
väe	-11.5942
▁jälgivad	-11.5943
▁000-	-11.5943
▁üksikuid	-11.5944
▁saadame	-11.5945
▁võrgutasu	-11.5948
▁muudel	-11.5949
▁reedel	-11.595
▁lahendame	-11.5951
▁iseloomuga	-11.5952
▁ühendused	-11.5954
▁pensioniea	-11.5954
▁tegevusele	-11.5954
▁tagamisel	-11.5957
▁aprillist	-11.596
▁kaasus	-11.5964
▁kiiruse	-11.5964
▁rakendamisel	-11.5964
▁ohusta	-11.5966
lõik	-11.5966
▁rahvusliku	-11.5971
▁direktiivide	-11.5972
▁vastandu	-11.5978
▁van	-11.5979
ndatakse	-11.598
arto	-11.5984
▁teade	-11.5985
▁tunnustust	-11.5988
▁raudteed	-11.5989
▁mitmest	-11.5989
▁väljatöötamisel	-11.5992
▁käiva	-11.5993
▁erine	-11.5994
▁seadusmuudatust	-11.5997
▁pühenda	-11.5998
▁raskus	-11.5998
▁augu	-11.5999
aadu	-11.6
▁heakskiitmise	-11.6002
▁põgenike	-11.6002
▁meeleolu	-11.6003
▁optimaalse	-11.6003
▁luige	-11.6003
▁pbk	-11.6003
▁jt	-11.6004
▁abiellu	-11.6004
▁traditsioon	-11.6004
▁rõhutasite	-11.6005
▁sotsiaalset	-11.6006
▁kuude	-11.6007
▁ebaõnnestunud	-11.6007
▁kohtumiseni	-11.6008
▁hariduses	-11.6008
▁osutatakse	-11.601
▁maitse	-11.601
tum	-11.6013
▁kannavad	-11.6013
▁leviku	-11.6016
▁hirmus	-11.6018
▁ootamatult	-11.6018
▁taktika	-11.6023
▁eripensioni	-11.6024
▁mängib	-11.6026
▁kartus	-11.6027
▁lahkub	-11.603
▁õe	-11.603
▁mineku	-11.6031
▁erisusi	-11.6031
▁laialt	-11.6036
▁kohtusin	-11.6036
▁arenguid	-11.6036
▁päevade	-11.6037
▁tasandile	-11.6038
▁loogikat	-11.6043
järgmise	-11.6044
11	-11.6045
kaubanduse	-11.6048
▁suhkru	-11.6049
teaduse	-11.605
▁riia	-11.6051
▁esindajatel	-11.6053
ään	-11.6055
▁riiklikud	-11.6055
nn	-11.6056
▁leidmise	-11.6058
üksus	-11.6059
▁meetmetega	-11.6059
▁maksupettuste	-11.6059
▁lehekülje	-11.606
▁lehma	-11.6065
stati	-11.6068
looma	-11.6072
tasite	-11.6072
mendi	-11.6073
põhisus	-11.6073
hommiku	-11.6074
▁koalitsioonil	-11.6075
▁ettepanekust	-11.6078
sõit	-11.6079
▁tõhusa	-11.6079
▁sektorit	-11.608
▁võimete	-11.608
objekti	-11.6081
▁neidsamu	-11.6083
▁kantakse	-11.6084
▁piiriülese	-11.6084
▁töövõimetoetuse	-11.6084
▁erilise	-11.6089
▁varustus	-11.609
▁etteheiteid	-11.6092
▁loosungi	-11.6094
võib	-11.6099
▁teavitada	-11.6099
▁kvaliteetne	-11.6102
▁täpsustuse	-11.6103
▁huvitavad	-11.6105
▁ohvri	-11.6105
lehekülg	-11.6106
partnerid	-11.6106
ringkondade	-11.6107
▁küsijale	-11.6107
küsimustes	-11.6108
▁jõus	-11.6108
▁positsioonil	-11.6109
▁ajalooliselt	-11.611
▁mõtles	-11.6117
võtluskeskkonna	-11.6117
▁demograafilis	-11.6119
▁ülejäänu	-11.612
▁ametkonna	-11.6121
▁lähtus	-11.6122
▁pii	-11.6122
▁lisaküsimus	-11.6123
▁lähte	-11.6124
▁vabatahtlikud	-11.6129
▁häälega	-11.6129
▁õigusselguse	-11.6137
▁kuupäev	-11.6139
▁3,5	-11.6141
▁hinnanud	-11.6142
▁välismaale	-11.6142
▁raamistik	-11.6144
▁süsteemse	-11.6156
▁õpetama	-11.6157
▁hoiaku	-11.616
▁haamrilööki	-11.6164
▁innove	-11.6164
▁kremli	-11.6164
▁populaarne	-11.6164
▁ratsionaalne	-11.6164
▁rummo	-11.6164
▁eestkõneleja	-11.6164
▁mälestus	-11.6164
▁korruta	-11.6164
▁alustuseks	-11.6164
▁klaari	-11.6164
▁aktiivsus	-11.6165
energia	-11.6165
▁tähtsaks	-11.6166
▁absoluutne	-11.6167
▁efektiivsuse	-11.6167
▁kallima	-11.6167
▁jälitustoimingu	-11.6174
▁ministriks	-11.6178
kütus	-11.6178
▁liitri	-11.6178
psu	-11.618
listel	-11.6181
▁adekvaatselt	-11.6181
▁esindajatele	-11.6182
▁jõustu	-11.6182
ivi	-11.6183
▁kiusa	-11.6183
▁lausega	-11.6184
▁efektiivsemaks	-11.6185
▁otsusele	-11.6185
▁perekondade	-11.6186
▁mõõduka	-11.6189
▁taustaga	-11.619
▁aseesimeeste	-11.6191
▁korrastamise	-11.6193
asutustes	-11.6194
▁lahe	-11.6195
▁turult	-11.6195
▁pul	-11.6198
▁politseinik	-11.6198
▁pidasid	-11.6202
▁lülita	-11.6202
▁elanikkonnast	-11.6203
▁tunnustus	-11.6204
▁programmid	-11.6205
▁normaalselt	-11.6206
relva	-11.6208
▁klubi	-11.6208
19	-11.6211
vaata	-11.6212
tiku	-11.6212
▁maksuvabastus	-11.6217
▁toomast	-11.6221
▁haigekassale	-11.6222
▁tunnistas	-11.6224
▁selts	-11.6224
▁säästa	-11.6225
▁hoiatus	-11.6225
▁kurt	-11.6226
▁peas	-11.623
▁mikseri	-11.6231
väeteenistuse	-11.6233
reeglid	-11.6235
pensionisüsteemi	-11.6236
▁relvade	-11.6239
▁eluga	-11.6242
useks	-11.6242
▁kõikvõimaliku	-11.6245
▁nihku	-11.6245
▁tubakatoodete	-11.6245
▁kindlustusandja	-11.6245
▁öösel	-11.6246
▁otsustega	-11.6246
▁juuruta	-11.6247
käigu	-11.6247
▁vanemaid	-11.6248
▁raskema	-11.6248
heimar	-11.6248
▁asjaomaste	-11.6249
▁toodetud	-11.625
▁umbusalduse	-11.625
▁lepingus	-11.6251
park	-11.6251
▁maanteeamet	-11.6252
▁teeksid	-11.6253
▁asendatakse	-11.6253
ger	-11.6256
▁õpetatakse	-11.6256
eluvararegistri	-11.6257
▁tellitud	-11.6257
▁sihtotstarbelis	-11.626
▁erihoolekande	-11.626
▁ennetustöö	-11.626
▁suurendanud	-11.6261
▁tugevus	-11.6261
▁ministreid	-11.6264
▁soost	-11.6265
poliitilise	-11.6265
▁juhtiv	-11.6265
▁andmisel	-11.6266
ohutus	-11.6267
tamatu	-11.6269
▁jõuga	-11.627
▁tasakaalust	-11.627
▁isikust	-11.6271
▁arvamuste	-11.6272
▁börsi	-11.6274
▁sealse	-11.6275
▁valmistama	-11.6276
▁meeletu	-11.6277
▁keeleoskuse	-11.6277
▁raportis	-11.6278
õpetajate	-11.6278
▁pärnus	-11.6279
majandusliku	-11.6279
▁õpilastele	-11.628
tuvad	-11.628
▁piirangut	-11.6281
▁kogumispensioni	-11.6282
▁vastati	-11.6283
▁laev	-11.6284
▁selgeid	-11.6285
kaid	-11.6287
▁kehvem	-11.6287
▁linnavalitsus	-11.629
▁segase	-11.6291
▁ebapr	-11.6293
▁positiivses	-11.6293
▁kiirenda	-11.6294
▁kutsus	-11.6295
▁naaberriikide	-11.6296
▁artiklit	-11.6297
▁julgust	-11.63
▁jaotamise	-11.6302
▁eriarvamus	-11.6304
▁toimuvat	-11.6304
▁saadava	-11.6305
▁naabrid	-11.6307
lugu	-11.6311
▁jaapani	-11.6311
tunnistuse	-11.6314
▁demokraatiat	-11.6315
▁puudutada	-11.6315
▁kolmes	-11.6315
▁iv	-11.6316
▁padar	-11.6316
▁täpsustama	-11.6317
tõe	-11.6321
tegemist	-11.6325
oi	-11.6325
▁kolmandas	-11.6325
tüüp	-11.6326
▁sellegipoolest	-11.6327
▁vihje	-11.6327
▁teerulli	-11.6327
▁jürgenstein	-11.6327
▁uude	-11.6327
▁sealiha	-11.6327
▁hiline	-11.6327
▁pikamäe	-11.6328
▁seadusliku	-11.6328
▁toonase	-11.6329
▁võrgustiku	-11.6329
▁räägid	-11.633
probleeme	-11.633
▁täidetakse	-11.633
▁imesta	-11.6331
programmide	-11.6331
▁torma	-11.6332
▁tuule	-11.6333
haridust	-11.6333
▁kuulen	-11.6337
▁0,2	-11.6338
▁komando	-11.6338
▁diskuteerida	-11.6338
▁tuttava	-11.6338
▁pinnal	-11.6338
▁kehtestamist	-11.6339
▁ettevõttes	-11.634
▁alandamine	-11.634
▁vasak	-11.634
▁rahvusooperi	-11.6341
▁tunnistanud	-11.6341
▁loogiliselt	-11.6342
▁astutud	-11.6343
▁majanduslike	-11.6343
▁terviklikku	-11.6344
▁arutuse	-11.6344
▁osutu	-11.6345
▁lootuse	-11.6346
▁valed	-11.6347
enn	-11.6348
▁viimaseid	-11.6348
▁kirik	-11.6349
▁printsiipi	-11.6349
▁nrf	-11.6349
▁katteallikas	-11.6352
soon	-11.6354
sumin	-11.6356
▁sekkumise	-11.6357
võimekus	-11.6365
▁laenukoormus	-11.6365
▁arvamusele	-11.6367
▁anneli	-11.6372
▁hoopiski	-11.6376
▁suurimaid	-11.6378
▁kokkuleppel	-11.638
▁keeleoskus	-11.638
võtja	-11.6382
▁järgima	-11.6383
▁jagab	-11.6385
▁kellelt	-11.6385
▁tartusse	-11.6385
▁tegur	-11.6386
▁komponendi	-11.6388
▁vaesust	-11.6389
▁omista	-11.639
ustavaks	-11.6391
▁partneritega	-11.6394
▁organisatsioone	-11.6397
▁meest	-11.6397
▁hää	-11.6398
▁kujundamise	-11.6398
▁põhilise	-11.64
▁piirkond	-11.6401
teaduste	-11.6402
▁vastutava	-11.6402
▁projektiga	-11.6402
▁kandidaadid	-11.6403
▁tervikliku	-11.6404
▁kätt	-11.6405
▁riigikassa	-11.6407
▁kompetentse	-11.6408
▁protokollis	-11.6408
▁soovist	-11.6409
▁diisli	-11.6409
▁praami	-11.641
▁firmade	-11.641
▁inter	-11.6411
▁saatmist	-11.6412
kesed	-11.6412
▁soodustuse	-11.6413
▁koolipidaja	-11.6414
▁ühendriikides	-11.6414
rong	-11.6414
▁rikub	-11.6419
▁pallingu	-11.6419
▁suhtub	-11.642
▁esimesi	-11.6421
▁maksti	-11.6421
▁soetamise	-11.6423
▁laseme	-11.6424
▁kajastatud	-11.6424
▁alustati	-11.6424
▁koondamise	-11.6425
▁soodustab	-11.6425
▁kirjutati	-11.6426
▁korrigeerida	-11.6428
reklaami	-11.6429
▁müüja	-11.643
▁kõrgharidusega	-11.6434
▁1%-	-11.6436
▁üritab	-11.6436
▁maavara	-11.6437
▁subjekt	-11.6441
▁hoidmine	-11.6444
▁tõlki	-11.6445
▁parlamentaar	-11.6446
▁valmidus	-11.6449
▁muutmata	-11.6449
▁taguse	-11.6452
▁tasa	-11.6453
▁kvartali	-11.6456
valdkondade	-11.6456
▁esmaspäevast	-11.646
▁valmisoleku	-11.6461
▁pingutama	-11.6463
suhe	-11.6463
▁peret	-11.6463
▁tsooni	-11.6468
▁tõdema	-11.6469
▁mõttest	-11.6469
▁sadamate	-11.6471
▁haridusele	-11.6471
▁ligipääs	-11.6472
▁sõidukite	-11.6473
▁erakonnast	-11.6475
▁struktuurifondi	-11.6476
▁selgituse	-11.6476
▁sõtnik	-11.6482
järgu	-11.6482
▁tervislik	-11.6482
eerima	-11.6485
piirangu	-11.6486
ehhi	-11.6492
▁sissejuhatavas	-11.6493
▁mäletatavasti	-11.6493
▁teekasutustasu	-11.6493
▁versus	-11.6493
▁valuuta	-11.6493
▁pistmist	-11.6493
▁vari	-11.6493
▁pidasime	-11.6494
▁jõukohane	-11.6494
▁pigista	-11.6494
▁õpilast	-11.6495
▁tegeleks	-11.6496
metsa	-11.6496
▁organiseeritud	-11.6497
▁kodualuse	-11.6498
▁kõnelda	-11.6499
▁jõustumine	-11.65
▁menetletakse	-11.65
▁reet	-11.6501
▁raamistiku	-11.6503
▁millesse	-11.6504
▁väärivad	-11.6507
▁elamislubade	-11.6507
▁täitemenetluse	-11.6508
▁põhimõttel	-11.6509
▁kvalifitseeru	-11.651
▁üritanud	-11.6512
▁ametiisiku	-11.6514
eerimist	-11.6514
▁viita	-11.6514
tsus	-11.6515
▁lõpul	-11.6518
▁rahasta	-11.6519
▁poliitikuid	-11.652
▁konkurentsis	-11.6521
▁murest	-11.6521
▁debatte	-11.6522
▁inimlik	-11.6527
ehituse	-11.6528
▁jalg	-11.6529
▁2,5	-11.6532
▁juriidilist	-11.6532
▁eurosid	-11.6534
▁koma	-11.6535
▁kõnepuldis	-11.6536
reservi	-11.6538
▁lisakulu	-11.6538
▁realistlik	-11.654
▁hull	-11.654
▁1500	-11.6543
▁ruu	-11.6545
▁erinevatest	-11.6545
▁prokurör	-11.655
▁tagavad	-11.655
▁uueks	-11.6552
poliitilised	-11.6554
▁nõusolekut	-11.6554
▁elering	-11.6557
▁väikeettevõtja	-11.6558
▁huvitavaid	-11.656
▁abipolitseiniku	-11.6561
uid	-11.6562
▁pikemaks	-11.6564
▁tasand	-11.6565
35	-11.657
▁raiska	-11.6571
liikme	-11.6571
▁võltsi	-11.6572
lgeolekuasutuste	-11.6572
▁loomisega	-11.6572
▁südamega	-11.6572
▁standard	-11.6572
▁erakonnas	-11.6573
▁andmebaasi	-11.6573
▁süsteemist	-11.6573
▁rahandusministr	-11.6574
▁elekter	-11.6577
▁kummitempli	-11.6577
▁salvesta	-11.6577
▁strateegiline	-11.6577
▁tarbijakrediidi	-11.6577
▁sellestsamast	-11.6577
▁kvootide	-11.6579
▁loomakaitse	-11.6579
▁põnev	-11.6579
▁lükatakse	-11.658
▁kaalutlustel	-11.658
protsendi	-11.6582
komponent	-11.6583
investeeringuid	-11.6583
▁maksis	-11.6583
▁omandanud	-11.6584
▁viimasest	-11.6586
▁liitlased	-11.6586
▁võrdluses	-11.6589
lisel	-11.6589
eesmärk	-11.6592
▁konkureerida	-11.6593
▁varusta	-11.6594
▁sihtgrupp	-11.6597
▁parlamentide	-11.6599
▁peaministrilt	-11.6599
▁proportsioon	-11.6601
▁osalt	-11.6604
▁katteallikaid	-11.6605
▁baasseaduse	-11.6605
▁parimal	-11.6605
▁defitsiiti	-11.6606
meelne	-11.6611
▁omavalitsusjuht	-11.6613
60	-11.6613
▁vabatahtlikkuse	-11.6613
▁kassa	-11.6615
sõbralik	-11.6616
▁rada	-11.6617
▁järgne	-11.6617
▁tööaega	-11.662
▁ühinemine	-11.6621
▁ambitsioonika	-11.6621
▁nimesid	-11.6622
▁seksuaalse	-11.6624
▁samade	-11.6627
võlg	-11.6627
▁ministeeriumile	-11.6628
▁vägivald	-11.6632
idesse	-11.6632
▁tunnistaja	-11.6633
▁hääletamiseks	-11.6636
eerib	-11.6636
voog	-11.6637
stumise	-11.6641
▁investorite	-11.6642
▁pöörduma	-11.6647
▁tekitaks	-11.6649
▁koolijuhi	-11.6651
▁otsusest	-11.6652
▁maksumaksjale	-11.6652
struktuuri	-11.6652
▁saaksin	-11.6652
▁laekuvad	-11.6656
▁samast	-11.6656
▁rist	-11.6658
▁umb	-11.666
▁identiteedi	-11.6662
▁pakkumist	-11.6662
▁platvormi	-11.6662
▁stabiilne	-11.6662
▁edgar	-11.6662
▁võtsite	-11.6662
uli	-11.6663
▁sisemajanduse	-11.6666
▁debattide	-11.6666
▁absurdne	-11.6666
▁mainin	-11.6667
▁tavakooli	-11.6668
paketi	-11.6668
instituudi	-11.6668
muutus	-11.6669
helir	-11.6669
▁teaduste	-11.667
sõitu	-11.667
▁vägivalda	-11.667
▁kaalutlusõigus	-11.6673
▁seederi	-11.6673
▁asutatud	-11.6673
▁hääletati	-11.6673
▁kajastub	-11.6675
▁lennujaama	-11.6675
▁kusagile	-11.6677
▁hoiavad	-11.6679
▁taotleb	-11.6679
▁tootmist	-11.6681
▁teeninud	-11.6681
hisuhtevägivalla	-11.6683
▁moodus	-11.6683
stani	-11.6683
▁täpsem	-11.6691
liin	-11.6691
▁targa	-11.6692
▁lastud	-11.6693
▁kadus	-11.6697
▁kodumaa	-11.6697
▁otsustes	-11.6697
▁aspektide	-11.6699
▁teavitus	-11.6699
▁sulling	-11.6701
▁jahindus	-11.6702
▁teistsuguseid	-11.6703
▁öeldu	-11.6704
kaalu	-11.6709
▁os	-11.6709
▁psühholoogi	-11.6712
teemade	-11.6713
koosseisu	-11.6714
▁signaale	-11.6718
▁selgitate	-11.6718
▁katku	-11.6718
▁mineviku	-11.672
▁advokaat	-11.6722
▁pooldaja	-11.6722
▁märkusi	-11.6722
▁kulukas	-11.6725
▁ulatus	-11.6727
▁edukad	-11.6728
▁arvutuste	-11.6729
▁redaktsiooni	-11.673
▁paki	-11.6731
▁emakeel	-11.6731
▁taime	-11.6733
▁teod	-11.6737
▁valdkonnast	-11.674
▁astus	-11.6746
▁pealegi	-11.6747
▁konstruktiivne	-11.6747
▁rajaleidja	-11.6747
▁tippkohtumise	-11.6747
▁asendusliikme	-11.675
▁halduskogu	-11.6751
▁juhti	-11.6751
▁töövaidlus	-11.6752
▁kodukord	-11.6753
▁6000	-11.6753
konsensuslikult	-11.6755
▁allpool	-11.6755
▁mainiti	-11.6755
argument	-11.6755
süsteemide	-11.6756
▁päevani	-11.6757
probleemid	-11.6762
▁ääremaa	-11.6763
▁püsivalt	-11.6766
▁kogemusest	-11.6766
▁jahiseaduse	-11.6767
▁seonduvate	-11.6769
▁artiklis	-11.677
▁neljal	-11.6771
▁jälgib	-11.6773
▁visiidi	-11.6773
16	-11.6774
enesestmõistetav	-11.6775
▁sellistele	-11.6776
▁tunduda	-11.6776
▁saabki	-11.6777
▁notarite	-11.6778
üksuse	-11.6781
▁hakkasin	-11.6781
▁tõusust	-11.6781
▁tugevdamise	-11.6787
▁hindavad	-11.6787
▁lahene	-11.679
▁liidule	-11.679
▁pen	-11.679
▁tauni	-11.6794
▁siir	-11.6795
▁arutelus	-11.6795
▁jagamine	-11.6797
▁maaomanike	-11.6799
lubade	-11.68
mets	-11.6802
maris	-11.6804
▁armastus	-11.6806
▁tarkuse	-11.6807
▁her	-11.6809
▁jä	-11.6814
▁laudadel	-11.6816
▁loetelus	-11.6816
▁ohud	-11.6818
▁püsima	-11.6818
probleem	-11.6821
▁pais	-11.6822
▁meetrit	-11.6822
▁tekstist	-11.6823
▁järjepidevuse	-11.6825
oste	-11.6826
▁piirides	-11.6826
▁veen	-11.6828
▁soovituse	-11.6829
mootor	-11.683
▁meeldiks	-11.683
▁päevaga	-11.6831
seadustikku	-11.6832
▁uimasti	-11.6833
▁hansson	-11.6833
▁mikro	-11.6833
▁populaarsus	-11.6833
▁teenusepakkuja	-11.6833
▁olukordades	-11.6836
▁ravimid	-11.6836
▁emotsioone	-11.6838
gress	-11.6838
▁mõlemas	-11.6838
▁jube	-11.6839
▁andmiseks	-11.6839
▁kipuvad	-11.6839
▁mitmele	-11.684
▁sõdi	-11.6841
▁vaatasime	-11.6841
▁langetanud	-11.6842
▁ajendas	-11.6843
▁liin	-11.6843
▁langevad	-11.6844
▁igat	-11.6845
▁kannatavad	-11.6846
▁kahaneb	-11.6846
▁käsitleti	-11.6846
▁põhilisi	-11.6846
▁presidendile	-11.6848
▁senised	-11.6848
▁piiramine	-11.6849
▁müüki	-11.6849
▁halli	-11.6849
▁vähendame	-11.685
▁maavalitsuse	-11.685
▁tugineda	-11.6852
▁teostab	-11.6853
▁paet	-11.6853
▁millistele	-11.6855
▁otsivad	-11.6856
▁piirab	-11.6856
▁saavate	-11.6857
▁müük	-11.6857
▁segaseks	-11.6862
▁programme	-11.6863
suhte	-11.6864
▁prokuröri	-11.6865
▁kohtumist	-11.6866
▁kaine	-11.6866
▁kirjandus	-11.6867
teede	-11.6867
▁istuda	-11.6869
ehitusseadustiku	-11.6876
kol	-11.6877
▁uutele	-11.6877
▁parimad	-11.6879
▁viite	-11.688
▁relvaseaduse	-11.688
meetmed	-11.688
▁sammude	-11.6882
▁tõusuga	-11.6883
vooru	-11.6884
▁täpsema	-11.6886
▁lagi	-11.6888
▁haiglad	-11.6888
▁hooaja	-11.6889
▁ansipile	-11.689
sõ	-11.689
▁transiidi	-11.689
▁oskused	-11.6892
▁seniste	-11.6894
▁joone	-11.6895
▁võrdluse	-11.6897
▁lahend	-11.6898
▁air	-11.6905
▁järgmiselt	-11.6906
vastaste	-11.6907
▁ab	-11.6909
▁paide	-11.6911
anti	-11.6911
▁saalile	-11.6911
▁aruteluks	-11.6912
allikate	-11.6914
tunnet	-11.6918
▁psühhiaatri	-11.692
▁rikkuda	-11.692
▁ilves	-11.692
▁konsultatsiooni	-11.692
▁võrdu	-11.692
▁ostetud	-11.692
▁käepärast	-11.6921
▁väärtushinnangu	-11.6921
▁98	-11.6921
▁enim	-11.6922
▁hiili	-11.6922
▁korista	-11.6922
▁maksuhalduri	-11.6923
▁järjekorda	-11.6924
▁koosmõju	-11.6924
augu	-11.6925
▁eksport	-11.6927
▁suundumus	-11.6927
▁adressaadile	-11.6927
eldar	-11.693
enne	-11.6933
▁osutas	-11.6935
▁kannatab	-11.6935
▁puudutasite	-11.6937
▁käigu	-11.6939
▁kutsume	-11.6939
▁parandamine	-11.6939
▁püüate	-11.6942
iidi	-11.6943
▁mõtlemise	-11.6944
▁toimiks	-11.6944
▁piirkondi	-11.6945
▁toonitan	-11.6947
▁ettepoole	-11.6948
▁varasemad	-11.6948
▁muudavad	-11.6949
▁otsib	-11.6949
▁luges	-11.6952
koridori	-11.6953
▁vastuvõtmisega	-11.6953
▁kindlustusselts	-11.696
▁aastatega	-11.6962
▁peaministril	-11.6962
▁venelaste	-11.6964
▁ligile	-11.6965
▁komisjoniga	-11.6965
▁suurusest	-11.6967
▁sündmus	-11.6967
▁suudaksid	-11.6969
▁kaardista	-11.6969
▁teemadest	-11.697
▁perekonnaseadus	-11.697
▁bürokraatlik	-11.6971
▁vangide	-11.6971
▁metsade	-11.6973
kohast	-11.6973
▁arenduse	-11.6974
▁võrreldavad	-11.6974
projekt	-11.6977
▁kaugemal	-11.6978
▁kujune	-11.6978
vaidlus	-11.6978
▁hirmud	-11.6978
erakonnakaaslane	-11.6978
▁regulatsioonide	-11.6979
▁erivajadus	-11.6982
▁tahtest	-11.6986
▁päästja	-11.6987
▁sultsi	-11.6988
▁vanemahüvitist	-11.6989
▁alternatiive	-11.6991
▁paisu	-11.6992
▁pevkurile	-11.6993
▁ületanud	-11.6995
▁riigivara	-11.6995
periood	-11.6995
▁tänavuse	-11.6999
▁käik	-11.6999
▁suuremal	-11.7
kolleegid	-11.7001
▁inflatsioon	-11.7004
▁rõhuasetus	-11.7008
▁umbusalda	-11.7008
▁kangro	-11.7008
▁säilib	-11.7008
▁tahtmist	-11.7008
▁kindlustunde	-11.7008
▁komme	-11.701
meresõiduohutuse	-11.7011
▁internetti	-11.7012
▁lähis	-11.7013
▁tegutsevate	-11.7013
▁käsitlesime	-11.7013
▁liig	-11.7013
▁kahtlen	-11.7016
▁edastan	-11.7016
▁vaidlema	-11.7017
▁teineteise	-11.7017
▁tootlikkuse	-11.7018
▁suureneks	-11.7019
▁1200	-11.7019
▁võti	-11.7021
▁ühekordne	-11.7022
▁jõ	-11.7023
▁valmistatakse	-11.7025
▁käsitleme	-11.7025
▁vaikust	-11.7026
▁keskkonnale	-11.7028
▁nuti	-11.7029
▁tankla	-11.7029
▁süüd	-11.7032
ollektiivlepingu	-11.7035
▁sisalduva	-11.7037
▁pöördmaksustami	-11.7037
rahvas	-11.7038
▁olümpia	-11.7039
▁koori	-11.7039
▁haiguse	-11.704
kaup	-11.7042
▁koostama	-11.7042
▁lasteaeda	-11.7043
▁karilaidi	-11.7045
▁õnneliku	-11.7049
▁põhjendamatu	-11.7051
▁tuu	-11.7051
▁õppimis	-11.7052
▁eraõiguslik	-11.7052
▁kolleegile	-11.7052
▁väikestes	-11.7052
▁abivajaja	-11.7054
▁toiminguid	-11.7056
▁üldhariduskooli	-11.7057
▁iseseisvus	-11.7057
▁jalga	-11.7058
riigid	-11.7058
▁avalduste	-11.7061
▁lühem	-11.7061
▁kuluhüvitis	-11.7063
▁tegelikkus	-11.7064
▁litsentsi	-11.7065
▁kogutakse	-11.7065
▁korraldust	-11.7066
▁suhtelise	-11.7066
▁tiheda	-11.7066
▁abiga	-11.7067
▁ministeeriumist	-11.707
▁kasulikum	-11.7074
sõja	-11.7078
▁kindlat	-11.7078
▁eaka	-11.708
▁missioonidel	-11.7082
▁lõpetama	-11.7082
▁110	-11.7084
▁ene	-11.7086
▁ilmu	-11.7087
▁spekuleeri	-11.7088
▁võõras	-11.7093
▁reformierakonda	-11.7094
käivitu	-11.7096
▁esinaine	-11.7096
▁identiteet	-11.7096
▁innovaatilis	-11.7096
▁kärpida	-11.7096
▁eesotsas	-11.7096
▁sõprade	-11.7096
▁seltskonna	-11.7097
▁hüppeliselt	-11.7097
vahelehüüe	-11.71
▁oskust	-11.7101
▁kriisiabi	-11.7101
rühm	-11.7101
▁kiiremas	-11.7102
▁valitsemise	-11.7103
▁eestvedaja	-11.7104
▁vastuvõtmisel	-11.7105
▁venelased	-11.7106
▁sattuda	-11.7107
▁esinenud	-11.7108
▁käisime	-11.7109
▁põlluaasa	-11.7109
▁debatid	-11.711
▁luge	-11.7111
▁15-	-11.7113
▁ametnikele	-11.7117
▁kristjan	-11.7118
▁nädalatel	-11.7118
keskkonnas	-11.712
▁arendamisel	-11.712
▁mõis	-11.7123
koormuse	-11.7124
▁õigusselgus	-11.7126
kompenseeritakse	-11.7128
▁mõjutanud	-11.7128
▁hasartmängu	-11.7131
kiirus	-11.7133
▁asuvate	-11.7133
▁elujõu	-11.7134
pidamist	-11.7135
▁võrumaa	-11.7137
▁kõve	-11.7138
jäämise	-11.7142
eelne	-11.7143
▁austus	-11.7144
hvi	-11.7146
▁reaalsete	-11.7147
▁eestlasi	-11.7147
siim	-11.7152
▁huvigruppidega	-11.7155
▁materjal	-11.7156
riiki	-11.7158
sugu	-11.7159
▁infosüsteemide	-11.7159
▁loomingu	-11.7163
jandusprognoosi	-11.7164
▁maailmaturu	-11.7166
▁õigusruumi	-11.7169
▁tähendas	-11.717
▁kandidaate	-11.717
▁endist	-11.7171
▁katteallikad	-11.7171
▁kaevandamise	-11.7172
▁minek	-11.7172
kivi	-11.7174
▁rohelist	-11.7175
▁tingimustele	-11.7175
▁toetusest	-11.7179
▁uskumatu	-11.7181
▁raid	-11.7183
pöörd	-11.7184
▁araabia	-11.7186
▁arengusuundade	-11.7186
▁filosoofia	-11.7186
▁mõistnud	-11.7186
▁peakorteri	-11.7188
▁initsiatiivil	-11.7188
▁pangakonto	-11.7188
▁rikkumisi	-11.7189
▁kulukuse	-11.7189
▁noorsootöö	-11.7189
aktsiooni	-11.7195
▁reguleeritakse	-11.7195
▁põhjustanud	-11.7196
vilja	-11.7196
oskus	-11.7196
▁johannes	-11.7197
▁sundida	-11.7198
▁hallata	-11.7198
▁ehitanud	-11.7198
▁lahtise	-11.7199
▁arvutatud	-11.72
▁kaevandamis	-11.72
▁intervjuus	-11.7202
▁muutuste	-11.7205
▁põhjustab	-11.7205
▁mõjuanalüüs	-11.7205
▁pöördub	-11.7206
▁ettevõtmise	-11.7207
▁teagi	-11.7208
▁sini	-11.7209
▁teedele	-11.721
▁mugavam	-11.7212
▁imestama	-11.7213
▁proovida	-11.7215
▁arupärimistele	-11.7218
▁autorite	-11.7218
▁teooria	-11.7219
terminal	-11.7221
tulemuste	-11.7224
▁kasutamisel	-11.7224
▁kontori	-11.7224
▁kasutamisest	-11.7224
▁järgmisele	-11.7226
▁võitlemise	-11.7226
aastast	-11.7228
arne	-11.7232
astri	-11.7232
▁saabuva	-11.7236
▁näitajate	-11.7239
▁teenima	-11.7241
▁lapsevanemate	-11.7242
▁peatus	-11.7244
▁filosoofilise	-11.7244
▁kuudel	-11.7245
▁panid	-11.7257
▁hoones	-11.7258
▁säästlik	-11.7262
tatav	-11.7263
teenistuja	-11.7264
▁luu	-11.7264
▁tuum	-11.7268
▁hääletamissedel	-11.727
▁kaugkütte	-11.727
▁pädevad	-11.7272
▁lõhki	-11.7272
▁osaline	-11.7275
▁maksimaalne	-11.7276
▁spetsiifiline	-11.7276
▁tüdruku	-11.7276
▁energiajookide	-11.7276
▁video	-11.7276
▁sedeli	-11.7276
▁paarkümmend	-11.7277
▁kodumaal	-11.7277
▁äriseadustiku	-11.7277
▁paslik	-11.7279
▁osalust	-11.7279
▁hulgaliselt	-11.728
▁suudate	-11.728
▁elamis	-11.728
▁otstarbekam	-11.7281
[...]
