<unk>	0
<s>	0
</s>	0
,	-2.70915
.	-3.2015
▁on	-3.59323
▁et	-4.0942
▁ja	-4.09621
▁ei	-4.38725
!	-4.68972
▁	-4.72403
▁"	-4.77955
▁see	-4.84975
▁ka	-4.94271
▁kui	-5.143
s	-5.19757
▁seda	-5.26941
▁siis	-5.30928
d	-5.31804
t	-5.34031
▁ole	-5.3473
-	-5.35939
st	-5.36362
▁selle	-5.42033
▁me	-5.42811
le	-5.46694
▁ma	-5.48752
ga	-5.54632
▁mis	-5.56749
▁või	-5.61493
!"	-5.66372
▁Ma	-5.67787
l	-5.68144
Aitäh	-5.71479
▁väga	-5.73656
▁Eesti	-5.75886
e	-5.78789
▁aga	-5.79685
▁eelnõu	-5.82747
."	-5.84298
ks	-5.8765
i	-5.90729
▁Riigikogu	-5.91433
?	-5.91647
▁oma	-5.9535
▁See	-6.04961
▁oli	-6.05737
▁te	-6.06775
▁palun	-6.12403
▁nii	-6.12493
▁–	-6.1649
▁kes	-6.20164
▁kas	-6.21612
▁Aga	-6.25191
▁Kui	-6.27824
id	-6.28948
▁siin	-6.29592
te	-6.30072
▁meie	-6.33788
▁mitte	-6.36302
▁Kas	-6.37071
▁need	-6.37871
▁mida	-6.39036
▁küsimus	-6.42043
▁olnud	-6.47083
▁välja	-6.47799
?"	-6.48611
▁seaduse	-6.49477
▁oleks	-6.5134
▁üle	-6.54355
▁ning	-6.55649
ud	-6.56511
▁palju	-6.57473
▁võib	-6.57651
lt	-6.58024
▁neid	-6.60456
▁nagu	-6.60552
▁kohta	-6.62091
▁Palun	-6.62196
▁tuleb	-6.63735
▁nende	-6.65126
:	-6.65225
▁veel	-6.66031
▁ta	-6.66283
▁Euroopa	-6.66323
▁juhataja	-6.68021
▁sellest	-6.68501
▁üks	-6.68699
▁teha	-6.69059
▁vastu	-6.69746
▁aasta	-6.70606
▁kus	-6.72941
▁meil	-6.74077
▁teie	-6.74153
▁juba	-6.74224
▁kõik	-6.75196
▁Me	-6.75289
▁hea	-6.78176
▁eest	-6.78223
▁raha	-6.78628
▁praegu	-6.79638
▁muudatus	-6.81333
▁kuidas	-6.82399
▁kindlasti	-6.82896
▁nad	-6.85354
▁minister	-6.86169
▁ju	-6.86591
▁ära	-6.88078
▁selles	-6.90105
▁mille	-6.92138
▁ette	-6.95221
▁võimalik	-6.96038
▁riigi	-6.96291
▁rohkem	-6.96504
▁oleme	-6.97123
▁saa	-6.9764
▁peaks	-6.97839
da	-6.98318
▁arvan	-6.99949
b	-7.00103
▁olla	-7.0108
▁saab	-7.01248
▁ettekandja	-7.01728
ma	-7.02389
na	-7.0328
▁aastal	-7.04453
▁minu	-7.04727
▁juurde	-7.05673
▁näiteks	-7.0622
sse	-7.0642
▁Vabariigi	-7.09251
▁tegelikult	-7.09288
ta	-7.09479
de	-7.09803
▁Ja	-7.10642
▁Aitäh	-7.1074
gi	-7.11426
▁olema	-7.12225
▁nüüd	-7.12858
▁olen	-7.13092
▁öelda	-7.13729
▁Nii	-7.13756
▁tagasi	-7.14094
▁sest	-7.14115
▁ainult	-7.14418
n	-7.14548
▁küll	-7.15102
a	-7.15492
▁vaid	-7.16816
▁peab	-7.1724
▁teine	-7.17578
▁vaja	-7.18395
▁seal	-7.18746
me	-7.19021
▁aru	-7.1997
▁võiks	-7.22929
▁võtta	-7.24271
▁selline	-7.24429
ne	-7.24677
▁ühe	-7.247
▁midagi	-7.25267
▁kogu	-7.25269
▁lugemine	-7.254
▁puhul	-7.25425
▁Eestis	-7.25858
mine	-7.26205
▁""	-7.26894
▁läbi	-7.27077
▁Hea	-7.27481
vad	-7.27781
se	-7.2814
▁härra	-7.28461
olla	-7.28866
▁küsimuse	-7.29588
▁sellega	-7.31213
▁Lugupeetud	-7.33539
▁teile	-7.34514
▁kõige	-7.34937
▁kokku	-7.35162
▁ega	-7.35746
▁kolleegid	-7.36079
▁Liidu	-7.36137
▁sellele	-7.37035
▁ikkagi	-7.37331
▁just	-7.38325
ki	-7.38361
▁edasi	-7.39128
▁eurot	-7.39247
▁suur	-7.396
▁küsimusi	-7.39848
▁osa	-7.41079
▁inimesed	-7.41299
▁Te	-7.42833
▁peale	-7.43304
▁täna	-7.43592
▁Austat	-7.4455
▁ehk	-7.44819
▁muutmise	-7.45712
▁olemas	-7.46005
u	-7.46353
▁selleks	-7.47179
▁poolt	-7.47562
nud	-7.48335
▁ise	-7.48542
ni	-7.49744
▁riik	-7.49905
tud	-7.50948
ti	-7.51086
▁miks	-7.51633
▁puudutab	-7.52253
m	-7.5248
▁Minu	-7.53676
▁valitsus	-7.54255
▁ajal	-7.54311
▁sa	-7.54442
▁töö	-7.55192
▁ettepanek	-7.55331
mist	-7.55702
▁komisjoni	-7.56617
▁enne	-7.56965
▁kolleeg	-7.56987
▁enam	-7.57379
▁Mis	-7.57992
▁fraktsiooni	-7.59174
▁esimees	-7.60039
sid	-7.60584
▁lihtsalt	-7.60904
komisjoni	-7.61175
des	-7.61551
▁pärast	-7.62094
▁saanud	-7.62652
▁Selle	-7.6324
▁tõesti	-7.63282
▁saada	-7.63869
▁üldse	-7.63961
▁kaks	-7.64
▁teema	-7.64132
▁pole	-7.6426
Austat	-7.65871
▁päris	-7.66798
▁hästi	-7.67647
takse	-7.68081
▁inimeste	-7.68758
v	-7.69223
▁eelarve	-7.69377
""	-7.69559
▁seisukoht	-7.69653
▁olete	-7.69801
▁asi	-7.71136
▁Seda	-7.712
▁tema	-7.71779
▁miljonit	-7.72054
▁saalis	-7.72071
▁Ka	-7.7246
▁juhul	-7.7259
▁tänu	-7.72906
▁Valitsuse	-7.72962
▁tehtud	-7.73046
▁esimene	-7.73062
▁jooksul	-7.74713
▁teinud	-7.74843
▁n	-7.76579
▁kord	-7.76932
▁olid	-7.77708
▁ettepaneku	-7.77786
ministeeriumi	-7.78687
▁teada	-7.78704
▁anda	-7.78905
▁aastat	-7.79539
▁nimel	-7.79695
▁seotud	-7.80504
▁keegi	-7.80593
mise	-7.80757
▁eesistuja	-7.80768
▁iga	-7.81515
▁õigus	-7.8178
▁teise	-7.82369
▁Head	-7.826
▁mul	-7.82972
▁oluline	-7.83487
▁minutit	-7.83971
▁jaoks	-7.84988
▁siiski	-7.85112
▁sotsiaal	-7.85793
▁inimesi	-7.87094
▁korda	-7.87215
▁hääletada	-7.87262
▁teatud	-7.87296
▁otsuse	-7.87775
▁valitsuse	-7.87877
▁seadus	-7.88472
▁mina	-7.89345
ö	-7.89821
▁e	-7.89924
▁läheb	-7.90747
▁kaasa	-7.91264
▁mõttes	-7.91267
▁peaminister	-7.91655
▁algatatud	-7.91686
▁arvates	-7.91966
▁täiesti	-7.9208
▁esitatud	-7.921
▁asja	-7.92301
▁probleem	-7.92597
▁ongi	-7.9267
▁poole	-7.93326
▁Sotsiaal	-7.93486
▁aeg	-7.93553
▁tegemist	-7.93584
▁tuleks	-7.93648
▁arutelu	-7.93784
▁isegi	-7.93838
▁meile	-7.93947
▁eri	-7.93956
▁järgi	-7.94528
▁tea	-7.94991
▁võimalus	-7.95203
▁istungi	-7.95521
▁(	-7.95782
▁On	-7.95796
▁ikka	-7.95925
▁pea	-7.96037
▁Mul	-7.9642
▁tähendab	-7.965
▁aega	-7.96501
▁mingi	-7.97233
▁Need	-7.97251
▁majandus	-7.97885
▁liiget	-7.98391
▁lugupeetud	-7.99476
▁seaduseelnõu	-7.99507
▁sellist	-7.997
▁teiste	-8.0034
▁saavad	-8.00547
▁kuna	-8.00703
es	-8.01127
▁koos	-8.01403
▁Mina	-8.01446
▁jääb	-8.01715
ed	-8.02056
▁Kuidas	-8.02275
▁alla	-8.02475
▁liikmed	-8.02653
ettepaneku	-8.02669
▁peame	-8.02997
▁tähelepanu	-8.03142
▁täpselt	-8.03474
▁selge	-8.03905
▁esitanud	-8.04216
▁komisjonis	-8.05033
Ma	-8.05715
▁Keskerakonna	-8.06541
▁nr	-8.06958
▁kuidagi	-8.06958
▁rääkida	-8.07057
is	-8.07217
▁eesmärk	-8.07494
▁Nagu	-8.07507
▁kolm	-8.07581
▁natuke	-8.0795
Hea	-8.08005
ku	-8.08085
Palun	-8.08224
▁inimene	-8.08385
▁alati	-8.08435
▁austatud	-8.08865
▁loomulikult	-8.09003
▁sõna	-8.0956
▁vähemalt	-8.09712
▁Nüüd	-8.09912
▁õige	-8.10513
▁teeb	-8.10896
▁kuni	-8.11153
r	-8.1132
▁minna	-8.12016
▁soovi	-8.12489
▁kõnetooli	-8.1267
▁Ei	-8.12782
▁Meie	-8.13415
▁elu	-8.13438
▁tööd	-8.13469
▁saaks	-8.13647
▁teil	-8.14019
▁läbirääkimised	-8.14076
ega	-8.14339
▁000	-8.15278
▁sinna	-8.15449
▁räägime	-8.15693
▁fraktsioon	-8.16006
▁Eelnõu	-8.1644
▁sellel	-8.16696
▁vahel	-8.16938
▁vaadata	-8.17493
ettepanek	-8.18068
▁peavad	-8.18655
▁otsus	-8.18699
▁Meil	-8.19186
ide	-8.19269
▁siia	-8.19993
▁valmis	-8.20168
line	-8.20232
Lugupeetud	-8.20842
▁toetust	-8.20871
▁nõus	-8.20883
▁tegema	-8.21016
▁eesti	-8.21117
▁küsimust	-8.21419
▁korral	-8.21468
▁üsna	-8.21786
ettepanekute	-8.22389
▁mõju	-8.22704
tele	-8.23073
▁olukord	-8.23321
ge	-8.2337
▁pigem	-8.23401
▁saame	-8.24018
o	-8.24089
▁liikme	-8.24277
▁kodu	-8.24325
▁ees	-8.24731
est	-8.25168
▁pool	-8.25889
▁kell	-8.25896
▁mulle	-8.26122
ke	-8.26298
▁sisse	-8.2633
▁ütlesin	-8.26385
▁Kindlasti	-8.26588
▁lõpetada	-8.2659
▁selgelt	-8.26674
▁saan	-8.26804
▁võetud	-8.2704
▁Siin	-8.27057
▁aja	-8.27089
▁sellise	-8.2725
▁alusel	-8.27561
▁tõepoolest	-8.27675
ja	-8.27862
▁a	-8.28485
▁tõttu	-8.28669
▁Miks	-8.28746
▁millest	-8.29074
va	-8.29875
▁kuid	-8.30014
▁panna	-8.30361
▁ütlen	-8.30637
▁kultuuri	-8.31222
in	-8.31321
▁Praegu	-8.31325
▁samuti	-8.31498
▁all	-8.31509
seaduse	-8.3176
▁omavalitsuste	-8.32046
▁sama	-8.321
▁suurem	-8.32384
test	-8.32426
▁teid	-8.33063
▁muuta	-8.33905
▁Tallinna	-8.33949
▁ütles	-8.34148
▁kohaselt	-8.34387
▁tulevikus	-8.34456
Suur	-8.34948
▁kahe	-8.35076
▁liige	-8.35139
▁öelnud	-8.3517
▁küsimusele	-8.35337
▁vähem	-8.35652
ministeerium	-8.35664
▁Samas	-8.35812
▁tuli	-8.35921
▁kasutada	-8.35924
▁tahan	-8.36036
▁hakkab	-8.36044
▁enda	-8.36052
▁omavalitsuse	-8.36064
▁neile	-8.36153
▁koalitsiooni	-8.36591
▁annab	-8.36727
▁jäänud	-8.36754
▁keskkonna	-8.36811
▁hääletusele	-8.37093
▁igal	-8.37137
▁kunagi	-8.37406
▁mitu	-8.37715
▁teame	-8.38808
▁kaitse	-8.38817
▁Üks	-8.39129
▁päevakorrapunkt	-8.39147
▁kooli	-8.39245
komisjon	-8.40166
▁sel	-8.40291
▁muidugi	-8.40523
▁teeme	-8.40803
▁meelest	-8.40855
▁eriti	-8.41209
▁mingit	-8.4136
▁küsin	-8.41433
▁1.	-8.4163
▁raske	-8.41688
▁üles	-8.41786
▁riigieelarve	-8.41907
▁millega	-8.42024
▁Võib	-8.42125
ka	-8.42138
▁laste	-8.42165
▁kelle	-8.42251
▁tulnud	-8.42516
▁20	-8.42634
▁istungil	-8.42734
el	-8.42741
▁umbes	-8.42878
▁niimoodi	-8.43029
k	-8.4303
▁euro	-8.43316
▁põhiseadus	-8.43511
▁pean	-8.43518
▁neil	-8.43849
▁loodan	-8.44038
▁ilma	-8.44505
▁mõistlik	-8.44951
▁kõiki	-8.44956
▁keele	-8.45274
▁Rahandus	-8.45352
▁tehakse	-8.45442
▁haridus	-8.45507
▁Ta	-8.45727
▁esitada	-8.45784
▁proua	-8.46119
▁arv	-8.46259
▁täielikult	-8.46327
▁abi	-8.46532
▁ümber	-8.46653
▁komisjon	-8.46777
▁varem	-8.47158
▁tänan	-8.4716
▁probleemi	-8.47407
▁usun	-8.47459
▁ilmselt	-8.47686
tes	-8.47711
▁uue	-8.47915
▁milline	-8.48037
▁Andres	-8.48108
▁asju	-8.48232
▁esitamise	-8.48568
▁kohaliku	-8.48773
▁liiga	-8.49302
▁asjad	-8.49629
ra	-8.4968
la	-8.49699
▁lisa	-8.49854
▁head	-8.49958
▁kinni	-8.50162
▁toimub	-8.50209
2	-8.50227
▁kontrolli	-8.50252
▁ühte	-8.50306
▁kaudu	-8.50384
▁esindaja	-8.50399
▁kohe	-8.50737
us	-8.50995
▁tee	-8.51058
▁mõni	-8.51108
▁Muudatus	-8.51157
▁taga	-8.51264
h	-8.51283
▁väike	-8.51321
▁selliseid	-8.51466
▁summa	-8.51597
▁nõukogu	-8.51631
▁küsija	-8.51877
▁arvestada	-8.52177
▁alkoholi	-8.52265
▁jne	-8.5234
▁jäi	-8.52399
▁maksu	-8.52516
sin	-8.5253
▁Reformierakonna	-8.5257
▁küsida	-8.52574
▁taha	-8.53087
▁viia	-8.53115
▁võtnud	-8.53286
▁nimelt	-8.53354
mis	-8.53801
▁tulla	-8.5405
▁suure	-8.54484
Hääletustulemuse	-8.54514
▁ütleb	-8.5455
▁eraldi	-8.54651
▁hoopis	-8.548
▁Riigikogus	-8.54837
▁mõne	-8.55388
poliitika	-8.55416
▁inimestele	-8.55557
▁nendest	-8.55659
▁sai	-8.55818
▁Loomulikult	-8.55877
tus	-8.56065
Tänan	-8.56167
▁vaatame	-8.56218
ri	-8.56738
▁juhtivkomisjoni	-8.56744
▁hakkama	-8.57435
▁leidnud	-8.57488
▁pidada	-8.5764
▁Tegelikult	-8.57683
▁muud	-8.58088
▁tuua	-8.58253
▁maa	-8.58594
maks	-8.58647
▁ütlesite	-8.58652
▁olukorda	-8.58808
si	-8.58808
ele	-8.5895
▁Juhtivkomisjoni	-8.59065
▁tekib	-8.59228
▁võimaluse	-8.59272
▁silmas	-8.59447
▁Valitsus	-8.59527
▁muu	-8.59666
4	-8.5997
▁eelkõige	-8.60028
▁huvi	-8.60252
▁jätta	-8.60262
▁tegi	-8.60304
sime	-8.60688
▁vähe	-8.60694
▁järgmise	-8.61183
▁näha	-8.61244
8	-8.61288
▁sisuliselt	-8.61319
▁sisu	-8.61347
▁E	-8.61411
▁Jah	-8.61535
▁tähtajaks	-8.61681
▁uus	-8.61803
▁kuigi	-8.61833
▁täiskogu	-8.61892
▁näeme	-8.61978
▁inimese	-8.61996
▁sellepärast	-8.62023
▁kirjas	-8.62313
▁läinud	-8.62434
▁piiri	-8.62528
▁läbirääkimisi	-8.62988
ettepanekut	-8.63329
▁tule	-8.63478
▁riigis	-8.63519
▁käigus	-8.6371
▁tundub	-8.63736
▁juttu	-8.6389
▁seadust	-8.64126
▁eelnõuga	-8.64304
▁jah	-8.64388
▁endale	-8.64451
▁hakata	-8.64654
▁Kuna	-8.64806
ü	-8.64896
▁tal	-8.65093
▁jõudnud	-8.65158
▁kümme	-8.65264
tega	-8.65433
▁ennast	-8.65557
3	-8.6567
▁s	-8.65749
▁tohi	-8.65797
▁suhtes	-8.65849
tel	-8.65896
▁Rohkem	-8.6613
▁Näiteks	-8.6626
▁viis	-8.66405
▁millised	-8.66454
▁teemat	-8.66512
▁Suur	-8.66552
tu	-8.66599
▁rahva	-8.66934
▁Teine	-8.67027
▁palga	-8.67219
▁leida	-8.67219
▁teemal	-8.67973
▁alles	-8.67988
▁arvu	-8.68016
▁Kõik	-8.6829
▁järgmisel	-8.68491
▁paremini	-8.68616
▁meelde	-8.68637
5	-8.68974
▁liikmete	-8.68984
▁võime	-8.69043
▁arvestamata	-8.69234
dega	-8.6936
▁Kõigepealt	-8.69363
▁arupärimise	-8.69573
▁seaduste	-8.69635
▁k	-8.69757
miseks	-8.70262
lise	-8.70524
▁hetkel	-8.70915
▁sealt	-8.71015
▁esimese	-8.71016
▁juures	-8.7109
▁kolme	-8.71092
▁põhjus	-8.7126
▁Jüri	-8.71277
▁kuhu	-8.71329
▁Helme	-8.71462
▁teist	-8.71495
▁ühtegi	-8.71685
▁käib	-8.7198
gu	-8.71999
▁vastata	-8.72097
▁võivad	-8.72367
▁osas	-8.72674
▁seoses	-8.72925
▁kellel	-8.72938
re	-8.7308
▁peaksid	-8.7313
▁probleeme	-8.73145
▁Teie	-8.73181
▁oleksid	-8.74079
▁natukene	-8.74159
▁võimalust	-8.74206
▁tõsta	-8.74274
▁päeva	-8.74317
▁lisaaega	-8.74653
▁ühel	-8.74673
▁eelmise	-8.74693
▁oska	-8.74758
1	-8.74827
▁otsused	-8.74925
▁inimest	-8.75122
▁küsimused	-8.75145
▁käest	-8.7519
▁Erakonna	-8.75284
▁kohalike	-8.75367
▁antud	-8.75519
▁puudub	-8.75637
demokraatliku	-8.75776
▁mõned	-8.75849
Head	-8.75963
▁maha	-8.75981
▁mind	-8.76056
▁parem	-8.76191
▁süsteemi	-8.76261
▁esindajad	-8.76509
▁paljud	-8.76524
ä	-8.77117
pi	-8.77145
er	-8.77516
▁Vabaerakonna	-8.77673
▁teised	-8.77898
▁Venemaa	-8.77943
▁ettekandjale	-8.77944
▁öeldud	-8.78212
vi	-8.78256
dest	-8.78375
▁omavalitsused	-8.784
▁riikide	-8.78609
▁tulevad	-8.78865
▁mõte	-8.7894
▁nendele	-8.78979
▁Ida	-8.79221
▁sellised	-8.79343
▁hulgas	-8.79491
9	-8.79547
▁1	-8.79556
▁riigikaitse	-8.7963
▁Küsimus	-8.79718
▁kuu	-8.79955
–	-8.80093
▁toetada	-8.80228
▁piisavalt	-8.80618
▁miljoni	-8.80633
▁tööle	-8.80973
▁ettepanekut	-8.81019
▁seaduses	-8.81436
▁näe	-8.81452
▁peaksime	-8.81486
▁Selles	-8.81877
6	-8.81961
▁omavalitsus	-8.8203
▁maksta	-8.82033
p	-8.82044
▁tasu	-8.82217
▁lõpuks	-8.82228
▁kõigile	-8.82272
▁millele	-8.82292
▁terve	-8.82391
▁tervise	-8.82521
▁lõppenud	-8.82728
▁10	-8.82819
▁Mida	-8.83211
▁jälle	-8.83679
▁S	-8.83896
▁süsteem	-8.83956
▁vaba	-8.84146
▁kätte	-8.84571
nn	-8.8458
▁Komisjoni	-8.84721
▁siit	-8.85157
▁Teiseks	-8.85418
it	-8.85694
▁Nad	-8.85814
7	-8.85826
▁Avan	-8.86315
▁analüüsi	-8.86326
il	-8.86664
▁töökorra	-8.8668
▁lapse	-8.86875
▁kirja	-8.87136
▁h	-8.87155
▁hääletas	-8.87172
ksid	-8.87239
)	-8.87419
▁teadus	-8.87493
▁kõigi	-8.8761
▁saama	-8.87631
▁kahjuks	-8.88072
▁pensioni	-8.88183
lik	-8.8833
▁koostöö	-8.88454
ist	-8.88805
▁kahju	-8.88843
▁meel	-8.88912
▁küsimuses	-8.88979
▁15	-8.88997
tav	-8.89039
▁Aru	-8.89225
▁alates	-8.89313
▁erapooletuid	-8.89332
▁tulu	-8.89335
▁seetõttu	-8.89402
▁vist	-8.89494
▁Siis	-8.89679
▁Väga	-8.89727
site	-8.90143
▁vale	-8.90173
▁vahe	-8.90176
▁2	-8.90192
▁ettekande	-8.9039
▁kiiresti	-8.90405
▁lahendada	-8.90641
▁pealt	-8.90758
▁uuesti	-8.91134
▁otsuseid	-8.91155
▁Seetõttu	-8.91265
▁panen	-8.9143
▁kuus	-8.91592
▁Küll	-8.91595
▁edaspidi	-8.91648
▁teevad	-8.91676
▁tahame	-8.91733
▁võimalusi	-8.91745
komisjonis	-8.91818
▁parlamendi	-8.9182
▁põllumajandus	-8.91823
▁otsustas	-8.92179
▁esimehe	-8.92285
▁Sellest	-8.92408
▁hoida	-8.92492
▁võin	-8.92699
sed	-8.929
▁sellesse	-8.93611
▁võrreldes	-8.93675
▁tulumaksu	-8.93821
▁tagada	-8.93875
▁lugemise	-8.94159
▁Tänan	-8.94362
▁tehti	-8.94365
▁Seal	-8.94528
▁Sa	-8.94632
▁lugemisel	-8.94651
▁Esiteks	-8.94729
▁juhtivkomisjon	-8.94733
▁oluliselt	-8.94863
▁hakka	-8.94889
▁ühiskonnas	-8.95136
list	-8.95209
▁rääkinud	-8.9522
▁Esimene	-8.95346
▁olukorras	-8.95371
▁justkui	-8.95381
▁õpetajate	-8.95398
ru	-8.95584
▁sh	-8.95658
▁vajalik	-8.95662
▁nähtud	-8.9577
▁hinnangul	-8.95781
▁vastus	-8.95919
▁avaliku	-8.96015
▁konkreetse	-8.96034
▁arutada	-8.96182
▁Tartu	-8.96428
▁suunas	-8.96599
▁kohtu	-8.96669
iga	-8.96745
▁suurt	-8.96751
▁mingeid	-8.96844
▁meid	-8.96878
▁toetus	-8.97198
▁tasemel	-8.97227
▁rahandus	-8.97392
▁Soome	-8.97475
▁ettepanekuid	-8.97673
minister	-8.97685
▁viimase	-8.97688
eid	-8.97696
▁aastatel	-8.97956
▁Eks	-8.98012
▁neli	-8.98329
▁tekkinud	-8.98367
▁erinevad	-8.98381
▁võtab	-8.98411
▁Täna	-8.98492
▁sinu	-8.985
▁Mulle	-8.985
▁Ligi	-8.98528
▁tean	-8.98614
▁mingil	-8.98618
▁esimesel	-8.98662
▁politsei	-8.98956
▁hiljem	-8.98994
▁andnud	-8.99062
▁lisaks	-8.99114
▁õigesti	-8.9914
▁maksma	-8.99172
▁võrra	-8.99193
▁kolmas	-8.99367
▁Seega	-8.99504
▁toodud	-8.99719
▁korras	-8.99722
▁konkreetselt	-8.99893
▁määral	-8.99915
pa	-9.00005
al	-9.00387
▁eks	-9.00459
▁saaksid	-9.00537
▁samas	-9.00583
▁kulu	-9.00645
▁tänase	-9.00901
▁Kuid	-9.00939
▁päevakorda	-9.01166
▁erakonna	-9.01527
li	-9.01583
▁lõpp	-9.01641
▁julgeoleku	-9.01706
▁kust	-9.01713
▁saali	-9.01857
▁toimunud	-9.0197
▁Läti	-9.01996
▁30	-9.02141
▁aastast	-9.02163
ik	-9.02234
rahandusminister	-9.02284
▁arutanud	-9.02491
▁sellisel	-9.02508
▁määrata	-9.02627
dele	-9.02699
▁tegevus	-9.0274
▁12	-9.0295
▁palka	-9.03047
▁võetakse	-9.03189
▁ütleme	-9.03258
▁ühes	-9.03452
▁vähendada	-9.03552
▁tegu	-9.03601
▁neist	-9.03639
▁muutunud	-9.03855
▁tõenäoliselt	-9.04014
▁aktsiisi	-9.04256
▁vastuse	-9.04274
▁Mihhail	-9.0452
▁lepingu	-9.0455
▁linna	-9.0484
▁lahendus	-9.04951
▁kõne	-9.05046
▁arvestatud	-9.05066
▁tulenevalt	-9.0526
▁Aivar	-9.05265
▁aseesimees	-9.05407
▁arutas	-9.05418
0	-9.05722
del	-9.05938
▁soovivad	-9.06206
▁toimus	-9.06226
▁pidanud	-9.06279
▁juhatuse	-9.06301
▁näeb	-9.06457
▁laenu	-9.06547
▁saata	-9.06634
▁ettekandeks	-9.06669
▁peaaegu	-9.06713
tavad	-9.0677
▁suhteliselt	-9.06786
▁öeldes	-9.07024
▁talle	-9.07248
▁NATO	-9.07399
▁mitme	-9.07503
eks	-9.07547
▁kohal	-9.07569
▁ühiskonna	-9.07661
▁finants	-9.07671
▁koosseisu	-9.07671
▁lapsed	-9.07709
▁abil	-9.07878
▁ministeeriumi	-9.07882
tamine	-9.0789
▁eelnõus	-9.07943
▁kõike	-9.07966
▁fraktsioonide	-9.07987
▁põhimõtteliselt	-9.08048
▁järelevalve	-9.08074
▁A	-9.08282
▁keeles	-9.08382
▁riigile	-9.08404
▁lihtne	-9.08539
▁korra	-9.09164
V	-9.09285
▁Herkel	-9.09485
▁riikides	-9.09491
▁Nende	-9.09528
▁reformi	-9.09653
▁mõtet	-9.09668
▁samamoodi	-9.09683
▁suurendada	-9.09769
▁T	-9.09931
▁100	-9.10229
ettepanekuid	-9.10234
▁võimalikul	-9.10289
▁kõigepealt	-9.10321
▁aitäh	-9.10385
Kohaloleku	-9.10473
▁luua	-9.10519
▁kontroll	-9.10596
mata	-9.10627
▁kümne	-9.10675
▁hulk	-9.10747
▁ministri	-9.10977
▁võtame	-9.11009
▁võiksid	-9.11049
▁küsimustele	-9.11064
▁kindel	-9.11334
▁poliitika	-9.1146
ite	-9.11607
▁tõsiselt	-9.1166
▁ellu	-9.11728
▁seni	-9.11854
▁välis	-9.11865
use	-9.11929
▁lõpetatud	-9.1222
▁kohustus	-9.12273
▁Urmas	-9.12417
▁ülevaate	-9.12426
▁asemel	-9.12562
tuse	-9.12564
▁Tarmo	-9.12703
▁riiki	-9.12737
S	-9.12885
▁IRL	-9.12933
▁alguses	-9.12959
▁põhi	-9.13084
▁keeruline	-9.13264
▁praegune	-9.13276
▁koht	-9.13304
taks	-9.13557
▁mõeldud	-9.13689
▁suured	-9.13741
eri	-9.13744
▁kuulu	-9.1381
▁korduvalt	-9.13872
▁lähevad	-9.13928
▁Jürgen	-9.13941
▁samal	-9.14113
▁keda	-9.14119
▁vara	-9.14209
liselt	-9.1426
Härra	-9.1445
▁näinud	-9.14479
▁valdkonnas	-9.14524
nd	-9.1461
▁kuskil	-9.14629
an	-9.14776
▁Keskkonna	-9.14836
ap	-9.15013
tada	-9.15042
▁näitab	-9.151
▁teate	-9.15107
misega	-9.15109
▁punkti	-9.15748
▁ametikaaslased	-9.1582
▁Isamaa	-9.15911
mad	-9.15984
▁saate	-9.16003
▁Mart	-9.16361
▁mure	-9.16396
▁pandud	-9.16543
▁Komisjon	-9.16585
▁50	-9.16901
▁taas	-9.17029
▁peal	-9.17059
▁Nimelt	-9.17259
"".	-9.17444
▁Samuti	-9.17565
▁soov	-9.17758
f	-9.17843
▁sain	-9.18001
▁aastas	-9.18028
▁põhjal	-9.18096
▁lugeda	-9.18101
▁puutub	-9.18254
▁Teile	-9.18256
▁keelt	-9.18292
▁otseselt	-9.18326
▁päevakorra	-9.18374
töö	-9.18387
▁tahaks	-9.18396
▁muutub	-9.18622
▁Neid	-9.18645
▁haigekassa	-9.18999
▁kontekstis	-9.19053
ust	-9.19083
▁eelmisel	-9.1915
▁avada	-9.192
▁isiku	-9.19364
▁lahti	-9.19408
▁räägitud	-9.19473
▁jutt	-9.19506
▁aastaid	-9.19631
▁Tamm	-9.19699
▁arengukava	-9.19934
▁vastust	-9.1996
▁arvamust	-9.19975
▁moel	-9.20281
▁heaks	-9.20363
jad	-9.20385
▁vastab	-9.20413
lisi	-9.20462
▁võimalused	-9.20468
▁lähe	-9.2053
▁Liit	-9.20532
▁peaministri	-9.20589
▁hakkavad	-9.2072
▁info	-9.20732
▁viie	-9.20937
▁opositsiooni	-9.20973
ina	-9.21029
▁aastaks	-9.21039
▁järjest	-9.2108
▁järgmine	-9.21133
▁maailma	-9.21207
▁lapsi	-9.21475
▁teisel	-9.21489
or	-9.21628
▁otse	-9.2165
▁inimestel	-9.21658
▁Alustame	-9.21962
▁Justiits	-9.22006
▁järele	-9.2209
aja	-9.22431
▁käibemaksu	-9.22568
▁Olen	-9.22767
▁laiemalt	-9.22917
päevakorrapunkti	-9.22931
▁Ettepanek	-9.23041
▁lükata	-9.23163
▁vene	-9.23225
▁pere	-9.23289
▁huvides	-9.23545
▁muudatused	-9.23588
▁omavahel	-9.23597
▁õppe	-9.23629
▁muudatusi	-9.23701
▁mõelda	-9.23719
▁Härra	-9.2377
▁otsustada	-9.23798
▁vastavalt	-9.23813
▁tähtis	-9.239
▁Korb	-9.23918
▁Selleks	-9.24116
▁riigid	-9.24168
▁25	-9.24227
ile	-9.24284
▁seadusega	-9.24384
liku	-9.24405
▁ala	-9.24521
▁Kreeka	-9.24626
▁millal	-9.24634
▁mu	-9.24646
▁Euroopas	-9.24654
▁praeguse	-9.24745
▁toeta	-9.24799
▁hinna	-9.24823
▁arupärimine	-9.24864
▁Riigikohtu	-9.24966
▁põhiseaduse	-9.25045
▁pikalt	-9.25087
▁Lisaks	-9.25173
▁ükskõik	-9.25317
selt	-9.25344
▁päev	-9.25594
▁aastate	-9.25602
▁seadusena	-9.25675
.""	-9.25675
▁jäävad	-9.25705
▁valimis	-9.25808
▁Stalnuhhin	-9.26104
▁hind	-9.2611
▁asjade	-9.26113
▁võtma	-9.26148
▁kõikide	-9.26254
▁organisatsiooni	-9.26298
▁erinevaid	-9.26429
vate	-9.26454
▁minema	-9.2647
▁omavalitsustele	-9.26472
▁üldiselt	-9.26568
ar	-9.26631
▁toime	-9.26767
▁vana	-9.26862
▁olgu	-9.26968
▁juhatus	-9.27167
▁läks	-9.27379
▁põhjust	-9.27391
▁16	-9.27567
A	-9.27722
E	-9.27737
▁Riigi	-9.27916
maa	-9.28074
Kui	-9.2808
▁koostööd	-9.28088
▁nimetatud	-9.28169
▁samm	-9.2819
▁Tõepoolest	-9.28191
▁küsimuste	-9.28202
▁kriisi	-9.28373
▁valdkonna	-9.284
▁soovitakse	-9.28423
▁Kadri	-9.28493
.)	-9.28538
▁kujul	-9.28587
▁Eestisse	-9.28636
▁Ernits	-9.28746
▁kasvu	-9.28799
▁2015.	-9.28867
ad	-9.29046
▁volikogu	-9.29158
õ	-9.29167
▁suuda	-9.29253
▁elektri	-9.2928
▁plaanis	-9.29298
▁tohiks	-9.2953
▁veelgi	-9.29556
▁Peeter	-9.29563
▁Või	-9.29625
mi	-9.29823
▁noorte	-9.29856
▁vajab	-9.29875
▁tava	-9.30008
▁vabandust	-9.30069
▁õiguskantsleri	-9.30138
▁probleemid	-9.30197
▁g	-9.30304
nu	-9.30327
ha	-9.30464
▁näide	-9.30854
ksime	-9.31076
▁sõltub	-9.31119
▁5	-9.31178
▁gümnaasiumi	-9.31207
▁raames	-9.3122
liste	-9.31227
misel	-9.31244
▁tegevuse	-9.31413
▁teenuste	-9.31507
▁ülesanne	-9.31649
▁praktika	-9.3172
▁Majandus	-9.31914
ve	-9.31938
▁andma	-9.31938
▁kriminaal	-9.31957
▁läheme	-9.32053
▁rahastamise	-9.32177
▁äkki	-9.32289
▁mööda	-9.32368
ro	-9.32443
▁ettepanekud	-9.32453
▁I	-9.3251
▁põhjusel	-9.32555
▁informatsiooni	-9.32565
▁antakse	-9.32612
▁otsust	-9.32664
▁nendel	-9.32667
▁makse	-9.32689
▁mitmeid	-9.32691
▁konkreetne	-9.32692
▁ütlema	-9.32743
▁paremaks	-9.3278
▁olukorra	-9.32828
▁ulatuses	-9.32867
▁metsa	-9.32977
▁...	-9.33308
▁Sise	-9.33345
▁Jaak	-9.33383
▁16.	-9.33393
▁seisukohta	-9.33448
▁aitab	-9.33469
▁uusi	-9.33492
▁nelja	-9.33779
▁kõnepulti	-9.3399
▁parandada	-9.341
▁arvamus	-9.34118
▁näite	-9.34138
▁kolmanda	-9.34181
▁soovib	-9.34216
▁määra	-9.34232
▁pakkuda	-9.34235
▁Kolm	-9.345
ksin	-9.34511
▁tasuta	-9.34521
ndi	-9.34543
▁kulud	-9.34585
as	-9.34604
rä	-9.34628
likult	-9.34755
▁suurema	-9.34811
▁õiguskantsler	-9.34817
▁arengu	-9.34944
▁valitsuses	-9.34994
▁punkt	-9.35012
▁maailmas	-9.3503
▁vaatama	-9.35037
▁kõnesoove	-9.3514
▁iseenesest	-9.35207
▁kasvab	-9.35249
▁nendega	-9.35303
▁tahab	-9.35345
▁tervikuna	-9.35486
▁rääkima	-9.35578
lised	-9.35591
▁valla	-9.35684
▁Sven	-9.35783
▁nendes	-9.35923
▁haldusreformi	-9.35925
▁poliitiline	-9.35983
▁usu	-9.36064
▁poliitilise	-9.36083
▁K	-9.36187
▁lõpphääletusele	-9.36264
Eesti	-9.36334
▁re	-9.36421
vat	-9.36511
▁uut	-9.36607
▁kasutamise	-9.36683
ste	-9.36714
▁tegelema	-9.3683
▁nemad	-9.36892
▁vee	-9.37254
▁ühele	-9.37364
g	-9.37368
▁isiklikult	-9.3738
▁teises	-9.37391
▁eelnõusid	-9.37457
▁toetuse	-9.37467
▁13	-9.3749
▁mõnes	-9.37496
▁ra	-9.37612
▁teisi	-9.37685
▁3	-9.38019
▁võeti	-9.38074
▁täita	-9.38094
▁käinud	-9.38196
▁aidata	-9.38243
▁näete	-9.38313
▁spordi	-9.3834
▁Kõnesoov	-9.38343
▁käsitlemise	-9.38344
▁Lauri	-9.38406
▁koha	-9.38416
▁tasandil	-9.38495
▁tervishoiu	-9.38528
▁rahvusvahelise	-9.38734
▁kaua	-9.38849
▁Panga	-9.38928
▁14	-9.38968
▁tekkis	-9.38999
▁ühest	-9.39083
▁õpetaja	-9.39194
▁andis	-9.39364
▁era	-9.3957
▁ligi	-9.39577
▁lausa	-9.3971
▁palk	-9.3975
▁riikliku	-9.39751
▁teda	-9.39801
▁menetlus	-9.39865
▁nime	-9.40166
▁Ukraina	-9.40187
▁majanduse	-9.40218
▁40	-9.40287
▁la	-9.40287
▁Res	-9.4037
▁2016.	-9.40391
▁erapooletuks	-9.40396
▁Lõpetan	-9.40544
▁pa	-9.40618
See	-9.40649
▁suures	-9.40721
▁alus	-9.40729
▁kuulnud	-9.4103
▁toetab	-9.41115
▁vaheaega	-9.41183
▁maksab	-9.41253
▁ettevõtte	-9.41282
▁kohaloleku	-9.41283
raha	-9.41299
▁milleks	-9.41337
▁äri	-9.41354
▁Liidus	-9.41439
▁arvestades	-9.41557
▁Haridus	-9.41561
▁luba	-9.41628
▁olulise	-9.41827
▁paraku	-9.419
süsteemi	-9.41909
▁toob	-9.41959
▁arutatud	-9.42059
ettepanekud	-9.42104
dPoolt	-9.4214
▁kõigil	-9.42193
▁arvate	-9.42204
▁kodakondsuse	-9.42282
tust	-9.4252
at	-9.42858
▁Kalle	-9.42897
▁rääkis	-9.4298
▁Publica	-9.43223
▁piir	-9.43224
▁teiseks	-9.43279
▁Ega	-9.43392
▁11	-9.43482
malt	-9.43492
▁mingisugust	-9.43521
▁ravi	-9.43521
▁selliste	-9.43536
▁õiguse	-9.43716
▁teenuse	-9.43728
Rohkem	-9.43774
▁idee	-9.43799
▁esimest	-9.43846
▁jääda	-9.43847
jate	-9.4391
▁sise	-9.43918
▁põhjalikult	-9.44026
▁menetlemise	-9.4424
▁Narva	-9.44344
▁üht	-9.44357
ng	-9.44423
K	-9.44437
▁räägib	-9.44469
▁istungit	-9.44636
▁seesama	-9.44673
▁ettevõtete	-9.44687
▁teemaga	-9.44853
▁muid	-9.44988
▁tunne	-9.45009
▁Priit	-9.45053
▁tegelda	-9.45212
▁tähenda	-9.45247
▁2013.	-9.45291
▁17	-9.45389
▁ausalt	-9.45438
misest	-9.45533
tava	-9.4555
▁2014.	-9.45677
▁täis	-9.45702
▁12.	-9.45837
▁tulema	-9.45986
▁Maksu	-9.46024
▁väheneb	-9.46071
▁Tallinnas	-9.46266
▁st	-9.46278
▁kaheksa	-9.46347
▁Martin	-9.46372
▁Teadus	-9.46429
▁laps	-9.46542
▁konkurentsi	-9.46567
▁positiivne	-9.46593
▁algataja	-9.46605
▁teksti	-9.46702
▁sees	-9.46829
▁räägin	-9.46845
▁programmi	-9.47051
▁Millise	-9.4712
▁Simson	-9.47204
▁Taavi	-9.47315
▁sotsiaalmaksu	-9.47396
▁Määra	-9.4743
▁mingisugune	-9.4753
▁paar	-9.47981
▁kõrvale	-9.4806
▁protsessi	-9.48067
▁tihti	-9.48274
▁ameti	-9.48602
▁mõtlema	-9.48706
▁Toomas	-9.48729
▁mitmed	-9.48915
▁mere	-9.48942
▁kuulda	-9.48976
▁protsess	-9.49136
▁veidi	-9.49232
▁erakondade	-9.49347
▁väiksem	-9.49479
▁Kübarsepp	-9.49602
▁niisugune	-9.49641
▁otsustab	-9.49649
ime	-9.49654
▁18	-9.49667
▁nädala	-9.49698
▁hakatakse	-9.497
▁muude	-9.49726
Andres	-9.49817
▁roll	-9.49914
▁üld	-9.50479
oo	-9.50564
▁Veel	-9.50747
▁mujal	-9.50747
tama	-9.5075
▁riigil	-9.50842
▁teisele	-9.5093
▁maksumaksja	-9.51038
▁jää	-9.51046
▁mingid	-9.51084
▁Ammas	-9.51094
ju	-9.51132
▁andmed	-9.51172
ko	-9.51225
▁oled	-9.51429
▁õigust	-9.51436
▁mäletan	-9.51483
▁tuleviku	-9.51664
▁andmeid	-9.51776
▁kohalikud	-9.5196
▁hinnata	-9.52129
▁ministrile	-9.52145
▁järgmised	-9.52249
▁ütlevad	-9.52254
▁kooskõlas	-9.52308
▁projekti	-9.5235
▁vasta	-9.52372
▁töötajate	-9.52498
▁igati	-9.52524
▁uute	-9.52593
vaid	-9.52609
▁ettevõtja	-9.52613
▁kiire	-9.5288
tatud	-9.52922
▁jõu	-9.53088
▁tahavad	-9.53089
▁kuud	-9.5313
▁tegeleb	-9.53272
▁lõpus	-9.53456
▁milles	-9.53517
▁sul	-9.53689
▁huvitav	-9.53806
▁Oma	-9.53861
▁p	-9.53905
▁au	-9.53967
▁koostöös	-9.53987
▁Istungi	-9.53996
▁rolli	-9.5401
▁väikese	-9.54033
tamise	-9.54069
▁seonduvalt	-9.54114
▁hulka	-9.54134
nda	-9.5417
▁kõrge	-9.54266
▁kehtib	-9.54319
▁vajadus	-9.54339
▁pannud	-9.54393
▁täpsemalt	-9.5442
▁Urve	-9.54425
▁kütuse	-9.54427
▁kõrval	-9.54499
▁Ehk	-9.545
▁vahendeid	-9.5488
Kas	-9.54941
▁päeval	-9.54972
▁tegevust	-9.55019
▁saavutada	-9.55046
▁presidendi	-9.55076
▁paika	-9.55117
▁president	-9.55148
▁puudutavad	-9.55177
▁töönädala	-9.55198
▁viimasel	-9.55211
▁hakkame	-9.55233
ndus	-9.55369
▁eelarves	-9.55482
▁teed	-9.55495
Eelnõu	-9.55523
▁isikute	-9.55579
▁nimetada	-9.55649
▁No	-9.55969
▁hariduse	-9.56023
likku	-9.56231
▁11.	-9.56405
▁ESM	-9.56417
▁auto	-9.56417
▁pidevalt	-9.56445
▁räägitakse	-9.5646
▁kasvanud	-9.56639
▁järel	-9.5674
▁jaanuaril	-9.56753
justiitsminister	-9.56839
▁juht	-9.56934
▁koolis	-9.56955
ise	-9.56978
▁vastates	-9.57003
▁elavad	-9.57022
▁küllalt	-9.57078
▁4	-9.57116
▁selgitada	-9.57171
▁lubatud	-9.57199
▁turu	-9.57329
▁Millin	-9.57349
desse	-9.57429
kki	-9.57441
▁pikk	-9.57479
▁menetluse	-9.57491
▁investeeringute	-9.57491
▁laekunud	-9.57558
▁vahepeal	-9.57587
▁Sellega	-9.57681
▁pidi	-9.57694
menetluse	-9.5771
▁võttis	-9.57755
▁liikmetel	-9.57756
▁Tegemis	-9.57818
▁endiselt	-9.57939
▁läbirääkimiste	-9.5795
▁diskussiooni	-9.57972
▁nädalal	-9.58012
▁lugemisele	-9.58298
▁ettekandes	-9.58643
▁Kaitseväe	-9.58647
▁Oleme	-9.58681
▁Selline	-9.58737
▁koalitsioon	-9.58933
▁ringi	-9.5896
▁eksi	-9.59009
▁esile	-9.59028
▁tuleneb	-9.59029
▁keskmine	-9.59156
▁rahvusvaheliste	-9.59197
▁suutnud	-9.59215
▁V	-9.59222
▁plaani	-9.59237
▁200	-9.59258
et	-9.5926
▁kellele	-9.59294
▁puuduta	-9.59316
▁millise	-9.59391
tamist	-9.59561
▁mingisuguse	-9.59601
▁tõusu	-9.59679
▁teede	-9.59803
▁aluseks	-9.59831
▁tunduvalt	-9.5985
▁Reformierakond	-9.59875
▁Teise	-9.59977
Mis	-9.60038
▁tõus	-9.60178
▁tulemus	-9.6022
ala	-9.60304
▁Ameerika	-9.60352
▁võimu	-9.60369
▁õiguskomisjoni	-9.60666
▁ko	-9.60724
▁paljude	-9.60951
▁keskmise	-9.61135
he	-9.61161
▁kohalik	-9.61168
▁toonud	-9.61301
▁kahtlemata	-9.61342
▁kulude	-9.61363
▁mulje	-9.61516
▁julge	-9.61644
▁kinnitada	-9.61708
▁sektori	-9.61754
▁teiega	-9.61768
mas	-9.61898
lased	-9.61916
▁mõiste	-9.61939
▁näen	-9.61946
▁olevat	-9.61963
▁17.	-9.62012
▁põhjendatud	-9.62019
▁O	-9.62217
▁Nõukogu	-9.62227
▁Tuus	-9.62264
▁Küsimusi	-9.62277
▁äärmiselt	-9.62317
tsi	-9.62425
▁osaleda	-9.62493
▁ministeerium	-9.62497
▁korruptsiooni	-9.62504
▁öeldakse	-9.62537
▁Konservatiivse	-9.62559
▁arvel	-9.6256
ia	-9.6266
▁suuremad	-9.62696
▁juhi	-9.62752
▁anna	-9.62795
▁jõuab	-9.62817
osa	-9.62819
▁töötada	-9.62891
▁olegi	-9.62922
▁avalik	-9.63041
ini	-9.63055
O	-9.63089
▁60	-9.63107
▁protokolli	-9.63111
▁tagatud	-9.63135
▁räägi	-9.63173
▁võimaldab	-9.63238
lu	-9.63291
▁märksa	-9.63292
▁Valeri	-9.63294
▁Sellise	-9.63306
L	-9.63311
▁Rahvaerakonna	-9.63401
▁Mailis	-9.63459
▁panga	-9.63614
▁lühidalt	-9.63619
▁selgeks	-9.63795
▁istungjärgu	-9.6384
▁lahendusi	-9.63847
▁julgen	-9.63936
▁direktiivi	-9.63992
▁aastaga	-9.64081
▁jõuda	-9.641
▁Kruuse	-9.6417
▁tekitab	-9.64212
ut	-9.64263
▁vastuseid	-9.64308
▁arutasime	-9.64323
▁Vassiljev	-9.6441
▁teenust	-9.64536
▁2017.	-9.64585
▁jätnud	-9.64613
▁esitas	-9.6466
▁lugu	-9.64675
▁põhikooli	-9.64723
Nüüd	-9.64724
▁maja	-9.64924
▁Politsei	-9.65078
▁Krista	-9.65208
▁15.	-9.6521
▁raudtee	-9.65226
▁paari	-9.65257
▁arva	-9.6528
▁Kommunikatsioon	-9.6528
▁vajavad	-9.65309
▁menetlemisel	-9.65366
▁juhtub	-9.65439
▁osakonna	-9.6548
▁sammu	-9.65515
▁soovita	-9.65532
▁kehtestada	-9.6554
▁mõtte	-9.65551
▁ava	-9.65654
▁tasakaalu	-9.65814
▁SKT	-9.6584
▁töötab	-9.65843
maid	-9.6589
▁kirjutatud	-9.6598
▁milliseid	-9.66152
▁osta	-9.66451
sti	-9.6651
▁ÜRO	-9.66516
▁rääkisite	-9.66533
▁sulle	-9.66547
▁plaan	-9.66553
▁lahenduse	-9.66723
▁Sellepärast	-9.66751
Jah	-9.66769
▁jätkata	-9.6677
I	-9.66951
▁seletuskirja	-9.66975
tab	-9.67075
▁siseminister	-9.67099
▁arvata	-9.67204
▁kutse	-9.67217
▁too	-9.67306
▁arutame	-9.67519
▁last	-9.67621
▁seis	-9.67657
▁valimiste	-9.67725
▁ehitus	-9.67874
du	-9.67883
▁anname	-9.67961
lus	-9.68017
▁kasu	-9.6804
▁poolest	-9.68059
▁soovime	-9.68134
▁nõu	-9.68213
▁ettekandjaks	-9.68221
▁Energia	-9.68249
▁kohas	-9.68284
▁tõsine	-9.68286
▁13.	-9.6835
▁Eiki	-9.68368
▁said	-9.6845
demokraadid	-9.68493
▁kasutatakse	-9.68513
▁annan	-9.6854
▁Ossinovski	-9.68609
▁regulatsiooni	-9.68636
▁Leedu	-9.68702
valt	-9.68711
▁reklaami	-9.68716
▁vastupidi	-9.68824
▁rakendada	-9.68836
▁käivad	-9.68937
▁suuri	-9.68938
Panen	-9.69074
▁võttes	-9.69159
abi	-9.69255
▁suuremat	-9.69273
▁valimistel	-9.69294
sus	-9.69332
▁paneb	-9.69441
▁6	-9.6946
▁arvesse	-9.69461
▁töötavad	-9.69503
▁24	-9.69561
▁lause	-9.69592
▁otsa	-9.69627
laste	-9.6967
▁loogika	-9.69708
▁rahul	-9.69778
▁isik	-9.69813
▁tore	-9.69877
▁üksnes	-9.69882
val	-9.69944
▁lõpuni	-9.69985
▁kuulub	-9.7001
▁ministeeriumide	-9.70072
▁suunatud	-9.70123
▁ettevõtjad	-9.70172
▁kohale	-9.7025
▁rahvas	-9.70282
▁Vene	-9.70396
▁oleva	-9.70457
seadus	-9.70512
▁puudu	-9.70679
▁korraldada	-9.7079
%	-9.70888
nt	-9.7089
▁näiteid	-9.70943
▁arvatud	-9.71089
▁keel	-9.7113
▁erakond	-9.71133
▁arutelul	-9.71183
atsiooni	-9.71334
▁kohus	-9.71336
▁kokkuleppe	-9.71382
õiguse	-9.7143
ab	-9.71452
▁teistes	-9.71453
▁kella	-9.71635
ana	-9.71673
▁teenuseid	-9.71803
▁Põlluaas	-9.71814
▁silma	-9.71981
▁vähenenud	-9.72008
▁täpsustada	-9.72024
▁seletuskirjas	-9.72075
▁viimane	-9.72128
Virumaa	-9.72137
▁maksa	-9.72193
▁Kultuuri	-9.72272
▁Riigikontrolli	-9.72376
T	-9.72382
▁kohustusi	-9.72401
▁kohapeal	-9.72439
▁viimastel	-9.72456
nduskomisjoni	-9.72518
▁võta	-9.72619
▁eel	-9.72625
▁enamik	-9.72688
▁va	-9.72708
▁küsis	-9.72814
▁jätku	-9.7282
elt	-9.72857
▁Tõsi	-9.73221
▁Keskerakond	-9.73251
▁vastama	-9.73262
▁tekkida	-9.73299
▁hinnangu	-9.7332
▁vastan	-9.73356
▁vastas	-9.73367
tatakse	-9.7342
▁ajaks	-9.73423
▁valesti	-9.73438
▁lastele	-9.73484
▁tegele	-9.73512
▁perede	-9.73558
▁esitab	-9.73571
riigi	-9.73631
▁oskate	-9.73671
▁lõike	-9.73676
▁ülejäänud	-9.73732
▁ütlesid	-9.73849
▁Reinsalu	-9.73906
▁kedagi	-9.73931
▁ammu	-9.74015
▁põlevkivi	-9.74043
▁kehtestatud	-9.7405
▁Iga	-9.74082
▁olulised	-9.74093
▁Kahjuks	-9.74269
▁muret	-9.74375
▁makstakse	-9.74425
▁rääkisin	-9.74432
▁arutama	-9.74448
hu	-9.74495
▁arupärimisi	-9.74516
▁riigieelarvest	-9.74601
▁kehtiva	-9.74688
▁tulemusena	-9.74694
▁Riigikogule	-9.74783
▁osaliselt	-9.74788
▁istung	-9.74849
▁ha	-9.74862
jaid	-9.74865
▁Teatavasti	-9.75007
▁toon	-9.75037
▁meelt	-9.75054
▁valik	-9.75156
tame	-9.7535
▁lugemist	-9.75393
▁ühine	-9.75428
▁lõpphääletuse	-9.75736
▁pisut	-9.75748
ul	-9.7578
▁novembril	-9.75825
▁olulisem	-9.75838
▁vastuolu	-9.75888
▁konventsiooni	-9.75912
▁500	-9.75924
▁viisil	-9.75936
▁küljest	-9.75966
▁menetlusse	-9.75969
▁tähtaeg	-9.76101
▁leidis	-9.76245
▁riski	-9.76251
ministeeriumis	-9.7638
▁otsustati	-9.76412
00	-9.76418
▁võiksime	-9.76419
▁kellegi	-9.76557
tult	-9.76614
▁mainisite	-9.76627
▁Kalev	-9.76733
▁haldus	-9.76739
▁lähtudes	-9.76763
▁veendunud	-9.76877
misse	-9.76879
▁käis	-9.77
im	-9.77049
▁käes	-9.77086
▁Hanno	-9.77099
kogu	-9.77184
▁statistika	-9.77185
▁homme	-9.77247
▁ettevõtlus	-9.77295
▁seas	-9.77295
▁reaalselt	-9.77309
▁tulen	-9.77317
▁seadusandja	-9.77381
lane	-9.77452
▁valimisi	-9.77616
Laul	-9.77622
▁väljaspool	-9.77627
▁otsuste	-9.77664
▁sellises	-9.77675
▁vastutus	-9.77727
ur	-9.77728
▁Rail	-9.77896
▁Marko	-9.77954
▁mingisuguseid	-9.77977
▁soovin	-9.77981
▁toidu	-9.77993
▁vajaduse	-9.78078
▁tänane	-9.78103
▁mõlemad	-9.78239
▁P	-9.78296
▁käi	-9.78328
▁demokraatia	-9.78349
▁regionaal	-9.78359
▁parlament	-9.78401
P	-9.78452
▁peate	-9.78469
▁noored	-9.78484
▁pruugi	-9.78514
▁nõuab	-9.78541
▁loodud	-9.78701
▁kuulata	-9.78747
▁põhimõte	-9.78775
toetuse	-9.78786
▁tõi	-9.78843
▁saadud	-9.78848
▁eba	-9.78971
Me	-9.79048
▁ühise	-9.79061
kas	-9.79081
Virumaal	-9.79177
▁elus	-9.79246
▁erinev	-9.79293
▁mõjutab	-9.79362
▁7	-9.79395
▁vallas	-9.794
▁tööandja	-9.79416
▁uued	-9.79423
sa	-9.79453
▁looma	-9.7947
▁ükski	-9.79516
▁pannakse	-9.79543
▁mäleta	-9.79565
▁Jevgeni	-9.79595
▁käia	-9.79627
▁sätestatud	-9.79732
konna	-9.79732
teenuse	-9.79771
suse	-9.79835
▁omavalitsusi	-9.79874
po	-9.79906
▁kiiremini	-9.7993
▁kehtima	-9.79959
▁piisav	-9.80044
▁mõnda	-9.80055
▁laeva	-9.80069
▁juhtudel	-9.80083
▁riike	-9.80118
▁arvamuse	-9.80149
▁teistmoodi	-9.80191
▁protseduuriline	-9.80197
▁konsensusega	-9.80275
▁Kes	-9.80351
▁loen	-9.80422
▁arust	-9.80441
▁võinud	-9.80466
▁suunata	-9.80505
▁ütlete	-9.80589
▁arvestanud	-9.80611
▁avatud	-9.80638
▁kohustuste	-9.80665
▁ettevõtjate	-9.80668
▁väärtus	-9.80688
▁kodus	-9.80691
▁saaksime	-9.8077
▁Kogu	-9.80772
▁10.	-9.80913
▁ema	-9.8092
▁räägite	-9.80924
▁suudame	-9.80961
su	-9.80964
Liigume	-9.80966
tati	-9.81049
pe	-9.8106
▁2012.	-9.81064
▁kõikidele	-9.81065
▁inimesele	-9.8108
▁ühistranspordi	-9.81097
▁elanike	-9.81101
▁Kaitse	-9.81169
▁kordan	-9.812
▁väita	-9.8124
▁14.	-9.8138
▁Enne	-9.81415
▁liikmeid	-9.81473
▁sellesama	-9.81563
▁valida	-9.8181
▁Reps	-9.81854
ksite	-9.81865
▁töös	-9.81871
▁kahte	-9.81929
vähem	-9.82049
▁energia	-9.82053
▁olin	-9.82085
▁kulusid	-9.82228
▁Kõige	-9.8224
▁läheks	-9.82275
▁Tuleb	-9.82281
▁arutati	-9.82375
▁valitsusel	-9.82487
▁Muidugi	-9.82511
▁vaadates	-9.82546
▁prognoosi	-9.82555
▁mitmel	-9.82603
▁seisukohti	-9.82691
▁arusaadav	-9.82698
▁tuletan	-9.82715
▁halb	-9.82787
▁Tiidus	-9.82856
▁naiste	-9.82928
en	-9.83178
▁Soomes	-9.83206
▁B	-9.83251
),	-9.83258
▁18.	-9.8328
▁seisukoha	-9.83282
▁Peale	-9.83323
▁Nestor	-9.83327
ministri	-9.83368
▁Sõerd	-9.83398
▁inimestega	-9.83418
tegevuse	-9.83511
▁kaitsta	-9.83612
rahanduskomisjon	-9.83631
▁Indrek	-9.8364
▁sünni	-9.83641
▁teiselt	-9.8381
▁siiamaani	-9.83882
▁meetmeid	-9.83892
▁21	-9.83909
▁Pigem	-9.8407
▁tähtaja	-9.84091
▁mail	-9.84093
ade	-9.84114
▁Ratas	-9.84201
▁niivõrd	-9.84222
▁suureneb	-9.84311
demokraatide	-9.84314
likke	-9.84333
▁Sel	-9.84384
▁iganes	-9.84433
▁10%	-9.84465
▁käsitleb	-9.84471
Peeter	-9.84479
▁väide	-9.84529
▁seadusi	-9.84716
loo	-9.84872
▁transpordi	-9.84952
▁perioodi	-9.85092
▁hinda	-9.85182
▁9.	-9.85209
▁vastuste	-9.85313
strateegia	-9.8532
▁jällegi	-9.85323
▁inimesel	-9.85386
on	-9.85431
▁toetuste	-9.85753
▁käima	-9.85769
▁meetmed	-9.85813
▁sõja	-9.8585
▁parema	-9.85936
▁Haukanõmm	-9.8608
▁Tõesti	-9.86083
▁Paraku	-9.861
▁häid	-9.8612
lepingu	-9.86153
▁Mind	-9.86202
▁vastused	-9.86259
▁puudega	-9.86288
▁töötukassa	-9.86333
▁Marika	-9.86335
▁konkreetset	-9.864
▁analüüs	-9.86423
mat	-9.86445
▁Ra	-9.86449
▁esiteks	-9.86472
▁2018.	-9.86531
seid	-9.86577
▁Ühe	-9.86652
▁avalduse	-9.8667
Aga	-9.86691
▁ühis	-9.86743
▁samme	-9.86879
▁oktoobril	-9.87054
▁saime	-9.87105
▁Adams	-9.87116
▁perekonna	-9.87177
ba	-9.87188
▁pu	-9.87239
▁teel	-9.87266
▁investeeringuid	-9.87314
▁pakutud	-9.87326
▁üleval	-9.87332
▁2.	-9.87336
▁elab	-9.87375
komisjonilt	-9.87381
▁kokkulepe	-9.87412
tasu	-9.87417
▁teen	-9.87591
▁missiooni	-9.8764
▁täpsustav	-9.87642
▁Rootsi	-9.87644
▁tõele	-9.87714
▁viga	-9.87725
▁vajadust	-9.87796
▁esindab	-9.87925
nik	-9.87946
▁toimetuleku	-9.87981
▁muudatuse	-9.87984
▁hakanud	-9.88
▁rõhutan	-9.88001
▁Külliki	-9.88032
▁osale	-9.88049
▁elada	-9.88075
▁Lätis	-9.88119
▁novembri	-9.88131
▁kaupa	-9.88232
▁Panen	-9.88241
kulude	-9.88257
▁EKRE	-9.88281
▁tahate	-9.88291
▁hiljuti	-9.88422
▁eelarvet	-9.88455
▁teisest	-9.88482
▁küsimusega	-9.88519
▁kursis	-9.88563
▁müügi	-9.88596
▁ühiskond	-9.88719
▁esindajana	-9.88774
▁kohalikele	-9.88798
ult	-9.88833
▁Läheme	-9.88839
▁küsisin	-9.88889
dus	-9.88967
▁loo	-9.88983
▁28	-9.89001
▁põhiseadusega	-9.89007
▁3.	-9.89041
▁õigustatud	-9.89047
▁määruse	-9.89059
tavate	-9.89156
▁tundi	-9.89317
▁arusaam	-9.89318
võt	-9.89389
▁selgus	-9.89391
▁leiab	-9.89487
misi	-9.89509
▁lahendust	-9.8952
▁arvestama	-9.89535
um	-9.89576
▁toetanud	-9.89601
▁ühelt	-9.89626
tesse	-9.89721
▁Sellel	-9.89905
▁Välis	-9.89968
▁35	-9.90187
▁meist	-9.90214
▁täitmise	-9.90223
▁pika	-9.90254
lli	-9.90284
▁maakonna	-9.90287
▁19	-9.90336
▁tänaseks	-9.90431
▁huvide	-9.90431
▁tõuseb	-9.90588
▁nimekirja	-9.90768
▁ettevõtluse	-9.90886
▁kasutamine	-9.90907
▁ülesandeid	-9.90941
di	-9.90963
▁ehitada	-9.91022
▁tunnistama	-9.9105
▁Igor	-9.91089
▁eelmine	-9.91135
▁5.	-9.91146
likud	-9.9122
▁üldine	-9.91282
▁mahus	-9.91558
▁tahetakse	-9.91595
▁Rein	-9.91606
▁absoluutselt	-9.91606
▁rakendamise	-9.91661
▁32	-9.91675
▁mahu	-9.91703
tis	-9.91743
▁liit	-9.91803
▁valdkond	-9.91824
▁vastuolus	-9.91841
▁eestikeelse	-9.91866
stada	-9.91877
▁Mitte	-9.91902
süsteem	-9.91907
▁teab	-9.91915
▁meedia	-9.92073
▁Jaanus	-9.92276
▁vastuolijaid	-9.92296
▁muutmine	-9.92444
▁Rõivas	-9.92484
▁Madison	-9.92534
▁olles	-9.92589
▁otsustanud	-9.9263
R	-9.9268
▁kontrollida	-9.9269
▁51	-9.92766
▁Ülikooli	-9.9279
▁liikmesriikide	-9.92914
▁üheksa	-9.92938
▁kuuluvad	-9.92972
▁positsiooni	-9.93063
▁kindlustus	-9.93154
▁sugugi	-9.9335
maksu	-9.93374
▁eesmärki	-9.93458
Muudatus	-9.93473
▁jäetud	-9.93473
teema	-9.93508
▁kontrollKohal	-9.93739
▁vajalikud	-9.93794
luse	-9.93865
▁annavad	-9.94012
▁kaalu	-9.94178
▁olev	-9.94245
▁meelega	-9.94414
▁aita	-9.94506
▁küsite	-9.9451
▁laua	-9.94532
▁27	-9.94551
▁summad	-9.94641
▁relva	-9.94642
▁valitsusele	-9.94677
▁rahvastiku	-9.94764
▁osakaal	-9.94771
▁näidata	-9.94814
▁kavas	-9.94949
Läheme	-9.94977
Riigikogu	-9.94979
▁Viktor	-9.95134
▁selgub	-9.95136
▁konsensuslikult	-9.95144
▁koosseisus	-9.95205
mu	-9.95367
▁nõuded	-9.95386
▁rahvus	-9.95391
▁mil	-9.95421
▁kanda	-9.95446
▁vahet	-9.95494
▁jõua	-9.95496
▁puudutas	-9.95506
▁lepitud	-9.95578
▁oht	-9.95642
).	-9.95679
▁meede	-9.95704
▁miljardit	-9.95785
▁loodus	-9.95803
▁Esimese	-9.95827
▁kuue	-9.95858
▁hinnang	-9.95862
▁ametnikud	-9.95868
▁ettekanne	-9.95879
▁alustada	-9.95891
▁Va	-9.95892
▁tulumaksuvaba	-9.9596
▁23	-9.96115
nduse	-9.96124
▁22	-9.96126
▁rahu	-9.96128
▁korralduse	-9.96134
▁Riik	-9.96139
▁põhjustel	-9.96154
▁tugev	-9.96293
▁vormis	-9.96353
▁M	-9.96427
ing	-9.96534
▁töökohti	-9.96539
▁tõsi	-9.96546
▁Toobal	-9.96616
▁arve	-9.96633
▁19.	-9.96647
▁liidu	-9.9671
▁Just	-9.96863
▁Minister	-9.96866
▁tegelevad	-9.96924
▁planeeritud	-9.96967
▁vaatan	-9.97002
▁andmete	-9.97017
▁mitmes	-9.97062
▁Põhja	-9.97083
▁komisjonide	-9.97214
tanud	-9.97275
▁palgad	-9.97338
▁kellelegi	-9.97366
os	-9.97379
koha	-9.97436
▁avalikus	-9.9746
▁Hääletustulemus	-9.97463
▁seisukohal	-9.97467
▁mai	-9.97513
▁juhtumi	-9.97608
▁ülevaade	-9.97614
▁lihtsam	-9.97725
▁kirjutada	-9.97769
▁sina	-9.97819
▁jõuame	-9.97824
▁regulatsioon	-9.97867
▁lugemiseks	-9.97882
kulud	-9.97927
▁Et	-9.97936
▁mõista	-9.97954
pu	-9.98011
▁Talvik	-9.98103
▁eesmärgi	-9.98113
▁õiguste	-9.98306
▁tegime	-9.98317
▁Randpere	-9.98326
▁detsembril	-9.98358
▁8	-9.9847
▁kapitali	-9.98525
▁investeerimis	-9.9864
lo	-9.98644
Selle	-9.98685
▁kauba	-9.98762
▁liikuda	-9.98794
bu	-9.98798
▁paragrahvi	-9.98812
kaitse	-9.98813
▁tingimused	-9.98843
▁tegemise	-9.98848
▁koolide	-9.9886
▁tarbija	-9.98872
▁Igal	-9.98996
▁teemasid	-9.9901
▁erinevate	-9.99132
▁valdkonda	-9.99208
▁kesk	-9.99209
▁21.	-9.99215
stamine	-9.99319
▁veebruaril	-9.99349
▁tööl	-9.99413
eti	-9.99454
▁millel	-9.99541
▁õigeks	-9.99544
▁saalist	-9.99593
▁juhtunud	-9.99776
▁välisminister	-9.99923
▁2011.	-9.99934
▁vastuvõtmise	-9.99939
▁infot	-9.99979
▁strateegia	-9.9998
vastase	-9.99988
▁majanduskasvu	-10.0002
▁45	-10.0003
▁maal	-10.0004
▁seitse	-10.0005
to	-10.0015
▁valiku	-10.0016
▁muudatuste	-10.0017
▁kasv	-10.0025
▁seisukohad	-10.0026
▁muudetakse	-10.0029
▁kevadel	-10.0033
▁paljudes	-10.005
toetust	-10.0064
ena	-10.0068
organisatsioonid	-10.0072
▁huvitab	-10.0075
▁kohustuse	-10.0075
▁kõnes	-10.0077
aadi	-10.0083
▁süüdi	-10.0089
Euroopa	-10.0091
▁Kaheksa	-10.0092
teenuste	-10.0101
▁kõlas	-10.0111
▁Eestist	-10.0114
▁eeskätt	-10.0117
▁Tema	-10.0126
▁normaalne	-10.0132
▁jõudu	-10.0136
▁euroni	-10.0143
▁ühtse	-10.0147
▁kvaliteedi	-10.0152
▁protsenti	-10.0155
▁meditsiini	-10.0155
▁pikka	-10.0159
▁eelarvest	-10.016
▁jätkub	-10.016
mo	-10.0168
▁noor	-10.0172
▁muutma	-10.0172
▁küsimustes	-10.0173
▁Aas	-10.0175
▁küsima	-10.0176
▁põhjaliku	-10.0181
Tarmo	-10.0188
statud	-10.0189
▁jääks	-10.0195
▁oodata	-10.0197
valdkonna	-10.0202
▁omakorda	-10.0203
▁Eestit	-10.0217
Nii	-10.0221
▁poliitilist	-10.0222
▁mees	-10.0232
▁töötaja	-10.0235
kus	-10.0238
▁nõunik	-10.0239
▁lisaraha	-10.0243
▁parlamendis	-10.0247
▁protsent	-10.025
▁vajalikuks	-10.0252
▁tavaliselt	-10.0254
▁arupärimisele	-10.0259
▁asjast	-10.0262
▁anti	-10.0263
▁septembril	-10.0263
▁määr	-10.0266
▁leping	-10.027
▁Oli	-10.0272
▁R	-10.0272
▁juunil	-10.0277
ses	-10.028
▁Pevkur	-10.0281
▁7.	-10.0285
▁9	-10.0286
▁kaaluda	-10.0288
▁Artur	-10.0293
▁38	-10.0297
päeva	-10.0304
▁vahele	-10.0305
▁konkreetsed	-10.0306
ski	-10.0312
▁suurte	-10.0318
▁liikmetele	-10.0324
▁sobi	-10.0327
▁märtsil	-10.0331
▁tööta	-10.0332
▁teistele	-10.0332
▁Riigikontroll	-10.0338
▁gaasi	-10.0339
▁täitma	-10.0342
▁sageli	-10.0343
▁lähtuvalt	-10.0345
▁õigusi	-10.0345
▁tahaksin	-10.0353
▁kuula	-10.0353
▁jagada	-10.0356
▁300	-10.0357
▁L	-10.0361
▁seisukohalt	-10.0361
öö	-10.0362
▁Eestile	-10.0362
Ei	-10.0362
▁detsembri	-10.0369
liit	-10.0378
▁laual	-10.0383
▁33	-10.0383
▁niiviisi	-10.0388
▁dokument	-10.0393
tan	-10.0394
▁vastutuse	-10.0401
▁tähele	-10.0408
▁vaadanud	-10.0408
▁huvitatud	-10.0414
▁parandus	-10.0415
▁lisada	-10.0419
▁tegemata	-10.0428
▁kujuta	-10.0429
▁õppida	-10.0441
▁mõnevõrra	-10.0441
▁ametnike	-10.0444
▁valitud	-10.0446
▁määratud	-10.0453
▁Sellele	-10.0453
▁ütle	-10.0454
▁kava	-10.0455
▁piirivalve	-10.0458
like	-10.0463
▁kodanike	-10.047
▁Kolmandaks	-10.0477
▁26	-10.0483
▁puldist	-10.0484
▁ruumi	-10.0486
ub	-10.0493
▁mingite	-10.0495
no	-10.0497
▁miinimumi	-10.0499
▁Samal	-10.0503
▁suuna	-10.0509
küsimus	-10.0512
▁konkreetsete	-10.0514
misele	-10.0518
▁töötanud	-10.0536
▁aprillil	-10.0539
kond	-10.0541
▁kodakondsus	-10.0547
▁heaolu	-10.0558
▁IT	-10.0559
▁inimestest	-10.0569
▁kaitseminister	-10.0573
▁sõnum	-10.0581
▁mõelnud	-10.0591
▁karistus	-10.0603
▁4.	-10.0612
▁võimaliku	-10.0612
▁vaheaeg	-10.0612
konkurentsivõime	-10.0628
vus	-10.0632
▁Vaatame	-10.0634
▁soovite	-10.0637
▁kinnisvara	-10.0642
▁ettevõtted	-10.0646
▁tekitada	-10.0648
▁Komisjonis	-10.0658
▁debatt	-10.0665
▁Andrus	-10.0686
▁minuti	-10.0687
▁tegeleda	-10.0688
sel	-10.069
▁seadusest	-10.0694
▁eriala	-10.0704
▁vanema	-10.0704
▁fondi	-10.0708
▁Ilmselt	-10.0712
▁kogukonna	-10.0718
▁teisiti	-10.072
▁muutu	-10.0723
▁kahel	-10.0726
▁pluss	-10.0727
▁erinevalt	-10.0729
▁jaanuarist	-10.073
▁miinimum	-10.0732
asutuste	-10.0734
▁80	-10.0741
▁isa	-10.0742
▁aastani	-10.0752
Krista	-10.0756
▁toetama	-10.0757
▁Balticu	-10.0757
▁lahenda	-10.0761
▁niisama	-10.0762
▁suund	-10.077
aasta	-10.0776
▁vältida	-10.0778
▁mainisin	-10.0779
▁muidu	-10.0782
▁ministrid	-10.0787
▁võite	-10.0789
▁seadustiku	-10.0794
▁perspektiivis	-10.0795
ngu	-10.0795
▁juhtida	-10.0797
▁struktuuri	-10.0804
poolne	-10.0811
▁tahtnud	-10.0811
▁Siit	-10.0811
▁nõue	-10.0812
▁hääletamise	-10.0815
▁laiem	-10.082
▁leia	-10.0823
▁annaks	-10.084
▁prioriteet	-10.084
▁Sester	-10.0845
▁katkestada	-10.085
▁igas	-10.0857
▁tunni	-10.0861
▁tead	-10.0861
Tere	-10.0861
▁kaugele	-10.0865
▁ametisse	-10.0868
asi	-10.0876
▁omavalitsustes	-10.0876
▁võimalda	-10.0881
▁Enn	-10.0888
▁koolides	-10.0891
▁õpilaste	-10.0891
▁tegemine	-10.0907
▁lõpphääletus	-10.0908
▁6.	-10.091
▁asutuse	-10.0911
riik	-10.0912
▁teemad	-10.0916
M	-10.0917
▁Henn	-10.0937
▁piima	-10.0948
▁kuskilt	-10.0951
▁võrdse	-10.0951
▁Kuigi	-10.0953
▁tunnistada	-10.0955
▁tekivad	-10.0955
▁arendada	-10.0956
▁lipu	-10.0961
▁vahendid	-10.0961
stamise	-10.0964
▁Põldaru	-10.0967
Küsimused	-10.0967
▁tänavu	-10.0967
▁ütleksin	-10.097
▁omal	-10.097
▁juuni	-10.0977
▁tuleva	-10.0979
▁tööpäeva	-10.0979
▁kuhugi	-10.0982
▁kodaniku	-10.0984
▁rääkides	-10.0986
▁päevast	-10.0986
▁suudab	-10.0987
▁käsitlemine	-10.0989
▁20.	-10.099
▁tööjõu	-10.0994
Ning	-10.0996
▁eelnõude	-10.1003
▁37	-10.101
▁maaelu	-10.1019
▁esimesele	-10.102
▁lugenud	-10.1021
▁tekitanud	-10.1023
▁arvud	-10.1032
▁maksuvaba	-10.1037
▁kommenteerida	-10.1044
▁Mu	-10.1049
▁vähendamise	-10.1055
▁jõustumise	-10.1058
▁ela	-10.1068
▁su	-10.1073
▁piiratud	-10.1075
▁ajast	-10.1077
▁maksude	-10.108
▁põhjenda	-10.1087
▁Kaitseliidu	-10.109
▁Helmen	-10.1093
ameti	-10.1096
▁Valitsust	-10.1097
seks	-10.1106
▁kirjelda	-10.1107
▁lihtsa	-10.111
▁Saar	-10.111
20	-10.1121
▁ametis	-10.1124
▁dokumendi	-10.1127
▁siiani	-10.1127
ima	-10.1137
▁Monika	-10.114
▁20%	-10.114
▁asu	-10.1142
▁Arto	-10.1144
▁2016	-10.1144
▁menetluses	-10.1148
▁34	-10.1154
▁Kütt	-10.116
▁liikmena	-10.1164
▁lastega	-10.1166
▁klassi	-10.1166
▁Pärast	-10.1167
▁Pa	-10.117
▁täiendavalt	-10.1173
▁olulisi	-10.1178
▁rakendus	-10.1178
▁kirjutanud	-10.1182
▁ühiskonda	-10.1184
▁auväär	-10.1184
▁katse	-10.1185
▁tasub	-10.1193
▁kusjuures	-10.1198
▁jätkuvalt	-10.1198
▁..."	-10.1207
▁protsendi	-10.1212
▁peetud	-10.1214
▁Sults	-10.1214
▁uuringu	-10.1218
▁Raivo	-10.1219
▁Pärnu	-10.1223
▁piirkonnas	-10.1227
▁investeeringud	-10.1228
▁peamine	-10.1238
▁ärge	-10.124
▁sedasama	-10.1243
▁Probleem	-10.1254
▁tekiks	-10.127
▁2015	-10.1275
▁abielu	-10.1275
▁vanemad	-10.1284
▁Parlamendi	-10.1285
▁vormi	-10.129
▁70	-10.1301
▁eelnõust	-10.1303
▁istu	-10.1307
ir	-10.1307
ali	-10.131
poliitikat	-10.1314
▁liiklus	-10.1317
▁isiklik	-10.132
kindlustuse	-10.1323
ratifitseerimise	-10.1332
▁korraldamise	-10.1336
▁minul	-10.1349
▁toimib	-10.1363
▁Piirivalveameti	-10.1367
alt	-10.1367
sõna	-10.137
▁kellelgi	-10.1373
▁fraktsioonilt	-10.1375
▁Lõuna	-10.1375
▁lähenemine	-10.1376
▁29	-10.1388
▁töökohtade	-10.1389
▁reeglid	-10.139
▁vaatamata	-10.1395
▁korraga	-10.1396
▁millist	-10.1409
▁Le	-10.1412
▁lubada	-10.1413
▁3,	-10.1413
▁langetada	-10.1416
▁investeeringu	-10.142
sest	-10.1423
uks	-10.1425
toetuste	-10.1425
am	-10.1428
▁f	-10.1429
▁loogiline	-10.143
▁mälu	-10.143
▁juhtimise	-10.1432
vara	-10.1434
▁mõnel	-10.1435
▁seadusesse	-10.1444
▁palve	-10.1449
▁teatavasti	-10.145
ate	-10.1453
▁kasulik	-10.1463
▁pe	-10.1465
▁jahi	-10.1468
▁sada	-10.1472
▁partei	-10.1477
▁asjaga	-10.1478
▁Kristen	-10.1478
▁debatti	-10.1483
▁meeldi	-10.1484
▁ohtu	-10.1485
▁pidama	-10.1485
▁allkirja	-10.1491
▁paneme	-10.1492
▁kõrgem	-10.1495
▁muudab	-10.1496
▁asutuste	-10.1502
▁tulevikku	-10.1505
▁möödunud	-10.1505
Järgmine	-10.1506
▁täitmisel	-10.1507
▁kohustused	-10.1515
▁sügisel	-10.1515
▁pilt	-10.1516
▁väiksema	-10.152
olijaks	-10.152
▁Balti	-10.1521
▁registri	-10.1522
▁eelarvesse	-10.1524
kooli	-10.1526
▁tasemele	-10.1527
▁selliselt	-10.1528
▁mõtlen	-10.1529
▁piirkonna	-10.1531
▁mandaadi	-10.1534
▁poliitiliste	-10.1543
▁kool	-10.155
▁erikomisjoni	-10.1555
▁teavad	-10.1556
Aitüma	-10.1558
▁teistsugune	-10.1559
endi	-10.1571
▁maht	-10.1576
▁kutsun	-10.1579
▁Töö	-10.158
▁seadusele	-10.1595
▁Margus	-10.1596
▁linn	-10.1597
ho	-10.1598
▁taotleda	-10.1601
▁näitavad	-10.1602
▁õigusabi	-10.1602
▁esindus	-10.1603
▁tahes	-10.1603
▁seisukohast	-10.1605
▁hääletuse	-10.1608
▁edu	-10.1613
▁siinkohal	-10.1614
▁viib	-10.1615
▁saavuta	-10.1615
?""	-10.1615
▁püüame	-10.1616
▁asjaolu	-10.1617
▁puldis	-10.1622
▁põhjused	-10.1623
aeg	-10.163
▁31	-10.1632
▁lõpetatakse	-10.1636
▁juhtus	-10.1638
▁2,	-10.1652
▁ilmselgelt	-10.1656
▁toetavad	-10.1664
up	-10.1667
▁kõvasti	-10.167
▁registreeritud	-10.1673
▁Re	-10.1674
▁kurb	-10.1678
▁pääste	-10.1683
▁alt	-10.1684
▁Valdo	-10.1688
▁kindlaks	-10.1695
▁Kokk	-10.1717
sektori	-10.172
▁olulist	-10.172
▁vastava	-10.1721
▁surve	-10.1726
▁oluliseks	-10.1729
▁17.15.	-10.173
▁tekst	-10.1735
▁meeldib	-10.1735
iministeeriumi	-10.1736
▁juhtumeid	-10.1739
▁alust	-10.174
▁valimise	-10.1741
▁käesoleva	-10.1742
▁lugesin	-10.1746
▁kogemus	-10.1747
▁võrrelda	-10.1748
uma	-10.176
▁Järgmine	-10.1761
▁kulutusi	-10.1761
sama	-10.1762
▁seos	-10.1766
▁endise	-10.1767
▁reform	-10.1768
▁kasutatud	-10.177
▁jõud	-10.1777
▁taotluse	-10.1782
▁rääkisime	-10.1785
▁teadusminister	-10.1787
▁pöörduda	-10.1789
▁koostatud	-10.1789
▁vastuses	-10.1791
▁toetusi	-10.1795
kirja	-10.1799
▁ennekõike	-10.1802
▁Palo	-10.1802
▁riigigümnaasium	-10.1809
▁andmetel	-10.1813
▁soo	-10.1814
▁arusaama	-10.1819
▁tihtipeale	-10.182
hoolekande	-10.1822
▁ettevõte	-10.1826
▁inim	-10.1826
Te	-10.1827
keskus	-10.1839
▁alguse	-10.1854
▁leppida	-10.1858
kust	-10.1871
▁algusest	-10.1873
▁rea	-10.1875
▁Kesk	-10.1877
▁Juba	-10.1878
▁36	-10.1886
▁erakonnad	-10.1886
▁küsinud	-10.189
▁tubaka	-10.1893
▁mainitud	-10.1898
▁ühiselt	-10.19
▁seisab	-10.19
▁keelatud	-10.1901
kava	-10.1908
▁8.	-10.1908
väga	-10.1916
▁võimatu	-10.1917
lasi	-10.1921
▁Juhan	-10.1924
▁Selge	-10.1925
pp	-10.1927
▁küsimusest	-10.1931
▁diskussioon	-10.1933
▁turul	-10.1934
▁jaanuari	-10.1944
▁võtavad	-10.1946
▁ettepanekuga	-10.1948
▁Ettekandja	-10.195
▁küsi	-10.1954
▁konkreetseid	-10.1961
▁probleemide	-10.1964
▁ülesanded	-10.1988
▁48	-10.2
▁ajaloo	-10.2
▁muutus	-10.2001
▁tahtsin	-10.2012
▁varsti	-10.2012
▁pane	-10.2021
▁omavalitsuses	-10.2024
▁olevate	-10.2035
▁puudus	-10.204
▁lähedal	-10.2042
▁tasakaalus	-10.2042
▁tegid	-10.2043
▁usalda	-10.2046
▁maad	-10.2052
valdkonnas	-10.2057
▁Inimesed	-10.2061
▁mõtteid	-10.2064
▁49	-10.2067
▁loodetavasti	-10.207
▁vastutab	-10.2072
▁algab	-10.2073
▁vanemate	-10.2076
▁reguleeritud	-10.2093
▁hakkaks	-10.2094
▁joo	-10.2097
▁valdkondades	-10.2099
▁küla	-10.2108
▁püüan	-10.2111
▁kutsutud	-10.2112
▁jutu	-10.2114
programmi	-10.2115
▁isikliku	-10.2115
▁tõite	-10.2118
▁hoone	-10.2123
▁kaasatud	-10.2125
▁41	-10.2126
▁ekspordi	-10.2128
▁kõlanud	-10.213
▁püüdnud	-10.2131
▁kauem	-10.2149
▁automaatselt	-10.215
▁esinda	-10.2153
▁kannab	-10.2154
▁õigused	-10.2156
▁räägiti	-10.2158
▁oktoobri	-10.2163
▁22.	-10.2166
▁Aadu	-10.2167
▁peetakse	-10.2168
▁55	-10.2168
▁praeguses	-10.2169
▁päevakorras	-10.2176
▁aktiivselt	-10.2178
▁veebruari	-10.2183
▁mõtle	-10.2183
▁hulga	-10.2185
▁vii	-10.2186
▁kusagil	-10.2188
▁Võtame	-10.2189
▁isikud	-10.219
▁lähiajal	-10.219
▁selleni	-10.2193
▁Üldiselt	-10.2194
▁tegeleme	-10.2199
▁vastanud	-10.2202
▁neljanda	-10.2202
em	-10.2207
▁tööandjate	-10.2221
▁sõnu	-10.2222
idele	-10.2232
▁linnas	-10.2233
▁räägivad	-10.2239
▁samba	-10.2243
▁tutvustas	-10.2244
▁rahastamine	-10.2244
pea	-10.2245
▁üha	-10.2246
▁programm	-10.225
▁Juhtivkomisjon	-10.226
fondi	-10.2262
▁hanke	-10.2268
▁häda	-10.2269
▁rahast	-10.228
▁Seni	-10.2287
set	-10.229
sust	-10.2295
▁tulemusi	-10.2297
▁nimi	-10.2306
▁õigusloome	-10.2306
▁käsitletud	-10.231
▁to	-10.2314
▁Põhiseadus	-10.2319
õigus	-10.2323
are	-10.2329
▁Märt	-10.2331
▁kaubandus	-10.2331
▁põhiline	-10.2334
saa	-10.2335
▁arsti	-10.2338
▁paljusid	-10.2342
▁Heljo	-10.2343
▁Samamoodi	-10.2346
▁rahvasaadikut	-10.2351
▁juhtuda	-10.2354
▁ülesannete	-10.2359
▁vald	-10.236
▁kasuta	-10.236
▁varasema	-10.2362
▁tsiviil	-10.2365
▁aruande	-10.2365
▁perearsti	-10.2365
▁Seaduseelnõu	-10.237
▁kaotada	-10.2374
▁suurus	-10.2377
▁täiendava	-10.238
usega	-10.2385
▁EAS	-10.2386
▁kenasti	-10.2386
▁loomise	-10.239
▁kohane	-10.239
▁reguleerida	-10.2392
▁hääletama	-10.2398
▁toimuma	-10.2407
▁viitasite	-10.2407
▁teistpidi	-10.2407
▁kasutama	-10.2408
▁sõlmitud	-10.2409
▁perioodil	-10.2417
▁Vabariigis	-10.2417
▁elektroonilise	-10.2421
▁riikidega	-10.2423
▁vaata	-10.2428
▁jääma	-10.2437
▁informatsioon	-10.2437
▁leppinud	-10.2446
teks	-10.2452
▁tol	-10.2462
elu	-10.2462
▁riigireformi	-10.2466
▁sõltumata	-10.2468
▁võlgu	-10.2469
▁2009.	-10.247
▁toetused	-10.2471
▁avalikkuse	-10.2473
▁debati	-10.2484
▁Tänase	-10.249
▁noori	-10.249
▁Tolliameti	-10.2492
▁väliskomisjoni	-10.25
usi	-10.2509
▁suuruse	-10.2514
▁Liitu	-10.2517
▁muutmist	-10.2518
▁end	-10.2521
▁õpetajad	-10.2521
▁projekt	-10.2527
▁maksmise	-10.253
▁aus	-10.2533
▁muutuvad	-10.2543
▁seleta	-10.2544
▁pildi	-10.2544
▁krooni	-10.2548
▁rahaga	-10.255
▁sektoris	-10.2554
vaba	-10.2558
▁65	-10.256
▁taastuvenergia	-10.2568
▁paljudel	-10.2574
▁eeldab	-10.2575
▁ehitatud	-10.2591
ooni	-10.2592
▁näol	-10.2593
▁tõde	-10.2601
▁infotunnis	-10.2605
N	-10.2617
▁kasutavad	-10.2618
▁erinevus	-10.2622
▁lauale	-10.2624
▁teenused	-10.2627
▁loodame	-10.2632
▁küsisite	-10.2633
▁sündinud	-10.2633
▁menetleda	-10.2634
▁pakub	-10.2635
▁kohustust	-10.2636
▁territooriumil	-10.2637
▁arendustegevuse	-10.2638
liidu	-10.2639
▁niisuguse	-10.2641
▁hommikust	-10.265
▁tehes	-10.265
▁välispoliitika	-10.2656
▁La	-10.2661
▁Maa	-10.2672
▁seitsme	-10.2681
eeritud	-10.2689
seadust	-10.2691
▁öeldi	-10.2691
▁analüüsida	-10.2692
▁liikmeks	-10.2697
▁kohtute	-10.2703
Lugupeetav	-10.2706
tuks	-10.2709
▁pro	-10.2712
▁küsiti	-10.2718
▁44	-10.2727
▁igasuguse	-10.2728
▁rida	-10.2734
▁sulgen	-10.2735
▁ministrite	-10.2736
▁2019.	-10.2736
▁reaalne	-10.2737
▁keskmiselt	-10.2739
▁1%	-10.2756
▁millises	-10.2758
▁vastutust	-10.276
▁pankade	-10.2762
▁eeldus	-10.2765
▁sõltumatu	-10.2765
▁tõenäosusega	-10.2776
▁teenus	-10.2779
▁siht	-10.278
▁pead	-10.2781
▁selgitas	-10.2782
idega	-10.2787
▁Teil	-10.2789
▁tagama	-10.279
▁Inara	-10.279
▁mõjutada	-10.2791
▁kütuseaktsiisi	-10.2801
rid	-10.2805
▁poliitikat	-10.2809
tiiv	-10.2812
▁vahendite	-10.2814
▁Eriti	-10.282
▁Must	-10.2824
Naer	-10.2824
▁ütleks	-10.2828
▁ohu	-10.2832
töötajate	-10.2832
▁ettenähtu	-10.2837
▁1,	-10.2838
▁arvesta	-10.2838
▁kerge	-10.2839
▁appi	-10.284
▁kellega	-10.2851
▁Riigikaitse	-10.2857
▁Eesmaa	-10.2858
▁Siim	-10.2859
▁loetelu	-10.2859
toetus	-10.2861
▁seisuga	-10.2866
▁asub	-10.2869
Külliki	-10.2875
▁hakkas	-10.2883
▁esitati	-10.2883
▁Lugupeetav	-10.2884
▁vaidlus	-10.2888
▁töötu	-10.2897
▁haigla	-10.2899
▁arvab	-10.29
▁jõudis	-10.2904
▁pärit	-10.2904
▁algatas	-10.2908
▁400	-10.2908
▁kolleegi	-10.291
▁endast	-10.2911
Teine	-10.2918
▁palkade	-10.2921
▁järelevalvet	-10.2921
▁riigieelarvesse	-10.2921
▁olemasolu	-10.2922
▁viiakse	-10.2922
▁50%	-10.2926
▁seatud	-10.2927
▁Erki	-10.2931
▁riigieelarves	-10.2933
▁kasutanud	-10.2937
▁5000	-10.2946
▁soovitan	-10.2947
▁hooldus	-10.2947
▁N	-10.2953
▁eelista	-10.2958
▁Kallo	-10.2965
▁kättesaadav	-10.2966
▁Vastus	-10.2968
▁variant	-10.2975
▁1000	-10.2979
▁sisulise	-10.2979
▁Tsahkna	-10.2985
▁avata	-10.2989
▁proovi	-10.2989
▁dokumentide	-10.299
ol	-10.2997
▁eeskuju	-10.3001
▁konflikti	-10.3003
palga	-10.3003
▁majandust	-10.3007
▁ürita	-10.3015
▁muuda	-10.3019
▁maksavad	-10.3019
▁lai	-10.3022
▁valimised	-10.3024
▁töötasu	-10.3025
▁39	-10.3027
▁valguses	-10.3028
▁tegelik	-10.3033
▁Osa	-10.3034
▁Eestil	-10.3035
▁positiivse	-10.3035
▁küsib	-10.3038
▁Vaadake	-10.3039
▁üldise	-10.3039
▁omavalitsustel	-10.3041
▁stenogrammi	-10.3044
▁vahelise	-10.3046
▁toetas	-10.3047
▁omandi	-10.305
▁praegusel	-10.3055
▁arvamusi	-10.3056
▁normaalse	-10.3057
▁teaduse	-10.3058
▁ravimi	-10.3062
▁oleksime	-10.3063
▁Lääne	-10.3064
▁elama	-10.3064
▁sega	-10.3069
▁mismoodi	-10.3074
▁lasta	-10.3078
▁pääse	-10.3083
▁üli	-10.3085
ori	-10.3085
▁tutvusta	-10.3086
▁Algab	-10.309
▁Toom	-10.309
▁luuakse	-10.3093
▁kehtivad	-10.3096
▁üheks	-10.31
▁ometi	-10.3106
▁võtan	-10.3107
▁tulid	-10.3112
janduskomisjoni	-10.3116
▁Tahan	-10.3126
▁vali	-10.3134
▁eelkõneleja	-10.3135
▁firma	-10.3135
▁tähtsusega	-10.3137
▁eesmärgid	-10.3138
▁90	-10.314
▁tagab	-10.3148
▁tulemuse	-10.3149
ine	-10.315
aastase	-10.3153
▁RMK	-10.3157
▁ollakse	-10.3159
▁kinnitatud	-10.3163
▁paberi	-10.317
▁praktikas	-10.3176
▁põhja	-10.3177
▁Lihtsalt	-10.3179
▁rõhutada	-10.318
nenud	-10.3181
▁valda	-10.3182
▁tehnoloogia	-10.3189
▁välista	-10.319
▁toote	-10.3195
▁Vastupidi	-10.3201
▁niisugust	-10.3204
▁Üle	-10.3206
▁käsitleda	-10.3209
kuu	-10.321
▁H	-10.3214
▁kasutusele	-10.3215
▁nõuda	-10.3218
▁USA	-10.3222
▁suurendab	-10.323
▁otsida	-10.3231
▁eeldan	-10.3238
▁nimetasite	-10.3246
▁46	-10.3251
▁panustada	-10.3252
▁Aeg	-10.3254
▁poliitikud	-10.3254
▁kõrgema	-10.326
▁interneti	-10.326
▁ilus	-10.3265
▁hääletust	-10.3268
▁sunnitud	-10.327
▁lahendatud	-10.3273
▁auditi	-10.3274
▁42	-10.3275
ajalt	-10.3277
koalitsiooni	-10.3284
▁MTÜ	-10.3288
▁Täpselt	-10.3288
▁AS	-10.3292
▁võimekus	-10.3293
▁Kokku	-10.3294
ent	-10.3295
▁vastavad	-10.3295
▁in	-10.3301
▁Ko	-10.3305
▁47	-10.3305
▁kõikides	-10.3306
▁konsensuslik	-10.3306
▁kohtusse	-10.3306
▁jutuks	-10.3309
▁Saksamaa	-10.3315
c	-10.3319
taja	-10.3321
▁kuskile	-10.3322
iku	-10.3326
▁sea	-10.3326
▁püütakse	-10.3332
▁nõude	-10.3332
▁nõukogude	-10.3333
▁no	-10.3335
▁astuda	-10.334
▁po	-10.3344
▁43	-10.3345
▁reeglite	-10.335
▁nõnda	-10.3354
▁mistõttu	-10.3354
▁tarvis	-10.3354
ude	-10.3359
▁aktsepteeri	-10.336
▁töölepingu	-10.3361
▁sõita	-10.3361
▁teete	-10.3362
▁koolid	-10.3364
▁meetme	-10.3371
▁Eesmärk	-10.3376
▁saamise	-10.3386
▁sammud	-10.3387
▁Auväärt	-10.339
idest	-10.3395
▁täidetud	-10.3399
▁peaministrile	-10.3406
▁lühikese	-10.3409
▁erasektori	-10.341
▁ainu	-10.3419
▁näidanud	-10.342
▁äsja	-10.342
▁prokuratuuri	-10.3428
▁tänada	-10.3434
▁Laanet	-10.3435
▁mitmesuguseid	-10.3443
▁enese	-10.3445
▁Minul	-10.3448
▁registreeru	-10.345
▁riigilõivu	-10.3451
▁panema	-10.346
▁takso	-10.3466
▁Eile	-10.3481
▁tõe	-10.3482
▁lasteaia	-10.3483
▁puhas	-10.3489
▁Läbirääkimiste	-10.3493
▁investeerida	-10.3493
▁kutsuda	-10.3494
▁tase	-10.3495
deks	-10.3496
aar	-10.3498
▁muudetud	-10.35
▁senti	-10.3502
▁kahtluse	-10.3503
▁suudavad	-10.3507
▁hoo	-10.3508
▁täitmiseks	-10.351
▁hommikul	-10.351
▁kuulsime	-10.3512
tas	-10.3512
▁osalenud	-10.3519
▁Pi	-10.3525
▁52	-10.3533
▁halvasti	-10.3533
▁Maris	-10.3535
▁tulubaasi	-10.3538
▁tähtsa	-10.3542
▁teistest	-10.3545
▁taseme	-10.3547
▁Ju	-10.3549
▁paremat	-10.3551
▁juhtis	-10.3553
▁kampaania	-10.3553
▁lõppu	-10.3559
▁ootame	-10.3561
▁riiklik	-10.3565
▁turismi	-10.3565
▁eesistumise	-10.3565
ika	-10.3572
▁pakkunud	-10.3577
▁viibi	-10.3578
▁kaugel	-10.3581
▁järgmiste	-10.3582
▁sisuka	-10.3585
▁kodanikud	-10.3587
▁side	-10.3589
▁loobu	-10.3591
▁süü	-10.3594
▁kujunenud	-10.3597
▁kuriteo	-10.3598
tulu	-10.36
▁rahapesu	-10.3603
ministrile	-10.3604
▁eesmärke	-10.3604
▁5,	-10.3605
▁käe	-10.3608
▁aitavad	-10.3611
▁loa	-10.3611
▁asjadest	-10.3617
▁23.	-10.3618
▁viimaste	-10.362
▁Riigikokku	-10.3623
▁kommunikatsioon	-10.3624
ppi	-10.3632
▁kolmandat	-10.3636
▁seadused	-10.3636
▁sügava	-10.3637
▁kooseluseaduse	-10.3638
rge	-10.3638
▁paha	-10.3642
▁igaüks	-10.3646
▁lahendamise	-10.3646
▁juhatusele	-10.3648
▁pandi	-10.3648
▁kohalikke	-10.3652
▁jään	-10.3653
▁mõjuta	-10.3656
▁tõin	-10.3661
▁algatajate	-10.3663
▁Riisalu	-10.3668
▁tõstmine	-10.3668
Valdor	-10.3669
▁nõudeid	-10.3671
▁Meile	-10.368
▁põhjendus	-10.3689
▁viidud	-10.3691
▁Vakra	-10.3691
▁jätkan	-10.3692
▁koju	-10.3693
▁suhtumine	-10.3694
▁arusaamatu	-10.3699
ristusseadustiku	-10.3702
▁toimuvad	-10.3705
eta	-10.3705
▁ühiskonnale	-10.3708
▁muul	-10.371
▁Läbirääkimis	-10.371
reid	-10.3711
▁täida	-10.3713
▁Arupärijate	-10.3714
▁püsti	-10.3716
▁omavalitsusele	-10.3716
▁langeb	-10.3719
▁lähtuda	-10.372
▁kindla	-10.372
▁õppekava	-10.3724
üh	-10.3725
▁maksud	-10.3725
▁täpsusta	-10.3732
▁lähi	-10.3733
▁tipp	-10.3736
▁hoolimata	-10.3738
▁kasvavad	-10.3738
▁oleksin	-10.3738
▁otsusega	-10.3753
teist	-10.3756
▁ülikooli	-10.3757
▁pidades	-10.376
▁kodanik	-10.3778
▁kestab	-10.3779
▁kohtuniku	-10.3781
▁Kolleeg	-10.3781
▁pihta	-10.3783
▁siinsamas	-10.3783
▁arupärimist	-10.3789
▁teeni	-10.3791
uuri	-10.3791
maja	-10.3805
▁liigub	-10.3811
▁tehta	-10.3812
▁oligi	-10.3815
Martin	-10.3818
gem	-10.3821
▁si	-10.3822
▁lahku	-10.3824
Tuletan	-10.3824
▁kommenteeri	-10.3833
▁kandidaadi	-10.3834
äh	-10.3834
▁teki	-10.3836
▁tugeva	-10.3845
▁tegevused	-10.3846
▁bussi	-10.3847
▁Rahva	-10.3848
▁kala	-10.3857
▁pension	-10.3858
▁käsi	-10.3859
vä	-10.3861
▁tutvustada	-10.3862
▁ve	-10.3874
▁laadi	-10.3876
▁tegemisel	-10.3877
▁pealkirja	-10.3877
▁Savisaar	-10.3879
▁lähtub	-10.3881
▁näita	-10.3882
j	-10.3888
▁kaob	-10.3892
leping	-10.3895
▁maksustamise	-10.3896
▁Valitsusele	-10.3896
▁poliitikute	-10.3907
▁ülemineku	-10.3907
▁õpeta	-10.391
▁vajaliku	-10.3911
▁2018	-10.3912
Aplaus	-10.3922
▁päri	-10.3924
▁meetmete	-10.3936
▁milliste	-10.3939
isa	-10.3942
▁erineva	-10.3945
hvusringhäälingu	-10.3949
▁avalda	-10.3965
▁esitama	-10.3969
▁tüüpi	-10.3969
▁Pank	-10.3969
▁keela	-10.3972
▁Annan	-10.3976
▁fakt	-10.3982
▁suurusjärgus	-10.3987
▁2010.	-10.3994
▁laiali	-10.3994
▁ettevõtjatele	-10.3996
▁laiema	-10.3998
▁juriidilise	-10.3999
▁199	-10.4
▁looduskaitse	-10.4009
je	-10.4011
lase	-10.4016
▁juhtide	-10.4019
▁tulemused	-10.402
▁Kust	-10.4021
▁tulude	-10.4026
▁liini	-10.4028
▁vanem	-10.4031
▁teemadel	-10.4033
▁poleks	-10.4034
▁inglise	-10.404
▁üheselt	-10.4042
▁25.	-10.4045
▁jälgida	-10.4048
▁saamiseks	-10.405
▁eesmärgil	-10.405
ak	-10.4051
▁kuul	-10.4056
▁isikut	-10.4062
▁Pikhof	-10.4063
▁tõstmise	-10.4068
▁An	-10.407
aste	-10.4074
▁kasuks	-10.4079
▁kvaliteet	-10.408
▁Pomerants	-10.4097
▁avasta	-10.4103
▁hääle	-10.4104
▁süüdista	-10.4108
▁astme	-10.4114
▁senise	-10.4115
▁tere	-10.4119
▁suuresti	-10.412
▁juhtu	-10.4122
▁käsitle	-10.4124
koht	-10.4127
▁tööstus	-10.4129
▁Ameti	-10.413
▁osalesid	-10.4132
▁vaielda	-10.4135
ida	-10.4137
▁valitsust	-10.4142
▁üldist	-10.4143
▁raamatu	-10.4144
▁sõnad	-10.4149
summa	-10.4149
ndatud	-10.4155
▁loob	-10.4159
▁üksi	-10.4159
▁Vabaerakond	-10.416
▁Isegi	-10.4161
▁direktiiv	-10.4166
▁tohutu	-10.4169
▁pöörata	-10.417
▁kinnitanud	-10.4175
teenust	-10.4177
turu	-10.4178
▁aspekti	-10.418
▁tingitud	-10.4184
▁sisuline	-10.4185
▁arendus	-10.4186
▁2013	-10.4187
▁vähendab	-10.419
▁Praegune	-10.4194
▁toona	-10.4195
▁arengufondi	-10.4201
▁Arupärimisele	-10.4202
▁nõustu	-10.4203
▁meeste	-10.4205
▁väidan	-10.4209
▁b	-10.4212
▁püha	-10.4213
▁turule	-10.4214
▁laiendada	-10.4215
▁kindlalt	-10.4222
.)"	-10.4226
▁hinnangut	-10.4228
▁soovitus	-10.4232
▁lühike	-10.4235
▁tähtsam	-10.4235
▁vastamise	-10.4236
▁pikendada	-10.4237
▁Iva	-10.424
▁leiame	-10.4242
▁ressursse	-10.4243
▁aprilli	-10.4248
▁suureks	-10.4252
asutuse	-10.4252
rite	-10.4253
▁teabe	-10.4254
ministeeriumiga	-10.4255
▁Borodi	-10.4255
▁rääkimata	-10.4256
▁algatada	-10.4262
vas	-10.4265
▁nõuete	-10.4265
▁Seaduse	-10.4272
▁kur	-10.4275
▁riigiabi	-10.4275
▁kulutused	-10.4275
▁loomulik	-10.4282
▁teilt	-10.4282
▁Jutt	-10.4282
▁lõpeb	-10.4282
stab	-10.4283
määra	-10.4288
▁seada	-10.4294
▁Kohtu	-10.4295
öderatsiooni	-10.4296
▁väiksemad	-10.4299
▁esitasid	-10.43
▁para	-10.43
▁sihi	-10.4303
pidi	-10.4303
▁institutsiooni	-10.4305
▁2020	-10.4313
päev	-10.4314
▁tundu	-10.4319
nduskomisjonis	-10.4326
▁puuetega	-10.4328
▁ainus	-10.4329
▁erivajadustega	-10.4329
▁kaasata	-10.433
▁kaota	-10.4334
▁2017	-10.4335
▁tulebki	-10.4337
▁Sama	-10.434
▁Poola	-10.4341
▁aine	-10.4342
▁näitaja	-10.4344
allika	-10.4347
▁liikuma	-10.4353
▁jõustub	-10.4355
▁täiendavat	-10.4356
▁Sellist	-10.4358
▁üksik	-10.4359
▁pani	-10.4359
▁Rainer	-10.436
aastane	-10.4362
sete	-10.4364
tööd	-10.4365
registri	-10.4366
üksi	-10.4366
▁eksami	-10.4368
▁koosseis	-10.4369
▁5%	-10.4374
▁Narvas	-10.4375
▁trahvi	-10.4376
eniss	-10.4377
▁kohti	-10.4379
▁Iseenesest	-10.4381
▁Pean	-10.4383
▁kirjuta	-10.4389
▁tugi	-10.4394
▁Mille	-10.4397
▁hääletus	-10.4403
▁riigihalduse	-10.4403
▁läbirääkimistel	-10.4406
▁tootmise	-10.4409
▁seejärel	-10.4412
▁Sest	-10.4413
▁ajada	-10.4413
▁tuleme	-10.4423
5%	-10.4425
▁tubli	-10.4426
esse	-10.4428
ld	-10.4428
▁müüa	-10.4433
▁kasutamist	-10.4434
elge	-10.4438
▁reageeri	-10.444
▁personali	-10.4449
juht	-10.4456
▁rahulikult	-10.4457
keskuse	-10.4461
▁venekeelse	-10.4462
pool	-10.4462
▁lubanud	-10.4471
▁maade	-10.4471
▁tõsise	-10.4471
▁eelda	-10.4473
▁tingimustes	-10.4474
▁rahandusministr	-10.4475
ige	-10.4477
▁otsi	-10.4478
▁kasutades	-10.4482
▁temaatika	-10.4483
▁eelnõusse	-10.4484
▁Anvelt	-10.4484
▁töötama	-10.4485
▁Stalnuhhini	-10.4487
▁toetan	-10.4487
▁rahvast	-10.4487
▁juhtum	-10.4495
▁seekord	-10.4499
▁Pentus	-10.4501
▁uudis	-10.4501
▁viienda	-10.4503
▁jäid	-10.4503
akt	-10.4505
▁Põllumajandus	-10.4507
▁avalikku	-10.4517
▁õppima	-10.4525
eh	-10.453
arve	-10.453
▁kaasas	-10.4533
oni	-10.4534
▁arupärijate	-10.4535
▁de	-10.4538
▁Vabandust	-10.4542
tee	-10.4543
▁2020.	-10.4543
▁teeks	-10.4543
▁märgi	-10.4548
▁rahvusvaheline	-10.455
▁tahe	-10.4553
▁sõ	-10.4558
▁hindate	-10.456
tegevus	-10.4561
▁tekita	-10.4564
▁piirangud	-10.4564
▁mängu	-10.4566
▁esmaspäeval	-10.4567
▁suvel	-10.4567
▁Kohtla	-10.4575
▁andmise	-10.4575
▁jätkusuutlik	-10.4575
▁53	-10.4577
▁Ent	-10.4579
▁pööra	-10.4581
▁tunda	-10.4582
eerimise	-10.4582
▁huvid	-10.4588
▁2000	-10.459
▁tarbimise	-10.4601
▁edasise	-10.4602
▁moodustamine	-10.4605
▁Tu	-10.4608
▁loe	-10.4615
▁mitmesuguste	-10.4615
▁toetamise	-10.4619
▁tegemiseks	-10.462
▁omad	-10.4624
▁Tuiksoo	-10.4625
elda	-10.4626
▁juhtinud	-10.4627
▁raja	-10.4628
▁puhtalt	-10.4632
Aivar	-10.4636
▁pikemalt	-10.4636
kat	-10.464
▁Michal	-10.464
ib	-10.4643
▁2%	-10.4644
▁igasuguseid	-10.4648
▁huve	-10.465
▁Sild	-10.465
▁spetsialistid	-10.4653
▁avalikkusele	-10.4653
▁seadusmuudatuse	-10.4658
▁sõit	-10.4659
▁tegutseda	-10.4659
▁kuivõrd	-10.466
▁kasutab	-10.4662
▁majanduskasv	-10.4664
▁määrati	-10.4668
▁kohtus	-10.467
▁nõuetele	-10.4674
▁enamasti	-10.4676
kultuuri	-10.4677
▁seisukohtade	-10.4679
▁ettepanekul	-10.4682
▁õpi	-10.4683
▁kaitseväe	-10.4683
▁nõustuda	-10.4685
hinna	-10.4688
▁Neeme	-10.4689
kuse	-10.4692
▁argument	-10.4696
▁ettevõtteid	-10.4698
▁Keskuse	-10.47
▁samasugune	-10.4701
▁ettepanekute	-10.4703
▁naised	-10.4704
sotsiaalminister	-10.4706
õppe	-10.4707
▁2014	-10.4711
▁Tõnis	-10.4713
▁astu	-10.4719
▁esineja	-10.472
iti	-10.472
▁Luigas	-10.4724
▁piinlik	-10.4726
▁seaduseelnõuga	-10.4733
▁vastasin	-10.4736
▁sajandi	-10.4737
▁juhin	-10.4737
▁tõusnud	-10.4739
▁Su	-10.4745
ministeeriumil	-10.4748
▁mõistliku	-10.4756
▁kuupäeva	-10.4757
mõ	-10.4758
▁pilti	-10.4759
▁mingis	-10.476
Mart	-10.4761
▁ekspertide	-10.4762
▁näevad	-10.4762
▁asenda	-10.4768
▁peamiselt	-10.4777
▁põhimõtteline	-10.4779
▁Eelmise	-10.4782
▁4,	-10.4782
▁olime	-10.4785
▁viinud	-10.4786
▁lugema	-10.4793
▁järgmist	-10.4797
▁lähen	-10.4798
▁väikeste	-10.4798
▁endal	-10.48
▁aseesimehe	-10.4802
▁riikidest	-10.4802
▁eraldatud	-10.4807
▁olemasoleva	-10.4807
Mul	-10.481
▁valijate	-10.4811
kultuuriminister	-10.4812
and	-10.4816
▁parim	-10.4817
▁turva	-10.4818
▁avalikult	-10.4819
▁suve	-10.4819
▁lahendused	-10.4824
▁täiendavaid	-10.4827
▁spiiker	-10.4828
▁sund	-10.4829
ettevõtete	-10.4839
Proua	-10.4841
▁suuremaid	-10.4841
▁tulemusel	-10.4842
▁tuge	-10.4843
▁Toon	-10.4849
▁otsusena	-10.4849
▁lapsele	-10.4852
▁Lenk	-10.4853
▁müü	-10.4855
▁teistel	-10.4855
▁mõnikord	-10.4855
▁väikesed	-10.486
▁Seos	-10.4864
▁saagi	-10.4867
Meie	-10.4867
▁hindamise	-10.4871
▁75	-10.4873
▁palgatõusu	-10.4874
▁huvitava	-10.4875
▁koostamise	-10.4879
▁missuguse	-10.488
▁ootab	-10.4887
▁osalevad	-10.4892
Minu	-10.4893
▁sõnaga	-10.4893
▁täiendav	-10.4895
▁statistikat	-10.4904
tamiseks	-10.4905
▁digi	-10.4905
▁äriühingu	-10.4906
▁OE	-10.4907
▁mehed	-10.4908
▁samasuguse	-10.4909
▁nägi	-10.4921
▁ministeeriumis	-10.4923
▁eesmärkide	-10.4925
statakse	-10.4929
▁järgmistel	-10.493
▁korraldatud	-10.4932
▁piirkondades	-10.4933
▁ülikoolide	-10.4935
▁sadama	-10.4936
▁põ	-10.494
▁võimalikud	-10.4949
▁ettevõtjaid	-10.4954
▁Paljud	-10.4956
▁kaitstud	-10.4956
▁õiglane	-10.4956
▁panus	-10.4959
▁jälgi	-10.4959
▁arengut	-10.4959
▁operatsiooni	-10.4961
▁Kolmas	-10.4964
▁Eelmisel	-10.4966
▁asutus	-10.4968
Küsimus	-10.4969
▁suurendamise	-10.4975
▁30.	-10.4976
kohustus	-10.4978
▁arenda	-10.4978
▁selgita	-10.4979
▁sularaha	-10.4982
▁tegevuskava	-10.4984
▁kriitika	-10.4988
▁sätestab	-10.499
eni	-10.4996
kontrolli	-10.4997
▁viimased	-10.4999
▁nimeta	-10.5
▁54	-10.5007
kord	-10.5009
▁senisest	-10.501
▁kajasta	-10.501
▁eelis	-10.5013
▁otsima	-10.5015
▁tahte	-10.5015
▁Karilaid	-10.5018
ondi	-10.5019
▁signaali	-10.502
▁kallis	-10.5021
▁kohalikel	-10.5023
▁erakonda	-10.5027
eerida	-10.5029
▁piirata	-10.5031
▁omanik	-10.5034
▁lõppkokkuvõttes	-10.5035
▁Tõenäoliselt	-10.5037
▁kehtestamise	-10.5038
▁lõige	-10.504
▁Tartus	-10.5044
▁infosüsteemi	-10.5046
las	-10.5056
▁kolmandale	-10.5058
▁kasumi	-10.5059
▁kooskõlla	-10.5061
▁Seadus	-10.5064
väär	-10.5066
▁kõikidel	-10.5066
▁küsitud	-10.5068
▁null	-10.507
▁küsimustega	-10.5071
mäe	-10.5083
▁seisus	-10.509
▁võimelised	-10.5091
▁märtsi	-10.5091
▁78	-10.5097
▁Seeder	-10.5101
vahendite	-10.5101
▁loomine	-10.5103
tunni	-10.5106
▁võrdselt	-10.5108
▁Põhjus	-10.5113
▁üldjuhul	-10.5113
▁endi	-10.5118
▁26.	-10.5129
▁tegutse	-10.5135
▁kümneid	-10.5137
▁maine	-10.5137
▁liikmesriigi	-10.514
▁ainuke	-10.5141
▁vaatab	-10.5152
▁külas	-10.5158
▁võla	-10.5158
▁nädal	-10.5159
▁Mõni	-10.5166
▁vägivalla	-10.5166
▁tuuakse	-10.5167
▁Kus	-10.5169
unud	-10.517
▁tänapäeva	-10.5173
▁mõlema	-10.5183
▁U	-10.5186
▁ravikindlustuse	-10.5192
▁arstide	-10.5194
▁kange	-10.5197
▁pagulaste	-10.5201
▁säte	-10.5203
ntsinspektsiooni	-10.5205
eg	-10.5206
▁tark	-10.5207
▁õigel	-10.5208
Mihhail	-10.521
▁sõltu	-10.5211
▁vaeva	-10.5217
stama	-10.5217
▁korrektne	-10.5219
▁juhuks	-10.5219
▁siiralt	-10.5219
▁leidma	-10.5219
▁kadunud	-10.5222
▁ministrina	-10.5237
▁asjadega	-10.5243
vu	-10.5251
▁rääkisid	-10.5251
▁Põhimõtteliselt	-10.5253
▁Efendijev	-10.5254
▁liikmel	-10.5255
▁miljardi	-10.5256
▁fakti	-10.5257
▁muutmiseks	-10.526
▁uuringute	-10.5272
▁alternatiiv	-10.5273
▁57	-10.5277
kulu	-10.5277
nä	-10.5277
tuna	-10.5281
▁avaldanud	-10.5281
▁lõuna	-10.5289
Urve	-10.5291
▁paremad	-10.5293
▁selged	-10.5297
sioon	-10.5299
hariduse	-10.5299
▁eksperdid	-10.53
▁otstarbekas	-10.53
▁minnakse	-10.53
▁kavandatud	-10.5304
aks	-10.5304
▁vastuvõtmist	-10.5304
▁hinnad	-10.5309
▁piisa	-10.5311
enda	-10.5311
▁keeldu	-10.5314
▁31.	-10.5319
▁valija	-10.532
▁Nõukogude	-10.532
kor	-10.532
▁lennu	-10.5321
▁maantee	-10.5326
▁metoodika	-10.5326
▁Eestimaa	-10.5337
▁mängi	-10.534
▁seadusmuudatus	-10.5342
põhise	-10.5353
▁ideed	-10.5357
▁sind	-10.5358
▁kohtades	-10.5366
▁turg	-10.5369
▁sotsiaalse	-10.5374
▁lõpetan	-10.5376
Ka	-10.5377
▁mo	-10.5378
▁muide	-10.5379
▁paranda	-10.538
▁Kaljuvee	-10.538
▁Riigikohus	-10.5381
▁esma	-10.5385
▁aktiivse	-10.5388
fi	-10.5395
▁teenistuse	-10.5397
▁aegade	-10.5398
▁erivajadusega	-10.5408
▁toimu	-10.5413
▁karmi	-10.5418
▁suurenda	-10.5423
▁esimeses	-10.543
▁tööminister	-10.5432
▁eralda	-10.5433
▁viima	-10.5435
▁kuritegude	-10.5435
▁pensionäride	-10.5436
ettevalmistamist	-10.544
▁ilusa	-10.5443
▁Ühendriikide	-10.5446
▁Ütlen	-10.545
▁organisatsioon	-10.5453
mehhanismi	-10.5461
▁okupatsiooni	-10.5462
▁kõigest	-10.5465
▁naa	-10.5468
▁deklaratsiooni	-10.547
▁madala	-10.5472
sk	-10.5475
▁omaette	-10.5476
▁kandidaat	-10.5479
▁arvavad	-10.548
▁laiene	-10.5481
▁28.	-10.5485
aegse	-10.5487
▁leitakse	-10.5489
▁põllumeeste	-10.549
▁igasugune	-10.5492
▁taastada	-10.5493
▁valikuid	-10.5494
▁kaitset	-10.5495
▁saad	-10.5496
▁põhiliselt	-10.5498
▁eelmises	-10.5503
▁aset	-10.5504
▁tulenevad	-10.5505
ev	-10.5505
ministeeriumile	-10.5508
▁kon	-10.5515
▁toetame	-10.5517
▁kantud	-10.5519
▁Val	-10.5519
▁õigemini	-10.552
▁väljakutse	-10.552
▁jätkame	-10.5521
▁õnnestunud	-10.5522
▁säilitada	-10.5523
▁leian	-10.5529
▁loota	-10.5533
▁eelmisele	-10.5537
▁surma	-10.5539
▁esitaja	-10.554
▁tagantjärele	-10.5544
▁leitud	-10.5544
▁kütte	-10.5551
▁2008.	-10.5552
▁elanud	-10.5556
▁ca	-10.5557
▁võimekust	-10.5558
▁kirjalikult	-10.5559
alkoholiaktsiisi	-10.5559
protsessi	-10.5559
▁riigieelarvet	-10.5562
panga	-10.5563
Henn	-10.5565
▁kehtiv	-10.5568
▁rongi	-10.5569
▁neljas	-10.5572
▁noortele	-10.5572
korralduse	-10.5573
dEttepaneku	-10.5575
▁Viljandi	-10.5575
▁areng	-10.5575
▁konkursi	-10.5578
▁64	-10.5581
▁Vaheaeg	-10.5586
▁vangla	-10.5586
▁kanna	-10.5588
▁komisjonile	-10.5588
rik	-10.5588
▁maavalitsuste	-10.559
▁puutu	-10.5591
▁millegipärast	-10.5599
▁võtmise	-10.5601
▁kompromissi	-10.5601
▁esindatud	-10.5607
▁miinus	-10.5608
▁mõistlikum	-10.5611
▁koole	-10.5613
▁tund	-10.5616
▁esindajatega	-10.5622
▁kujunda	-10.5625
▁Millal	-10.5627
▁Tähendab	-10.5627
▁esitatakse	-10.5631
▁baas	-10.5631
▁jätab	-10.5633
▁septembri	-10.5634
▁29.	-10.5635
▁6,	-10.5636
▁lahendamiseks	-10.5636
▁keskendu	-10.5638
▁keskmisest	-10.5639
▁Eelnõuga	-10.564
▁põhimõtte	-10.5641
9%	-10.5647
H	-10.5649
punkti	-10.5655
▁erakoolide	-10.5656
▁viitasin	-10.5658
▁tohib	-10.566
▁nimetatakse	-10.5661
▁seletada	-10.5667
▁kommentaari	-10.5668
▁korralikult	-10.5669
▁märkus	-10.5669
▁pakkumise	-10.5673
ministeeriumist	-10.5674
ver	-10.5677
Urmas	-10.5677
▁kompromiss	-10.5678
▁madalama	-10.5678
▁Vahe	-10.5681
▁niikuinii	-10.5683
ndamise	-10.569
▁panuse	-10.5698
▁pädevus	-10.57
▁suurel	-10.57
kad	-10.57
▁ülesande	-10.5703
▁osapooled	-10.5704
▁Mikser	-10.571
▁kohtunike	-10.5713
▁rahvale	-10.5714
▁0	-10.5715
▁Arupärimine	-10.5715
▁riigist	-10.5715
▁oota	-10.5719
▁76	-10.5721
▁tutvu	-10.5723
▁võtate	-10.5726
▁jõudma	-10.5726
▁rõhu	-10.5728
▁euroala	-10.5729
▁parlamentaarse	-10.573
▁reguleeri	-10.5734
▁56	-10.5734
ndada	-10.5736
▁Heimar	-10.5741
▁praeguste	-10.5745
▁Oleks	-10.5747
▁olukorrast	-10.575
▁tegevusi	-10.5754
▁võimaluste	-10.5758
▁struktuurse	-10.5758
▁aegadel	-10.5762
▁stabiilsus	-10.5762
▁mandaati	-10.5764
▁Luik	-10.5767
ruumi	-10.5771
▁tutvuda	-10.5776
veo	-10.5777
▁pöördu	-10.5787
stamist	-10.5787
▁kättesaadavus	-10.5788
▁ent	-10.5788
▁kodakondsust	-10.5788
mm	-10.579
▁viies	-10.579
▁andmine	-10.5793
▁risk	-10.5795
▁Aasta	-10.5797
▁kultuur	-10.5799
▁sõjalise	-10.5802
▁suurendamine	-10.5803
maal	-10.5807
▁audit	-10.5809
▁kütust	-10.5812
▁liitu	-10.5817
▁toimi	-10.5819
põhine	-10.5819
aat	-10.5825
▁vi	-10.5832
▁Lembit	-10.5834
▁päriselt	-10.5836
▁68	-10.5841
ame	-10.5843
▁piira	-10.5844
B	-10.5847
▁muudatust	-10.5847
▁uurida	-10.5851
▁õiguslik	-10.5852
▁saamata	-10.5853
▁erakordselt	-10.5854
▁vaatasin	-10.5855
▁liigume	-10.5857
▁erapooletu	-10.5861
▁tahaksime	-10.5862
▁mõtleme	-10.5862
▁võimalikke	-10.5864
iks	-10.587
▁haiglate	-10.5871
uste	-10.5874
▁nähakse	-10.588
organisatsiooni	-10.5882
▁majandusliku	-10.5886
▁tööga	-10.5887
▁ühinemise	-10.589
▁täidab	-10.5891
▁rahulda	-10.5892
▁eelnevalt	-10.5892
▁vabatahtlikult	-10.5894
Marti	-10.5898
▁Alati	-10.591
menetlus	-10.5912
▁las	-10.5915
▁Küsin	-10.5915
▁vähendamine	-10.5915
▁esine	-10.5916
▁endine	-10.5917
▁pöördunud	-10.5917
mahu	-10.5919
▁must	-10.5919
▁katta	-10.592
▁ausad	-10.5924
▁erakorralise	-10.5926
sotsiaalkomisjon	-10.5932
▁õhtu	-10.5935
▁kõnealuse	-10.5935
▁Eldar	-10.5937
▁ostu	-10.5939
▁planeeri	-10.5941
jo	-10.5943
▁põle	-10.5944
▁võrdlus	-10.5945
▁ravimite	-10.5947
▁hetk	-10.5948
▁lõpetanud	-10.5957
▁17.15	-10.5959
▁toreda	-10.5961
▁hetke	-10.5963
▁püsi	-10.5964
▁Aaviksoo	-10.5965
miste	-10.5968
▁võtsid	-10.5968
▁vanuse	-10.5969
tavat	-10.597
rvishoiuteenuste	-10.5972
▁korraks	-10.5977
▁laienda	-10.598
▁lastekaitse	-10.5981
keskkonna	-10.5982
▁rõõmu	-10.5989
▁riigikontrolör	-10.5989
▁kokkuleppele	-10.5992
▁tegutsevad	-10.5993
▁viidatud	-10.5995
▁sattunud	-10.5997
▁teosta	-10.5999
▁Ki	-10.6003
▁meedias	-10.6005
nõukogu	-10.6008
▁seisu	-10.601
▁sisulist	-10.6011
▁selget	-10.6012
leppe	-10.6014
▁vaheaja	-10.6017
▁võrgu	-10.6018
▁rahastamist	-10.602
▁regionaalse	-10.602
mate	-10.6023
▁Vabariik	-10.6025
▁Eri	-10.6025
poolse	-10.6026
▁kiriku	-10.603
▁Asi	-10.6032
▁Ken	-10.6034
▁raporti	-10.6039
ata	-10.6049
▁praktikat	-10.6049
▁esialgu	-10.6052
▁ääretult	-10.6052
▁osalemise	-10.6053
▁delegatsiooni	-10.6053
▁ajalugu	-10.6053
▁tingimusi	-10.6054
koalitsioon	-10.6054
ides	-10.6061
lust	-10.6064
neb	-10.6064
▁sissetulek	-10.6066
▁alg	-10.607
▁põhimõtet	-10.607
▁poliitilised	-10.6076
▁ro	-10.6084
▁seisneb	-10.6085
▁sõlmida	-10.6088
▁abikaasa	-10.6092
▁vastusest	-10.6096
tulumaksuseaduse	-10.6099
▁võimalikku	-10.6099
▁põhjalik	-10.6101
mees	-10.6102
▁suhe	-10.6104
▁kaugemale	-10.6104
▁kehtesta	-10.6105
▁poliitikas	-10.6107
atsioon	-10.6109
▁72	-10.6109
▁makstud	-10.6118
▁täiendada	-10.6118
▁tekitas	-10.6119
▁õ	-10.6122
▁teenida	-10.6122
▁kellest	-10.6123
▁kliima	-10.6123
riikide	-10.6123
▁Rootsis	-10.6126
▁ministrit	-10.6127
▁reegleid	-10.6131
▁koosolekul	-10.6131
▁probleemiga	-10.614
▁võtaks	-10.6141
▁Ha	-10.6151
tades	-10.6154
seaduses	-10.6155
▁nõukogus	-10.6155
▁koorma	-10.6155
▁Tallinn	-10.6156
▁pr	-10.6161
hk	-10.6164
▁näitas	-10.6167
▁Poolt	-10.6167
▁vaadake	-10.6168
▁r	-10.6169
Kaitseväe	-10.6174
▁halva	-10.6178
▁paljudele	-10.6178
▁leiavad	-10.618
▁kilomeetrit	-10.6182
▁vabatahtliku	-10.6183
▁praegust	-10.6184
▁korteri	-10.6184
▁Liisa	-10.6189
▁institutsioon	-10.6189
▁talu	-10.619
võrgu	-10.6192
hv	-10.6193
kasu	-10.6193
kohtu	-10.6193
▁viitas	-10.6195
▁Prantsusmaa	-10.6196
▁uurimis	-10.6197
▁tõmmata	-10.6198
▁kandideeri	-10.6198
▁näi	-10.6199
▁taristuminister	-10.6199
▁toodi	-10.62
▁vea	-10.6202
▁panusta	-10.6203
▁Pea	-10.6204
▁Ain	-10.6205
▁Kiisler	-10.6207
▁tasakaal	-10.6208
sele	-10.6208
op	-10.621
ani	-10.621
▁parima	-10.6213
▁67	-10.6214
▁täpsustan	-10.6215
▁hääleta	-10.6216
sektoris	-10.6223
▁Suurbritannia	-10.6227
▁hakati	-10.6227
▁järelikult	-10.6227
Jaak	-10.6228
▁saadakse	-10.6229
▁võimeline	-10.623
▁poolteist	-10.6231
▁laekub	-10.6232
komisjonile	-10.6234
▁Keegi	-10.6234
▁loobuda	-10.6239
▁Arutelu	-10.6241
▁häälte	-10.6244
võime	-10.6244
piiri	-10.6245
van	-10.6245
▁põhimõtted	-10.625
▁ajaga	-10.6251
▁eestlaste	-10.6251
▁aitaks	-10.6253
▁hävi	-10.6257
▁tulud	-10.626
▁püüab	-10.626
▁mahtu	-10.6262
▁vaesuse	-10.6264
▁2012	-10.6265
▁positiivset	-10.6265
tsu	-10.6265
loa	-10.6286
▁varu	-10.6287
õpetaja	-10.629
▁fraktsioonid	-10.6291
poole	-10.6291
▁arutelude	-10.6294
▁kavatseb	-10.6295
▁avaldada	-10.6298
▁ressursi	-10.6302
▁söö	-10.6305
viisi	-10.6306
▁rikkumise	-10.6307
▁vahest	-10.6312
▁kooselu	-10.6313
▁märkimisväärne	-10.6316
▁kliendi	-10.6316
▁muutnud	-10.6316
Valeri	-10.6316
▁õiguskomisjon	-10.632
▁potentsiaalse	-10.632
▁kompetentsi	-10.6324
jatele	-10.633
▁professionaalse	-10.6332
▁Ester	-10.6334
▁arvuti	-10.6334
▁majas	-10.6335
▁suhtle	-10.6337
▁apteegi	-10.6338
▁lootust	-10.6341
▁24.	-10.6345
▁Kruusimäe	-10.6346
▁Muu	-10.6348
▁kr	-10.6349
▁58	-10.6349
majanduse	-10.6355
▁eraldada	-10.6356
▁seisma	-10.6356
▁eeldada	-10.6357
▁kinnitamise	-10.6357
▁lõpeta	-10.6362
▁ministeeriumid	-10.6365
▁kohati	-10.6365
▁riiklike	-10.6366
▁sektor	-10.6367
▁arutatakse	-10.6368
▁reisi	-10.637
▁ratifitseeri	-10.6372
▁langetamise	-10.6372
▁täiendamise	-10.6374
valimiste	-10.6379
▁tausta	-10.6381
▁Aafrika	-10.6381
▁laevade	-10.6385
▁rahvusvahelist	-10.6387
▁menetlusliku	-10.6387
▁osakaalu	-10.639
▁töötajad	-10.6404
▁täpne	-10.6405
▁hinge	-10.6406
Jüri	-10.6407
▁linnapea	-10.6407
▁bürokraatia	-10.6408
▁eespool	-10.6409
▁pöördumise	-10.6411
▁staatuse	-10.6412
▁kaas	-10.6415
▁lä	-10.642
Ja	-10.642
▁otsustama	-10.642
ikute	-10.6424
aina	-10.6424
▁mingisugused	-10.6424
▁missugune	-10.6427
▁rahastus	-10.6429
▁Tõniste	-10.6433
▁Võsa	-10.6436
▁piirang	-10.6436
Siseministeerium	-10.6438
▁ootavad	-10.6443
▁62	-10.6447
umise	-10.6448
▁välismaal	-10.6449
▁korteriühistu	-10.6451
▁tahet	-10.6455
▁kinnitas	-10.6456
▁puu	-10.6462
▁temaga	-10.6473
▁reaalse	-10.6473
▁paratamatult	-10.6474
▁omaniku	-10.6477
▁tõlgenda	-10.6479
▁soovinud	-10.6479
umist	-10.6482
kke	-10.6483
▁jõutud	-10.6483
▁töökoha	-10.6488
▁Vassiljevi	-10.6491
▁protseduuri	-10.6491
▁eakate	-10.6492
▁punktis	-10.6492
▁Järelikult	-10.6496
▁värske	-10.6497
▁Helir	-10.6497
▁rakendu	-10.65
▁täitnud	-10.6501
▁tagant	-10.6501
▁tuntud	-10.6505
tuste	-10.6508
▁muutuma	-10.6508
▁piiranguid	-10.6509
▁Raha	-10.6519
kirju	-10.6521
▁Mõned	-10.6525
1.	-10.6525
▁taotle	-10.653
▁Arvestades	-10.6533
▁maamaksu	-10.6536
alase	-10.6539
last	-10.6541
▁ukse	-10.6542
▁diskrimineeri	-10.6543
▁tugispetsialist	-10.6544
▁spetsialistide	-10.6546
▁riske	-10.6546
▁Kaia	-10.6554
▁Sulge	-10.6557
▁kavatse	-10.656
aalne	-10.656
▁Estonian	-10.656
▁suurenenud	-10.6561
oli	-10.6567
▁kättesaadavuse	-10.6567
▁sõidu	-10.6568
▁majanduslik	-10.6569
▁haldusalas	-10.6569
▁jõuavad	-10.6571
tule	-10.6571
▁tööturu	-10.6575
▁esimehena	-10.6576
amet	-10.6576
▁Neil	-10.6577
ok	-10.6582
▁märkimisväärse	-10.6582
▁asjaolude	-10.6585
▁Ettekande	-10.6587
▁füüsilise	-10.6595
▁maks	-10.6595
▁jõuliselt	-10.6596
%.	-10.6601
▁tulumaks	-10.6601
lg	-10.6606
▁juhtimis	-10.6608
▁Olga	-10.661
▁skeemi	-10.6612
▁sündi	-10.6613
▁elanikkonna	-10.6615
▁maksusüsteemi	-10.6616
▁polnud	-10.6618
▁järgmiseks	-10.6621
▁arenenud	-10.6622
lin	-10.6625
▁teavita	-10.6628
▁nimetamine	-10.6629
▁elaniku	-10.663
saar	-10.6634
▁millisel	-10.6636
▁tarbimine	-10.6638
▁olite	-10.6639
▁pensionile	-10.664
▁koolilõuna	-10.6649
▁saladus	-10.6649
uu	-10.665
▁kiita	-10.6652
▁pakutakse	-10.6653
▁esitamist	-10.6653
▁Tal	-10.6659
▁infrastruktuuri	-10.666
▁lood	-10.666
▁Kooli	-10.6662
▁tegevuste	-10.6667
õr	-10.6669
▁peast	-10.667
▁kutsu	-10.6679
▁needsamad	-10.6679
reformi	-10.668
▁perspektiivi	-10.6681
keel	-10.6681
▁kindlad	-10.6683
▁kompensatsiooni	-10.6686
▁valdavalt	-10.6686
määr	-10.6687
▁ratifitseerimis	-10.6687
▁artikli	-10.67
▁kiirabi	-10.6701
▁vajaduspõhise	-10.6703
▁poliitiliselt	-10.6705
▁ohtlik	-10.6708
8%	-10.671
▁maaelukomisjoni	-10.6713
▁opositsioon	-10.6713
▁üllatus	-10.6714
▁nädalat	-10.6717
likkuse	-10.6719
▁maakonnas	-10.672
▁võitle	-10.672
▁otsustus	-10.6722
▁perekond	-10.6732
▁võim	-10.6736
▁79	-10.674
▁palgalõhe	-10.6741
▁Viimase	-10.6744
▁kujuneb	-10.6744
Monika	-10.6745
investeeringute	-10.6745
▁tooma	-10.6748
▁kuuluva	-10.6748
▁jätkusuutlikkus	-10.6749
▁teadmiste	-10.6751
▁sunni	-10.6755
linna	-10.6759
nne	-10.6763
▁üüri	-10.6764
▁kinnitan	-10.6765
oor	-10.6766
▁põllumajanduse	-10.6767
▁õhu	-10.6768
▁vaatate	-10.677
▁vaadatakse	-10.6773
▁ülimalt	-10.6773
mehe	-10.6775
▁kena	-10.6775
stuse	-10.6776
▁Saare	-10.6777
▁esindajate	-10.6778
▁täie	-10.6782
▁sõnumi	-10.6782
ea	-10.6783
▁mures	-10.6783
▁kulutada	-10.6784
▁summasid	-10.6785
2.	-10.6786
kku	-10.6786
▁võimul	-10.6787
▁arutelusid	-10.6788
soo	-10.6792
▁Lutsepp	-10.6803
▁valitsuskabinet	-10.6803
kaitseakadeemia	-10.6803
▁lahendama	-10.681
▁arvestatakse	-10.6811
▁kõ	-10.6816
▁kogemusi	-10.6817
▁argumendid	-10.6818
▁elektriaktsiisi	-10.6819
▁hirmu	-10.6824
▁kõrghariduse	-10.6825
▁Maaelu	-10.6826
▁toimimise	-10.6826
▁pikema	-10.6827
▁Parts	-10.6827
▁Korbi	-10.6827
▁siseministri	-10.6831
tusi	-10.6833
▁Kaskpeit	-10.6834
▁territooriumi	-10.6838
kaardi	-10.6839
▁vabadus	-10.6841
▁arusaamatuks	-10.6842
▁inimõiguste	-10.6842
▁turvalisuse	-10.6852
▁tugevalt	-10.6855
▁töövõime	-10.6857
▁töökohad	-10.6857
▁ressursside	-10.6859
▁kohustuslik	-10.6859
▁euroga	-10.686
▁Palling	-10.6861
joon	-10.6865
▁Sarapuu	-10.6866
▁lubab	-10.6867
▁muuseumi	-10.687
▁töötavate	-10.6871
▁juhid	-10.6873
▁omavalitsust	-10.6877
▁trend	-10.6879
▁noore	-10.6881
ada	-10.6882
▁Suure	-10.6882
▁heade	-10.6888
Va	-10.6889
▁tunnevad	-10.689
makse	-10.6892
▁teadlik	-10.6897
▁Päris	-10.6897
▁Laasi	-10.6898
▁unusta	-10.6901
▁lahkunud	-10.6905
▁77	-10.6906
▁Tamme	-10.6908
▁haige	-10.6914
▁õnnestu	-10.6918
ris	-10.6918
▁likvideeri	-10.6921
▁olukorraga	-10.6923
▁tunnusta	-10.6924
▁väärt	-10.6926
▁koalitsioonis	-10.6926
▁Olgu	-10.6929
ela	-10.6933
▁määrus	-10.6936
▁hoiu	-10.6936
▁paluda	-10.6937
▁mõtted	-10.694
▁Ansip	-10.6941
▁sääst	-10.6941
▁tööturul	-10.6941
▁61	-10.6945
▁iseseisva	-10.6946
▁korraldus	-10.695
▁edasta	-10.6953
▁Keit	-10.6954
tused	-10.6955
▁tõ	-10.6962
▁kuulsin	-10.6963
▁ring	-10.6968
▁taristu	-10.6971
▁paigas	-10.6972
▁rahvaesindajad	-10.6975
▁vähemaks	-10.6979
▁iseenda	-10.6988
▁usaldus	-10.6989
▁Maruste	-10.6992
▁pikaajalise	-10.6992
▁pulti	-10.6994
▁tänasel	-10.6994
▁ettekannet	-10.6997
▁Simsoni	-10.7006
▁63	-10.7006
▁kõnele	-10.7008
▁odavam	-10.7009
▁plaanid	-10.701
astme	-10.7013
3.	-10.7014
▁vaesuses	-10.7014
▁Itaalia	-10.7024
av	-10.7024
▁27.	-10.7032
▁positsioon	-10.7043
▁Oluli	-10.7048
liiklus	-10.7048
▁koostamisel	-10.7052
ee	-10.7054
▁Kivimägi	-10.7056
▁lükatud	-10.7056
▁Nemad	-10.7056
▁uuringuid	-10.7058
▁suu	-10.7059
▁kehtestatakse	-10.7061
▁oluliste	-10.7066
▁taju	-10.7067
▁Räägi	-10.7067
▁Seepärast	-10.7067
▁liikumine	-10.7069
▁patsiendi	-10.7079
▁hääletamist	-10.7082
▁suhted	-10.7085
▁paku	-10.7089
▁andsid	-10.7091
▁vähene	-10.7096
▁erand	-10.7103
6%	-10.7108
▁registreeri	-10.7111
9.	-10.7112
▁madal	-10.7114
▁vabalt	-10.7114
▁majandusele	-10.7115
▁täit	-10.7117
▁väljenda	-10.7117
tajate	-10.7119
▁Hallemaa	-10.712
ment	-10.7122
▁arutelud	-10.7126
▁väljendanud	-10.7126
▁tulemas	-10.7129
▁kolmandaks	-10.7134
▁71	-10.7134
▁muutuda	-10.7138
▁menetlusest	-10.714
▁keskkonnatasude	-10.7143
õl	-10.7145
▁hääletamisele	-10.7147
▁peagi	-10.715
▁pakkuma	-10.7152
▁eelnõud	-10.7152
▁kaetud	-10.7158
▁moodustab	-10.716
▁eelneva	-10.7167
▁maksupoliitika	-10.7168
▁pikem	-10.7168
taseme	-10.7169
▁saja	-10.7169
▁poolda	-10.7172
▁seista	-10.7174
▁valdkondade	-10.7175
▁suurima	-10.7178
▁korralik	-10.7181
akti	-10.7185
▁alustame	-10.7187
▁tervist	-10.7189
▁tühja	-10.7189
tavaid	-10.719
▁koolitus	-10.7199
▁kasva	-10.72
▁rände	-10.72
▁käitumine	-10.7201
▁kohad	-10.7202
kra	-10.7205
▁hõlma	-10.7208
▁õnneks	-10.7209
▁haridussüsteemi	-10.7212
▁number	-10.7213
▁maksuameti	-10.7215
ruum	-10.7217
▁büroo	-10.7222
▁liiguvad	-10.7223
▁Kahtlemata	-10.7225
▁uuring	-10.7227
▁suru	-10.7227
▁fraktsioonidel	-10.7227
▁reguleerib	-10.7228
▁m	-10.7243
imu	-10.7245
▁Kõva	-10.725
▁Presidendi	-10.725
märgi	-10.725
▁igapäevase	-10.7251
▁omavalitsusel	-10.7254
kulusid	-10.7254
võrku	-10.7255
▁jätkab	-10.7257
kümne	-10.7258
▁käituda	-10.7258
▁esitan	-10.726
mini	-10.7264
▁ausa	-10.727
▁puuduvad	-10.7277
▁täienda	-10.7278
vajadus	-10.7278
▁150	-10.7278
▁arutlusel	-10.7282
▁kulub	-10.7282
▁vähemasti	-10.7282
▁kvaliteeti	-10.7287
▁püüda	-10.7288
▁järsku	-10.7289
Nagu	-10.7292
▁takista	-10.7293
▁tegutseb	-10.7293
▁üksuse	-10.7294
▁elava	-10.7296
kapitali	-10.7299
▁punktide	-10.73
järelevalve	-10.7308
▁loomade	-10.7308
▁päästjate	-10.7312
▁vigu	-10.7317
▁kehtinud	-10.732
▁initsiatiivi	-10.7322
▁asunud	-10.7325
▁innovatsiooni	-10.733
▁liikumise	-10.7334
htu	-10.7338
▁Sealt	-10.734
▁leppe	-10.7347
▁üleüldse	-10.7348
▁riive	-10.7348
▁tuginedes	-10.7352
▁loome	-10.7354
▁rakendamine	-10.7355
▁hinnaga	-10.7356
▁linnade	-10.7356
▁juhtumite	-10.7357
▁avaldus	-10.7357
Kalle	-10.7358
▁66	-10.7367
▁käitumise	-10.7373
▁Ometi	-10.7373
▁kriitikat	-10.7374
▁rakenda	-10.7375
▁mehe	-10.7376
▁lepingute	-10.7376
▁lo	-10.7376
▁Leedus	-10.7377
▁tingimata	-10.7381
▁selliseks	-10.7382
▁ootus	-10.7384
▁kanali	-10.7385
▁kõlab	-10.7385
äri	-10.7386
▁piirangute	-10.7386
▁menetlemine	-10.7387
▁kohalikul	-10.7389
materjali	-10.7389
▁Küsi	-10.739
▁kinnitab	-10.7391
▁nendesse	-10.7392
▁Kotka	-10.7395
▁sõjaväe	-10.7395
tusega	-10.7397
iv	-10.7397
ran	-10.7401
▁sätte	-10.7404
▁päevakord	-10.7408
▁koormus	-10.7408
▁vaadatud	-10.7414
▁seletuskiri	-10.7414
▁Uue	-10.7414
▁Praeguse	-10.7417
▁pädevuses	-10.742
▁kriis	-10.7421
▁kasvatada	-10.7424
▁enamus	-10.7428
▁õigusaktide	-10.7431
▁õigusliku	-10.7435
▁autode	-10.7439
▁keskmist	-10.7447
▁märgitud	-10.7455
▁saavutatud	-10.7457
Vabariigi	-10.7459
▁mehi	-10.7459
▁sõnastus	-10.7463
▁meeles	-10.7465
▁Saaremaa	-10.7468
▁tunneta	-10.7468
▁arvad	-10.7469
▁prokuratuur	-10.747
▁missioonil	-10.7471
ch	-10.7471
▁õhtul	-10.7471
▁Laine	-10.7473
▁majanduslikult	-10.7478
▁töötajaid	-10.7479
▁teemade	-10.7479
▁täielik	-10.748
▁kohtlemise	-10.7482
▁tundus	-10.7483
▁asjakohane	-10.7483
turg	-10.7485
moodi	-10.7486
▁lii	-10.7488
▁teinekord	-10.7491
▁institutsioonid	-10.7494
▁võimalike	-10.7496
▁heas	-10.7497
▁hääli	-10.75
majanduskomisjon	-10.75
▁isikuid	-10.7503
▁kogukond	-10.7503
▁pensionide	-10.7504
▁taotlus	-10.7504
▁Tallinnast	-10.7509
▁Jaan	-10.7509
▁ametnik	-10.7511
▁nalja	-10.7514
▁objekti	-10.7519
▁Al	-10.7521
▁Kaks	-10.7523
umi	-10.7524
▁vägagi	-10.7525
Kõigepealt	-10.7526
▁vaat	-10.7528
▁ootama	-10.753
▁missioon	-10.753
▁lubas	-10.7534
▁õigem	-10.754
jon	-10.7541
käi	-10.7544
▁Mikko	-10.7548
▁Türgi	-10.7548
▁ilusasti	-10.7549
▁millegi	-10.7552
▁töötamise	-10.7553
▁uuringud	-10.7554
▁kasutan	-10.7555
▁summat	-10.7557
nõu	-10.7559
▁arupärimiste	-10.7561
▁Sibul	-10.7562
huvi	-10.7567
▁väite	-10.7567
▁vähenda	-10.7567
▁võeta	-10.7573
▁koosoleku	-10.7575
▁möön	-10.7578
▁lapsega	-10.7581
pidamine	-10.7581
▁arstiabi	-10.7582
▁hullu	-10.7589
▁algatab	-10.759
▁vaidlusi	-10.7591
▁pooleli	-10.7593
▁kasvatamise	-10.7595
▁tänapäeval	-10.7597
▁vähenemise	-10.7601
▁riskid	-10.7601
▁elavate	-10.7602
▁eesmärgiks	-10.7608
▁Ühelt	-10.7609
▁7,	-10.761
firma	-10.7614
▁koordineeri	-10.7615
▁tahaksid	-10.7618
▁mudel	-10.762
▁numbrid	-10.7621
▁Meri	-10.7622
lõ	-10.7624
▁lootus	-10.7626
▁sisust	-10.7629
▁tarbi	-10.7631
▁lõpetamise	-10.7634
▁omavalitsustega	-10.7638
rg	-10.7639
▁tuleneva	-10.764
▁Valga	-10.7645
▁algata	-10.7653
▁kolmel	-10.7654
▁paistab	-10.7656
▁telli	-10.7659
kindlus	-10.7661
Eestis	-10.7662
▁märka	-10.7662
▁asuda	-10.7667
poolt	-10.7668
▁laia	-10.7668
▁väär	-10.767
▁IM	-10.767
aa	-10.7671
▁sätesta	-10.7672
▁tähendaks	-10.7673
▁osapoolte	-10.7675
meeste	-10.768
▁mehhanism	-10.768
▁Kersna	-10.7683
▁Loodan	-10.7683
▁lähiaastatel	-10.7688
▁osutada	-10.7692
▁piirikaubanduse	-10.7693
▁vaidle	-10.7694
▁sellisest	-10.7702
▁Arno	-10.7704
▁liikmesriigid	-10.7712
rea	-10.7716
▁kummaline	-10.7719
▁osutamise	-10.7721
▁strateegilise	-10.7721
edPoolt	-10.7723
▁25%	-10.7726
▁moodustada	-10.7726
▁valinud	-10.7726
▁riiklikult	-10.7728
▁lähtuma	-10.7733
▁sõbrad	-10.7735
▁haldusreform	-10.7736
▁tunde	-10.7737
▁ressurssi	-10.7738
mehed	-10.7738
▁põhimõtete	-10.7741
vee	-10.7742
▁pangad	-10.7744
kultuurikomisjon	-10.7748
▁Assamblee	-10.7751
ruusia	-10.7751
▁koli	-10.7755
▁tookord	-10.7755
▁astunud	-10.7761
▁Allik	-10.7762
▁võitlus	-10.7765
▁tonni	-10.7766
▁hinnanguid	-10.777
▁signaal	-10.7774
▁välisministri	-10.7776
▁kahtlust	-10.7778
majandus	-10.778
uga	-10.7783
▁Eelkõige	-10.7786
▁Sisuliselt	-10.7786
▁väikse	-10.7786
▁ühtemoodi	-10.7788
▁varianti	-10.7789
▁Võru	-10.7791
▁muus	-10.7794
▁kõrva	-10.7794
▁Rannar	-10.7795
oomi	-10.7795
▁ost	-10.7799
▁ajakirjandus	-10.7801
hoone	-10.7804
raal	-10.7806
▁hirm	-10.7812
▁kaaluka	-10.782
▁aidanud	-10.782
▁asespiiker	-10.782
▁alaealiste	-10.7821
▁tagamiseks	-10.7822
▁opositsioonis	-10.7824
▁numbrit	-10.7827
▁tulemust	-10.783
▁suurust	-10.7833
▁praktiliselt	-10.7834
▁Jaanson	-10.7835
▁tingimuste	-10.7839
▁tõhus	-10.784
▁mainis	-10.7842
▁Sellisel	-10.7845
▁vanemahüvitise	-10.7852
▁Tundub	-10.7855
▁ütelda	-10.7855
▁Nutt	-10.7855
▁Herkeli	-10.7856
▁aruta	-10.7856
▁suurepärane	-10.7856
▁koosneb	-10.7859
▁tingimustel	-10.786
▁rahaline	-10.7866
▁teadmine	-10.787
▁tegelenud	-10.7871
▁seadustes	-10.7871
▁vahetu	-10.7877
▁võimekuse	-10.7877
rus	-10.7878
▁lõhe	-10.7887
▁mujalt	-10.7888
aine	-10.7888
töötamiskavatsus	-10.789
▁Hiina	-10.789
▁suuremaks	-10.789
▁kohustatud	-10.7894
▁intressi	-10.7894
▁ühistu	-10.7897
▁tekitatud	-10.7898
▁järjekorras	-10.7901
▁väikest	-10.7902
▁käitu	-10.7902
!""	-10.7905
▁katkesta	-10.7905
▁kehti	-10.7907
▁juhitud	-10.7907
▁kõrgharidus	-10.7911
▁sätted	-10.7913
▁alustan	-10.7914
ajal	-10.7914
▁väljaõppe	-10.7916
▁nurga	-10.7917
▁muutuks	-10.7919
juhi	-10.7919
puhku	-10.7923
▁näited	-10.7924
▁Hispaania	-10.7924
tage	-10.7926
otsus	-10.7926
▁seisukohale	-10.7929
▁teadlikult	-10.793
▁õpetajaid	-10.7932
▁seo	-10.7934
▁Kalvi	-10.7934
▁eurost	-10.7934
▁prognoos	-10.7934
▁2007.	-10.7936
▁asuvad	-10.7936
▁jäätme	-10.7939
▁praeguseks	-10.794
▁suuremate	-10.794
▁Millest	-10.7949
▁motivatsiooni	-10.7951
▁üksteise	-10.7952
igus	-10.7958
▁pähe	-10.7959
▁tähista	-10.7959
▁algul	-10.796
▁73	-10.7965
▁investeeri	-10.7967
põhiselt	-10.7969
▁kahest	-10.7974
▁asume	-10.7974
juhtide	-10.7974
▁lõplik	-10.7975
▁sadu	-10.7976
▁muretse	-10.7978
▁ametniku	-10.7979
▁praktilise	-10.798
▁kasutus	-10.7985
▁ülevaadet	-10.7987
▁võrdsed	-10.7987
▁dividendi	-10.7987
▁lepingut	-10.7994
▁pered	-10.7994
▁Kantselei	-10.7995
▁üksikisiku	-10.7995
▁leiti	-10.7995
tra	-10.7995
▁mets	-10.7997
▁sissetuleku	-10.7997
▁teistsuguse	-10.7998
▁koguda	-10.8
▁koolituse	-10.8006
▁soolise	-10.8007
▁omalt	-10.801
▁riigilt	-10.8011
▁rahvusvahelisel	-10.8013
poliitikas	-10.8014
teenus	-10.8015
▁põhimõtteid	-10.8018
korra	-10.8021
hind	-10.8021
▁töörühma	-10.8022
▁vastuvõtmiseks	-10.8022
▁Palju	-10.8025
▁tegelnud	-10.803
▁nimekiri	-10.803
▁üleskutse	-10.803
▁To	-10.8036
▁esimesed	-10.8037
▁küsitakse	-10.8038
una	-10.8039
▁otsustatud	-10.8044
▁reserv	-10.8044
▁küsime	-10.8044
kandidaat	-10.8047
▁kiirusta	-10.8049
tavalt	-10.8051
▁kasvata	-10.8051
▁põhimõttest	-10.8055
▁tunnista	-10.8055
▁juhib	-10.8059
tub	-10.806
▁ministril	-10.8061
▁tänast	-10.8062
viis	-10.8065
▁parlamenti	-10.8065
▁tööhõive	-10.8065
▁Võ	-10.8065
▁tegeldakse	-10.8065
▁kättesaadavad	-10.8067
▁analüüsinud	-10.8069
▁74	-10.8071
▁sõnade	-10.8072
▁aitama	-10.8076
nti	-10.8077
▁Venemaaga	-10.8078
▁pinge	-10.8083
▁so	-10.8084
▁välistada	-10.8086
▁parandamiseks	-10.8089
▁Kuu	-10.8091
▁kasvama	-10.8092
▁Marrandi	-10.8101
▁sarnane	-10.8101
▁nägema	-10.8101
▁mõistetav	-10.8101
▁kohtunud	-10.8102
▁bürokraatiat	-10.8103
▁tulevik	-10.8104
▁kehtetuks	-10.8105
▁moodustavad	-10.8107
▁mudeli	-10.812
▁arendamise	-10.8127
▁juuli	-10.8136
▁esialgse	-10.8136
▁negatiivne	-10.8136
▁kaitsma	-10.8136
▁teadaolevalt	-10.8136
▁Konkurentsiamet	-10.8136
▁solva	-10.8136
▁nagunii	-10.8137
▁rõhutanud	-10.8137
▁ühed	-10.8139
▁vaade	-10.8142
▁edukalt	-10.8148
▁Keele	-10.815
▁hooli	-10.8153
rühma	-10.8154
▁Sadama	-10.8158
▁põllumehed	-10.816
Rosimannus	-10.8161
▁kaitseväelaste	-10.8166
▁mõistet	-10.8167
▁Järgmise	-10.8169
▁tõstetakse	-10.8172
▁tõkestamise	-10.8173
▁analüüse	-10.8179
▁vähenemine	-10.8181
▁algas	-10.8181
▁rahvasaadikud	-10.8182
▁jms	-10.8187
▁kaup	-10.8187
▁sü	-10.8188
rit	-10.8191
▁lähtu	-10.8193
▁ime	-10.8194
▁häält	-10.8195
▁arene	-10.8199
▁kokkulepet	-10.8199
▁saal	-10.8199
▁Taani	-10.8207
tööstuse	-10.8208
▁Eelarve	-10.8208
▁andes	-10.8215
▁palu	-10.8215
Komisjon	-10.8218
▁30%	-10.8218
▁Tegu	-10.822
▁vahetult	-10.8228
▁sotsiaaltöötaja	-10.8228
Mina	-10.8229
▁ostma	-10.8229
▁juhtimisel	-10.8229
▁korrigeeri	-10.8234
▁piirikaubandus	-10.8234
▁ühtne	-10.8236
reform	-10.8237
▁lõppes	-10.8237
aega	-10.8242
▁kollektiiv	-10.8243
▁60%	-10.8248
▁sekku	-10.8256
"	-10.8257
▁59	-10.8259
▁teenistus	-10.8266
▁kvoodi	-10.8267
▁Mo	-10.827
▁tegite	-10.8271
▁sobiva	-10.8272
▁panustama	-10.8274
▁valdkondi	-10.8275
missioonil	-10.8276
otsi	-10.8276
▁kä	-10.8279
▁Metsoja	-10.828
▁Kagu	-10.828
▁ühtlasi	-10.8281
▁aspekt	-10.8282
▁kavanda	-10.8283
▁retoorika	-10.8285
üle	-10.8286
▁argumente	-10.8286
▁taba	-10.8288
▁Repsi	-10.8288
ig	-10.829
▁saavutanud	-10.8291
▁seaduseks	-10.8293
▁asutused	-10.8294
▁madalam	-10.8294
▁tõenda	-10.8294
▁kohalikku	-10.8294
▁3%	-10.8297
▁pakkus	-10.8298
Väga	-10.83
▁komisjonid	-10.83
ast	-10.8301
▁Mõlema	-10.8316
▁mobiil	-10.8316
▁olukordi	-10.8316
▁saadetud	-10.8316
▁Hei	-10.8316
rgu	-10.8319
▁40%	-10.8323
▁pidas	-10.8329
▁Uus	-10.8333
▁süsteemis	-10.8334
kuus	-10.8336
▁kombel	-10.8337
▁mõttetu	-10.8339
▁hindama	-10.8339
▁uues	-10.8342
rme	-10.8342
▁aktsiisitõusu	-10.8347
iministeerium	-10.8348
▁tehnika	-10.8348
▁asjas	-10.835
▁olevad	-10.8351
▁tulusid	-10.8351
▁üheskoos	-10.8352
▁küt	-10.8354
▁väitis	-10.8354
▁põllu	-10.8354
▁soe	-10.8357
▁grupi	-10.8359
▁raam	-10.836
▁hari	-10.8364
▁osuta	-10.8368
▁üritus	-10.837
▁tegelikkuses	-10.837
Alustame	-10.8373
▁uhke	-10.8376
▁In	-10.8377
▁öelge	-10.8389
▁teadma	-10.8389
▁haridust	-10.839
inspektsiooni	-10.8393
ek	-10.8394
▁seletuskirjast	-10.8394
▁öö	-10.8396
▁maksimaalselt	-10.8396
▁pikenda	-10.8396
▁Vladimir	-10.8398
▁tavalise	-10.8401
▁mäletate	-10.8404
▁konkurents	-10.8405
tsa	-10.841
▁töökohta	-10.841
▁planeerimis	-10.8418
go	-10.8421
Virumaale	-10.8422
▁toimuva	-10.8425
▁kestnud	-10.8428
▁Asume	-10.8429
▁tolli	-10.843
maad	-10.843
▁mõtlesin	-10.843
▁valmistatud	-10.8436
▁sooja	-10.8446
▁ajas	-10.8448
▁käitumist	-10.8449
▁niigi	-10.845
vormi	-10.8452
▁tegeliku	-10.8456
▁Kersti	-10.8459
▁kollektiivse	-10.8461
▁kõigis	-10.8463
▁saatnud	-10.8464
▁väitnud	-10.8465
asutused	-10.8465
▁Rait	-10.8466
▁sisaldab	-10.847
▁tunnustada	-10.8474
▁aktsiis	-10.8476
mä	-10.8477
▁teenib	-10.8478
▁elame	-10.8478
kohtade	-10.8479
▁vorm	-10.848
▁Po	-10.8481
▁poolel	-10.8482
▁põllumeestele	-10.8484
Kuna	-10.8485
atu	-10.8486
▁osaleb	-10.8487
isi	-10.8487
▁veo	-10.8498
▁mõnele	-10.8501
▁fikseeritud	-10.8503
▁Ütleme	-10.8503
▁allapoole	-10.8503
▁määrab	-10.8505
▁materjali	-10.8505
kan	-10.8507
▁tagajärjel	-10.8507
▁niipalju	-10.8509
▁lõpu	-10.8514
▁olemasolevate	-10.8514
▁tähendus	-10.8515
▁asjaomase	-10.8517
▁suurim	-10.8517
▁esi	-10.8522
kese	-10.8524
▁ainete	-10.8529
▁peretoetuste	-10.8531
▁paljuski	-10.8533
▁hüvitist	-10.8534
▁paikne	-10.8536
▁õlle	-10.8537
mitri	-10.8539
luba	-10.8543
▁digitaalse	-10.8545
▁õnnestub	-10.8547
▁toimuda	-10.8549
▁jõuaks	-10.8549
▁kulutuste	-10.855
▁sõnavõtus	-10.8553
▁seire	-10.8553
▁maksumaksjate	-10.8562
▁elanikud	-10.8562
▁sõlmi	-10.8564
▁tuvasta	-10.8566
idel	-10.8568
▁tõsist	-10.8571
▁täitsa	-10.8574
ov	-10.8581
▁kardan	-10.8581
▁Ukrainas	-10.8582
▁naisi	-10.8584
▁tulemuste	-10.8585
▁82	-10.8588
teenuseid	-10.8588
▁kolmandiku	-10.8588
▁tulevase	-10.8588
▁kategooria	-10.8592
▁kiri	-10.8593
▁korrakaitse	-10.8593
▁pooled	-10.8594
▁määratakse	-10.8595
korraldus	-10.86
▁osanud	-10.8601
▁piirdu	-10.8604
▁viimast	-10.8609
▁võrdne	-10.8611
▁arvamused	-10.8616
▁täitmist	-10.8617
▁laekumise	-10.8618
▁sekkuda	-10.862
▁avaldas	-10.8622
▁liial	-10.863
2%	-10.863
▁arutusel	-10.8631
▁õiguskomisjonis	-10.8631
▁allkirjasta	-10.8634
Esimene	-10.8634
▁arutluse	-10.864
▁kommenteerite	-10.864
Rahanduskomisjon	-10.8644
▁suudetud	-10.8648
arv	-10.8648
▁alanda	-10.8649
▁nägu	-10.865
▁komponent	-10.865
▁juhtumit	-10.8652
▁nimetasin	-10.8654
rje	-10.8656
▁maksnud	-10.8659
▁tuhandeid	-10.8662
▁põhiseadust	-10.8665
▁8,	-10.8666
▁muudatusega	-10.8667
▁lubadusi	-10.8668
▁tegutsema	-10.8669
▁konflikt	-10.867
▁austa	-10.8679
kvalifikatsiooni	-10.868
▁Jä	-10.8684
▁tsiteeri	-10.8684
▁negatiivse	-10.8684
▁õigusriigi	-10.8685
▁vaate	-10.8687
▁Saksamaal	-10.8688
▁isikutele	-10.8688
▁tähtaega	-10.8689
▁piirid	-10.8691
▁tõusevad	-10.8692
▁mujale	-10.8692
▁lasteaiaõpetaja	-10.8704
▁laul	-10.8705
vaks	-10.8709
tasime	-10.871
▁määranud	-10.8712
plaani	-10.8713
▁arvame	-10.8714
▁tr	-10.8717
koolide	-10.8719
▁asekantsler	-10.8723
▁Loodame	-10.8723
▁puidu	-10.8724
eb	-10.8727
uda	-10.8728
▁leevendada	-10.873
▁Sesteri	-10.873
▁rohelise	-10.8731
▁kompenseerida	-10.8732
▁vääri	-10.8734
▁nüüdseks	-10.8742
▁Randjärv	-10.8743
vale	-10.8743
▁tasuks	-10.8745
Olen	-10.8752
▁käega	-10.8754
▁tolle	-10.8754
▁niisuguseid	-10.8758
▁regiooni	-10.8758
▁maaeluminister	-10.8764
jää	-10.8766
▁tõstatatud	-10.8768
▁seepärast	-10.8769
per	-10.877
▁investeering	-10.8772
▁mitut	-10.8772
lõivuseaduse	-10.8773
▁keskkonda	-10.8777
▁paremaid	-10.8777
▁Marianne	-10.8778
▁sihtasutuse	-10.8779
▁läksid	-10.878
▁seost	-10.8781
sektor	-10.8782
▁Kallas	-10.8783
auto	-10.8784
▁asemele	-10.8785
▁lase	-10.8788
suuna	-10.8789
▁siduda	-10.8799
▁tehke	-10.88
▁reaalsus	-10.8801
▁ehkki	-10.8802
▁kuuenda	-10.8803
▁esita	-10.8804
▁kinnistu	-10.8806
▁taustal	-10.8818
iste	-10.8819
vast	-10.8822
▁hoidma	-10.8823
▁pehme	-10.8823
Raivo	-10.8825
▁Pu	-10.8826
▁Madis	-10.8827
▁Liidust	-10.8836
▁konkurss	-10.8836
ring	-10.8837
▁häälteenamust	-10.8838
▁võtsime	-10.8839
▁selgust	-10.884
▁konsensuslikud	-10.8842
▁piires	-10.8843
▁sellisele	-10.8843
▁pikendamine	-10.8845
▁millestki	-10.8846
▁infotehnoloogia	-10.8848
kindlustus	-10.886
▁igasuguste	-10.886
▁suhtumise	-10.886
▁mõjude	-10.8862
strateegias	-10.8862
▁otsast	-10.8867
rd	-10.8872
lises	-10.8872
osakonna	-10.8874
▁sõnadega	-10.8874
kordne	-10.8875
▁käsitleva	-10.8878
▁suhtumist	-10.888
ilm	-10.888
▁partner	-10.888
▁tootjate	-10.888
▁võtke	-10.8881
▁riigiga	-10.8882
▁palgast	-10.8886
▁hõlmab	-10.8887
▁armasta	-10.8888
▁peatu	-10.8888
▁arutasite	-10.8889
▁külge	-10.8896
Järve	-10.8897
välja	-10.8902
▁tugine	-10.8903
kool	-10.8905
▁igaks	-10.8905
▁menetlust	-10.891
▁projektide	-10.8911
▁suulise	-10.8913
▁oleksite	-10.8915
▁Algataja	-10.8917
▁menetlemist	-10.8922
▁vastav	-10.8923
▁kuule	-10.8924
▁tuletada	-10.8925
▁liigu	-10.8926
uri	-10.8928
kodu	-10.8932
ministrina	-10.8935
▁levi	-10.8936
▁varasemate	-10.8939
▁karda	-10.8941
▁maksumus	-10.8941
Toomas	-10.8941
õigusliku	-10.8943
▁Loo	-10.8945
▁moodusta	-10.8947
▁häiri	-10.8949
▁kiir	-10.8951
kommunikatsiooni	-10.8951
tur	-10.8955
▁olge	-10.8957
▁piisava	-10.8959
▁tulevaste	-10.8964
▁pikemat	-10.8967
▁lange	-10.8968
▁moodustamise	-10.897
usest	-10.897
▁protsessis	-10.8983
või	-10.8986
▁101	-10.8986
iminister	-10.8989
perioodi	-10.899
▁600	-10.899
▁ebavõrdse	-10.8992
▁Sinna	-10.8992
▁aspektist	-10.8992
▁kandma	-10.8993
▁tegin	-10.8993
▁teoreetiliselt	-10.9
▁seletus	-10.9
▁Seletuskirjas	-10.9001
▁ülesannetes	-10.9001
▁kirjutas	-10.9004
▁passi	-10.9015
J	-10.9016
U	-10.9019
▁sõnul	-10.902
▁tublid	-10.9021
▁tendents	-10.9024
▁tunnen	-10.9026
▁rahastada	-10.9028
ama	-10.9029
▁situatsiooni	-10.9029
▁kontrollima	-10.9029
▁põhiseadusliku	-10.903
▁alkohol	-10.903
jõud	-10.903
▁lahingu	-10.9031
▁reservide	-10.9031
▁kirju	-10.9035
▁seadnud	-10.9035
▁levinud	-10.9036
märkimisväärselt	-10.9037
▁looduse	-10.9038
▁lõpetati	-10.9038
▁vähenevad	-10.9039
▁Põhjamaade	-10.904
▁keerulisem	-10.9045
▁muudatustega	-10.9045
▁terava	-10.9047
nõuete	-10.9051
justiitsministri	-10.9052
hei	-10.9052
▁mandaat	-10.9057
▁pakendi	-10.9061
▁kohast	-10.9065
▁konkreetses	-10.9071
▁kõlama	-10.9075
▁posti	-10.9075
▁kokkuvõttes	-10.9077
▁Li	-10.9078
▁mõistes	-10.9078
▁piisab	-10.9083
▁ettepanekutega	-10.9085
▁Ar	-10.9088
▁Järgmisena	-10.9089
▁patsientide	-10.9089
▁valu	-10.909
▁rühma	-10.9091
▁ehita	-10.9092
▁paber	-10.9092
lepingus	-10.9095
pan	-10.9099
▁taastamise	-10.91
ot	-10.9105
▁väljastpoolt	-10.9109
▁eurotsooni	-10.911
▁harjunud	-10.9112
hti	-10.9114
Üks	-10.9118
▁kaldu	-10.9118
▁kodanikuühiskon	-10.9118
▁sisulisi	-10.9119
▁piirilepingu	-10.9121
▁toit	-10.9128
▁ühenduse	-10.9131
▁Pro	-10.9135
▁eelarvega	-10.9135
teenused	-10.914
▁muusika	-10.9149
▁Ainult	-10.9153
▁andke	-10.9153
7%	-10.9154
▁korraliku	-10.9154
▁Soovin	-10.9154
▁vastasite	-10.9157
▁ehitamise	-10.9159
▁kuuluda	-10.9164
▁kuulanud	-10.9167
▁Vaat	-10.9168
ati	-10.9169
▁matemaatika	-10.9171
▁arvestus	-10.9171
▁sõltuvus	-10.9173
▁töövõimereformi	-10.9174
Kindlasti	-10.9178
▁minule	-10.918
vastane	-10.9182
▁arvestuse	-10.9183
▁usku	-10.9184
▁kandidaatide	-10.9186
▁menetle	-10.9187
▁vajadusest	-10.9188
▁liikunud	-10.9188
▁välismaalaste	-10.9188
▁Vähemalt	-10.9188
▁ühekordse	-10.9193
▁kujundada	-10.9201
▁teadnud	-10.9201
▁isikule	-10.9204
▁lahenduste	-10.9204
▁eestlased	-10.9204
▁otseses	-10.9211
▁proportsionaals	-10.9215
Märt	-10.9218
märk	-10.9221
vedu	-10.9221
küsimuse	-10.9222
▁lõikes	-10.9223
▁tugevda	-10.9223
▁majanduses	-10.9224
▁kasvas	-10.9225
▁kriitiline	-10.9227
▁Ühesõnaga	-10.9227
▁lääne	-10.9227
▁vahendusel	-10.9227
▁õhku	-10.9231
ili	-10.9232
▁esitasime	-10.9232
ndust	-10.9235
▁õpilased	-10.9235
▁palume	-10.9236
nema	-10.9239
▁tarbimist	-10.9239
▁tavaline	-10.9241
▁osales	-10.9242
▁niisugused	-10.9242
▁reageerida	-10.9242
tingimused	-10.9246
▁top	-10.9247
▁suunda	-10.925
▁keskuse	-10.9251
▁kivi	-10.9251
▁hoiak	-10.9255
▁tehnilise	-10.9256
▁õnne	-10.9256
ikud	-10.9258
▁kajastu	-10.9261
▁halba	-10.9263
▁poliitilisi	-10.9263
▁piiril	-10.9263
▁välju	-10.9264
▁läbiviimise	-10.9267
▁väitsite	-10.9268
▁tullakse	-10.9268
▁viite	-10.9269
▁näidet	-10.9274
pidaja	-10.9275
3%	-10.9276
▁aluse	-10.9277
aluse	-10.9277
rikka	-10.9277
▁15%	-10.9284
▁Venemaal	-10.9285
▁normi	-10.9286
▁südame	-10.9286
▁mõistan	-10.9288
▁ilmne	-10.9293
▁positiivselt	-10.9294
▁jaotus	-10.9295
stiku	-10.9297
Priit	-10.9298
▁põhiseaduslikku	-10.9299
ravi	-10.9307
▁Haigekassa	-10.9307
▁VEB	-10.9307
▁elamisloa	-10.9307
▁Sooäär	-10.9308
▁nä	-10.9309
▁korrale	-10.9312
▁kuulates	-10.9312
▁vahenditest	-10.9319
▁kirjaliku	-10.9321
▁samad	-10.9328
▁kallimaks	-10.933
▁lisatud	-10.933
▁peredele	-10.9336
rahu	-10.9336
▁Teate	-10.934
▁teatas	-10.934
▁segadust	-10.9343
vatele	-10.9343
▁prügi	-10.9347
▁seadusloome	-10.9347
▁tekkima	-10.9348
▁andeks	-10.9348
▁mehhanismi	-10.9351
▁kindlusta	-10.9352
▁miski	-10.9352
▁osalus	-10.9353
▁vahetada	-10.9356
▁konsensus	-10.9359
▁nägime	-10.9359
▁kogemuse	-10.9362
▁Airi	-10.9362
▁algus	-10.9363
valdkond	-10.9365
▁olevaid	-10.9366
▁algatuse	-10.9367
▁riigihangete	-10.9368
▁pensionid	-10.937
nemine	-10.9371
▁deklareeri	-10.9377
▁uuele	-10.9378
▁veni	-10.9378
▁apteek	-10.9379
▁tõmba	-10.9383
▁vabatahtlike	-10.9384
▁kodanikele	-10.9385
▁fraktsioonis	-10.9386
▁tingimus	-10.9386
▁oodatud	-10.9388
soodustus	-10.9388
▁lehe	-10.9391
▁ühendus	-10.9392
▁langenud	-10.9394
▁Loone	-10.9395
▁tühista	-10.9396
▁toimima	-10.94
▁alustas	-10.9402
▁valitsussektori	-10.9404
▁kogemused	-10.9404
tootjate	-10.9404
▁eesmärgiga	-10.9408
▁hinnatõusu	-10.9409
▁taset	-10.9414
pääs	-10.9415
aid	-10.9416
kk	-10.9416
▁punktid	-10.9417
Aafrika	-10.942
▁üldosa	-10.9421
▁maailm	-10.9428
▁loodi	-10.9428
▁konservatiivse	-10.9429
▁olemuselt	-10.9429
▁algatanud	-10.9435
▁vä	-10.9435
▁sõlmimise	-10.9436
▁üksmeel	-10.9437
▁käivita	-10.9439
missiooni	-10.9441
▁mõjub	-10.9444
▁käituma	-10.9444
▁õpetada	-10.9445
ilt	-10.9446
▁õiged	-10.9447
▁Laste	-10.9449
arsti	-10.945
▁võimaldada	-10.945
▁Aasia	-10.945
▁vastaja	-10.9451
▁mitmete	-10.9453
grupi	-10.9454
▁väärtusta	-10.9458
▁voli	-10.946
▁kirjutama	-10.9461
▁69	-10.9462
▁Saa	-10.9463
▁edukas	-10.9464
▁kaasnevad	-10.9465
▁märkis	-10.9465
▁Keskus	-10.9469
▁Usun	-10.9469
▁laastus	-10.9469
▁oskab	-10.9469
▁100%	-10.9472
▁erilist	-10.9473
▁riigiasutuste	-10.9475
▁dokumente	-10.9475
▁Kohal	-10.9477
▁otsustasime	-10.9479
amatu	-10.9481
▁teadmisi	-10.9481
väärtus	-10.9482
ärme	-10.9484
▁piiride	-10.9488
▁sõnavõtu	-10.9488
▁täpsustus	-10.9493
▁kritiseeri	-10.9495
▁dokumendid	-10.95
▁ametlik	-10.9502
▁lahendi	-10.9507
▁fookus	-10.9508
▁Kutsu	-10.951
▁hädavajalik	-10.951
▁diislikütuse	-10.951
▁tunneb	-10.951
▁lõi	-10.9516
▁tänases	-10.9517
tunde	-10.952
ismi	-10.9521
▁täpset	-10.9525
▁kõneleja	-10.9528
▁ükskord	-10.9529
▁arst	-10.953
▁vastuseks	-10.9534
▁pagulas	-10.9536
▁annate	-10.9538
iili	-10.9538
▁saatis	-10.9538
▁peaksin	-10.9539
süsteemis	-10.9542
Viktor	-10.9544
▁sisuga	-10.9544
▁määrusega	-10.9545
nneks	-10.9547
▁kilomeetri	-10.9547
▁samaks	-10.9547
poliitiline	-10.9548
▁korrata	-10.9549
co	-10.9549
▁langetas	-10.955
▁riigieelarvele	-10.955
valdkonda	-10.955
▁oktoober	-10.9551
▁pikaajaline	-10.9551
▁protesti	-10.9551
▁Rõivasele	-10.9553
uh	-10.9559
▁professor	-10.956
▁isiklikku	-10.956
rdi	-10.9562
▁Eelnõus	-10.9562
▁1,5	-10.9563
▁ametikoha	-10.9565
ür	-10.9566
▁miljon	-10.9568
▁tehniline	-10.9569
▁musta	-10.9572
▁imelik	-10.9574
▁kompenseeri	-10.9575
▁otsest	-10.9575
▁tööpuudus	-10.9576
▁poliitiku	-10.9579
Jürgen	-10.9585
▁karistuse	-10.9593
▁Peaminister	-10.9594
▁topeltkodakonds	-10.9594
▁karista	-10.9594
▁paketi	-10.9596
▁õli	-10.9598
▁ettevaatlik	-10.9599
▁näed	-10.9599
▁esineda	-10.9605
▁panevad	-10.9607
hooldus	-10.9609
▁laekus	-10.961
▁esimeseks	-10.961
▁14-	-10.9612
▁periood	-10.9613
▁soodusta	-10.9613
▁viide	-10.9614
▁sobib	-10.9615
▁Küsimuse	-10.9616
▁toovad	-10.9617
▁hä	-10.9617
▁möödas	-10.9619
▁Riigieelarve	-10.962
▁kaasne	-10.9623
▁universaalse	-10.9623
võrd	-10.9625
▁tööandjad	-10.9625
▁eurole	-10.9627
▁riikidele	-10.9636
seadme	-10.9636
▁nimetas	-10.9636
▁Hiiumaa	-10.9636
▁80%	-10.9637
▁enamikus	-10.9638
▁keskus	-10.9639
▁Muide	-10.964
kene	-10.9641
▁tervis	-10.9642
▁ida	-10.9642
▁pakuvad	-10.9642
▁kaasneb	-10.9643
▁kaotanud	-10.9643
▁omanike	-10.9648
projekti	-10.9651
▁sätteid	-10.9657
▁meetodi	-10.9658
▁printsiip	-10.9663
▁väljatöötamise	-10.9664
üli	-10.9665
▁seejuures	-10.967
▁Teema	-10.9672
▁juriidiline	-10.9675
mitrijev	-10.9675
▁Täht	-10.9675
▁lähenemise	-10.9676
ettevõtte	-10.9678
▁menetleme	-10.9683
▁täies	-10.9683
▁eilse	-10.9683
▁täpsustatakse	-10.9683
▁käibe	-10.9686
▁säilita	-10.9686
▁otstarbe	-10.9687
▁nägin	-10.9687
▁anta	-10.969
▁jagamise	-10.969
▁jagatakse	-10.9692
▁Ratase	-10.9696
▁spetsialiste	-10.9697
liseks	-10.9699
▁eksisteeri	-10.9703
▁äriühingute	-10.9708
koor	-10.9709
pidamise	-10.9712
▁õppinud	-10.9716
▁Viimaste	-10.9716
▁üksinda	-10.9718
▁Raidma	-10.9722
▁prioriteetide	-10.9724
▁laias	-10.9726
▁tiheda	-10.9728
▁Edasi	-10.9729
▁tegevuses	-10.9731
teenistus	-10.9733
▁Lõpuks	-10.9736
▁kolmandal	-10.9738
▁alustel	-10.9739
▁huvita	-10.9739
haridus	-10.9741
▁kavatsete	-10.9742
▁alused	-10.9743
▁Teeme	-10.9744
▁objektiivse	-10.9744
▁tempos	-10.9745
▁Milling	-10.9747
uses	-10.9747
▁lepingud	-10.9748
▁hakkasid	-10.975
▁riigisisese	-10.975
▁jagu	-10.9752
▁kumb	-10.9752
▁töötatud	-10.9753
▁soojus	-10.9753
▁vabaduse	-10.9753
ikku	-10.9756
▁pressi	-10.9756
▁arengukavas	-10.9756
mises	-10.9756
võtmise	-10.9758
▁Pakosta	-10.9758
▁kaitsmise	-10.9758
▁otsustavad	-10.9758
partnerite	-10.9761
kon	-10.9765
if	-10.9767
▁enamiku	-10.9768
▁mõningaid	-10.9769
▁vooru	-10.9772
▁Era	-10.9773
▁kasutame	-10.9776
põ	-10.9776
▁teemast	-10.9776
▁Vii	-10.9779
▁eelmist	-10.9783
▁jätka	-10.9785
▁märk	-10.9788
▁kaasamise	-10.9789
▁kättesaadavust	-10.9789
▁reserve	-10.9792
▁arutab	-10.9797
oko	-10.9799
▁Juhul	-10.98
▁Kümme	-10.98
▁suhtlus	-10.98
▁India	-10.98
▁volitatud	-10.9801
▁põhjalikumalt	-10.9802
▁tootmis	-10.9805
▁tuhat	-10.9808
mmi	-10.9808
▁käsitlenud	-10.981
▁edastanud	-10.9814
▁rahastamis	-10.9818
▁hümni	-10.9819
▁koostada	-10.9821
▁kolmandik	-10.9823
▁Rahvusvahelise	-10.9827
▁hääl	-10.9835
lisus	-10.9835
▁sanktsioonide	-10.9838
▁eduka	-10.9839
▁Kunagi	-10.9842
lit	-10.9844
▁ideid	-10.9846
▁järjekordselt	-10.9852
▁kandis	-10.9853
▁ettevõtetele	-10.9855
isu	-10.9855
▁seaduseelnõus	-10.9856
▁neilt	-10.9858
▁vabatahtlik	-10.9861
tähelepanelikult	-10.9861
▁löö	-10.9862
▁jutust	-10.9862
see	-10.9864
▁sulge	-10.9876
▁potentsiaali	-10.9879
▁suuremas	-10.988
▁avalike	-10.9882
▁toetamine	-10.9882
▁valima	-10.9884
▁propaganda	-10.9884
▁jäetakse	-10.9885
▁vajalikke	-10.9886
▁700	-10.9888
valimiskampaania	-10.9889
▁Vasta	-10.9891
▁kõva	-10.9893
▁garantii	-10.9894
▁suhete	-10.9898
liini	-10.9902
▁numbri	-10.9907
▁tohutult	-10.991
▁erinevat	-10.9911
▁põhjuseks	-10.9914
▁kaardi	-10.9917
alade	-10.9917
▁staa	-10.9921
▁hoid	-10.9922
▁püüd	-10.9923
▁tekstis	-10.9926
▁analüüsid	-10.9926
▁tarvita	-10.9927
eerimine	-10.993
oleva	-10.9932
▁jätame	-10.9935
▁võidelda	-10.994
▁algatajad	-10.994
▁palgaga	-10.9941
aastased	-10.9941
▁filmi	-10.9943
▁hulgast	-10.9947
▁risti	-10.9948
▁Tõ	-10.9949
rca	-10.995
▁nimekirjas	-10.9952
ktor	-10.996
▁Tolliamet	-10.996
▁teadlaste	-10.9963
▁rõõm	-10.9964
ades	-10.9966
▁täiendus	-10.9968
▁praktiline	-10.997
▁valikute	-10.997
▁niisuguste	-10.9971
▁oskus	-10.9971
▁lähenemist	-10.9971
▁linnaosa	-10.9975
▁konverentsi	-10.9975
▁põhineb	-10.9975
umine	-10.9977
▁moodustatud	-10.9977
▁esitame	-10.9979
▁avaldatud	-10.998
jõu	-10.9982
▁tooks	-10.9982
▁4%	-10.9983
▁palus	-10.9985
▁kaotab	-10.9986
▁muutusi	-10.9987
▁endas	-10.9988
▁vajuta	-10.999
▁paista	-10.9991
▁punkte	-10.9991
kahju	-10.9993
asjade	-10.9995
6.	-10.9995
▁juriidiliselt	-10.9996
1%	-10.9996
ami	-10.9998
7.	-11
▁kontseptsiooni	-11
lehe	-11.0002
leht	-11.0008
▁kannata	-11.0014
▁Norra	-11.0014
▁800	-11.0016
meelse	-11.0019
▁rakendatakse	-11.0019
▁väljas	-11.002
▁Toomi	-11.0022
▁mõistlikuks	-11.0023
▁jäta	-11.0023
▁Ettepaneku	-11.0026
eldi	-11.0026
▁kodukorra	-11.0028
▁rajada	-11.0029
seisu	-11.0029
▁aktsiiside	-11.0032
asutus	-11.0032
▁nulli	-11.0042
▁muudeti	-11.0044
▁kohtusüsteemi	-11.0047
▁nõrgema	-11.0048
▁kuritarvita	-11.0056
▁sisejulgeoleku	-11.0056
▁Ühtlasi	-11.0056
▁sõda	-11.0059
fond	-11.006
▁väärib	-11.0067
▁asendada	-11.0072
▁haridusminister	-11.0072
kalt	-11.0076
mar	-11.0081
▁sügavalt	-11.0083
▁maavanema	-11.0085
▁tervik	-11.0088
▁tarbijate	-11.0089
▁õnnetus	-11.009
▁konkureeri	-11.009
▁par	-11.0091
äi	-11.0093
▁võiksite	-11.0097
▁toimuks	-11.0098
▁otsene	-11.0099
▁õpilase	-11.0099
▁teretulnud	-11.0099
▁täitu	-11.01
õigust	-11.0103
tena	-11.0103
▁Pole	-11.0105
▁hoiab	-11.0106
▁eraldatakse	-11.0107
pärane	-11.0107
▁kahtlus	-11.0108
täht	-11.011
▁vaidlused	-11.011
▁jõulu	-11.0111
▁valikud	-11.0112
▁lennuki	-11.0113
omanike	-11.0115
▁tunnus	-11.0118
▁vangi	-11.0119
▁Kotkas	-11.0119
▁pla	-11.0119
▁1990.	-11.012
▁üleminekutoetus	-11.012
▁toodete	-11.012
▁kurva	-11.0125
▁langeta	-11.0129
▁tagatis	-11.0134
▁osalise	-11.014
▁ci	-11.0143
▁seitsmenda	-11.0144
▁teeninda	-11.0147
▁Majandamis	-11.0147
▁Seejärel	-11.0149
▁Maailma	-11.0154
▁Niisiis	-11.0154
▁teenivad	-11.0156
▁valdkonnad	-11.0158
▁85	-11.0159
pere	-11.0161
▁tähtsust	-11.0162
▁kiirelt	-11.0162
▁kogutud	-11.0162
▁tõuse	-11.0163
võimalusi	-11.0164
▁Ri	-11.0167
▁komisjonides	-11.0167
▁suudaks	-11.0168
▁riigina	-11.0171
▁langus	-11.0172
▁valmisolek	-11.0174
▁kõnet	-11.0179
▁väljend	-11.018
jaama	-11.018
▁ajutise	-11.0181
▁miljonist	-11.0181
▁tõenäosus	-11.0183
▁hukka	-11.0184
Siin	-11.0185
liikmed	-11.0186
▁globaalse	-11.0186
▁Käesoleva	-11.0187
▁Maanteeameti	-11.0189
▁osutaja	-11.0191
▁majandustegevus	-11.0192
▁valitsusliikmed	-11.0193
▁tööst	-11.0193
▁käibemaks	-11.0194
▁kuluta	-11.0195
▁kahes	-11.0199
▁ehitama	-11.0201
kandja	-11.0203
Jaa	-11.0207
▁vastatud	-11.0213
▁rehabilit	-11.0217
▁plaane	-11.0217
▁mõjutavad	-11.0218
▁keskvalitsuse	-11.0219
järgse	-11.0221
▁vastutustundlik	-11.0224
▁Kodu	-11.0226
▁kaitseks	-11.0226
▁eelmiste	-11.0227
▁keelata	-11.0228
▁hüvitise	-11.0229
▁Väike	-11.0231
▁ajakirjanduses	-11.0232
▁parane	-11.0233
▁peresid	-11.0233
▁mahe	-11.0234
▁selgunud	-11.0234
▁2011	-11.0236
▁lähtume	-11.024
▁maailmavaate	-11.024
▁õnn	-11.0244
▁prioriteedid	-11.0245
▁järeldusi	-11.0249
▁erandi	-11.0258
▁lapsetoetuse	-11.026
▁valitsusse	-11.0261
▁Vaba	-11.0262
▁tervisele	-11.0262
aegne	-11.0263
▁2019	-11.0265
deklaratsiooni	-11.0268
▁mängus	-11.0271
suhete	-11.0273
Marika	-11.0274
▁jaota	-11.0274
▁terrori	-11.0274
▁kobareelnõu	-11.0274
▁põgusalt	-11.0274
▁ütlus	-11.0274
▁avan	-11.0279
▁probleemidega	-11.0279
▁rendi	-11.028
kõne	-11.0281
▁emakeele	-11.0282
▁sõidab	-11.0283
▁täitevvõimu	-11.0285
▁maksmine	-11.029
rahandusministri	-11.0292
▁naise	-11.0294
▁Päästeameti	-11.0294
▁tõdeda	-11.0294
▁konstruktiivse	-11.0304
iguskantsler	-11.031
▁Otsus	-11.0311
mit	-11.0311
▁Enamik	-11.0315
ndamine	-11.0316
▁liikumis	-11.0316
▁kaupade	-11.0318
▁süvenda	-11.0319
▁ajendatud	-11.0319
Pea	-11.0323
▁paberil	-11.0323
▁tühi	-11.0323
▁situatsioon	-11.0325
15	-11.0328
kesi	-11.0333
▁demokraatliku	-11.0337
▁tähtsus	-11.0341
▁kvaliteetse	-11.0342
aia	-11.0344
▁kriitilise	-11.0344
õõ	-11.0345
▁tähenduses	-11.0346
▁pädevust	-11.0348
▁kutseharidus	-11.035
keskuste	-11.035
▁sisalda	-11.0352
▁järeldusele	-11.0352
▁Minule	-11.0354
▁seadustega	-11.0354
▁rumala	-11.0355
võimalus	-11.0356
▁enamuse	-11.0359
pär	-11.0362
▁lepinguid	-11.0362
▁Euro	-11.0363
▁PPA	-11.0363
▁teatava	-11.0364
kohti	-11.0365
▁rakendatud	-11.037
▁kallal	-11.0372
▁võimalikuks	-11.0374
▁hääletame	-11.0375
▁korrektselt	-11.0376
▁lähtunud	-11.0376
▁tööturule	-11.0379
▁variandi	-11.0385
▁üksuste	-11.0386
▁kahjulik	-11.0389
▁vastustest	-11.0389
▁selgitama	-11.0389
▁sarnase	-11.0389
▁uurimise	-11.039
▁Ministeeriumi	-11.0392
▁kaunis	-11.0392
▁peabki	-11.0393
teenistuse	-11.0395
▁viina	-11.0397
uni	-11.0401
▁kahtle	-11.0403
▁vaidlusta	-11.0405
used	-11.0408
▁Organisatsiooni	-11.0408
▁rahutagamis	-11.0408
▁uurinud	-11.0408
▁piirangu	-11.0408
▁projekte	-11.041
nuks	-11.0411
lisest	-11.0413
▁viitab	-11.0414
▁kaotamise	-11.0415
▁arvamusel	-11.0416
▁paraneb	-11.0417
▁kuuluvate	-11.0418
▁esitasin	-11.0421
▁kordagi	-11.0422
▁poe	-11.0422
▁Vaher	-11.0423
▁arutelust	-11.0423
▁printsiibi	-11.0425
▁parandamise	-11.0428
▁detsembris	-11.0429
▁küsingi	-11.0431
▁koolivõrgu	-11.0432
▁83	-11.0435
päeval	-11.0438
laeva	-11.0439
spordi	-11.044
sõidu	-11.044
▁lasteaias	-11.0441
▁probleemile	-11.0447
▁vett	-11.0452
▁lüüa	-11.0452
▁ilmtingimata	-11.0453
▁Läänemere	-11.0453
▁muuseas	-11.0453
▁ettevalmistus	-11.0453
▁tõsiasi	-11.0454
▁piltlikult	-11.0455
valitse	-11.0459
antsinspektsioon	-11.0463
▁ligikaud	-11.0464
▁segadus	-11.0466
▁viime	-11.0471
▁nimetanud	-11.0471
▁erakonnakaaslas	-11.0472
▁jagatud	-11.0475
▁81	-11.0479
▁väärtuste	-11.0481
positsiooni	-11.0481
▁teemaks	-11.0483
▁analoogse	-11.0489
fondide	-11.049
tunud	-11.0492
▁ühist	-11.0492
kohast	-11.0497
▁seadusandliku	-11.0497
▁Randver	-11.0498
▁võimaldaks	-11.0499
▁raadio	-11.0499
▁paindlikumaks	-11.0499
▁rahalise	-11.0502
telt	-11.0502
▁ravikindlustus	-11.0504
▁märkida	-11.0505
▁loomist	-11.0507
▁Punkt	-11.0509
▁palub	-11.0509
▁lihtsusta	-11.0511
▁asendus	-11.0511
▁reaal	-11.0512
▁kasumit	-11.0516
vahe	-11.0517
isse	-11.0517
seis	-11.0518
▁tegevusega	-11.0518
▁Peep	-11.0519
▁Kehtiva	-11.0522
▁ülemäära	-11.0525
▁vaidluse	-11.0528
▁Võin	-11.0532
▁maksukoormus	-11.0535
▁Uno	-11.0536
punkt	-11.0542
▁rahaliselt	-11.0542
kka	-11.0543
▁euroraha	-11.0544
▁pealkiri	-11.0544
▁elanikku	-11.0544
▁sport	-11.0544
▁väidet	-11.0545
▁linnu	-11.0546
▁viisa	-11.0546
▁jõudsime	-11.0547
▁lu	-11.0548
▁sätestatakse	-11.055
▁teadmise	-11.0551
▁saaksite	-11.0551
▁lisandub	-11.0552
▁lõplikult	-11.0554
▁Ministri	-11.0555
▁üleminek	-11.0558
▁istub	-11.0566
▁suust	-11.0567
ostu	-11.0574
▁kaugemas	-11.0578
▁sala	-11.0579
▁kul	-11.0581
▁selgemaks	-11.0582
▁käisid	-11.0583
▁Laurson	-11.0588
tegevust	-11.0588
▁Elu	-11.0593
▁aruanne	-11.0593
▁tugevdada	-11.0599
▁valmistu	-11.0599
teid	-11.0599
▁juhitava	-11.0603
▁saarte	-11.0606
sem	-11.0607
▁joogi	-11.0607
▁võrdle	-11.0608
▁lisandu	-11.0609
lepingute	-11.0609
▁tunnis	-11.0618
▁lihtsamaks	-11.0618
▁mõistlikult	-11.0621
turgu	-11.0622
▁alternatiivi	-11.0626
▁odava	-11.0628
▁valitsemisala	-11.0629
▁päevas	-11.0631
keskkond	-11.0633
▁Haapsalu	-11.0634
▁Vahepeal	-11.0634
▁konsulteeri	-11.0634
▁puhke	-11.0634
▁lastevanemate	-11.0634
▁püütud	-11.0634
▁lehekülge	-11.0634
tute	-11.0635
▁pileti	-11.0636
▁erandeid	-11.0636
10	-11.0638
aga	-11.0641
müügi	-11.0641
ule	-11.0644
▁maapiirkondades	-11.0645
▁Neljandaks	-11.0645
▁suhte	-11.0646
▁eeskujuks	-11.0648
▁uurimiskomisjon	-11.0649
▁Ba	-11.0649
▁asukoha	-11.065
▁nõudlus	-11.0651
▁tagajärg	-11.0654
▁Brüsselis	-11.0656
kohad	-11.0657
▁elektrituru	-11.0658
▁rahvusvahelises	-11.0658
▁sanktsioonid	-11.0662
turist	-11.0662
ndab	-11.0663
▁konventsioon	-11.0676
▁riiva	-11.0676
▁tähtsama	-11.0678
▁reklaam	-11.068
▁Erineva	-11.068
▁Ivanova	-11.068
▁olulisel	-11.068
▁suhelda	-11.0681
Artur	-11.0683
▁turgu	-11.0684
▁kiitnud	-11.0684
▁keeleõppe	-11.0684
▁suurenevad	-11.0684
▁laenude	-11.0686
▁sellisena	-11.0686
▁soosi	-11.0688
var	-11.0692
▁elamis	-11.0693
▁nafta	-11.0695
▁käisin	-11.0696
Meil	-11.0697
▁Musta	-11.0698
tööstus	-11.0701
▁toetate	-11.0701
▁algatajale	-11.0707
▁eripära	-11.0707
aani	-11.0707
▁Rõivase	-11.071
▁lähte	-11.0711
tevalmistamisel	-11.0711
▁84	-11.0714
▁mõõde	-11.0721
püü	-11.0721
▁detsember	-11.0726
▁tõrju	-11.0726
▁Ho	-11.0727
▁suudaksime	-11.0732
varu	-11.0735
▁silmis	-11.074
▁õpe	-11.0741
lgi	-11.0742
▁Alle	-11.0742
imine	-11.0743
▁krediidi	-11.0747
▁algatus	-11.0749
▁tekitavad	-11.0753
▁reguleerima	-11.0754
▁riiklikku	-11.0758
▁toel	-11.0759
▁ajaloolise	-11.0762
▁hoolitse	-11.0763
kasutus	-11.0764
▁pil	-11.0764
▁topelt	-11.077
▁tükk	-11.077
▁varju	-11.0772
▁muinsuskaitse	-11.0772
▁olenemata	-11.0773
▁maksusoodustus	-11.0775
▁valitsused	-11.078
▁demokraatlik	-11.0785
▁asjaolusid	-11.0785
▁Too	-11.0785
▁meeskonna	-11.0799
▁üksus	-11.0802
▁kallim	-11.0802
▁Ants	-11.0803
▁aastasse	-11.0803
ühenduse	-11.0806
kohustuse	-11.0807
▁abivahendite	-11.0808
aastaste	-11.0809
▁sinuga	-11.081
▁ettevalmistuse	-11.0813
▁turvalise	-11.0815
▁bensiini	-11.0817
õi	-11.0817
▁Riigimetsa	-11.0819
▁isikuandmete	-11.082
▁naer	-11.0821
▁jõustunud	-11.0823
Seda	-11.0823
ndamist	-11.0827
▁Seesama	-11.0829
organ	-11.0829
▁uskuda	-11.083
▁suunatakse	-11.0832
▁hädas	-11.0832
▁perearst	-11.0834
avaldus	-11.0838
▁Remo	-11.0839
▁ennetus	-11.0841
▁valdade	-11.0842
▁toetuseks	-11.0845
▁teoks	-11.0849
▁soorita	-11.0851
▁Võiks	-11.0857
▁aspekte	-11.0858
▁positiivseid	-11.086
▁lahus	-11.086
ettevalmistamise	-11.0862
▁Olles	-11.0865
▁kogenud	-11.0865
muse	-11.0867
▁õiges	-11.0871
▁naine	-11.0871
▁nimetus	-11.0872
▁kooseluseadus	-11.0874
▁kohtunik	-11.0875
kate	-11.0876
▁sedavõrd	-11.0877
▁täpsustava	-11.0879
vaate	-11.0879
▁suurepäraselt	-11.088
▁asus	-11.0881
▁dokumenti	-11.0882
▁sotsiaalkaitse	-11.0882
▁pöördus	-11.0885
▁kõikidest	-11.0887
▁volikogus	-11.0887
▁Ole	-11.0888
▁lahuta	-11.0889
▁Kaja	-11.0889
▁leheküljel	-11.0891
▁kujutada	-11.0892
▁muust	-11.0896
otsuse	-11.0897
ettevõte	-11.0898
▁kolleegidega	-11.0904
▁Mati	-11.0908
▁vastustes	-11.0911
▁perearstide	-11.0912
▁alaealise	-11.0912
▁Kordan	-11.0913
▁kahjusta	-11.0914
avalduse	-11.0914
▁kompenseerimise	-11.0914
▁kiirlaenu	-11.0916
▁kohalikes	-11.0918
▁sõidavad	-11.0919
▁aastateks	-11.092
▁elanikele	-11.0925
▁pädeva	-11.0928
▁puhta	-11.0928
võrdõiguslikkuse	-11.0933
▁motiveeri	-11.0936
▁kehtivas	-11.0937
plaan	-11.0938
og	-11.0938
arvu	-11.0939
▁munitsipaal	-11.0941
▁maksame	-11.0943
▁olemegi	-11.0943
▁hirmuta	-11.0943
▁sünnib	-11.0944
▁praegused	-11.0945
▁tavapärase	-11.0946
raamatu	-11.0946
vahendid	-11.0948
▁puudutava	-11.095
▁arendamiseks	-11.0953
▁kordi	-11.0955
andmete	-11.0956
▁rakendama	-11.0958
▁eelnõule	-11.0958
▁Vaadates	-11.096
▁lahja	-11.096
▁keera	-11.0961
▁kiitis	-11.0962
erakonna	-11.0964
▁väidab	-11.0964
turul	-11.0965
näitaja	-11.0966
▁üleandmise	-11.0968
▁loetakse	-11.0968
▁haigus	-11.097
▁arvas	-11.097
▁veendumus	-11.0972
▁juur	-11.0973
▁kirjeldatud	-11.0974
▁Laaneti	-11.0975
▁panustab	-11.0976
▁liberaalse	-11.098
▁valitsusliikme	-11.0985
▁mõistuse	-11.0985
▁plaanitud	-11.0985
tasandi	-11.0989
parlamendiliikme	-11.0991
▁sündmuste	-11.0991
▁raie	-11.0992
ute	-11.0995
▁värvi	-11.0996
▁oskad	-11.0996
▁250	-11.0997
▁realiseeru	-11.1001
▁turvalisus	-11.1002
▁õpetajatele	-11.1006
▁Valimiskomisjon	-11.1006
▁sätete	-11.1007
▁vastuollu	-11.1007
▁tõstma	-11.1008
▁korraldama	-11.1008
▁kuulasin	-11.1013
▁välisriigi	-11.1016
▁tuvastada	-11.1019
▁pinguta	-11.1019
▁üliõpilaste	-11.1019
▁numbreid	-11.1025
▁sammas	-11.1026
▁taastu	-11.1032
▁jõuti	-11.1034
▁nõukogusse	-11.1038
Majanduskomisjon	-11.1042
levi	-11.1045
▁liitlaste	-11.1046
▁ajaloos	-11.1048
▁Na	-11.1051
▁materjalid	-11.1054
▁efektiivne	-11.1055
▁häbi	-11.1055
▁saadetakse	-11.1055
ots	-11.1055
▁seisavad	-11.106
▁sugu	-11.106
▁vähendama	-11.1061
▁Nestori	-11.1061
▁päritolu	-11.1061
▁120	-11.1066
▁uuendus	-11.1069
staa	-11.107
▁Inimeste	-11.1071
▁loeb	-11.1072
▁polegi	-11.1075
▁maksusüsteem	-11.1076
▁üksikute	-11.1077
▁päevadel	-11.1078
▁süvene	-11.1078
▁vastaks	-11.1084
▁tõstame	-11.1087
▁paratamatu	-11.1089
▁rahalist	-11.109
ob	-11.1093
▁järgmisest	-11.1094
▁osalema	-11.1097
▁jä	-11.1098
▁elamu	-11.1099
▁notari	-11.11
▁Oviir	-11.1102
▁valitseb	-11.1103
▁tugiteenuste	-11.1103
▁sead	-11.1104
▁probleemist	-11.1105
▁teatri	-11.1106
▁leiate	-11.1106
▁nimistu	-11.1107
tti	-11.1107
ktsioon	-11.1107
▁suurendamiseks	-11.1109
▁väidetaval	-11.1109
▁palutud	-11.111
▁elukoha	-11.1111
▁aktsiisimäära	-11.1112
▁ettevõtlust	-11.1112
▁täitmine	-11.1113
▁paindlik	-11.1114
igi	-11.1115
kiri	-11.1116
▁vähenes	-11.1119
▁mõnest	-11.112
▁Meelis	-11.1121
▁telefoni	-11.1128
poliitikast	-11.1129
▁võlg	-11.1133
▁piirkondade	-11.1136
▁sissemakse	-11.1136
▁rahvasaadiku	-11.1138
▁jääme	-11.114
uba	-11.114
▁saite	-11.114
▁Kred	-11.1142
▁silm	-11.1143
▁esimehele	-11.1144
▁2005.	-11.1144
ettevõtja	-11.1145
▁Järgmisel	-11.1146
▁põhimõttelise	-11.1146
▁oleneb	-11.1147
▁mõtlete	-11.1147
▁alal	-11.1147
▁Peipsi	-11.1151
▁hüve	-11.1151
▁korraldab	-11.1151
▁Nool	-11.1156
▁Teatud	-11.1156
▁fondide	-11.1157
▁Kohaliku	-11.1157
numbri	-11.1158
psu	-11.1159
nute	-11.1161
▁astuma	-11.1163
grupp	-11.1164
▁võidakse	-11.1164
▁dialoogi	-11.1164
▁tööjõumaksude	-11.1165
▁Viimane	-11.1167
oon	-11.1168
▁välistatud	-11.1168
nemist	-11.1169
▁teistsugused	-11.1169
seadustiku	-11.117
▁muudame	-11.1171
▁rahastatakse	-11.1176
▁voliniku	-11.1176
▁õiglase	-11.1176
▁lahendab	-11.1177
▁mispärast	-11.1179
▁kehvema	-11.118
▁hinnatud	-11.1186
▁tagamise	-11.119
▁kehva	-11.119
▁samasugust	-11.1192
itsi	-11.1193
▁maakondades	-11.1198
▁Mihkelson	-11.1199
▁aktiivne	-11.12
▁võidab	-11.1202
keelse	-11.1205
kli	-11.1207
▁protokoll	-11.1208
▁palgafondi	-11.1209
▁partnerite	-11.1209
▁Repinski	-11.121
▁soovitusi	-11.121
stanud	-11.121
▁nähtus	-11.121
▁tagatakse	-11.1214
▁tarbimis	-11.1215
▁ühinemis	-11.1216
▁ehituse	-11.1217
▁Lii	-11.1218
▁ettekandest	-11.1221
▁klientide	-11.1225
▁jaanuar	-11.1226
kohane	-11.1229
▁Põlva	-11.123
▁kordama	-11.123
▁haldusala	-11.1231
ost	-11.1231
▁emotsionaalse	-11.1233
▁kuulama	-11.1233
▁sõida	-11.1233
▁ajad	-11.1234
▁viisi	-11.1237
liikmete	-11.124
▁vajame	-11.1243
▁korja	-11.1243
▁liikmetest	-11.1247
▁tõstab	-11.1249
▁ajalehe	-11.1251
▁nõuet	-11.1254
▁põhjusi	-11.1257
kohta	-11.1257
▁karjääri	-11.1259
▁maksudest	-11.126
itud	-11.1261
▁kandideerida	-11.1263
▁liituda	-11.1264
▁vaatavad	-11.1264
▁Liiduga	-11.1265
konda	-11.1266
▁tahad	-11.1267
▁tõid	-11.1267
▁hakkan	-11.1268
▁fond	-11.127
▁eksperdi	-11.1272
▁kohtumisel	-11.1272
▁tasandi	-11.1274
▁keha	-11.1277
▁kaalutlus	-11.1277
vabadus	-11.1279
▁töökoormus	-11.1284
lahendus	-11.1286
▁kriteeriumid	-11.1288
▁range	-11.1293
▁soove	-11.1295
▁Järelevalve	-11.1296
▁Infotund	-11.1296
▁Siinkohal	-11.1296
▁lahke	-11.1296
▁elatisabi	-11.1297
▁tähendada	-11.1297
▁andsite	-11.1297
klassi	-11.1298
▁ühisosa	-11.1299
▁politseinike	-11.1301
▁rahvahääletuse	-11.1301
▁kutsehariduse	-11.1302
▁kohustusliku	-11.1303
▁nädalas	-11.1305
piir	-11.1307
▁pakume	-11.1308
▁soodustada	-11.1308
leppes	-11.131
▁hange	-11.131
▁kasvaks	-11.1311
▁valitsuste	-11.1312
▁kunsti	-11.1315
▁südametunnistus	-11.1316
▁palunud	-11.1317
▁kõigist	-11.1319
▁eemal	-11.132
▁kodakondsusest	-11.132
▁muljet	-11.1322
▁86	-11.1322
▁ministrilt	-11.1322
aator	-11.1326
vanema	-11.1326
▁Vana	-11.1328
▁Midagi	-11.1328
▁1,3	-11.1329
▁Süüria	-11.1329
suguse	-11.1334
▁Helmut	-11.1334
puu	-11.1338
▁kasutatava	-11.1338
▁juulil	-11.134
ppe	-11.1343
▁suudeta	-11.1345
▁selguse	-11.1346
firmade	-11.1347
▁Mere	-11.1347
▁kaheksanda	-11.1349
▁hindade	-11.135
▁kõrvalda	-11.1351
IE	-11.1352
▁arstid	-11.1359
▁ettevõtjatel	-11.1359
rand	-11.1363
▁allu	-11.1364
▁loonud	-11.1365
▁rahastuse	-11.1366
▁jõutakse	-11.1368
▁täitmata	-11.1372
▁täiskogule	-11.1378
vahendeid	-11.1378
▁pädevuse	-11.138
▁lastel	-11.138
kontroll	-11.1381
▁raiu	-11.1382
▁lastest	-11.1386
protsess	-11.1387
kindlustusameti	-11.1387
▁sotsiaalne	-11.1388
ingu	-11.1394
▁põlvkonna	-11.1394
▁hullem	-11.1396
▁objekt	-11.1397
▁tulin	-11.1398
▁taotleja	-11.1398
▁paralleelselt	-11.1399
▁varjatud	-11.14
▁He	-11.1401
▁rõhutas	-11.1402
▁langetamine	-11.1404
Jaanus	-11.1404
Kadri	-11.1404
▁laiemat	-11.1407
tut	-11.1409
▁tagajärjed	-11.1409
▁targem	-11.141
▁seab	-11.1415
▁Ve	-11.1416
▁liikumist	-11.1417
▁majutus	-11.142
▁poliitik	-11.1421
▁peaspetsialist	-11.1424
▁täiendavad	-11.1428
▁poolele	-11.1429
▁umbusaldus	-11.1431
▁Lu	-11.1431
▁ühineda	-11.1432
▁tsiteerin	-11.1433
▁parvlaeva	-11.1433
▁määramise	-11.1437
▁liitumise	-11.1443
aomavalitsuste	-11.1444
▁Alates	-11.1445
▁kinnisasja	-11.1445
▁varasematel	-11.1446
▁alandamise	-11.1446
▁terviku	-11.1447
▁valge	-11.1448
▁lõppemise	-11.1448
▁kodanikke	-11.145
▁volikogude	-11.1453
▁käsu	-11.1453
▁väidate	-11.1454
▁põhiseaduses	-11.1455
▁viimati	-11.1455
oot	-11.1459
▁planeerida	-11.146
▁moodus	-11.1462
gustatud	-11.1462
olukorda	-11.1464
▁mõtleb	-11.1467
▁istungitel	-11.1467
▁kasutusel	-11.147
▁sündimus	-11.1471
▁jumal	-11.1472
▁ettekandjat	-11.1479
▁sotside	-11.148
kasv	-11.1482
▁hooldekodu	-11.1484
▁ennusta	-11.1484
tasude	-11.1486
▁leidsime	-11.1494
▁suutma	-11.1494
tingimuste	-11.1494
▁ründa	-11.1494
kri	-11.1495
▁vastuvõetud	-11.1496
▁90%	-11.1497
▁renoveeri	-11.1498
euro	-11.1506
▁esineb	-11.1509
▁Ettekandjale	-11.151
▁konsensuse	-11.151
▁probleemiks	-11.151
▁kirjutab	-11.1513
arendus	-11.1516
▁Jätkame	-11.1518
▁välispoliitilis	-11.1519
▁põhiküsimus	-11.1521
▁Lepingu	-11.1521
▁arutatava	-11.1524
kasvataja	-11.1529
▁suurepärase	-11.1531
▁peaksite	-11.1532
▁pealinna	-11.1537
▁ettevõtet	-11.1538
▁lae	-11.154
▁Haigla	-11.1544
▁Vaarmann	-11.1544
▁tanki	-11.1544
▁murelikuks	-11.1545
töötajad	-11.1545
▁75%	-11.1547
vorm	-11.1548
vaat	-11.1551
▁suhtuda	-11.1552
must	-11.1555
keti	-11.1556
▁9,	-11.1558
▁Ro	-11.1559
laenu	-11.1559
Ta	-11.1562
▁märku	-11.1562
ette	-11.1562
▁tuhande	-11.1562
▁pikad	-11.1564
▁koguni	-11.1567
▁Piirivalveamet	-11.1568
▁konkreetsel	-11.1568
tamisel	-11.1569
▁laeku	-11.157
▁Kolleegid	-11.1571
▁võ	-11.1572
▁suunal	-11.1576
▁veeseaduse	-11.1577
▁pidid	-11.1581
▁hindab	-11.1581
▁vastamata	-11.1584
▁lapsevanema	-11.1585
▁möödu	-11.1588
On	-11.1591
▁läbipaistva	-11.1592
▁Inimene	-11.1594
▁jättis	-11.1594
▁siinkõneleja	-11.1594
▁repliigi	-11.1594
▁spetsiifilise	-11.1594
▁haara	-11.1594
▁seina	-11.1594
▁Tavaliselt	-11.1594
▁val	-11.1596
▁vahetus	-11.1596
▁juhtkonna	-11.1597
▁tootja	-11.1598
▁kuidagimoodi	-11.1599
▁püüavad	-11.1599
toetused	-11.1599
▁kaovad	-11.1601
▁palgatõus	-11.1605
stunud	-11.1606
▁ametlikult	-11.1607
17	-11.1607
▁laulu	-11.1609
▁Süürias	-11.161
▁juulist	-11.161
▁suhtute	-11.161
5.	-11.1619
sõbralik	-11.162
▁mõneti	-11.162
▁põhjendada	-11.1621
▁andmist	-11.1621
▁saavutamiseks	-11.1621
▁kolmest	-11.1622
▁tegelikku	-11.1629
mal	-11.1629
▁korrektse	-11.163
stame	-11.1633
▁Siret	-11.1634
majade	-11.1634
Riigi	-11.1636
▁juhtumid	-11.164
▁omandada	-11.164
▁kinnipidamis	-11.1641
▁muudest	-11.1642
▁liik	-11.1642
Hasartmängumaksu	-11.1644
eelarve	-11.1645
▁2021	-11.1645
▁lobi	-11.1647
▁Baltic	-11.1648
täienduskoolitus	-11.1655
▁esitavad	-11.1655
▁valitakse	-11.1655
▁artikkel	-11.1657
▁suitseta	-11.1657
▁mõnigi	-11.1659
▁skeem	-11.1659
aasi	-11.166
▁toitu	-11.166
▁Peab	-11.166
soovi	-11.1661
õe	-11.1661
tul	-11.1661
▁vastanda	-11.1661
▁ettevalmistamis	-11.1665
▁selgitusi	-11.1668
kaalu	-11.1671
▁oskavad	-11.1671
voo	-11.1673
▁vabas	-11.1677
▁kasutaja	-11.1677
▁raport	-11.1678
▁detsembriks	-11.1681
▁hoonete	-11.1681
▁realiseeri	-11.1686
tehingu	-11.1691
▁tõstatas	-11.1695
▁halvenda	-11.1695
▁puudujäägi	-11.1695
▁Mälberg	-11.1695
▁volituste	-11.1696
▁nõustamis	-11.1696
▁sõltuvalt	-11.1696
▁registreerimise	-11.1697
▁viidanud	-11.1697
▁püüdsin	-11.17
▁kipub	-11.17
▁kõrg	-11.1701
▁Koos	-11.1704
▁efektiivselt	-11.1706
▁Ausalt	-11.1707
▁jõustuma	-11.1707
inimeste	-11.1708
▁väljendada	-11.171
▁tasandusfondi	-11.1714
▁parlamendile	-11.1715
▁nimetamise	-11.1718
▁alustanud	-11.1719
aati	-11.1719
tamisega	-11.1722
pla	-11.1722
lapse	-11.1723
ohutuse	-11.1726
▁pideva	-11.1732
▁Kolmanda	-11.1734
▁koormust	-11.1734
▁varja	-11.1735
▁pinnalt	-11.1737
▁fraktsioonist	-11.1737
▁töötame	-11.1741
▁mikrofon	-11.1744
▁saadikut	-11.1745
lk	-11.1746
▁andmekogu	-11.1747
mehhanism	-11.1748
▁tegevusloa	-11.1748
▁elav	-11.1755
▁arutamise	-11.1755
▁käitunud	-11.1755
mineku	-11.1756
▁lõpetamist	-11.1756
▁motiveerida	-11.1756
▁pakett	-11.1757
▁kokkulepitud	-11.1759
▁õpivad	-11.176
▁unustada	-11.1761
▁loeme	-11.1762
▁asuva	-11.1762
▁nominaalse	-11.1764
▁tundma	-11.1765
▁kohatu	-11.1768
oleku	-11.1777
▁kuues	-11.1779
▁selja	-11.1783
avad	-11.1784
▁hoidmise	-11.1784
ah	-11.1785
▁elust	-11.1785
▁keskel	-11.1789
▁Põ	-11.179
▁vaese	-11.1791
▁Aasa	-11.1792
▁minuga	-11.1794
▁enama	-11.1794
▁väiksemate	-11.1795
▁Tervise	-11.1797
▁võõr	-11.1798
▁konteksti	-11.1798
▁parandama	-11.1798
▁seadusandlik	-11.1798
▁peeti	-11.1799
▁jõustumist	-11.1801
▁lükka	-11.1801
perioodil	-11.1802
▁Koostöö	-11.1802
pinda	-11.1803
▁kokkulepped	-11.1804
▁vastuvõtmine	-11.1804
▁Vä	-11.1809
▁immigratsiooni	-11.1809
▁suhteid	-11.1812
▁julgeolekut	-11.1812
erakondade	-11.1814
▁vanad	-11.1817
juhid	-11.1818
mma	-11.182
▁seisnud	-11.1823
▁lapsetoetus	-11.1825
▁tegevusest	-11.1827
▁aruandes	-11.1828
▁Anvelti	-11.1831
sfääri	-11.1833
▁loobuma	-11.1833
▁igaühel	-11.1833
▁Soovi	-11.1835
▁juhtima	-11.1837
▁juhtuma	-11.1838
▁lubadus	-11.184
▁näitama	-11.184
▁otsustamise	-11.1842
▁helista	-11.1843
sekretär	-11.1849
▁Jõhvi	-11.1849
▁talituse	-11.1849
▁Põhi	-11.185
▁70%	-11.1853
▁peres	-11.1854
▁maksutulu	-11.1855
▁protseduur	-11.1855
▁Lapse	-11.1857
▁vähendatakse	-11.1857
▁16-	-11.1858
▁tabel	-11.1858
▁kehtestanud	-11.1859
▁puutunud	-11.186
▁visa	-11.1861
▁kaaluma	-11.1862
▁koonda	-11.1863
▁sobiv	-11.1863
▁alandada	-11.1863
▁rakendub	-11.1864
▁tegude	-11.1865
akse	-11.1865
▁avalikkuses	-11.1867
▁väärteo	-11.1869
▁seeläbi	-11.187
▁mingist	-11.1873
▁linnades	-11.1876
▁asjasse	-11.1877
▁kokkuleppeid	-11.1879
▁ühiskondlik	-11.1881
▁toetatakse	-11.1881
tuma	-11.1885
võimet	-11.1885
▁illegaalse	-11.1886
▁jurist	-11.1886
▁lõpule	-11.1888
▁sõiduki	-11.1896
▁taotlema	-11.19
▁poolteise	-11.1901
kondade	-11.1902
▁keskkonnamõju	-11.1903
oodetavasti	-11.1904
▁kaugeltki	-11.1904
▁maksukorralduse	-11.1905
▁detailselt	-11.1912
eksami	-11.1914
▁neljapäevast	-11.1918
▁parandab	-11.1919
kordse	-11.1919
▁lubaduse	-11.1923
▁kokkulepete	-11.1926
▁finantseerimis	-11.1927
▁valusa	-11.1928
▁kirjeldada	-11.1928
▁alkoholiaktsiis	-11.1929
▁üksteist	-11.1929
ndama	-11.1937
▁pikki	-11.1941
vahetus	-11.1942
▁Vastava	-11.1943
▁küsimustest	-11.1945
▁fa	-11.1947
▁võlakoormus	-11.1947
▁paragrahv	-11.1948
ettepanekuga	-11.195
investor	-11.1951
▁omandamise	-11.1951
▁nõrk	-11.1951
▁Riigikantselei	-11.1953
▁aktuaalne	-11.1953
▁Kross	-11.1953
▁2004.	-11.1955
▁kolleegide	-11.1957
ettevõtted	-11.1958
▁pidu	-11.1959
▁arusaamise	-11.1962
▁süüdistus	-11.1963
menetlust	-11.1966
▁noorema	-11.1966
▁eelmisest	-11.1966
▁puht	-11.1967
▁vaidluste	-11.1968
▁osaluse	-11.1968
Igor	-11.1969
konto	-11.1969
▁riigipiiri	-11.197
▁viivad	-11.1971
ava	-11.1974
▁takistus	-11.1974
▁võimaldavad	-11.1974
▁pensione	-11.1974
▁kusagilt	-11.1975
kasutuse	-11.1979
▁kujutan	-11.198
▁valva	-11.1982
▁kujundamisel	-11.1983
▁tasude	-11.1983
asutustes	-11.1984
▁tutvustan	-11.1984
▁Sõerdi	-11.1985
▁Statistikaameti	-11.1987
▁lahendamisel	-11.1989
▁ametist	-11.1989
▁rahvasaadik	-11.1989
▁millistel	-11.1992
▁mõõt	-11.1993
▁heal	-11.1999
▁olulisemad	-11.2002
▁Alender	-11.2005
▁kaasettekande	-11.2005
▁eelkäija	-11.2005
▁läheneda	-11.2005
▁hüvita	-11.2006
unapuu	-11.2007
▁lähima	-11.2007
▁laekuva	-11.2007
hinda	-11.2009
▁garantiid	-11.201
▁Toobali	-11.2011
▁direktor	-11.2013
▁Vastu	-11.2014
▁tähtsad	-11.2014
▁lõigu	-11.2016
▁vabasta	-11.2016
▁vajalikku	-11.2017
▁tuttava	-11.2017
▁asjaolud	-11.2021
▁kehtestab	-11.2022
▁jõustus	-11.2023
▁teo	-11.2026
▁tänaval	-11.2027
▁lühema	-11.203
▁partneri	-11.2031
▁piirkonda	-11.2031
rr	-11.2033
▁arusaadava	-11.2034
▁vanade	-11.2035
▁kalli	-11.2035
▁valitsusest	-11.2036
▁kindlust	-11.2037
▁avaldust	-11.2038
▁Tallinnasse	-11.2039
tõrje	-11.2039
▁tabeli	-11.204
▁katteallika	-11.2042
▁trendi	-11.2043
▁menetlema	-11.2043
▁Afganistanis	-11.2045
▁kahane	-11.2047
▁inimesega	-11.2048
▁võitja	-11.2049
▁kriteeriumi	-11.205
▁mõjusid	-11.2052
▁Pevkuri	-11.2053
▁alampalga	-11.2058
▁ideoloogia	-11.2058
▁liha	-11.2058
▁mineviku	-11.2058
▁võlakirju	-11.2058
▁tooda	-11.2059
▁numbrite	-11.2059
▁teadlased	-11.206
▁sõnavõtt	-11.2067
▁kiiret	-11.2068
▁kumma	-11.2069
▁panustanud	-11.2069
▁aegu	-11.2069
▁initsiatiiv	-11.207
▁kehtestamine	-11.2071
▁kohalt	-11.2072
▁muudes	-11.2073
praktika	-11.2073
tööde	-11.2079
pra	-11.2081
▁valimisel	-11.2082
▁patsient	-11.2084
▁3000	-11.2088
matult	-11.2089
▁valve	-11.2094
▁informeeri	-11.2096
▁laekumine	-11.2098
▁asjades	-11.2099
▁elamisluba	-11.21
liik	-11.2101
▁järgneva	-11.2106
eelse	-11.2109
▁poliit	-11.2109
▁ajend	-11.211
▁moraalse	-11.2111
▁Varem	-11.2111
▁lugesite	-11.2113
▁ohtliku	-11.2113
▁loogikast	-11.2113
▁külalised	-11.2114
mised	-11.2116
▁nõuavad	-11.2117
▁esitamiseks	-11.2117
▁paranenud	-11.2118
▁pidamise	-11.212
▁Amet	-11.2121
▁mõlemal	-11.2124
tavasti	-11.2124
▁lahendatakse	-11.2125
riski	-11.2126
▁sätestada	-11.2126
Vabandust	-11.2128
▁makstava	-11.213
▁ajakirjanduse	-11.2131
bar	-11.2135
▁sündis	-11.2136
▁reegel	-11.2136
▁Paar	-11.2141
▁vastupidine	-11.2144
▁mikrofoni	-11.2146
▁keskkond	-11.2151
ari	-11.2154
▁järeldused	-11.2158
▁Kahe	-11.2159
pärase	-11.216
▁abinõu	-11.2161
▁panete	-11.2162
▁maksumäära	-11.2162
▁rakendamiseks	-11.2163
▁maksimum	-11.2163
▁kahetsusväärne	-11.2164
▁kukkunud	-11.2164
▁leidsid	-11.2164
▁järk	-11.2164
▁President	-11.2164
▁tõlgi	-11.2164
▁märksõna	-11.2165
▁suurest	-11.2165
▁esitle	-11.2169
▁maksustada	-11.2171
▁põhimõttelist	-11.2172
▁absoluutse	-11.2174
▁käsitletakse	-11.2174
▁mõistus	-11.2174
▁kokkuhoid	-11.2176
▁sõnastuse	-11.2178
▁tööaja	-11.2178
▁kohtumine	-11.2178
▁puhkuse	-11.2178
▁konto	-11.218
▁masina	-11.2184
kolm	-11.2185
▁Arupärimise	-11.2188
▁loom	-11.2189
▁vahend	-11.219
▁maini	-11.2191
▁eetika	-11.2193
▁endaga	-11.2202
park	-11.2204
▁energeetika	-11.2205
▁alanud	-11.2205
▁minut	-11.2205
▁Tol	-11.2209
▁tagasisidet	-11.2211
▁vähenema	-11.2212
võrk	-11.2214
üksus	-11.2216
▁ühelgi	-11.2217
öödunud	-11.2217
▁SKAIS	-11.2218
▁ebaõiglus	-11.2218
▁läbipaistev	-11.2218
▁ettekujutus	-11.2218
▁Jällegi	-11.2222
▁kallima	-11.2222
▁võtmes	-11.2223
▁analüüsitud	-11.2223
▁juhtimine	-11.2223
▁juriidiliste	-11.2225
▁kiirem	-11.2226
▁järgmises	-11.2226
▁kuritegevuse	-11.2226
▁tehnilised	-11.223
▁võimeka	-11.2233
▁täidavad	-11.2234
▁kontakti	-11.2236
▁katteks	-11.2236
▁tuld	-11.2237
▁nimetab	-11.2239
▁akti	-11.2239
▁majanduslikku	-11.2241
eelmise	-11.2244
ion	-11.2244
▁lihtsama	-11.2248
▁lenda	-11.2248
▁mäletame	-11.2249
▁autonoomia	-11.2254
▁11,	-11.2254
▁defineeri	-11.2256
▁toetaja	-11.2259
▁seisundi	-11.2259
▁kallale	-11.226
▁jätkuks	-11.2261
▁ähvarda	-11.2262
▁menetleja	-11.2263
▁plaanib	-11.2265
▁peaasjalikult	-11.2271
▁miljoneid	-11.2273
▁leevenda	-11.2273
▁piire	-11.2274
▁Eelmine	-11.2276
▁kokkuhoiu	-11.2276
▁Mitme	-11.2276
▁tähelepanek	-11.2277
▁lihtsustatud	-11.2278
▁haridusministri	-11.2278
ühistu	-11.228
▁päevakorrast	-11.2281
strateegiat	-11.2281
▁tagasiside	-11.2282
200	-11.2283
kõ	-11.2284
▁Euroopasse	-11.2285
▁tegutsemise	-11.2285
igu	-11.2286
▁vestlus	-11.2287
▁ohvri	-11.2288
▁hääletab	-11.2289
programm	-11.2293
▁kär	-11.2295
tootmise	-11.2298
rve	-11.2298
▁Mõnes	-11.2299
▁osalemine	-11.2299
keskused	-11.2302
▁vähemus	-11.2312
olukorras	-11.2312
▁tänaste	-11.2317
▁jõuka	-11.232
▁suhkru	-11.2322
▁päästekomando	-11.2323
nimõiguste	-11.2325
▁PRIA	-11.2325
▁lammuta	-11.2325
▁eriarstiabi	-11.2326
▁Arvan	-11.2327
▁kaasamine	-11.2331
väeteenistuse	-11.2333
▁tervitatav	-11.2333
▁Sõ	-11.2334
▁mõistlikud	-11.2334
▁tollal	-11.2334
info	-11.2337
▁vastutama	-11.2341
▁eeldame	-11.2342
▁keskuste	-11.2342
▁ammendava	-11.2345
Praegu	-11.2345
üritus	-11.2346
▁suurusega	-11.2346
▁arutades	-11.2347
piirangu	-11.2348
▁kasutamiseks	-11.235
▁hambaravi	-11.2354
▁soodustuse	-11.2354
▁kaitseministri	-11.2354
riigis	-11.2355
▁liigi	-11.2358
tusest	-11.2359
▁operatsioonil	-11.2366
lastele	-11.2372
▁kehtivate	-11.2375
toodete	-11.2377
järg	-11.2377
▁Olukord	-11.238
▁markeeri	-11.238
▁seltskond	-11.238
▁moment	-11.238
▁kodulehel	-11.238
▁valituks	-11.2381
▁or	-11.2381
▁vastuvõtu	-11.2381
▁möönan	-11.2381
▁nägemus	-11.2386
▁toetusrühma	-11.2387
▁otsusta	-11.2387
▁katsu	-11.2391
▁märgata	-11.2392
▁jäätmete	-11.2393
▁registreerida	-11.2395
▁Andrei	-11.2398
▁sõitma	-11.2399
▁saamist	-11.2402
▁Partsi	-11.2405
▁määratle	-11.2407
TA	-11.2411
ühendus	-11.2411
Teiseks	-11.2411
▁tänava	-11.2411
▁pii	-11.2414
sugune	-11.2415
▁täpsustuse	-11.2416
▁prioriteete	-11.2422
▁baasil	-11.2423
▁ambitsioonika	-11.2425
▁põhiseadusvasta	-11.2426
▁teistsugust	-11.2426
▁avaldamise	-11.2428
▁kaitsevõime	-11.2432
▁tõstetud	-11.2434
▁VII	-11.2434
▁Tänu	-11.2434
▁Padar	-11.2435
▁veerand	-11.2435
kursus	-11.2436
▁saamine	-11.2438
int	-11.2438
▁tutvustama	-11.2439
▁senine	-11.244
▁Lo	-11.244
▁paljudest	-11.2442
▁staatus	-11.2443
erakond	-11.2446
▁Venemaalt	-11.2446
▁õpilasi	-11.2448
▁ainukene	-11.245
▁piirmäära	-11.245
▁tõusis	-11.2451
▁liiklusseaduse	-11.2452
▁ratsionaalse	-11.2452
▁küsivad	-11.2454
▁mõttega	-11.2461
▁vajalike	-11.2463
tsükli	-11.2464
▁sotsiaalsed	-11.2464
▁valitsusliidu	-11.2466
▁vedaja	-11.2466
▁tuhandete	-11.2467
▁Oudekki	-11.2474
▁fikseeri	-11.2475
organisatsioon	-11.2477
▁graafiku	-11.248
▁trassi	-11.248
▁lahkumise	-11.2482
▁vaimu	-11.2484
mudeli	-11.2487
▁veterinaar	-11.2489
▁Päevakord	-11.2489
▁stabiilse	-11.2489
▁säärane	-11.2489
▁esmatasandi	-11.249
eurose	-11.249
▁jagama	-11.2494
▁sõnavõttude	-11.2495
▁lähemale	-11.2497
▁võrdleme	-11.2498
▁SA	-11.25
ip	-11.2501
▁karistada	-11.2502
▁Viimasel	-11.2504
▁lõpetas	-11.2508
▁võistlus	-11.2509
▁õpib	-11.2509
▁laena	-11.251
Juhataja	-11.251
▁Afganistani	-11.251
Lõpetuseks	-11.2511
Arno	-11.2511
Auväärt	-11.2511
▁kõrgemad	-11.2511
▁planeeringu	-11.2512
▁arvestatav	-11.2513
▁ametnikke	-11.2518
▁mõjuga	-11.2519
▁sisene	-11.2522
▁valikut	-11.2522
▁hinnatakse	-11.2524
▁kolmandate	-11.2525
▁tuleksid	-11.2528
▁vabariigi	-11.2529
dokument	-11.2531
▁kattu	-11.2532
Sotsiaalkomisjon	-11.2532
▁Savisaare	-11.2535
▁tulenev	-11.2537
▁maakondade	-11.2539
▁traditsioonilis	-11.254
▁põhiõiguste	-11.2543
▁Parlament	-11.2545
▁Kõiv	-11.2545
▁õieti	-11.2545
▁Linde	-11.2545
▁tarbeks	-11.2545
▁rikkus	-11.2545
▁Asja	-11.2546
▁rahvasaadikute	-11.2547
▁perspektiiv	-11.2547
▁rikutud	-11.2549
▁iseseisvuse	-11.255
▁maksustamine	-11.2552
▁eluaasta	-11.2554
▁kordades	-11.2555
tasin	-11.2555
▁arusaamist	-11.2556
▁kohtuotsus	-11.2561
▁optimistlik	-11.2563
ange	-11.2564
▁märkuse	-11.2567
▁käiku	-11.257
▁õpet	-11.257
▁valitsemis	-11.2576
▁traditsiooni	-11.2577
▁täieliku	-11.2583
▁jumala	-11.2583
▁suhetes	-11.2584
Hääle	-11.2585
▁rahvusvahelised	-11.2585
▁küsisid	-11.259
▁saadi	-11.2596
▁narko	-11.2597
▁lubaduste	-11.2599
▁Kinnisvara	-11.26
▁dividende	-11.26
▁kümneminutilist	-11.26
▁tõlke	-11.26
▁võrdlemisi	-11.2601
▁kättesaadavaks	-11.2601
▁Praegusel	-11.2603
iimi	-11.2604
▁õigusega	-11.2605
▁laevad	-11.2605
▁Soo	-11.2605
▁Bre	-11.2607
▁puudujääk	-11.2607
▁väe	-11.2607
▁suurde	-11.261
▁kuuleme	-11.2611
▁eksisteerib	-11.2612
valimised	-11.2614
▁põhjalikku	-11.2615
▁päevakorral	-11.2618
Viru	-11.2618
▁õpetamise	-11.262
▁tehingu	-11.2621
▁Jo	-11.2621
▁arvestab	-11.2625
▁reservid	-11.2627
vabaduse	-11.2629
päraselt	-11.2631
▁näpuga	-11.2635
teadus	-11.2635
▁majandusaasta	-11.2636
▁Hä	-11.2638
▁täpsema	-11.2638
▁sisemise	-11.2639
▁mured	-11.2639
▁paiguta	-11.2641
▁liita	-11.2644
▁muutused	-11.2645
▁Muidu	-11.2648
▁märki	-11.2649
jah	-11.2656
▁Väino	-11.2656
▁november	-11.2656
▁direktori	-11.2664
▁käsitles	-11.2664
▁kadu	-11.2664
▁naabrite	-11.2665
▁ühtlusta	-11.2667
▁sõnastatud	-11.2667
▁abiks	-11.267
▁väljamakse	-11.267
▁lapsetoetust	-11.2671
rsi	-11.2672
▁keskenduda	-11.2675
▁miinuses	-11.2676
▁kolmapäevast	-11.2678
▁võrdsus	-11.2679
▁probleemidest	-11.2682
normi	-11.2683
▁raskem	-11.2684
▁Istung	-11.2685
▁pankroti	-11.2685
▁hindamine	-11.2686
▁operatsioonide	-11.2688
▁visiooni	-11.2689
▁Nendel	-11.269
▁analüüside	-11.269
▁poliitilises	-11.2695
olukord	-11.2697
Sa	-11.2698
kohtunik	-11.27
▁tõsiseid	-11.2701
▁osalusega	-11.2702
▁prognoosida	-11.2703
▁sissetulekud	-11.2706
▁analüüsima	-11.2707
▁teades	-11.2707
▁istungile	-11.2709
▁hektari	-11.2709
▁tehnilisi	-11.2712
▁võltsi	-11.2712
▁hukku	-11.2712
▁vastastikuse	-11.2712
▁läbivaatamise	-11.2712
▁nutika	-11.2713
▁OÜ	-11.2713
▁Pikhofi	-11.2715
▁sellistel	-11.2716
▁vastasid	-11.2716
▁and	-11.2716
politseinik	-11.2716
▁kahepoolse	-11.2717
▁sügise	-11.272
▁tempo	-11.2721
▁ruumis	-11.2721
▁konventsiooniga	-11.2722
▁kaudselt	-11.2725
▁nimetati	-11.2727
kal	-11.2729
muudatus	-11.273
kaaslaste	-11.273
▁kaamera	-11.2731
▁ühiskondliku	-11.2734
▁tugevama	-11.2735
▁ülesannet	-11.2735
▁Krimmi	-11.2736
▁seaduslik	-11.2737
▁kasutamata	-11.2739
▁teisipäevast	-11.2743
▁põhjuseid	-11.2744
iguskomisjon	-11.2745
gruppide	-11.2748
▁reforme	-11.2749
▁Otsuse	-11.275
ria	-11.2751
▁lõhk	-11.2752
▁võidu	-11.2756
▁tulubaas	-11.2757
▁protsessid	-11.2759
ras	-11.276
▁teadusministri	-11.2762
▁sotsiaalsete	-11.2762
nõuded	-11.2764
▁pensionifondide	-11.2764
▁asuta	-11.2765
▁kutsunud	-11.2766
komitee	-11.2768
▁kahelda	-11.2769
▁elanikke	-11.277
võim	-11.2772
▁sissetulekuga	-11.2775
▁toetu	-11.2778
▁SE	-11.2779
järgult	-11.278
▁kümnenda	-11.2781
▁remondi	-11.2783
▁akt	-11.2784
▁soodsama	-11.2784
▁meele	-11.2785
▁summade	-11.2785
▁pank	-11.2788
ülesanne	-11.2789
ulenevalt	-11.279
▁Tiina	-11.279
▁riikidel	-11.2792
▁ah	-11.2792
▁valmistada	-11.2792
Tartu	-11.2793
▁kannatanu	-11.2796
keele	-11.2797
▁130	-11.2798
küla	-11.2798
▁mõjud	-11.2801
▁haldamise	-11.2802
▁äärmus	-11.281
▁ühenda	-11.281
▁ilmselge	-11.2811
▁kergem	-11.2814
▁kaheks	-11.2819
▁rikas	-11.2821
▁Ku	-11.2824
▁spetsialist	-11.2825
▁optimaalne	-11.2825
▁suhtu	-11.2826
▁soodus	-11.2826
▁juhata	-11.2827
▁riskide	-11.2827
▁vähese	-11.2827
▁kerkinud	-11.2828
▁üheksanda	-11.2828
▁Ilma	-11.2829
▁mahuka	-11.2831
▁lähemal	-11.2833
▁hädaolukorra	-11.2834
▁hääled	-11.2834
▁algatamise	-11.2834
suur	-11.2836
▁Har	-11.2836
▁arendamine	-11.2841
▁Laari	-11.2842
▁Adamsi	-11.2845
▁muresid	-11.2845
▁tasku	-11.2845
▁istuvad	-11.2847
▁pikkuse	-11.2852
▁hoolda	-11.2852
nõude	-11.2854
Komisjoni	-11.2858
▁esimesest	-11.2859
▁rünnaku	-11.286
▁väiksemaks	-11.286
▁voorus	-11.2861
▁kehtivat	-11.2866
▁garanteeri	-11.2868
▁sellekohase	-11.2868
▁kao	-11.2869
▁liiguta	-11.2869
▁ühendust	-11.2869
▁Imre	-11.2871
▁memorandumi	-11.2872
▁III	-11.2873
▁avaldusi	-11.2874
▁Mi	-11.2875
▁Nendest	-11.2876
▁tulenevate	-11.2877
▁ülal	-11.2879
▁kõrgkooli	-11.2879
▁käitumis	-11.288
kuju	-11.2881
▁Jõgeva	-11.2883
▁minnes	-11.2883
▁Välja	-11.2883
▁säärase	-11.2883
▁Teisisõnu	-11.2883
▁Riigikogul	-11.2883
▁ülesandeks	-11.2883
▁sünnijärgse	-11.2883
▁vältel	-11.2884
▁lisavahendeid	-11.2885
▁teadvusta	-11.2886
▁Põhiseaduse	-11.2886
▁laudadel	-11.2887
õhu	-11.2888
▁tasuvus	-11.2889
▁kauge	-11.2892
▁Küsiti	-11.2892
▁meenutada	-11.2893
▁helistab	-11.2893
Ü	-11.2894
▁asjale	-11.29
▁lisatakse	-11.29
▁olematu	-11.2901
▁juurdepääsu	-11.2902
▁mõtlevad	-11.2903
▁Liina	-11.2905
▁pikkus	-11.2905
▁väärika	-11.2909
▁teemadega	-11.2911
▁õppelaenu	-11.2913
▁väljapoole	-11.2913
kvalifitseeritud	-11.2913
▁puudutanud	-11.2916
▁Esimesena	-11.2916
▁toome	-11.292
▁tehtava	-11.2921
▁juhtkond	-11.2924
▁kohtumenetluse	-11.2924
▁tihe	-11.2925
▁edenda	-11.2927
▁käsitlus	-11.2928
man	-11.2929
▁valijad	-11.2932
jal	-11.2934
▁sümpaatne	-11.294
▁aastakümneid	-11.294
▁erimärgistatu	-11.294
▁suletud	-11.294
▁toimivad	-11.2942
▁maksukoormust	-11.2944
jat	-11.2945
lugu	-11.2946
▁täiendatakse	-11.2948
tajad	-11.2948
vahelise	-11.2951
▁asendusliikme	-11.2952
tulemus	-11.2954
▁Teiste	-11.2954
▁tunnustan	-11.2954
▁etapp	-11.2954
▁kasvada	-11.2959
▁esindajaid	-11.2959
▁nimetame	-11.296
▁saabunud	-11.296
puudus	-11.2961
▁rahasta	-11.2963
▁170	-11.2964
▁valib	-11.2964
▁kinnitavad	-11.2965
▁liitlas	-11.2965
▁Talviku	-11.2965
▁ühinenud	-11.2967
partei	-11.2967
▁usalduse	-11.2968
▁ulatus	-11.297
▁materjalide	-11.2972
▁looda	-11.2973
▁teele	-11.2976
▁otsustest	-11.2976
▁protseduurilise	-11.298
▁rahvuslik	-11.2983
▁Kur	-11.2983
▁avab	-11.2986
▁eemale	-11.2987
▁Mitmed	-11.2992
▁rõõmusta	-11.2997
▁repliik	-11.2998
▁elektrienergia	-11.2999
▁miinimumpalga	-11.2999
▁hii	-11.2999
▁inflatsiooni	-11.3001
▁näitajad	-11.3001
▁rumal	-11.3004
▁Vastuse	-11.3006
▁suurendatakse	-11.3009
▁tutvunud	-11.301
▁nimetama	-11.301
▁omanikud	-11.301
▁erineb	-11.3012
tulek	-11.3012
▁Kõigi	-11.3013
▁otsustatakse	-11.3016
▁lähed	-11.3018
▁toetamiseks	-11.3018
▁külma	-11.3019
haigla	-11.3022
▁huvigruppide	-11.3024
toodangu	-11.3025
kivi	-11.3028
jale	-11.3034
▁vältimise	-11.3035
▁lubati	-11.3035
▁Heid	-11.3035
▁vähendamiseks	-11.3035
▁Mali	-11.3036
▁Kõikide	-11.3043
liikide	-11.3046
ood	-11.3048
▁meeldiv	-11.3049
ce	-11.3053
palk	-11.3053
▁naabri	-11.3054
▁turgude	-11.3055
▁kande	-11.3059
▁kohalikus	-11.3059
▁uuel	-11.306
▁vande	-11.3062
▁salata	-11.3067
▁peadirektori	-11.3068
▁ohutu	-11.3071
▁maksmist	-11.3072
▁päevaks	-11.3072
▁selgitus	-11.3073
▁volitused	-11.3074
▁mõningate	-11.3075
▁peaministrina	-11.3075
Lauli	-11.3077
▁võrdluse	-11.3077
▁merendus	-11.3077
▁arvestame	-11.3077
▁stabiilsuse	-11.3078
demokraatlik	-11.3078
võimsus	-11.3079
tarbija	-11.308
▁kolle	-11.3083
▁praegusest	-11.3083
▁õnnetu	-11.3083
▁Saaremaal	-11.3083
pakk	-11.3084
▁Ammase	-11.3085
▁sotsid	-11.3085
▁proportsiooni	-11.3086
▁karja	-11.3086
▁joon	-11.3086
▁vaevalt	-11.3087
▁partnerid	-11.3087
▁kõnepuldist	-11.3088
▁arvude	-11.3091
põlve	-11.3091
▁mõningad	-11.3097
▁Nimetat	-11.3098
▁inimestelt	-11.3099
tasemel	-11.3101
▁selgem	-11.3102
all	-11.3105
▁kõrvu	-11.3109
form	-11.3114
kriisi	-11.3114
▁Ungari	-11.3114
▁tulles	-11.3114
▁Sepp	-11.3115
▁lõpetuseks	-11.3115
▁raiska	-11.3115
▁Lätti	-11.3115
▁rahakoti	-11.3115
▁korraldamine	-11.3115
▁kohtlemine	-11.3115
▁migratsiooni	-11.3115
▁omandireformi	-11.3115
▁ammendatud	-11.3117
▁osutunud	-11.3118
▁pelgalt	-11.3119
▁toru	-11.312
▁levita	-11.312
andmed	-11.312
▁arvutus	-11.3121
▁lülitada	-11.3122
▁langetatud	-11.3123
atud	-11.3123
▁Sõna	-11.3124
▁ohusta	-11.3124
▁maksukoormuse	-11.3125
▁seotu	-11.3125
▁päästa	-11.3127
▁vastupidise	-11.3128
▁õnnestus	-11.3132
▁teostada	-11.3135
▁Kon	-11.3136
▁panust	-11.3136
▁haru	-11.3137
▁funktsioone	-11.3138
▁vaesus	-11.3138
▁meenuta	-11.3138
▁tehtavate	-11.314
▁laiemas	-11.3141
▁antava	-11.3141
▁nimega	-11.3146
▁kinnitust	-11.3146
▁pensionärid	-11.3149
▁tagasihoidliku	-11.3149
▁kontrollib	-11.3151
▁pöörama	-11.3152
▁Selliste	-11.3155
▁pikas	-11.3161
▁kaitseb	-11.3166
▁arutamiseks	-11.3167
▁nõusoleku	-11.3169
▁valdav	-11.3172
▁ERR	-11.3173
▁asetäitja	-11.3173
▁sanktsioone	-11.3173
▁tänulik	-11.3174
▁Kuhu	-11.3174
▁tavapärane	-11.3175
▁harva	-11.3175
▁saadeti	-11.3175
▁odavama	-11.3175
▁hääletamis	-11.3175
▁arusaamad	-11.3176
likuks	-11.3177
▁ilmunud	-11.3177
▁Lang	-11.3178
▁lähemalt	-11.3182
▁tõestada	-11.3184
▁arvele	-11.3184
▁jõudude	-11.3184
▁sõnastada	-11.3186
ruumis	-11.3188
▁Ühel	-11.3188
ohu	-11.3189
▁kaotavad	-11.3191
väli	-11.3192
▁alga	-11.3197
kaitseminister	-11.3198
Ra	-11.3199
▁lisatasu	-11.32
▁rahalised	-11.3201
▁väheneks	-11.3201
komisjonil	-11.3202
▁põllumajanduses	-11.3202
▁järelduse	-11.3203
▁hilja	-11.3204
▁väiteid	-11.3207
▁hüvitamise	-11.3207
stan	-11.321
▁loomi	-11.3211
▁liikmele	-11.3213
▁korraldaja	-11.3213
▁reaalset	-11.3218
▁ühtset	-11.3218
▁Vitsut	-11.322
▁vastutada	-11.3223
partner	-11.3224
▁suurusjärk	-11.3226
▁internetis	-11.3228
▁taheta	-11.323
uuringute	-11.3232
▁tõstnud	-11.3233
▁järeldada	-11.3233
▁Nord	-11.3234
pakett	-11.3235
▁toode	-11.3238
▁maksuamet	-11.3239
▁väärtusi	-11.324
▁põhjendused	-11.3241
▁ilmus	-11.3242
▁Ratasele	-11.3242
andja	-11.3245
▁tugevam	-11.3245
▁tühistada	-11.3247
▁neljapäeval	-11.3248
▁arvutada	-11.3249
põhist	-11.3253
▁sündmus	-11.3254
▁määras	-11.3258
▁variante	-11.3258
datud	-11.3259
▁novembris	-11.326
koormuse	-11.326
▁õigusriik	-11.326
▁energiat	-11.3262
tasite	-11.3262
▁õiget	-11.3265
▁teistesse	-11.3273
▁plaanide	-11.3274
▁väärtuse	-11.3278
▁puudumise	-11.328
son	-11.328
▁sõnastuses	-11.3282
▁reservi	-11.3289
▁täiskasvanute	-11.329
▁algse	-11.329
▁arvust	-11.3291
▁ammendumiseni	-11.3292
▁ebaõiglane	-11.3292
▁pakkumine	-11.3292
▁valimislubadus	-11.3292
▁mitmesugused	-11.3292
▁abivajaja	-11.3292
▁koolitoidu	-11.3293
▁põhikirja	-11.3295
▁avalikud	-11.3297
▁teadmised	-11.3297
▁kehv	-11.3299
▁arvutused	-11.3299
▁Täiesti	-11.3301
pilet	-11.3302
▁14%	-11.3302
▁tundnud	-11.3304
▁Sihtasutuse	-11.3305
▁liitunud	-11.3305
▁auk	-11.3306
valitsus	-11.3312
▁igaühe	-11.3313
▁tunnustus	-11.3315
▁tehnilist	-11.3316
▁ühendada	-11.3317
▁Koda	-11.3319
▁Proua	-11.332
▁tõlgendus	-11.3321
Mailis	-11.3323
▁pet	-11.3326
▁teavet	-11.3328
▁teenistuses	-11.3329
tunnistus	-11.3343
▁hinnangud	-11.3348
▁Parlamentaarse	-11.3352
▁ainsa	-11.3352
▁tõsteti	-11.3352
▁moraali	-11.3352
▁elatisraha	-11.3353
kaart	-11.3354
▁Võimalik	-11.3355
▁tööjõudu	-11.3357
▁riigihanke	-11.3358
▁ajalooline	-11.336
▁Milleks	-11.3361
▁106	-11.3361
▁hinnangute	-11.3365
▁võõra	-11.3369
▁kolleegidel	-11.337
▁lahendamist	-11.337
▁tulene	-11.3379
▁Aja	-11.3379
▁liitumis	-11.338
▁õppimise	-11.3381
▁maksmata	-11.3382
▁osutus	-11.3386
▁grupp	-11.3386
▁idapiiri	-11.3388
▁kohtutäituri	-11.339
▁sõnastust	-11.3392
▁õhus	-11.3394
endid	-11.3395
▁adekvaatse	-11.3398
▁rollis	-11.3399
vaheline	-11.3401
▁diskuteeri	-11.3403
0%	-11.3404
delt	-11.3408
▁olekski	-11.3412
▁lähitulevikus	-11.3412
▁vaatevinklist	-11.3412
▁hakatud	-11.3412
▁Kohus	-11.3412
▁Kusjuures	-11.3412
▁Tanel	-11.3413
▁raamatukogu	-11.3415
▁pidasin	-11.3416
▁valdkonnaga	-11.3416
▁lepiti	-11.3416
▁tõstatanud	-11.3418
▁organi	-11.3421
▁eaka	-11.3422
▁väitega	-11.3423
▁Milles	-11.3424
▁inimesena	-11.3426
▁käitub	-11.3429
deklaratsioon	-11.3429
▁kaotamine	-11.3431
▁hakkate	-11.3433
▁riigiettevõtete	-11.3435
▁liiki	-11.344
loomade	-11.3444
▁kurja	-11.3447
valitsusliitude	-11.3449
meetmete	-11.3451
▁ääres	-11.3453
▁maksumuse	-11.3459
▁sporti	-11.3463
▁lõiget	-11.3464
ndate	-11.347
oloogia	-11.347
▁kõrged	-11.347
▁Saksa	-11.3471
▁Uskuge	-11.3473
▁komando	-11.3473
▁arutleda	-11.3473
▁Purga	-11.3473
▁Kelle	-11.3476
▁õppetoetuste	-11.3476
▁suveräänsuse	-11.3479
▁seltsi	-11.3479
▁struktuurne	-11.348
▁mineku	-11.3482
▁ringkonna	-11.3482
▁meeldis	-11.3483
▁sammude	-11.3484
▁terav	-11.3485
▁reformide	-11.3486
▁tehniliselt	-11.3494
poliitikaga	-11.3495
▁uuest	-11.3499
▁osaks	-11.3504
▁Tere	-11.3504
▁tagajärgi	-11.3509
▁raamat	-11.3516
ringi	-11.3517
▁puudutasid	-11.3518
rahv	-11.3519
▁eksporti	-11.3519
▁räägiks	-11.3523
▁võlakirjade	-11.3527
sõit	-11.3528
▁tähelepaneku	-11.3528
▁kri	-11.3532
Pa	-11.3532
▁kasvava	-11.3532
▁formuleeri	-11.3532
▁objektide	-11.3532
▁Nõu	-11.3534
Atlandi	-11.3534
▁solidaarse	-11.3534
▁tsentraliseeri	-11.3534
▁katuseraha	-11.3534
▁Lähtu	-11.3534
gramm	-11.3535
▁mineva	-11.3535
▁sure	-11.3535
▁reguleerimise	-11.3535
▁Kar	-11.3535
▁hiljemalt	-11.3538
▁esindajatel	-11.3539
▁hoiame	-11.3541
▁maksustatud	-11.3541
▁Mõne	-11.3542
▁sellistes	-11.3543
▁mainida	-11.3545
▁kehtestati	-11.3546
▁registreerunud	-11.3549
▁tellida	-11.3551
▁kaalutlusõigus	-11.3551
▁programmis	-11.3551
▁tõesta	-11.3552
maade	-11.3553
▁lahendamine	-11.3559
korda	-11.3559
▁vabad	-11.356
▁kümnete	-11.356
▁intervjuu	-11.3561
▁kiirema	-11.3563
koda	-11.3564
▁usaldust	-11.3565
▁andme	-11.3565
▁paralleeli	-11.3565
▁loomiseks	-11.3566
▁kom	-11.3566
tehnoloogia	-11.3567
▁element	-11.3567
▁üksikud	-11.3571
▁180	-11.3571
▁koormuse	-11.3575
▁halvad	-11.3575
▁kevad	-11.3577
▁seegi	-11.3578
▁peta	-11.3581
▁pakkuja	-11.3584
▁taskust	-11.3585
tasid	-11.3587
▁neto	-11.3587
▁kitsa	-11.3588
Ain	-11.3589
▁hilisema	-11.359
kuritegude	-11.3591
▁muutust	-11.3593
▁tõstmist	-11.3595
▁tootlikkus	-11.3595
▁heita	-11.3595
▁saavutus	-11.3595
▁punase	-11.3596
▁asjatundja	-11.3596
▁viidi	-11.3597
▁tugevasti	-11.3597
▁rõhutasin	-11.3599
▁ametkondade	-11.3599
▁arhiivi	-11.3599
▁survet	-11.3601
▁neis	-11.3604
kolle	-11.3606
▁valmistanud	-11.3606
▁ajab	-11.3608
▁veebi	-11.3613
▁tagasimakse	-11.3613
▁kaug	-11.3616
▁täiendavate	-11.3617
▁lisandväärtust	-11.3618
▁tugevad	-11.3622
▁võrgustik	-11.3623
▁augusti	-11.3625
▁usk	-11.3626
▁programmide	-11.3628
▁regulatsioonid	-11.363
listest	-11.363
▁keskse	-11.3631
▁sellisesse	-11.3634
▁aruteludes	-11.3634
▁maale	-11.3636
▁moodi	-11.3637
etri	-11.3638
õpetajate	-11.3638
▁toetatud	-11.3641
▁kõrgemat	-11.3642
▁eelarvele	-11.3644
▁lihtsal	-11.3646
▁liitrit	-11.3649
▁18-	-11.3653
▁Kellel	-11.3655
▁ulatuslik	-11.3656
▁kohapealt	-11.3656
▁Pariisi	-11.3657
▁ühemõtteliselt	-11.3657
▁hoitakse	-11.3657
▁õigusemõistmise	-11.3657
▁vedelkütuse	-11.3657
▁suunis	-11.3659
▁Paul	-11.3661
▁vaikselt	-11.3661
jatel	-11.3662
▁saaja	-11.3663
võimalused	-11.3665
▁kaugusel	-11.3666
▁vanaduspensioni	-11.3668
▁sihtrühma	-11.3669
▁lõpliku	-11.3669
▁vähenemist	-11.367
▁testi	-11.3671
▁ametliku	-11.3672
▁struktuur	-11.3672
▁Iraagi	-11.3672
▁huvidest	-11.3673
▁ilusti	-11.3673
▁Holsmer	-11.3674
▁kõrvalt	-11.3676
tase	-11.3677
▁ajutiselt	-11.3677
▁Ene	-11.3678
▁ulatusliku	-11.368
▁näpu	-11.3681
ca	-11.3681
▁katab	-11.3682
▁ressurss	-11.3682
▁kolleegidele	-11.3683
▁Eerik	-11.3683
▁nimed	-11.3684
▁kaduma	-11.3685
▁rahasumma	-11.3686
direktiivi	-11.3687
uv	-11.3688
▁erakondadele	-11.3688
põhimõte	-11.3692
▁külade	-11.3692
Kuidas	-11.3693
▁Kr	-11.3694
▁Viis	-11.3695
liigi	-11.3695
▁funktsiooni	-11.3697
▁Kreekale	-11.37
ametnike	-11.3703
hääle	-11.3705
▁langetama	-11.3706
▁negatiivset	-11.3711
▁erinevatel	-11.3717
▁kitsenda	-11.3719
▁Trei	-11.3719
▁ostetakse	-11.3719
▁tagamine	-11.3719
haldur	-11.3719
▁Ühest	-11.3721
▁elektriarve	-11.3721
▁aluste	-11.3722
▁asjakohase	-11.3723
▁kü	-11.3725
▁ehitatakse	-11.3726
▁võõrkeel	-11.3728
▁toimiva	-11.3731
▁puudutav	-11.3732
▁seksuaal	-11.3733
▁külje	-11.3734
▁kolmapäeval	-11.3736
▁autori	-11.3738
▁töövõimetus	-11.3739
▁Velman	-11.374
▁allikas	-11.3742
▁olulisemaid	-11.3742
kaaslased	-11.3743
▁kinnitamine	-11.3745
▁lepinguga	-11.3747
▁tegev	-11.3747
kohus	-11.3748
asu	-11.3749
Järvel	-11.375
andmist	-11.3754
Eerik	-11.3755
▁Pomerantsi	-11.3755
▁milliseks	-11.376
vatest	-11.3762
▁süüdistuse	-11.3763
▁teadlikud	-11.377
nes	-11.3772
▁Neljas	-11.3772
▁õiguslikult	-11.3777
eli	-11.3778
▁uudiste	-11.378
▁kuritegu	-11.3781
▁novembriks	-11.3781
▁Küti	-11.3781
▁Rakvere	-11.3781
▁Tihti	-11.3781
▁Kert	-11.3782
▁järgnevad	-11.3782
▁suitsu	-11.3782
▁tasuda	-11.3783
▁gümnaasiumis	-11.3784
võimeline	-11.3784
▁andmebaasi	-11.3784
ens	-11.3785
▁sissetulekut	-11.3793
▁aju	-11.3795
asju	-11.3795
▁jälginud	-11.3795
No	-11.3796
▁täiskasvanu	-11.3797
▁algselt	-11.3798
▁soovitud	-11.38
▁meenu	-11.3801
▁materjale	-11.3803
küsimuste	-11.3809
▁surnud	-11.381
▁eksperte	-11.381
▁registrisse	-11.3811
▁autoriteet	-11.3814
▁soovis	-11.3814
▁temaatikat	-11.3815
▁taotlust	-11.3815
dokumendi	-11.3818
▁kasutas	-11.3819
Kalev	-11.3819
listele	-11.3823
▁otsese	-11.3824
▁kriteeriumide	-11.3826
▁täideta	-11.3826
▁Arv	-11.3827
▁hetkest	-11.3828
asja	-11.3828
▁keelusta	-11.3831
▁nähtav	-11.3833
▁sissetulekute	-11.3834
▁erisus	-11.3837
▁Koalitsiooni	-11.3838
▁väliskaubandus	-11.384
▁küber	-11.3841
▁jaanuaris	-11.3842
▁puude	-11.3843
eldakse	-11.3844
▁Rüütli	-11.3844
▁kukkus	-11.3844
▁korraldatakse	-11.3844
▁igapäevast	-11.3845
▁Klaas	-11.3845
▁Ivari	-11.3849
▁üksmeelselt	-11.3852
▁toimetada	-11.3853
▁kõrgkoolide	-11.3854
▁kutsutakse	-11.3854
▁mõõta	-11.3854
▁töövõtja	-11.3855
▁toimusid	-11.3858
▁muutmisega	-11.3859
▁saajate	-11.3862
▁hoia	-11.3864
▁teravalt	-11.3868
töötuskindlustus	-11.3871
▁paindliku	-11.3873
hku	-11.3873
▁läbinud	-11.3874
▁rääki	-11.3874
▁vajaks	-11.3875
▁kinnituse	-11.3878
▁vigade	-11.388
▁eriarvamus	-11.3881
▁asjus	-11.3883
▁juuniks	-11.3883
▁aluseid	-11.3884
Täna	-11.3887
▁kurt	-11.3892
▁odav	-11.3892
stest	-11.3895
▁aktsiise	-11.3897
▁termini	-11.3898
▁otsustusõigus	-11.3898
▁kvartalis	-11.3899
▁Estonia	-11.39
30	-11.39
▁haiglas	-11.3902
▁bio	-11.3904
▁muudatustest	-11.3904
▁pikaks	-11.3905
▁konkurentsivõim	-11.3907
▁järjekorrad	-11.3907
▁märganud	-11.3908
▁formaat	-11.3908
▁jookide	-11.3908
anske	-11.3908
▁tsiviilkohtu	-11.3908
▁pinna	-11.3908
▁siseturvalisuse	-11.3909
▁Lubage	-11.3909
▁prognooside	-11.3911
▁tõsised	-11.3912
▁keeruka	-11.3916
▁õpiku	-11.3917
▁esmase	-11.3918
▁taotluste	-11.3918
▁Siiski	-11.392
▁märgatavalt	-11.392
tingimusi	-11.392
▁menetleb	-11.3922
partneri	-11.3923
▁käed	-11.3923
saali	-11.3924
▁eurolt	-11.3925
ivse	-11.3925
▁julgeolek	-11.3926
▁aastad	-11.3927
▁maksumuudatuste	-11.3931
kaupa	-11.3931
▁tasand	-11.3932
▁hoolega	-11.3932
▁näo	-11.3935
▁dis	-11.3941
▁olulisema	-11.3943
▁keerulisema	-11.3944
▁järgida	-11.3945
▁Konkreetse	-11.3958
▁termin	-11.3958
▁Eestimaal	-11.396
▁kirjandus	-11.396
▁püsiva	-11.3961
▁arvestata	-11.3961
▁kooskõlastus	-11.3962
▁ringis	-11.3962
analüüsi	-11.3963
▁jääbki	-11.3963
▁kasum	-11.3965
politsei	-11.3967
▁taust	-11.397
jana	-11.397
▁ebamõistlik	-11.3971
▁Hiljuti	-11.3971
▁Tamkivi	-11.3971
▁propageeri	-11.3971
▁usaldusväärse	-11.3971
▁pidev	-11.3972
▁faasis	-11.3972
▁Juhin	-11.3973
▁funktsioonid	-11.3975
▁nõustun	-11.3977
▁hoiata	-11.3982
▁ettevõtjatega	-11.3984
▁reisijate	-11.3985
▁paneks	-11.3985
probleemide	-11.3986
▁kitsas	-11.3987
▁tõlgendada	-11.3991
▁vanu	-11.3993
▁kaasuse	-11.3994
▁paigalda	-11.3996
sisese	-11.3998
▁liikmesriikides	-11.3998
▁iseseisvalt	-11.4
▁kerkis	-11.4
▁kogemust	-11.4001
▁keerulisemaks	-11.4002
▁massi	-11.4005
▁töötajatele	-11.4007
▁arupärimises	-11.4007
▁Palu	-11.4008
Helmen	-11.4011
▁matusetoetuse	-11.4013
▁laekumist	-11.4014
pensioni	-11.4015
▁saavutamise	-11.4015
▁külg	-11.402
▁pal	-11.4024
▁stsenaariumi	-11.4026
▁Tulen	-11.4026
baasi	-11.4027
▁palgata	-11.403
iidi	-11.403
▁rõõmsa	-11.4033
▁sulgemise	-11.4034
▁ajutine	-11.4035
▁puhkudel	-11.4035
▁kuuluma	-11.4035
▁osapool	-11.4036
▁viska	-11.4036
▁Kuni	-11.4037
kohase	-11.4038
üür	-11.404
▁ettepanekutest	-11.4042
▁topeltmaksusta	-11.4042
▁kombeks	-11.4044
▁keelde	-11.4045
tlemine	-11.4045
▁küsisime	-11.4046
iguskantsleri	-11.4047
▁sadade	-11.4048
▁riigikontrolöri	-11.4049
▁vasak	-11.405
▁Anne	-11.405
▁asutusi	-11.405
▁häirib	-11.405
▁sõltuvad	-11.4052
▁ühi	-11.4053
▁suruda	-11.4054
▁ületab	-11.4054
▁arvamusega	-11.4058
▁elanikkond	-11.4059
▁versiooni	-11.406
▁kaevanda	-11.4065
▁koefitsient	-11.4067
▁suurendama	-11.407
▁venekeelsete	-11.4071
kodanik	-11.4075
▁lapsevanem	-11.4078
▁seonduvad	-11.4083
▁tri	-11.4083
ränne	-11.4086
▁taotlusi	-11.4088
▁amet	-11.409
tide	-11.4094
▁konsensust	-11.4094
▁töötava	-11.4094
▁efektiivsem	-11.4095
▁võimude	-11.41
▁Valgevene	-11.41
▁rikkumine	-11.41
▁suudetakse	-11.41
▁käidud	-11.41
▁tunnistan	-11.4101
▁tootlus	-11.4101
▁elukutse	-11.4101
▁2030	-11.4102
▁visiiditasu	-11.4103
▁hinnangulisel	-11.4106
▁vo	-11.4108
▁efektiivse	-11.4109
▁võitluse	-11.411
▁rakendamist	-11.411
▁järeldus	-11.4111
▁rahaliste	-11.4112
▁lärm	-11.4113
▁territoriaalse	-11.4116
▁kindlus	-11.4118
▁huvisid	-11.4119
▁vabastada	-11.4119
▁Lätist	-11.4122
13	-11.4124
▁2006.	-11.4125
▁raamatupidamis	-11.4125
▁munitsipaalkool	-11.4126
▁sõjalisel	-11.4129
▁autod	-11.4134
▁edendamise	-11.4134
situatsioon	-11.4141
▁kahele	-11.4148
▁Arengu	-11.4149
▁maiks	-11.4151
▁pädev	-11.4153
▁majanda	-11.4154
▁900	-11.4155
▁tunnetus	-11.4155
▁vanuses	-11.4156
▁psühholoogi	-11.4157
▁taotlemise	-11.4161
ndeid	-11.4162
▁Mark	-11.4163
▁ülikoolid	-11.4163
▁huviga	-11.4163
▁keemia	-11.4164
▁tsitaat	-11.4165
▁leppima	-11.4165
▁põllumehi	-11.4165
▁Kanada	-11.4165
sjagu	-11.4166
▁eestikeelne	-11.4166
▁probleemidele	-11.4167
▁tegija	-11.4169
▁määramisel	-11.417
▁Päevakorra	-11.417
▁muutumise	-11.4171
pärast	-11.4171
▁alustama	-11.4172
tähe	-11.4173
▁jäätmeseaduse	-11.4174
▁menetletud	-11.4174
▁augustil	-11.4174
▁eeldused	-11.4176
▁hoidu	-11.4178
▁pööranud	-11.418
▁infotunni	-11.418
▁areneb	-11.4181
▁definitsiooni	-11.4182
▁takistab	-11.4183
▁hääletamine	-11.4183
▁erakondi	-11.4184
▁oh	-11.4187
▁abivahendi	-11.4194
▁motivatsioon	-11.4194
ajad	-11.4195
▁individuaalse	-11.4197
sigaret	-11.4199
▁komisjonil	-11.4201
▁193	-11.4201
nõue	-11.4201
▁vastutavad	-11.4203
▁rajamise	-11.4206
▁kaela	-11.4212
▁treenerite	-11.4214
▁ba	-11.4215
▁halvene	-11.4215
▁süsteemiga	-11.4217
▁perele	-11.4217
hüvitise	-11.4218
▁kultuuritöötaja	-11.4219
▁inimesest	-11.4221
▁register	-11.4222
▁vahenditega	-11.4223
50	-11.4224
▁Ansipi	-11.4226
ovi	-11.4227
▁Muuseas	-11.423
▁oodanud	-11.423
▁nendesamade	-11.423
▁sõnavõtusoove	-11.423
▁kustuta	-11.4234
▁trahv	-11.4235
▁saadab	-11.4237
▁regulaarselt	-11.4238
▁langetati	-11.4239
▁saare	-11.424
▁meelel	-11.4241
▁rahvuse	-11.4242
▁Tõnisson	-11.4242
▁kindluse	-11.4243
▁omaosalus	-11.4247
usele	-11.4252
usid	-11.4254
õiguslikku	-11.4254
▁autot	-11.4255
oodi	-11.4255
▁riigilõiv	-11.4257
▁väited	-11.4261
väe	-11.4262
▁teadlikkus	-11.4263
▁teavitus	-11.4265
▁tehniliste	-11.4269
▁liberaal	-11.4272
▁selgu	-11.4272
▁reegli	-11.4272
▁Tiit	-11.4274
▁kohtumistel	-11.4274
õu	-11.4278
▁meenutan	-11.4278
lisel	-11.4278
▁naaber	-11.4279
▁panite	-11.428
astu	-11.4283
spetsialist	-11.4291
▁selgituse	-11.4291
tootja	-11.4292
▁jooksva	-11.4293
▁otsas	-11.4294
▁populaarse	-11.4296
▁revisjoni	-11.4296
▁samasooliste	-11.4296
▁üpris	-11.4296
▁mitmekesisus	-11.4296
▁aruandlus	-11.4296
▁riigikeele	-11.4296
▁akna	-11.4296
▁kohaldamise	-11.4297
▁esimesena	-11.4298
▁andsin	-11.4298
▁võidavad	-11.4298
▁Küprose	-11.4299
▁fookuses	-11.4299
▁solidaarsuse	-11.4301
▁suurenemise	-11.4302
▁koondamis	-11.4304
▁nõua	-11.4307
juhend	-11.4309
▁septembris	-11.4309
tamisse	-11.431
▁üritatakse	-11.431
▁saatus	-11.4314
▁likvideerida	-11.4315
▁meiega	-11.4321
▁lepe	-11.4321
▁vastutav	-11.4321
▁nõutakse	-11.4323
▁elluviimise	-11.4324
▁füüsiliselt	-11.4327
▁valitsemisalas	-11.4328
õiguslik	-11.433
▁odavamaks	-11.4331
▁käsitlevad	-11.4333
amise	-11.4336
▁järjekordse	-11.4339
Erki	-11.434
▁võtme	-11.4342
▁toota	-11.4344
▁oskan	-11.4345
▁julgusta	-11.4347
▁vilja	-11.4347
▁pühendu	-11.4348
▁finantseeri	-11.4351
▁pöörduma	-11.4353
▁teguri	-11.4354
tunne	-11.4355
▁juhtiva	-11.4358
▁Moskva	-11.4362
▁kaasettekandja	-11.4362
▁opereeri	-11.4362
▁aresti	-11.4362
▁Lember	-11.4362
▁saatkonna	-11.4362
▁müüakse	-11.4363
teadlase	-11.4363
▁liht	-11.4365
▁sattu	-11.4366
▁eraldamise	-11.4366
▁sõlminud	-11.4372
▁naaberriigi	-11.4373
▁koostanud	-11.4377
▁Niimoodi	-11.4378
▁prognoosid	-11.4379
▁4000	-11.4381
kül	-11.4382
▁avalikkus	-11.4383
▁sihtasutuste	-11.4383
▁arvuga	-11.4383
▁venita	-11.4384
▁ekspertiisi	-11.4384
▁solidaarsus	-11.4385
▁Veeteed	-11.4386
▁erakorralist	-11.439
lepingut	-11.4391
▁koor	-11.4393
▁väljendus	-11.4395
Kultuurikomisjon	-11.4399
▁mugav	-11.4401
Päevakorra	-11.4401
▁89	-11.4402
▁praegugi	-11.4403
imi	-11.4404
madalapalgaliste	-11.4404
40	-11.4407
Mida	-11.4408
isiku	-11.4408
▁raamatupidamise	-11.4409
▁hoolekande	-11.4409
▁J	-11.4409
▁argumentide	-11.441
▁kuuluv	-11.4411
▁poodi	-11.4411
▁käsitlema	-11.4415
stati	-11.4416
▁ettevalmista	-11.4425
▁Austria	-11.4429
▁ignoreeri	-11.4429
▁radikaalse	-11.4429
▁delegeeri	-11.4429
▁etteheide	-11.4429
▁Iirimaa	-11.4429
▁Ülle	-11.4429
▁lähedaste	-11.4429
▁vaieldamatult	-11.4432
▁lugedes	-11.4434
vahetuse	-11.4435
▁turvaline	-11.4436
▁järgneb	-11.4436
▁rahvusvahelisi	-11.4436
▁riikidesse	-11.4437
▁hoidnud	-11.4438
▁Üld	-11.4438
▁töötas	-11.4439
▁Riigikogusse	-11.4439
▁faktide	-11.444
▁realiseerida	-11.4441
▁vajadused	-11.4442
▁ametikohtade	-11.4445
▁takistada	-11.4448
▁lahkuvad	-11.4449
likus	-11.445
▁kütus	-11.4453
▁pehmelt	-11.4454
▁kaalunud	-11.4454
▁põllumees	-11.4455
määruse	-11.4455
▁vaates	-11.4456
▁toimetulekut	-11.4457
▁Vilja	-11.4457
sport	-11.446
▁pensionäri	-11.446
▁jaanuariks	-11.446
▁pedagoogi	-11.4469
▁jätmise	-11.4469
hääletuse	-11.447
▁halvema	-11.4472
▁ressursid	-11.4473
▁seisa	-11.4473
▁keerulised	-11.4475
kokkuleppe	-11.4476
▁Küsimuste	-11.4477
▁tootmine	-11.448
▁lolli	-11.4481
▁noortel	-11.4482
▁suvalise	-11.4482
▁ministeeriumil	-11.4487
▁hüvitis	-11.4488
▁seisukohaga	-11.449
▁ettevõtlusega	-11.4492
▁liikmetelt	-11.4495
toote	-11.4495
▁2010	-11.4496
▁spetsialiseeru	-11.4496
▁HIV	-11.4496
▁ajalukku	-11.4496
▁tahtis	-11.4496
▁halda	-11.4496
▁jäeti	-11.4497
piirkonna	-11.4498
▁Käi	-11.4498
▁tublisti	-11.4498
▁umb	-11.4498
▁nõudma	-11.4499
▁uurima	-11.4499
▁sõnavõtja	-11.4499
inspektsioon	-11.4499
▁valminud	-11.45
▁kuritegusid	-11.4501
▁alustatud	-11.4502
voolu	-11.4503
▁hindamis	-11.4505
▁vaenu	-11.4506
▁kiirustades	-11.4506
▁tehtavad	-11.4507
▁kuulutada	-11.4507
▁tõsiasja	-11.4508
▁tekkisid	-11.4509
▁lauset	-11.451
▁vähendamist	-11.451
uuringu	-11.4511
▁vesi	-11.4511
▁kindlustada	-11.4513
▁Huvitav	-11.4514
▁lahendamata	-11.4518
60	-11.452
tuseks	-11.4523
▁oktoobriks	-11.4525
▁kõla	-11.4527
▁hinnatõus	-11.4529
▁lähtuvad	-11.4531
▁lubatakse	-11.4531
▁kontseptsioon	-11.4534
rü	-11.4534
▁teadete	-11.4534
▁lasteaedade	-11.4536
▁seonduva	-11.4538
▁regioonis	-11.4539
aastalt	-11.454
▁väljaõpe	-11.454
elus	-11.4541
staabi	-11.4542
Kolm	-11.4544
▁mingisuguste	-11.4544
▁astmelise	-11.4546
▁demokraatlikus	-11.4546
▁annetus	-11.4547
,4%	-11.4548
▁käivitu	-11.4549
▁ülevõtmise	-11.4549
▁usaldusväärsus	-11.4553
▁kärpe	-11.4555
▁ekspert	-11.4556
▁eksida	-11.456
▁tuhanded	-11.4562
▁2014–2020	-11.4564
▁stimuleeri	-11.4564
▁aktuaalse	-11.4564
▁integratsiooni	-11.4564
▁elatustase	-11.4564
▁ravimeid	-11.4564
▁Soosaar	-11.4564
▁ühinemist	-11.4564
▁teehoiu	-11.4565
▁viha	-11.4566
▁vanemapensioni	-11.4568
▁kaasneva	-11.4569
▁nut	-11.4575
▁osapoole	-11.4575
▁koondada	-11.4576
vajaduse	-11.4577
▁kõrgemal	-11.4581
▁suurendamist	-11.4582
▁7%	-11.459
▁toetava	-11.4591
▁lahkuda	-11.4591
▁kohtunikud	-11.4592
▁Valitsusel	-11.4593
▁formaalse	-11.4593
▁vastupidist	-11.4596
▁Pä	-11.4598
▁tuul	-11.4598
▁gümnaasium	-11.46
õpet	-11.4602
mõju	-11.4607
▁kiit	-11.461
hääl	-11.461
kandidaadi	-11.4611
▁vajadusi	-11.4612
▁vastuseisu	-11.4616
▁valijatele	-11.4616
▁lisas	-11.4617
tavus	-11.4617
▁ootused	-11.4617
ool	-11.4619
aluste	-11.4621
▁tühjaks	-11.4622
▁stsenaarium	-11.4623
▁erakooli	-11.4625
alast	-11.4627
Ettepaneku	-11.4629
▁Valimis	-11.4629
tsus	-11.4629
▁sundi	-11.463
▁Julge	-11.4632
▁elutähtsa	-11.4632
▁läbivaatamist	-11.4632
▁Investeerimis	-11.4632
▁otsekohe	-11.4633
▁tööturuteenuste	-11.4633
▁kõrgelt	-11.4635
▁eesmärgist	-11.4636
▁kaudse	-11.4637
▁mindud	-11.4639
▁Kaitseliit	-11.4642
▁soovid	-11.4644
▁siiras	-11.4644
▁tutvustasid	-11.4644
▁riigieksami	-11.4644
▁konkreetsele	-11.4645
▁hääletanud	-11.4646
▁kütteõli	-11.4648
▁teenitud	-11.4649
▁märtsis	-11.4651
valla	-11.4652
organite	-11.4655
▁osapooli	-11.4661
▁inimõigus	-11.4665
▁poliitilisest	-11.4665
▁majandusse	-11.4666
▁väikeses	-11.467
▁sendi	-11.4671
▁vastamist	-11.4673
olukorra	-11.4674
▁vaesema	-11.4676
Veel	-11.4677
und	-11.4678
▁erandid	-11.4679
▁käsk	-11.4681
▁ametiühingu	-11.4693
▁toimingute	-11.4694
▁tuleku	-11.4696
struktuuri	-11.4697
poliitiliste	-11.4699
▁sügav	-11.47
Ühendkuningriigi	-11.47
▁mandri	-11.47
▁vaiki	-11.47
▁loomingu	-11.4701
▁vajaduspõhine	-11.4702
▁võtsin	-11.4702
▁pankrotti	-11.4703
▁Lugupeetavad	-11.4703
metsa	-11.4703
▁väiksemaid	-11.4704
▁Mitu	-11.4704
▁hoogu	-11.4705
▁sarnased	-11.4707
▁lubate	-11.4707
▁summast	-11.4707
▁väärtused	-11.4707
▁informeeritud	-11.4707
▁ületada	-11.471
▁meedet	-11.4711
▁lõpetades	-11.4712
▁veebruar	-11.4714
▁peretoetus	-11.4715
▁minagi	-11.4716
▁detailse	-11.4717
tatav	-11.4719
▁püüa	-11.472
▁kolmandast	-11.4722
ck	-11.4727
▁sünnipäeva	-11.4729
▁elluviimiseks	-11.4729
▁suhtlemise	-11.4733
▁tegevväelase	-11.4733
▁jälgima	-11.4734
▁kevade	-11.4735
▁vaimus	-11.4736
▁saabub	-11.4738
▁juhus	-11.4739
hoo	-11.4741
▁Lõpetuseks	-11.4742
toiming	-11.4745
▁kahtlusi	-11.4745
▁kohtuotsuse	-11.4749
▁täpsed	-11.4749
▁palku	-11.4749
Loomulikult	-11.4749
sõnu	-11.475
▁agressiooni	-11.475
▁tarbijale	-11.475
▁kantsler	-11.4752
▁peadirektor	-11.4754
▁eelistus	-11.4756
▁Ni	-11.4756
▁muretsema	-11.476
vastu	-11.4761
pul	-11.4763
tund	-11.4764
▁6%	-11.4765
Sotsiaal	-11.4767
▁projektid	-11.4767
▁regulatsioone	-11.4767
õpe	-11.4767
▁klassikalise	-11.4769
▁põgene	-11.4769
▁silmakirjalik	-11.4769
▁paremal	-11.477
▁peatükk	-11.4771
võtmist	-11.4771
▁ülejääk	-11.4771
▁otsetoetuste	-11.4773
▁selgitust	-11.4774
▁rumalus	-11.4775
kaid	-11.4776
▁algust	-11.4776
ettevõtjate	-11.4779
▁vabatahtlikku	-11.4781
▁meetod	-11.4781
▁toimuvat	-11.4781
▁tõstmiseks	-11.4782
üüd	-11.4782
▁arupärijad	-11.4783
▁maininud	-11.4784
▁töövõimega	-11.4786
projektide	-11.4786
▁sissejuhatuse	-11.4788
▁positiivsed	-11.4788
▁ootan	-11.4789
▁õppus	-11.4789
▁julgelt	-11.479
▁toimida	-11.4792
▁valmistas	-11.4793
▁160	-11.4796
▁valdava	-11.4797
käik	-11.4797
▁Harjumaa	-11.4798
▁usaldada	-11.4802
▁võimule	-11.4803
▁autosid	-11.4804
▁tulete	-11.4809
omanikke	-11.4809
▁puudumine	-11.481
▁kindlustunnet	-11.4812
▁raskema	-11.4816
▁täpse	-11.4816
▁teadmiseks	-11.4819
▁Vähe	-11.4824
▁õppekeel	-11.4824
▁hääletage	-11.4825
▁rahastatud	-11.4825
▁töörühm	-11.4825
▁aktiivsed	-11.4825
▁Üht	-11.4825
▁alammäära	-11.4827
▁Viljandis	-11.4827
▁poliitikast	-11.4828
▁pidurda	-11.4829
▁metsanduse	-11.4829
▁organ	-11.4833
▁teemale	-11.4838
▁Instituudi	-11.4838
▁kõikvõimalikk	-11.4838
▁sarnast	-11.4838
▁vms	-11.4838
▁saadiku	-11.4839
▁tüli	-11.4839
kohut	-11.484
▁jõustada	-11.4842
▁kanti	-11.4843
▁esitatava	-11.4843
▁ühiskonnast	-11.4845
▁ütlemata	-11.4846
▁198	-11.4846
▁Kõiki	-11.485
▁edendada	-11.485
▁Ü	-11.485
▁hooldaja	-11.4852
▁viitate	-11.4854
▁eriarsti	-11.4863
▁jääksid	-11.4863
teede	-11.4867
▁harju	-11.4872
▁osalemist	-11.4872
▁korteriühistute	-11.4873
pension	-11.4875
aastaseks	-11.4876
25	-11.4879
▁piisavad	-11.488
▁peeta	-11.4881
▁korraldamisel	-11.4882
▁mainisid	-11.4883
alane	-11.4884
▁pettu	-11.4885
laev	-11.4889
▁käimas	-11.4889
▁mõninga	-11.4889
▁töötajat	-11.4895
▁tuttav	-11.4895
▁mainet	-11.4896
menetluses	-11.4897
▁Hanso	-11.4899
stumise	-11.49
▁Las	-11.4901
▁suvi	-11.4904
▁kõrgemate	-11.4906
▁mõlemat	-11.4907
▁üksiku	-11.4908
▁keeld	-11.4908
▁Umbes	-11.4908
▁ruttu	-11.4908
▁säärast	-11.4908
▁vihja	-11.4908
▁Rahvaerakond	-11.4909
▁kärbi	-11.4909
▁Raudtee	-11.4909
▁keskpanga	-11.491
▁kvoot	-11.4911
▁andsime	-11.4911
▁veebruaris	-11.4911
häire	-11.4913
▁arvestatava	-11.4916
▁kukub	-11.4917
▁väljastamise	-11.492
▁Otsustati	-11.4922
▁dividendide	-11.4922
▁ametkond	-11.4926
▁väärtust	-11.4926
stamata	-11.4927
▁katma	-11.4927
▁Hästi	-11.4928
▁õiguses	-11.4929
▁Läänemaa	-11.4932
▁Ülejäänu	-11.4932
▁kümmekond	-11.4933
▁loogilise	-11.4934
▁halduskoormust	-11.4937
teed	-11.4938
▁arvatakse	-11.4938
▁pääseda	-11.4939
▁kogumise	-11.494
▁vajadusel	-11.4942
▁eksin	-11.4942
▁aktsia	-11.4945
▁roo	-11.4945
▁seisne	-11.4947
konverentsil	-11.4949
▁87	-11.4951
▁lapsel	-11.4951
▁valgusta	-11.4952
▁luge	-11.4952
▁mõistlikku	-11.4952
▁kasutata	-11.4952
kuul	-11.4958
kvaliteet	-11.496
▁sildista	-11.4965
▁vastuvõetav	-11.4966
▁seonduvat	-11.4966
▁etapi	-11.4967
▁Venemaale	-11.4969
▁riku	-11.4973
▁tellija	-11.4974
▁remonti	-11.4976
▁eas	-11.4976
▁elementaarne	-11.4979
▁kõikvõimalike	-11.4979
▁lemmik	-11.4979
▁suhelnud	-11.4979
▁unistus	-11.4979
▁Tekib	-11.4979
▁lennundus	-11.4979
▁pikendamise	-11.4984
▁peamised	-11.4984
▁kommentaar	-11.4985
▁soodustust	-11.4988
▁üleandmine	-11.4988
▁Ütle	-11.4988
▁seaduseelnõude	-11.4989
▁üllata	-11.4989
▁konkreetsemalt	-11.4989
sead	-11.499
▁efekti	-11.4991
▁maksupoliitilis	-11.4993
▁kirjutatakse	-11.4993
▁kuuga	-11.4994
▁0,8	-11.4994
▁kutseõppeasutus	-11.4994
▁langetab	-11.4994
▁kogukondade	-11.4994
▁kavatseme	-11.4996
▁asutamise	-11.4997
▁Julgeolekunõuko	-11.4999
▁arusaadavalt	-11.5
▁Kohtume	-11.5001
▁muudeta	-11.5001
kahjude	-11.5002
Eks	-11.5002
▁lähema	-11.5003
▁Eleringi	-11.5003
▁sellistest	-11.5005
▁tegutseva	-11.5007
▁veebruariks	-11.501
▁seitsmes	-11.5012
firmad	-11.5014
▁kõnelema	-11.5014
▁kutsekooli	-11.5014
▁koori	-11.5018
▁ajakirjanik	-11.502
▁prioriteetse	-11.502
▁ametite	-11.502
▁survesta	-11.5023
▁sigade	-11.5024
▁üldises	-11.5026
▁erandite	-11.5027
▁Konservatiiv	-11.5029
▁töötatakse	-11.503
▁Liibanonis	-11.503
laua	-11.5035
▁teistega	-11.5035
inants	-11.5036
▁tasa	-11.5036
▁ostab	-11.5037
ministeeriumilt	-11.5047
▁Kümne	-11.5049
▁Novikov	-11.505
▁heakskiidu	-11.505
▁välismaalase	-11.505
▁Otse	-11.505
▁külva	-11.505
▁segamini	-11.505
nõudeid	-11.5051
▁tehingute	-11.5052
▁teostamise	-11.5055
▁veenda	-11.5057
▁arengule	-11.5057
skeemi	-11.5058
▁Je	-11.506
▁põhjustatud	-11.5063
▁süüa	-11.5063
▁kõrvaldada	-11.5063
▁uudiseid	-11.5064
▁planeerinud	-11.5064
▁tehtaks	-11.5065
▁olukorrale	-11.5066
▁uskuge	-11.5068
▁detaile	-11.5068
▁panustavad	-11.507
▁maakonda	-11.5071
▁säilitamise	-11.5071
▁otsime	-11.5072
▁püsib	-11.5072
▁kaitseväelase	-11.5073
ivi	-11.5075
▁aruteludel	-11.5077
▁otsustame	-11.5078
▁tagasihoidlik	-11.5079
▁visioon	-11.5079
▁kuri	-11.5084
▁tegeles	-11.5086
▁sisulised	-11.5087
▁vastase	-11.5087
▁suuremates	-11.5087
kanali	-11.509
▁vaimse	-11.5092
▁omavahelise	-11.5093
▁olemus	-11.5095
▁ettevõtetel	-11.5096
▁ootuse	-11.5097
▁toetamist	-11.51
▁faktid	-11.5101
▁muudaks	-11.5102
▁kavatsus	-11.5104
▁kõnealu	-11.5106
▁ambitsiooni	-11.5106
▁parlamendil	-11.5107
▁maksimaalse	-11.5107
▁hääletasid	-11.5111
▁rong	-11.5113
▁mõistetud	-11.5115
kümmend	-11.5118
▁140	-11.5119
▁sahtli	-11.5121
▁Andke	-11.5121
▁pikemas	-11.5121
▁nupu	-11.5122
▁kehtestama	-11.5122
▁võtmine	-11.5123
mehi	-11.5123
▁sunniraha	-11.5123
▁debatis	-11.5124
▁Karel	-11.5124
▁märkisite	-11.5125
▁tervishoidu	-11.5125
paiga	-11.5127
▁esitasite	-11.5131
▁vere	-11.5132
▁küpse	-11.5132
▁soodsa	-11.5132
▁detailide	-11.5133
▁jõ	-11.5133
▁väljendas	-11.5134
▁laen	-11.5134
▁pensionifondi	-11.5135
▁toiminud	-11.5135
▁teisipäeval	-11.5136
▁protsesse	-11.5137
▁kohtumise	-11.5139
▁autor	-11.5139
▁metsas	-11.514
▁kuritegevus	-11.514
▁kabineti	-11.514
▁Seejuures	-11.514
▁Madise	-11.5141
lastel	-11.5141
▁vajaduspõhist	-11.5142
kem	-11.5145
keskuses	-11.5146
▁põhjuse	-11.5146
▁nüanss	-11.5147
▁aktiivsus	-11.5148
▁Pere	-11.5148
▁käesoleval	-11.515
ainete	-11.5156
▁Mingi	-11.5157
▁arvanud	-11.5162
▁puhu	-11.5162
▁tunnete	-11.5165
meetmeid	-11.5165
▁vanematele	-11.5168
▁20%-	-11.5169
▁huvihariduse	-11.5169
teaduste	-11.517
▁ostmise	-11.517
▁tagatise	-11.5172
▁tõendi	-11.5174
▁kompetentsus	-11.5176
kohe	-11.5182
Järgmisena	-11.5184
▁tooteid	-11.5185
▁Ikka	-11.5186
▁Ernitsa	-11.5187
lagu	-11.519
▁Hannes	-11.5193
▁Prantsuse	-11.5193
▁okei	-11.5193
▁televisiooni	-11.5193
▁Sikkut	-11.5193
▁turistide	-11.5193
▁välisesindus	-11.5194
▁referendumi	-11.5194
▁Põhiline	-11.5197
▁hektarit	-11.5197
▁haakub	-11.5202
▁99	-11.5202
▁eelarveaasta	-11.5204
▁katke	-11.5204
▁Niisuguse	-11.5205
▁lapsetoetuste	-11.5205
▁töid	-11.5205
tootjad	-11.5207
▁kinnita	-11.5207
▁apteekide	-11.5208
▁vabastamise	-11.5209
▁vähendatud	-11.5211
▁teadmata	-11.5214
▁Keskkonnaameti	-11.5215
rvishoiuteenuse	-11.5216
▁kaotame	-11.5216
▁raskusi	-11.5218
▁mängida	-11.5218
▁kaalutud	-11.522
tagastus	-11.5222
▁oskuse	-11.5224
▁paindlikkust	-11.5229
haridust	-11.523
▁väikseid	-11.5233
▁toetasid	-11.5233
▁erilise	-11.5235
uju	-11.5237
▁lubage	-11.5238
▁normide	-11.5239
▁piiramise	-11.5239
tuur	-11.524
▁pensionisüsteem	-11.5241
aktsiisi	-11.5242
▁akadeemia	-11.5242
▁töötus	-11.5243
▁maksaks	-11.5247
▁ebaseadusliku	-11.5248
tum	-11.5249
▁ulatu	-11.5249
▁koo	-11.5249
pinna	-11.525
seaduste	-11.525
▁eluaseme	-11.525
▁tekke	-11.5251
▁haridusliku	-11.5256
▁kuku	-11.5257
▁integreeri	-11.526
▁asula	-11.5263
▁registris	-11.5263
proportsionaalne	-11.5266
▁emotsionaalne	-11.5266
▁iseseisev	-11.5266
▁rikkunud	-11.5266
▁trüki	-11.5266
▁vägisi	-11.5266
▁vedada	-11.5266
▁väljendu	-11.5266
▁Kaitsevägi	-11.5266
▁sõnumit	-11.5268
▁kahtlusta	-11.527
▁motiveeritud	-11.5274
▁põhiseadusest	-11.5274
▁iseloomusta	-11.5275
▁reeglina	-11.5275
▁paigutada	-11.5278
▁88	-11.5278
▁Asu	-11.5279
▁kriminaalasja	-11.5282
ism	-11.5282
▁koolidele	-11.5283
andmeid	-11.5283
rida	-11.5284
▁advokatuuri	-11.5284
▁loobunud	-11.5285
▁esmane	-11.5285
▁töölt	-11.5285
▁suurendame	-11.5286
▁tütar	-11.5287
▁kutsub	-11.5287
▁Nimeta	-11.5287
▁põllumehe	-11.529
▁terrorismi	-11.5292
▁keeruliseks	-11.5294
▁Malis	-11.53
▁Erakond	-11.5302
kriis	-11.5305
lanikkonnakaitse	-11.5307
▁valitseva	-11.5308
võimekus	-11.5309
hoiu	-11.531
masina	-11.5312
▁Jaa	-11.5314
korras	-11.5318
▁Kreekas	-11.5318
▁järve	-11.5318
▁lahkuma	-11.5323
▁tugevat	-11.5324
▁esimeste	-11.5324
▁seaduseelnõusid	-11.5326
suund	-11.5328
▁erasektoris	-11.5328
püstitus	-11.5329
▁õnnelik	-11.5331
▁teos	-11.5338
▁Tahaks	-11.5338
▁vähi	-11.5339
▁uurimus	-11.5339
▁lubadused	-11.5339
saamise	-11.5341
▁Ette	-11.5342
▁tuuma	-11.5343
▁vältimatu	-11.5343
▁tasakaalustatud	-11.5344
ilma	-11.5345
▁peakski	-11.5346
▁keerulise	-11.5349
linn	-11.5349
▁kavatsetakse	-11.535
▁haritud	-11.535
▁osutama	-11.535
▁osapooltega	-11.5352
▁ülalpidamise	-11.5354
radi	-11.5356
▁elanikuga	-11.5359
toetusi	-11.536
▁valed	-11.5363
▁emotsiooni	-11.5363
▁toimunu	-11.5366
▁pangandus	-11.5366
▁asjaoma	-11.5375
arm	-11.5377
▁viimases	-11.5379
▁kujutab	-11.5379
▁rahuliku	-11.5381
▁kommerts	-11.5383
▁elanikest	-11.5385
▁tekkiva	-11.5385
▁põhimõtetest	-11.5388
▁raamides	-11.5389
juhtumi	-11.5395
▁tundide	-11.5397
Seaduseelnõu	-11.5397
Esiteks	-11.5397
▁minimaalse	-11.5398
erakonnad	-11.5399
▁reisija	-11.5402
vo	-11.5403
▁norm	-11.5405
▁motiiv	-11.5407
▁lühenda	-11.5407
küsimusi	-11.5411
▁sotsiaalseid	-11.5411
▁Horvaatia	-11.5412
▁Kübarsepa	-11.5412
▁elementaarse	-11.5412
▁kirjeldus	-11.5412
▁manipuleeri	-11.5412
▁järgmisi	-11.5412
▁kurssi	-11.5412
▁rahakott	-11.5412
▁kilo	-11.5412
sigarettide	-11.5412
▁ajanud	-11.5413
▁juhuslikult	-11.5413
▁Riina	-11.5414
▁politseiametnik	-11.5416
▁silmad	-11.5417
▁pääst	-11.5417
▁panda	-11.5419
▁baasi	-11.542
▁lähtutakse	-11.5422
▁õigusakti	-11.5423
▁ürituse	-11.5423
positsioon	-11.5424
▁mingitel	-11.5426
▁esitajate	-11.5426
▁Langi	-11.5426
panek	-11.5429
▁hakkaksid	-11.5429
▁mudelit	-11.5431
▁lõpetame	-11.5431
▁edastada	-11.5434
▁teiegi	-11.5437
▁tihedalt	-11.5437
▁astub	-11.5439
▁juhtuks	-11.5441
▁kaitsepolitsei	-11.5442
▁jätkama	-11.5443
▁finantseerimise	-11.5449
▁jagan	-11.545
▁majanduskriisi	-11.5452
▁loomisel	-11.5453
▁väljendit	-11.5456
▁1,2	-11.5457
▁korralikku	-11.5458
▁Kahju	-11.5458
▁pingutus	-11.5459
edu	-11.546
arvestus	-11.5462
▁täiskasvanud	-11.547
▁analüüsis	-11.5471
Need	-11.5472
Kolmas	-11.5472
ndatakse	-11.5474
▁Enam	-11.5476
▁Brüsseli	-11.5477
▁klient	-11.5479
▁Piiri	-11.5482
▁ideede	-11.5483
▁Kohalike	-11.5485
▁Aastal	-11.5486
▁Hiljem	-11.5486
▁Pilvre	-11.5486
▁lugupeetav	-11.5486
▁hätta	-11.5486
▁Sinu	-11.5486
▁sajaprotsendili	-11.5486
▁pindala	-11.5486
▁Luigase	-11.549
▁kohtumisi	-11.5493
▁jookseb	-11.5494
▁kokkuvõtte	-11.5494
▁lugemisega	-11.5496
▁sisendi	-11.5497
▁mõjutus	-11.5497
▁Niisugune	-11.5497
▁tõeliselt	-11.5497
▁aktsiisitõus	-11.5497
▁reformiga	-11.5497
▁nendelt	-11.5498
▁pensionäre	-11.5498
▁erinevused	-11.55
▁aktsiisid	-11.55
entide	-11.55
▁esitamine	-11.5502
▁kurjategija	-11.5504
▁tugineb	-11.5504
▁administratiiv	-11.5506
▁laieneb	-11.5511
▁eriline	-11.5513
norm	-11.5516
kraadi	-11.5517
▁väiksed	-11.5518
dokumentide	-11.5519
▁edaspidigi	-11.5525
▁võimalustest	-11.5525
kol	-11.5526
▁Näi	-11.5527
▁vastavate	-11.5529
▁laene	-11.5529
▁1990	-11.5529
ants	-11.553
▁ühendamise	-11.5533
▁võt	-11.5535
▁hangete	-11.5537
▁loete	-11.5537
keskkonda	-11.5538
▁vastutustundetu	-11.5539
▁käsitluse	-11.554
▁tõusma	-11.5544
▁Laar	-11.5544
▁ennetamise	-11.5545
korraldust	-11.5545
▁elektrit	-11.5545
▁töösse	-11.5547
▁liikmesriik	-11.5549
▁haaku	-11.5552
▁lasteaed	-11.5553
auk	-11.5555
adupärast	-11.5555
▁likvideerimise	-11.5556
▁aprill	-11.5559
▁Toona	-11.5559
▁täpsusega	-11.5561
▁kohtulahend	-11.5561
▁homo	-11.5561
▁käsutuses	-11.5561
▁mõnu	-11.5561
▁võlgade	-11.5562
▁mõeldakse	-11.5562
▁meetri	-11.5563
▁voor	-11.5565
▁nuppu	-11.5565
▁käive	-11.5567
▁sinnapoole	-11.5568
▁esitades	-11.5571
▁kaetakse	-11.5571
▁eelarvenõukogu	-11.5573
aruanne	-11.5574
stumine	-11.5574
residentide	-11.5574
▁koondu	-11.5575
▁kaevandus	-11.5578
▁pikkade	-11.5579
▁valiti	-11.5581
▁eraisikute	-11.5581
kaubandus	-11.5582
▁fakte	-11.5583
▁esines	-11.5583
▁tervet	-11.5585
▁sissejuhatuses	-11.5587
tavaks	-11.5587
▁ootamatu	-11.5588
▁teavitamise	-11.559
▁olemasolevat	-11.559
▁Sadam	-11.5591
▁süüdistada	-11.5592
kest	-11.5594
▁maksmiseks	-11.5596
▁maaomaniku	-11.5597
sigareti	-11.5598
▁maju	-11.56
▁millegagi	-11.5601
▁lubade	-11.5602
▁targad	-11.5602
▁vabakaubandus	-11.5604
maht	-11.5605
▁lähete	-11.5605
▁kla	-11.5605
▁usume	-11.5608
ään	-11.5609
▁kiida	-11.5612
▁rakendamisega	-11.5615
▁ehitamiseks	-11.5617
võimu	-11.5618
▁sidus	-11.5619
▁Michali	-11.562
karistus	-11.5621
rina	-11.5622
▁tasud	-11.5623
▁Haukanõmme	-11.5624
koolis	-11.5629
▁küsitluse	-11.5631
▁teisigi	-11.5633
▁erasektor	-11.5634
▁Praeguseks	-11.5635
▁Stream	-11.5636
▁erakorraline	-11.5636
▁streigi	-11.5636
▁tegeldud	-11.5636
▁super	-11.5637
valimi	-11.5637
▁pidasite	-11.5638
▁suhtun	-11.5639
▁mõttekas	-11.564
▁kuulsite	-11.5641
▁struktuurses	-11.5642
▁lõikest	-11.5644
19	-11.5644
▁arusaamine	-11.5644
▁vaheline	-11.5647
▁ilmnenud	-11.5647
▁taeva	-11.5648
▁kaotatakse	-11.5651
▁sihtasutus	-11.5652
▁formaalselt	-11.5652
▁situatsioonis	-11.5656
▁kõrgel	-11.5657
NR	-11.5662
▁arengufond	-11.5663
▁ülla	-11.5664
▁avaldab	-11.5665
▁millistes	-11.5666
▁määrad	-11.5674
mudel	-11.5675
▁takistusi	-11.5675
kaudu	-11.5678
▁väliskomisjon	-11.5679
▁Urbo	-11.5679
▁laiendamise	-11.5681
▁ühistransport	-11.5685
▁Esi	-11.5685
▁sisuliste	-11.5689
▁kujund	-11.569
▁südamest	-11.569
▁tasumise	-11.5691
▁kavandatava	-11.5692
hetsusväärselt	-11.5693
▁seisukohtadega	-11.5694
▁sünnitus	-11.5694
▁kolleege	-11.5694
▁õppetöö	-11.5695
▁kandidaati	-11.5697
Liina	-11.5699
Miks	-11.57
pol	-11.5702
ehitus	-11.5703
▁diplom	-11.5706
▁etapis	-11.5706
▁halvem	-11.5706
▁tänaseni	-11.5708
▁arvestamise	-11.571
▁talvel	-11.5711
▁Akkermann	-11.5712
▁Viimsi	-11.5712
▁kiidetud	-11.5712
▁mõelge	-11.5712
▁istungisaalis	-11.5712
▁oodatakse	-11.5712
▁kandnud	-11.5712
▁Talve	-11.5714
▁erialade	-11.5715
▁kolmandikku	-11.5717
▁sätet	-11.5718
▁registrite	-11.5719
▁selgitage	-11.572
bo	-11.572
▁mullu	-11.5721
▁suurenemine	-11.5722
▁kümnendi	-11.5724
▁ühtlustada	-11.5724
▁defitsiidi	-11.5724
▁õiguskorra	-11.5725
▁ridade	-11.5725
reservi	-11.5726
▁ennustada	-11.5726
▁tunnustatud	-11.5726
▁sajandil	-11.5727
▁kasutuses	-11.5728
▁tegutsenud	-11.5728
▁arendustegevus	-11.5729
Ko	-11.5733
▁majapidamis	-11.5735
▁tööstuse	-11.5735
õiguslike	-11.5738
kaubanduse	-11.5739
▁toimiv	-11.574
▁kriteerium	-11.5741
▁küsitlus	-11.5743
▁spetsialisti	-11.5743
▁instrument	-11.5744
▁küsimusena	-11.5745
töid	-11.5746
▁ajaloost	-11.5746
nar	-11.5747
▁loovad	-11.575
järgu	-11.5751
▁peatada	-11.5751
▁heli	-11.5752
▁tegelemine	-11.5755
▁direktiiviga	-11.5756
vahend	-11.576
võimaluste	-11.576
▁kaotus	-11.576
▁aruannet	-11.5761
▁tervishoius	-11.5763
▁tükki	-11.5765
▁kalandus	-11.5766
saaja	-11.5767
▁95	-11.5767
ikuid	-11.5771
▁hindu	-11.5773
▁luure	-11.5774
ülesande	-11.5776
põhimõtte	-11.5776
▁vallavanema	-11.5776
▁kätes	-11.5776
tulundusühingu	-11.5777
▁tabelis	-11.5777
ametnikud	-11.5778
▁jõulise	-11.5779
▁jahimeeste	-11.578
▁meilt	-11.5784
▁kabinetis	-11.5786
Komisjonis	-11.5786
▁subjekt	-11.5786
põgenik	-11.5787
reisi	-11.5787
asutusi	-11.5788
amine	-11.5788
▁MKM	-11.5788
▁ülioluline	-11.5788
▁rahulolematu	-11.5788
▁väikesaarte	-11.5788
▁nentis	-11.5788
▁vahva	-11.5788
▁turvalisust	-11.5789
▁Keskpanga	-11.5789
▁säiliks	-11.579
▁hetkeks	-11.579
▁väidavad	-11.5794
▁kogemuste	-11.5795
▁pärand	-11.5797
▁oludes	-11.5801
probleemi	-11.5801
▁oskuste	-11.5801
▁otsitakse	-11.5802
▁prioriteediks	-11.5803
▁ebaseaduslikult	-11.5803
▁kontakt	-11.5806
▁kompetents	-11.5806
▁kulutatud	-11.5807
▁korrastada	-11.5808
▁sekundit	-11.5809
▁erinevates	-11.5809
▁katmiseks	-11.5812
▁erinevusi	-11.5815
▁esindavad	-11.5815
suhe	-11.5816
▁märts	-11.5817
antud	-11.5819
▁isikutel	-11.582
▁halvemaks	-11.5821
▁põhiseaduslik	-11.5821
▁mõeldav	-11.5821
▁leiaks	-11.5825
▁esimeest	-11.5825
▁arutelule	-11.5828
töötaja	-11.5828
▁viidata	-11.5832
listel	-11.5838
taotlus	-11.5839
▁ühend	-11.5842
▁demograafilise	-11.5843
▁aineid	-11.5844
▁järje	-11.5844
▁Kõigil	-11.5845
▁kohtuda	-11.5848
puude	-11.5852
▁optimeeri	-11.5852
▁muudel	-11.5856
Selge	-11.5857
▁samasugused	-11.5857
▁Harju	-11.5859
▁teenindus	-11.586
▁Par	-11.5861
▁Jõu	-11.5865
▁Schengeni	-11.5865
▁peegelda	-11.5865
▁pretsedent	-11.5865
▁olulisus	-11.5865
▁RKAS	-11.5865
▁uhkus	-11.5866
▁2003.	-11.5867
▁seonduv	-11.5869
▁lõhesta	-11.587
▁Prantsusmaal	-11.5871
OR	-11.5873
▁määrust	-11.5873
▁euroliidu	-11.5873
▁reaktsioon	-11.5874
▁advokaadi	-11.5877
▁planeerimise	-11.5878
▁halduskohtu	-11.5878
▁Nendele	-11.5879
▁valmisolekut	-11.588
▁sulgeda	-11.5882
tuvad	-11.5884
▁kallid	-11.5884
▁Saan	-11.5884
▁tasakaalust	-11.5885
▁oi	-11.5885
▁suurele	-11.5886
▁lubadust	-11.5889
▁kasutati	-11.589
▁häma	-11.5891
▁üritame	-11.5892
▁Alustan	-11.5893
▁kindlustunne	-11.5895
▁Madisoni	-11.5896
pudeli	-11.5901
▁lõikele	-11.5904
▁koolist	-11.5904
▁sanktsiooni	-11.5905
▁õigusest	-11.5905
▁koosolek	-11.5907
▁tänapäevase	-11.5907
poliitiliselt	-11.5909
reeglite	-11.591
▁esindajat	-11.5912
▁normid	-11.5913
▁erakonnas	-11.592
rma	-11.5922
▁parimat	-11.5923
▁oktoobris	-11.5923
▁pensionitõusu	-11.5926
▁rist	-11.5928
▁kohtud	-11.593
büroo	-11.5931
▁vallad	-11.5933
sada	-11.5933
▁Hetkel	-11.5934
▁suurene	-11.5936
▁ajama	-11.594
▁põlvkond	-11.5942
▁ingliskeelse	-11.5943
▁Põltsamaa	-11.5943
▁Skandinaavia	-11.5943
▁kesklinna	-11.5944
▁Aktsiisi	-11.5944
▁kohtuvaidlus	-11.5944
▁rahvatervise	-11.5944
▁tekkimise	-11.5944
▁Auto	-11.5944
▁majutusasutuste	-11.5945
tegemise	-11.5945
▁veenva	-11.5947
▁investeerima	-11.5948
▁1999.	-11.5949
▁keskne	-11.595
▁edene	-11.595
seisundi	-11.5951
▁Lõppkokkuvõttes	-11.5953
▁efektiivsemalt	-11.5954
▁Ott	-11.5955
▁satub	-11.5955
▁maakond	-11.5955
▁keelu	-11.5955
▁pakutava	-11.5955
▁tendentsi	-11.5955
▁vähendanud	-11.5956
▁paralleel	-11.5956
▁komisjonipoolse	-11.5957
▁uuris	-11.5957
▁funktsioon	-11.596
▁määrama	-11.5962
▁salaja	-11.5965
▁lõpetab	-11.5967
▁toomise	-11.5968
▁juristid	-11.5972
▁hinnast	-11.5973
▁elas	-11.5975
▁Ühes	-11.5976
▁preemia	-11.598
petaja	-11.5982
gümnaasiumi	-11.5983
kasvatuse	-11.5984
▁ühiku	-11.5984
▁dokumendis	-11.5984
▁jõustu	-11.5988
▁pagulasi	-11.5994
▁Komisjonile	-11.5995
▁paremas	-11.5997
▁Omavalitsuste	-11.6
▁korraldas	-11.6003
▁hamba	-11.6003
▁rangema	-11.6005
▁piirides	-11.6008
faasis	-11.601
Rein	-11.601
Tegelikult	-11.601
surma	-11.6013
lisse	-11.6013
▁otsimise	-11.6017
▁liigse	-11.6018
▁mõjuanalüüsi	-11.6019
▁riigiettevõtte	-11.602
▁süda	-11.602
▁diplomaat	-11.602
▁Rõhutan	-11.6021
▁adekvaatne	-11.6021
▁legaalse	-11.6021
▁tahtsid	-11.6021
▁doteeri	-11.6021
▁mõistma	-11.6021
▁leppisime	-11.6021
▁uuringut	-11.6027
▁võtmata	-11.603
▁õiglus	-11.6031
▁karistatud	-11.6031
▁seadusmuudatust	-11.6032
▁tuleval	-11.6033
▁kvalifikatsioon	-11.6033
▁küps	-11.6033
▁Kajar	-11.6034
▁ehitamine	-11.6035
eerimist	-11.6035
▁taotlenud	-11.6035
▁Milliste	-11.6035
tevõtlusminister	-11.6038
▁kantsleri	-11.604
▁nähtava	-11.6041
▁ülejäägis	-11.6043
▁sunnib	-11.6044
▁eraldatava	-11.6045
▁puudutavate	-11.6047
▁uhked	-11.6047
▁vastamiseks	-11.6047
üksuse	-11.6048
▁kaalumise	-11.6048
▁proovime	-11.6048
▁Nei	-11.6049
▁ühistransporti	-11.6049
▁tagamisel	-11.605
▁pilguga	-11.6052
▁kulutama	-11.6052
▁protseduurid	-11.6055
▁Ministeerium	-11.6056
laad	-11.6056
▁nimetuse	-11.6057
▁erikomisjon	-11.6059
rbi	-11.606
päi	-11.6061
▁pisike	-11.6066
kaaslase	-11.6068
▁Laaneots	-11.607
▁reaalsed	-11.6072
▁tegelikkus	-11.6073
sõ	-11.6073
▁peaministrit	-11.6075
▁elatis	-11.6075
▁liikmetega	-11.6085
▁käiva	-11.6086
▁tõu	-11.6087
▁teave	-11.6087
▁kuulunud	-11.6088
Tallinna	-11.6089
kaarti	-11.609
▁jälitus	-11.6092
▁pereliikme	-11.6093
▁ütled	-11.6095
▁000-	-11.6097
▁lõpe	-11.6098
▁homse	-11.6099
▁immigrantide	-11.6099
▁lükati	-11.6099
▁keelekümblus	-11.6099
▁nõrga	-11.6099
▁üksjagu	-11.6099
▁Jents	-11.61
▁ühetaolise	-11.61
▁kokkuvõte	-11.61
▁kohelda	-11.61
▁2009	-11.61
▁arvatavasti	-11.61
▁Lukas	-11.6101
▁langes	-11.6101
▁kuludest	-11.6101
▁subjektiivse	-11.6102
▁dubleeri	-11.6102
▁juristi	-11.6103
▁peitub	-11.6106
▁lõpust	-11.6106
▁eesmärkidest	-11.6107
▁järjekord	-11.6108
▁kirjeldasin	-11.6108
▁palusin	-11.6108
▁meenub	-11.6111
ühe	-11.6111
▁ühingu	-11.6112
▁isikul	-11.6112
▁Järvamaa	-11.6113
▁ratifitseerinud	-11.6114
▁sõjaline	-11.6115
▁majade	-11.6115
liikme	-11.6116
▁määruste	-11.6117
▁tootjad	-11.6117
▁tugevus	-11.6117
eerima	-11.6119
▁kaasus	-11.612
▁jälgivad	-11.612
inimese	-11.6121
▁karistust	-11.6126
▁iseloomuga	-11.6127
▁esinemise	-11.6128
▁seadustest	-11.6129
▁lepi	-11.6132
võtja	-11.6133
▁kümnes	-11.6141
▁Neile	-11.6143
▁lapsest	-11.6143
▁aprillist	-11.6144
▁tegevusele	-11.6155
▁jätkusuutliku	-11.6156
▁eksam	-11.6156
▁Euroopast	-11.6157
▁osutas	-11.6163
▁luges	-11.6165
▁nüansse	-11.6166
Teie	-11.617
▁rahastust	-11.6171
▁punktiga	-11.6173
▁pühenda	-11.6173
mur	-11.6174
▁heakskiitmise	-11.6178
▁PBK	-11.6179
▁ametivande	-11.6179
▁kvalifitseeru	-11.6179
▁Arengufondi	-11.6179
▁soodustusi	-11.618
▁Riia	-11.618
▁jt	-11.618
keskkonnas	-11.6182
▁loetle	-11.6182
▁Karis	-11.6183
▁Täpsusta	-11.6183
▁ebaõnnestunud	-11.6183
organi	-11.6184
▁kelleltki	-11.6185
▁järjekordne	-11.6186
Hääl	-11.6187
▁osutatakse	-11.6189
▁võetava	-11.6192
kolme	-11.6192
▁vin	-11.6195
▁leviku	-11.6195
▁pööratud	-11.6196
▁ravimiseaduse	-11.6197
▁lao	-11.6197
▁pakun	-11.6198
▁kannavad	-11.6199
▁rakendamisel	-11.6199
▁väljatöötamisel	-11.62
▁mängib	-11.6206
▁lubamatu	-11.6207
▁raskus	-11.6209
▁Tuleta	-11.6209
▁üksikuid	-11.6214
▁lahendame	-11.6214
▁kartus	-11.6217
planeering	-11.6218
▁siga	-11.6218
palju	-11.622
▁sobilik	-11.6222
uli	-11.6223
▁enamikul	-11.6224
▁üllatav	-11.6225
▁ülikool	-11.6225
▁meeskond	-11.6228
▁leidmise	-11.6232
▁kaitseväelased	-11.6236
▁liitri	-11.6236
▁olemasolevaid	-11.6237
▁arenguid	-11.6238
▁meetmetega	-11.6239
rühm	-11.6244
Ettekandjale	-11.625
▁klassis	-11.6253
▁Kaubandus	-11.6256
▁senist	-11.6257
▁maaelukomisjon	-11.6257
hisuhtevägivalla	-11.6259
▁ETV	-11.6259
▁Siiamaani	-11.6259
▁akadeemilise	-11.6259
▁üldjoontes	-11.6259
▁meeleolu	-11.6259
▁Puudu	-11.626
▁abiellu	-11.626
▁staabiohvitseri	-11.6262
▁kantakse	-11.6262
▁valimisliidu	-11.6263
▁Olgem	-11.6263
▁tööõnnetus	-11.6263
▁maksustatakse	-11.6265
▁massiliselt	-11.6266
▁lõplikku	-11.6268
▁võimete	-11.6269
▁teade	-11.6276
mer	-11.6277
demokraatia	-11.6277
teaduse	-11.628
▁teavitada	-11.6283
▁Ne	-11.6283
▁3,5	-11.6287
▁läbirääkimis	-11.6288
▁lahkub	-11.629
▁ametkonna	-11.6291
▁laialt	-11.6294
▁tasandile	-11.6296
▁huvitavad	-11.6296
partnerid	-11.6298
▁Metsa	-11.6298
inimesed	-11.63
põhisus	-11.6301
▁maavalitsused	-11.6301
küsimustes	-11.6304
▁ülikoolis	-11.6306
▁positsioonil	-11.6307
▁raamistik	-11.6309
▁mitmest	-11.6309
▁tõhusa	-11.6311
▁küsitav	-11.6312
▁samast	-11.6313
▁hoiaku	-11.6314
▁kirg	-11.6315
▁vead	-11.6315
▁kiiruse	-11.6316
▁aprillis	-11.6317
▁hinnanud	-11.632
▁juhti	-11.6327
▁prognoose	-11.6329
▁lülita	-11.633
(	-11.6331
▁õpetama	-11.6332
▁Pärnus	-11.6332
kütus	-11.6334
▁sotsiaalset	-11.6334
võtluskeskkonna	-11.6334
seda	-11.6336
▁metalli	-11.6339
▁Innove	-11.6339
▁Kremli	-11.6339
▁Linnavolikogu	-11.6339
▁Rummo	-11.6339
▁eestkõneleja	-11.6339
▁esialgne	-11.6339
▁haamrilööki	-11.6339
▁optimaalse	-11.6339
▁Kumb	-11.634
ndla	-11.634
▁lehekülje	-11.634
▁Vanema	-11.6341
▁katastroofi	-11.6341
▁rõhutasite	-11.6342
▁põhimõttelisi	-11.6343
lõik	-11.6346
▁toetudes	-11.6347
▁Tulemus	-11.6348
▁ennist	-11.6351
▁direktiivide	-11.6353
▁kuupäev	-11.6354
▁mõtles	-11.6356
▁vähesed	-11.6357
▁Lühidalt	-11.6357
▁adekvaatselt	-11.6358
▁lipp	-11.6359
lehekülg	-11.6361
▁taktika	-11.6362
stikuregistri	-11.6363
▁taustaga	-11.6364
laps	-11.6366
▁standardi	-11.6366
ühingu	-11.6369
▁kuude	-11.637
▁päevade	-11.637
▁kapo	-11.6372
▁pinnal	-11.6372
▁lausega	-11.6374
▁kutsus	-11.6374
▁traditsioon	-11.6374
▁vastandu	-11.6378
▁tegevusluba	-11.6378
▁luban	-11.638
▁pidasid	-11.6381
▁elanikkonnast	-11.6383
▁piiritle	-11.6384
4%	-11.6384
▁andmisel	-11.6386
▁hirmus	-11.6386
kesed	-11.6388
▁tähtajad	-11.639
▁realistlik	-11.6394
▁normaalselt	-11.6394
▁esindajatele	-11.6394
▁häälega	-11.6399
ohutus	-11.64
▁Üldin	-11.64
reklaami	-11.6401
▁sektorit	-11.6402
▁hotelli	-11.6405
▁küsijale	-11.6405
▁järgima	-11.641
▁turult	-11.6411
Heimar	-11.6413
käigu	-11.6416
▁Maanteeamet	-11.6416
▁Looma	-11.6418
▁loogikat	-11.6419
▁Võime	-11.6419
täit	-11.6419
▁loosungi	-11.642
▁Jaapani	-11.6421
▁sealhulgas	-11.6421
▁nihku	-11.6421
▁põgenike	-11.6421
▁klaari	-11.6421
▁tulge	-11.6421
▁korrastamise	-11.6421
▁Luige	-11.6421
▁omista	-11.6422
▁välismaale	-11.6422
▁Abi	-11.6422
11	-11.6423
▁juristide	-11.6423
▁igapäevane	-11.6424
▁saadame	-11.6425
ringkondade	-11.6425
ES	-11.6427
▁toodetud	-11.6428
▁Niipalju	-11.6429
eluvararegistri	-11.6429
▁murd	-11.6431
▁lähtus	-11.6434
▁tellitud	-11.6434
▁õiguskaitse	-11.6434
▁asendatakse	-11.6435
▁tunnustust	-11.6436
▁teeksid	-11.6436
▁põhjendusi	-11.6436
▁otsustega	-11.6436
▁suurendanud	-11.6438
▁magusa	-11.6438
▁fi	-11.6441
▁tähtsaks	-11.6441
▁soost	-11.6442
▁efektiivsemaks	-11.6444
▁reformid	-11.6445
▁Pri	-11.6446
pri	-11.6447
▁VI	-11.6448
▁avame	-11.6451
▁kohusta	-11.6452
▁oleku	-11.6452
▁ajastu	-11.6452
▁valmistama	-11.6455
▁juuruta	-11.6458
▁võrdsusta	-11.6458
▁õpilastele	-11.6463
istlik	-11.6463
▁Toomast	-11.6467
posti	-11.6467
astmes	-11.647
▁presidenti	-11.6475
▁aastapäeva	-11.6476
▁jagame	-11.6476
▁põhilised	-11.6478
enesestmõistetav	-11.648
reeglid	-11.6483
▁hull	-11.6483
Järgmise	-11.6487
▁isikust	-11.649
▁lisaküsimus	-11.6493
▁pensioniea	-11.6493
▁juhtiv	-11.6496
▁Mikseri	-11.6498
vaade	-11.6498
▁kodakondsuseta	-11.65
▁puudutada	-11.6501
küsimused	-11.6502
▁leppis	-11.6502
▁mälestus	-11.6503
▁populaarne	-11.6503
▁ratsionaalne	-11.6503
▁Jürgenstein	-11.6503
▁inimarengu	-11.6503
▁Pikamäe	-11.6503
▁täidetakse	-11.6506
▁0,2	-11.6509
▁juunis	-11.651
▁etteheiteid	-11.6513
▁vanemaid	-11.6513
▁ametiühingute	-11.6513
▁osutu	-11.6515
▁diskuteerida	-11.6515
programmide	-11.6515
▁inimlik	-11.6517
▁kehtestamist	-11.6517
▁kontrollimise	-11.6519
▁alandamine	-11.652
▁õpetatakse	-11.652
riiki	-11.652
▁terviklikku	-11.652
▁tooni	-11.6522
▁talve	-11.6523
▁jaotamise	-11.6524
▁ministreid	-11.6524
▁kaheksas	-11.6525
salu	-11.6525
▁Lisa	-11.6526
▁artiklit	-11.6526
▁kiirenda	-11.6527
ustavaks	-11.6527
▁kvaliteetne	-11.6528
▁Mingit	-11.6531
▁ministriks	-11.6531
▁tunnistanud	-11.6535
▁ostja	-11.6537
▁erisusi	-11.6538
▁kehvem	-11.654
▁süsteemse	-11.6541
▁naaberriikide	-11.6541
▁räägid	-11.6541
▁aseta	-11.6542
▁Ühendriikides	-11.655
▁niisugusel	-11.6551
▁saadava	-11.6551
hin	-11.6554
▁suurimaid	-11.6556
▁maksupettuste	-11.6556
▁täpsustama	-11.6565
▁leevendamise	-11.6568
▁tervislik	-11.6569
▁Tartusse	-11.657
▁jagab	-11.657
▁eluga	-11.6572
▁komponendi	-11.6572
▁peret	-11.6576
kaal	-11.6576
protsendi	-11.6579
paketi	-11.6579
Arto	-11.6579
▁põl	-11.6583
▁perearstid	-11.6584
kultuur	-11.6584
▁saar	-11.6585
▁Mõelge	-11.6585
▁elektrooniline	-11.6585
▁spekulatsioon	-11.6585
▁vihje	-11.6585
▁Võrreld	-11.6585
▁hiline	-11.6585
▁tubakatoodete	-11.6586
▁varusta	-11.6586
▁piiriülese	-11.6587
▁taguse	-11.6587
▁saatmist	-11.6588
probleeme	-11.6589
▁programmid	-11.6594
▁tervikliku	-11.6597
▁esimesi	-11.6598
▁suhtub	-11.6599
▁mõlemale	-11.66
valdkondade	-11.66
▁tunnistas	-11.6601
tunnistuse	-11.6602
▁Anneli	-11.6602
▁ootamatult	-11.6603
▁reaalsuse	-11.6603
▁kajastatud	-11.6603
▁astutud	-11.6604
▁kiusa	-11.6604
▁soodustab	-11.6604
▁kuulen	-11.6605
▁kirjutati	-11.6606
▁korrigeerida	-11.6607
▁efektiivsuse	-11.6608
▁1%-	-11.6609
▁perekondade	-11.6609
▁maksti	-11.661
▁vabadust	-11.6611
▁soetamise	-11.6613
vald	-11.6614
▁omavalitsusjuht	-11.6614
▁statistili	-11.6615
palka	-11.6616
▁printsiipi	-11.6617
miku	-11.6618
▁ühendatud	-11.6618
poliitilise	-11.6619
▁demokraatiat	-11.6619
▁üritab	-11.6621
▁selgeid	-11.6622
▁tõdema	-11.6625
▁õppimis	-11.6629
▁põhimõttel	-11.6629
▁mõistagi	-11.6629
▁pingutama	-11.6632
▁viita	-11.6636
looma	-11.6636
▁hoidmine	-11.6638
▁keeleoskuse	-11.664
▁hoopiski	-11.6643
iguskomisjoni	-11.6644
meelne	-11.6645
istliku	-11.6647
▁lähtekoht	-11.6647
periood	-11.6648
▁haridusele	-11.665
▁positiivses	-11.6652
▁suurtes	-11.6654
▁eripensioni	-11.6656
▁partneritega	-11.6656
▁Sõtnik	-11.6657
▁hoiatus	-11.6658
▁piirangut	-11.666
▁tootmist	-11.666
▁majanduslike	-11.6661
▁bürokraatlik	-11.6661
▁Natuke	-11.6661
juhataja	-11.6663
variant	-11.6664
▁ilusat	-11.6664
▁jõuga	-11.6665
▁kauni	-11.6666
spekt	-11.6667
tarbe	-11.6667
▁sekkumise	-11.6668
▁neidsamu	-11.6669
▁pigista	-11.6669
▁erine	-11.667
▁öösel	-11.667
süsteemide	-11.667
ehhi	-11.667
▁kompetentse	-11.667
▁Kohe	-11.6671
▁struktuurifondi	-11.6673
▁pistmist	-11.6673
▁õpilast	-11.6675
▁relvade	-11.6676
▁menetletakse	-11.6678
▁organisatsioone	-11.6679
▁rikub	-11.6679
▁Pallingu	-11.668
▁rahvakogu	-11.668
rant	-11.6681
▁arvamusele	-11.6682
▁valmisoleku	-11.6683
▁meest	-11.6684
▁väärivad	-11.6684
▁kummalise	-11.6684
eesmärk	-11.6687
▁operatsioon	-11.6688
▁teated	-11.6692
▁viimaseid	-11.6696
muuseumi	-11.6697
▁ühendused	-11.6697
▁juriidilist	-11.6698
▁raudteed	-11.6699
▁lõpul	-11.6699
▁üritanud	-11.67
▁maksuvabastus	-11.6703
▁Ligile	-11.6703
▁murest	-11.6704
aastast	-11.6705
▁2,5	-11.6705
▁muutmata	-11.6712
▁eurosid	-11.6714
▁valmidus	-11.6714
▁esmaspäevast	-11.6715
tüüp	-11.6716
▁lisan	-11.6716
▁segase	-11.6721
▁sissejuhatavas	-11.6723
▁Elering	-11.6724
raamatukogu	-11.673
▁kvartali	-11.673
▁sildi	-11.6732
▁Tuli	-11.6733
▁aspektide	-11.6734
rts	-11.6735
aktsiis	-11.6735
▁debatte	-11.6736
▁Pool	-11.6737
▁katte	-11.6737
▁huvitavaid	-11.6738
▁võrk	-11.674
▁väit	-11.674
tähtaeg	-11.674
▁kujundamise	-11.674
rvishoiusüsteemi	-11.6741
▁kätt	-11.6743
välise	-11.6743
▁teisipäeva	-11.6743
▁tsooni	-11.6743
▁debattide	-11.6744
tõend	-11.6747
komponent	-11.6748
investeeringuid	-11.6748
▁tagavad	-11.675
▁kolmes	-11.675
▁südamega	-11.6751
▁diisli	-11.6753
▁uimasti	-11.6753
▁pöördmaksustami	-11.6753
▁teekasutustasu	-11.6753
▁versus	-11.6753
▁omandanud	-11.6753
▁teisalt	-11.6753
▁RES	-11.6753
▁lükatakse	-11.6754
▁jõukohane	-11.6754
[...]
