<unk>	0
<s>	0
</s>	0
,	-2.78891
.	-3.27741
▁on	-3.67089
▁ja	-4.16742
▁et	-4.1709
▁ei	-4.46635
▁	-4.47027
s	-4.73806
!	-4.7669
▁"	-4.8837
▁see	-4.92313
▁ka	-4.96445
t	-4.98012
d	-5.01067
st	-5.13223
▁kui	-5.21971
le	-5.26816
e	-5.29348
l	-5.30175
▁seda	-5.34747
▁siis	-5.38681
▁ole	-5.406
-	-5.41484
i	-5.42075
ga	-5.42151
▁selle	-5.48924
▁me	-5.49366
▁ma	-5.55871
ks	-5.62634
▁mis	-5.63388
▁või	-5.66908
▁Ma	-5.73379
!"	-5.74088
te	-5.77853
Aitäh	-5.78923
▁väga	-5.81021
▁Eesti	-5.82793
▁aga	-5.87508
▁eelnõu	-5.88467
."	-5.91928
▁Riigikogu	-5.98006
id	-5.98706
?	-5.99369
▁oma	-6.00329
▁te	-6.11665
▁See	-6.121
▁oli	-6.12221
da	-6.16332
b	-6.17738
ma	-6.18752
▁palun	-6.19489
▁nii	-6.19704
▁kes	-6.26009
▁kas	-6.3001
▁Aga	-6.33097
▁Kui	-6.35168
lt	-6.37027
▁siin	-6.37529
▁meie	-6.41158
▁mitte	-6.4295
▁Kas	-6.44713
▁need	-6.45876
▁mida	-6.46828
de	-6.48216
▁välja	-6.48216
▁küsimus	-6.4863
me	-6.50975
ud	-6.50986
a	-6.52656
n	-6.52754
▁üle	-6.53758
▁olnud	-6.54911
▁seaduse	-6.5531
?"	-6.56327
 	-6.57638
▁oleks	-6.58514
ne	-6.60783
gi	-6.63194
▁ning	-6.63498
vad	-6.64168
ta	-6.64186
▁palju	-6.64698
▁–	-6.65221
▁võib	-6.65964
▁ta	-6.66018
mine	-6.68094
nud	-6.68106
▁vastu	-6.68126
▁neid	-6.6846
▁nagu	-6.68476
▁kohta	-6.6982
▁Palun	-6.70063
▁nende	-6.7022
▁tuleb	-6.7156
▁Euroopa	-6.72351
:	-6.72942
▁üks	-6.73024
▁veel	-6.73886
▁juhataja	-6.75753
▁teha	-6.76916
▁sellest	-6.77098
se	-6.77299
u	-6.77785
▁Me	-6.78458
▁aasta	-6.79438
tud	-6.79911
▁hea	-6.80092
▁kus	-6.80639
▁meil	-6.80996
▁teie	-6.81254
▁kõik	-6.82004
▁juba	-6.82199
▁eest	-6.82772
▁riigi	-6.83291
▁praegu	-6.83879
▁saa	-6.84176
na	-6.87
sse	-6.8725
ti	-6.88658
▁raha	-6.89213
▁muudatus	-6.89746
▁kuidas	-6.90323
▁kindlasti	-6.90946
▁ju	-6.93112
▁nad	-6.93188
▁ära	-6.93714
▁minister	-6.93924
takse	-6.97512
▁mille	-6.97931
▁selles	-6.98414
ki	-6.99279
▁ette	-6.99957
mist	-7.00168
▁võimalik	-7.01298
m	-7.0157
▁peaks	-7.03236
▁oleme	-7.03672
▁rohkem	-7.04474
▁saab	-7.05164
▁arvan	-7.06712
▁minu	-7.07543
▁ettekandja	-7.07683
mise	-7.08085
r	-7.08801
▁olla	-7.0919
▁juurde	-7.12573
sid	-7.14277
▁näiteks	-7.14279
▁Nii	-7.1595
▁Ja	-7.16517
▁Vabariigi	-7.16728
▁tegelikult	-7.17414
▁kogu	-7.18048
▁tagasi	-7.18881
▁olema	-7.18978
▁Aitäh	-7.19565
ni	-7.19786
▁olen	-7.20317
▁nüüd	-7.20462
▁ühe	-7.20698
▁aru	-7.21025
▁öelda	-7.21593
▁vaja	-7.21861
▁sest	-7.22007
▁ainult	-7.22344
▁peab	-7.23074
▁aastal	-7.235
▁seal	-7.23887
▁vaid	-7.24556
▁teine	-7.25395
des	-7.26618
▁küll	-7.28066
ja	-7.28405
▁töö	-7.28443
▁läbi	-7.3015
▁Te	-7.30646
▁võiks	-7.30715
▁võtta	-7.32047
▁selline	-7.32495
▁osa	-7.32795
ku	-7.32975
▁lugemine	-7.33133
▁puhul	-7.33157
v	-7.33178
▁midagi	-7.33243
olla	-7.34667
▁Eestis	-7.34935
▁""	-7.35044
▁Hea	-7.35161
▁küsimuse	-7.35548
▁härra	-7.36238
▁kokku	-7.3655
▁kolleegid	-7.36804
▁Liidu	-7.38749
ka	-7.39513
▁sellega	-7.39547
▁täna	-7.39631
▁suur	-7.40749
▁Lugupeetud	-7.41393
▁teile	-7.42419
▁kõige	-7.42756
▁ega	-7.43926
▁edasi	-7.4516
▁sellele	-7.45258
▁ikkagi	-7.45419
▁just	-7.46738
▁eurot	-7.47217
komisjoni	-7.47922
▁sa	-7.48072
▁küsimusi	-7.48098
▁inimesed	-7.49227
k	-7.49568
▁peale	-7.50943
▁muutmise	-7.514
▁ise	-7.51623
▁valitsus	-7.52337
▁Austat	-7.52425
▁ehk	-7.5268
is	-7.53286
▁olemas	-7.53387
▁poolt	-7.54083
ed	-7.54402
ge	-7.54781
▁selleks	-7.55773
▁komisjoni	-7.56239
▁enne	-7.56355
va	-7.56697
▁Ka	-7.57003
▁fraktsiooni	-7.57198
h	-7.57238
▁riik	-7.57308
▁Minu	-7.58571
ke	-7.58916
es	-7.58945
la	-7.59341
▁miks	-7.59457
▁puudutab	-7.60069
▁Mis	-7.61382
▁teema	-7.61494
▁kolleeg	-7.61562
o	-7.61693
▁enam	-7.61727
▁ajal	-7.61824
▁ettepanek	-7.63387
ri	-7.63614
▁eelarve	-7.6404
▁saada	-7.64895
tu	-7.65239
▁esimees	-7.65902
▁õigus	-7.66893
▁pole	-7.68061
line	-7.68492
▁lihtsalt	-7.69011
▁Selle	-7.69784
▁pärast	-7.70083
▁saanud	-7.70635
▁tõesti	-7.71313
el	-7.71472
▁üldse	-7.71962
▁asja	-7.72486
Austat	-7.73267
▁kaks	-7.73492
▁inimeste	-7.74629
▁päris	-7.74929
▁n	-7.74969
▁hästi	-7.7556
▁eri	-7.76826
ide	-7.76848
▁tänu	-7.76965
▁seisukoht	-7.77147
▁iga	-7.77202
re	-7.77488
vi	-7.77865
▁Valitsuse	-7.78386
ü	-7.78874
▁olete	-7.78904
▁asi	-7.78962
▁Seda	-7.79007
▁tema	-7.79251
▁saalis	-7.79455
▁miljonit	-7.80125
▁kord	-7.80228
▁majandus	-7.80241
▁sotsiaal	-7.80311
▁juhul	-7.80388
▁esimene	-7.80943
▁tehtud	-7.80959
▁pea	-7.81828
▁jooksul	-7.82426
▁seadus	-7.82692
▁teinud	-7.82729
ministeeriumi	-7.84023
▁korda	-7.84287
▁ettepaneku	-7.84309
▁tea	-7.84873
ö	-7.8495
▁arutelu	-7.85149
est	-7.86493
▁olid	-7.86586
▁teada	-7.86645
▁anda	-7.86735
si	-7.86764
▁nimel	-7.87367
""	-7.87384
▁aastat	-7.87482
ra	-7.87632
▁kaasa	-7.87917
▁poole	-7.8808
▁valitsuse	-7.88138
▁seotud	-7.8837
▁mul	-7.88446
▁keegi	-7.88467
▁eesistuja	-7.88503
▁teise	-7.88563
test	-7.89327
in	-7.89387
▁koos	-7.90198
▁Head	-7.90756
▁oluline	-7.91349
ä	-7.91523
▁minutit	-7.91727
▁jaoks	-7.92729
ega	-7.93068
▁aeg	-7.93506
▁siiski	-7.93538
▁aja	-7.94224
▁mina	-7.94432
▁e	-7.94904
▁soovi	-7.94922
▁inimesi	-7.94954
▁hääletada	-7.95035
▁teatud	-7.95475
▁otsuse	-7.9555
▁elu	-7.96738
▁järgi	-7.96778
▁seaduseelnõu	-7.96795
▁tuleks	-7.98251
▁mõju	-7.98449
mis	-7.98593
▁läheb	-7.98723
▁probleem	-7.99047
▁mõttes	-7.99379
▁algatatud	-7.99409
▁peaminister	-7.99432
▁arvates	-7.9976
sin	-7.99772
▁esitatud	-7.9993
▁mingi	-8.0015
▁täiesti	-8.00196
▁Sotsiaal	-8.0047
▁istungi	-8.00714
▁selge	-8.00883
tele	-8.00935
▁võimalus	-8.01387
▁tegemist	-8.01427
li	-8.01443
us	-8.01652
▁teiste	-8.01848
▁isegi	-8.01925
tus	-8.02544
▁meile	-8.02584
seaduse	-8.02619
pi	-8.02873
Ma	-8.03001
▁sõna	-8.03087
▁õige	-8.03519
▁On	-8.03589
▁Mul	-8.03624
▁a	-8.03725
▁ikka	-8.03839
▁(	-8.03858
▁ongi	-8.04247
▁aega	-8.04304
▁tähendab	-8.0439
▁Need	-8.05062
ettepaneku	-8.05206
0	-8.05475
▁sellist	-8.05552
▁liiget	-8.06249
miseks	-8.06257
▁jääb	-8.06363
▁tähelepanu	-8.07065
▁lugupeetud	-8.07235
▁valmis	-8.07316
tes	-8.08103
▁alla	-8.08495
▁kuna	-8.08633
▁saavad	-8.08689
▁Mina	-8.09284
▁Kuidas	-8.10034
▁kodu	-8.10286
▁liikmed	-8.10595
▁peame	-8.109
tada	-8.11474
▁täpselt	-8.11496
▁otsus	-8.1181
▁esitanud	-8.12064
maks	-8.12272
▁kolm	-8.12881
▁kahe	-8.13318
tel	-8.13365
5	-8.13554
▁kuidagi	-8.13742
▁komisjonis	-8.13776
▁korral	-8.13985
il	-8.14121
lise	-8.14291
▁Keskerakonna	-8.14308
▁sellise	-8.14591
▁nr	-8.14735
▁kooli	-8.14799
▁eesmärk	-8.148
▁rääkida	-8.14852
▁Nüüd	-8.15076
Hea	-8.15255
gu	-8.15264
Palun	-8.15295
▁Nagu	-8.15313
▁natuke	-8.15904
▁Eelnõu	-8.16023
▁inimene	-8.1618
▁alati	-8.16519
▁austatud	-8.16591
▁sama	-8.17014
▁loomulikult	-8.17163
▁k	-8.17215
lik	-8.17395
sime	-8.17469
▁Ei	-8.17908
▁vähemalt	-8.18079
▁kaitse	-8.18122
it	-8.18201
▁kuni	-8.18304
▁teeb	-8.18787
▁sinna	-8.19112
2	-8.19595
▁euro	-8.19769
▁minna	-8.19852
▁kõnetooli	-8.20435
ele	-8.20563
▁saaks	-8.20587
▁Meie	-8.2131
▁teil	-8.21507
▁sisse	-8.21634
▁fraktsioon	-8.21836
▁läbirääkimised	-8.21846
▁vahel	-8.221
er	-8.22294
▁tööd	-8.22658
▁lisa	-8.22872
▁abi	-8.23354
▁räägime	-8.23492
▁laste	-8.2375
▁olukord	-8.23812
▁maa	-8.24079
▁liikme	-8.2419
ettepanek	-8.24874
▁uue	-8.24963
▁vaadata	-8.25311
▁huvi	-8.25494
▁Ta	-8.25781
p	-8.25943
al	-8.2608
3	-8.26482
▁peavad	-8.26566
▁Meil	-8.26878
▁sellel	-8.26928
▁üsna	-8.27139
poliitika	-8.27543
▁ees	-8.27771
▁eesti	-8.27852
▁siia	-8.27981
▁haridus	-8.2803
▁all	-8.28082
Lugupeetud	-8.28231
▁toetust	-8.28622
▁A	-8.28715
▁pool	-8.28905
▁tegema	-8.28951
▁nõus	-8.29366
he	-8.29656
▁küsimust	-8.29793
tega	-8.30039
dega	-8.3021
ettepanekute	-8.30249
komisjon	-8.30701
▁kinni	-8.30895
▁pigem	-8.31302
▁kohtu	-8.31333
▁enda	-8.31565
▁koalitsiooni	-8.32131
▁saame	-8.32236
▁probleemi	-8.33306
▁kell	-8.3336
▁taga	-8.33486
▁maksu	-8.33666
▁selgelt	-8.33819
dest	-8.34004
del	-8.34044
6	-8.3418
▁ütlesin	-8.34213
▁mulle	-8.34254
liku	-8.3428
▁Kindlasti	-8.3435
▁lõpetada	-8.34426
▁kultuuri	-8.34516
▁keskkonna	-8.34671
▁võetud	-8.34773
▁saan	-8.3483
ministeerium	-8.34898
▁Siin	-8.34904
ist	-8.35144
tav	-8.35145
▁alusel	-8.35343
4	-8.35492
▁tuli	-8.35582
▁mitu	-8.35817
▁tõepoolest	-8.35844
▁Miks	-8.35946
▁väike	-8.36276
▁tõttu	-8.36413
▁piiri	-8.36756
▁–,	-8.37341
▁millest	-8.37447
▁Tallinna	-8.37485
▁raske	-8.37674
nd	-8.37724
▁muu	-8.3799
▁Praegu	-8.38131
▁panna	-8.38231
▁ütlen	-8.3849
▁E	-8.39107
site	-8.39182
▁samuti	-8.3928
▁suurem	-8.39317
▁omavalitsuste	-8.39363
▁põhiseadus	-8.39437
selt	-8.39467
▁keele	-8.3948
▁tasu	-8.39802
▁arvu	-8.40683
▁sel	-8.41018
▁riigieelarve	-8.41282
▁kohaliku	-8.41417
▁s	-8.41567
▁teid	-8.41623
▁kuid	-8.41782
▁muuta	-8.41782
Suur	-8.41898
ru	-8.41924
▁mõistlik	-8.4215
 –	-8.42173
▁kohaselt	-8.42204
▁ütles	-8.42239
▁küsin	-8.42259
▁S	-8.4232
▁päevakorrapunkt	-8.42337
▁kontrolli	-8.42384
▁tulevikus	-8.42465
▁vähem	-8.42584
8	-8.42593
▁liige	-8.42914
▁mõne	-8.43066
▁öelnud	-8.43069
▁palga	-8.43112
7	-8.43299
▁küsimusele	-8.43485
▁Samas	-8.43502
▁omavalitsuse	-8.43569
▁Üks	-8.43631
▁kasutada	-8.43794
▁tahan	-8.43874
▁hakkab	-8.43985
▁pa	-8.44026
▁neil	-8.44081
▁neile	-8.44235
sed	-8.44246
▁annab	-8.44602
▁jäänud	-8.44615
▁hääletusele	-8.44865
▁igal	-8.45167
9	-8.45328
▁kunagi	-8.45412
▁sisu	-8.45613
▁ümber	-8.4562
–	-8.45639
▁millega	-8.45786
▁esindaja	-8.45888
lu	-8.45961
ndi	-8.46142
ar	-8.46517
▁teame	-8.46793
▁rahandus	-8.46822
▁üles	-8.47001
õ	-8.47149
▁järgmise	-8.47162
▁esimese	-8.47194
mu	-8.47235
▁põhjus	-8.48381
▁istungil	-8.48501
▁muidugi	-8.48699
▁mingit	-8.48723
▁teeme	-8.48732
f	-8.48739
▁ilma	-8.48792
▁20	-8.48825
▁kelle	-8.48941
▁tule	-8.4898
▁meelest	-8.49349
▁eriti	-8.49439
misel	-8.49853
▁Võib	-8.50091
▁esitamise	-8.50153
ve	-8.50204
▁tulnud	-8.50429
1	-8.50499
▁päeva	-8.505
▁– 	-8.50568
▁suure	-8.50638
▁asju	-8.50698
▁summa	-8.50708
▁inimese	-8.50813
▁umbes	-8.50826
▁niimoodi	-8.51009
mi	-8.51156
eid	-8.51163
▁pean	-8.5154
▁varem	-8.51749
▁analüüsi	-8.51798
▁loodan	-8.51832
▁nõukogu	-8.51871
list	-8.52099
▁tee	-8.52145
▁mõni	-8.52175
▁arv	-8.52281
▁taha	-8.52294
▁põhi	-8.52556
ksid	-8.52732
▁oska	-8.52743
▁rahva	-8.53341
▁tehakse	-8.53367
▁kõiki	-8.53401
▁komisjon	-8.53542
maa	-8.53661
▁esitada	-8.53684
▁proua	-8.53864
▁Rahandus	-8.53892
▁täielikult	-8.54183
▁head	-8.54213
an	-8.54222
▁kolme	-8.54386
mata	-8.54844
ha	-8.54857
▁tänan	-8.55031
▁usun	-8.5523
liste	-8.55286
▁küsija	-8.55395
▁ühte	-8.55613
▁ilmselt	-8.5575
▁milline	-8.55829
▁jäi	-8.55913
▁Andres	-8.55988
▁seaduste	-8.56243
eri	-8.56253
▁Muudatus	-8.56396
Hääletustulemuse	-8.56988
▁hoopis	-8.5714
▁kohe	-8.57157
▁asjad	-8.5726
▁alkoholi	-8.57378
▁sai	-8.57392
aja	-8.57426
liselt	-8.57437
▁liiga	-8.57443
pa	-8.57477
▁vähe	-8.57492
tuse	-8.57821
▁toimub	-8.57995
▁kaudu	-8.58144
▁süsteemi	-8.58517
▁la	-8.59187
as	-8.59244
▁Kõik	-8.59279
▁tõsta	-8.59473
▁selliseid	-8.59629
▁pere	-8.59798
oo	-8.59885
misega	-8.59916
▁muud	-8.5996
▁arvestada	-8.59978
▁jne	-8.60094
on	-8.60226
or	-8.60233
ju	-8.60312
ite	-8.60469
▁küsida	-8.60529
▁vaba	-8.60634
▁Reformierakonna	-8.60657
▁viia	-8.60988
▁võtnud	-8.61147
▁h	-8.61278
▁eraldi	-8.61365
▁nimelt	-8.6159
▁täiskogu	-8.61846
▁tulla	-8.61987
▁liikmete	-8.62089
▁Venemaa	-8.62138
▁olukorda	-8.62413
▁ütleb	-8.62529
du	-8.63122
ik	-8.63236
dele	-8.63325
▁Loomulikult	-8.63608
Tänan	-8.63723
▁inimestele	-8.63792
▁p	-8.64006
▁vaatame	-8.6401
▁lepingu	-8.64427
▁nendest	-8.64589
malt	-8.64618
▁juhtivkomisjoni	-8.6465
▁luba	-8.64857
▁pensioni	-8.6495
▁leidnud	-8.65205
▁riigis	-8.65244
▁kuu	-8.65347
▁riikide	-8.65375
▁hakkama	-8.65428
▁pidada	-8.65433
▁võime	-8.65491
▁Tegelikult	-8.65605
▁toeta	-8.65936
▁tuua	-8.66112
▁ütlesite	-8.66421
ad	-8.66424
▁Riigikogus	-8.66646
▁Valitsus	-8.66672
▁Juhtivkomisjoni	-8.66902
▁tekib	-8.67161
▁kuulu	-8.67219
▁tegi	-8.67231
▁tervise	-8.67513
▁konkreetse	-8.67547
use	-8.67572
▁kümme	-8.67589
▁silmas	-8.67615
▁võimaluse	-8.67679
▁jätta	-8.67979
▁Jah	-8.68038
▁eelkõige	-8.68174
tatud	-8.68189
nu	-8.68246
eks	-8.68531
▁uus	-8.68683
S	-8.68839
▁000	-8.68885
▁näha	-8.69042
▁sisuliselt	-8.69223
sti	-8.69291
▁tähtajaks	-8.69466
▁Küsimus	-8.69708
▁näeme	-8.6981
▁sellepärast	-8.69921
nda	-8.70112
jad	-8.70247
▁läinud	-8.70471
▁kirjas	-8.705
▁läbirääkimisi	-8.70718
ettepanekut	-8.70847
▁arupärimise	-8.70877
▁seadust	-8.70949
▁viis	-8.71232
▁järgmisel	-8.71241
▁käigus	-8.7136
▁K	-8.7139
ina	-8.71437
▁tundub	-8.71572
▁välis	-8.71661
▁kuigi	-8.71788
▁juttu	-8.71804
aasta	-8.71819
tavad	-8.72015
▁lapse	-8.72146
▁re	-8.72164
▁endale	-8.72536
▁1.	-8.72541
▁hakata	-8.72574
▁Kuna	-8.72689
▁Teine	-8.72744
▁tal	-8.72767
sa	-8.72838
▁Suur	-8.73026
lus	-8.73112
▁jõudnud	-8.73118
▁eelnõuga	-8.732
▁ennast	-8.73274
▁kõigi	-8.73326
▁tohi	-8.73392
▁suhtes	-8.73403
▁vale	-8.73764
iga	-8.73804
▁hakka	-8.73841
▁15	-8.73892
▁Rohkem	-8.74003
▁omavalitsus	-8.74043
▁Näiteks	-8.74184
▁kohalike	-8.74195
▁kulu	-8.74245
▁millised	-8.74288
▁tegevus	-8.74328
vate	-8.74688
▁teemal	-8.748
▁ühel	-8.74852
▁leida	-8.75022
▁teemat	-8.7505
▁alles	-8.75066
▁eelmise	-8.75325
▁meelde	-8.75489
▁jah	-8.75496
▁ala	-8.757
▁va	-8.75969
▁era	-8.76143
▁paremini	-8.76423
jate	-8.76544
▁parlamendi	-8.76589
tab	-8.76793
▁arvestamata	-8.76973
▁kellel	-8.77046
▁miljoni	-8.7714
▁Kõigepealt	-8.77241
▁mind	-8.77446
▁ko	-8.77626
▁juures	-8.77744
▁Aru	-8.77818
▁näe	-8.77977
kas	-8.78227
▁vahe	-8.78395
▁parem	-8.78723
▁maha	-8.788
▁hetkel	-8.78906
▁kuhu	-8.78996
likult	-8.79074
▁Helme	-8.7912
▁teist	-8.79126
▁hulgas	-8.79169
▁Jüri	-8.79207
tamine	-8.79364
komisjonis	-8.79526
▁käib	-8.79614
▁T	-8.79684
▁julgeoleku	-8.79767
▁ühtegi	-8.79819
▁10	-8.79952
▁sealt	-8.80098
▁vastata	-8.80303
▁valimis	-8.80488
▁vana	-8.80564
tamise	-8.80573
▁I	-8.80639
et	-8.80687
▁seoses	-8.8069
tava	-8.80697
▁Teie	-8.81054
tanud	-8.81112
ba	-8.81131
▁võimalust	-8.81406
▁probleeme	-8.81433
tama	-8.81457
töö	-8.81493
▁süsteem	-8.81514
▁peaksid	-8.81571
▁Mida	-8.81576
▁võivad	-8.81622
A	-8.81622
ust	-8.81712
▁osas	-8.8221
▁natukene	-8.8227
▁lisaaega	-8.82373
ndus	-8.82411
▁teised	-8.82518
▁inimest	-8.82601
▁sise	-8.82642
▁seni	-8.82659
▁õppe	-8.8267
▁oleksid	-8.82696
▁terve	-8.82787
▁kirja	-8.82819
V	-8.82857
▁Erakonna	-8.83002
▁käest	-8.83149
demokraatliku	-8.83189
▁otsused	-8.83202
▁puudub	-8.83505
▁antud	-8.83595
▁mõte	-8.83679
Head	-8.83683
▁tänase	-8.83902
▁küsimused	-8.83928
▁arengu	-8.83945
▁lähe	-8.83957
▁esimehe	-8.84179
ia	-8.8423
▁mõned	-8.84549
ile	-8.84563
▁esindajad	-8.84571
▁ava	-8.84648
▁lõpp	-8.85034
▁Sa	-8.85174
▁Nende	-8.85205
▁paljud	-8.85253
ko	-8.85317
▁Vabaerakonna	-8.85483
▁1	-8.85491
▁maksta	-8.85676
▁kahju	-8.85742
tsi	-8.85851
▁öeldud	-8.85985
val	-8.86091
▁Komisjoni	-8.8621
▁ettekandjale	-8.86267
vaid	-8.86285
▁viimase	-8.86362
▁omavalitsused	-8.86603
▁eba	-8.86752
lisi	-8.86883
▁teadus	-8.86892
▁tulevad	-8.86964
▁avaliku	-8.8704
▁riigikaitse	-8.87131
▁mitme	-8.87167
▁Ida	-8.87351
▁sellised	-8.87698
▁vasta	-8.87782
▁kätte	-8.87791
laste	-8.87822
▁nendele	-8.87862
▁eks	-8.87953
▁tegu	-8.88234
▁toetada	-8.88236
ste	-8.88372
▁kõne	-8.8859
E	-8.88676
▁ettepanekut	-8.88692
▁piisavalt	-8.88697
▁200	-8.88837
▁hääletas	-8.89209
▁peaksime	-8.89297
mad	-8.89369
lised	-8.89429
▁toetus	-8.89517
▁Siis	-8.89568
▁tulu	-8.90022
▁tööle	-8.90142
▁lõpuks	-8.90203
▁ameti	-8.90262
▁nelja	-8.90281
to	-8.90349
▁kõigile	-8.904
▁Selles	-8.90542
▁lõppenud	-8.90543
dus	-8.90636
▁millele	-8.9086
▁korras	-8.90897
päeva	-8.91164
misest	-8.91215
▁mure	-8.91216
▁kümne	-8.9125
▁ettekande	-8.91263
ime	-8.91294
mas	-8.91392
▁Täna	-8.91482
▁jälle	-8.91545
▁erakonna	-8.91947
▁meel	-8.91952
ala	-8.91989
at	-8.92108
ro	-8.92171
▁finants	-8.92295
▁seaduses	-8.92425
▁edaspidi	-8.9252
▁õpetajate	-8.92657
)	-8.92812
▁siit	-8.93089
O	-8.93143
▁Teiseks	-8.93248
▁koostöö	-8.93357
▁ministri	-8.93528
▁vajalik	-8.93637
▁Nad	-8.93805
hu	-8.93932
▁tegevuse	-8.93967
▁too	-8.94032
▁Avan	-8.9409
▁Tartu	-8.94106
süsteemi	-8.94251
▁töökorra	-8.94367
▁lugemise	-8.94436
▁isiku	-8.94544
▁tulumaksu	-8.94759
▁sinu	-8.94818
▁käi	-8.94968
▁määra	-8.95003
▁kohal	-8.95028
▁hinna	-8.95085
▁vii	-8.95111
▁pealt	-8.95406
▁nõu	-8.9554
▁otsustas	-8.96284
▁P	-8.96378
▁kahjuks	-8.96482
ub	-8.96646
▁saama	-8.96694
▁põllumajandus	-8.96711
vat	-8.97079
▁erapooletuid	-8.97166
▁seetõttu	-8.97171
▁alates	-8.97214
▁reformi	-8.97277
▁peaministri	-8.97374
▁vastuse	-8.97538
▁vist	-8.97562
g	-8.97588
▁Väga	-8.9786
▁linna	-8.97966
▁kiiresti	-8.98183
kaitse	-8.9826
▁küsimuses	-8.98401
ng	-8.98409
▁maksma	-8.98509
▁lahendada	-8.98894
▁ühiskonnas	-8.98943
▁otsuseid	-8.99047
▁uuesti	-8.99062
▁Seetõttu	-8.99126
▁panen	-8.99246
▁toime	-8.99293
▁Küll	-8.99446
▁teevad	-8.99563
▁punkti	-8.99625
▁tahame	-8.99632
▁Ligi	-8.99639
▁aktsiisi	-8.9976
lepingu	-9.00048
▁võimalusi	-9.00062
võt	-9.00123
▁t	-9.0013
▁12	-9.00144
▁laenu	-9.00255
▁kuus	-9.00306
▁hoida	-9.00313
▁rahvusvahelise	-9.00415
▁otse	-9.00773
▁Sellest	-9.00825
▁ministeeriumi	-9.01016
atsiooni	-9.01062
▁Soome	-9.01135
▁jõu	-9.01177
▁su	-9.01517
▁Eks	-9.01537
▁9	-9.01626
um	-9.01678
▁võrreldes	-9.01774
I	-9.02016
▁tagada	-9.02088
▁tehti	-9.02241
▁Seal	-9.02251
▁võin	-9.02319
▁juhtivkomisjon	-9.02359
▁lugemisel	-9.02375
▁Esiteks	-9.02464
▁2	-9.02488
▁saali	-9.02534
raha	-9.02546
▁sellesse	-9.02698
lli	-9.02848
am	-9.02945
▁oluliselt	-9.02971
▁Esimene	-9.031
▁haldus	-9.03119
▁rääkinud	-9.03172
▁olukorras	-9.03292
▁taas	-9.03309
▁M	-9.03321
taks	-9.03374
▁justkui	-9.03395
▁auto	-9.03415
▁nähtud	-9.03487
▁Läti	-9.03517
▁hinnangul	-9.03573
▁samas	-9.036
▁Tänan	-9.03818
▁sh	-9.03891
▁vastus	-9.04118
loo	-9.04198
▁suurt	-9.04291
▁arutada	-9.04401
en	-9.04421
▁vara	-9.04459
▁ühiskonna	-9.04593
▁nime	-9.04618
▁tasemel	-9.04797
▁politsei	-9.04845
ksin	-9.04957
▁suunas	-9.05107
▁mingeid	-9.05185
▁kolmanda	-9.05247
▁palka	-9.05406
▁toimus	-9.05714
▁ettepanekuid	-9.05849
▁korra	-9.05886
▁päevakorra	-9.05903
stamise	-9.05927
suse	-9.06007
▁tekkinud	-9.06199
▁tava	-9.06245
▁valdkonna	-9.0628
▁võtab	-9.0631
▁aseesimees	-9.06313
▁neli	-9.06411
▁võimalikult	-9.06432
▁erinevad	-9.06438
▁info	-9.06489
▁Mulle	-9.06503
▁sellisel	-9.06588
▁mingil	-9.06692
▁tean	-9.06842
▁kõrge	-9.06857
▁võrra	-9.06888
▁õigesti	-9.06945
▁hiljem	-9.06994
▁andnud	-9.07005
▁30	-9.07074
▁esimesel	-9.07109
▁kolmas	-9.07168
▁arengukava	-9.07184
▁meid	-9.07228
▁poliitika	-9.0731
▁metsa	-9.0732
▁toodud	-9.07583
▁kontroll	-9.07671
▁pe	-9.07812
▁konkreetselt	-9.07842
▁lisaks	-9.07868
▁aastatel	-9.07878
nt	-9.07898
▁määral	-9.0804
▁Seega	-9.08314
po	-9.08416
em	-9.08492
▁11	-9.08569
▁saaksid	-9.08802
▁mõiste	-9.08911
▁päevakorda	-9.09074
▁Keskkonna	-9.09151
▁praeguse	-9.09311
tame	-9.09662
▁V	-9.09662
▁toimunud	-9.098
K	-9.09883
▁opositsiooni	-9.10045
▁Või	-9.10249
▁nn	-9.10342
minister	-9.10387
rahandusminister	-9.10388
▁arutanud	-9.10544
▁kust	-9.10566
▁määrata	-9.10604
rä	-9.10679
▁ve	-9.10726
ise	-9.10993
▁soov	-9.11046
▁võetakse	-9.11068
▁Kuid	-9.11252
▁ütleme	-9.1132
▁vene	-9.11323
pe	-9.11323
▁koha	-9.11342
▁mõtte	-9.11374
▁neist	-9.11403
▁tähenda	-9.11534
▁vähendada	-9.11651
▁Ra	-9.11689
ngu	-9.11713
▁tunne	-9.11763
ini	-9.11788
▁lahendus	-9.11789
▁muutunud	-9.11808
▁kriisi	-9.11934
. "	-9.1204
▁vee	-9.12068
▁Kreeka	-9.12277
▁tõenäoliselt	-9.12277
▁Mihhail	-9.12417
▁arva	-9.12435
ol	-9.12521
tust	-9.1255
ur	-9.12628
▁ha	-9.12791
▁põhiseaduse	-9.12834
▁arvestatud	-9.1292
▁tulenevalt	-9.13199
▁arutas	-9.13252
▁Aivar	-9.13353
▁fraktsioonide	-9.13532
▁elektri	-9.13569
▁riikides	-9.13844
▁Ko	-9.14007
▁16	-9.14181
▁juhatuse	-9.14228
▁pidanud	-9.14243
▁ühes	-9.14269
▁soovivad	-9.14302
di	-9.14327
ut	-9.14404
▁kesk	-9.14429
▁näide	-9.14468
▁näeb	-9.14476
▁ettekandeks	-9.14637
▁koht	-9.1466
▁suhteliselt	-9.14702
▁õiguse	-9.1473
▁peaaegu	-9.14741
▁öeldes	-9.14741
▁üld	-9.14878
tan	-9.14881
▁gümnaasiumi	-9.15042
▁muude	-9.15056
▁selliste	-9.15124
▁talle	-9.15192
L	-9.15217
▁saata	-9.15252
▁Tu	-9.15341
▁NATO	-9.15429
▁mu	-9.15666
▁järelevalve	-9.15776
▁koosseisu	-9.15777
▁plaani	-9.15867
▁lapsed	-9.15931
▁piir	-9.15936
▁teate	-9.1597
▁põhimõtteliselt	-9.161
ade	-9.16133
▁abil	-9.16169
▁maailma	-9.16204
▁kasutamise	-9.16224
▁O	-9.16312
▁lihtne	-9.16333
▁hääleta	-9.16343
▁puuduta	-9.16397
▁toetuse	-9.1654
▁keeles	-9.16883
▁mööda	-9.16905
▁Herkel	-9.1692
aastal	-9.16991
▁tegele	-9.17071
▁suurema	-9.17324
▁tõsiselt	-9.17382
▁samamoodi	-9.17602
▁suurendada	-9.17719
▁kõike	-9.17763
abi	-9.17859
▁kohustus	-9.17935
ettepanekuid	-9.17943
▁ra	-9.17964
▁mõtet	-9.17984
▁olulise	-9.18067
▁riigile	-9.18069
su	-9.18089
Kohaloleku	-9.182
▁aitäh	-9.18231
▁kõigepealt	-9.1836
▁luua	-9.18378
▁hulk	-9.18469
T	-9.18495
koha	-9.18596
▁valdkonnas	-9.18598
▁13	-9.18725
▁kõrval	-9.18765
kogu	-9.18777
misi	-9.18898
▁võtame	-9.18971
▁algataja	-9.19002
▁haigekassa	-9.19074
▁küsimustele	-9.19087
▁kindel	-9.19139
▁protsessi	-9.19397
pu	-9.19404
▁puudu	-9.19518
▁võiksid	-9.19576
▁mõelda	-9.1966
▁ellu	-9.19664
▁spordi	-9.19666
▁14	-9.19813
▁lahti	-9.19867
▁poliitilise	-9.19871
▁lõpetatud	-9.20015
▁asemel	-9.20089
▁riiki	-9.20197
▁ülevaate	-9.20211
▁mõtle	-9.2028
▁Urmas	-9.20393
ul	-9.20419
▁Pa	-9.20471
▁aastate	-9.20504
▁alguses	-9.20554
▁Tarmo	-9.20588
no	-9.20599
lased	-9.20599
▁IRL	-9.2065
stada	-9.20691
▁omavahel	-9.20885
▁mere	-9.21001
▁pu	-9.21034
▁keeruline	-9.21047
▁volikogu	-9.21152
▁punkt	-9.21258
▁mõeldud	-9.2138
tatakse	-9.2142
▁ühine	-9.2155
▁praegune	-9.2177
▁alusta	-9.21834
▁samal	-9.21867
Härra	-9.2192
▁keda	-9.21933
▁Jürgen	-9.21968
▁peal	-9.21977
▁korduvalt	-9.21993
▁küsi	-9.22022
▁lähevad	-9.22107
▁eksi	-9.22199
▁kuskil	-9.22226
▁suured	-9.22274
▁näinud	-9.2232
"".	-9.22456
▁Ettepanek	-9.22624
luse	-9.2267
ksime	-9.22673
▁programmi	-9.22824
▁hinda	-9.22935
desse	-9.23019
▁arvamust	-9.23041
▁100	-9.23042
▁näitab	-9.23061
▁järele	-9.23351
▁valla	-9.23423
▁ametikaaslased	-9.23536
▁hind	-9.23547
00	-9.23622
▁50	-9.23647
▁Isamaa	-9.23672
▁eelnõus	-9.23791
▁ettevõtete	-9.23853
▁aastast	-9.23922
▁tahaks	-9.24093
likku	-9.24105
▁Komisjon	-9.24133
▁Mart	-9.24196
▁huvides	-9.24199
▁pandud	-9.24219
▁inimestel	-9.24231
konna	-9.2447
▁viie	-9.24534
▁kõikide	-9.24646
▁ülesanne	-9.24654
▁võtma	-9.24796
▁kaalu	-9.24841
▁kodakondsuse	-9.2501
▁Nimelt	-9.25045
▁kaota	-9.25126
▁näite	-9.25346
nna	-9.25371
▁tervishoiu	-9.25454
im	-9.25505
▁Samuti	-9.2553
▁asjade	-9.25785
▁loo	-9.25907
▁põhjal	-9.25928
▁lugeda	-9.25954
▁sain	-9.2599
▁puutub	-9.26016
▁Riigi	-9.26029
▁Teile	-9.26093
▁otseselt	-9.26143
▁saate	-9.26172
▁Ernits	-9.26227
▁käibemaksu	-9.26301
▁Riigikohtu	-9.26449
▁millal	-9.26508
kooli	-9.2654
▁muutub	-9.26584
▁Neid	-9.26658
▁läks	-9.26739
▁suuda	-9.26744
▁kontekstis	-9.26753
▁noorte	-9.26839
▁g	-9.26951
seid	-9.27026
▁nimeta	-9.27116
▁Ukraina	-9.27146
▁teksti	-9.27158
▁Tamm	-9.27169
▁usu	-9.2727
▁räägitud	-9.27315
▁avada	-9.27318
▁aastas	-9.27396
▁eelmisel	-9.27397
▁keelt	-9.2746
▁osuta	-9.27477
öö	-9.27496
▁jutt	-9.27547
and	-9.27638
▁vastust	-9.27747
▁heaks	-9.27797
▁arvamus	-9.27812
statud	-9.27872
▁järjest	-9.27907
▁moel	-9.28016
sus	-9.2808
elt	-9.28096
sel	-9.28209
▁aastaid	-9.28214
▁Liit	-9.28322
▁vastab	-9.2844
▁hakkavad	-9.28573
▁võimalused	-9.28688
▁väärtus	-9.2871
alt	-9.28782
▁joo	-9.28817
▁prognoosi	-9.28962
▁järgmine	-9.28994
▁osale	-9.29126
likud	-9.29229
▁lapsi	-9.29257
▁olukorra	-9.29275
▁menetlus	-9.29559
▁kehtiva	-9.2957
▁teisel	-9.29578
.""	-9.29602
M	-9.29616
▁Justiits	-9.29629
▁vajaduse	-9.29694
▁üht	-9.29778
▁8	-9.29789
▁tõ	-9.29799
▁käsitle	-9.29802
▁langeta	-9.29816
▁Alustame	-9.2982
▁teisi	-9.29942
riigi	-9.29946
▁tööta	-9.29962
os	-9.30074
▁suurenda	-9.30233
▁Majandus	-9.30315
▁18	-9.30416
20	-9.30568
▁ütlema	-9.30608
▁olgu	-9.30662
▁jää	-9.30698
ir	-9.30741
õiguse	-9.30767
▁äri	-9.30771
▁lükata	-9.30879
▁Olen	-9.3089
▁vastupidi	-9.30891
▁laiemalt	-9.30913
▁nädala	-9.30997
▁vajadus	-9.31109
▁Korb	-9.31417
uuri	-9.3143
▁tähtis	-9.31691
▁ettevõtte	-9.31692
▁otsustada	-9.31721
▁päev	-9.31741
▁Härra	-9.31758
▁muudatused	-9.31779
osa	-9.31852
▁17	-9.31972
▁kooskõlas	-9.31985
▁põhjust	-9.32076
▁vastavalt	-9.32102
▁pidi	-9.3214
▁kokkuleppe	-9.32145
▁sektori	-9.32245
▁25	-9.32353
unud	-9.32377
▁Selleks	-9.32407
▁arupärimine	-9.3273
▁rahastamise	-9.32731
▁lõike	-9.32833
▁kriminaal	-9.32924
▁küsimuste	-9.3297
▁pikalt	-9.32974
▁alus	-9.33007
▁Lisaks	-9.33028
▁asu	-9.33061
▁seadusega	-9.33132
▁juht	-9.33144
▁majanduse	-9.3316
▁otsust	-9.33188
▁muudatusi	-9.33246
valt	-9.33369
▁Stalnuhhin	-9.33504
▁jäävad	-9.33614
▁seadusena	-9.33763
aadi	-9.33794
▁õ	-9.33839
Kui	-9.33854
▁pöördu	-9.33896
%	-9.34307
▁arvesta	-9.34321
▁ükskõik	-9.34417
▁B	-9.34428
▁kuula	-9.34479
▁üldiselt	-9.34527
▁minema	-9.34558
▁omavalitsustele	-9.34681
▁erinevaid	-9.34763
▁juhatus	-9.34805
▁otsi	-9.34831
▁tekkis	-9.34853
▁Euroopas	-9.34864
▁riigid	-9.34917
▁19	-9.34922
▁organisatsiooni	-9.35029
▁räägi	-9.3505
▁samm	-9.35483
▁aastaks	-9.35586
maksu	-9.35612
▁st	-9.35633
▁probleemid	-9.3566
Eesti	-9.3568
▁palk	-9.35833
.)	-9.35995
▁Tõepoolest	-9.36005
▁keel	-9.36005
▁nimetatud	-9.36054
▁La	-9.36159
▁menetle	-9.3622
▁kujul	-9.36228
▁paar	-9.3628
▁koostööd	-9.3633
▁po	-9.36334
▁soovitakse	-9.36377
▁Kadri	-9.36485
▁selgita	-9.36491
seks	-9.36615
▁kasvu	-9.36652
▁pika	-9.36856
▁maailmas	-9.37081
▁protsess	-9.3729
▁tohiks	-9.37352
▁lahenda	-9.37377
▁ravi	-9.3751
▁Peeter	-9.37581
misele	-9.37597
▁Kolm	-9.37733
P	-9.37768
▁Eestisse	-9.37861
▁Res	-9.37871
ses	-9.37984
▁tasandil	-9.38058
▁õiguskantsleri	-9.38167
▁24	-9.38212
▁veelgi	-9.38275
▁plaanis	-9.38282
▁f	-9.38358
▁võimu	-9.38527
kki	-9.38546
fi	-9.38559
▁vabandust	-9.38577
ab	-9.3862
▁vajab	-9.38695
▁projekti	-9.38829
▁mingisugust	-9.389
▁sõltub	-9.38986
ani	-9.39013
▁raames	-9.39038
▁tunnista	-9.39167
▁riikliku	-9.39202
lane	-9.39233
▁praktika	-9.39403
tult	-9.39478
▁andma	-9.39622
▁lahku	-9.39754
▁toimi	-9.39782
▁teenuste	-9.39886
per	-9.3995
iku	-9.39984
▁pikk	-9.4003
▁täis	-9.40076
▁läheme	-9.40109
j	-9.40109
▁esimest	-9.40168
▁kiire	-9.4018
▁inim	-9.40234
▁põhjusel	-9.40265
tas	-9.40301
tamist	-9.40325
▁jätku	-9.40355
▁nendel	-9.40368
▁seisukohta	-9.40381
▁tasakaalu	-9.40459
▁eel	-9.40538
▁informatsiooni	-9.40565
▁konkreetne	-9.4057
▁antakse	-9.40573
▁ulatuses	-9.40577
▁paremaks	-9.40631
toetuse	-9.40653
▁äkki	-9.40732
▁suuna	-9.40774
▁makse	-9.40805
See	-9.40821
▁mitmeid	-9.40845
▁arvamuse	-9.40853
▁...	-9.40891
▁Ühe	-9.41059
▁energia	-9.41078
▁mõnes	-9.41112
▁turu	-9.41143
▁ettepanekud	-9.41303
tis	-9.41315
▁Jaak	-9.41349
▁valitsuses	-9.41488
▁aitab	-9.41512
▁kõnepulti	-9.41707
▁uusi	-9.41722
▁juhi	-9.41843
▁aidata	-9.41851
ministri	-9.41862
set	-9.4202
▁kirjuta	-9.42098
▁paranda	-9.42222
▁parandada	-9.42244
▁rahvus	-9.42264
▁pakkuda	-9.4228
▁õiguskantsler	-9.42292
▁16.	-9.42414
▁seis	-9.42517
▁kulud	-9.42579
▁soovib	-9.42608
▁ettevõtlus	-9.42682
▁lõpeta	-9.42693
▁õpetaja	-9.42702
▁kasuta	-9.42848
▁kõnesoove	-9.42856
▁liit	-9.42912
mat	-9.42916
▁tasuta	-9.4293
▁Sise	-9.42933
▁vaatama	-9.43019
▁erakondade	-9.43066
▁vähenda	-9.43127
▁tervikuna	-9.43206
▁kasvab	-9.43222
▁Lauri	-9.43292
tiiv	-9.43303
▁tahab	-9.43365
▁Ammas	-9.43437
▁rääkima	-9.43463
▁tõusu	-9.43478
▁tõus	-9.43569
▁kaheksa	-9.43676
▁Sven	-9.43687
▁milleks	-9.43725
▁uut	-9.43756
▁haldusreformi	-9.43794
▁poliitiline	-9.43881
▁lõpphääletusele	-9.44049
▁5	-9.44065
tati	-9.4413
ude	-9.44247
▁nendega	-9.44415
▁menetlemise	-9.44434
▁veidi	-9.4444
päevakorrapunkti	-9.44622
▁iseenesest	-9.44665
▁nemad	-9.44694
▁vastas	-9.44993
lo	-9.45057
▁tegelema	-9.45058
▁isiklikult	-9.45205
▁kur	-9.4521
▁ligi	-9.45283
▁suures	-9.45294
▁idee	-9.45339
▁6	-9.45343
ho	-9.45375
ameti	-9.45596
▁Toomas	-9.45725
menetluse	-9.45797
▁täita	-9.45838
▁U	-9.45932
▁võeti	-9.46049
▁muid	-9.46103
▁Kõnesoov	-9.46132
tasu	-9.46187
▁Kalle	-9.46188
▁hariduse	-9.4625
▁kõrgema	-9.46362
▁3	-9.46371
▁loogika	-9.46391
▁käsitlemise	-9.46468
▁au	-9.46495
▁käinud	-9.46511
▁teises	-9.46522
▁näete	-9.46571
▁kaua	-9.46585
▁Panga	-9.46646
▁nendes	-9.4665
N	-9.46847
▁eelnõusid	-9.46867
saa	-9.46909
dPoolt	-9.46942
▁töötajate	-9.47035
▁ühele	-9.47129
ult	-9.4717
▁rolli	-9.47192
▁jälgi	-9.47211
▁andis	-9.47249
▁väikese	-9.47275
▁tutvusta	-9.47277
tesse	-9.47314
▁suu	-9.47316
▁ühis	-9.474
▁lausa	-9.47593
up	-9.47775
▁jääda	-9.47793
▁mõista	-9.47869
▁direktiivi	-9.48149
▁maksumaksja	-9.48215
▁erapooletuks	-9.48225
▁Lõpetan	-9.48277
 "	-9.48309
▁Maksu	-9.48547
▁Liidus	-9.48826
▁No	-9.48862
▁sü	-9.48872
▁vaheaega	-9.48928
▁40	-9.48966
▁kuulnud	-9.48995
▁ühest	-9.49027
▁kerge	-9.49078
▁kohaloleku	-9.49093
strateegia	-9.4918
mo	-9.49252
▁tööandja	-9.49268
▁plaan	-9.49269
▁199	-9.49345
▁toetab	-9.49361
▁maksab	-9.49436
▁mulje	-9.49456
▁suhtu	-9.49602
liit	-9.49643
▁Haridus	-9.49694
▁lause	-9.49832
▁arvate	-9.49905
▁tulemus	-9.49952
▁arutatud	-9.5
▁toob	-9.50049
kond	-9.50057
▁paraku	-9.5008
▁kuud	-9.50149
määra	-9.50152
pp	-9.50161
▁osta	-9.50162
▁arvestades	-9.50219
▁tihti	-9.50227
ettepanekud	-9.50439
▁kõigil	-9.50461
jaid	-9.50493
▁sissetuleku	-9.50525
▁Tallinnas	-9.50569
▁rääkis	-9.50714
▁millise	-9.50814
süsteem	-9.50815
üli	-9.50874
▁kutsu	-9.50903
like	-9.50923
▁Publica	-9.5094
▁rakendamise	-9.5095
▁relva	-9.5105
▁käsi	-9.51093
Rohkem	-9.51152
▁uute	-9.51152
▁ettevõtjate	-9.51159
▁teda	-9.51198
▁president	-9.51216
▁kõrvale	-9.51298
kat	-9.51319
▁elanike	-9.5139
▁soo	-9.51408
▁teiseks	-9.51426
▁mäleta	-9.51579
▁valiku	-9.51593
▁lõpus	-9.51617
▁teenuse	-9.51635
kirja	-9.51651
▁Ega	-9.51767
▁järel	-9.51832
▁otsuste	-9.51922
üh	-9.51929
▁hoo	-9.5203
▁põhjalikult	-9.52063
ima	-9.52129
▁Narva	-9.52145
▁ringi	-9.52304
nik	-9.52312
maid	-9.52377
▁õpi	-9.52418
▁räägib	-9.52445
▁vastuste	-9.5252
▁in	-9.52674
▁laps	-9.52799
kuu	-9.52815
▁isikute	-9.52817
▁kütuse	-9.52859
▁Priit	-9.52917
▁2013.	-9.5294
amet	-9.53009
▁seesama	-9.53096
▁Va	-9.53153
▁tegelda	-9.53203
R	-9.53248
▁teemaga	-9.53292
▁presidendi	-9.53298
▁2014.	-9.53426
▁julge	-9.53443
▁istungit	-9.53538
ksite	-9.53581
misse	-9.53886
▁ausalt	-9.53995
▁tead	-9.54003
▁kuulda	-9.54016
seadus	-9.54059
▁meeldi	-9.5408
▁regulatsiooni	-9.54084
▁Teadus	-9.54125
▁12.	-9.54229
▁väheneb	-9.5432
▁mõtlema	-9.54348
▁taotle	-9.54354
▁tulema	-9.54387
▁Martin	-9.54394
▁positiivne	-9.54403
▁ela	-9.54527
▁Simson	-9.54666
▁räägin	-9.54764
▁eelda	-9.54768
▁Millise	-9.54872
▁vanema	-9.55025
nduse	-9.55135
asutuste	-9.55148
ing	-9.55204
▁Määra	-9.55241
reid	-9.55277
▁müü	-9.55282
▁sotsiaalmaksu	-9.55291
ap	-9.55317
usi	-9.55335
hüvitis	-9.55355
▁Taavi	-9.55431
kuse	-9.55495
▁raudtee	-9.55522
▁mingisugune	-9.55629
▁istu	-9.55631
▁panga	-9.55782
▁erakond	-9.55803
▁ürita	-9.55804
▁laeva	-9.55983
▁riigil	-9.56059
▁hinnangu	-9.56075
▁kohus	-9.5609
▁paika	-9.56108
▁rahu	-9.56245
▁si	-9.56465
▁Reformierakond	-9.56653
▁üldise	-9.56696
▁roll	-9.56733
▁püsi	-9.56758
▁kohapeal	-9.56844
poole	-9.56851
▁liikmetel	-9.56883
▁arvel	-9.56943
▁väiksem	-9.57033
▁vahepeal	-9.57033
Andres	-9.57117
▁silma	-9.57198
▁mitmed	-9.57311
▁Kübarsepp	-9.57319
tsu	-9.57325
▁tähtaja	-9.5734
▁võimalda	-9.57349
▁hakatakse	-9.57419
▁otsustab	-9.57496
▁niisugune	-9.57592
▁ehita	-9.57616
▁lugu	-9.57631
▁avalik	-9.57922
▁kutse	-9.5795
bu	-9.57981
ndada	-9.58034
▁mujal	-9.58166
▁Le	-9.58262
▁põhikooli	-9.58399
elu	-9.58402
▁paari	-9.58533
▁Veel	-9.58554
▁teede	-9.58869
▁nimekirja	-9.58871
▁tuleviku	-9.58951
▁ettevõtja	-9.59029
iv	-9.59039
▁erinevate	-9.59078
▁milles	-9.59188
▁ajaloo	-9.59202
▁ettekandes	-9.59376
▁mäletan	-9.5939
▁teeni	-9.59418
▁andmed	-9.59445
▁kulude	-9.59475
Kas	-9.59501
▁teisele	-9.59643
▁karistus	-9.59662
▁hinnata	-9.59713
▁protokolli	-9.59733
▁mingid	-9.59751
atsioon	-9.59831
▁to	-9.59864
▁andmeid	-9.5989
▁ütlevad	-9.60033
▁positiivse	-9.60098
▁muutu	-9.60121
▁lähtu	-9.60178
▁konkurentsi	-9.60228
väär	-9.60256
ooni	-9.60372
▁ehitus	-9.60423
▁kohalikud	-9.60482
▁ministrile	-9.60629
▁27	-9.6076
▁igati	-9.60776
▁järgmised	-9.60797
aine	-9.60827
▁huvitav	-9.60944
▁tahavad	-9.61005
▁otsa	-9.61016
▁Millin	-9.61048
▁õigust	-9.61111
▁tõe	-9.61114
▁jä	-9.61172
nti	-9.61339
muudatus	-9.61427
▁vä	-9.6146
neb	-9.6147
ame	-9.61635
▁tegeleb	-9.61731
tegevuse	-9.61761
▁uudis	-9.6181
▁Sel	-9.61894
▁seonduvalt	-9.6191
▁koolis	-9.6193
▁hulka	-9.61942
▁koostöös	-9.61954
kku	-9.62055
▁Istungi	-9.62158
▁pannud	-9.62212
nn	-9.62217
▁kehtib	-9.62222
▁vali	-9.62285
▁Ehk	-9.62329
▁Urve	-9.62543
▁täpsemalt	-9.62577
▁parema	-9.62586
ati	-9.62665
Eelnõu	-9.62788
▁vahendeid	-9.62792
▁kirjelda	-9.62803
▁sul	-9.62883
▁konventsiooni	-9.62925
▁paljude	-9.62932
ena	-9.62938
▁R	-9.63005
▁saavutada	-9.63017
kord	-9.63038
▁seisukoha	-9.63134
▁tegevust	-9.6321
▁puudutavad	-9.63326
▁hakkame	-9.63479
▁missiooni	-9.63493
▁sünni	-9.63605
▁viimasel	-9.63649
▁tarbija	-9.63687
▁küsis	-9.63691
▁nimetada	-9.63756
▁vastan	-9.63778
▁teed	-9.63844
▁soovita	-9.63953
▁tähtsa	-9.63955
kus	-9.63978
▁tööjõu	-9.64062
▁ESM	-9.64133
▁Oma	-9.6418
▁4	-9.64206
miste	-9.64224
▁muutus	-9.64244
▁pidevalt	-9.64272
▁kasvanud	-9.64423
▁päeval	-9.64432
▁eralda	-9.6444
justiitsminister	-9.6455
▁räägitakse	-9.64668
▁esitas	-9.64694
▁60	-9.64717
▁maksa	-9.64735
▁isik	-9.64791
▁vastates	-9.6482
▁Ossinovski	-9.64851
▁registri	-9.64935
▁küllalt	-9.64954
juht	-9.6498
▁N	-9.64987
▁elavad	-9.64999
▁sammu	-9.65305
▁parlament	-9.65314
▁selgitada	-9.65333
▁lubatud	-9.65362
▁investeeringute	-9.65456
▁saavuta	-9.65517
▁laekunud	-9.65577
▁väiksema	-9.65602
nne	-9.65662
▁võttis	-9.65678
▁Tegemist	-9.65679
eti	-9.65703
▁2015.	-9.65742
vä	-9.65774
▁endiselt	-9.65787
Laul	-9.65807
▁Pea	-9.65842
▁sotsiaalse	-9.65861
▁nädalal	-9.65875
▁lii	-9.65899
▁Sellega	-9.65916
▁tekita	-9.6602
▁diskussiooni	-9.66041
▁koalitsioon	-9.66068
Mis	-9.66085
▁loobu	-9.66123
▁menetluse	-9.66149
▁pro	-9.66153
▁läbirääkimiste	-9.66264
▁Nestor	-9.66303
▁avalda	-9.66324
▁eelarves	-9.66344
▁istung	-9.66349
▁Kaitseväe	-9.66386
▁jahi	-9.6644
▁Oleme	-9.66476
▁kohas	-9.66533
▁väide	-9.66596
▁lugemisele	-9.66634
 000	-9.66716
▁reklaami	-9.6674
▁Selline	-9.66875
isa	-9.66895
▁Põlluaas	-9.66931
▁täpsusta	-9.66977
▁pööra	-9.67022
▁jõud	-9.67025
▁suutnud	-9.67038
▁keskmine	-9.67038
▁esile	-9.67071
▁vähene	-9.67166
▁perekonna	-9.67172
▁rahvusvaheliste	-9.67295
▁tuleneb	-9.67335
▁vastutus	-9.67451
▁kasu	-9.67499
▁mingisuguse	-9.67512
▁anna	-9.67584
▁juhtumi	-9.67606
▁tunduvalt	-9.67676
rite	-9.67708
tavate	-9.67767
▁aluseks	-9.67768
▁Teise	-9.67771
▁kellele	-9.67812
▁kohalik	-9.67887
ris	-9.68048
▁looma	-9.68116
▁Ameerika	-9.68306
▁Sõerd	-9.68307
▁probleemide	-9.68335
▁õiguskomisjoni	-9.68403
▁Esimese	-9.68431
▁kujuta	-9.68445
▁pr	-9.6857
teema	-9.68628
▁piira	-9.68671
sioon	-9.68703
▁tõsise	-9.68772
▁naiste	-9.68776
▁sõlmi	-9.68809
▁mõlema	-9.68933
▁ema	-9.69011
▁last	-9.69187
sama	-9.69241
▁Välis	-9.69257
▁kahtlemata	-9.69278
▁riski	-9.69345
▁toonud	-9.69449
▁teenust	-9.69537
▁keskmise	-9.69585
liidu	-9.69594
▁kinnitada	-9.69606
▁arenda	-9.69673
aastase	-9.69694
▁olevat	-9.69794
aar	-9.6984
▁leia	-9.6985
▁näen	-9.69855
▁astu	-9.69861
▁Nõukogu	-9.69874
▁põhjendatud	-9.69894
▁Tuus	-9.69982
▁äärmiselt	-9.70027
▁r	-9.7005
poolse	-9.70247
▁käima	-9.70256
▁Konservatiivse	-9.703
▁öeldakse	-9.70375
▁maja	-9.70397
korra	-9.70431
▁korruptsiooni	-9.70463
▁reguleeri	-9.70464
▁Küsimusi	-9.70566
▁ministeerium	-9.70616
▁teiega	-9.7073
▁oled	-9.70772
▁jõuab	-9.70878
▁osaleda	-9.70889
▁17.	-9.70904
▁Keskerakond	-9.71009
▁märksa	-9.71013
▁suuremad	-9.71044
▁Valeri	-9.71114
▁Rahvaerakonna	-9.71118
▁Tõsi	-9.71142
▁Mailis	-9.71226
▁võimaldab	-9.71242
▁töötada	-9.71318
▁tagatud	-9.71348
▁arve	-9.71382
▁lühidalt	-9.71446
▁Sellise	-9.71498
▁toimetuleku	-9.71559
▁prioriteet	-9.71565
ine	-9.71591
aks	-9.71605
▁rahul	-9.71617
Nüüd	-9.71633
▁regionaal	-9.71651
▁Jä	-9.71663
ida	-9.71694
ige	-9.71704
▁oleva	-9.71764
lasi	-9.71771
▁demokraatia	-9.71778
▁kella	-9.71875
▁Kruuse	-9.71887
▁lahendusi	-9.7191
▁Vassiljev	-9.71923
▁Al	-9.71939
▁Iga	-9.71996
▁arutasime	-9.72066
lase	-9.72154
▁1,	-9.72206
▁tekitab	-9.72223
tegevus	-9.7228
▁jätnud	-9.7233
▁vastuseid	-9.72343
▁jõuda	-9.72353
pidi	-9.7237
Me	-9.72387
▁tõi	-9.72392
ori	-9.72439
▁hoone	-9.72444
likke	-9.72455
kulude	-9.72501
ski	-9.72501
pär	-9.72546
▁võta	-9.72625
▁Rõivas	-9.72633
▁selgeks	-9.72669
▁2017.	-9.72712
▁olulisem	-9.72749
▁Politsei	-9.72774
▁sõja	-9.72842
▁tähtaeg	-9.72929
▁parima	-9.72953
▁esma	-9.72955
▁Adams	-9.72997
▁Kommunikatsioon	-9.72997
▁Krista	-9.73072
▁menetlemisel	-9.73163
▁rahvas	-9.73174
▁põlevkivi	-9.73249
▁juhtub	-9.73272
▁klassi	-9.7332
▁võrrelda	-9.73333
▁proovi	-9.73445
▁toidu	-9.73464
sest	-9.73606
▁julgen	-9.73608
iste	-9.73686
▁osakonna	-9.73712
▁kehtestada	-9.7376
▁Re	-9.73762
▁vajavad	-9.73822
▁tugeva	-9.73838
▁telli	-9.73851
▁vaata	-9.73894
▁SKT	-9.73895
▁kirjutatud	-9.73932
Jah	-9.74022
▁töötab	-9.74051
▁milliseid	-9.74105
▁rääkisite	-9.74265
▁olegi	-9.7433
▁seletuskirja	-9.7437
▁pädevus	-9.74445
riik	-9.74473
ndamise	-9.7455
▁ÜRO	-9.74573
▁Sellepärast	-9.74613
rü	-9.74699
▁sulle	-9.74719
▁jätkata	-9.74778
▁esinda	-9.74872
▁Energia	-9.74913
▁loomise	-9.74918
▁aastaga	-9.74989
▁15.	-9.75034
▁arvata	-9.75038
▁2,	-9.75168
▁siseminister	-9.7517
▁eeldus	-9.75175
▁lahenduse	-9.75187
▁kehtesta	-9.75189
▁positsiooni	-9.7521
▁viibi	-9.75245
▁parandus	-9.75249
▁suurene	-9.75287
▁töönädala	-9.7529
▁enamik	-9.75342
▁pane	-9.75364
▁35	-9.75542
▁arutame	-9.75597
uma	-9.75602
küsimus	-9.7563
▁vormis	-9.75637
▁anname	-9.75761
▁oskus	-9.75965
▁Kaitse	-9.76058
▁esine	-9.76151
▁las	-9.7616
▁Eiki	-9.76163
demokraadid	-9.76174
▁tõsine	-9.76291
▁annan	-9.76332
▁suuremat	-9.76381
▁Leedu	-9.76401
▁soovime	-9.7642
▁loe	-9.76432
▁m	-9.76465
▁novembri	-9.76538
▁kasutatakse	-9.76542
Panen	-9.76543
▁väite	-9.7657
▁käes	-9.76627
ruumi	-9.76663
▁palu	-9.76666
▁jätka	-9.76687
▁valimistel	-9.76748
kava	-9.76772
▁käe	-9.7689
▁vastuvõtmise	-9.76919
▁teosta	-9.76942
▁Haukanõmm	-9.76984
▁võttes	-9.76986
mõ	-9.77004
▁0	-9.77071
kirju	-9.77132
Te	-9.7715
▁poolest	-9.7715
▁käivad	-9.77162
▁rakendada	-9.77173
▁lihtsa	-9.77211
▁arvesse	-9.77216
▁pani	-9.77269
▁ettekandjaks	-9.77309
▁valimiste	-9.77325
▁sellises	-9.77383
▁lõpu	-9.77423
▁paneb	-9.77451
▁lasteaia	-9.77455
▁töötavad	-9.77502
▁tore	-9.77513
▁üksnes	-9.77593
▁pension	-9.77624
▁13.	-9.77627
iks	-9.77641
▁detsembri	-9.77728
▁sea	-9.77742
pea	-9.77774
konto	-9.77794
▁Tiidus	-9.77801
▁said	-9.77858
▁teistes	-9.77859
▁lõpuni	-9.77876
▁kuul	-9.77877
rit	-9.77915
koht	-9.7798
ot	-9.78059
▁suunatud	-9.7808
hinna	-9.78104
▁suuri	-9.7813
▁Pi	-9.78239
▁ettevõtjad	-9.78259
▁de	-9.78297
▁kuulub	-9.78314
▁laeku	-9.78323
▁regulatsioon	-9.78368
▁arutelul	-9.78403
▁väljenda	-9.78458
eeritud	-9.78526
▁Vene	-9.7853
ea	-9.78599
▁nõustu	-9.78716
▁Toobal	-9.78743
ana	-9.7879
keel	-9.78934
▁näiteid	-9.78944
▁arvatud	-9.78957
õigus	-9.78985
▁ministeeriumide	-9.79018
▁korraldada	-9.791
▁valik	-9.79119
▁juuni	-9.79137
▁sobi	-9.79157
▁kohale	-9.79158
▁lähi	-9.79288
▁maakonna	-9.79389
tee	-9.7945
vas	-9.79453
▁kuue	-9.79493
▁läheks	-9.79493
▁gaasi	-9.79582
Virumaa	-9.79757
▁kindlustus	-9.79761
turu	-9.7977
▁teenuseid	-9.79779
▁liikmesriikide	-9.79835
▁täpsustada	-9.7993
5%	-9.79978
▁seletuskirjas	-9.80038
vus	-9.80053
▁vähenenud	-9.80091
▁taotlus	-9.80122
pan	-9.80173
sete	-9.803
tamiseks	-9.80319
▁viimane	-9.80351
▁maksude	-9.8036
▁viimastel	-9.80383
▁Kultuuri	-9.80408
endi	-9.80441
▁kohustusi	-9.80443
teenuse	-9.80543
▁Riigikontrolli	-9.80555
aeg	-9.80658
▁reaalse	-9.8071
▁muret	-9.80833
▁andmise	-9.80887
▁halb	-9.809
▁perioodi	-9.81032
▁jõudu	-9.81104
▁tekkida	-9.81137
uks	-9.8128
eni	-9.81333
▁valesti	-9.81439
▁näi	-9.81492
nenud	-9.8157
▁esitab	-9.81572
last	-9.81581
▁ülejäänud	-9.81581
▁vastama	-9.81663
umi	-9.81712
▁Reinsalu	-9.81744
▁kedagi	-9.8186
▁asjaolu	-9.81864
▁ammu	-9.81866
▁ütlesid	-9.81881
▁ettevõtluse	-9.81887
▁Enne	-9.81905
▁lastele	-9.81916
▁ülesannete	-9.81934
▁kehtestatud	-9.81983
▁Talvik	-9.81991
▁oskate	-9.82009
▁dokument	-9.82071
▁käis	-9.82139
▁Kahjuks	-9.82144
▁istungjärgu	-9.82171
▁makstakse	-9.82214
▁ajaks	-9.82304
▁rääkisin	-9.82315
c	-9.82324
▁olulised	-9.82374
▁tulemusena	-9.82423
▁töötaja	-9.82442
sust	-9.82558
▁siht	-9.8257
▁arupärimisi	-9.82601
▁kusagil	-9.82602
▁sõit	-9.82609
▁eriala	-9.82628
▁tundi	-9.82645
▁ühise	-9.82648
las	-9.82794
▁Peale	-9.82844
▁2016.	-9.82865
pool	-9.82866
▁osaliselt	-9.82893
▁liiklus	-9.82908
▁Madison	-9.82914
▁kodaniku	-9.82958
▁arutama	-9.83003
▁andmete	-9.83049
▁riigieelarvest	-9.83088
▁Teatavasti	-9.83094
▁hääle	-9.83104
▁karista	-9.83168
▁lugemist	-9.83177
viisi	-9.83204
▁avalduse	-9.83258
moodi	-9.83259
▁meede	-9.83439
▁tegutse	-9.83491
▁viisil	-9.835
▁no	-9.83585
▁pisut	-9.83589
sektori	-9.83602
▁hoid	-9.83613
teks	-9.83644
▁b	-9.83668
▁küljest	-9.83708
▁meelt	-9.8371
▁lõpphääletuse	-9.83723
▁piima	-9.83779
▁kahel	-9.83837
▁vastuolu	-9.83861
▁tulen	-9.83862
▁meedia	-9.83867
▁perede	-9.8389
▁menetlusse	-9.83903
▁käia	-9.84069
▁leidis	-9.84087
▁Kes	-9.8414
▁otsustati	-9.84146
vähem	-9.84205
▁mängi	-9.84221
▁korraldamise	-9.84238
▁alg	-9.84359
▁haigla	-9.84379
▁kodus	-9.84409
▁võiksime	-9.84414
▁jõua	-9.84418
▁toon	-9.84422
▁21	-9.84429
▁vaidlus	-9.84444
▁põhimõte	-9.84461
▁usalda	-9.84462
▁Kalev	-9.84465
▁mainisite	-9.84493
je	-9.84508
pärast	-9.8451
▁jutu	-9.84512
▁maaelu	-9.84539
▁kellegi	-9.84596
▁veendunud	-9.84604
▁eesmärgi	-9.84604
isu	-9.84609
vu	-9.84627
▁tugev	-9.84683
▁töötu	-9.84918
▁lähtudes	-9.84929
▁sõ	-9.84939
▁homme	-9.84964
hoolekande	-9.84964
▁rakendus	-9.84965
▁varasema	-9.8498
▁statistika	-9.85015
▁ütle	-9.85089
▁nõunik	-9.85093
▁peate	-9.85171
▁Hanno	-9.85227
▁seadusandja	-9.85252
▁ülikooli	-9.85316
kohtu	-9.85334
elda	-9.85349
▁näitaja	-9.85386
▁laiema	-9.85415
▁To	-9.8543
▁väljaspool	-9.8547
▁reaalselt	-9.85533
ika	-9.85614
▁reisi	-9.85618
ministeeriumis	-9.85654
▁Marko	-9.85723
▁raamatu	-9.85768
▁lo	-9.8581
▁sees	-9.85818
▁elus	-9.85847
▁erinev	-9.85863
tulu	-9.85894
vastase	-9.85901
▁Rail	-9.85916
▁puudutas	-9.85942
▁alternatiiv	-9.85976
▁hulga	-9.8598
▁koolide	-9.86042
kust	-9.86129
▁vanemate	-9.86161
▁esita	-9.86194
▁kaitsta	-9.86198
▁maini	-9.862
▁aruande	-9.86215
▁pruugi	-9.86231
▁valimisi	-9.86267
fondi	-9.86342
▁nõuab	-9.86345
▁ühtse	-9.86444
▁noored	-9.86484
▁Lu	-9.86505
▁loodud	-9.86561
▁rakenda	-9.86575
▁aita	-9.86625
▁soovin	-9.86626
▁mõlemad	-9.86632
▁saadud	-9.86637
Virumaal	-9.86658
▁mingisuguseid	-9.86668
▁nõue	-9.86722
▁keskendu	-9.86744
tades	-9.86749
▁kuulata	-9.86785
▁valitsusel	-9.86835
▁seas	-9.86898
▁arusaam	-9.8693
uni	-9.8695
▁Soomes	-9.87001
▁piisav	-9.87101
▁investeeri	-9.87181
▁komisjonide	-9.87195
▁vääri	-9.87205
▁mõjutab	-9.87258
juhi	-9.87313
▁võrdse	-9.87325
ver	-9.87329
▁mil	-9.87364
▁ruumi	-9.87384
▁pannakse	-9.87393
▁Riigikogule	-9.87399
▁kauba	-9.874
▁mitmel	-9.87401
▁tänane	-9.87483
▁kasvata	-9.87514
▁500	-9.87623
▁kiiremini	-9.87652
▁sätestatud	-9.87738
▁konsensusega	-9.87802
▁erineva	-9.87808
▁28	-9.8781
▁juhtudel	-9.8782
▁vallas	-9.87828
▁Jevgeni	-9.8785
▁mõnda	-9.87902
▁protseduuriline	-9.87937
eva	-9.88057
▁töös	-9.88077
▁ükski	-9.88098
▁ootus	-9.88124
▁omavalitsusi	-9.8813
▁tubaka	-9.88159
▁kehtima	-9.88176
▁hääletamise	-9.88232
▁teistmoodi	-9.88307
ingi	-9.88393
▁paberi	-9.88405
▁arusaadav	-9.88424
▁turva	-9.8846
▁Kogu	-9.88481
▁ütlete	-9.88482
kool	-9.88486
▁Töö	-9.88519
▁arvestanud	-9.88633
Liigume	-9.88683
▁saaksime	-9.88705
▁avatud	-9.88735
▁2012.	-9.88739
ppi	-9.88751
▁uued	-9.88789
▁vajadust	-9.88792
ada	-9.88899
▁loen	-9.88955
▁kohustuste	-9.88976
ate	-9.88991
eerimise	-9.88996
▁räägite	-9.89079
▁suudame	-9.89091
▁väita	-9.8912
rahanduskomisjon	-9.89167
▁täiendava	-9.89191
▁ühistranspordi	-9.89208
▁suunata	-9.89209
▁põhjaliku	-9.8921
▁jõustu	-9.89219
hk	-9.89249
▁valimise	-9.89272
▁edu	-9.89333
▁arusaama	-9.89338
ent	-9.89347
▁Reps	-9.89351
▁kõikidele	-9.89447
▁10.	-9.89468
▁analüüs	-9.89597
Aga	-9.89621
▁liikmeid	-9.89622
▁südame	-9.89647
▁riike	-9.89758
▁Ratas	-9.8976
▁Lätis	-9.8983
▁sellesama	-9.89853
▁valida	-9.89873
▁inimesele	-9.89903
▁vastava	-9.89927
sõna	-9.89945
▁Viktor	-9.89967
▁Kõige	-9.89983
▁Tuleb	-9.89999
▁kahte	-9.9002
▁kavatse	-9.9002
▁müügi	-9.90024
isi	-9.9006
▁suuruse	-9.90062
ettevõtte	-9.90063
õl	-9.90087
▁kordan	-9.90094
▁22	-9.90116
),	-9.90247
▁arust	-9.90386
▁erinevus	-9.90387
▁kulusid	-9.90526
▁vaadates	-9.90528
▁Muidugi	-9.90531
▁11.	-9.90574
allika	-9.90584
▁registreeri	-9.90586
▁arutati	-9.90721
uste	-9.90779
▁panusta	-9.90799
▁pluss	-9.90801
organ	-9.9084
▁jaanuaril	-9.90845
▁45	-9.91006
enda	-9.91013
▁teel	-9.91073
▁14.	-9.91119
▁tuletan	-9.91171
▁tunni	-9.91173
▁L	-9.91259
▁jääks	-9.91264
▁fondi	-9.91385
▁Indrek	-9.91464
nõu	-9.91517
idele	-9.91544
▁hoia	-9.91544
▁pikka	-9.91568
Peeter	-9.91675
▁Mille	-9.9168
vast	-9.91684
▁inimestega	-9.91691
eerida	-9.9172
▁Pigem	-9.91738
▁meetmeid	-9.91751
grupp	-9.91808
▁seisukohti	-9.91813
▁liitu	-9.91819
▁loodus	-9.91903
idega	-9.91917
▁muutma	-9.91951
usega	-9.91959
▁meditsiini	-9.92005
▁tunnusta	-9.9211
päev	-9.92126
▁debati	-9.92138
▁iganes	-9.92149
oor	-9.92162
▁18.	-9.92162
demokraatide	-9.92169
▁teiselt	-9.92185
▁niivõrd	-9.92224
teenuste	-9.92241
▁reform	-9.92249
tuks	-9.92264
asi	-9.9229
▁kuluta	-9.92303
▁meist	-9.92383
▁siiamaani	-9.92409
oma	-9.92451
▁suureneb	-9.92545
▁ettevõte	-9.92571
▁10%	-9.92611
keskus	-9.92647
▁käsitleb	-9.92652
▁kon	-9.92687
▁olin	-9.92697
▁milliste	-9.9287
▁sekku	-9.92881
päeval	-9.92911
keskuse	-9.9298
▁Mu	-9.92992
▁õpeta	-9.93027
▁võinud	-9.93049
▁hü	-9.93076
▁transpordi	-9.93093
▁suurte	-9.93148
▁Maa	-9.93179
▁majanduskasvu	-9.93183
seisu	-9.93196
▁planeeri	-9.93215
▁debatt	-9.93229
▁kaas	-9.93244
ak	-9.93377
▁ühiskond	-9.93451
▁avalikus	-9.93483
▁päri	-9.93578
▁huvide	-9.9359
▁meetmed	-9.93592
▁lange	-9.93686
▁Paraku	-9.93774
▁Tõesti	-9.93774
▁Val	-9.93786
hariduse	-9.93811
▁näidata	-9.9385
▁jällegi	-9.93862
▁kvaliteedi	-9.93901
▁lennu	-9.9392
▁viga	-9.93954
▁Mind	-9.93962
▁takista	-9.93972
▁Mi	-9.94013
▁häid	-9.9405
▁inimesel	-9.94056
▁seadusi	-9.94064
▁puudega	-9.94069
▁Marika	-9.94131
▁töötukassa	-9.94187
▁seisu	-9.94203
ps	-9.94203
idest	-9.94275
▁32	-9.94321
▁esiteks	-9.9433
▁soovitus	-9.9436
menetlus	-9.94394
▁negatiivse	-9.94464
Va	-9.94533
maal	-9.9461
▁isiklik	-9.94637
▁2.	-9.94688
▁põhimõtte	-9.94733
▁Kesk	-9.94861
▁kokkulepe	-9.94875
▁tund	-9.94877
komisjonilt	-9.94938
▁samme	-9.94942
▁edasta	-9.94954
programmi	-9.94959
▁vastused	-9.94991
▁2018.	-9.95005
valdkonna	-9.95032
▁pakutud	-9.95129
▁saime	-9.95212
▁isa	-9.95233
▁täpsustav	-9.95237
▁konkreetset	-9.95244
▁kogemus	-9.95291
▁Põhja	-9.95297
tusi	-9.95366
▁investeeringuid	-9.95445
▁elab	-9.95469
▁tõsi	-9.95502
▁Riik	-9.95561
oli	-9.95597
▁kaupa	-9.9564
▁küsima	-9.95647
deks	-9.95654
▁Rootsi	-9.95674
▁paragrahvi	-9.95704
õi	-9.95787
▁põ	-9.95801
▁esindab	-9.95831
▁hakanud	-9.95858
▁Külliki	-9.95915
▁üleval	-9.95924
▁mo	-9.95964
▁tehta	-9.95976
▁vähendamise	-9.96045
▁tõele	-9.96084
▁muuda	-9.96092
▁miinimum	-9.96113
▁elada	-9.96177
stamine	-9.96204
▁Panen	-9.96252
▁rõhutan	-9.96276
▁kursis	-9.96281
▁EKRE	-9.9642
▁hiljuti	-9.9642
taja	-9.96426
▁annaks	-9.9648
▁Võ	-9.96486
▁tasakaalus	-9.96504
▁ravimi	-9.9655
▁tahate	-9.96595
▁esindajana	-9.96609
▁selgus	-9.96638
▁fakt	-9.96654
käi	-9.96678
rid	-9.96721
▁õhu	-9.96765
▁küsisin	-9.96769
▁ettekanne	-9.96783
▁lihtsam	-9.96834
eg	-9.96849
▁toetuste	-9.96856
▁öö	-9.96872
kohustus	-9.96874
▁õigustatud	-9.96875
▁Läheme	-9.96927
▁ametnike	-9.96943
▁sõnum	-9.96966
Riigikogu	-9.96992
▁3.	-9.96997
▁paku	-9.97039
▁kõlas	-9.9712
▁asenda	-9.97212
▁so	-9.97215
▁kohalikele	-9.97216
akt	-9.97244
andja	-9.97255
▁küsimusega	-9.97297
▁põhiseadusega	-9.97351
▁Ku	-9.97429
stiku	-9.97454
▁õpilaste	-9.97459
▁arvestama	-9.97526
▁leiab	-9.97541
▁teisest	-9.9757
▁lahendust	-9.97633
▁Su	-9.97641
▁ro	-9.97678
▁huvitava	-9.97711
▁teen	-9.97718
▁osalus	-9.97745
▁20%	-9.97795
▁toetanud	-9.97814
▁määruse	-9.97907
▁operatsiooni	-9.97909
spetsialist	-9.98071
▁nä	-9.98133
rg	-9.98136
▁käitu	-9.98163
▁23	-9.98175
▁5.	-9.98408
▁surve	-9.98411
H	-9.9845
▁dokumendi	-9.98516
tsa	-9.98574
▁noor	-9.98603
▁tõuseb	-9.98655
▁põhjenda	-9.98662
▁usaldus	-9.98704
▁ülesandeid	-9.98757
▁sada	-9.98764
▁kasutamine	-9.98792
▁täitmise	-9.9882
▁minuti	-9.98947
▁tänaseks	-9.98948
▁uuringu	-9.98989
▁üldine	-9.99009
▁kodanike	-9.9901
▁ehitada	-9.99016
vee	-9.99032
ali	-9.99052
▁eelarvet	-9.99079
kulu	-9.99121
▁aprilli	-9.99125
Ei	-9.99153
lust	-9.99154
▁tunnistama	-9.99162
▁Igor	-9.99167
▁Sellel	-9.99224
▁ühelt	-9.9924
▁9.	-9.99255
sem	-9.99279
▁kujunda	-9.99285
▁mahus	-9.99302
aalne	-9.99309
▁lepi	-9.99337
▁eelmine	-9.99367
▁süüdi	-9.99371
▁vahet	-9.99389
▁tuleva	-9.99395
▁investeerimis	-9.99396
▁maks	-9.994
▁Rein	-9.99402
▁muudatuste	-9.99417
▁valdkond	-9.99428
▁laua	-9.99437
▁avalikkuse	-9.99455
▁laia	-9.99473
või	-9.99486
▁tahetakse	-9.99505
▁küla	-9.99533
▁Pärnu	-9.99545
▁sala	-9.99576
▁kasva	-9.99577
Tere	-9.99583
▁valija	-9.99656
ib	-9.99714
▁Mitte	-9.99723
▁eestikeelse	-9.99875
▁süü	-9.99934
▁tol	-9.99975
▁registreeru	-10.0001
▁vastuolijaid	-10.0001
▁7	-10.0001
▁mahu	-10.0006
▁vastuolus	-10.0013
▁muutmine	-10.0016
▁rida	-10.0021
▁absoluutselt	-10.0021
kordse	-10.0035
▁Jaanus	-10.0037
▁baas	-10.0037
▁otsustanud	-10.004
▁hinnang	-10.0053
▁püüd	-10.0053
▁Ülikooli	-10.0053
▁muudatuse	-10.0057
▁hetke	-10.0058
▁Ju	-10.0071
▁teab	-10.0074
▁olles	-10.0075
Muudatus	-10.0079
kulud	-10.008
▁eesmärki	-10.0091
▁ost	-10.0092
▁jaanuari	-10.0094
▁üheksa	-10.0094
▁meele	-10.0098
▁51	-10.0099
▁strateegia	-10.0102
▁fakti	-10.0107
▁paljudes	-10.0109
▁perearsti	-10.0109
▁kuuluvad	-10.011
▁õiguste	-10.0114
haridus	-10.0116
▁jäetud	-10.0119
fond	-10.012
punkti	-10.0122
▁sugugi	-10.0124
▁mitmes	-10.0128
üle	-10.0128
▁ajast	-10.0134
▁Sults	-10.0135
▁ratifitseeri	-10.0144
rge	-10.0144
▁kontrollKohal	-10.0144
▁parlamendis	-10.0147
▁kontrollida	-10.0149
▁laienda	-10.0159
elge	-10.0175
nä	-10.0176
▁summad	-10.018
mees	-10.0186
▁vajalikud	-10.0191
▁käesoleva	-10.0194
äri	-10.0194
toetuste	-10.0195
summa	-10.0203
▁Kohtu	-10.0209
▁partner	-10.021
▁annavad	-10.0212
▁töövõime	-10.0214
Euroopa	-10.0214
▁interneti	-10.022
▁suund	-10.0221
toetust	-10.0229
Läheme	-10.0229
▁H	-10.023
▁Põhiseadus	-10.0235
▁üli	-10.0237
kke	-10.0239
▁struktuuri	-10.0239
▁tõstmise	-10.0242
vara	-10.0246
▁kõnes	-10.0254
▁kul	-10.0254
õr	-10.0255
▁osakaal	-10.0256
▁aktiivse	-10.0257
▁34	-10.0258
luba	-10.0258
ig	-10.0261
▁meelega	-10.0263
pidamise	-10.0266
▁konsensuslikult	-10.027
Küsimused	-10.0282
▁asutus	-10.0283
▁selgub	-10.0283
▁küsite	-10.029
).	-10.0305
▁Vä	-10.0309
▁kasulik	-10.032
Selle	-10.0321
▁infot	-10.0327
▁seleta	-10.0329
▁raja	-10.0332
▁mingite	-10.0334
ld	-10.0335
kondade	-10.0335
▁nõuded	-10.0337
▁lepitud	-10.034
hti	-10.0346
▁põhjendus	-10.0353
stama	-10.0356
▁investeeringu	-10.0368
Nii	-10.0368
▁programm	-10.037
▁miljardit	-10.0372
▁teavita	-10.0378
▁kavas	-10.038
▁koosseisus	-10.038
▁tulumaksuvaba	-10.0381
▁arsti	-10.0382
▁ametnikud	-10.0382
▁Ki	-10.0383
▁Kuu	-10.0383
▁valitsusele	-10.0384
rdi	-10.0395
▁3,	-10.0398
väga	-10.0401
▁põhjustel	-10.0401
ettevõtja	-10.042
▁alustada	-10.0427
▁sõltumatu	-10.0431
▁töökohti	-10.0439
▁olemasoleva	-10.0449
▁kindlaks	-10.0454
▁arendamise	-10.0456
▁küsimustes	-10.0457
van	-10.0458
▁Minister	-10.0461
maja	-10.0462
▁materjali	-10.0464
umise	-10.0465
▁tegelevad	-10.0481
▁partei	-10.0482
▁Just	-10.0483
▁kavanda	-10.0485
▁33	-10.049
▁planeeritud	-10.0493
▁kanda	-10.0496
▁korralduse	-10.0497
▁ohtu	-10.0502
▁avalikku	-10.0504
▁efektiivse	-10.0509
0 000	-10.0512
▁tänavu	-10.0514
htu	-10.0515
tra	-10.0515
▁olev	-10.0515
▁vaatan	-10.0518
▁kapitali	-10.0518
majanduse	-10.0523
▁ülevaade	-10.0523
risti	-10.0524
▁lä	-10.0526
▁seisukohal	-10.0531
▁kellelegi	-10.0531
▁lisaraha	-10.0541
▁liidu	-10.0551
▁pidas	-10.0564
▁jõuame	-10.0573
võime	-10.0578
▁koonda	-10.0585
▁sina	-10.059
▁lugemiseks	-10.0593
seadust	-10.0601
▁Randpere	-10.0604
▁auväär	-10.0606
majandus	-10.0611
▁oht	-10.0612
▁kirjutada	-10.0612
▁tööl	-10.0619
▁katteallika	-10.062
uu	-10.0621
▁debatti	-10.0635
▁variant	-10.0637
▁Ettekandja	-10.0639
▁firma	-10.0641
▁tegime	-10.065
▁rahvasaadikut	-10.065
▁kolleegi	-10.0651
▁liikuda	-10.0651
▁tegelik	-10.0662
▁tingimused	-10.0667
▁palgad	-10.0675
▁tegemise	-10.0676
▁rahvastiku	-10.0682
▁valdkonda	-10.0683
stab	-10.0685
op	-10.0688
▁mängu	-10.0692
▁meenuta	-10.0694
▁Igal	-10.0696
▁protsent	-10.0713
▁kava	-10.0714
▁toimu	-10.0721
▁tegemata	-10.0728
▁arendus	-10.073
▁teemasid	-10.073
▁21.	-10.0734
eta	-10.0739
▁kasutama	-10.0744
▁rahulda	-10.0745
▁mees	-10.0755
▁lipu	-10.0761
▁hääletuse	-10.0765
▁välisminister	-10.0765
▁tugi	-10.0768
iti	-10.0773
tulemus	-10.0786
"",	-10.0786
▁veebruari	-10.079
▁19.	-10.0798
▁vahendite	-10.0801
▁2011.	-10.0802
▁seitse	-10.0808
▁kevadel	-10.0812
▁ühenda	-10.0813
▁muudetakse	-10.0816
▁juhtunud	-10.0823
ari	-10.0823
▁Et	-10.0828
▁tark	-10.0829
▁seisukohad	-10.0845
▁kasv	-10.0853
palga	-10.0854
▁Kaheksa	-10.0856
▁kä	-10.0857
▁rahastus	-10.0859
▁ohu	-10.0862
▁hooldus	-10.0864
▁õigeks	-10.0865
▁huvitab	-10.0866
▁kannata	-10.0874
▁meetmete	-10.0874
▁leping	-10.0875
▁üldist	-10.0878
▁juhtu	-10.0896
▁ilus	-10.0899
asutuse	-10.09
▁seitsme	-10.0902
ela	-10.0903
▁normaalne	-10.0904
▁tipp	-10.0904
▁eeskätt	-10.0905
▁oktoobri	-10.0912
Tarmo	-10.0919
Ka	-10.0926
▁kindla	-10.0927
▁reageeri	-10.0931
▁Aas	-10.0934
▁euroni	-10.0938
▁Pevkur	-10.0942
▁vabatahtlik	-10.0952
▁protsenti	-10.0952
▁26	-10.0954
▁Vastus	-10.0955
▁maal	-10.0958
▁1. 	-10.0961
▁jätkub	-10.0961
▁poliitilist	-10.0965
▁tegev	-10.0966
▁kohustuse	-10.0967
▁pääste	-10.0968
▁väikse	-10.0969
reformi	-10.0973
kapitali	-10.0978
▁oodata	-10.0984
▁7.	-10.0985
▁trahvi	-10.0988
▁vahele	-10.0989
▁erandi	-10.099
▁võeta	-10.099
itsi	-10.0991
▁saalist	-10.0997
▁millel	-10.0998
▁aspekti	-10.1002
▁hakkaks	-10.1009
▁omakorda	-10.1013
▁konsensus	-10.1025
▁artikli	-10.1032
▁sätesta	-10.1033
▁põhja	-10.1039
▁vajalikuks	-10.1044
▁tavaliselt	-10.1046
▁üksik	-10.1055
▁Oli	-10.1065
tavat	-10.1068
▁anti	-10.1072
▁Artur	-10.1073
tule	-10.1073
▁riigilõivu	-10.1075
▁Riigikontroll	-10.108
▁taotluse	-10.1081
▁tundu	-10.1085
ek	-10.1091
keskuste	-10.1093
▁arupärimisele	-10.1096
▁lahendamise	-10.1096
▁esindajate	-10.1096
olijaks	-10.1098
▁kaaluda	-10.1098
organisatsioonid	-10.1105
mma	-10.1106
▁keerulise	-10.1114
▁suhtle	-10.1114
▁määr	-10.1116
▁suurus	-10.1123
▁Savisaar	-10.1131
▁sageli	-10.1131
▁lähtuvalt	-10.1132
nõukogu	-10.1133
▁täitma	-10.1135
uri	-10.1135
▁koolides	-10.1141
▁Tema	-10.1141
▁novembril	-10.1149
▁80	-10.1149
▁märtsi	-10.1151
▁tahaksin	-10.1152
rd	-10.1158
▁kutsun	-10.1162
▁kasumi	-10.1162
▁lai	-10.1165
▁38	-10.1165
▁jagada	-10.1166
▁niisuguse	-10.1172
▁kohtuniku	-10.1173
ikku	-10.1177
▁laual	-10.1177
▁tähele	-10.118
▁seisukohalt	-10.1182
▁süüdista	-10.1185
▁arene	-10.1185
▁ülemineku	-10.1186
▁arvud	-10.119
▁kandidaat	-10.119
▁eelarvest	-10.1196
▁vaadanud	-10.1196
▁pääse	-10.1197
▁teistsuguse	-10.1198
▁maksmise	-10.1204
▁kindlusta	-10.1206
▁niiviisi	-10.1207
▁huvitatud	-10.1208
▁liikmetele	-10.1208
▁õppida	-10.1213
▁Ar	-10.1221
▁konkreetsed	-10.1224
▁mõnevõrra	-10.123
▁teistele	-10.1234
iili	-10.1234
▁Samal	-10.1235
▁protsendi	-10.1236
▁tõde	-10.1237
▁Kolmandaks	-10.1241
▁vabasta	-10.1245
▁piirivalve	-10.1246
▁valitud	-10.1248
▁määratud	-10.125
▁kodakondsus	-10.1251
▁ametis	-10.1252
arsti	-10.1255
▁vastutuse	-10.1256
▁teadlik	-10.1258
▁võitle	-10.126
tund	-10.1261
mä	-10.1262
▁likvideeri	-10.1263
▁70	-10.1266
▁Vii	-10.1267
juhtide	-10.1269
▁kõnele	-10.1277
▁sulge	-10.129
▁puldist	-10.129
▁määrus	-10.1294
▁tehnilise	-10.1296
▁samba	-10.1296
määr	-10.1297
▁asjast	-10.1297
▁sõltu	-10.1303
▁In	-10.1309
▁Pikhof	-10.1313
õpetaja	-10.1313
▁lisada	-10.1319
▁aus	-10.132
▁kaitseväe	-10.1327
▁Anvelt	-10.1329
▁heaolu	-10.1329
▁An	-10.133
▁struktuurse	-10.133
▁kajasta	-10.1335
▁miinimumi	-10.1336
▁tõesta	-10.1336
▁lapsetoetus	-10.1337
▁turul	-10.134
ettevõtete	-10.1348
suhte	-10.1349
▁IT	-10.135
▁kaubandus	-10.1352
▁õigusi	-10.1352
registri	-10.1356
▁Balti	-10.1357
▁töötanud	-10.1366
aste	-10.137
▁1%	-10.1372
see	-10.1373
▁Sellele	-10.1375
▁sisulise	-10.1376
▁vaheaeg	-10.1378
▁kaitseminister	-10.1382
▁teo	-10.1385
▁küllap	-10.1392
▁Kokku	-10.1393
jaama	-10.1395
jatele	-10.1396
▁Viljandi	-10.1396
▁mõelnud	-10.1396
hääl	-10.1399
▁hanke	-10.1402
▁vormi	-10.1405
▁4.	-10.1409
mate	-10.1411
▁argument	-10.1412
▁Vaatame	-10.1414
tuste	-10.1419
akti	-10.1433
▁moodusta	-10.1435
▁kinnisvara	-10.1447
▁ettevõtted	-10.1447
▁mai	-10.1457
leppe	-10.1458
▁Andrus	-10.1461
▁loetelu	-10.1464
kka	-10.1474
▁esitaja	-10.1475
meetri	-10.148
▁Ilmselt	-10.1481
▁tekitada	-10.1483
▁ressursi	-10.1483
▁toote	-10.1486
▁neljanda	-10.1487
▁inimestest	-10.1492
▁normaalse	-10.1499
▁kogukonna	-10.15
taseme	-10.15
Krista	-10.1503
▁teisiti	-10.1505
gem	-10.1519
poliitikat	-10.1521
▁pagulas	-10.1522
▁erasektori	-10.153
▁enese	-10.1532
▁laiem	-10.1534
are	-10.1535
▁tegeleda	-10.1536
▁Komisjonis	-10.1538
▁Balticu	-10.1539
▁teadmise	-10.1542
kordne	-10.1549
▁koormus	-10.1553
koormus	-10.1555
▁mainisin	-10.1556
▁erinevalt	-10.1556
▁soovite	-10.1561
▁tuu	-10.1561
▁muidu	-10.1561
▁niisama	-10.1564
▁vältida	-10.157
▁valmi	-10.1572
▁Sester	-10.1574
kindlus	-10.1576
hv	-10.1582
▁perspektiivis	-10.1592
▁võ	-10.1598
eh	-10.16
▁2015	-10.1602
▁juhtida	-10.1602
jää	-10.1606
▁hirmu	-10.1606
vuse	-10.1608
▁36	-10.161
▁Praeguse	-10.1611
poolne	-10.1615
rve	-10.1616
▁tahtnud	-10.1617
▁Siit	-10.1617
mini	-10.1618
▁seadustiku	-10.1619
▁maamaksu	-10.1624
▁välismaal	-10.1624
▁omaniku	-10.163
▁konkreetsete	-10.1631
▁katkestada	-10.1631
▁Pomerants	-10.1635
▁tõlgenda	-10.1635
korraldus	-10.1636
rik	-10.1638
▁mõnel	-10.1644
▁lõpphääletus	-10.1645
umine	-10.1648
▁eesmärkide	-10.165
▁mail	-10.1653
▁looduskaitse	-10.1653
▁pikema	-10.1656
ev	-10.1665
▁toetama	-10.1665
▁ametisse	-10.1667
probleem	-10.1667
▁takso	-10.1672
▁kaugele	-10.1678
▁48	-10.1684
mbe	-10.1684
▁teemad	-10.1685
▁Üle	-10.1687
▁eksami	-10.1687
▁tegemine	-10.1687
▁ministrid	-10.169
kaardi	-10.1692
vo	-10.1704
▁Enn	-10.1704
▁septembri	-10.1704
▁pikenda	-10.1705
▁kasutusele	-10.1706
▁puudus	-10.1712
vajadus	-10.1714
konkurentsivõime	-10.1716
keskkonna	-10.1717
▁Muu	-10.1719
väärtus	-10.1722
▁tuleneva	-10.1729
õppe	-10.173
▁tekivad	-10.1732
tööd	-10.1734
▁vaat	-10.1736
▁Põldaru	-10.1739
▁300	-10.1741
▁Henn	-10.1741
▁ütleksin	-10.1745
▁söö	-10.1747
▁arendada	-10.1755
▁vahendid	-10.1762
▁tutvustas	-10.1762
▁rääkides	-10.1777
▁omavalitsustes	-10.1778
▁Ha	-10.1784
▁tunnistada	-10.1786
▁käsitlemine	-10.1786
▁Sellist	-10.1789
▁suudab	-10.179
võtja	-10.1798
▁maksuvaba	-10.1801
6%	-10.1802
Ning	-10.1807
▁korteri	-10.181
▁tööpäeva	-10.1812
▁tekitanud	-10.1813
kra	-10.182
▁lugenud	-10.182
▁panus	-10.1821
▁projekt	-10.1823
▁sääst	-10.1823
▁protseduuri	-10.1824
▁kuhugi	-10.1826
▁kellega	-10.1827
▁kommenteerida	-10.1827
▁20.	-10.1842
▁kuskilt	-10.1846
lõ	-10.1854
▁peatu	-10.1859
▁Saar	-10.186
teenistuse	-10.1861
▁Kaitseliidu	-10.1862
▁Eestile	-10.1872
▁päevast	-10.1873
▁6.	-10.188
▁piiratud	-10.188
▁sega	-10.188
▁millist	-10.1895
▁Helmen	-10.1895
▁koolitus	-10.1924
▁Monika	-10.1926
▁55	-10.1927
▁siiani	-10.193
▁Kütt	-10.1932
▁temaatika	-10.1933
valitse	-10.1935
▁menetluses	-10.1937
▁stenogrammi	-10.1939
▁eelnõude	-10.1942
▁asutuse	-10.1946
▁unusta	-10.1946
▁asuta	-10.1947
▁olulisi	-10.195
▁Pärast	-10.195
▁Kuigi	-10.195
▁mõjuta	-10.1951
▁ühiskonda	-10.1951
▁liikmena	-10.1952
▁Arto	-10.1958
▁2016	-10.1962
▁Valitsust	-10.1963
▁andmetel	-10.1971
▁kuriteo	-10.1971
▁vald	-10.1971
iidi	-10.1972
▁seonduva	-10.1972
▁kirjutanud	-10.1976
▁esimesele	-10.1979
▁löö	-10.198
▁piirkonnas	-10.1981
▁tahet	-10.1982
▁oota	-10.1984
▁saamise	-10.1991
▁täiendavalt	-10.1992
▁jõustumise	-10.1993
tavalt	-10.1996
▁endi	-10.2002
▁aktsepteeri	-10.2003
▁peetud	-10.2003
▁37	-10.2005
▁maksukoormus	-10.2015
▁tööstus	-10.2016
▁igas	-10.2016
▁investeeringud	-10.2017
▁seadusest	-10.2023
▁kusjuures	-10.2028
pidaja	-10.2029
▁kõ	-10.2029
▁meetme	-10.2038
▁Probleem	-10.2039
▁elanikkonna	-10.2039
▁Raivo	-10.2039
Proua	-10.2039
▁jätkuvalt	-10.2041
▁jäätme	-10.2041
▁asutuste	-10.2042
▁abielu	-10.2046
▁lastega	-10.2046
▁sedasama	-10.2047
▁katse	-10.2048
kor	-10.2049
▁ärge	-10.205
▁tekiks	-10.2054
▁tasub	-10.2057
▁Parlamendi	-10.2057
▁65	-10.2058
▁kala	-10.2059
▁kompenseeri	-10.2062
▁täpse	-10.2068
äi	-10.2068
▁võimaliku	-10.2072
▁venekeelse	-10.2075
▁peamine	-10.2084
▁Eestist	-10.2086
▁võla	-10.2089
ange	-10.2091
▁juuli	-10.2105
▁kriteeriumi	-10.2109
▁vanemad	-10.2114
tused	-10.2116
▁avaldus	-10.2121
rühma	-10.2123
vahetus	-10.2128
Ko	-10.2133
▁ministrite	-10.2137
▁jurist	-10.2141
▁päevakorras	-10.2152
▁lae	-10.2152
▁Piirivalveameti	-10.2153
▁para	-10.2159
ides	-10.2163
▁tarbi	-10.2165
▁lähenemine	-10.2165
▁Lõuna	-10.2165
▁toimib	-10.2175
ment	-10.2177
▁kandidaadi	-10.2177
▁minul	-10.2181
▁Aasta	-10.2181
▁tugine	-10.2187
▁kõrgem	-10.2192
rje	-10.2192
▁töökohtade	-10.2195
▁vaatamata	-10.2197
▁loogiline	-10.2202
▁mälu	-10.2202
▁täitmisel	-10.2204
astme	-10.2207
▁reeglid	-10.2208
▁aine	-10.2209
▁fraktsioonilt	-10.2213
▁korraga	-10.2217
▁tsiviil	-10.2219
▁palve	-10.222
▁kellelgi	-10.2221
sele	-10.2221
aegse	-10.2222
pääs	-10.223
▁koolid	-10.2231
▁aastani	-10.2235
äh	-10.2235
ei	-10.2236
▁langetada	-10.2237
riikide	-10.224
vahe	-10.2242
▁lõige	-10.2243
▁vaeva	-10.2244
stuse	-10.2246
▁side	-10.2247
jo	-10.2249
▁Põhi	-10.2252
▁Kristen	-10.2253
Järgmine	-10.2253
▁ekspordi	-10.2257
▁allkirja	-10.2258
▁praeguses	-10.2259
▁kvaliteet	-10.2266
▁pidama	-10.2275
turgu	-10.2275
staa	-10.2276
▁juhtimise	-10.2277
firma	-10.2283
▁lubada	-10.2284
▁erikomisjoni	-10.2287
▁tulevikku	-10.2297
▁teatavasti	-10.2298
▁paneme	-10.2299
umist	-10.23
piiri	-10.2301
▁kehti	-10.2307
▁sügisel	-10.2312
▁mandaadi	-10.2312
▁möödunud	-10.2316
▁piirkonna	-10.232
oni	-10.232
▁Osa	-10.2323
▁paha	-10.2323
▁muudab	-10.2325
▁tahe	-10.2326
uda	-10.2329
Aitüma	-10.233
▁seadusesse	-10.2331
▁kohustused	-10.2331
▁teistsugune	-10.2331
▁territooriumil	-10.2342
▁Mõni	-10.2349
?""	-10.2349
väe	-10.2351
▁90	-10.2351
▁mõtlen	-10.2351
soo	-10.2352
▁poliitiliste	-10.2359
▁eelarvesse	-10.2362
▁lõi	-10.2363
▁kandideeri	-10.2365
suguse	-10.2367
▁kanna	-10.2369
▁mõistliku	-10.2371
▁juhtis	-10.2373
▁tasemele	-10.2377
▁esindus	-10.2379
▁õigusabi	-10.2381
▁tekst	-10.2384
▁Margus	-10.2386
▁sammud	-10.2388
▁puldis	-10.2392
võrgu	-10.2396
▁põhjused	-10.24
▁29	-10.2405
▁taotleda	-10.2409
▁rõhu	-10.2409
▁maht	-10.2411
▁Eestit	-10.2411
▁püüame	-10.2411
▁kool	-10.2416
▁tahes	-10.2417
▁näitavad	-10.2417
▁seisukohast	-10.2421
▁selliselt	-10.2423
▁lõpetatakse	-10.2425
▁püsti	-10.2432
▁teavad	-10.2436
▁siinkohal	-10.2442
kui	-10.2443
▁asjaga	-10.2444
▁olulist	-10.2452
▁pilt	-10.2454
▁Rahva	-10.246
▁omal	-10.246
veo	-10.2461
▁kõvasti	-10.2461
▁31	-10.2464
▁Valdo	-10.2465
▁ilmselgelt	-10.2466
leping	-10.2479
▁ometi	-10.2479
▁viib	-10.2484
▁teenus	-10.2488
▁Kokk	-10.2492
▁registreeritud	-10.2495
▁astme	-10.2499
▁juhtumeid	-10.25
▁toetavad	-10.2504
▁ütleks	-10.2504
▁eelista	-10.2504
▁linn	-10.2505
▁ülesande	-10.2506
▁sügava	-10.2511
▁tuvasta	-10.2514
statakse	-10.2516
▁kulutusi	-10.2519
▁17.15.	-10.2519
▁tulude	-10.253
▁kurb	-10.2532
▁juhtus	-10.2537
▁meeldib	-10.254
▁Luigas	-10.2554
▁lugesin	-10.2558
▁Järgmine	-10.2558
▁Seni	-10.2558
ok	-10.2559
▁teadusminister	-10.2559
▁riigigümnaasium	-10.2559
▁kasutatud	-10.2563
▁oluliseks	-10.2565
▁konsensuslik	-10.2565
▁tuhande	-10.2566
▁jätkusuutlik	-10.2571
politseinik	-10.2572
aega	-10.2573
▁Palo	-10.2576
▁..."	-10.258
▁taseme	-10.2582
▁toona	-10.2583
▁ennekõike	-10.2592
▁koostatud	-10.2592
kalt	-10.2604
mm	-10.2611
▁tihtipeale	-10.2611
▁luge	-10.2615
▁rääkisime	-10.2615
▁rahvast	-10.2616
mäe	-10.2619
▁teeks	-10.2623
▁leppida	-10.263
▁lähte	-10.263
▁stabiilsus	-10.2631
▁lubadus	-10.2636
▁naa	-10.264
▁pöörduda	-10.2644
▁häda	-10.2649
▁Juba	-10.2651
ministrile	-10.2659
▁arutelude	-10.2659
▁endise	-10.2664
▁raam	-10.2668
▁muretse	-10.2677
▁võite	-10.2677
▁ühiselt	-10.2681
▁Selge	-10.2683
▁mainitud	-10.2685
▁teenistuse	-10.2687
▁Juhan	-10.2687
▁keeldu	-10.2689
▁oktoobril	-10.269
▁lühike	-10.269
▁järje	-10.2691
▁võimatu	-10.2702
▁seisab	-10.2703
▁hääletus	-10.2703
▁vastuses	-10.2704
plaani	-10.2705
▁turismi	-10.2707
▁loa	-10.2707
▁kujune	-10.2712
rühm	-10.2716
▁diskussioon	-10.2716
▁alguse	-10.2717
rus	-10.2717
▁keelatud	-10.2717
▁valijate	-10.2718
ajal	-10.272
▁konflikti	-10.2724
una	-10.2724
järgu	-10.2727
▁erakonnad	-10.2732
▁toetusi	-10.2732
▁küsinud	-10.2742
▁kommenteeri	-10.2743
▁alt	-10.2743
▁maine	-10.2749
▁võtavad	-10.275
▁kodanik	-10.2758
imu	-10.2759
iministeeriumi	-10.2765
▁märgi	-10.277
▁Vasta	-10.2772
▁algusest	-10.2775
▁ettepanekuga	-10.2777
▁4,	-10.2779
▁seadusele	-10.2781
▁tahtsin	-10.2783
▁samasuguse	-10.2786
▁tõenda	-10.2796
valdkonnas	-10.28
▁varsti	-10.2803
▁kaugel	-10.2804
▁sunni	-10.281
vaba	-10.281
▁sund	-10.2811
▁konkreetseid	-10.2813
ots	-10.2814
▁valdkondades	-10.2819
▁sündi	-10.2821
▁ülesanded	-10.2832
▁Inimesed	-10.2836
mmi	-10.2837
▁sektoris	-10.2838
▁lähedal	-10.284
▁juriidilise	-10.2844
▁seisukohtade	-10.2846
▁normi	-10.285
jaanuar	-10.285
▁algab	-10.2854
▁tänapäeva	-10.2855
▁seos	-10.286
üksus	-10.2872
▁laul	-10.2874
▁olevate	-10.2877
ndatud	-10.2879
▁vastutab	-10.2882
▁mõtteid	-10.2885
▁säilita	-10.2886
▁püüan	-10.2888
▁kalli	-10.289
matult	-10.2891
▁säte	-10.2892
▁41	-10.2899
▁reguleeritud	-10.2901
kontrolli	-10.2905
▁kõlanud	-10.2906
▁püüdnud	-10.2917
▁loodetavasti	-10.292
▁tõite	-10.2921
▁kauem	-10.2921
▁kutsutud	-10.2924
▁tegid	-10.2926
▁juhin	-10.2927
▁omavalitsuses	-10.2928
toetus	-10.2938
▁peetakse	-10.2939
rand	-10.294
▁automaatselt	-10.294
▁kannab	-10.2942
▁voli	-10.2942
▁õppekava	-10.2942
▁Aadu	-10.2944
rikka	-10.2948
▁Seadus	-10.2949
▁end	-10.2952
▁49	-10.2954
▁Üldiselt	-10.2959
▁lähemal	-10.2962
▁kaasatud	-10.2966
▁räägiti	-10.2966
▁toetamise	-10.2975
▁Loo	-10.2975
▁sõnu	-10.2976
▁Poola	-10.298
töötajate	-10.2983
▁täida	-10.2984
▁isikliku	-10.2987
auto	-10.2994
▁kõikides	-10.2997
▁22.	-10.2999
kad	-10.3006
▁lähiajal	-10.3006
▁miinus	-10.3011
▁Juhtivkomisjon	-10.3012
▁organisatsioon	-10.3013
▁nõukogude	-10.3018
▁deklareeri	-10.3018
▁vangla	-10.3018
▁seadusmuudatus	-10.3018
▁rahandusministr	-10.3019
▁käivita	-10.302
▁aktiivselt	-10.3022
kahju	-10.3024
▁tegeleme	-10.3025
▁madala	-10.3025
▁kaup	-10.3025
▁juunil	-10.3028
▁räägivad	-10.3032
▁toetas	-10.3033
▁üha	-10.3038
▁vastanud	-10.3039
▁Võtame	-10.3039
▁rahastamine	-10.3041
otsi	-10.3045
▁välista	-10.3046
▁halva	-10.3048
▁nõnda	-10.3058
▁Viimase	-10.3058
▁märtsil	-10.3059
▁5%	-10.3065
▁Hääletustulemus	-10.3065
▁vanuse	-10.3072
▁õigused	-10.3072
▁sadama	-10.3072
▁toimuva	-10.3073
▁väikeste	-10.3077
▁õigusloome	-10.3078
▁objekti	-10.3078
▁riigikontrolör	-10.3079
▁küsimusest	-10.3081
▁eelnõust	-10.3091
▁nimi	-10.3096
teadus	-10.3099
▁algatus	-10.3105
▁vabadus	-10.3108
▁vastamise	-10.3111
▁Märt	-10.3115
▁Samamoodi	-10.3118
▁Heljo	-10.312
▁tulemusi	-10.3121
▁isikud	-10.3124
▁poolda	-10.3125
▁põhiline	-10.3125
▁keela	-10.3127
▁käsitletud	-10.3128
kõne	-10.3134
▁nõuete	-10.3135
▁maad	-10.3139
▁linnas	-10.3141
pro	-10.3145
▁juhtuda	-10.3145
▁loomulik	-10.3157
▁erisus	-10.3158
▁laiene	-10.3158
▁kenasti	-10.3159
▁2009.	-10.316
märgi	-10.3164
▁ajakirjandus	-10.3164
▁Seaduseelnõu	-10.3169
▁EAS	-10.3178
▁kolmapäeva	-10.3178
▁teistpidi	-10.318
7%	-10.318
▁viitasite	-10.3181
▁tahte	-10.3184
▁8.	-10.3189
▁sõjalise	-10.3191
▁aprillil	-10.3195
▁reguleerida	-10.3196
▁Karilaid	-10.3198
▁kohane	-10.3198
▁sõlmitud	-10.3198
▁informatsioon	-10.3199
korralduse	-10.3204
kon	-10.3206
▁põhimõtete	-10.3209
▁toimuma	-10.3211
keskkond	-10.3213
▁koo	-10.3215
▁selleni	-10.3217
ata	-10.3217
tuna	-10.3217
▁kaotada	-10.3218
▁hakkas	-10.3219
saar	-10.3222
▁tööandjate	-10.3224
punkt	-10.3226
▁perioodil	-10.3226
▁Seeder	-10.3227
▁Tõ	-10.3231
▁riigireformi	-10.3231
▁paljusid	-10.3233
▁kasutus	-10.324
▁sõltumata	-10.324
▁rahast	-10.3242
▁rea	-10.3257
▁leppinud	-10.3258
U	-10.3266
▁elektroonilise	-10.3266
▁usku	-10.3267
▁riikidega	-10.3267
▁jääma	-10.3273
▁soe	-10.3274
▁Ri	-10.3274
▁senise	-10.3276
▁muutmist	-10.3279
▁soovitan	-10.3282
▁väliskomisjoni	-10.3284
ratifitseerimise	-10.3285
▁Tolliameti	-10.3287
▁asendus	-10.329
▁vaielda	-10.3292
▁noori	-10.3295
▁tõhus	-10.3306
▁võlgu	-10.3308
▁Liitu	-10.331
▁karmi	-10.3315
▁märkus	-10.3315
▁krooni	-10.332
saadiku	-10.3323
▁muutuvad	-10.3326
▁pildi	-10.3332
▁ülal	-10.334
▁õpetajad	-10.3344
▁õnnestu	-10.3352
▁taastuvenergia	-10.336
▁Ühendriikide	-10.336
▁arendustegevuse	-10.3361
kindlustuse	-10.3372
▁lükka	-10.3375
▁liikmesriigi	-10.3376
▁värske	-10.3381
▁senti	-10.3381
▁ehitatud	-10.3384
▁näol	-10.3387
Mul	-10.3393
▁regiooni	-10.3402
▁infotunnis	-10.3405
▁eeldab	-10.3405
uga	-10.3407
▁loodame	-10.341
▁sündinud	-10.3414
▁välispoliitika	-10.3414
▁kasutavad	-10.3415
▁toetused	-10.3416
▁veebruaril	-10.3417
▁mõninga	-10.3417
meeste	-10.3418
▁hommikust	-10.3422
▁tehes	-10.3423
▁paljudel	-10.3423
▁44	-10.3427
▁pakub	-10.3431
▁Järgmise	-10.3431
▁küsisite	-10.3433
sõidu	-10.3433
▁hääletama	-10.3435
▁2%	-10.3442
▁Lo	-10.3443
Lugupeetav	-10.3453
▁rahaga	-10.3453
▁lauale	-10.3455
▁aruta	-10.3455
▁menetleda	-10.3456
▁piisava	-10.3459
▁Tänase	-10.3461
▁takistus	-10.3463
▁tagama	-10.3466
▁kohustust	-10.3472
▁jaota	-10.3476
▁kinnitas	-10.3481
▁tühista	-10.3481
▁täiendavat	-10.3483
▁öeldi	-10.3484
kk	-10.3491
grupi	-10.3495
piirkonda	-10.3506
▁eksisteeri	-10.3506
▁puutu	-10.3516
▁keskmiselt	-10.3518
▁teenused	-10.3519
▁vaate	-10.3523
▁võtme	-10.3526
▁pankade	-10.3526
▁2019.	-10.3533
▁reaalne	-10.3534
▁küsiti	-10.3536
▁Toon	-10.3539
põhise	-10.3546
▁tõenäosusega	-10.3548
▁sõnastus	-10.3548
▁liikmeks	-10.3553
▁osutu	-10.3554
aali	-10.3555
▁Vahe	-10.3559
Teine	-10.3559
▁igasuguse	-10.3561
▁Teil	-10.3569
▁vastutust	-10.3572
▁analüüsida	-10.3573
▁ilusa	-10.3576
osakonna	-10.3581
▁valda	-10.3582
▁tubli	-10.3583
▁Inara	-10.3588
▁kütuseaktsiisi	-10.3589
▁Läbirääkimis	-10.359
▁Eriti	-10.3596
▁võtaks	-10.3604
▁75	-10.3604
▁esitama	-10.3607
▁sulgen	-10.3607
▁välju	-10.3609
▁hindamise	-10.3612
teist	-10.3613
▁Riigikaitse	-10.3613
▁infosüsteemi	-10.3614
▁millises	-10.3614
▁appi	-10.3614
Naer	-10.3617
▁puu	-10.3618
▁Must	-10.3619
▁detsembril	-10.362
Külliki	-10.3621
▁hinnangut	-10.3622
▁Eesmaa	-10.363
▁põhjalik	-10.3632
▁praegusel	-10.3633
▁Ette	-10.3635
▁Siim	-10.3636
▁rände	-10.3643
▁tähtsam	-10.3646
▁avasta	-10.3648
▁korteriühistu	-10.3651
▁teabe	-10.3652
▁allu	-10.3654
form	-10.3656
▁Suure	-10.3656
▁dokumentide	-10.3666
▁tõhusa	-10.3666
▁mõjutada	-10.3666
▁esitati	-10.3668
ministeeriumil	-10.3676
isiku	-10.3678
▁seisuga	-10.3678
▁Lugupeetav	-10.3681
ikute	-10.3688
atu	-10.3691
▁dividendi	-10.3693
▁pikaajalise	-10.3693
▁olemasolu	-10.3693
▁iseseisva	-10.3693
▁viiakse	-10.3695
projekti	-10.3695
▁asub	-10.3708
võtmine	-10.3712
▁seatud	-10.3713
▁majandust	-10.3721
▁jõudis	-10.3726
▁arvab	-10.3726
▁Erki	-10.373
▁Prantsusmaa	-10.3736
▁Kallo	-10.3736
▁järelevalvet	-10.3738
põhine	-10.3746
▁pensionäride	-10.3747
haigla	-10.375
▁pandi	-10.375
▁kättesaadav	-10.3755
▁soodusta	-10.3756
▁teadma	-10.3756
▁Tsahkna	-10.3757
▁riigieelarvesse	-10.3758
tavasti	-10.3759
▁50%	-10.3763
▁töötasu	-10.3771
kriisi	-10.3776
▁ühendus	-10.3778
kasu	-10.3778
muse	-10.3778
▁kasutanud	-10.3779
tusega	-10.3781
▁1000	-10.3781
▁poliitikat	-10.3782
▁5000	-10.3786
▁füüsilise	-10.3789
▁põle	-10.3794
▁endast	-10.3798
▁Vaadake	-10.38
▁eemal	-10.38
▁pärit	-10.3802
▁raporti	-10.3803
▁maksavad	-10.3805
aat	-10.3806
▁eeskuju	-10.3808
▁Lääne	-10.3809
▁erand	-10.3813
kri	-10.3814
▁missuguse	-10.3819
▁Efendijev	-10.3821
▁valguses	-10.3821
▁Saaremaa	-10.3823
▁Li	-10.3825
▁Kus	-10.3826
▁selgitas	-10.3836
lit	-10.3837
▁avata	-10.3842
▁haigus	-10.3843
▁omavalitsustel	-10.3844
▁sajandi	-10.3844
▁algatas	-10.3849
õhu	-10.3854
õõ	-10.3859
▁palkade	-10.3859
▁suhe	-10.3859
▁elaniku	-10.3862
jõu	-10.3866
▁Algab	-10.3867
▁vahelise	-10.3869
▁valimised	-10.3876
▁elama	-10.3876
▁oleksime	-10.3878
protsessi	-10.3878
▁suru	-10.3881
ravi	-10.3881
▁mismoodi	-10.3883
tavaid	-10.3884
▁luuakse	-10.3886
▁võtan	-10.3894
▁aluse	-10.3896
▁ulatu	-10.3901
▁lähen	-10.3904
▁tähendus	-10.3904
▁küsib	-10.3907
▁täiskasvanu	-10.3907
▁riiklik	-10.3908
▁tähtsusega	-10.3909
▁kommunikatsioon	-10.3909
▁arvamusi	-10.3911
▁Vabariigis	-10.3913
▁Toom	-10.3918
▁pead	-10.3918
lugu	-10.3918
stamist	-10.3919
▁lasta	-10.3922
▁teaduse	-10.3922
▁eelkõneleja	-10.3929
▁Tahan	-10.3929
koalitsiooni	-10.393
▁ollakse	-10.3934
▁Pro	-10.3935
▁ettepanekute	-10.3937
▁kinnitatud	-10.3943
▁majanduslik	-10.3948
▁sõnavõtu	-10.3949
▁riigieelarves	-10.395
▁Lihtsalt	-10.395
▁maantee	-10.395
▁tausta	-10.3951
▁omandi	-10.3962
rr	-10.3966
▁Vastupidi	-10.3972
▁aset	-10.3973
▁null	-10.3973
▁sisulist	-10.3975
sektoris	-10.3978
▁eesmärgid	-10.3978
▁jäta	-10.3982
▁perekond	-10.3986
vahendite	-10.3989
▁kom	-10.399
kokku	-10.3992
▁RMK	-10.3994
▁häiri	-10.3994
▁risk	-10.3995
valitsus	-10.3997
▁rõhutada	-10.3997
▁uurimis	-10.4
▁Eestimaa	-10.4006
▁külas	-10.401
▁USA	-10.4016
▁tehnoloogia	-10.4023
▁tagab	-10.4028
▁põllumajanduse	-10.4029
▁kohtute	-10.4033
▁kehtivad	-10.4034
▁praktikas	-10.4037
▁ilmne	-10.4045
▁nimetasite	-10.4045
▁valu	-10.4046
▁ida	-10.405
aktsiisi	-10.4051
▁niisugust	-10.4052
ov	-10.4053
▁39	-10.4055
▁käsitleda	-10.4056
▁võimekus	-10.4057
▁tühja	-10.406
▁tulid	-10.4065
▁poliitikud	-10.407
▁lõppu	-10.4071
▁sunnitud	-10.4072
▁AS	-10.4074
ajalt	-10.4075
▁otsida	-10.4076
▁suurendab	-10.4078
▁nõuda	-10.4082
▁maakond	-10.4083
▁Mikser	-10.4085
▁auditi	-10.4088
▁madalama	-10.4088
▁meeste	-10.4089
▁lahendatud	-10.4091
▁alust	-10.4092
▁panustada	-10.4098
apteek	-10.4103
▁Tal	-10.4103
▁MTÜ	-10.4104
ikud	-10.4104
▁43	-10.4104
▁42	-10.4109
▁töölepingu	-10.4114
▁Neil	-10.4117
▁tiheda	-10.4118
▁hääletust	-10.4119
▁mistõttu	-10.4126
▁tarvis	-10.4126
▁Täpselt	-10.4126
▁püütakse	-10.4126
▁Aeg	-10.4127
▁sõnumi	-10.4133
▁kohtusse	-10.4134
▁hoiaku	-10.4134
▁jutuks	-10.4139
▁astuda	-10.4146
▁reserv	-10.4147
piirkonna	-10.4147
▁ime	-10.4147
▁2018	-10.415
▁toode	-10.4151
▁kuskile	-10.4157
▁vanem	-10.4158
lg	-10.4163
▁üheks	-10.4164
▁Minul	-10.4167
▁kr	-10.4167
reform	-10.4168
▁abikaasa	-10.417
▁Auväärt	-10.4171
▁sõita	-10.4174
▁arvestus	-10.4177
▁tulemuse	-10.4185
▁Laanet	-10.4186
▁teemade	-10.419
▁Eesmärk	-10.4192
▁näidanud	-10.4192
ühingu	-10.4193
dEttepaneku	-10.4194
▁ametikoha	-10.4197
▁täidetud	-10.4198
▁46	-10.4199
idel	-10.4201
sugust	-10.4203
▁liini	-10.4206
▁lühikese	-10.4221
usest	-10.4222
▁reeglite	-10.423
▁Saksamaa	-10.4231
▁andme	-10.4231
▁vastavad	-10.4231
▁mitmesuguseid	-10.4237
▁sarnase	-10.4237
▁lõuna	-10.4237
▁äsja	-10.4237
arve	-10.4248
spekt	-10.4249
▁teete	-10.4256
▁Hei	-10.4257
▁rongi	-10.4259
▁puhas	-10.4261
▁vea	-10.4265
Hääl	-10.4271
▁eelis	-10.4272
kuus	-10.4277
kümne	-10.428
▁kahjusta	-10.4281
▁ettenähtud	-10.4282
▁hommikul	-10.4282
▁peaministrile	-10.4283
▁korraldus	-10.4286
▁kuulsime	-10.4287
▁kompromiss	-10.4288
▁linnade	-10.4294
▁täitmiseks	-10.4296
▁teki	-10.4298
▁ettevalmistus	-10.4298
▁suudavad	-10.4301
▁eesistumise	-10.4304
▁ainuke	-10.4306
▁kutsuda	-10.431
▁tehtava	-10.4312
õu	-10.4314
▁prokuratuuri	-10.4314
reklaam	-10.4319
▁Läbirääkimiste	-10.4319
ismi	-10.4321
▁muudetud	-10.4322
▁tulubaasi	-10.4324
era	-10.4325
▁pla	-10.4326
▁juhtimis	-10.4328
▁halvasti	-10.4329
▁panema	-10.4329
▁Maris	-10.4331
▁kiirusta	-10.4333
kaart	-10.4337
▁investeerida	-10.4341
▁ootame	-10.4345
▁kultuur	-10.4346
▁pakkunud	-10.4349
▁mandaati	-10.435
▁aktsiis	-10.4352
▁kiir	-10.4352
eksami	-10.4357
▁400	-10.4358
▁5,	-10.4359
mahu	-10.436
▁detail	-10.4363
▁osalenud	-10.4366
▁süvene	-10.4372
▁Pank	-10.4374
▁47	-10.4378
ettevalmistamist	-10.4387
ressurss	-10.4393
▁kritiseeri	-10.4394
▁aitavad	-10.4395
▁kolmandat	-10.4398
▁laiali	-10.4401
▁esi	-10.4401
▁Eile	-10.4405
▁septembril	-10.4405
▁kujunenud	-10.4409
▁viimaste	-10.4414
▁printsiip	-10.4416
▁liigu	-10.4417
▁rahapesu	-10.4417
▁Riigikokku	-10.4418
▁arupärimist	-10.4419
▁nõudeid	-10.4421
raal	-10.4421
▁kooseluseaduse	-10.4423
▁kohalikke	-10.443
▁kampaania	-10.4432
▁paralleel	-10.4438
koormuse	-10.4438
▁Riisalu	-10.444
▁Palling	-10.444
▁igaüks	-10.444
▁raskus	-10.444
▁tõstmine	-10.444
▁Vabariik	-10.444
järg	-10.4441
Valdor	-10.4443
▁kodanikud	-10.4443
▁52	-10.4447
▁jään	-10.4451
▁asjadest	-10.4452
▁juhatusele	-10.4457
▁sisuka	-10.4458
▁kahtluse	-10.4463
▁viidud	-10.4463
▁Vakra	-10.4464
ants	-10.4468
▁23.	-10.4469
puhku	-10.4469
▁pil	-10.4473
▁juhtum	-10.4481
▁prognoos	-10.4483
▁varasemate	-10.4484
▁Arupärijate	-10.4486
▁Kiisler	-10.4486
▁tänada	-10.4487
▁teisipäeva	-10.4492
▁suhtumine	-10.4495
▁koju	-10.4495
▁hirm	-10.4498
▁tõin	-10.4499
▁järgmiste	-10.4504
▁lase	-10.4506
▁eeldan	-10.4507
kuritegu	-10.4507
▁liikumis	-10.4507
▁paremat	-10.4508
▁diskrimineeri	-10.4509
▁hoolimata	-10.451
▁nõude	-10.451
▁kahtlus	-10.452
▁tase	-10.4522
▁langeb	-10.4524
Martin	-10.4525
vatele	-10.4526
▁2020	-10.4528
ristusseadustiku	-10.4529
▁Ole	-10.4531
▁bussi	-10.4532
▁mõõt	-10.4532
▁lähtuda	-10.4534
▁toimuvad	-10.4535
▁pakendi	-10.454
arvu	-10.4543
▁ideed	-10.4544
▁Mõne	-10.4547
pla	-10.455
omanike	-10.4553
▁kasvavad	-10.4553
▁jaanuarist	-10.4556
uli	-10.4557
▁institutsiooni	-10.4558
▁sõidu	-10.4563
▁eesmärke	-10.4564
▁pihta	-10.4578
▁pidades	-10.4578
▁pinge	-10.4578
▁osapoolte	-10.4578
▁omavalitsusele	-10.458
▁teistest	-10.4582
▁ühiskonnale	-10.4583
▁Kolleeg	-10.4583
av	-10.4585
omanik	-10.4585
▁arusaamatu	-10.4588
▁kiriku	-10.4589
▁algatajate	-10.459
Ü	-10.4592
▁liigub	-10.4599
▁regionaalse	-10.4603
▁otsusega	-10.4604
▁paber	-10.4604
▁koli	-10.4616
ran	-10.462
seis	-10.4621
▁laadi	-10.4626
▁hüvita	-10.4627
▁tegemisel	-10.4629
9%	-10.4633
▁kestab	-10.4641
▁siinsamas	-10.4648
▁norm	-10.4656
▁teatava	-10.4657
piir	-10.4658
▁direktiiv	-10.4658
▁aitaks	-10.4661
▁Paljud	-10.4662
▁ametnik	-10.4664
▁Meile	-10.4667
▁2013	-10.4668
▁oleksin	-10.4671
▁pealkirja	-10.4673
asutus	-10.4677
seadustiku	-10.468
▁tutvustada	-10.468
kütus	-10.4681
ood	-10.4688
kolle	-10.469
Aplaus	-10.4694
▁suurusjärgus	-10.4694
▁vajaliku	-10.4694
▁lähtub	-10.4696
Riigi	-10.4697
ametnik	-10.4697
▁kaob	-10.4702
▁autori	-10.4707
▁vabatahtliku	-10.4708
seaduses	-10.471
▁tabeli	-10.4716
▁realiseeri	-10.4717
▁erakorralise	-10.4717
▁pinguta	-10.4718
Tuletan	-10.4719
hvusringhäälingu	-10.4722
▁Raha	-10.4723
▁muul	-10.4732
1.	-10.4735
▁häälte	-10.4739
▁Annan	-10.4741
▁intressi	-10.4744
lahendus	-10.4745
poliitik	-10.4746
kindlustus	-10.4749
▁tüüpi	-10.475
▁Po	-10.4754
▁poliitikute	-10.4754
▁näita	-10.4758
funktsioon	-10.4759
▁maksud	-10.4763
▁positsioon	-10.4767
sugune	-10.4767
õpet	-10.477
▁kõrghariduse	-10.4772
▁2010.	-10.4779
▁jätkan	-10.4781
▁õigusliku	-10.4782
▁Ain	-10.4784
▁kriitilise	-10.4788
▁ühtlusta	-10.4789
▁suurima	-10.4792
▁25.	-10.4799
▁Ro	-10.4799
go	-10.4801
▁kollektiiv	-10.4802
▁tulemused	-10.4803
par	-10.4804
▁maksustamise	-10.4804
▁loob	-10.4807
▁õiglase	-10.4812
▁Seos	-10.4812
▁ettevõtjatele	-10.4814
▁Valitsusele	-10.4816
▁tegevused	-10.4818
eelse	-10.4823
hinda	-10.4825
alade	-10.4825
▁ohtlik	-10.4829
järjekord	-10.4833
sektor	-10.4835
▁inglise	-10.4835
▁üksuse	-10.4836
▁Ho	-10.4836
▁range	-10.4837
▁J	-10.4838
▁lahendama	-10.4839
▁maksumus	-10.4842
▁eesmärgil	-10.4842
▁Iva	-10.4851
töötaja	-10.4854
võrku	-10.4857
▁lapsevanema	-10.4857
teenust	-10.4862
Järve	-10.4867
▁jälgida	-10.4869
▁järgne	-10.4872
▁üheselt	-10.4876
▁teemadel	-10.4881
asja	-10.4883
▁kasuks	-10.489
▁teenistus	-10.4903
▁suuresti	-10.4904
▁siseministri	-10.4904
▁saamiseks	-10.4907
▁paindliku	-10.4909
▁osalesid	-10.491
▁juhtide	-10.4912
▁Kust	-10.4913
▁süüdistus	-10.4923
▁eduka	-10.493
▁digi	-10.493
▁Ameti	-10.4931
▁määratle	-10.4932
▁arengufondi	-10.4935
▁isikut	-10.4951
▁Arupärimisele	-10.4955
▁tingitud	-10.4955
▁kliima	-10.4955
▁Isegi	-10.4955
▁poleks	-10.4956
hävi	-10.4956
▁levi	-10.4956
poolt	-10.4958
▁pöörata	-10.4958
▁võimaluste	-10.496
lises	-10.4961
▁initsiatiivi	-10.4962
▁sisuline	-10.4966
▁oligi	-10.4967
▁aruanne	-10.4968
▁tsiteeri	-10.4978
▁püha	-10.4979
▁Vabaerakond	-10.4979
▁kinnitanud	-10.498
▁liik	-10.4987
▁ukse	-10.4989
▁valitsust	-10.4989
.)"	-10.4997
eerimine	-10.4999
▁massi	-10.4999
resident	-10.5001
märk	-10.5002
▁väidan	-10.5003
▁hoolda	-10.5003
▁ressursse	-10.5003
▁kindlalt	-10.5005
▁mudeli	-10.5007
▁64	-10.501
▁tohutu	-10.5011
▁Borodi	-10.5027
▁kulutused	-10.5029
▁leiame	-10.5036
▁laiendada	-10.5037
▁vähendab	-10.5039
▁rääkimata	-10.5042
liseks	-10.5042
arv	-10.5044
▁Praegune	-10.5044
öderatsiooni	-10.5051
keele	-10.5052
▁signaal	-10.5055
▁Jutt	-10.5059
ingu	-10.506
▁lõpeb	-10.5063
▁turule	-10.5064
ministeeriumiga	-10.5072
▁algatada	-10.5073
▁selgitus	-10.5076
▁motiveeri	-10.5079
▁pikendada	-10.508
kuju	-10.5081
▁tagatis	-10.5082
▁sõnad	-10.5085
▁terava	-10.5087
▁lõplik	-10.5098
komisjonile	-10.5099
▁vooru	-10.5099
▁puuetega	-10.51
▁riku	-10.51
hoiu	-10.5101
▁sihi	-10.5103
▁kallal	-10.5103
▁tere	-10.5104
▁muuseumi	-10.5107
▁seada	-10.5109
oktoobri	-10.5109
sotsiaalminister	-10.5111
▁Maaelu	-10.5113
võtmise	-10.5115
▁riigiabi	-10.5117
▁puudutava	-10.5117
▁hari	-10.5123
▁erivajadustega	-10.5124
▁Rainer	-10.5124
▁üritus	-10.5126
▁esitasid	-10.5127
▁teeninda	-10.5129
▁läbirääkimistel	-10.513
▁tuge	-10.5133
▁Seaduse	-10.5139
▁2014	-10.514
▁koosseis	-10.5144
eniss	-10.5148
▁pehme	-10.5149
▁üllatus	-10.5149
▁Iseenesest	-10.515
koda	-10.515
▁suureks	-10.5151
▁talu	-10.5152
kohase	-10.5156
▁Vaat	-10.5159
▁väiksemad	-10.5163
▁Räägi	-10.5164
▁Lii	-10.5164
▁kaasata	-10.5172
▁seejärel	-10.5173
▁riigihalduse	-10.5173
▁liikuma	-10.5174
▁ebaseaduslik	-10.5176
▁omanik	-10.5178
vabadus	-10.5179
võimalus	-10.5182
▁Pean	-10.5183
▁tõmmata	-10.5185
▁jõustub	-10.5187
▁2017	-10.5188
▁Narvas	-10.5189
▁suhete	-10.5189
▁rahalise	-10.5189
▁vägivalla	-10.5198
vanema	-10.5201
▁Sest	-10.5203
▁Eestil	-10.5205
▁kitsas	-10.5205
oleva	-10.5207
▁iseenda	-10.5208
▁He	-10.5213
▁personali	-10.5217
▁Saa	-10.5219
▁ainus	-10.5223
▁kasutamist	-10.5226
▁müüa	-10.5235
▁kooselu	-10.5236
▁tulebki	-10.524
ära	-10.5248
▁mures	-10.525
likkuse	-10.5256
kultuuriminister	-10.5257
Aivar	-10.5257
vilja	-10.5258
selle	-10.5261
▁tuleme	-10.5262
▁Sama	-10.5264
perioodi	-10.5266
▁olemus	-10.5267
▁teilt	-10.5268
▁kasutades	-10.5269
▁Pentus	-10.5272
▁nalja	-10.5272
▁üksteise	-10.5272
▁tingimustes	-10.5273
▁Otsus	-10.5273
▁rahulikult	-10.5276
▁Põllumajandus	-10.5276
▁kohti	-10.5279
▁parane	-10.5282
otsus	-10.5287
ndid	-10.5294
▁Süüria	-10.5297
▁arupärijate	-10.5297
▁õppima	-10.5297
liini	-10.5298
aastane	-10.5298
▁Michal	-10.5301
▁lubanud	-10.5304
▁viienda	-10.5305
▁2000	-10.5309
▁kohtus	-10.531
kultuuri	-10.5321
▁arusaadava	-10.5321
▁uhke	-10.5322
▁seadused	-10.5322
▁viitas	-10.5322
▁suvel	-10.533
▁2020.	-10.5333
võ	-10.5346
▁toetan	-10.5348
 1	-10.5348
▁tootmise	-10.5348
▁Vabandust	-10.535
▁rakendu	-10.535
▁Ent	-10.5357
▁tagant	-10.5358
▁esmaspäeval	-10.536
▁Stalnuhhini	-10.5363
▁Madis	-10.5363
▁kvaliteetse	-10.5365
▁ajada	-10.5377
▁spetsialistid	-10.5378
politsei	-10.5382
ministeeriumile	-10.5383
▁Tartus	-10.5386
▁moodustamine	-10.5391
▁tõmba	-10.5394
▁töötama	-10.5395
▁Kohtla	-10.5396
▁Tuiksoo	-10.5396
▁korrigeeri	-10.5396
▁mitmesuguste	-10.5397
▁rahvusvaheline	-10.5397
▁piirangud	-10.5398
vaks	-10.54
▁tehingu	-10.5403
▁tegemiseks	-10.5405
Minu	-10.5409
laeva	-10.5412
Mart	-10.5414
▁huve	-10.5422
▁Sild	-10.5422
▁tunda	-10.5422
▁arutamise	-10.5425
▁jaotus	-10.5427
▁igasuguseid	-10.5428
▁puhtalt	-10.5435
▁hindate	-10.5435
▁Neeme	-10.5447
▁juhtinud	-10.5447
▁lootus	-10.5447
▁tasku	-10.5447
▁vaidle	-10.5449
▁seekord	-10.5457
▁Tõnis	-10.546
Meie	-10.546
▁ministeeriumis	-10.5463
▁tegutseda	-10.5464
▁kuivõrd	-10.5464
▁nõuetele	-10.547
▁arupärimiste	-10.547
▁enamasti	-10.5472
loa	-10.5473
▁pikemalt	-10.5473
▁määrati	-10.5474
▁majanduskasv	-10.5484
▁Keskuse	-10.5484
▁ettevõtteid	-10.5485
▁lastekaitse	-10.5485
▁avalikkusele	-10.5487
▁naised	-10.5487
▁tolle	-10.549
▁jäid	-10.5494
▁mingis	-10.5495
▁informeeri	-10.5497
▁piinlik	-10.5498
▁samasugune	-10.55
▁parim	-10.551
▁kasutab	-10.5511
▁ah	-10.5511
▁edenda	-10.5512
▁Eel	-10.5514
▁arengut	-10.5515
▁kõrgharidus	-10.5515
▁eelnõusse	-10.5516
▁nõustuda	-10.5517
▁tootja	-10.5518
▁Ve	-10.5523
▁ekspertide	-10.5523
▁algata	-10.5529
▁vastasin	-10.5532
▁53	-10.5535
▁maade	-10.5536
▁pilti	-10.5539
▁tarbimise	-10.5539
ondi	-10.5543
▁võlg	-10.5546
▁hooldekodu	-10.5548
▁Ratase	-10.5549
mehed	-10.555
▁tulemusel	-10.5556
▁põhimõtteline	-10.5557
▁Eelmise	-10.556
▁deklaratsiooni	-10.5561
▁arst	-10.5564
▁piirkondades	-10.5564
▁suuremate	-10.5565
▁järgmist	-10.5569
▁mõistlikum	-10.5569
▁piisa	-10.5572
▁aseesimehe	-10.5574
▁ajutise	-10.5574
▁peamiselt	-10.5574
▁näevad	-10.5574
▁üksi	-10.5575
▁formaal	-10.5578
▁sead	-10.5584
▁täienda	-10.5587
▁lihtsusta	-10.5588
▁kange	-10.5589
▁esineja	-10.5592
rahva	-10.5595
▁täit	-10.5597
liige	-10.5598
teenistus	-10.5598
▁spiiker	-10.5599
harju	-10.5601
▁eraldatud	-10.5602
liiklus	-10.5605
▁täiendav	-10.5609
ivse	-10.5609
▁järgmistel	-10.5609
▁kahane	-10.561
pensioni	-10.5615
▁algus	-10.5623
▁narko	-10.5625
▁Lenk	-10.5625
▁Jaanson	-10.5625
▁noore	-10.5626
▁lugema	-10.5627
▁seaduseelnõuga	-10.5628
▁targem	-10.5629
▁alanda	-10.5631
▁huvid	-10.5633
▁viinud	-10.5634
Küsimus	-10.5636
▁palgatõusu	-10.5636
▁äriühingu	-10.5638
▁tõusnud	-10.5638
tunni	-10.5642
hääletus	-10.5642
▁lahendused	-10.5644
▁suve	-10.5647
koor	-10.5649
▁elavate	-10.5651
linna	-10.5651
Sa	-10.5654
▁viita	-10.5655
▁suuremaid	-10.5657
▁seadusmuudatuse	-10.5661
▁ettepanekul	-10.5667
▁otsusena	-10.5672
▁täiendavaid	-10.5675
▁ring	-10.5679
asutused	-10.5679
▁mõnikord	-10.5681
▁endal	-10.5682
▁vahetu	-10.5684
▁odavama	-10.5685
▁poliitikas	-10.569
▁vaesus	-10.569
B	-10.5692
▁nägi	-10.5696
▁kuupäeva	-10.5701
▁õiguslik	-10.5701
▁eelmises	-10.5702
▁korraldatud	-10.5702
▁avalikult	-10.5706
▁ootab	-10.5706
▁OE	-10.5708
%.	-10.5709
▁väikesed	-10.5714
▁statistikat	-10.5718
koolide	-10.5719
▁hooli	-10.5723
▁osalevad	-10.5723
▁Ken	-10.5725
▁tendents	-10.5728
▁õiglane	-10.5728
▁kaitstud	-10.5728
▁kriitika	-10.573
▁lapsele	-10.5732
▁edasise	-10.5733
▁teistel	-10.5734
▁situatsiooni	-10.5736
▁majanda	-10.5737
▁jõuaks	-10.5739
▁mehed	-10.5743
▁koosoleku	-10.5744
▁ettevõtjaid	-10.5746
▁väär	-10.5748
▁Kolmas	-10.5748
▁haldusalas	-10.5751
kvoot	-10.5751
▁koostamise	-10.5753
▁solidaarsus	-10.5754
▁sularaha	-10.5754
▁tegevuskava	-10.5758
▁Eelmisel	-10.5761
▁kaasne	-10.5767
▁erakonda	-10.5767
▁Vaher	-10.5771
kohtade	-10.5773
50	-10.5774
▁Põlva	-10.578
▁lõhk	-10.5781
▁võimalikud	-10.5787
▁Valga	-10.5787
▁30.	-10.5795
tervis	-10.5796
▁reaalsus	-10.5797
turul	-10.5799
▁liikmel	-10.5804
iguskantsler	-10.5805
▁Tõenäoliselt	-10.5806
▁tagajärg	-10.5807
▁kaasas	-10.5808
▁koorma	-10.581
ühe	-10.581
▁liitlas	-10.5814
▁riikidest	-10.5814
▁54	-10.5814
▁sõnaga	-10.5824
▁pank	-10.5825
▁kaalutlus	-10.5827
▁ent	-10.5827
▁ilmu	-10.583
▁senisest	-10.5836
▁piirangu	-10.5836
ehitus	-10.5847
konda	-10.5851
tage	-10.5854
▁kooskõlla	-10.5859
▁piirata	-10.586
uh	-10.5862
▁sätestab	-10.5866
▁väljendu	-10.5867
▁võimelised	-10.5869
▁eelneva	-10.5872
▁är	-10.5881
▁kohalikel	-10.5883
▁Põhjus	-10.5885
▁Oluli	-10.5888
▁ülikoolide	-10.5893
kasv	-10.5895
tuseks	-10.5896
▁otsima	-10.5899
ministeeriumist	-10.59
▁küsitud	-10.5901
▁saagi	-10.5902
▁Eri	-10.5902
Mihhail	-10.5904
▁nädal	-10.5904
novembri	-10.5904
õhk	-10.5908
▁üldjuhul	-10.5911
▁kolmandale	-10.5913
▁surma	-10.5914
▁viimased	-10.5915
▁võrdselt	-10.5921
▁järgneva	-10.5926
joon	-10.5927
oko	-10.5927
aluse	-10.5928
▁78	-10.5931
▁loomine	-10.5934
▁signaali	-10.5934
▁meedias	-10.5934
▁segadus	-10.5936
▁lõppkokkuvõttes	-10.5938
▁paiguta	-10.5938
▁küsimustega	-10.5948
▁arstide	-10.5948
ring	-10.5949
▁turg	-10.595
▁26.	-10.5952
▁Ü	-10.5953
ntsinspektsiooni	-10.5957
Urve	-10.5958
▁vaatab	-10.5961
▁taristu	-10.5963
▁tuuakse	-10.5966
pärane	-10.5971
▁kõikidel	-10.5986
▁rahastamis	-10.5986
▁esimeses	-10.5987
▁elluviimise	-10.5991
▁korrektne	-10.5991
▁siiralt	-10.5991
▁juhuks	-10.5991
▁üüri	-10.5992
▁väljend	-10.5992
▁kadunud	-10.5993
▁haige	-10.5994
kese	-10.5996
▁riskid	-10.6003
▁ravikindlustuse	-10.6008
küsimuse	-10.6013
Päevakorra	-10.6018
▁Põhimõtteliselt	-10.6018
▁leidma	-10.6018
▁Üld	-10.6018
▁otsustus	-10.6019
võimekus	-10.6023
▁passi	-10.6023
▁kümneid	-10.6023
▁miljardi	-10.6025
▁finantseeri	-10.603
materjali	-10.6033
▁sündmus	-10.6033
▁otstarbe	-10.6037
▁57	-10.6039
uba	-10.604
▁31.	-10.6046
kodu	-10.605
eelarve	-10.6053
õe	-10.6054
▁lisandu	-10.6056
ndust	-10.606
vedu	-10.6069
▁otstarbekas	-10.6073
▁rääkisid	-10.6073
▁üksiku	-10.6076
▁mainis	-10.6076
▁asjadega	-10.6076
▁tagasiside	-10.6078
▁kumma	-10.6078
▁vastuvõtmist	-10.6081
▁ministrina	-10.6088
▁reservi	-10.6088
▁lood	-10.609
▁eksperdid	-10.6091
▁kavandatud	-10.6091
▁austa	-10.6092
Rosimannus	-10.6098
▁Ometi	-10.6098
▁metoodika	-10.6098
▁Algataja	-10.6098
▁avaldanud	-10.6103
puu	-10.6104
▁uuringute	-10.6105
▁katkesta	-10.6107
▁Nõukogude	-10.6109
tunnistus	-10.6119
sport	-10.6122
▁kuritegude	-10.6127
▁minnakse	-10.6127
▁valitsemisala	-10.6134
kasutus	-10.6137
▁sind	-10.6143
▁suurendamise	-10.6144
juures	-10.6145
▁Kaljuvee	-10.6152
▁Sibul	-10.6152
▁varju	-10.6152
▁Mingi	-10.6153
▁poliitiku	-10.6154
rea	-10.6158
ndeid	-10.6159
▁kehtiv	-10.6161
▁kolmandik	-10.6161
▁kallis	-10.6162
▁üksmeel	-10.6167
▁pagulaste	-10.6169
kene	-10.6175
▁7,	-10.6175
võimu	-10.6178
▁paremad	-10.6179
▁Riigikohus	-10.618
▁kajastu	-10.6181
püü	-10.6185
kohti	-10.6186
▁olime	-10.6189
vedaja	-10.6189
▁varu	-10.6195
järk	-10.62
▁tugevda	-10.6205
▁tervik	-10.6205
▁erivajadusega	-10.6206
▁Tervise	-10.6207
▁lõpetan	-10.6208
mehhanismi	-10.6211
▁tööminister	-10.6211
▁Ütlen	-10.6216
▁muutmiseks	-10.6222
▁taba	-10.6228
▁õigel	-10.6234
▁2008.	-10.6234
▁kütust	-10.6234
▁kohtades	-10.6235
ür	-10.6235
gramm	-10.6236
▁kehtestamise	-10.6236
▁kauge	-10.624
käik	-10.6241
▁areng	-10.6241
▁seisus	-10.6243
liik	-10.6246
voo	-10.6247
justiitsministri	-10.625
▁korralik	-10.625
▁tutvu	-10.6251
▁ca	-10.6256
▁sattu	-10.626
▁leitakse	-10.6261
▁kevad	-10.6261
▁väärika	-10.6262
majade	-10.6264
▁ministril	-10.6269
▁igasugune	-10.627
▁nõusoleku	-10.627
▁Taani	-10.6271
▁taastada	-10.6276
mehe	-10.6278
▁arutusel	-10.628
▁omaette	-10.6281
õpe	-10.6282
▁muide	-10.6282
▁kohtumise	-10.6283
Henn	-10.6284
▁hinnad	-10.6285
▁okupatsiooni	-10.6288
▁iseseisvus	-10.6288
▁väljakutse	-10.6288
▁arvavad	-10.6291
▁demokraatliku	-10.6295
▁põllumeeste	-10.6297
▁praeguste	-10.6299
panga	-10.63
▁toimingu	-10.6302
viis	-10.6303
▁põhiliselt	-10.6304
▁õnnestunud	-10.6305
▁valikuid	-10.631
▁arvutus	-10.6312
nõude	-10.6313
▁tagantjärele	-10.6316
▁leitud	-10.6316
▁tootmis	-10.6319
▁kantud	-10.6321
laenu	-10.6324
▁leian	-10.6325
▁kiri	-10.6333
▁võimekust	-10.6336
▁kirjalikult	-10.6337
ühenduse	-10.6337
Urmas	-10.634
otsuse	-10.6344
sotsiaalkomisjon	-10.6344
▁kütte	-10.6345
▁Vaheaeg	-10.6345
▁säilitada	-10.6345
tunde	-10.6346
▁õigemini	-10.6349
▁aegade	-10.6353
▁territooriumi	-10.6356
▁institutsioonid	-10.6361
▁Allik	-10.6361
▁väljatöötamise	-10.6364
▁toetame	-10.6365
▁täielik	-10.6366
▁selged	-10.6366
▁loota	-10.6368
▁konkursi	-10.6371
▁tulenevad	-10.6376
▁jätkame	-10.6379
▁elanud	-10.6381
▁29.	-10.6381
▁suurel	-10.6383
▁noortele	-10.6388
organisatsiooni	-10.6389
vahetuse	-10.6397
▁aktsia	-10.6399
▁esindatud	-10.6399
▁vaade	-10.6403
▁võtmise	-10.6405
liitude	-10.6409
Ja	-10.6411
▁Too	-10.6412
▁enamiku	-10.6425
Rääki	-10.6426
▁Millal	-10.6426
▁Tähendab	-10.6426
▁pakkumise	-10.6427
▁soorita	-10.6428
▁jätab	-10.643
▁järelduse	-10.6436
▁viitasin	-10.6438
▁nõukogus	-10.6439
▁esindajatega	-10.644
▁sissetulek	-10.6441
3%	-10.6443
▁lahendamiseks	-10.6443
▁Ne	-10.6447
▁korralikult	-10.6447
▁keskmisest	-10.6448
▁intervjuu	-10.6454
▁Mitme	-10.6454
▁millegipärast	-10.6455
▁osutamise	-10.6455
▁Poolt	-10.6456
▁tooni	-10.6461
▁Era	-10.6465
▁seletada	-10.6465
▁nimetatakse	-10.6466
▁esitatakse	-10.6475
▁28.	-10.6482
▁Arupärimine	-10.6482
▁parlamentaarse	-10.6482
▁koole	-10.6487
▁Kallas	-10.649
▁eelmisele	-10.6492
kolm	-10.6496
▁euroala	-10.6498
▁erakoolide	-10.6499
▁ühenduse	-10.6499
▁kohustuslik	-10.65
▁plaanid	-10.65
▁mudel	-10.6505
▁kättesaadavus	-10.6507
tajate	-10.6508
▁osapooled	-10.651
▁raiu	-10.6513
liikme	-10.6523
▁2012	-10.6528
▁hetk	-10.6529
▁õpe	-10.6533
õigust	-10.6534
▁sõjaväe	-10.6535
▁tohib	-10.6537
▁garanteeri	-10.6538
▁nüanss	-10.6538
▁suitseta	-10.6538
▁Põhjamaade	-10.6538
▁kõigest	-10.6539
▁andmine	-10.6539
▁mõis	-10.6539
▁Luik	-10.6542
▁Eelnõuga	-10.6542
▁objekt	-10.6546
▁loom	-10.6547
▁Heimar	-10.655
▁audit	-10.655
toetused	-10.6551
Siseministeerium	-10.6552
tootja	-10.6552
▁aegadel	-10.6558
▁kompromissi	-10.6559
▁Pu	-10.6559
▁tutvuda	-10.656
▁võtate	-10.6561
kulusid	-10.6564
▁niikuinii	-10.6566
▁jõudma	-10.6577
ch	-10.6578
og	-10.658
leht	-10.6583
▁riigieelarvet	-10.6584
▁viima	-10.6587
▁kuule	-10.6588
▁Lembit	-10.6595
▁võrdlus	-10.6595
▁piirdu	-10.6596
▁vasak	-10.6596
▁kohtunike	-10.6599
kõ	-10.6603
ndla	-10.6604
▁panuse	-10.6604
10	-10.6613
vaata	-10.6613
▁suurendamine	-10.6616
▁erapooletu	-10.6618
▁päriselt	-10.6619
välja	-10.6623
loogilise	-10.6625
▁sõnavõtt	-10.6625
erakonna	-10.6625
▁kodakondsust	-10.6629
▁rahvale	-10.6631
▁maavalitsuste	-10.6637
▁tahaksime	-10.6637
▁liigume	-10.6642
poliitilise	-10.6642
▁tõsist	-10.6646
▁Oleks	-10.6646
▁konkurentsivõim	-10.6647
▁põhimõtet	-10.6648
▁ehitamise	-10.6649
▁erakordselt	-10.6651
▁kiida	-10.6652
▁nähakse	-10.6653
▁fa	-10.6654
▁vaatasin	-10.666
▁kommentaari	-10.6661
▁küt	-10.6663
▁eelnevalt	-10.667
▁komisjonile	-10.6672
▁kahtle	-10.6678
▁emotsioon	-10.668
▁täidab	-10.6681
▁mõtleme	-10.6686
▁ühinemis	-10.6689
▁Küsin	-10.6693
▁olukorrast	-10.6693
auk	-10.6693
koalitsioon	-10.6701
▁kogemuse	-10.6703
▁vabatahtlikult	-10.6703
▁õhtu	-10.6704
▁56	-10.6707
▁nädalat	-10.6707
▁katta	-10.6707
▁arutlusel	-10.6708
▁uurida	-10.6709
▁ausad	-10.6713
▁Eldar	-10.6717
▁tegevusi	-10.6724
▁vähendamine	-10.6724
▁saamata	-10.6726
▁pöördunud	-10.6727
▁viies	-10.6729
▁endine	-10.6732
▁võimalikke	-10.6732
▁Aaviksoo	-10.6737
▁konkureeri	-10.6737
pidamine	-10.6738
▁termin	-10.6739
▁delegatsiooni	-10.6739
▁Alati	-10.6739
partneri	-10.6739
▁raie	-10.6741
▁kõnealuse	-10.6743
▁Omavalitsus	-10.6744
Marti	-10.6752
▁ideaal	-10.6759
▁majandusliku	-10.6762
▁17.15	-10.6763
▁toreda	-10.6763
▁viidatud	-10.6766
▁võtsid	-10.6766
detsembri	-10.6768
▁lõpetanud	-10.6769
▁pakkus	-10.6769
▁ametlik	-10.6769
▁76	-10.677
▁rõõmu	-10.6771
0%	-10.6771
▁eestlaste	-10.6775
▁fraktsioonidel	-10.6781
▁kitsa	-10.6786
gress	-10.6788
▁72	-10.6789
▁võimul	-10.6792
▁vähese	-10.6792
▁Randjärv	-10.6795
▁augusti	-10.6795
▁inter	-10.6796
▁seisa	-10.6796
täht	-10.6797
▁vaheaja	-10.6801
▁vaese	-10.6803
▁korraks	-10.6806
▁ettekannet	-10.6807
▁sattunud	-10.6808
▁võrgu	-10.6814
▁tegutsevad	-10.6814
tööstus	-10.6819
▁neljas	-10.6823
▁kompetentsi	-10.6825
tarbija	-10.6826
!""	-10.6827
▁ajalugu	-10.6828
▁tööpuudus	-10.683
▁institutsioon	-10.683
▁tingimuste	-10.6836
▁Asi	-10.6841
▁Soovi	-10.6841
▁rahastamist	-10.6844
aastast	-10.6844
külg	-10.6846
▁must	-10.6849
▁loome	-10.6851
▁esialgu	-10.6853
▁ääretult	-10.6853
▁heakskiit	-10.6853
▁tähtaega	-10.6854
▁lahuta	-10.6854
tasime	-10.6855
põlve	-10.6855
▁seisneb	-10.6855
▁praktikat	-10.6855
Kaitseväe	-10.6855
naabri	-10.6856
▁tingimusi	-10.6857
▁saja	-10.686
▁Laste	-10.6864
▁ravimite	-10.6865
▁bio	-10.6868
▁ministrit	-10.6872
▁karda	-10.6874
▁turvalisus	-10.6875
▁kokkuleppele	-10.688
▁kaugemale	-10.6881
▁möön	-10.6881
▁ohvri	-10.6882
▁sobiva	-10.6886
pul	-10.6893
▁tükk	-10.6905
▁ühi	-10.6906
▁ostu	-10.6908
▁reegleid	-10.6908
▁makstud	-10.691
▁haiglate	-10.6911
▁puudujääk	-10.6911
▁hullem	-10.6914
Jaak	-10.6919
▁Tallinn	-10.6919
rvishoiuteenuste	-10.6919
▁68	-10.6922
ostu	-10.6926
▁koosolekul	-10.6926
▁sõnastuse	-10.6931
▁täiendada	-10.6936
▁sõlmida	-10.6938
▁punktis	-10.6941
▁poliitilised	-10.6943
▁teenida	-10.6946
käigu	-10.6949
▁Rootsis	-10.6949
▁tasakaal	-10.6963
▁taristuminister	-10.6971
pension	-10.6971
▁leiavad	-10.6975
paiga	-10.6976
▁toodi	-10.6979
▁kaitset	-10.6981
euro	-10.6984
rme	-10.6987
suur	-10.6991
▁tingimustel	-10.6994
▁Keegi	-10.6999
▁Suurbritannia	-10.6999
▁vaadake	-10.6999
▁järelikult	-10.6999
▁Liisa	-10.7002
▁hange	-10.7003
▁poolteist	-10.7003
▁Na	-10.7003
▁täpsustus	-10.7006
▁100%	-10.7007
valimiste	-10.7009
missioonil	-10.701
hoo	-10.7011
▁maavalitsus	-10.7013
▁nurga	-10.7016
ppe	-10.7017
▁näitas	-10.7017
▁Arutelu	-10.7017
tulumaksuseaduse	-10.7018
▁kilomeetrit	-10.7019
eldi	-10.7024
▁vastusest	-10.7026
▁kellest	-10.7027
▁hakati	-10.7028
▁potentsiaalse	-10.7033
Jüri	-10.7033
▁mahtu	-10.7036
varustus	-10.7038
▁võimeline	-10.7039
▁püüab	-10.7044
▁ühinemise	-10.7048
▁laekub	-10.7048
▁probleemiga	-10.7057
kõik	-10.7057
▁defineeri	-10.7058
▁professionaalse	-10.7058
▁skeemi	-10.7058
▁ajend	-10.7058
▁kiirabi	-10.7059
▁näpu	-10.706
▁saadakse	-10.7062
Valeri	-10.7063
vaat	-10.7067
tööstuse	-10.7068
▁parlamenti	-10.7073
▁paljudele	-10.7083
▁väljaõppe	-10.7084
▁rikkumise	-10.7086
alkoholiaktsiisi	-10.7087
▁märkimisväärne	-10.7088
▁kliendi	-10.7088
▁Ester	-10.7088
▁loobuda	-10.7088
▁muutnud	-10.7088
▁julgus	-10.7088
tute	-10.7089
▁allkirjasta	-10.7094
▁õiguskomisjon	-10.7096
analüüsi	-10.7097
▁tulud	-10.7101
▁kavatseb	-10.7104
▁rahasta	-10.7104
▁väärtuse	-10.7104
tükk	-10.7105
▁väärt	-10.7106
▁apteegi	-10.7116
▁avaldada	-10.7117
▁Kruusimäe	-10.7117
▁Norra	-10.7117
mar	-10.7118
▁võimalikku	-10.7118
▁käsitleva	-10.7119
kriteerium	-10.7121
▁2016. 	-10.7122
▁garantii	-10.7122
▁vangi	-10.7123
▁58	-10.7124
▁kinnitamise	-10.7126
▁rahvusvahelist	-10.7134
igus	-10.7137
▁põhimõtted	-10.7139
▁67	-10.714
▁62	-10.7146
▁objektiivse	-10.7148
augu	-10.7151
võrk	-10.7157
▁tööga	-10.7159
▁arutatakse	-10.7165
▁majas	-10.7166
▁sektor	-10.7172
▁piirang	-10.7174
▁osakaalu	-10.7177
▁täpne	-10.7177
▁hinge	-10.7178
▁linnapea	-10.718
▁eeldada	-10.7184
toodangu	-10.7187
▁seisma	-10.7188
kande	-10.7188
aator	-10.719
eelne	-10.719
▁lootust	-10.7196
▁kohati	-10.72
▁Aafrika	-10.7202
▁kõrgkooli	-10.7202
▁töökoha	-10.7202
▁tugispetsialist	-10.7208
▁eraldada	-10.7208
▁Võsa	-10.7211
▁eespool	-10.7213
▁arvuti	-10.7214
▁Tõniste	-10.7221
▁missugune	-10.7222
▁jõ	-10.7223
▁riiklike	-10.7223
▁selget	-10.7227
▁bürokraatia	-10.7228
▁otsustama	-10.7229
▁vahest	-10.7231
▁töötajad	-10.7233
▁ennusta	-10.7237
▁soojus	-10.7239
▁Kooli	-10.724
akse	-10.725
▁ootavad	-10.7259
▁tugevama	-10.7263
▁Järelikult	-10.7267
▁loll	-10.7271
▁vajalikku	-10.7275
▁staatuse	-10.7276
▁laevade	-10.7276
▁Helir	-10.7278
▁Jaan	-10.7278
▁paratamatult	-10.7279
2%	-10.7282
▁ministeeriumid	-10.7289
▁spetsialistide	-10.7292
 2	-10.7294
▁täpsustan	-10.7294
▁Kohal	-10.7297
▁tuntud	-10.7298
▁jõutud	-10.7299
▁partnerite	-10.7305
▁mingisugused	-10.7305
▁märk	-10.7311
teenuseid	-10.7312
▁täitnud	-10.7313
▁Vassiljevi	-10.7318
hääle	-10.7321
pere	-10.7322
▁vaesuse	-10.7325
▁osalemise	-10.7328
▁piiranguid	-10.7328
▁Arvestades	-10.7328
▁Sulge	-10.7328
▁halba	-10.7329
▁targa	-10.7331
▁riske	-10.7334
▁Estonian	-10.7335
▁Kaia	-10.7335
▁paindlikkus	-10.7339
▁Palju	-10.734
▁tolli	-10.7345
▁täie	-10.7351
▁ajaga	-10.7352
▁tegeliku	-10.7358
▁märkimisväärse	-10.7358
▁Ettekande	-10.7359
vastu	-10.736
▁Olga	-10.736
▁jõuavad	-10.736
▁opositsioon	-10.7362
▁rõhutas	-10.7362
▁esimehena	-10.7367
▁suurenenud	-10.7367
▁pikkus	-10.7367
mur	-10.7371
▁kättesaadavuse	-10.7376
▁eakate	-10.7377
▁jõuliselt	-10.738
▁soovinud	-10.7384
▁maksusüsteemi	-10.7385
▁muutuma	-10.7387
▁temaga	-10.7388
▁meetodi	-10.7389
Lõpetuseks	-10.7389
▁Kelle	-10.7389
▁kuritegevus	-10.739
▁küsitlus	-10.7391
▁vaimu	-10.7392
▁menetlusliku	-10.7394
▁tulumaks	-10.74
▁toit	-10.7404
▁piires	-10.7408
▁tarbimine	-10.741
▁ainu	-10.7411
▁tööturu	-10.7415
▁polnud	-10.742
▁pöördumise	-10.7423
▁saladus	-10.7425
▁perspektiivi	-10.7425
▁maaelukomisjoni	-10.7426
▁infrastruktuuri	-10.7427
kohane	-10.7428
▁Mõned	-10.7431
▁2015. 	-10.7431
▁asjaolude	-10.7432
▁kiirema	-10.7434
▁kiita	-10.7434
▁sõnade	-10.7437
▁pakutakse	-10.744
▁esitamist	-10.7442
▁arenenud	-10.7443
▁nimetamine	-10.7448
▁koolilõuna	-10.7451
▁needsamad	-10.7451
▁maakonnas	-10.7451
▁kompensatsiooni	-10.7452
liikmete	-10.7453
▁vahend	-10.7454
▁teadmiste	-10.7454
▁valdavalt	-10.746
▁millisel	-10.7461
gruppide	-10.7463
▁kohtuotsus	-10.7469
▁poliitiliselt	-10.7472
▁vastav	-10.7474
oomi	-10.7474
▁Parts	-10.7491
Monika	-10.7492
investeeringute	-10.7492
▁tekitas	-10.7493
▁ettevalmista	-10.7499
▁vajaduspõhise	-10.7501
▁150	-10.7504
▁täiendamise	-10.7506
▁palgalõhe	-10.7513
▁kiit	-10.7513
▁pädeva	-10.7513
▁kumb	-10.7513
▁kindlad	-10.7516
vahendeid	-10.7523
rahv	-10.7535
▁kinnitan	-10.7541
▁mehi	-10.7543
ce	-10.7545
▁kujuneb	-10.7546
▁vaadatakse	-10.7546
▁veendumus	-10.7546
fondide	-10.7546
▁ülimalt	-10.7547
▁"...	-10.7548
efekt	-10.7552
valimi	-10.7553
Eerik	-10.7554
▁kena	-10.7554
▁täiendus	-10.7557
▁positiivset	-10.7559
▁Enamik	-10.7562
8%	-10.7564
▁tegelikku	-10.7568
raport	-10.7569
▁Lutsepp	-10.7575
▁umbusaldus	-10.7575
▁valitsuskabinet	-10.7575
▁argumendid	-10.7575
▁ratifitseerimis	-10.7576
kaitseakadeemia	-10.7576
15	-10.7577
▁töötavate	-10.7578
▁jätkusuutlikkus	-10.7579
▁armasta	-10.758
▁Saare	-10.7582
avaldus	-10.7584
järelevalve	-10.7586
▁järgmiseks	-10.7587
veebruari	-10.7587
▁keskuse	-10.7589
aktsioon	-10.7594
▁pensionile	-10.7597
▁vaatate	-10.7599
▁Ansip	-10.7599
▁Kaskpeit	-10.7606
▁häbi	-10.7606
▁tehnilist	-10.7606
▁elektriaktsiisi	-10.7607
▁kahtlust	-10.7611
▁arvestatakse	-10.7613
▁määramise	-10.7613
▁kulutada	-10.7613
III	-10.7617
▁77	-10.7617
▁Kotka	-10.7622
uuringu	-10.7624
▁printsiibi	-10.7624
▁vaesuses	-10.7625
▁trend	-10.7629
hind	-10.763
▁ressursside	-10.7632
kompetents	-10.7634
▁Sarapuu	-10.7637
▁omad	-10.7639
ener	-10.764
▁kogemusi	-10.7641
▁töökohad	-10.7644
▁veo	-10.7647
dokument	-10.765
▁summasid	-10.7652
kiri	-10.7653
▁inimõiguste	-10.7656
▁arusaamatuks	-10.7657
▁poe	-10.766
▁variandi	-10.7661
▁tööturul	-10.7665
▁patsiendi	-10.7669
▁prügi	-10.7669
▁visioon	-10.7669
▁Laasi	-10.7671
oloogia	-10.7679
▁numbri	-10.7683
▁missioonil	-10.7684
suuna	-10.7687
▁leppe	-10.769
▁tugevalt	-10.769
▁odavam	-10.769
▁Korbi	-10.7691
▁arutelusid	-10.7692
joone	-10.7698
▁hektari	-10.77
olümpia	-10.77
▁suveräänsus	-10.77
▁Keit	-10.77
▁Päris	-10.7701
▁juhid	-10.7706
▁jooksva	-10.7707
meelsus	-10.7709
korda	-10.7709
tingimuste	-10.7714
võistlus	-10.7715
▁lahkunud	-10.7718
▁turvalisuse	-10.7721
▁nõua	-10.7729
▁rahvaesindajad	-10.7732
▁Olgu	-10.7732
▁Euro	-10.7732
▁suudaks	-10.7735
▁tarbijate	-10.7736
▁tunnevad	-10.7737
▁olukorraga	-10.7737
tasude	-10.7743
aluste	-10.7744
▁avalike	-10.7745
teenus	-10.7752
▁erakooli	-10.7754
▁paluda	-10.7757
asu	-10.7761
▁peadirektor	-10.7764
▁Maruste	-10.7764
▁sõiduki	-10.7767
alase	-10.7769
▁63	-10.7773
▁lubab	-10.7776
huvi	-10.7777
kümmend	-10.7796
▁professor	-10.7796
▁paigas	-10.7796
▁pulti	-10.7797
▁suhted	-10.7797
▁79	-10.7797
▁vähemaks	-10.7798
▁tõuse	-10.7799
ohutuse	-10.7799
▁Tamme	-10.7799
▁lahus	-10.78
▁kuulsin	-10.7805
▁koostamisel	-10.7807
valitsuse	-10.7811
▁täpsema	-10.7812
▁hoiu	-10.7816
▁tervist	-10.7816
▁omavalitsust	-10.7823
▁langetamise	-10.7827
▁Kivimägi	-10.7827
▁lükatud	-10.7827
▁konkurss	-10.7828
▁liikumine	-10.7828
▁Nemad	-10.7829
▁euroga	-10.7832
▁nimetus	-10.7833
▁riigisisese	-10.7836
▁haridussüsteemi	-10.7844
▁kär	-10.7845
▁tooma	-10.7847
▁detailide	-10.7848
▁väidet	-10.7848
▁Linna	-10.785
▁tingimus	-10.785
Eestis	-10.7852
▁uuringuid	-10.7853
▁kehtestatakse	-10.7853
▁rehabilit	-10.786
▁Itaalia	-10.786
▁andsid	-10.786
▁õlle	-10.7862
tajad	-10.7862
▁Simsoni	-10.7865
kandja	-10.7865
▁61	-10.7867
▁langus	-10.7871
▁pädevuses	-10.7872
▁maksupoliitika	-10.7878
meelse	-10.7884
▁71	-10.7885
▁liikmesriik	-10.7886
▁algatuse	-10.789
▁viisa	-10.789
võrd	-10.7891
▁Hallemaa	-10.7892
▁keskkonnatasude	-10.7894
▁eelmiste	-10.79
ruum	-10.7901
▁piiride	-10.7905
▁kogukond	-10.7905
▁oluliste	-10.7906
piirangu	-10.7907
septembri	-10.7908
▁Seepärast	-10.7915
▁mõtted	-10.7919
toodete	-10.7922
▁arutluse	-10.7924
▁madal	-10.7925
▁tuule	-10.7925
▁väljendanud	-10.7926
▁pikem	-10.793
▁missioon	-10.7937
Nagu	-10.794
▁taju	-10.7943
▁kaetud	-10.7944
▁oh	-10.7947
▁vabalt	-10.7955
▁emotsionaalse	-10.7956
▁pakkuma	-10.7956
▁valge	-10.7957
▁emakeele	-10.7957
▁lubaduse	-10.796
kultuurikomisjon	-10.796
▁muutuda	-10.7961
▁tulemas	-10.7961
säili	-10.7963
▁moodustab	-10.7964
▁hõlma	-10.7968
▁kuuluva	-10.797
soodustus	-10.7971
▁seista	-10.7974
▁kerki	-10.7976
▁66	-10.798
▁tänasel	-10.7983
▁käitumine	-10.7984
▁Pä	-10.7987
vabaduse	-10.7987
▁Kahtlemata	-10.7989
▁vägivald	-10.7989
ob	-10.799
hooldus	-10.7993
▁number	-10.7993
▁märki	-10.7993
▁hääletamisele	-10.7995
▁menetlusest	-10.7996
▁toimimise	-10.7999
▁kolmandaks	-10.7999
▁leevenda	-10.8
ministrina	-10.8002
Vabariigi	-10.8006
▁uuring	-10.8006
puudus	-10.8009
▁majandusele	-10.8014
hoone	-10.8021
▁Kõva	-10.8021
▁elamisluba	-10.8022
▁Presidendi	-10.8022
▁igapäevase	-10.8022
tootjate	-10.8022
ään	-10.8023
väli	-10.8024
▁protseduur	-10.8026
erakond	-10.8031
▁alustame	-10.8032
▁salaja	-10.8037
▁liiguvad	-10.804
▁demokraatlik	-10.8043
▁aspekt	-10.8047
▁esitan	-10.8048
▁peagi	-10.8049
ühistu	-10.8053
▁kriis	-10.8059
ndab	-10.8062
▁käituda	-10.8069
▁hii	-10.8069
Kalle	-10.8072
▁valmistu	-10.8073
▁Lang	-10.8075
tulek	-10.8078
▁juriidilist	-10.8078
▁jätkab	-10.8079
▁merendus	-10.8082
▁reguleerib	-10.8083
▁puuduvad	-10.8085
▁õnneks	-10.8086
▁püüda	-10.8086
▁vigu	-10.8087
▁maksuameti	-10.8088
▁ausa	-10.8091
▁kulub	-10.8092
▁toetu	-10.8094
▁kanali	-10.8094
▁par	-10.8095
toetusi	-10.8097
▁kvaliteeti	-10.8099
▁akti	-10.81
▁sõltuvus	-10.8101
▁rii	-10.8104
▁maavanema	-10.8107
▁kehtinud	-10.8109
▁kohad	-10.8117
▁tegevuste	-10.812
▁üleüldse	-10.812
▁vähemasti	-10.812
▁maailmavaate	-10.8121
▁riive	-10.8122
▁sätte	-10.8127
▁järsku	-10.8128
▁pinna	-10.8135
koostöö	-10.8138
büroo	-10.8139
▁keerulisem	-10.8139
▁innovatsiooni	-10.814
oodi	-10.8141
▁asunud	-10.8141
▁valdkondade	-10.8148
▁omavalitsusel	-10.815
▁kirjutas	-10.815
▁päästjate	-10.815
akadeemia	-10.8151
kasvataja	-10.8152
▁rakendamine	-10.8152
▁tingimata	-10.8153
▁Kõigi	-10.8153
▁matusetoetus	-10.8156
kaalu	-10.8165
▁tuginedes	-10.8166
oleku	-10.8166
▁kõlab	-10.817
ühenduste	-10.817
▁meenu	-10.8171
Kõigepealt	-10.8172
▁kinnitab	-10.8173
▁tegutseb	-10.8174
▁piirangute	-10.8174
▁päevakord	-10.8178
lapse	-10.818
▁anta	-10.8183
aastaste	-10.8184
andmise	-10.8184
▁kabineti	-10.8186
▁vaadatud	-10.8186
▁seletuskiri	-10.8186
▁Küsi	-10.8187
▁Leedus	-10.8187
▁Uue	-10.8187
▁raamatupidamis	-10.8187
▁sõnavõtus	-10.8188
▁jookse	-10.8189
aina	-10.8191
▁loomade	-10.8205
▁menetlemine	-10.8206
õnnetus	-10.8206
▁ajakirjanduses	-10.8208
▁meeles	-10.8208
▁kriitikat	-10.8217
▁hääli	-10.8221
▁märka	-10.8222
▁Laine	-10.8224
oht	-10.8224
▁vaidlusta	-10.8224
▁õhtul	-10.8226
▁karistuse	-10.8229
▁ootama	-10.8235
õigusliku	-10.8235
▁prokuratuur	-10.8237
▁märgitud	-10.8239
▁hinnaga	-10.8241
▁top	-10.8242
▁õigusaktide	-10.8243
▁punktide	-10.8245
▁silm	-10.8245
▁kasvatada	-10.8247
▁kohtlemise	-10.8254
▁saavutatud	-10.8255
▁asjakohane	-10.8257
▁Sealt	-10.8263
▁büroo	-10.8266
pra	-10.8268
▁riiva	-10.8269
▁majanduslikult	-10.8272
Komisjoni	-10.8273
▁teinekord	-10.8275
▁enamus	-10.8279
kompleks	-10.8291
▁töötajaid	-10.8293
puude	-10.8293
▁mugav	-10.8295
õiguslik	-10.8308
▁tempo	-10.831
▁kohustusliku	-10.8311
deklaratsiooni	-10.8316
▁keskmist	-10.8318
▁Mikko	-10.8319
▁Türgi	-10.8319
▁keera	-10.832
▁notari	-10.832
▁Arengu	-10.8322
▁ilusasti	-10.8323
▁pealinna	-10.8325
ühendus	-10.8327
rgu	-10.8332
▁Arv	-10.8336
majanduskomisjon	-10.834
▁Pevkuri	-10.834
▁ajaloolise	-10.8343
▁menetlust	-10.8352
▁elava	-10.8353
▁intensiiv	-10.8353
▁optimistlik	-10.8353
▁arstiabi	-10.8355
▁võitlus	-10.8359
▁õigem	-10.8359
▁liikumise	-10.8366
▁kahjulik	-10.8366
▁selliseks	-10.8375
▁kasutan	-10.8377
▁käitumise	-10.8381
▁reegli	-10.8382
▁algatab	-10.8382
▁pooleli	-10.8383
▁pensionide	-10.8383
▁eluaasta	-10.8386
▁koordineeri	-10.8387
▁isikuid	-10.8387
▁hullu	-10.8389
▁uuringud	-10.8389
▁tulene	-10.8393
vormi	-10.8396
missiooni	-10.8402
ringi	-10.8416
▁tänapäeval	-10.842
▁renoveeri	-10.8421
▁Inimeste	-10.8421
▁käivitu	-10.8421
▁lapsetoetuse	-10.8425
▁IM	-10.8428
▁tahaksid	-10.8433
turg	-10.8435
tuur	-10.8436
▁paistab	-10.8437
riski	-10.8441
poliitiline	-10.8443
▁kohtunik	-10.8444
▁mehhanism	-10.8445
▁tundus	-10.8447
▁eesmärgiks	-10.8451
▁Sõ	-10.8452
▁Kersna	-10.8455
▁Loodan	-10.8455
▁pressi	-10.8458
▁numbrid	-10.8458
▁arvad	-10.846
▁ressurssi	-10.8462
▁lapsega	-10.8468
▁vaidlusi	-10.8468
▁tühi	-10.8472
põ	-10.8479
▁haldusreform	-10.8483
▁omavalitsustega	-10.8484
▁halvene	-10.8489
tarbe	-10.8489
▁lähiaastatel	-10.8489
▁strateegilise	-10.8489
▁tunnustus	-10.8491
▁Arno	-10.8493
▁Ühelt	-10.8495
kesk	-10.8497
▁valitsemis	-10.8502
▁elamis	-10.8519
▁Assamblee	-10.8523
Helmut	-10.8523
Juhataja	-10.8523
ruusia	-10.8523
▁tonni	-10.8523
▁autode	-10.8528
▁kummaline	-10.8529
▁põhimõttelise	-10.8529
▁sõbrad	-10.8532
▁mehe	-10.8541
▁juhtumite	-10.8546
▁tähendaks	-10.8553
▁Eelkõige	-10.8557
▁Sisuliselt	-10.8557
▁Rannar	-10.8558
▁2007.	-10.8558
▁Tallinnast	-10.8561
▁millegi	-10.8562
▁liikmesriigid	-10.8565
▁valinud	-10.8565
▁moodustada	-10.8568
▁mõistetav	-10.8568
▁imelik	-10.8569
▁25%	-10.857
▁organi	-10.857
▁vähemus	-10.8571
▁riiklikult	-10.8572
▁avaldas	-10.8573
▁Kotkas	-10.8575
töid	-10.8575
▁tur	-10.8576
▁summat	-10.8576
▁mikrofoni	-10.8582
▁lähtuma	-10.8582
▁asuda	-10.8584
nuks	-10.8586
▁järjekorras	-10.8588
▁osutada	-10.8589
▁alaealiste	-10.8592
▁asespiiker	-10.8592
▁vanemahüvitise	-10.8592
▁südametunnistus	-10.8593
▁valdade	-10.8593
▁märkis	-10.8595
▁ühtemoodi	-10.8597
▁astunud	-10.8598
▁74	-10.8598
▁naabri	-10.8599
▁Meri	-10.86
▁välisministri	-10.8601
aia	-10.8604
▁Võru	-10.8609
▁piirikaubanduse	-10.861
▁lepingute	-10.861
▁tagamise	-10.8614
konsensus	-10.8616
▁Sellisel	-10.8616
▁hinnanguid	-10.8617
Komisjon	-10.8617
▁numbrit	-10.8618
▁kõrva	-10.8619
asjade	-10.8619
▁kinnistu	-10.8624
▁Tundub	-10.8627
▁adekvaatse	-10.8627
▁ütelda	-10.8627
▁aidanud	-10.8627
▁Nutt	-10.8627
▁suurepärane	-10.8629
▁tagamiseks	-10.8634
▁koosneb	-10.864
▁tulemust	-10.8644
kesi	-10.8644
▁pangad	-10.865
▁asuva	-10.8655
▁diskuteeri	-10.8661
▁kõnepuldis	-10.8661
▁motivatsiooni	-10.8661
töötamiskavatsus	-10.8661
ette	-10.8662
▁Kutsu	-10.8663
faasis	-10.8665
▁tookord	-10.8665
▁äär	-10.8666
▁kohustatud	-10.8668
1%	-10.8669
▁varianti	-10.8671
▁praktiliselt	-10.8679
▁73	-10.868
▁saadikut	-10.8684
▁õnnetus	-10.8688
rant	-10.8689
▁Partsi	-10.869
▁sotsiaaltöötaja	-10.8692
▁tegelenud	-10.8695
sigaret	-10.8696
▁Hispaania	-10.8696
▁Hiina	-10.8696
▁sätted	-10.8696
Siret	-10.8696
▁väärtuste	-10.8697
▁Kalvi	-10.8697
▁ainuüksi	-10.8697
▁tekitatud	-10.8701
▁teadlikult	-10.8704
▁keerulis	-10.8705
▁juhitud	-10.871
▁suurust	-10.871
▁teadmine	-10.8711
▁Jo	-10.8712
▁osalise	-10.8718
praktika	-10.8723
potentsiaal	-10.8724
▁otsustamise	-10.8727
▁tähista	-10.8731
▁Ühis	-10.8731
▁õppimis	-10.8732
▁rahaline	-10.8732
▁mujalt	-10.8733
▁õpetajaid	-10.8738
Ra	-10.8739
▁võimekuse	-10.874
▁töörühma	-10.8745
▁praktilise	-10.8749
▁häält	-10.875
▁600	-10.8751
tunnus	-10.8752
▁vähenemise	-10.8752
▁hüvitist	-10.8754
▁staatus	-10.8758
kandidaat	-10.8758
▁pettu	-10.8761
▁lõhe	-10.8764
▁Kantselei	-10.8766
▁pähe	-10.8766
▁kaaluka	-10.8768
ndamine	-10.8768
▁algul	-10.8769
▁huvigruppide	-10.8769
jõudu	-10.877
▁seost	-10.8773
▁osutaja	-10.8777
▁Millest	-10.8781
▁Herkeli	-10.8782
▁alustan	-10.8784
kanali	-10.8785
▁ametniku	-10.8786
▁asuvad	-10.879
▁krediidi	-10.8791
▁suuremaks	-10.8793
▁kehva	-10.8797
põhi	-10.8799
▁asume	-10.88
▁üliõpilas	-10.8801
▁üksikisiku	-10.8802
▁nimekiri	-10.8803
▁tegija	-10.8812
▁seisukohale	-10.8812
Ta	-10.8819
julgeolek	-10.882
▁näited	-10.882
▁sadu	-10.8821
▁töötamise	-10.8821
▁otsustatud	-10.8829
▁pakett	-10.8836
▁tegelnud	-10.8837
▁tööhõive	-10.8837
▁üleskutse	-10.8837
▁tegeldakse	-10.8837
Mina	-10.8838
▁leiti	-10.8838
▁kättesaadavad	-10.884
▁vastuvõtmiseks	-10.8841
▁võrdsed	-10.8841
▁Vaba	-10.8841
▁sihtasutus	-10.8842
kohta	-10.8843
▁soolise	-10.8843
▁ülevaadet	-10.8845
▁küsitakse	-10.8849
põhiselt	-10.8854
▁praeguseks	-10.8854
▁tulevik	-10.8863
Väga	-10.8865
▁põhimõtteid	-10.8867
▁võrdluse	-10.8872
▁kehtetuks	-10.8872
▁sarnane	-10.8872
▁nägema	-10.8872
▁kaitseväelaste	-10.8875
▁tasandi	-10.8875
▁tunneta	-10.8876
▁ühistu	-10.8877
vahend	-10.8878
▁parandamiseks	-10.8878
▁küsime	-10.8878
vahelise	-10.888
▁bürokraatiat	-10.8885
Liina	-10.8886
Annel	-10.8887
▁juhib	-10.8891
▁aitama	-10.8892
▁välistada	-10.8901
▁moodustavad	-10.8901
▁mets	-10.8902
kursus	-10.8905
▁liitlaste	-10.8907
transport	-10.8907
▁kohtutäituri	-10.8908
▁Marrandi	-10.8908
▁esialgse	-10.8908
▁negatiivne	-10.8908
▁teadaolevalt	-10.8908
▁Konkurentsiamet	-10.8908
▁Keele	-10.8908
▁solva	-10.8908
▁nagunii	-10.891
juhtumi	-10.891
▁rõhutanud	-10.8914
▁puhta	-10.8918
▁muutuks	-10.8919
▁kasvatamise	-10.8926
TA	-10.8927
▁analüüsinud	-10.8934
▁Sadama	-10.8937
ekspert	-10.8938
▁põllumehed	-10.894
▁imesta	-10.894
▁jms	-10.8944
▁sissejuhatuse	-10.8944
▁tõstetakse	-10.8944
▁kaitsma	-10.8944
Viru	-10.8944
▁kuku	-10.8946
▁põhimõttest	-10.8953
raamatukogu	-10.8956
▁Mo	-10.8958
▁kokkulepet	-10.8962
▁sisaldu	-10.8963
▁võrdle	-10.8964
▁kasvama	-10.8965
▁seo	-10.897
▁edukalt	-10.8971
▁Baltic	-10.8977
▁rahvasaadikud	-10.8977
▁Venemaaga	-10.8978
▁Kir	-10.8978
▁inflatsioon	-10.8979
▁Eelarve	-10.898
▁andes	-10.8982
▁paragrahv	-10.8983
▁vähenemine	-10.8985
▁tavapärase	-10.8988
▁30%	-10.8993
Rahanduskomisjon	-10.8994
▁hääletamist	-10.8994
▁halvema	-10.8997
positsiooni	-10.8998
"	-10.9001
▁finantseerimis	-10.9002
▁ilm	-10.9006
▁kohtunud	-10.9006
▁alga	-10.9009
▁nähtav	-10.9009
läbi	-10.9011
▁tõkestamise	-10.9013
kasvatus	-10.9013
▁madalam	-10.9013
nõuete	-10.9014
▁tunde	-10.9018
▁juhtimisel	-10.9025
▁tihe	-10.903
iguskomisjon	-10.9034
▁lõppes	-10.9043
▁ühtne	-10.9047
▁vahetult	-10.9049
Kuna	-10.9049
▁alkohol	-10.905
▁Metsoja	-10.9051
▁läbipaistva	-10.9051
▁retoorika	-10.9051
▁seksuaal	-10.9051
▁hoolitse	-10.9052
▁sissemakse	-10.9053
▁sugu	-10.9054
võtmist	-10.9056
▁konkurents	-10.9064
▁piirikaubandus	-10.9073
pärase	-10.9079
▁analüüse	-10.9081
▁kohalikku	-10.9083
Alustame	-10.9083
▁lõpetamise	-10.9084
▁Tegu	-10.9085
▁Mõlema	-10.9088
▁kombel	-10.9088
▁valdkondi	-10.9088
▁visa	-10.9089
▁nõrk	-10.9089
▁ühtlasi	-10.9091
▁keelusta	-10.9092
▁pidu	-10.9094
▁saavutanud	-10.9095
firmade	-10.9096
küsimuste	-10.9109
järeldus	-10.911
▁Aja	-10.9114
üksuse	-10.9114
▁panustama	-10.9115
▁planeerimis	-10.9117
▁argumente	-10.9119
järgse	-10.9119
▁Repsi	-10.9122
▁59	-10.9122
▁üheskoos	-10.9124
sõbralik	-10.9124
▁keha	-10.9125
▁saadetud	-10.9125
▁juur	-10.9128
▁looda	-10.9128
▁väitis	-10.9129
▁60%	-10.9131
▁Kagu	-10.9132
▁kodukorra	-10.9134
▁Valimiskomisjon	-10.9138
▁etapi	-10.9138
▁hindama	-10.9139
▁aktsiisitõusu	-10.9144
▁tulusid	-10.9148
▁võõra	-10.915
17	-10.9151
▁tehnika	-10.9153
▁töökohta	-10.9155
▁Uus	-10.9155
▁kvoodi	-10.9155
avalduse	-10.916
▁Vladimir	-10.9161
▁kindlustunne	-10.9161
▁Seletuskirjas	-10.9161
▁Milling	-10.9163
▁käitumist	-10.9163
▁tegite	-10.9163
▁vastutustundlik	-10.9165
▁tegelikkuses	-10.9168
▁korrakaitse	-10.9168
▁maksimaalselt	-10.9169
▁3%	-10.9171
astu	-10.918
jõud	-10.9181
▁asutused	-10.9184
▁põllu	-10.9184
▁selguse	-10.9185
graafik	-10.9193
▁mandaat	-10.9196
energeetika	-10.9197
▁kantsler	-10.9197
▁kommerts	-10.9197
▁öelge	-10.9197
mõju	-10.9197
▁haaku	-10.9197
▁nähtus	-10.9198
komitee	-10.9199
▁koolituse	-10.9203
▁kestnud	-10.9206
materjal	-10.9216
▁mõtlesin	-10.9216
▁Üht	-10.9226
▁ostma	-10.9227
▁valmistatud	-10.9229
▁mõõde	-10.9234
▁eksport	-10.9234
▁asjaomase	-10.9234
▁vestlus	-10.9235
kohtunik	-10.9235
▁kulutuste	-10.9239
▁saatnud	-10.9239
▁haru	-10.924
▁algas	-10.924
programm	-10.9242
sõja	-10.9242
inspektsiooni	-10.9243
▁Asume	-10.9244
▁väitnud	-10.9245
palju	-10.9248
▁mäletate	-10.9249
▁grupi	-10.9251
▁sisaldab	-10.9252
▁Rait	-10.9253
▁detailse	-10.926
olev	-10.9265
▁korter	-10.9267
▁põllumeestele	-10.9269
▁küber	-10.9271
▁väiksemate	-10.9274
Virumaale	-10.9278
▁Kersti	-10.9278
▁tavalise	-10.928
▁ainete	-10.9282
▁tagajärjel	-10.9282
▁allapoole	-10.9283
▁Ütleme	-10.9284
▁sooja	-10.9294
▁elame	-10.9294
kaubanduse	-10.9296
aasi	-10.9302
▁seletuskirjast	-10.9305
▁jagune	-10.9307
▁Velman	-10.9308
▁hilja	-10.9308
▁paikne	-10.9308
inimese	-10.9308
▁korja	-10.9308
mitri	-10.9309
▁tootlikkus	-10.9309
spordi	-10.9313
▁fikseeritud	-10.9319
▁Saksamaal	-10.9319
▁paljuski	-10.9321
▁tunnustada	-10.9328
▁niipalju	-10.9328
ettevõte	-10.9333
▁varja	-10.9334
jon	-10.9336
▁peretoetuste	-10.9338
▁osaleb	-10.934
▁õnnestub	-10.9345
▁teenib	-10.935
▁vorm	-10.9351
▁suurim	-10.9352
▁kardan	-10.9364
valdkond	-10.9365
▁õigusriigi	-10.9369
Esimene	-10.9381
▁naisi	-10.9381
30	-10.9382
▁õiglus	-10.9382
▁tudeng	-10.9382
▁võrdne	-10.9383
▁elanikud	-10.9385
▁määrab	-10.9386
▁Esita	-10.9387
▁40%	-10.9392
▁täitmist	-10.9396
arendus	-10.9398
sead	-10.94
▁tundma	-10.9403
▁seire	-10.9406
▁viimast	-10.9406
▁kolmandiku	-10.9408
▁määratakse	-10.9415
▁doktor	-10.942
▁realiseeru	-10.942
▁suudetud	-10.942
rahu	-10.9421
kodanik	-10.9422
▁ametiühingu	-10.9422
▁täitsa	-10.9422
mbri	-10.9424
▁taotleja	-10.9425
▁mõttetu	-10.9428
▁rääki	-10.9429
▁mahuka	-10.943
▁olemasolevate	-10.943
▁toimuda	-10.9431
▁komponent	-10.9433
▁rühma	-10.9434
▁sekkuda	-10.944
▁kommenteerite	-10.9442
▁Lisa	-10.9444
liikmed	-10.9445
▁fikseeri	-10.9446
▁kollektiivse	-10.9448
▁maksumaksjate	-10.9452
▁turvalise	-10.9454
▁statistili	-10.9457
▁Pere	-10.9458
▁lasteaiaõpetaja	-10.9459
Imre	-10.9459
▁maksnud	-10.9461
▁konflikt	-10.9461
▁nägu	-10.9465
teenused	-10.9465
▁digitaalse	-10.9467
võrgustik	-10.9468
▁tuhandeid	-10.9471
▁tõusevad	-10.9473
▁kasutaja	-10.9474
▁1,5	-10.9481
▁standardi	-10.9482
▁nimetasin	-10.9484
▁muudatusega	-10.9487
▁hädas	-10.949
Raivo	-10.9495
▁asekantsler	-10.9495
▁värvi	-10.9495
▁rohelise	-10.9495
▁Loodame	-10.9495
▁juhtumit	-10.9496
▁puidu	-10.9496
▁tulevase	-10.9496
▁tegutsema	-10.9501
▁Ansipi	-10.9503
▁lubadusi	-10.9505
Ettepaneku	-10.9509
▁teatas	-10.9512
prokurör	-10.9514
▁isikutele	-10.9515
ettevalmistamise	-10.9517
▁leevendada	-10.952
▁nüüdseks	-10.9533
▁Marianne	-10.9533
▁ebamõistlik	-10.9533
Oudekki	-10.9533
▁kustuta	-10.9533
Olen	-10.9536
▁maaeluminister	-10.9536
▁mujale	-10.9538
▁kompenseerida	-10.9539
soovi	-10.9547
▁tõstatatud	-10.9551
▁niisuguseid	-10.9554
▁investeering	-10.9556
▁kategooria	-10.9559
▁vältimise	-10.9563
▁joogi	-10.9564
▁tooda	-10.9565
▁arvamused	-10.9566
kurjategija	-10.9571
▁absurd	-10.9571
▁siduda	-10.9571
klubi	-10.9572
Järgmise	-10.9572
▁tehke	-10.9573
uju	-10.9576
▁eksperdi	-10.9581
▁kuuenda	-10.9582
keskkonda	-10.9585
▁reede	-10.9588
▁määranud	-10.9589
▁arvame	-10.9594
▁õiguskomisjonis	-10.9596
▁Sesteri	-10.9599
▁märkuse	-10.9601
▁läksid	-10.9601
▁laekumise	-10.9603
▁konsensuslikud	-10.9604
▁keskkonda	-10.9608
autonoomia	-10.9609
▁Sihtasutus	-10.9609
▁läbipaistvus	-10.9609
▁ähvarda	-10.9609
▁kilo	-10.9609
▁võtsime	-10.9609
▁häälteenamust	-10.961
Toomas	-10.961
pakk	-10.9611
▁käega	-10.9611
▁kaitseväelase	-10.9617
struktuur	-10.9623
▁infotehnoloogia	-10.9624
▁püüa	-10.9625
partnerlus	-10.9629
▁paremaid	-10.9631
▁pikendamine	-10.9637
▁börsi	-10.9648
▁lüüa	-10.9648
perioodil	-10.9648
▁taustal	-10.9648
baasi	-10.9648
▁võtke	-10.9648
▁külge	-10.9648
▁laekuva	-10.965
▁igasuguste	-10.965
▁õli	-10.9659
▁arutasite	-10.9664
▁asemele	-10.9666
▁hõlmab	-10.9672
▁selgust	-10.9678
▁sõnadega	-10.9681
▁telefoni	-10.9686
▁ühistransport	-10.9687
▁otsast	-10.9687
▁Elering	-10.9687
kasutuse	-10.9688
▁Konkreetse	-10.9688
ränne	-10.969
▁suhtumist	-10.9691
▁ajakirjanik	-10.9693
istung	-10.9694
co	-10.9694
▁Ba	-10.9696
▁millestki	-10.9697
▁miinuses	-10.97
▁nimetas	-10.9701
mõistmis	-10.9704
▁tulemuste	-10.9705
edPoolt	-10.9707
Üks	-10.9709
▁propaganda	-10.971
▁82	-10.9712
▁seepärast	-10.9713
muuseum	-10.9714
▁äärmus	-10.9715
▁tuletada	-10.9722
▁hoidma	-10.9724
▁ebavõrdsus	-10.9725
▁menetlemist	-10.9731
▁maksutulu	-10.9732
▁funktsioonid	-10.9733
▁põhiseaduslikku	-10.9739
▁võlakoormus	-10.9747
juhend	-10.9748
▁musta	-10.9753
partner	-10.9757
▁vande	-10.9765
raamistik	-10.9765
▁kandma	-10.9769
kvalifikatsiooni	-10.9774
▁sihtasutuse	-10.9778
▁tulevaste	-10.978
▁seletus	-10.978
▁täide	-10.9786
▁piirilepingu	-10.9786
▁täpsustuse	-10.9794
laev	-10.9795
aru	-10.9798
vaheline	-10.9801
▁vanu	-10.9801
▁lahingu	-10.9802
▁nägemus	-10.9802
▁kokkuvõttes	-10.9802
▁Sinna	-10.9802
märkimisväärselt	-10.9803
▁oleksite	-10.9803
kli	-10.9804
▁teoreetiliselt	-10.9806
ülesanne	-10.9807
olukorda	-10.981
,4%	-10.9813
▁olge	-10.9816
metsa	-10.9817
▁posti	-10.9817
▁taastu	-10.9817
▁ehkki	-10.982
▁fiskaal	-10.982
▁seadnud	-10.9822
▁Järgmisena	-10.9822
▁levinud	-10.9822
stumise	-10.9829
▁aspektist	-10.9831
▁tegin	-10.9834
konventsioon	-10.9837
▁hoidmise	-10.9838
kaaslase	-10.984
▁treeneri	-10.9841
▁ebavõrdse	-10.9841
▁kodanikuühiskon	-10.9848
▁700	-10.9848
▁looduse	-10.9851
▁lõpetati	-10.9851
▁rahastada	-10.9854
iminister	-10.9858
▁lihtsama	-10.986
▁kõlama	-10.9861
▁sõnul	-10.9862
▁patsientide	-10.9865
▁kasutatava	-10.9866
▁projektide	-10.9873
▁kunsti	-10.9881
▁versioon	-10.9881
▁väljastpoolt	-10.9881
▁Par	-10.9881
▁eurotsooni	-10.9883
Kindlasti	-10.9885
▁reservide	-10.9889
▁vähenevad	-10.9889
▁tunnen	-10.9895
▁sisulisi	-10.9898
▁põhiseadusliku	-10.99
▁kaldu	-10.9904
▁ettepanekutega	-10.9905
▁analoog	-10.991
▁tõu	-10.991
aani	-10.991
▁piisab	-10.9912
▁soodsa	-10.9912
▁Holsmer	-10.992
Jätkame	-10.992
▁töövõimereformi	-10.9921
▁Koos	-10.9922
▁muudatustega	-10.9924
lepingute	-10.9925
▁101	-10.9931
▁taastamise	-10.9934
▁matemaatika	-10.9935
Kolm	-10.9939
▁pikemat	-10.9939
▁Soovin	-10.994
▁arvestatav	-10.9941
▁naabrite	-10.9947
▁vastasite	-10.9948
▁tootjate	-10.9954
▁kokkuhoid	-10.9955
▁muusika	-10.996
▁harjunud	-10.996
▁välismaalaste	-10.996
▁Ainult	-10.9961
▁kivi	-10.9963
Märt	-10.9965
lisus	-10.997
▁120	-10.9971
▁korraliku	-10.9973
▁ühiskondlik	-10.9977
vastane	-10.9981
▁Kr	-10.9984
▁talve	-10.9984
▁kandidaatide	-10.9984
▁eestlased	-10.9985
lehekülje	-10.9985
▁kuulanud	-10.9985
sõit	-10.9989
▁naer	-10.9995
▁sundi	-10.9998
▁Ühesõnaga	-10.9999
register	-10.9999
▁lääne	-10.9999
▁vahendusel	-10.9999
▁õhku	-10.9999
▁Vähemalt	-11
▁liikunud	-11.0001
▁veebi	-11.0003
kogemus	-11.0005
▁tublid	-11.0005
tingimused	-11.0005
Priit	-11.0005
▁näo	-11.0008
▁surnu	-11.0009
▁õnne	-11.0011
▁esitasime	-11.0013
▁teadnud	-11.0016
▁elavda	-11.0016
▁võitluse	-11.002
▁tarbimist	-11.0021
▁õpilased	-11.0029
ametnike	-11.0029
▁tavaline	-11.0032
minutili	-11.0032
▁kriitiline	-11.0039
▁läbiviimise	-11.0039
▁poliitilisi	-11.0046
▁otseses	-11.0047
▁suunda	-11.0048
▁palume	-11.005
▁reageerida	-11.0051
▁kaunis	-11.0057
▁kujundada	-11.0057
▁kirjaliku	-11.0059
▁suhtumise	-11.0062
▁2019	-11.0066
▁15%	-11.0067
tunnet	-11.0069
▁proportsiooni	-11.0075
▁Brüsselis	-11.0079
▁Haigekassa	-11.0079
▁Sooäär	-11.0079
▁VEB	-11.0079
▁tõlgendus	-11.0079
▁elamisloa	-11.0079
▁lehe	-11.0079
▁andke	-11.0079
▁Airi	-11.008
park	-11.008
▁tullakse	-11.0081
▁väitsite	-11.0081
▁käsk	-11.0083
partnerite	-11.0086
▁viisaka	-11.0087
▁mõjude	-11.0088
▁väljamakse	-11.0092
▁moodustamise	-11.0094
luure	-11.0097
▁kuulates	-11.0097
▁Teate	-11.0105
▁vanaduspension	-11.0106
▁eaka	-11.0106
▁mõistan	-11.0107
lisse	-11.0108
▁kasutata	-11.0111
▁kallimaks	-11.0112
▁kontrollima	-11.0118
▁riigihangete	-11.0119
▁seadusloome	-11.0119
▁andeks	-11.0119
▁tekkima	-11.012
▁niisugused	-11.012
▁valmisoleku	-11.012
Aafrika	-11.0126
▁investori	-11.0134
▁kuuluda	-11.0135
kohustuse	-11.0139
▁riigiasutuste	-11.014
▁ühekordse	-11.0141
olukorras	-11.0142
▁nägime	-11.0142
▁hinnatõusu	-11.0144
▁rahvasaadiku	-11.0146
▁suulise	-11.0148
▁vahetada	-11.0149
▁peredele	-11.0149
▁positiivselt	-11.0151
▁vahenditest	-11.0151
▁kõla	-11.0163
valdkonda	-11.0163
Jürgen	-11.0167
▁lahenduste	-11.0168
19	-11.017
▁õpilase	-11.0177
müügi	-11.0179
Jaa	-11.018
▁sisene	-11.018
▁liht	-11.0182
▁rendi	-11.0183
▁Loone	-11.0187
▁mehhanismi	-11.0188
▁kodanikele	-11.0189
kraadi	-11.0192
võimalusi	-11.0198
võrdõiguslikkuse	-11.02
▁ehitis	-11.02
▁keeruka	-11.02
▁oodatud	-11.02
▁viha	-11.02
▁olemuselt	-11.0202
▁konservatiivse	-11.0203
▁Aasia	-11.0204
▁üldosa	-11.0207
▁lisatud	-11.0219
▁projekte	-11.0221
▁algatanud	-11.0222
pidav	-11.0227
▁kogemused	-11.023
▁taset	-11.023
▁laena	-11.0233
▁loodi	-11.0236
▁Usun	-11.0241
▁laastus	-11.0241
▁langenud	-11.0241
▁Keskus	-11.0242
▁lasteaedade	-11.0242
▁teadmisi	-11.0245
korraldaja	-11.0246
▁veni	-11.0248
▁valitsussektori	-11.0248
▁õnn	-11.0248
▁segadust	-11.0248
▁maailm	-11.0249
▁otsustasime	-11.0256
plaan	-11.026
▁ootamatu	-11.0264
▁sõjalis	-11.0268
▁käituma	-11.0269
▁traditsiooni	-11.0271
▁kaasnevad	-11.0276
▁alustel	-11.0278
efektiivsus	-11.0279
▁sisalda	-11.0281
▁lasteaed	-11.0281
▁diislikütuse	-11.0281
▁hädavajalik	-11.0281
▁operatiiv	-11.0281
▁väe	-11.0285
▁võimaldada	-11.0289
12	-11.029
Viktor	-11.0291
▁miljon	-11.0292
▁Rõivasele	-11.0292
▁töövõimetus	-11.0293
▁lisakulu	-11.0295
nõunik	-11.0297
valla	-11.0301
Ju	-11.0301
▁toimima	-11.0302
▁proportsionaals	-11.0302
▁eesmärgiga	-11.0304
▁õpetada	-11.0308
▁85	-11.0309
eeskirja	-11.0317
▁lahendi	-11.0318
▁aju	-11.0319
▁pikaajaline	-11.0322
oktoober	-11.0322
▁Iraagi	-11.0322
▁tehniline	-11.0322
▁usaldusväärsus	-11.0322
▁protesti	-11.0323
▁valva	-11.0324
▁psühholoogi	-11.0324
▁direktori	-11.0325
▁tri	-11.0326
▁määrusega	-11.0337
▁arvestuse	-11.0338
ndate	-11.0345
▁isiklikku	-11.0346
▁saatis	-11.0346
▁dokumendid	-11.0347
▁vastaja	-11.0348
▁edukas	-11.0351
projekt	-11.0355
▁annate	-11.0361
▁korrata	-11.0362
▁minimaalse	-11.0364
▁suurusjärk	-11.0364
▁üllata	-11.0364
▁Riigieelarve	-11.0365
▁lühenda	-11.0366
▁eriarvamus	-11.0366
▁ettevaatlik	-11.0367
▁Peaminister	-11.0368
▁uurimiskomisjon	-11.0369
▁ükskord	-11.037
▁poliit	-11.0372
▁dokumente	-11.0372
▁nõustamis	-11.0373
▁fookus	-11.0376
▁kilomeetri	-11.0377
▁tunneb	-11.0379
▁erilist	-11.038
▁parvlaeva	-11.0382
lähedase	-11.0384
▁komp	-11.0387
▁termini	-11.0389
nneks	-11.0392
▁eelmist	-11.0404
▁Hiiumaa	-11.0405
▁definitsioon	-11.0405
▁üldharidus	-11.0405
▁topelt	-11.0406
▁kattu	-11.0407
▁kõneleja	-11.0408
▁paketi	-11.0409
▁panevad	-11.0411
küla	-11.0414
▁kirg	-11.0414
energia	-11.0415
▁Ütle	-11.0418
▁periood	-11.0421
▁toimiva	-11.0422
Pa	-11.0423
▁peaksin	-11.0425
pedagoog	-11.0428
▁tervislik	-11.0431
ndamist	-11.0434
▁sobib	-11.0434
aktsiis	-11.0435
osakond	-11.0436
▁esineda	-11.0439
▁kaasneb	-11.044
▁püsiva	-11.0442
▁69	-11.0442
▁pakuvad	-11.0443
▁dubleeri	-11.0446
▁juriidiline	-11.0446
▁topeltkodakonds	-11.0446
mitrijev	-11.0446
▁spetsialiste	-11.0448
▁Täht	-11.0449
▁oskab	-11.045
▁lähenemise	-11.0451
▁80%	-11.0452
▁Muide	-11.046
ca	-11.0463
▁Harjumaa	-11.0466
▁toovad	-11.0468
▁tegutseva	-11.0473
▁Teema	-11.0476
▁sätteid	-11.0479
▁kaotanud	-11.0479
petaja	-11.0481
info	-11.0481
▁täpsustatakse	-11.0483
koosolek	-11.0487
▁kõrvu	-11.0488
▁Viimaste	-11.0488
▁Raidma	-11.0488
▁Teeme	-11.0491
▁üksinda	-11.0492
▁täies	-11.0493
vahemik	-11.0498
Täna	-11.0504
▁Avalik	-11.0505
kiirus	-11.0507
investor	-11.0514
▁kõnealu	-11.0515
▁kommentaar	-11.0516
▁seejuures	-11.0516
▁äriühingute	-11.0519
▁pangandus	-11.0521
▁menetleme	-11.0526
▁garantiid	-11.0527
▁enamikus	-11.0528
▁jagatakse	-11.0528
▁Pakosta	-11.053
▁õppinud	-11.053
▁viide	-11.053
▁Edasi	-11.053
▁kaitsmise	-11.053
järjekorrad	-11.053
▁omaosalus	-11.0531
▁vajuta	-11.0531
▁viite	-11.0534
klassi	-11.0535
▁nägin	-11.0553
▁Lõpuks	-11.0556
▁vabatahtlike	-11.0556
▁universaalse	-11.0558
▁otsustavad	-11.0561
▁prioriteetide	-11.0568
▁Kümme	-11.0572
▁tuhat	-11.0572
▁Juhul	-11.0572
▁India	-11.0572
▁Lõpp	-11.0581
▁hakkasid	-11.0582
▁mõningaid	-11.0582
▁kavatsete	-11.0585
▁ohusta	-11.0586
▁rahvuslik	-11.059
▁juhus	-11.0595
▁paista	-11.0596
andmete	-11.0597
iimi	-11.0597
▁liigi	-11.0601
▁alused	-11.0607
▁kasutame	-11.0607
▁edastanud	-11.061
kommunikatsiooni	-11.061
tootmine	-11.0611
200	-11.0613
▁Vitsut	-11.0614
▁nafta	-11.0614
▁suhkru	-11.0614
▁suhtlus	-11.0614
▁järjekordselt	-11.0614
▁Rahvusvahelise	-11.0615
▁800	-11.0615
▁kontseptsiooni	-11.0617
▁Lä	-11.0618
▁liberaal	-11.0618
▁põhjalikumalt	-11.062
▁töötatud	-11.0625
▁tempos	-11.0626
▁ideid	-11.0626
juhataja	-11.0628
▁käsu	-11.0632
▁elatis	-11.0634
▁kättesaadavust	-11.0635
tähelepanelikult	-11.0637
▁valitsusliikme	-11.0638
varu	-11.0638
▁võidelda	-11.064
▁käsitlenud	-11.0644
volinik	-11.0644
▁haldusala	-11.0646
maht	-11.0649
har	-11.0651
kaubandus	-11.0652
▁ametikoht	-11.0656
▁annetus	-11.0657
▁Tõnisson	-11.0657
▁kasvas	-11.0658
▁potentsiaali	-11.0658
▁keeleoskus	-11.0658
▁summade	-11.0659
▁volitatud	-11.066
▁võõr	-11.0661
▁sanktsioonide	-11.0664
▁täpset	-11.0667
toimingute	-11.0673
▁eilse	-11.0676
▁esmaspäeva	-11.0676
▁kohtusüsteemi	-11.0677
▁põhjuseks	-11.0681
▁Tolliamet	-11.0682
▁jõuka	-11.0684
▁vajalikke	-11.0685
▁koostada	-11.0687
▁käibe	-11.069
▁arutab	-11.069
vaate	-11.0694
valimiskampaania	-11.0695
sekretär	-11.0699
▁bensiini	-11.0699
▁häbene	-11.0699
▁tarvita	-11.0699
▁jäetakse	-11.0699
▁lipp	-11.07
▁omanike	-11.0702
▁teadlaste	-11.0706
▁Kunagi	-11.0707
▁reserve	-11.0708
▁konverentsi	-11.0716
mäng	-11.0718
▁erakonnakaaslas	-11.0718
▁hoiak	-11.0721
▁autor	-11.0723
kaitseminister	-11.0723
algatus	-11.0724
vorm	-11.0726
▁kirjutama	-11.0727
▁rõõm	-11.0728
▁tohutult	-11.073
▁kandis	-11.0732
ühiku	-11.0735
▁tõstatas	-11.0741
▁praktiline	-11.0742
tulundusühingu	-11.0742
▁lähenemist	-11.0742
▁mitmete	-11.0745
staabi	-11.0746
▁aktsiisimäära	-11.0748
▁toetamine	-11.075
▁põhineb	-11.0751
▁4%	-11.0751
▁õpiku	-11.0752
Siin	-11.0757
seire	-11.0762
tõrje	-11.0768
▁kõva	-11.0768
▁jagamise	-11.077
haru	-11.0771
▁moodustatud	-11.0771
▁jätame	-11.0776
▁rõõmusta	-11.0783
▁väärtpaberi	-11.0785
▁nõrgema	-11.0785
▁hümni	-11.0785
▁vastuvõetav	-11.0785
▁filmi	-11.0785
▁maakondades	-11.0787
▁avaldatud	-11.0787
▁teehoiu	-11.0788
▁esitame	-11.0791
▁Kred	-11.0791
▁linnaosa	-11.0792
Pea	-11.0811
▁VII	-11.0813
▁rakendatakse	-11.0816
▁juriidiliselt	-11.0824
▁iseloomusta	-11.0828
▁kuritarvita	-11.0828
▁Ühtlasi	-11.0828
▁tervishoid	-11.0829
▁mõistlikuks	-11.0832
▁sisejulgeoleku	-11.0835
▁avaldust	-11.0839
hin	-11.084
▁sõlmimise	-11.0842
▁Toomi	-11.0845
rände	-11.0846
▁liitumis	-11.085
▁sõda	-11.0857
▁kaotab	-11.0868
▁sügavalt	-11.0869
▁pankroti	-11.0871
▁pensionitõus	-11.0871
▁Maailma	-11.0871
▁maksimum	-11.0871
▁vigade	-11.0872
ohutus	-11.0877
▁vabaduse	-11.0879
▁Olge	-11.088
▁majandustegevus	-11.088
▁niisuguste	-11.0883
eerima	-11.0886
▁rajada	-11.0888
▁väärteo	-11.0888
suhete	-11.0889
▁haridusminister	-11.089
▁puht	-11.0891
▁asendada	-11.0892
▁kiiruse	-11.0895
▁väärib	-11.0898
eesmärk	-11.09
fa	-11.09
inants	-11.0903
▁lennuki	-11.0905
▁muudeti	-11.0909
struktuuri	-11.0909
▁vaidlused	-11.091
▁eraldatakse	-11.091
J	-11.091
keskused	-11.0911
▁Seejärel	-11.0914
▁teretulnud	-11.0914
▁põlvkond	-11.0915
▁Niisiis	-11.0915
teenistuja	-11.0915
▁Jõu	-11.0915
▁valmisolek	-11.0917
▁seitsmenda	-11.0919
▁Pole	-11.0924
press	-11.0924
▁üleminekutoetus	-11.0929
▁Majandamis	-11.0932
▁otsene	-11.0936
▁hoiab	-11.0937
▁Koda	-11.0939
▁situatsioon	-11.0946
▁tervita	-11.095
▁võiksite	-11.095
▁linnu	-11.095
▁tõenäosus	-11.0954
▁peretoetus	-11.0957
▁jõulu	-11.0957
▁Küpros	-11.0958
▁ebaõnnestu	-11.0958
▁globaalse	-11.0958
Hetkel	-11.0958
▁pakkuja	-11.0958
▁odava	-11.0961
▁kolmandate	-11.0966
▁kiirelt	-11.0968
▁valima	-11.0972
▁aktsiiside	-11.0986
▁sündimus	-11.0988
▁valitsusliikmed	-11.0989
▁Har	-11.0992
▁tähtsus	-11.0998
▁lõpe	-11.0999
▁nulli	-11.1001
▁karjääri	-11.1002
▁maapiirkondades	-11.1002
▁selgunud	-11.1002
▁ümar	-11.1002
▁asjatundja	-11.1002
▁Päästeameti	-11.1002
▁Väike	-11.1002
▁kiirlaenu	-11.1002
▁järeldusi	-11.1003
▁Käesoleva	-11.1003
▁keskvalitsuse	-11.1004
▁käibemaks	-11.1004
▁toimuks	-11.1007
▁valikute	-11.1014
▁kutsekooli	-11.1016
▁teenivad	-11.1017
Marika	-11.1021
▁2011	-11.1023
▁perearst	-11.1025
▁mõjutavad	-11.1029
▁selja	-11.1034
nõuded	-11.1036
▁täitu	-11.1039
aalsus	-11.1043
▁terrori	-11.1046
▁kobareelnõu	-11.1046
▁eetika	-11.1046
▁ütlus	-11.1046
adupärast	-11.1047
▁tähtsust	-11.1048
mängu	-11.105
▁kaugemas	-11.1051
territoriaalse	-11.1055
▁konstruktiivse	-11.1055
▁peresid	-11.1056
▁täitevvõimu	-11.1058
▁prioriteedid	-11.106
▁keelata	-11.1065
▁sõidab	-11.1065
▁Maanteeameti	-11.1068
▁vastatud	-11.1068
▁lähtume	-11.1069
müü	-11.108
▁kannatanu	-11.1082
▁hukka	-11.1088
▁põgusalt	-11.109
▁mobiil	-11.109
eerimist	-11.1092
▁motiiv	-11.1093
▁maksmine	-11.1094
▁reaal	-11.1104
▁kutseharidus	-11.1106
▁enamuse	-11.1106
▁ravikindlustus	-11.1111
▁väit	-11.1113
▁laekus	-11.1118
jaanuaril	-11.1127
▁palgata	-11.113
ktor	-11.1132
▁PPA	-11.1135
▁vajaduspõhist	-11.1135
▁süvenda	-11.1135
▁ligikaudu	-11.1135
▁Kodu	-11.1135
aegne	-11.1135
▁igaühel	-11.1137
▁tähenduses	-11.1142
▁rõõmsa	-11.1144
▁korrektselt	-11.115
▁kaupade	-11.1152
üür	-11.1162
▁Ministeeriumi	-11.1164
▁rumala	-11.1167
▁järeldusele	-11.1173
▁rakendatud	-11.1173
audiitor	-11.1179
▁Organisatsiooni	-11.1179
▁rahutagamis	-11.1179
▁pingutus	-11.1179
antsinspektsioon	-11.118
toote	-11.1181
▁alammäär	-11.1182
▁Tahaks	-11.1185
▁etapp	-11.1186
▁koolivõrgu	-11.1187
▁selgituse	-11.1191
▁lähtunud	-11.1191
▁tõdeda	-11.1192
▁dis	-11.1193
▁84	-11.1194
▁töövõtja	-11.1198
▁segase	-11.1202
▁tarbimis	-11.1204
▁pii	-11.1208
▁euroraha	-11.1209
▁võimalikuks	-11.1217
▁naise	-11.1218
▁paraneb	-11.1218
▁viina	-11.1224
▁Läänemere	-11.1224
▁ajendatud	-11.1224
▁tõsiasi	-11.1226
▁viitab	-11.1228
▁kaasamise	-11.1229
▁seadusandliku	-11.1235
▁tööturule	-11.1236
▁hääletame	-11.1237
▁leheküljel	-11.124
▁kuuluvate	-11.1241
analüüs	-11.1242
▁ohutu	-11.1246
▁esitasin	-11.1248
▁saarte	-11.1253
▁ehitama	-11.1254
prognoos	-11.1267
▁Peep	-11.1269
▁Randver	-11.1269
▁ilmtingimata	-11.1269
▁kiusa	-11.1269
▁muuseas	-11.1269
▁ülejäägi	-11.1269
▁raadio	-11.1269
▁loosung	-11.127
▁uurinud	-11.127
▁Amet	-11.127
▁neto	-11.1271
Meil	-11.1279
▁vett	-11.1287
▁loomist	-11.1288
▁protseduurilis	-11.1289
▁edendamise	-11.1296
Üh	-11.1298
▁märkida	-11.1299
▁ülevõtmise	-11.1301
▁Kehtiva	-11.1302
▁Kohaliku	-11.1304
▁nais	-11.1304
▁ligipääs	-11.1306
▁üleminek	-11.131
▁nimetanud	-11.1311
▁Koalitsioon	-11.1315
▁elanikku	-11.1315
▁tütar	-11.1315
▁Ministri	-11.1315
Neljas	-11.1315
▁pealkiri	-11.1316
▁venita	-11.1321
▁jagatud	-11.1322
Seda	-11.1339
▁juhitava	-11.1339
▁sätestatakse	-11.1341
▁ülemäära	-11.1344
▁palub	-11.1349
▁lisandub	-11.1349
▁viime	-11.1352
▁neis	-11.1359
▁saaksite	-11.136
▁Laurson	-11.136
▁Punkt	-11.136
▁kärpe	-11.1362
tüki	-11.1362
▁piltlikult	-11.1364
▁paindlikumaks	-11.1366
▁jõudsime	-11.1373
▁Esma	-11.1373
▁lõplikult	-11.1375
▁Võin	-11.1383
▁selgemaks	-11.1384
numbri	-11.1385
▁rahaliselt	-11.1386
▁tugevdada	-11.1395
▁sanktsioonid	-11.1405
▁konsulteeri	-11.1406
▁Vahepeal	-11.1406
▁puhke	-11.1406
▁lastevanemate	-11.1406
▁Neljandaks	-11.1406
▁lehekülge	-11.1406
▁sporti	-11.1407
▁pileti	-11.1407
▁Erineva	-11.1407
▁tegutsemis	-11.1407
▁nõudlus	-11.1409
▁83	-11.1411
keelse	-11.1411
▁erandeid	-11.1413
▁istub	-11.1414
▁munitsipaal	-11.1416
▁lihtsamaks	-11.1417
Artur	-11.143
▁maksuvabastus	-11.1433
tsooni	-11.1433
▁õigusakti	-11.1434
▁käisid	-11.1437
▁elektrituru	-11.1441
▁Alusta	-11.1442
taotlus	-11.1447
tsükli	-11.1452
▁Haapsalu	-11.1452
▁Ivanova	-11.1452
▁püütud	-11.1452
▁sild	-11.1455
▁suhelda	-11.1455
11	-11.1456
lehtede	-11.1457
▁keeleõppe	-11.1458
▁asukoha	-11.1458
Juhatus	-11.1458
14	-11.1458
▁toel	-11.1464
▁kiitnud	-11.147
raamatu	-11.1476
▁kõrg	-11.1482
▁uurimise	-11.1482
▁eeskujuks	-11.1483
radi	-11.149
konservatiiv	-11.1494
▁käisin	-11.1496
▁järjepidevus	-11.1497
▁tõrju	-11.1498
sisese	-11.1498
▁naaberriikide	-11.1498
▁Piiri	-11.1498
▁järjepidev	-11.1498
▁kavatsus	-11.15
▁koondamis	-11.1503
tevalmistamisel	-11.1505
▁Musta	-11.1509
pood	-11.1509
▁elamu	-11.1514
▁Elu	-11.1517
▁süda	-11.1518
inimeste	-11.1523
▁silmis	-11.1526
omandi	-11.1536
▁Michali	-11.1536
▁analoogse	-11.1539
palk	-11.1541
▁soosi	-11.1542
▁muinsuskaitse	-11.1544
komponendi	-11.1544
▁olenemata	-11.1545
iteedi	-11.1547
▁riiklikku	-11.1547
▁maksusoodustus	-11.1547
lõik	-11.1549
▁Asja	-11.155
▁kallim	-11.155
▁suurenevad	-11.1551
▁suudaksime	-11.1553
▁tekitavad	-11.1559
▁Ants	-11.1568
põhimõte	-11.157
näitaja	-11.157
sõnu	-11.1571
andmeid	-11.1572
▁asjaolusid	-11.1575
laua	-11.1579
▁maksupettus	-11.1583
parlamendiliikme	-11.1589
rohke	-11.159
konsul	-11.159
▁õigusselgus	-11.159
▁meeskonna	-11.1593
▁Remo	-11.1594
▁mõistlikult	-11.1599
tähtaeg	-11.16
▁81	-11.1601
▁suunis	-11.1605
Majanduskomisjon	-11.1608
▁alkoholiaktsiis	-11.1611
töötuskindlustus	-11.1614
▁suhtelise	-11.162
▁kooseluseadus	-11.1621
▁selgitama	-11.1627
▁absoluut	-11.1628
▁jõustunud	-11.1635
▁Olles	-11.1637
▁Julge	-11.1637
▁kogenud	-11.1637
marginaal	-11.1637
▁tasand	-11.1638
▁Riigimetsa	-11.1638
▁moment	-11.1639
▁isikuandmete	-11.1639
▁uskuda	-11.1639
▁Seesama	-11.164
▁organiseeri	-11.1641
▁taotlemise	-11.1644
poliitilist	-11.1648
▁abivahendite	-11.1648
▁väärtusta	-11.1651
vahendid	-11.1653
▁suurepäraselt	-11.1656
▁pedagoogi	-11.1658
▁naine	-11.1659
▁sedavõrd	-11.166
▁aspekte	-11.1663
▁laenude	-11.1666
tasandi	-11.1668
ink	-11.1675
▁otsese	-11.1679
▁peeta	-11.1684
professiona	-11.1684
▁Kordan	-11.1684
▁alaealise	-11.1684
▁vaidluse	-11.1688
▁välispoliitilis	-11.1689
▁suunatakse	-11.1692
▁teoks	-11.1693
▁sõidavad	-11.1697
▁eripära	-11.1703
jätmise	-11.1713
▁maksustamis	-11.172
▁Hä	-11.1723
saaja	-11.1729
▁Vaadates	-11.1731
▁väidab	-11.1731
▁lahja	-11.1731
haldur	-11.1732
▁sammas	-11.174
▁kiitis	-11.174
▁raamides	-11.174
▁välisriigi	-11.1742
▁Soo	-11.175
▁üleandmise	-11.1755
▁Vastu	-11.1755
▁maksame	-11.1755
▁elukoha	-11.1757
▁loetakse	-11.177
▁kujutada	-11.1777
koefitsient	-11.1779
▁eluaseme	-11.1779
▁korraldama	-11.1783
▁kirjeldatud	-11.1784
▁leidmise	-11.1784
▁tõstma	-11.1786
▁Laaneti	-11.1791
▁perearstide	-11.1792
▁liig	-11.1797
täit	-11.1799
▁kuulasin	-11.18
▁päevadel	-11.1805
▁kurva	-11.1815
▁mõistuse	-11.182
▁liberaalse	-11.1822
hoidu	-11.1823
instituudi	-11.1826
▁efektiivne	-11.1826
▁päritolu	-11.1826
▁vastuollu	-11.1826
▁Kutse	-11.1827
▁sünnib	-11.1827
▁saadetakse	-11.1827
▁loetle	-11.1828
▁reaktsioon	-11.1829
▁meeldiv	-11.1832
▁luu	-11.1837
Andre	-11.1841
▁parandamise	-11.1844
▁seisavad	-11.1848
▁sätete	-11.1849
▁panustab	-11.1857
▁paratamatu	-11.1857
▁plaanitud	-11.1863
▁maksusüsteem	-11.1869
▁Oviir	-11.1874
▁Holland	-11.1874
▁valitseb	-11.1875
▁Meelis	-11.1876
▁tugiteenuste	-11.1876
▁klient	-11.1876
▁väidetavalt	-11.1876
▁ringkonna	-11.1876
▁tuvastada	-11.188
▁nimistu	-11.188
liin	-11.1894
▁täitmine	-11.1898
▁jõustumist	-11.19
muutus	-11.1909
▁päästja	-11.1909
▁loeb	-11.1912
▁suurendamiseks	-11.1912
▁jõuti	-11.1917
▁palutud	-11.192
ünni	-11.192
▁Peipsi	-11.1922
▁rahvahääletuse	-11.1922
▁võidakse	-11.1923
eerib	-11.1923
▁Teatud	-11.1923
▁korraldab	-11.1923
▁voliniku	-11.1923
▁teatri	-11.1929
▁kauplus	-11.1933
▁Nool	-11.1935
▁hüve	-11.1935
▁uuendus	-11.1938
▁palgafondi	-11.194
olukord	-11.1948
kontroll	-11.1948
▁piirkondade	-11.195
stsenaarium	-11.1958
liigi	-11.1958
▁rahastatakse	-11.1963
▁välistatud	-11.197
ekspertiisi	-11.1971
▁Repinski	-11.1971
▁advokaadi	-11.1971
▁Mihkelson	-11.1971
▁Viimane	-11.1971
▁protokoll	-11.1971
▁jääme	-11.1972
▁samasugust	-11.1977
▁võidab	-11.1983
▁kaasneva	-11.1983
▁muudame	-11.1983
tähe	-11.1991
▁sõida	-11.1992
ärme	-11.1998
▁dialoogi	-11.1999
▁tööjõumaksude	-11.2001
Kadri	-11.2003
eldakse	-11.2007
▁klientide	-11.2018
▁formuleeri	-11.2019
▁ostmise	-11.2019
▁rakendama	-11.2019
▁aktiivne	-11.2021
▁hinnatud	-11.2028
▁valgusta	-11.2029
protsess	-11.2038
▁lahendab	-11.2048
tehnoloogia	-11.2052
Jaanus	-11.2052
tavus	-11.2056
▁Enam	-11.2059
▁Järelevalve	-11.2068
▁Siinkohal	-11.2068
▁andsite	-11.2068
▁sotside	-11.2068
▁Infotund	-11.2068
▁lahke	-11.2068
▁elatisabi	-11.2069
▁ajalehe	-11.2069
kindlustusameti	-11.207
▁ühisosa	-11.2073
▁kandideerida	-11.2074
▁11. 	-11.2075
▁politseinike	-11.2075
▁vaatavad	-11.2076
▁kaug	-11.2079
▁kogemuste	-11.2081
▁kehvema	-11.2081
eelmise	-11.2082
kätt	-11.2085
▁koondu	-11.2085
▁osalema	-11.2088
▁Erakond	-11.2089
▁kaotamise	-11.2093
mõtte	-11.21
▁jõulise	-11.21
▁kutsehariduse	-11.2105
Ettekandjale	-11.2108
▁kontakt	-11.2109
▁debateeri	-11.2117
▁üliõpilaste	-11.2117
▁suudeta	-11.2117
▁liha	-11.2117
▁soodustada	-11.2119
▁pakume	-11.212
▁aadressi	-11.2121
▁sündmuste	-11.2122
▁elektroonilis	-11.2124
▁astuma	-11.2125
▁kaheksanda	-11.2127
▁rajamise	-11.2128
▁vähendama	-11.2129
▁töökoormus	-11.2129
▁Sõna	-11.2132
IE	-11.2135
▁põnev	-11.2137
▁liituda	-11.2147
koosseisu	-11.2151
▁täitmata	-11.216
▁naaber	-11.2165
▁põlvkonna	-11.2166
▁trassi	-11.2166
▁Siia	-11.2166
▁üksikute	-11.2167
▁majutus	-11.2168
▁õnneliku	-11.217
▁paralleelselt	-11.2171
▁1,3	-11.2173
▁sünnitus	-11.2177
▁ettevalmistuse	-11.2179
▁tõendi	-11.218
▁varjatud	-11.2181
▁tagajärjed	-11.2186
▁paindlik	-11.2188
ülesande	-11.22
dokumendi	-11.2201
▁kompenseerimise	-11.2207
▁reguleerima	-11.2209
aomavalitsuste	-11.2216
▁pidurda	-11.2216
▁Alates	-11.2216
mootor	-11.2216
▁kinnisasja	-11.2218
▁lõppemise	-11.2228
▁Vana	-11.2228
▁kodanikke	-11.2229
▁peaspetsialist	-11.223
▁198	-11.223
▁viimati	-11.2236
▁moodus	-11.2242
▁jõutakse	-11.225
▁langetamine	-11.2251
▁seab	-11.2254
▁loonud	-11.2257
▁terviklikku	-11.226
▁istungitel	-11.2262
▁Lepingu	-11.2265
▁Kümne	-11.2265
▁väidate	-11.2265
▁suutma	-11.2267
▁hindamis	-11.2268
tootmise	-11.2269
▁ründa	-11.227
▁Käi	-11.2272
▁ehituse	-11.228
▁jumal	-11.229
▁arutatava	-11.2292
▁põhiseaduslik	-11.2298
▁Piirivalveamet	-11.2299
▁prioriteedi	-11.2299
▁Kolleegid	-11.23
▁sõbra	-11.2301
▁põhiküsimus	-11.2307
▁Haigla	-11.2315
▁Vaarmann	-11.2315
▁vastuvõetud	-11.2315
▁leidsime	-11.2315
▁ametkonna	-11.2315
▁murelikuks	-11.2315
▁andmist	-11.2316
▁tanki	-11.2318
eurose	-11.232
▁75%	-11.2321
▁90%	-11.2322
▁eriarsti	-11.2327
▁mikrofon	-11.233
valmidus	-11.2333
▁kasutusel	-11.2335
planeering	-11.2336
▁maksutõusu	-11.234
▁planeerida	-11.2341
▁suurepärase	-11.2351
▁terviku	-11.2351
▁möödu	-11.2353
▁kasvaks	-11.2356
▁esineb	-11.2356
▁veeseaduse	-11.2362
maailma	-11.2364
agentuur	-11.2366
▁bürokraatlik	-11.2366
▁repliigi	-11.2366
▁spetsiifilise	-11.2366
▁Tavaliselt	-11.2366
▁jättis	-11.2366
▁haara	-11.2367
▁seina	-11.2368
▁kaovad	-11.2369
päraselt	-11.2377
▁kuidagimoodi	-11.2378
▁saavutamiseks	-11.2381
lõivuseaduse	-11.2381
▁õigusruumi	-11.2386
▁kohelda	-11.2388
▁vastamata	-11.2389
lõivu	-11.2393
▁palgatõus	-11.2394
▁Nimeta	-11.2397
▁korrektse	-11.2399
▁jälitus	-11.2402
▁86	-11.2404
Hasartmängumaksu	-11.2416
▁siinkõneleja	-11.2416
▁Inimene	-11.2416
▁Hanso	-11.2416
▁2021	-11.2416
täienduskoolitus	-11.242
tunne	-11.2422
▁juhtkonna	-11.2423
▁lobi	-11.2425
▁ametlikult	-11.2432
▁püüavad	-11.2433
irektor	-11.2438
▁põhjendada	-11.2439
▁alandamise	-11.2449
▁kujundamisel	-11.2462
▁valitakse	-11.2463
piirkond	-11.2465
▁farm	-11.2466
Urbo	-11.2467
▁Laaneots	-11.2467
▁Mälberg	-11.2467
▁artikkel	-11.2467
▁halvenda	-11.2467
▁tasandusfondi	-11.2467
▁viidanud	-11.2467
▁roo	-11.2468
▁volituste	-11.2468
▁põhiseadusvasta	-11.2468
ktsioon	-11.2469
▁esitavad	-11.2469
▁pärand	-11.2469
▁Ikka	-11.2472
▁toitu	-11.2477
tehingu	-11.2478
▁püüdsin	-11.2479
▁toru	-11.2482
oodetavasti	-11.2489
mehhanism	-11.2489
▁füüsilis	-11.2492
▁märku	-11.2492
▁pinnalt	-11.2494
▁selgitusi	-11.2505
erakondade	-11.2511
▁pakutava	-11.2514
häälteenamus	-11.2517
instrument	-11.2518
▁kipub	-11.2518
▁puudujäägi	-11.2518
palka	-11.2518
▁suhteid	-11.2519
valgus	-11.2519
▁andmekogu	-11.252
▁sõltuvalt	-11.2521
▁tegevusloa	-11.2521
▁kinnipidamis	-11.2524
▁tabel	-11.2525
▁efektiivselt	-11.2525
▁maavara	-11.2527
▁kaevandamis	-11.2528
▁pideva	-11.253
▁elav	-11.2534
▁volikogude	-11.2542
▁konteksti	-11.2544
pinda	-11.255
meetmete	-11.2559
▁motiveerida	-11.2562
▁käitunud	-11.2562
pargi	-11.2564
▁planeerimise	-11.2564
▁soodus	-11.2566
▁halda	-11.2566
▁250	-11.2567
▁hamba	-11.2569
Täpse	-11.2569
sfääri	-11.2569
▁hotelli	-11.2569
▁immigratsiooni	-11.2569
▁integreeri	-11.2569
▁päästekomando	-11.2569
▁Ausalt	-11.2569
▁võltsi	-11.2569
▁Lapse	-11.257
▁2004.	-11.257
▁kaugemal	-11.2572
▁küsitav	-11.2574
▁Koostöö	-11.2575
▁Kõnealu	-11.2576
▁kiirenda	-11.2577
▁juhtima	-11.2577
▁unustada	-11.2578
▁lõpetamist	-11.2579
▁lisaküsimus	-11.258
▁eraõiguslik	-11.2581
▁loeme	-11.2584
▁Kolmanda	-11.2585
olukorra	-11.2585
▁helista	-11.259
▁alustanud	-11.2592
▁valusa	-11.2593
▁vastuvõtmine	-11.26
▁suvi	-11.261
Igor	-11.261
▁Aasa	-11.2617
portfell	-11.2621
▁Jõhvi	-11.2621
▁circa	-11.2621
▁Postimehe	-11.2621
▁talituse	-11.2621
▁tsiteerin	-11.2623
▁peeti	-11.2627
▁70%	-11.2627
▁õpivad	-11.2643
Sotsiaalkomisjon	-11.2644
▁seisnud	-11.2648
▁puutunud	-11.2652
▁seadusandlik	-11.2662
psu	-11.2663
kapital	-11.267
▁näitama	-11.267
▁alandada	-11.2672
▁küün	-11.2673
▁poolteise	-11.2673
rahandusministri	-11.2674
▁keskkonnamõju	-11.2676
▁noorema	-11.2676
▁kehtestanud	-11.2677
▁meelita	-11.2677
▁vähendatakse	-11.2678
▁maksukorralduse	-11.2679
▁seadme	-11.2699
▁kaitsevõime	-11.2706
▁rakendub	-11.2716
▁illegaalse	-11.272
▁direktor	-11.2723
▁Riigikantselei	-11.2725
▁aktuaalne	-11.2725
▁defitsiit	-11.2725
▁pahatahtlik	-11.2725
▁Kross	-11.2725
▁pühenda	-11.2725
▁kaugeltki	-11.2725
▁põhjalikku	-11.2728
▁Võrumaa	-11.2733
▁arusaamise	-11.2739
▁täpsustava	-11.2745
▁rahvasaadik	-11.2755
▁juhtuma	-11.2755
▁detailselt	-11.2755
▁üksteist	-11.2755
▁riigipiiri	-11.2757
kriis	-11.2764
▁jõustuma	-11.2768
▁193	-11.2769
▁nominaalse	-11.277
▁liitumise	-11.277
rts	-11.2775
▁kaasettekande	-11.2777
▁Alender	-11.2777
▁ratsionaalse	-11.2777
▁eelkäija	-11.2777
▁läheneda	-11.2778
▁Statistikaameti	-11.2778
▁lühiajalis	-11.2778
pensionisüsteemi	-11.2779
asju	-11.2779
unapuu	-11.278
▁seltsi	-11.2784
saadik	-11.2789
▁võimaldavad	-11.2796
▁olulisemad	-11.2798
õiguslikku	-11.28
võimsus	-11.2803
▁lõigu	-11.2804
▁tuttava	-11.2805
▁registreerimise	-11.2815
Vabandust	-11.2822
▁Lõ	-11.2826
▁kohatu	-11.2827
▁alampalga	-11.283
▁mineviku	-11.283
▁ääremaa	-11.283
▁ideoloogia	-11.283
▁pisike	-11.283
▁arvestamise	-11.283
▁valve	-11.283
▁kriminaalasja	-11.283
▁võlakirju	-11.2831
▁puhkuse	-11.2831
▁teadlased	-11.2836
müük	-11.2838
haldus	-11.2838
▁keskel	-11.284
▁lühema	-11.2842
▁maksumäära	-11.2844
▁patsient	-11.285
▁initsiatiiv	-11.2866
▁kehtestab	-11.287
▁3000	-11.2871
▁baasil	-11.2872
Praegu	-11.2875
öödunud	-11.2882
▁humanitaar	-11.2883
raktsiooni	-11.2884
▁panustanud	-11.2884
päi	-11.2885
▁kehtestamine	-11.2887
▁lugesite	-11.2889
▁külalised	-11.2891
▁kindlust	-11.2893
turism	-11.2897
▁hindade	-11.2899
▁nõuavad	-11.2905
▁paranenud	-11.2911
▁ohtliku	-11.2913
▁trendi	-11.2914
▁võitja	-11.2916
▁kokkulepete	-11.292
märtsi	-11.2929
pöörd	-11.2933
▁spekuleeri	-11.2936
▁kahetsusväärne	-11.2936
▁kukkunud	-11.2936
▁spetsiaal	-11.2936
▁leidsid	-11.2936
▁kingitus	-11.2936
▁Varem	-11.2936
▁esitle	-11.2937
▁märksõna	-11.2937
▁teavitus	-11.2937
▁President	-11.2939
▁ülempiir	-11.2939
▁põhjendamatu	-11.294
▁hirmuta	-11.2944
▁lahendatakse	-11.2945
▁Kur	-11.2953
▁maksustada	-11.2956
oskus	-11.2963
▁mõistus	-11.2973
▁kiirem	-11.2974
pilgu	-11.2978
▁lenda	-11.2982
parandus	-11.2983
▁vastanda	-11.2989
▁Jällegi	-11.2989
▁ebaõiglus	-11.2989
▁Liibanoni	-11.2989
▁etteheite	-11.2989
▁moraalse	-11.2989
▁ettekujutus	-11.2989
tööde	-11.299
▁juhtimine	-11.299
▁tõlgi	-11.299
▁katteks	-11.2992
▁käsitletakse	-11.3003
▁abinõu	-11.3006
▁õlu	-11.3013
norm	-11.3013
▁prokuröri	-11.3017
▁täidavad	-11.3025
objekti	-11.3029
teadlikkus	-11.3032
▁majanduslikku	-11.3038
▁vir	-11.3038
nimõiguste	-11.3043
▁SKAIS	-11.3043
▁läbipaistev	-11.3043
▁peaasjalikult	-11.3043
▁põhimõttelist	-11.3045
▁sõnavõttude	-11.3047
seadmete	-11.3048
▁tuld	-11.3052
▁kokkuhoiu	-11.3057
▁haridusministri	-11.3066
▁Eelmine	-11.307
▁Paar	-11.3079
▁absoluutse	-11.3087
Teiseks	-11.3092
paketi	-11.3092
Tartu	-11.3092
üritus	-11.3096
▁lammuta	-11.3097
▁pikaajalist	-11.3097
▁realistlik	-11.3098
surma	-11.31
▁miljoneid	-11.31
▁toetusrühma	-11.3101
▁Arvan	-11.3102
▁numbrite	-11.3106
▁siduv	-11.3108
▁võrdsusta	-11.3115
▁vähenema	-11.3137
▁soodustuse	-11.3138
▁hambaravi	-11.3145
▁arutades	-11.3149
▁Olukord	-11.3151
▁markeeri	-11.3151
▁kodulehel	-11.3151
▁Natuke	-11.3151
▁seltskond	-11.3152
▁tollal	-11.3152
▁eriarstiabi	-11.3153
▁efekti	-11.3153
▁valituks	-11.3154
▁vastuvõtu	-11.3155
▁teistsugust	-11.3155
▁pühendu	-11.3157
▁tähelepanek	-11.3157
▁piirmäära	-11.3158
▁tervitatav	-11.3162
andmed	-11.3166
▁kooskõlastus	-11.3171
▁lihtsustatud	-11.3175
▁halvem	-11.3179
▁riigiasutus	-11.318
▁sügav	-11.3186
organisatsioon	-11.3189
▁märgata	-11.3189
▁vabanda	-11.3203
preemia	-11.3206
▁PRIA	-11.3206
▁tõstetud	-11.3206
koridori	-11.3206
valimised	-11.3206
▁Tänu	-11.3206
▁Andrei	-11.3207
▁õpilasi	-11.321
▁möönan	-11.321
▁graafiku	-11.3212
▁Padar	-11.3213
▁kaitseministri	-11.3216
▁ambitsioonika	-11.3221
▁kahtlusta	-11.3226
▁tegude	-11.3231
▁liiklusseaduse	-11.3232
▁valitsusliidu	-11.3233
▁ainukene	-11.324
relv	-11.324
▁armas	-11.3253
Arno	-11.3258
Auväärt	-11.3258
▁Päevakord	-11.3261
▁säärane	-11.3261
▁Sõtnik	-11.3261
▁põhiõiguste	-11.3261
▁esmatasandi	-11.3262
▁veerand	-11.3264
vabastus	-11.3265
▁planeeringu	-11.3269
▁võrgutasu	-11.327
▁ametnikke	-11.3273
▁vabariigi	-11.3275
▁perspektiiv	-11.3278
▁tulenev	-11.328
▁võrdleme	-11.3284
▁SA	-11.3288
▁sobiv	-11.3297
▁tõusis	-11.33
▁meeskond	-11.331
emokraatlik	-11.3313
läbirääkimiste	-11.3314
▁Parlament	-11.3316
▁stabiilse	-11.3316
▁veterinaar	-11.3316
▁rikkumist	-11.3316
▁õieti	-11.3316
▁Kõiv	-11.3316
▁Linde	-11.3316
▁tarbeks	-11.3317
▁liigse	-11.3318
▁rikkus	-11.3319
▁turuosa	-11.3322
paika	-11.3323
▁maksustamine	-11.3326
▁arusaamist	-11.3334
toimi	-11.3337
ulenevalt	-11.3341
▁rikutud	-11.3342
▁piirkondlik	-11.3351
▁öko	-11.3363
▁kaevanda	-11.3366
▁varusta	-11.3366
reserv	-11.337
▁Kinnisvara	-11.3372
▁dividende	-11.3372
▁kümneminutilist	-11.3372
▁optimeeri	-11.3372
▁leebe	-11.3372
▁tõlke	-11.3372
▁sõiduauto	-11.3373
▁võrdlemisi	-11.3373
▁kättesaadavaks	-11.3374
võimeline	-11.3374
▁Täpsusta	-11.3382
▁kehtivus	-11.3383
▁makstava	-11.3402
▁kuuleme	-11.3403
▁ammendava	-11.3411
▁miinimumpalk	-11.3413
▁jumala	-11.3414
▁Muidu	-11.3415
▁Istung	-11.342
▁muutused	-11.3423
stabiilsus	-11.3425
transpordi	-11.3425
▁Väino	-11.3428
▁suitsu	-11.3428
▁pensionifondide	-11.3431
▁tagajärgede	-11.3432
▁kontakti	-11.3436
▁täieliku	-11.3445
▁menetleja	-11.3445
▁Bre	-11.3459
▁võrdsus	-11.3467
kaaslaste	-11.3479
argument	-11.3482
esindaja	-11.3483
▁tehnilisi	-11.3484
▁nutika	-11.3484
▁Krimmi	-11.3484
▁vastastikuse	-11.3484
▁hukku	-11.3484
▁läbivaatamise	-11.3484
▁lahene	-11.3485
▁Nõu	-11.3485
▁OÜ	-11.3486
eerinud	-11.3488
▁vastavuse	-11.3489
▁tulubaas	-11.3493
▁tervikliku	-11.3495
▁kahepoolse	-11.35
▁kaudselt	-11.35
relva	-11.3502
▁teadusministri	-11.3503
kohus	-11.351
▁sõnastatud	-11.3511
▁õppejõud	-11.3518
liikide	-11.3521
▁põhjuseid	-11.3522
▁kallima	-11.3523
▁elanikke	-11.354
▁remondi	-11.354
▁Teataja	-11.354
▁Tiina	-11.354
▁hallata	-11.3541
häire	-11.3541
▁turgude	-11.3554
▁krediidiasutus	-11.3557
▁kohtumenetluse	-11.3557
▁kümnenda	-11.3566
deklaratsioon	-11.3573
▁ilmselge	-11.358
▁optimaalne	-11.3597
▁laudadel	-11.3597
aprilli	-11.3598
▁0,2	-11.3599
normi	-11.36
▁juhata	-11.3601
▁Ilma	-11.3602
▁hädaolukorra	-11.3604
▁kompleksse	-11.361
▁kerkinud	-11.3619
▁õnnetu	-11.3624
▁Vastava	-11.3627
▁nimetamise	-11.3637
ammu	-11.3645
kontseptsioon	-11.3651
▁Jõgeva	-11.3654
▁Teisisõnu	-11.3654
▁minnes	-11.3654
▁pälvi	-11.3654
▁säärase	-11.3654
▁juurdepääsu	-11.3654
▁magustatud	-11.3654
▁Välja	-11.3654
▁vältel	-11.3654
haaval	-11.3655
▁õppelaenu	-11.3657
▁haldamise	-11.3659
▁lisavahendeid	-11.3659
▁üheksanda	-11.3661
partei	-11.3664
▁Küsiti	-11.3672
▁helistab	-11.3678
▁SE	-11.3681
▁soovituse	-11.3694
▁sümpaatne	-11.3712
▁aastakümneid	-11.3712
▁ebamugav	-11.3712
▁teadvusta	-11.3712
▁käitumis	-11.3713
▁sünnijärgse	-11.3713
kütteõli	-11.3714
▁järjekorda	-11.3717
▁Posti	-11.3718
▁terav	-11.3723
▁ühiskondliku	-11.3732
▁täiendatakse	-11.3733
▁pensionärid	-11.3739
▁rumal	-11.374
▁kinnitavad	-11.3748
tegemise	-11.3754
▁võõranda	-11.376
▁ebameeldiv	-11.377
ISA	-11.377
▁erimärgistatu	-11.377
▁suletud	-11.377
▁elektrienergia	-11.3771
▁Toompea	-11.3771
▁miinimumpalga	-11.3771
▁traditsioonilis	-11.3774
▁toetaja	-11.3777
▁märg	-11.378
võimalused	-11.3787
▁asendusliikme	-11.3794
▁erineb	-11.3795
▁tutvunud	-11.3796
▁otsustatakse	-11.3797
▁seotu	-11.38
▁külma	-11.381
kvalifitseeritud	-11.3814
▁Info	-11.3817
▁maksuamet	-11.3819
▁tasuvus	-11.3822
ungi	-11.3823
▁algatamise	-11.3826
▁sissejuhatava	-11.3828
▁personaal	-11.3828
▁repliik	-11.3828
▁riigikassa	-11.3828
▁tõmbekeskus	-11.3828
▁volitused	-11.3829
▁peatüki	-11.3833
pudeli	-11.3834
haigus	-11.3835
▁soodsama	-11.3839
▁standard	-11.386
▁lahkumise	-11.3863
▁ääres	-11.3877
▁tagasihoidliku	-11.3879
▁lülitada	-11.3886
▁tulles	-11.3886
▁raiska	-11.3886
▁Sepp	-11.3886
▁rahakoti	-11.3887
▁kohtlemine	-11.3887
▁korraldamine	-11.3887
▁migratsiooni	-11.3887
▁funktsioone	-11.3888
põhimõtte	-11.3889
pakett	-11.3892
▁ammendatud	-11.3895
▁hinnanguliselt	-11.3898
▁valdav	-11.3904
▁ulatuslik	-11.3906
▁automaat	-11.3909
▁osutunud	-11.3921
▁õigusriik	-11.3937
▁päästa	-11.3937
▁kinnitust	-11.3938
▁õpetamise	-11.3939
▁ERR	-11.3945
▁Ungari	-11.3945
▁asetäitja	-11.3945
▁Lätti	-11.3945
▁sanktsioone	-11.3945
▁lõpetuseks	-11.3945
▁saadeti	-11.3947
▁Kuhu	-11.395
▁lepe	-11.3951
▁harva	-11.3951
saamise	-11.3952
▁avaldamise	-11.3952
▁stsenaariumi	-11.396
▁lisatasu	-11.3965
▁sõnastada	-11.3976
panek	-11.3984
▁Elektri	-11.4004
▁advokaat	-11.4004
▁pelgalt	-11.4004
▁pretsedendi	-11.4004
▁Silla	-11.4004
▁sõduri	-11.4004
▁Sulling	-11.4004
▁järeldada	-11.4004
▁tõstnud	-11.4005
▁tavapärane	-11.4007
▁Nord	-11.4008
▁hilis	-11.4012
▁juhtkond	-11.4022
▁põhjendused	-11.4026
▁ilmunud	-11.4034
▁antava	-11.4041
tellimus	-11.4043
täpsus	-11.4054
▁ammendumiseni	-11.4064
▁ebaõiglane	-11.4064
▁valimislubadus	-11.4064
▁abivajaja	-11.4064
▁mitmesugused	-11.4064
▁pakkumine	-11.4064
▁teavet	-11.4064
▁kehv	-11.4065
▁omandireformi	-11.4065
▁koolitoidu	-11.4065
Kolleeg	-11.407
Mailis	-11.407
▁põhikirja	-11.4077
▁katke	-11.4079
▁14%	-11.408
▁mineku	-11.408
emokraatia	-11.4082
▁kultuuritöötaja	-11.4083
▁arvutused	-11.4084
risk	-11.4119
▁Parlamentaarse	-11.4124
▁Täiesti	-11.4124
▁moraali	-11.4124
▁ainsa	-11.4124
▁tõsteti	-11.4124
▁ettekirjutus	-11.4124
▁elatisraha	-11.4125
▁riigihanke	-11.4131
loomade	-11.4133
kaaslane	-11.4142
▁ajalooline	-11.4152
▁tähelepaneku	-11.4178
▁lähitulevikus	-11.4184
▁vaatevinklist	-11.4184
▁võlakirjade	-11.4184
▁hakatud	-11.4184
▁andmebaasi	-11.4184
▁seakasvatus	-11.4185
▁stipendiumi	-11.4192
▁Vähe	-11.4193
▁eetilis	-11.4193
▁Võimalik	-11.4194
▁tõstatanud	-11.4209
status	-11.4215
vooru	-11.422
▁pidasin	-11.4231
▁politseiniku	-11.4233
▁Saksa	-11.4243
▁Uskuge	-11.4244
▁atraktiivse	-11.4244
▁hõiva	-11.4244
▁komando	-11.4244
▁arutleda	-11.4244
▁Purga	-11.4245
▁piiriületus	-11.4245
▁idapiiri	-11.4245
▁Tanel	-11.4246
▁tuntav	-11.4248
▁õppetoetuste	-11.4251
▁maksupoliitilis	-11.4256
suund	-11.4261
▁tööjõudu	-11.4267
sisaldus	-11.4271
▁kummalis	-11.428
probleemide	-11.4283
ringkondade	-11.4287
direktiivi	-11.4294
▁levita	-11.4296
▁ulatusliku	-11.4299
▁hüvitamise	-11.4299
▁demagoog	-11.4305
▁tsentraliseeri	-11.4305
Atlandi	-11.4305
▁arhiivi	-11.4305
▁solidaarse	-11.4305
▁katuseraha	-11.4306
▁Kohus	-11.4306
▁Lähtu	-11.4306
▁Kusjuures	-11.4306
▁hilisema	-11.4306
▁tähtpäev	-11.4311
sääst	-11.4315
jaotus	-11.4321
jutt	-11.4341
valdkondade	-11.4346
võlg	-11.436
▁regulaar	-11.4364
▁keemia	-11.4367
▁lisandväärtust	-11.4367
▁proviisor	-11.4367
▁skandaal	-11.4367
▁heita	-11.4367
▁element	-11.4367
põhisus	-11.4367
▁tõstmist	-11.4367
▁saavutus	-11.4368
▁ametkondade	-11.4368
▁punase	-11.4369
▁sihtrühma	-11.4369
▁tagasimakse	-11.4372
▁hiljemalt	-11.4377
▁tugevasti	-11.4378
Kuidas	-11.4378
▁kaalutlusõigus	-11.438
▁usk	-11.4381
▁viidi	-11.4382
▁194	-11.4386
▁rõhutasin	-11.4388
▁maksustatud	-11.4388
salves	-11.4422
argumendi	-11.4428
▁hoitakse	-11.4428
▁nüansi	-11.4428
▁vedelkütuse	-11.4428
▁ühemõtteliselt	-11.4428
▁vaikselt	-11.4428
▁Pariisi	-11.4428
▁praktilist	-11.4428
▁õigusemõistmise	-11.4429
▁struktuurne	-11.4429
▁kaugusel	-11.4429
▁lõimumis	-11.443
▁vahi	-11.443
▁Paul	-11.4449
▁ühtlase	-11.4472
▁patrull	-11.4491
▁ümbriku	-11.4491
brigaad	-11.4491
▁terrorismi	-11.4491
▁Trei	-11.4491
▁Lähi	-11.4491
▁külje	-11.4493
▁elektriarve	-11.4494
▁olulisemaid	-11.4498
Kalev	-11.4502
▁asjakohase	-11.4503
▁kvartalis	-11.4503
▁võõrkeel	-11.4514
▁lõpliku	-11.4539
Tervis	-11.4553
▁Rakvere	-11.4553
▁baseeru	-11.4553
▁kitsenda	-11.4553
▁Tihti	-11.4553
▁Küti	-11.4553
▁erakorralist	-11.4553
Enn	-11.4554
▁materjale	-11.4554
▁eksperte	-11.4554
▁Kert	-11.4554
eeritakse	-11.4565
▁ametliku	-11.4571
teadlase	-11.4579
ettevõtlus	-11.4599
▁allikas	-11.4604
▁mineva	-11.4609
▁odav	-11.4611
▁ohjelda	-11.4616
▁Rüütli	-11.4616
▁siseturvalisuse	-11.4616
▁kukkus	-11.4616
▁ostetakse	-11.4616
eelnõu	-11.4616
▁maksumuudatuste	-11.4616
▁autoriteet	-11.4617
▁korraldatakse	-11.4617
▁igapäevast	-11.4617
▁Klaas	-11.4617
▁sotsiaalmeedia	-11.4618
▁Ivari	-11.4629
protseduur	-11.4631
äärse	-11.4636
▁juhtiva	-11.4641
▁Estonia	-11.4665
▁väliskaubandus	-11.4665
tingimusi	-11.4671
▁ülla	-11.4678
▁Lubage	-11.4679
▁ruutmeetri	-11.4679
▁formaat	-11.4679
▁märganud	-11.4679
▁killu	-11.468
▁liiguta	-11.468
▁hoolega	-11.4681
▁tsiviilkohtu	-11.4681
anske	-11.4681
▁otsustusõigus	-11.4683
▁üksmeelselt	-11.4685
▁täideta	-11.4688
tehnika	-11.4693
kihi	-11.4694
▁pädev	-11.4703
▁kasvava	-11.4706
▁Hiljuti	-11.4743
▁Tamkivi	-11.4743
▁paigalda	-11.4743
▁propageeri	-11.4743
leevendus	-11.4743
▁usaldusväärse	-11.4743
võlaõigusseaduse	-11.4743
▁topeltmaksusta	-11.4743
▁Juhin	-11.4744
▁märgatavalt	-11.4744
▁jookide	-11.4744
▁taandu	-11.4749
Helmen	-11.4758
irektiiv	-11.4763
▁pidev	-11.4772
stikuregistri	-11.478
▁administratiiv	-11.4796
▁ajutine	-11.4807
▁kombeks	-11.4807
▁puhkudel	-11.4807
tariif	-11.4808
▁2006.	-11.4808
▁tungi	-11.4809
laadse	-11.4812
▁lapsevanem	-11.4818
▁keerulisemaks	-11.482
▁kirjandus	-11.4837
voog	-11.4842
moon	-11.4845
▁munitsipaalkool	-11.4857
▁trahv	-11.4862
▁Tulen	-11.4863
konstruktsioon	-11.4872
▁Valgevene	-11.4872
▁elukutse	-11.4872
▁elanikkond	-11.4872
▁Julgeolekunõuko	-11.4872
▁viska	-11.4872
▁käidud	-11.4873
▁2030	-11.4875
▁lärm	-11.4877
▁kindluse	-11.4882
▁lühi	-11.4906
▁viidata	-11.4914
▁fookuses	-11.4917
▁konsolideeri	-11.4937
▁rikkumine	-11.4937
▁visiiditasu	-11.4937
▁Ravimi	-11.4937
▁tsitaat	-11.4937
▁leppima	-11.4937
▁libe	-11.4937
▁põllumehi	-11.4937
▁suudetakse	-11.4937
▁Kanada	-11.4938
▁tootlus	-11.4941
Kultuurikomisjon	-11.4942
▁tõkesta	-11.4943
▁heli	-11.4952
sjagu	-11.4953
aruande	-11.4953
Mida	-11.496
▁Palu	-11.4965
jätmine	-11.4967
▁4000	-11.4969
▁õnnelik	-11.4976
õpetuse	-11.4981
▁vangistus	-11.4986
▁abivahendi	-11.4992
▁sõnavõtusoove	-11.5002
▁Muuseas	-11.5002
▁nendesamade	-11.5002
▁Tiit	-11.5002
▁suvalise	-11.5004
▁kohtumistel	-11.5005
Erki	-11.502
▁jäätmeseaduse	-11.502
eeriva	-11.5045
▁infotunni	-11.5059
▁euroopalik	-11.5068
▁litsents	-11.5068
▁populaarse	-11.5068
▁üpris	-11.5068
▁aktiivsus	-11.5068
▁oodanud	-11.5068
▁samasooliste	-11.5068
▁eestikeelne	-11.5068
▁mitmekesisus	-11.5068
▁filosoofilis	-11.5068
▁Toidu	-11.5068
▁andsin	-11.5068
▁aruandlus	-11.5068
▁regulaarselt	-11.507
▁kohaldamise	-11.5072
▁edasiminek	-11.5073
▁liialt	-11.5074
▁võidavad	-11.5077
taolis	-11.5079
omanikke	-11.5096
▁otsustaja	-11.5103
mõiste	-11.5107
madalapalgaliste	-11.5115
▁argumentide	-11.5117
territoorium	-11.5128
▁Pärnumaa	-11.5132
▁Statistika	-11.5133
▁Moskva	-11.5134
▁kaasettekandja	-11.5134
▁revisjoni	-11.5134
▁opereeri	-11.5134
▁Lember	-11.5134
▁aresti	-11.5134
▁saatkonna	-11.5135
vöönd	-11.5135
▁ametikohtade	-11.514
▁poodi	-11.5152
reguleeri	-11.5153
meetmeid	-11.5154
kokkuleppe	-11.5154
panemise	-11.5156
▁riigilõiv	-11.5156
terminal	-11.5162
▁individuaalse	-11.5163
▁gümnaasium	-11.5176
▁kandu	-11.5188
hääletamissedeli	-11.5201
▁Iirimaa	-11.5201
▁ignoreeri	-11.5201
▁kuritegelik	-11.5201
▁radikaalse	-11.5201
▁rahvusvahelisi	-11.5201
▁delegeeri	-11.5201
▁etteheide	-11.5201
▁indekseeri	-11.5201
▁lähedaste	-11.5201
▁akna	-11.5201
▁vaieldamatult	-11.5202
▁naaberriigi	-11.5202
▁müüakse	-11.5203
väeteenistuse	-11.5222
määruse	-11.523
inspektsioon	-11.5235
säte	-11.5239
konverents	-11.5249
▁põllumees	-11.5251
▁kvartal	-11.5254
▁Austria	-11.5268
▁HIV	-11.5268
▁Veeteed	-11.5268
▁spetsialiseeru	-11.5268
▁ajalukku	-11.5268
▁maagaasi	-11.5268
▁Ülle	-11.5268
▁Kaitseliit	-11.5272
▁jäeti	-11.5272
▁tõsiasja	-11.5274
▁teadete	-11.5275
▁Huvitav	-11.5277
▁nõudma	-11.5277
suutlikkus	-11.5282
vastutus	-11.5287
voolu	-11.5289
▁reformierakondl	-11.5297
▁2010	-11.53
eesti	-11.5308
▁ambitsiooni	-11.5317
tarkvara	-11.5322
▁vanemapensioni	-11.5324
konverentsil	-11.5326
▁tundlik	-11.533
▁administreeri	-11.5335
▁2014–2020	-11.5335
▁aktuaalse	-11.5335
▁stimuleeri	-11.5335
▁elatustase	-11.5335
▁kuritegusid	-11.5336
▁ravimeid	-11.5336
▁Soosaar	-11.5336
▁tahtis	-11.5336
▁umb	-11.5339
▁tublisti	-11.5342
▁uurima	-11.5348
Veel	-11.5349
kandidaadi	-11.5358
▁hinnatõus	-11.5361
ehhi	-11.5364
▁Investeerimis	-11.5403
▁elutähtsa	-11.5403
▁integratsiooni	-11.5403
▁otsekohe	-11.5403
▁strateegilist	-11.5403
▁läbivaatamist	-11.5403
▁siiras	-11.5403
▁tööturuteenuste	-11.5404
▁metsanduse	-11.5406
▁sildista	-11.5406
▁astmelise	-11.5416
arvamus	-11.5423
kvaliteet	-11.5426
käsi	-11.5427
kampaania	-11.5434
Sotsiaal	-11.5437
▁vaenu	-11.5441
▁põhineva	-11.547
Ühendkuningriigi	-11.5472
▁agressiooni	-11.5472
▁sihtotstarbelis	-11.5472
▁koolitoit	-11.5472
▁kuvand	-11.5472
▁võtsin	-11.5472
▁loomingu	-11.5472
▁vaiki	-11.5473
▁kaudse	-11.5474
▁vajaduspõhine	-11.5475
▁Lugupeetavad	-11.5478
▁vin	-11.5495
▁opt	-11.5495
investeering	-11.5496
Tallinna	-11.5496
Loomulikult	-11.5496
Vene	-11.5497
lähedane	-11.5515
▁inimõigus	-11.5516
▁Valimis	-11.5518
▁rumalus	-11.5525
▁mugavam	-11.5528
Näe	-11.553
▁pankrotti	-11.5541
▁õppus	-11.5541
▁põgene	-11.5541
▁klassikalise	-11.5541
▁mandri	-11.5541
▁silmakirjalik	-11.5542
▁kaubalaeva	-11.5542
▁ülejääk	-11.5546
▁otsetoetuste	-11.5547
▁argumenteeri	-11.5574
▁digitaal	-11.5596
▁eelistus	-11.5603
ümnaasium	-11.5609
Kristjan	-11.561
▁Instituudi	-11.561
▁tähelda	-11.561
▁sarnast	-11.561
▁vms	-11.561
▁maaomaniku	-11.5611
▁kõikvõimalikk	-11.5611
kohut	-11.5622
pädevus	-11.5635
audit	-11.5643
▁tuttav	-11.5644
▁diplomaat	-11.567
▁peen	-11.5675
▁õppekeel	-11.5676
▁küpse	-11.568
▁remonti	-11.568
▁säärast	-11.568
▁vihja	-11.568
▁Raudtee	-11.568
▁kutseõppeasutus	-11.568
▁laiapõhjalis	-11.568
▁Ülejäänu	-11.568
▁ametkond	-11.568
▁andsime	-11.568
▁Rahvaerakond	-11.5681
▁kärbi	-11.5681
▁Otsustati	-11.5683
▁keskpanga	-11.5683
▁põgenike	-11.5683
▁Hästi	-11.5683
▁politseiametnik	-11.5711
▁esitatava	-11.5736
tarkus	-11.5739
▁perekonnaseadus	-11.5749
▁ruttu	-11.5751
▁Umbes	-11.5751
▁loodava	-11.5751
▁üleandmine	-11.5751
▁suhelnud	-11.5751
▁lemmik	-11.5751
▁kõikvõimalike	-11.5751
▁unistus	-11.5751
▁vaimse	-11.5751
▁Tekib	-11.5752
▁ülejärgmise	-11.5752
▁sigade	-11.5753
▁kompetentsus	-11.5756
▁tahtlik	-11.5756
▁survesta	-11.5758
(	-11.5779
kett	-11.578
▁lennundus	-11.5781
▁Konservatiiv	-11.5785
▁Läänemaa	-11.5789
▁soodustust	-11.5812
▁Novikov	-11.5821
▁Portugal	-11.5821
▁ebapiisav	-11.5821
▁külmuta	-11.5823
▁välismaalase	-11.5823
▁segamini	-11.5823
risoodustusmaksu	-11.5823
▁erametsa	-11.5824
mitte	-11.5834
▁kohutav	-11.5834
▁0,8	-11.587
hommiku	-11.5892
▁elementaarne	-11.5893
▁heakskiidu	-11.5893
▁külva	-11.5893
▁maailmavaade	-11.5893
▁narkootikum	-11.5893
▁Auto	-11.5894
▁apteekide	-11.5894
▁Karel	-11.5894
▁tagasihoidlik	-11.5901
▁märkisite	-11.5902
valitsusliitude	-11.5905
kanal	-11.5906
laitmatu	-11.5911
▁saatkond	-11.592
Need	-11.5923
mehi	-11.5925
nurga	-11.5927
▁sisaldava	-11.593
püstitus	-11.5931
rvishoiuteenuse	-11.594
enesestmõistetav	-11.5941
▁maksimaalse	-11.5947
▁normitehnilis	-11.5965
▁välisesindus	-11.5965
koefitsiendi	-11.5965
▁bruto	-11.5965
▁televisiooni	-11.5965
Barbi	-11.5965
▁Hannes	-11.5965
▁sahtli	-11.5965
▁turistide	-11.5965
▁Sikkut	-11.5965
▁nupu	-11.5965
▁referendumi	-11.5967
▁sunniraha	-11.5969
▁valdava	-11.6019
▁kohaldata	-11.6036
proportsionaalne	-11.6037
▁Prantsuse	-11.6037
▁rikkunud	-11.6037
▁Kaitsevägi	-11.6037
▁trüki	-11.6037
▁hulgi	-11.6037
▁okei	-11.6037
▁oludes	-11.6037
▁vägisi	-11.6037
▁Andke	-11.6037
▁Kohalike	-11.6038
▁järve	-11.604
rahastus	-11.6054
tagastus	-11.606
Seaduseelnõu	-11.607
▁valitseva	-11.6073
▁vältimatu	-11.6074
▁maksustata	-11.6083
▁0,1	-11.6085
▁pääst	-11.6097
▁Inglismaa	-11.611
▁emotsionaalne	-11.611
▁iseseisev	-11.611
▁Andme	-11.6111
▁vedada	-11.6111
▁uurimus	-11.6111
▁vähi	-11.6112
▁põllumehe	-11.6118
▁tekkiva	-11.6121
karistus	-11.6143
Põhi	-11.6143
Esiteks	-11.6144
▁kvalifikatsioon	-11.6164
positsioon	-11.6168
▁voor	-11.6182
▁manipuleeri	-11.6184
▁Horvaatia	-11.6184
▁Kübarsepa	-11.6184
▁kirjeldus	-11.6184
▁maapõue	-11.6184
▁järgmisi	-11.6184
▁lõbu	-11.6184
▁rahakott	-11.6184
▁eraisikute	-11.6184
sigarettide	-11.6184
Haldus	-11.6186
▁juhuslikult	-11.6186
▁võlgade	-11.6188
▁Riina	-11.619
▁Kahju	-11.6222
Kolmas	-11.6222
kaabli	-11.6249
arvestus	-11.6253
▁Hiljem	-11.6258
▁Pilvre	-11.6258
▁hätta	-11.6258
▁elementaarse	-11.6258
▁sajaprotsendili	-11.6258
▁pindala	-11.6258
▁Sinu	-11.6258
▁Näi	-11.6262
skindlustusmakse	-11.6282
▁rassi	-11.6283
aruanne	-11.6298
kree	-11.6325
stitutsioon	-11.6332
▁nuppu	-11.6332
▁kohtulahend	-11.6333
▁lugupeetav	-11.6333
▁pensionäre	-11.6333
▁vastutustundetu	-11.6333
▁Hinna	-11.6333
▁täpsusega	-11.6333
▁käsutuses	-11.6333
kalkulatsioon	-11.6333
▁homo	-11.6333
▁kurssi	-11.6333
▁kaevandus	-11.6333
▁sujuva	-11.6334
▁mõeldakse	-11.6335
▁kaotus	-11.6337
▁Sadam	-11.6349
promi	-11.6355
▁aktsiisitõus	-11.6366
Tegelikult	-11.6369
▁asukoht	-11.6381
▁kujund	-11.64
▁vabakaubandus	-11.6403
▁Stream	-11.6408
▁optimism	-11.6408
▁tegeldud	-11.6408
▁Esialg	-11.6408
▁erakorraline	-11.6408
▁streigi	-11.6408
▁mõnu	-11.6408
▁Ettevõtlus	-11.6408
▁arusaamine	-11.6412
reeglite	-11.6447
▁ajakirjaniku	-11.647
residendi	-11.6481
revolutsioon	-11.6483
▁Akkermann	-11.6483
▁demograafilise	-11.6483
▁istungisaalis	-11.6483
▁kiidetud	-11.6483
▁mõelge	-11.6483
▁diplom	-11.6484
▁oodatakse	-11.6484
▁jahimeeste	-11.6486
▁vallavanema	-11.6486
▁lõhesta	-11.6489
▁Vaatama	-11.6491
▁proportsioon	-11.6491
põllumajandus	-11.6523
▁seonduv	-11.654
▁majapidamis	-11.6548
vargus	-11.6558
▁ülioluline	-11.656
▁rahulolematu	-11.656
▁subjekt	-11.656
▁Kaubandus	-11.656
▁Viimsi	-11.656
▁väikesaarte	-11.656
▁häma	-11.656
▁Keskpanga	-11.6561
▁kandnud	-11.6562
▁vahva	-11.6563
▁säiliks	-11.6566
hetk	-11.6573
▁universaal	-11.6586
▁Tuleta	-11.6592
▁Harju	-11.6603
ambi	-11.661
▁sanktsiooni	-11.6626
▁RKAS	-11.6637
▁Schengeni	-11.6637
▁olulisus	-11.6637
▁peegelda	-11.6637
▁pretsedent	-11.6637
▁tehnoloogilis	-11.6637
▁nentis	-11.6638
▁ammenda	-11.6648
NR	-11.6671
Rein	-11.6678
istungjärgu	-11.6679
Teie	-11.668
▁nähta	-11.6703
delegatsioon	-11.671
▁Aktsiisi	-11.6714
▁MKM	-11.6714
▁Kosovo	-11.6714
▁Põltsamaa	-11.6714
▁Skandinaavia	-11.6714
▁ingliskeelse	-11.6714
▁rekonstrueeri	-11.6714
▁rahvatervise	-11.6714
▁majutusasutuste	-11.6715
▁uhkus	-11.6716
▁tekkimise	-11.6717
▁kaalutle	-11.6718
elemendi	-11.6723
▁edene	-11.6728
▁veenva	-11.6731
▁1999.	-11.6732
▁heidet	-11.6745
▁Ott	-11.6745
konkurent	-11.6791
▁Rõhutan	-11.6792
▁adekvaatne	-11.6792
▁tahtsid	-11.6792
▁legaalse	-11.6792
edbank	-11.6792
▁doteeri	-11.6792
▁pilguga	-11.6793
▁mõistma	-11.6795
▁kesklinna	-11.6796
Kinni	-11.6806
ettide	-11.6813
▁Ministeerium	-11.682
ahela	-11.6827
▁traditsioon	-11.6856
▁valimisringkond	-11.6858
põgenik	-11.6867
▁Järvamaa	-11.6871
▁keelekümblus	-11.6871
▁lükati	-11.6871
▁subjektiivse	-11.6871
▁immigrantide	-11.6871
▁monopol	-11.6871
▁homse	-11.6871
▁nõrga	-11.6871
▁valimisringkonn	-11.6871
▁Jents	-11.6871
▁üksjagu	-11.6871
▁kokkuvõte	-11.6872
▁leppisime	-11.6872
gümnaasiumi	-11.6895
reeglid	-11.6917
pildi	-11.6919
Poliitik	-11.6943
▁elektro	-11.695
▁kvalifitseeru	-11.695
▁ametivande	-11.6951
▁keskpank	-11.6951
▁ühetaolise	-11.6951
▁Kujuta	-11.6951
▁Arengufondi	-11.6952
▁kelleltki	-11.6952
▁soodustusi	-11.6952
▁korraldas	-11.6975
intress	-11.7021
hisuhtevägivalla	-11.703
▁Siiamaani	-11.703
▁akadeemilise	-11.703
▁logopeed	-11.703
▁staabiohvitseri	-11.703
▁Tulemus	-11.7031
▁metalli	-11.7031
▁Püü	-11.7031
▁Puudu	-11.7032
operatsioonide	-11.7041
alkoholireklaami	-11.7042
▁kartus	-11.7048
▁Igasugu	-11.7052
▁operatsioon	-11.7063
ühiskonna	-11.7064
Heimar	-11.7078
▁hull	-11.7101
▁Linnavolikogu	-11.7111
▁esialgne	-11.7111
▁haamrilööki	-11.7111
▁kaugkütte	-11.7111
▁resolutsioon	-11.7111
▁üldjoontes	-11.7111
▁Rummo	-11.7111
▁eestkõneleja	-11.7111
▁optimaalse	-11.7111
▁taktika	-11.7111
▁abiellu	-11.7111
▁meeleolu	-11.7111
▁püügi	-11.7112
▁Vanema	-11.7112
▁Kumb	-11.7113
▁katastroofi	-11.7114
▁ennist	-11.7117
lehekülg	-11.7129
▁Maanteeamet	-11.7152
▁kasumlik	-11.7155
▁läbirääkimis	-11.7159
tevõtlusminister	-11.7159
Arto	-11.716
regulatsioon	-11.7161
▁Pääste	-11.7192
▁ETV	-11.7192
▁Innove	-11.7192
▁kobarseadus	-11.7192
▁sealhulgas	-11.7192
▁Kremli	-11.7192
▁Jaapani	-11.7192
▁klaari	-11.7192
▁nihku	-11.7192
▁igapäevane	-11.7192
▁tulge	-11.7193
eluvararegistri	-11.7193
▁voodi	-11.7193
▁juuruta	-11.7195
▁magusa	-11.7196
▁efektiivsuse	-11.7198
▁Abi	-11.72
▁külalis	-11.7208
Kuuenda	-11.7229
▁Tööinspektsioon	-11.7231
turvalisus	-11.7242
jandusprognoosi	-11.7242
aktiivse	-11.7245
kultuur	-11.7246
▁kehvem	-11.7261
▁leppis	-11.7274
▁Pikamäe	-11.7274
▁inimarengu	-11.7274
▁ministreid	-11.7274
▁populaarne	-11.7274
▁drastilis	-11.7274
▁mälestus	-11.7274
▁Jürgenstein	-11.7274
▁Noorte	-11.7275
▁omista	-11.7275
kompanii	-11.7276
▁aprill	-11.7294
ustavaks	-11.73
▁struktuurifondi	-11.7324
jäätme	-11.7326
protsendi	-11.7326
investeeringuid	-11.7326
▁Kontroll	-11.7357
▁Mõelge	-11.7357
▁elektrooniline	-11.7357
▁ratsionaalne	-11.7357
▁spekulatsioon	-11.7357
▁transiidi	-11.7357
▁vihje	-11.7357
▁Võrreld	-11.7357
▁piiriülese	-11.7357
▁hiline	-11.7358
▁tubakatoodete	-11.7358
▁raamistiku	-11.7361
▁taguse	-11.7362
▁nominaal	-11.7369
▁võrgustiku	-11.737
▁kaardista	-11.7377
▁uuris	-11.7394
▁välti	-11.7398
variant	-11.7409
▁puutuva	-11.741
periood	-11.7428
▁lubamatu	-11.7435
Protseduuri	-11.744
▁piirivalvur	-11.744
▁Island	-11.744
▁represseeri	-11.744
▁pigista	-11.7441
juriidilis	-11.7459
komponent	-11.7495
Istungi	-11.7495
Kõik	-11.7495
▁projekteerimis	-11.7499
▁Regionaal	-11.7524
▁RES	-11.7524
▁diisli	-11.7524
▁pöördmaksustami	-11.7524
▁PBK	-11.7524
▁uimasti	-11.7524
▁neidsamu	-11.7524
▁pistmist	-11.7524
▁teisalt	-11.7525
▁omandanud	-11.7525
▁sõjapõgenik	-11.7525
ktiivne	-11.7535
▁riigimehelik	-11.7538
▁jälitustoimingu	-11.7548
trend	-11.7568
berg	-11.7575
▁lahend	-11.7575
Helir	-11.758
katastroof	-11.7606
distsipliin	-11.7609
▁Ootame	-11.7609
▁kummitempli	-11.7609
▁pakkumist	-11.7609
▁lehma	-11.7609
▁võtsite	-11.761
▁Muuseum	-11.761
▁sellessamas	-11.761
▁sealiha	-11.761
▁kogumispensioni	-11.7611
▁lükatakse	-11.7611
▁puutumatu	-11.7615
▁kõnelda	-11.7616
ektori	-11.7624
▁salvesta	-11.7627
hanke	-11.7656
mööda	-11.7667
Neljanda	-11.7694
▁identiteedi	-11.7695
▁konstruktiivne	-11.7695
▁mikro	-11.7695
▁strateegiline	-11.7695
▁sümbol	-11.7695
▁teekasutustasu	-11.7695
▁tihumeetri	-11.7695
▁korruta	-11.7695
▁mõõduka	-11.7695
▁praami	-11.7695
▁teerulli	-11.7695
▁sõpru	-11.7695
▁süüteo	-11.7695
oportsionaalselt	-11.7695
▁Kär	-11.7721
tõend	-11.7763
erakonnakaaslane	-11.7779
meditsiin	-11.778
▁intellektuaal	-11.7781
▁Rajaleidja	-11.7781
▁kokkukutsuja	-11.7781
▁tarbijakrediidi	-11.7781
▁traagilis	-11.7781
▁platvormi	-11.7781
▁Edgar	-11.7781
arendustegevusse	-11.7781
▁riigisisest	-11.7782
seadustikku	-11.7795
▁öeldu	-11.7801
▁Kuulat	-11.7817
Eldar	-11.7841
töönädala	-11.7841
kaudu	-11.7842
täie	-11.7866
laskmis	-11.7866
Käesolev	-11.7866
▁Hansson	-11.7868
▁populaarsus	-11.7868
▁rikkuda	-11.7868
▁ostetud	-11.7868
▁Kõrg	-11.7868
▁leibkond	-11.7868
▁võrdu	-11.7881
▁varasta	-11.7886
▁Jumal	-11.7893
kultuuriministri	-11.7948
▁Kangro	-11.7955
▁stabiilne	-11.7955
▁teenusepakkuja	-11.7955
▁ebaõiglase	-11.7955
▁tippkohtumise	-11.7956
▁leidsin	-11.7956
▁Teisalt	-11.7956
▁Hoolimat	-11.7956
▁sellestsamast	-11.7956
▁piirkondi	-11.7956
▁Selgus	-11.7957
▁nõudmise	-11.7971
naalse	-11.7976
▁külm	-11.7981
maailm	-11.8001
Siim	-11.8019
▁lühem	-11.8024
▁märts	-11.8028
langus	-11.8035
▁Praktika	-11.8044
▁konsultatsiooni	-11.8044
▁väärtushinnangu	-11.8044
▁tankla	-11.8044
▁täitemenetluse	-11.8044
portaali	-11.8044
▁esinaine	-11.8044
▁kärpida	-11.8044
▁suundumus	-11.8044
▁korista	-11.8049
▁maitse	-11.8053
värk	-11.8058
Infotunni	-11.8061
klass	-11.8074
Asume	-11.8109
▁Kõne	-11.8125
▁Pensioni	-11.8133
▁igatahes	-11.8133
▁Luksemburg	-11.8133
▁arengusuundade	-11.8133
▁indikatsioon	-11.8133
▁innovaatilis	-11.8133
▁kinnipeetava	-11.8133
▁seltskonna	-11.8133
▁tahtmist	-11.8133
▁rohelist	-11.8133
▁ülemkogu	-11.8133
▁mõistnud	-11.8134
▁teineteise	-11.8134
▁pahameel	-11.8134
▁kõikvõimaliku	-11.8135
Valdo	-11.8189
Aadu	-11.82
olümpiavõitja	-11.8223
▁Kliinikum	-11.8223
▁Veterinaar	-11.8223
▁hüppeliselt	-11.8223
▁peakorteri	-11.8223
▁rikkumisi	-11.8223
▁tööriista	-11.8223
▁kindlustunde	-11.8223
▁sõprade	-11.8223
▁Ainuke	-11.8224
▁säilib	-11.8224
▁Kuuluta	-11.8224
▁otstarbekam	-11.8242
laekumise	-11.8278
▁infotehnoloogi	-11.8282
▁Kuressaare	-11.8314
▁eesotsas	-11.8314
▁ümberkorraldami	-11.8314
▁hoitud	-11.8314
▁Mõte	-11.8314
▁leidmine	-11.8315
▁dollari	-11.8315
▁lõppemist	-11.8315
▁kalluta	-11.8315
kõlastusringil	-11.832
▁Inimese	-11.834
▁Linnavalitsus	-11.8345
▁Nimetat	-11.835
tarbimise	-11.8355
▁Rahvusvaheli	-11.8405
▁KIK	-11.8406
▁Volmer	-11.8406
▁agressiivse	-11.8406
▁eestvedamisel	-11.8406
▁elekter	-11.8406
▁jõuluvana	-11.8406
▁Lillo	-11.8406
▁emiteeri	-11.8406
▁Vahemere	-11.8406
▁osatähtsus	-11.8406
▁jättes	-11.8406
sammult	-11.8406
▁Viiendaks	-11.8406
▁paslik	-11.841
▁analüütiku	-11.8411
ormaalse	-11.8446
võtluskeskkonna	-11.8463
▁saabuva	-11.8476
standardi	-11.8478
▁veendu	-11.8481
▁hää	-11.8488
▁kiireloomulis	-11.8499
▁naeruväärista	-11.8499
▁tüdruku	-11.8499
▁energiajookide	-11.8499
▁identiteet	-11.8499
▁spetsiifiline	-11.8499
▁täidesaatva	-11.8499
▁umbusalda	-11.8499
▁Ühendriigid	-11.8499
▁ooteala	-11.8499
▁Ilves	-11.8499
▁video	-11.8499
▁käitlemise	-11.8499
▁korraldanud	-11.85
▁pärsi	-11.85
▁ahista	-11.8506
▁maksutõus	-11.8547
▁justiits	-11.8563
kuriteo	-11.8572
▁ebapr	-11.8573
▁märgista	-11.8575
▁KOV	-11.8592
▁Töötukassa	-11.8592
▁Moldova	-11.8592
▁kantselei	-11.8592
▁soomlased	-11.8592
▁filosoofia	-11.8592
▁magistri	-11.8592
▁rakkerühm	-11.8592
▁iial	-11.8592
▁loovuta	-11.8593
▁enim	-11.8594
▁põlis	-11.8638
Lauri	-11.8667
samuti	-11.8668
▁psühhiaatri	-11.8686
▁ELAK	-11.8686
▁Helsingi	-11.8686
▁Tihtipeale	-11.8686
▁konfiskeeri	-11.8686
▁tsitaadi	-11.8686
▁tõenäoline	-11.8686
▁visiit	-11.8686
▁luksus	-11.8686
▁maksuhalduri	-11.8687
▁geograafilise	-11.8688
▁Paragrahvi	-11.869
▁hajuta	-11.869
▁lootusetu	-11.8709
▁alkoholitarbimi	-11.8716
väärteomenetluse	-11.8745
Kersti	-11.8764
Rahandusminister	-11.8766
▁elluviimine	-11.8782
▁korrektiiv	-11.8782
▁materiaalse	-11.8782
▁minimaalne	-11.8782
▁pressiteate	-11.8782
▁ranitsatoetus	-11.8782
▁suveräänse	-11.8782
▁Tulevikus	-11.8782
▁Maripuu	-11.8782
▁rakendusaktide	-11.8782
▁versus	-11.8782
▁jalaväe	-11.8782
▁korva	-11.8782
▁Tegelik	-11.8792
▁hasartmängu	-11.8799
▁leita	-11.8809
▁Reaal	-11.8817
▁taanda	-11.8819
▁uskumatu	-11.8822
▁individuaal	-11.8835
sotsiaalministri	-11.8843
poliitilisi	-11.8844
kokkulepe	-11.8861
Võib	-11.8861
▁miljard	-11.8863
objekt	-11.8873
olulise	-11.8874
korruptsioon	-11.8876
▁diferentseeri	-11.8878
▁jalgpalli	-11.8878
▁rahvusooperi	-11.8878
Analüüs	-11.8878
▁domineeri	-11.8878
▁etteteatamise	-11.8878
▁rõhuasetus	-11.8878
▁tahtmise	-11.8878
▁lasknud	-11.8878
▁tänuväärne	-11.8878
▁harjumus	-11.8878
▁sedeli	-11.8878
▁enesemääramis	-11.8878
▁kärbe	-11.8879
▁aastakümnete	-11.8879
▁anneta	-11.8882
▁nõusolek	-11.8951
õpilaste	-11.8958
▁ohvitser	-11.8964
migratsioon	-11.8973
▁Tehnilise	-11.8975
▁maksimaalne	-11.8975
▁nentida	-11.8975
▁maksumuudatused	-11.8975
▁kaebuse	-11.8975
▁Üsna	-11.8975
▁säilimise	-11.8979
omavalitsusjuhid	-11.8982
▁Samasugu	-11.8996
▁poiss	-11.9018
▁maavanem	-11.9023
juhtimise	-11.9039
miljoni	-11.9057
Esimese	-11.9058
Tõepoolest	-11.9058
toidu	-11.9059
meresõiduohutuse	-11.9073
operaatori	-11.9073
▁Tutvustan	-11.9073
▁moraalne	-11.9073
▁halvusta	-11.9073
▁põhialused	-11.9073
▁Maarja	-11.9074
Viienda	-11.9074
▁Toetus	-11.908
ohvitseri	-11.9083
onjunktuuri	-11.9134
hasartmängumaksu	-11.9154
ressursi	-11.9157
▁geograaf	-11.917
Seitsmes	-11.9172
▁Leinatamm	-11.9172
▁Spordi	-11.9172
▁ideoloogilise	-11.9172
▁legaliseeri	-11.9172
▁populistlik	-11.9172
▁rakenduskõrg	-11.9172
▁taasiseseisvumi	-11.9172
▁vaadatuna	-11.9172
▁korrelatsioon	-11.9172
▁kiirkorras	-11.9172
▁kõhklus	-11.9172
▁Alguses	-11.9172
▁kõlba	-11.9172
▁doktorandi	-11.9172
kõlblik	-11.9173
rvishoiutöötaja	-11.9178
▁ülejäänu	-11.9206
vaenulik	-11.9217
nõupidamisel	-11.9219
nädal	-11.9239
▁avaldu	-11.9246
Heljo	-11.9259
▁IKT	-11.9272
▁Keemia	-11.9272
▁Setomaa	-11.9272
▁tervikpilti	-11.9272
▁Üldjuhul	-11.9272
▁broneeri	-11.9272
▁siitsamast	-11.9272
▁buumi	-11.9272
▁tõstis	-11.9273
▁reeglistik	-11.9276
▁igasugu	-11.9298
▁Alkoholi	-11.9346
▁rahusta	-11.9359
number	-11.9361
Algab	-11.9361
Kultuur	-11.9369
▁Edaspidi	-11.9373
▁alltöövõtja	-11.9373
▁diagnoosi	-11.9373
▁praktilisi	-11.9373
▁murra	-11.9373
▁parajast	-11.9375
▁liidri	-11.9378
▁kohvi	-11.9379
ääletamistulemus	-11.9385
põhjus	-11.9463
▁Seletuskir	-11.9473
▁hämmastav	-11.9475
▁politiseeri	-11.9475
▁stiimul	-11.9475
▁treeni	-11.9475
▁Kohtumiseni	-11.9475
▁viipekeel	-11.9475
▁vastavusse	-11.9475
▁Ühtegi	-11.9475
▁nihuta	-11.9475
▁kindlustusselts	-11.9477
▁proteste	-11.9519
väljaanne	-11.9521
garantii	-11.9568
Seadus	-11.9568
akonnakeskustes	-11.957
meedia	-11.9571
▁assotsi	-11.9578
Kriminaal	-11.9578
▁Ehitus	-11.9578
▁hiljaaegu	-11.9578
▁import	-11.9578
instrumendi	-11.9578
▁privaat	-11.9578
▁vaadati	-11.9578
▁Lennu	-11.9578
▁rahvaalgatuse	-11.9578
▁huvigrupid	-11.9578
▁maksuerisus	-11.9578
▁jagamismajandus	-11.9578
▁jätsite	-11.9578
▁ühesugused	-11.9578
pettuste	-11.9593
▁ettevõtlik	-11.96
▁ligipääsetav	-11.9602
▁unista	-11.9603
farmid	-11.9615
temaatika	-11.9634
Täpsus	-11.9663
Hanno	-11.9673
aadress	-11.9674
kompensatsioon	-11.9679
Pealtnägija	-11.9682
▁rehkenda	-11.9682
▁Belgia	-11.9682
▁Päevalehe	-11.9682
▁filosoofiline	-11.9682
▁kriminaliseeri	-11.9682
▁läbimõeldu	-11.9682
▁minevikku	-11.9682
▁subjektiivne	-11.9682
▁Arusaadav	-11.9682
▁toitlustus	-11.9682
▁sinnamaani	-11.9682
▁alampalk	-11.9683
▁naudi	-11.9687
riigivaraseaduse	-11.9688
▁Läbi	-11.9704
▁tõdemus	-11.9712
▁analoogilis	-11.9722
